#version: 0.2 - Trained by `huggingface/tokenizers`
a n
e r
e n
Ġ d
l a
a r
a t
Ġ m
an g
i n
a k
Ġ s
a h
Ġ p
Ġ b
Ġ k
Ġ t
u n
a s
e m
a m
Ġ P
a d
i t
a l
Ġ S
i k
u k
en g
Ġ M
Ġd i
a la
e l
Ġ K
y a
Ġ B
Ġ A
o n
a p
e s
o r
i s
Ġ y
Ġs e
u r
Ġy ang
Ġ T
u s
e t
u t
k an
Ġd an
a i
. .
Ġb er
Ġ D
a g
i d
in g
u m
i a
e k
i l
A N
e la
o l
ad a
Ġ h
Ġk e
Ġm en
u l
i r
ak an
i h
em b
Ġp er
un g
i m
ar i
an d
Ġ (
Ġ j
a b
Ġ R
t uk
Ġ L
a w
Ġ r
e b
Ġ C
Ġt er
Ġ I
ar a
ala m
Ġ 2
Ġ n
Ġ l
Ġ un
Ġ H
t i
o m
a j
in i
e d
Ġ la
at an
Ġun tuk
u d
Ġ c
Ġm eng
eng an
a an
a ya
o t
Ġ 1
Ġ J
e g
e h
i an
en t
r o
â Ģ
Ġ N
g a
u b
0 1
an t
n ya
Ġd engan
am a
u h
e p
u p
Ġ U
at a
Ġ G
ang an
E R
en d
.. .
ala h
la h
o k
as a
o s
Ġ ini
Ġ g
Ġd alam
Ġse b
em p
Ġ F
ol eh
u an
it a
er i
Ġ w
a y
it u
Ġ ak
a c
an a
Ġ E
A H
Ġ -
ĠP er
i b
A R
Ġ ,
Ġ2 01
u la
ik an
p ada
u a
Ġd ari
g i
as i
0 0
Ġm er
id ak
t a
ar an
Ġk er
on g
r i
o h
Ġm emb
am p
Ġ W
or ang
am b
A T
E N
I N
l u
p er
Ġ f
Ġ itu
al an
Ġ .
uk an
Ġt idak
ad i
s i
ah an
Ġ and
i c
Ġp en
Ġm em
u at
Ġp ada
Ġ O
o g
ap a
l e
at i
Ġ ad
Ġak u
t er
s ia
i la
i p
A S
o d
a f
Ġp eng
am i
an ya
Ġs em
Ġse k
it i
ag ai
e c
n d
al i
y ak
in d
ela h
ek a
Ġ Y
A M
h e
k u
Ġke pada
Ġ akan
A L
Ġt ah
a in
ala y
ang k
e j
la m
u c
ela k
Ġ V
s t
Ġand a
ik a
e w
am an
u ar
Ġad alah
ap at
ĠA l
P er
is t
o p
alay sia
Ġm as
Ġj u
Ġ ata
Ġ âĢ
Ġ &
ag i
Ġber k
ĠB er
Ġata u
Ġmen y
ang g
A K
Ġs aya
u j
ap i
i f
ĠT er
Ġmen j
eb ih
g un
Ġ Â
Ġ 3
Ġ oleh
n i
E L
Ġb oleh
Ġ in
an j
an ak
ar u
Ġ :
Ġt ak
E M
at u
a ik
Ġmer eka
a u
ĠM alaysia
Ġ ada
on t
Ġju ga
y ar
an c
us an
im p
ir i
Ġ orang
a z
Ġ ...
Ġtah un
ĠP eng
Ġt elah
um p
AN G
Ġk es
Ġber s
or t
i g
t r
U N
in t
as an
Ġb ah
c h
in a
Ġp em
aj a
o v
r e
ĠK er
Ġ "
m an
Ġk ita
ud ah
Ġp ro
uk a
I S
Ġdi b
Ġ |
er s
Ġk el
u ah
ĠI s
ur an
o w
ul an
ar ah
en ar
Ġl ebih
Ġ Z
la t
et a
i z
ih at
Ġp emb
ĠP en
Ġ201 9
Ġs er
Ġs el
Ġm el
Ġb agi
ut an
Ġseb agai
ang s
ĠI n
Ġdi a
Ġk et
Ġdari pada
Ġ /
ĠS h
eg ara
U R
e o
l i
es t
l og
m a
ing g
I K
o b
aw a
T A
ar ang
d uk
ep as
ub ung
Ġm ak
Ġdi s
y at
Ġn i
j a
Ġd it
O N
ih an
ar t
h id
it s
Ġm emp
ar ga
ek s
Ġ ia
Ġ 4
Ġk ami
um b
9 9
Ġd ik
Ġ 5
an yak
Ġmen d
ĠÂ ·
h ir
E S
Ġla gi
Ġk em
in e
p a
ĠA n
Ġh ari
s an
ing k
um ah
c om
h t
Ġb el
Ġ v
emp at
ĠC h
is i
ap an
Ġs atu
an ita
an an
ĠP ER
EN G
A D
un d
u g
un ya
ed ia
m atan
ung k
ar kan
gun akan
Ġla in
o f
K O
aj aan
Ġ at
B er
Ġn ak
Ġ as
Ġter s
r a
Ġse d
U S
t or
Ġp el
Ġse per
Ġ [
A I
ĠU n
eg eri
uh an
h ad
ela j
ir an
eb ut
ĠD i
l um
2 01
l is
Ġseper ti
er a
Ġter b
P en
im a
Ġker ana
o lah
Ġ i
es ar
Ġ )
Ġ ag
Ġm ela
Ġ al
Ġber t
ing gi
Ġ apa
u al
Ġp as
il ik
ai r
P eng
m as
aw atan
ang kan
Ġs es
us t
Ġper k
r am
ai l
i v
id eo
I n
t h
ĠP ro
t an
ia u
Ġmen c
Ġd apat
d a
Ġ anak
Ġt o
Ġm in
m at
er ah
ag ian
Ġmenj adi
n a
t ama
Ġ 6
Ġla lu
Ġp un
A J
I L
AR A
ik at
O R
Ġm asa
un t
it an
ot a
Ġ a
1 0
Ġp end
A Y
om p
et ak
T I
U K
c ara
el um
Ġsem ua
ĠS E
in ya
up akan
un an
Ġ '
e f
Ġ is
en a
o ok
U M
Ġ 0
Ġt u
Ġh its
an ti
Ġ ap
âĢ ¦
A W
Ġd ah
s s
ai an
amb il
Ġt et
ela y
ing ga
e x
ag a
ah u
ĠIs lam
ĠD an
ak at
elak i
ĠA b
U L
t ar
âĢ Ŀ
IN G
Ġmer upakan
u ala
ĠD A
Ġn egara
Ġke b
ĠA r
Ġs ah
en c
ĠâĢ ĵ
ur ut
ala u
Ġber b
I D
t u
ang at
T er
Ġmeng h
g an
un ia
ik ut
Ġb aru
) .
or i
Ġke p
ĠR M
im b
âĢ Ļ
T ag
em as
ĠI nd
ĠK es
at kan
ak yat
Ġb eb
Ġb ukan
r es
a v
Ġat as
on al
Ġt he
Ġk aw
ĠA m
n ah
Ġseb uah
ung an
i j
e v
Ġse cara
ad an
S I
ĠD AN
on s
us i
o c
P ro
el ang
la k
or d
ent ang
us ia
an i
w a
y ah
ĠY ang
j ap
Ġr umah
ubung i
Ġ ut
ĠAl lah
ĠB ah
) ,
Ġke c
Ġters ebut
un c
an s
ĠK E
Ġke d
ing an
Ġper lu
I M
ul u
Ġ1 0
Ġt an
Ġs t
ĠA k
A r
uc ah
A l
ĠA nd
unya i
end iri
and a
ir a
Ġb anyak
2 0
ĠS t
in an
Ġse orang
1 6
Ġ ant
ela s
lum at
Ġ z
Ġt i
hid matan
am ai
u ang
ĠM oh
elaj ar
p ort
Ġ of
Ġ 7
g er
and ar
ong an
yar ikat
Ġw anita
h ar
ab ila
us ah
ĠP em
ti v
lu i
Ġb uat
Ġm ana
Ġs en
Ġmemp unyai
os t
Ġter l
A B
Ġs i
al kan
m ad
Ġ Q
at eg
er b
at ang
ak it
a un
ĠM en
Ġh anya
en tuk
ER AH
ac a
Ġberk ata
as ar
ed ah
er t
Ġs ama
um a
l y
ĠUn tuk
elay u
Ġ 9
ot ak
m ana
Ġdi p
Ġse t
ih ak
Ġpen y
Ġk ata
Ġm an
T AN
o y
1 2
Ġ X
ĠP emb
m i
angs a
Ġbel iau
n g
ant u
or m
Ġseb elum
l ine
Ġt inggi
Ġse j
ih atan
Ġs udah
s p
id up
Ġbah awa
ar ik
Ġber j
in c
ĠA z
ĠD at
S em
Ġ1 9
oh on
Ġi alah
00 0
ist em
el uar
ud i
Ġb aik
Ġsel epas
al ing
on us
5 0
Ġker eta
Ġ 8
ĠDA ERAH
o ur
en is
uk u
k ini
Ġb ek
as t
d ul
o lat
r ah
R O
ĠS em
A P
il ihan
Ġse h
r y
ab atan
L AH
an k
ur u
ag aan
Ġs endiri
Ġse p
ak ar
Ġh ar
un j
Ġp ula
aj lis
l er
ot el
atan ya
Ġm akan
Ġ am
Ġser ta
g ram
ĠM as
h at
aw ah
ER I
id ikan
ĠP EN
Ġb esar
s es
Ġs h
er ita
O L
A AN
ung g
Ġ aw
ti on
l ik
Ġber d
AT AN
ĠU T
o la
r ol
as il
âĢ ľ
Ġdi per
Ġ ib
eng ah
l im
Ġkel uar
emb er
eb ab
c a
A G
amb ar
i e
ul is
is h
Ġl elaki
ak ah
eng k
ĠM elayu
an y
ungk in
in ta
Ġ air
ĠN egeri
ab at
er apa
n o
en ai
Ġtet api
e ar
m ent
u z
S aya
elang or
Ġb ulan
e z
Ġj adi
ung a
ul i
Ġber m
ĠM ah
ĠA h
ut i
Ġmeng gunakan
ak i
Ġket ika
ĠL if
1 3
, "
Ġmela lui
Ġmas ih
A n
il an
k s
Ġp r
us at
1 5
ĠA s
Ġbers ama
ak s
Ġ201 8
Ġdi ri
or e
m en
Ġs angat
e e
l an
M er
ud a
Ġker ajaan
ĠA d
Ġd unia
ol o
r ad
Ġp ihak
alam an
Ġmend apat
et ua
ĠK ami
Ġd ua
Ġmemb uat
e kan
I R
ĠK e
ĠM eng
Ġant ara
u as
had ap
am u
Ġp ol
ur usan
Ġmen er
ur uh
U n
i al
in o
e i
Ġk h
Ġsah aja
ti f
M en
E K
Ġc ara
b u
Ġ *
E G
al ik
yak it
U AR
Ġber p
ek n
ah un
ĠM ent
U T
ĠP end
Ġb i
IN TA
Ġper s
ek olah
p or
Ġmas uk
ac am
up un
I T
ĠA ir
om b
1 4
u asa
Ġ2 00
Ġk en
e y
Ġk ar
O H
anj ang
Ġt emp
Ġtah u
Ġr akyat
ot or
at akan
aw ab
um lah
up aya
Ġap abila
Ġ2 0
3 0
Ġs ini
it ik
ĠT AH
p r
ĠD r
t as
ur ang
ĠTer b
Ġbeb erapa
ip ta
Ġs amp
us kan
ak tu
B ah
Ġ ind
ati on
r ang
Ġ >
Ġk ek
Ġut ama
ĠK INTA
olo gi
ĠUT ARA
ala t
) ;
mas uk
t p
ula r
Ġdi j
in j
Ġper t
aj u
Ġkaw asan
Ġj ika
ud uk
it am
A ku
ur a
on es
ti ap
ang unan
ant an
ĠK h
il ang
ĠP el
ab i
ar d
Ġy g
Ġk om
Ġk ali
on d
Ġdi r
c e
Ġber la
Ġb in
Ġper c
er ja
angg an
ĠK uala
aj i
Ġsek arang
Ġ on
.. ..
ed i
ĠT an
Ġ ar
amp ung
ĠP ar
ĠS elangor
o ut
Ġ ing
ingk at
ĠM ar
l d
end ah
o u
Ġse tiap
it al
er l
ĠT r
ĠB onus
/ /
ĠS ep
m u
Ġb awah
k hidmatan
Ġse la
b agai
q u
ĠK em
Ġk atanya
Ġs u
a erah
Ġter d
ĠB ER
A d
Ġter hadap
ĠK el
Ġpro duk
a itan
Ġdi l
S M
j ek
aw an
Ġm es
Ġse g
Ġsek s
ist eri
A p
ĠTAH UN
al ian
ik al
al l
yar at
umb er
KO LAH
Ġt empat
ones ia
M ak
P emb
a ikan
P M
S eb
ela b
enar ai
Ġia itu
ĠMent eri
ul t
el i
a at
ĠD I
Ġm ungkin
Ġper nah
Ġ1 2
am ah
ter n
en s
I ni
ula u
Ġp ar
ĠKer ajaan
C h
D i
at e
E T
Ġdi gunakan
es s
ur un
and uan
Ġh idup
ĠMoh d
Ġ um
Ġber h
amb ut
il em
: //
Ġt entang
m in
Ġh arga
ĠP ENG
Ġse lam
et ul
ĠD alam
Ġr amai
Ġn egeri
is ah
o ad
on e
ĠâĢ ĺ
ro id
ĠB IN
end er
Ġ201 6
m y
aw ai
Ġ ?
ur n
ĠP AS
am ad
ĠO n
Ġs alah
amb ah
U H
Ġter p
h a
as ih
o alan
Ġin jap
Ġter us
M eng
ag e
N O
uat u
r an
ol d
Ġm udah
ĠAb dul
r om
am un
Ġper tama
y en
Ġb y
Ġmemb eri
ĠA g
ay ah
r u
it ar
ala s
ĠP ak
ĠS et
1 1
ur i
Ġter masuk
O M
Ġ201 7
v e
ar na
e al
ad ar
ak u
U AN
w w
Ġker ja
P ada
Ġh ati
ar is
Ġsek olah
tiv iti
as ino
ig ht
ur at
Ġj am
Ġt el
o z
ump ulan
ĠS y
Ġ1 4
Ġt api
Ġterl etak
ĠT h
ĠDat uk
um an
ĠU m
ay ar
Ġper m
ad is
ĠÂ »
Ġp ent
il ih
gun a
om i
et er
EM B
K er
m p
ĠR as
d i
ur ah
ĠA w
K U
ut a
ut usan
S t
a utan
âĢ ¢
Ġib u
ĠM ak
AS A
ĠH ari
Ġk at
Ġke j
r af
H ubungi
g e
ela matan
ubung an
Ġ +
Ġseh ingga
ĠP ol
er ikan
s c
Ġtan pa
Ġter k
K od
Ġp ak
1 7
Ġm elak
Ġseb ab
w an
ebab kan
af tar
ac k
D alam
ĠP as
Ġp es
Ġl ucah
unj uk
ov er
Ġp aling
Ġm ula
99 9
Ġmel ihat
ohon an
eb ook
il la
usah a
Ġt h
Ġdi d
ul ang
ĠSE KOLAH
Ġla ma
Ġsem ula
is a
Ġmas alah
ĠP ulau
Ġ ab
ep at
ent er
l ang
Ġla man
Ġ =
el l
C he
Ġmak lumat
ni agaan
ingg u
en ang
an as
ĠJ oh
Ġman usia
gun aan
emp uan
aj ib
ĠK eb
Ġr asa
ĠK ep
at atan
ĠD engan
ĠA L
1 9
ik ir
per asi
t ik
P ER
o us
Ġ emas
s e
Ġter t
m ar
ej abat
Ġn ama
ES Y
Ġsek ali
ud ian
Ġsem asa
ub a
ĠKer eta
ĠN egara
ĠS er
E D
Ġh ingga
A nd
int u
A k
at or
ub uh
ateg ori
f f
ĠM us
aw at
P em
UN G
ol l
Ġh ad
Ġs yarikat
rol et
p t
ap kan
A m
Ġm ahu
yar akat
op ular
v rolet
s u
ant uan
2 5
ant ik
Ġk a
ĠB log
1 8
ĠP r
b log
UAR AT
ESY UARAT
ĠAnd a
on omi
en si
f o
ot o
Ġpel bagai
Che vrolet
ĠB r
il i
ala upun
Ġk ini
ic k
ĠâĢ ľ
ila i
ay at
d in
ĠD is
ac h
o x
aj ian
Ġd em
ĠBer s
agai mana
Ġl uar
ek at
ĠS eri
ĠPer s
at us
eng gan
Ġterb aik
Ġberla ku
Ġm acam
I AN
M as
Ġ ah
ĠM EN
Ġ !
ah w
I a
Ġb ak
ĠM es
l and
g u
L E
ud ara
ro p
L aman
ri v
it y
ac ebook
ungk usan
ak in
Ġs k
Ġmeng g
Ġt r
AS I
Ġmemb antu
B el
KO M
Ġs uka
ada an
Ġmem ang
Ġd ep
Ġr es
Ġs y
u ai
ĠM ajlis
eg awai
Ġb eg
ĠCh ina
h am
Ġmeng enai
adi ah
ĠS ab
Ġpen yakit
Ġf or
b er
Ġber c
Ġberk en
ĠSh ah
Ġ #
j id
AR AN
ati f
S et
ih ara
it e
Ġk alau
ul it
ĠInd onesia
inj aman
il l
edi akan
ĠS ela
ĠI N
Ġm alam
Ġ 999
ad ang
ad b
Ġm ata
AM A
ĠL aman
emb ali
m ail
ĠI ni
h an
os p
unt ing
Ġpen j
amp u
Ġp elajar
ĠP T
Ġ201 4
Ġr aya
id e
ar at
Ġis u
Ġ ek
Ġb ila
ak hir
ĠOn line
Ġ x
Ġ1 5
ik it
ĠP i
uk ar
H otel
Ġked ua
6 0
i ga
ĠU M
Ġj alan
it h
up an
ĠE n
o a
D A
ĠI b
ON E
Ġp ilihan
Ġmeng ambil
angk a
U B
Ġb log
s k
S ela
Ġ1 8
Ġak hir
al u
Ġperk ara
Ġ isteri
ĠM an
2 4
Ġ en
ĠV ideo
Ġd atang
a ut
and ing
ik s
angg ung
Ġberken aan
es i
c o
v er
ĠPen y
ht tp
Ġj enis
w at
il e
Ġc erita
osp ital
ub ah
Ġing in
at ik
Ġsamp ai
Ġb adan
J ika
le e
ari an
Ġj e
Ġt urut
f orm
Ġ or
ek al
Ġb entuk
l in
Ġdi lak
Ġmenc ari
n e
p ro
ai d
r id
ust ri
el ihara
A C
S S
ĠS p
en ti
Ġv ideo
Ġ e
er j
ilik i
P R
ong si
S eks
Ġkec il
es en
Ġp et
up a
Ġk amu
Ġm ah
j alan
Ġsed ang
B unga
2 2
Ġw eb
ĠP ut
us u
I C
g et
ib at
K es
ekn ologi
Ġk au
enggan u
ĠK ec
ib a
ak ap
aj ah
Ġdi m
al angan
id ang
Ġmeng ikut
l us
ĠAh mad
h er
Ġper gi
ĠS ekolah
Ber ita
eng ar
Ġti ada
G R
ĠM uh
ar aw
Ġm us
Ġs akit
Ġb ay
Ġkel uli
ĠJ abatan
ĠC o
s h
uc k
as kan
ung ai
ĠH ar
akan an
AR I
Ġ1 1
Ġs istem
ump ur
Ġp ut
Ġ1 3
ul tan
ant ar
ĠUn it
S T
K ami
sp ot
K e
ĠB IL
d ana
ung si
ah kan
o perasi
kan ak
Ġ201 5
th is
id en
ub at
Pro duk
201 9
ala k
" .
ĠJoh or
en z
Ġah li
L IS
ad ah
Ġper b
ĠP EL
Ġti ga
anj ut
Ġb etul
ĠA lam
Ġ el
IK AN
c ipta
or an
d e
Bel iau
ANG AN
Ġmakan an
A pa
Ġdi h
I nd
ĠT ER
ku asa
I H
angk ah
us nya
ĠB in
ai z
am mad
Ġr awatan
t ara
4 0
ad ikan
e orang
SI A
Ġseb enar
d n
ela r
AL AY
em u
Ġg anti
ingg al
Ġp and
aya an
ĠE x
P S
ĠK om
Ġk ena
Ġper empuan
Ġmin yak
P K
l uan
Ġl epas
arik h
Ġmas yarakat
ĠU tama
ĠPro duk
ĠAnd roid
3 5
er it
j awab
p e
ĠP et
And a
Ġmak a
yat aan
x y
ant ai
ĠBah asa
ĠM ei
angs aan
H ak
Ġr endah
' s
ow n
blog spot
S ek
v ers
i as
Ġhits M
Ġg ambar
I B
Ġpent ing
ok ok
ind akan
ĠP in
Ġk r
Ġbah asa
k ah
P el
I s
Ġ3 0
ĠS EM
ĠPer m
Ġdi c
Ġ an
Ġr as
ĠL umpur
ik um
ag u
uk i
ew an
ut up
ĠT im
es a
S enarai
Ġaw al
Ġb uah
Ġ2 4
6 8
w ar
Mer c
ĠT i
y ang
y b
ent era
et ik
en ali
os ial
Ġs upaya
Ġke adaan
Ġberk aitan
P i
Ġmelak ukan
ĠKes ihatan
Ġbi asa
or no
ĠS eb
US AN
Ġber ada
elak ang
ĠKel antan
ĠD aerah
ĠI S
Ġk embali
uk um
angs ung
ag am
ĠK etua
ĠÂ ©
a uh
ĠBer k
a a
ag angan
o og
end ak
Ġm ampu
lis h
ĠB esar
Ġkeluar ga
l eh
K em
Ġber g
ik asi
ala xy
k amah
ur us
riv asi
S h
Ġj uta
ek ut
ak a
ĠS ain
Ġt angan
enter ian
ak lee
b ah
il angan
om e
Ġmemp er
uj ud
) {
en al
em a
ĠUM NO
ung i
ĠS yarikat
uj uan
ĠTer p
o od
ĠJ alan
Ġak aun
ĠM otor
ĠK r
ĠN ew
ĠR ah
Ġk os
U D
uk t
ont oh
ĠR es
en ama
k ib
ĠN EG
la lu
al on
F ord
Ġsu ami
I A
ĠTer engganu
g n
Ġkem udian
aj ar
uj uk
Ġk urang
oog le
D ia
ALAY SIA
ekan an
Ġbah agian
am il
Ġc uk
E J
Ġla h
Ġk an
Ġpro gram
angk at
eng g
Ġm od
Un tuk
Ġselam a
Ġam at
ain an
un a
ant ung
imp in
enc ana
Ġmener ima
er ti
Ġpen c
ort al
is m
m l
ĠK otak
ĠP RO
ĠM in
Ġt ahan
f a
ay ang
ĠB el
ĠP R
elak a
Ġperk hidmatan
ĠE le
unc tion
E P
ĠR os
am al
j adi
Ġberj aya
s y
Ġag ama
I F
ĠT inggi
ss alam
Ġb ahan
Ġseb anyak
st r
at uh
ĠK ONE
M alaysia
Ġk aki
lang e
end a
u it
ĠS el
us tr
Ġ1 6
P P
ok ong
un tuk
os i
ip s
c k
ĠS M
w it
Â »
ĠâĢ ¢
ĠTan ah
ub ahan
ĠU N
tik el
AY A
am at
ec t
ĠT un
E B
Bah agian
Ġpol itik
Ġp ara
Ġw ang
ut am
G alaxy
d ang
ok asi
Ġtan ah
ud din
3 7
! !
f il
ni vers
Ġpas ti
ĠU S
Ġ il
Ġw aktu
O K
AJ LIS
AN AN
ahu i
ĠPend idikan
Ġdib uat
Ġz akat
ep un
Ġpar ti
ig n
unjuk kan
uala ikum
anggung jawab
ir anya
ĠS olat
Ġper ib
ingk atkan
ĠM ESYUARAT
Ġh ubungan
ĠA N
ĠW anita
ĠR am
Ġpeng h
ila yah
ah ang
b at
P end
Ġmen arik
Ġla k
P ol
as arkan
Ġ alam
C ara
v d
in k
Sem ua
ap ak
amp ak
ĠU s
Ġses uatu
et api
im an
udi o
Ġp intu
it ab
L ihat
Ġ ac
Ñ ģ
um i
und ang
ĠAn ak
im um
O G
ĠT ahun
iv e
Ġsej ak
ON G
Ġp ek
AN D
D asar
la ss
ĠR aya
ant ikan
and u
en uh
Ġ }
ĠB ul
Ġ us
Ġp injaman
Un it
ĠPer ak
h b
Ã ©
Ġd in
el es
jalan an
ĠM er
id ur
Ġ em
2 1
u e
Ġf ilem
ai p
ĠPer dana
ĠS H
Ġh ak
Ġbeg itu
Ġmemb awa
ING K
C ar
GR AM
Ġk ira
hid upan
Ġd e
ur s
f i
lim en
Ġterd apat
Ġmemb erikan
Ġdep an
ĠG r
oc k
ent u
ook ie
ont ent
ub atan
eb at
Ġperib adi
B log
Ġke hidupan
S EM
Per khidmatan
or n
ri g
ĠPer khidmatan
Ġsh alat
m el
ĠTerp elihara
st en
ay u
oy ota
Ġj umlah
er ika
ĠN or
ĠA p
ĠS ultan
Ġmen t
T ak
ĠC ar
Ġb alik
ĠKes elamatan
uj u
ĠC ara
AN T
ek si
la y
n es
aw al
K alau
Ġdi g
ĠT ak
I TI
K R
m m
res iden
ung sten
Ġ ..
Ġk asih
ad z
Ġseb arang
ĠB andar
is ik
AL A
Ġs p
asi onal
i ew
Ġ1 99
Ġs umber
ĠM emb
Ġbel um
Ġsel uruh
ul lah
Ġh al
rop ah
ĠD ari
ĠB aru
u aran
ĠA S
g ak
Ġ ula
ik h
Ġm edia
lik asi
Ġs tr
ĠM ALAYSIA
ĠB h
h i
Ġ1 00
et ahui
O T
al iti
ep i
A A
Ġb uku
AK L
ant aran
Ġk u
er angan
amb ahan
ĠA ku
ĠP ada
er iks
K AN
il ing
k a
eri ca
ĠK os
Ġk omp
is asi
V ideo
ng lish
Ġb ilik
ar y
san akan
ir e
3 8
Ġ1 7
l ic
Ġke h
elaj aran
UM P
rad er
ind a
ĠK EL
d uc
" ,
j in
Ġc uba
ĠBah agian
AL AM
ĠO r
em aja
2 6
st it
ĠR akyat
Ar kib
O S
pro duk
ur e
ĠF or
Ġt indakan
Ġ angg
Ġw alaupun
am s
T ER
2 7
Ġkep utusan
Ġb andar
rah im
M es
ĠK ER
Ġdilak ukan
ĠC asino
ĠIn tern
om ment
ab angsa
la s
D an
b a
em an
ĠE ropah
un y
es an
ĠAir port
ĠS i
iv id
Ġm inggu
Ġt urun
ĠR umah
A IN
A F
D ari
as aan
ap un
ht ml
Ġh asil
T oyota
ĠAh li
e ed
uk it
ĠH ak
eluar kan
Ġs aja
I P
a is
ingg alkan
Per m
T api
ĠA pr
ad akan
iz a
Ġp agi
ĠK ota
ro w
UK AN
ĠN o
ol ong
Ġsek itar
ĠSep t
oh d
eg ang
itam in
L og
Ġpeng alaman
ssalam ualaikum
Ġmeny ebabkan
Ġper niagaan
aw i
araw ak
Ġtemp oh
Ġc er
ef on
ang un
I t
ĠSh aklee
4 5
j aya
Pen y
Ġsed ikit
ir kan
et ah
Ġag ar
ĠE l
el ur
Mer eka
ul ut
Ġk ulit
ur id
ur kan
Ġhar us
ĠM elaka
ok ongan
Ġs yarat
ĠO rang
ĠA sia
ĠJ an
ĠS ungai
ĠT he
imp an
Ġber as
ic e
ri c
b an
aris an
Ġk anak
Ġpen uh
Ġkom un
Ġm uda
Ġg uru
ek tr
f unction
ala tan
y an
ĠD ar
Ġ art
ĠS eks
Ġperc uma
Ġj angan
T he
ĠM at
is an
and ungan
Ġg ol
Ġk uasa
w ah
av ig
r on
ish i
em e
Ġf it
or y
ĠM a
ang ga
A Z
Ġbek alan
ek tor
in asi
S i
er si
Ġd ulu
ac aan
ĠJ un
EN T
et ika
ĠPel anggan
Ġ201 3
t on
ĠU nivers
or k
8 0
Ġbek as
Ġt anda
L ucah
en er
Ġken yataan
ĠPeng urusan
ĠH arga
asil kan
ĠB AH
it kan
ub ishi
its ubishi
ej arah
m er
Ġmendapat kan
K ategori
m k
ĠA c
ĠI m
Ġl og
angk utan
Ġmem iliki
eriks aan
anc angan
ĠH ubungi
Ġ ubat
ku aliti
Ġsem akin
ĠNEG ERI
L IN
ah am
D N
ĠSab ah
en i
} .
ĠK ar
- -
Ġb enar
ĠI k
J abatan
v ator
Ġsi as
ist ik
ĠP usat
S ub
ĠV al
Ġ2 5
Ġd ok
2 00
Ġ arah
od ge
d an
P A
Ġsem alam
ĠPer k
ungg uh
wit ter
Ġh endak
amp ir
ĠMuh ammad
an ah
ĠPin ang
T empat
( "
u atan
int ang
res s
ĠTer kini
Ġt iba
ĠM ac
imp ian
P es
Ġb aju
l ob
t e
ĠT ah
3 6
ĠS k
ez a
ĠS tr
D odge
I k
ĠAm erika
ob ile
ĠK ampung
ĠEle vator
ay aran
Ġk ampung
ĠK edah
T idak
Ġj awatan
ew a
r in
ent ara
P eta
ap aran
ap ai
( '
EN D
S el
r ib
en aga
Ġker tas
Ġil mu
ĠM em
Ġka um
Ġm at
ld oz
T h
b y
ĠS un
ab ar
Ġak tiviti
ĠPT G
as e
ual iti
elab uran
Ġber l
Ġkh us
o i
n et
Ġk umpulan
Ġn amun
Ġbel i
ð Ł
AL AN
al ang
ast ikan
Ġtet ap
Ġke per
OH D
Ġses uai
R ookie
Ġr akan
ĠL oad
A b
Ġp anas
H arga
alah an
r et
Ġp usat
B agi
Ġh itam
Ġpol is
ivid u
N amun
P T
ula i
g in
Ġs emp
ear ch
ow er
ĠApr il
Ġm ew
K ep
2 9
y und
K ita
alam i
2 8
engk ap
Ġpemb ekal
Ġl anjut
yund ai
, âĢĿ
ahw in
ong s
t is
ala tor
Ġb e
la in
Ġpro ses
n y
ĠM edia
am e
is s
ĠI bu
AH AN
ĠPar limen
al in
Ġn aik
aw asan
ij il
Ġpeng guna
ekut uan
l es
AW ATAN
ĠPer t
Ġ {
emb aga
or ong
ĠS aya
as h
Ġd ata
al eri
AD A
UH AI
Ġ up
p en
Ġd ekat
upaya an
Ġp ant
ldoz er
ĠPENG UR
AT A
as s
Ġj elas
aks a
af t
ug as
Bah asa
ĠC omp
ĠE M
Ġberm ula
p x
Ġset elah
im edia
Ġpem ain
ĠIb rahim
ĠG rader
Ġind ustri
z a
2 3
ĠD ewan
S istem
ed es
le y
Ġsen ti
e ad
ĠN ov
ĠKeb angsaan
Ġek onomi
ub e
Ġdah ulu
ĠAn g
g os
Ġper l
Ġs a
Ġag o
on da
ĠP ahang
ĠP egawai
t s
Ġb ag
Ġsenti asa
per ia
aw aran
Ġb ud
Ġk ap
O rang
Ġ ya
K otak
ad ian
Ġ201 2
ĠG oogle
o o
Ġr ambut
il d
Ġ2 2
Ar tikel
ĠT el
Ġseg ala
Ð º
Ġc h
ĠTim ur
ĠLoad er
at at
G A
r ak
Ġpend uduk
ĠN abi
anc ang
ap atan
1 00
P ak
el iling
ĠI st
ut ang
ĠH adiah
or por
r as
Ġn k
em ent
ĠAr ab
ww w
s m
f in
ag en
Ġ usaha
? ?
ara f
in ar
ĠAw am
ĠS ri
Ġm ati
Ġmer ah
ara an
Ġw arna
ik ip
H T
and i
ĠRas ul
ĠB N
ub ur
Ġmen unjukkan
ug erah
un uh
7 5
ec e
ikip edia
ud ukan
em ah
as ama
r ama
ut er
E nglish
ĠN ajib
K EL
ender aan
Ġs al
Ġm ain
alan kan
IN I
urs us
Ġb ank
ex t
az da
ĠL at
l ot
elur uhan
he el
at hir
al ia
Ġkh as
Ġter akhir
Ġl angsung
ĠIn jap
M A
S R
ĠF lange
Ġ @
ĠL e
is k
U P
w as
Ġg er
uan ya
af ian
ĠT idak
ĠS up
adb iran
ĠS arawak
0 9
r is
i um
k t
. âĢĿ
ĠS al
ĠPEN D
anc is
Ġke w
Ġa ut
es ter
ĠH otel
ĠE sc
ĠKem enterian
Ġ201 0
j u
s on
Pro gram
U A
ĠP rivasi
re e
Ġmeny ediakan
Ø §
Ġt adi
Ġm y
ĠO gos
Ġp os
ĠE k
ĠD unia
ĠA M
Ġ it
r at
ĠUm no
Ġ im
gan isasi
â Ħ
ĠA f
ak si
t om
ĠS u
emp atan
int ah
Ġc inta
ungg u
Ġpem impin
Men urut
ĠS T
ĠInd ia
ont on
ĠUnit ed
M uat
Ġper ingkat
hid mat
ap p
ud ahan
R M
L ap
ap ati
Ġcuk up
Ġpro jek
AG I
er ang
erj aan
D engan
Ġp anjang
ĠP ek
3 9
Ġb elakang
ĠKer ja
ĠSept ember
Ġ201 1
X peria
E W
Ġper jalanan
O P
ult imedia
ĠMak lumat
ta z
AS AN
5 5
A h
ati onal
m ah
Ġaw am
Ġt engah
az im
la st
âĦ ¢
J adi
P N
Ġr ah
Ð ¸
7 0
ĠAz iz
Ġla p
Ġsela lu
Ġh id
ik ian
Ġt idur
l o
j i
ĠBul ldozer
Ġs osial
Ġk ont
Ġsias atan
ĠS dn
J umlah
is san
ĠY ANG
. ,
ĠM EL
ĠR aja
ab el
Ġon line
P RO
e et
Ġ2 1
v is
ĠPENGUR USAN
Ġm a
ĠR az
Ġdik enali
ĠS ing
ĠP ost
Per k
Ġber n
Ġd arah
Ġter kini
Ġpas ukan
uc h
P EN
o lak
ger ak
T UK
Ġp ela
Y A
as ihat
ek od
ĠM AJLIS
az ah
at er
Ġbeb as
Q uran
ĠF acebook
Ġpeng gunaan
Ġum um
Ġw arga
yb rid
Ġt ekanan
Ġd aerah
G M
Ġsebenar nya
Ġkes ihatan
3 3
ĠA B
ID IKAN
aw arkan
ah agian
ĠS ek
Sela in
ĠJ epun
Ġag ak
Ġb at
A da
ump ang
K el
Ġc akap
or g
ĠPer b
ĠK anak
ĠKer tas
ic es
Ġb idang
la ck
ĠC r
Ġt alian
Ġ uj
Ġbek erja
Ter ma
Ġb agaimana
Ġber ikut
Ġk elas
Ġmeng in
s ur
iti f
h h
ub lic
) }
ĠJ er
K H
ĠAz mi
Ġ5 0
T i
ol ks
eb ar
Mak lumat
at ian
Ġm uka
w agen
ĠPro gram
Ġk uat
olks wagen
D I
w id
ĠL elaki
J angan
Ġun dang
' ,
Ġber ita
c ontent
Ġn ik
und i
K h
eng ok
Am erica
O leh
Ġb elajar
in aan
ĠK AM
i ah
Ġt im
h one
Ġs olat
o al
andar d
ri p
y pe
man apun
os a
ĠJ awatan
s eks
ej ak
P U
ĠMoh amad
ekn ik
at uan
INGK AT
Ġc alon
Ġmes ti
ĠB atu
hb ar
Ġber at
Merc edes
4 6
Ġmen ingkatkan
Ġj auh
es ign
ili on
Per t
at ut
K en
201 6
ak wa
M em
Ġmeng and
Ġla ut
ĠTerb aik
ib atkan
Ð °
ig h
UR AN
P orno
p ek
ĠS a
Ġs aat
Y ang
le x
Ġk andungan
y u
any akan
ĠMah kamah
ĠB ar
er ima
anak ala
Ġper atus
EK N
agai manapun
ab ung
ĠK L
ĠB ank
s er
Ġter lalu
N issan
is nes
ĠH ospital
R es
Ġ ikan
W anita
Ġ2 3
ĠMah athir
ĠPer h
ĠB uku
Ġju gak
ĠE mas
Ġs ila
P anduan
ĠDis ember
ĠT V
emu i
R umah
Ġpend idikan
Ġkep ala
ib u
Ġk ilang
s et
il lah
R I
rig ht
ah aya
os e
ĠB ukit
Ġber kualiti
uny i
ad u
ingk atan
Ġmem astikan
ĠPers ekutuan
oll ow
orpor at
UR U
um en
uk ur
Ġkes an
Ġth is
ĠU nd
P B
ĠBer ita
ĠP EM
Ġsela in
Ġd uit
ĠP residen
i o
Ġpel uang
u f
l or
ĠF eb
ur angkan
ad ual
Ġ ex
ĠAg ama
Ġh uj
ĠDat o
ĠE d
ib uran
Ġb antuan
h y
E n
ĠP anduan
ĠPeng arah
ĠW heel
Ġp ost
Ġs ambil
ĠDA P
al k
Ġh t
ukt ur
Ġkar at
S H
Ġn anti
r ik
0 8
ĠP es
il in
ew angan
ĠB adan
ĠD ia
od a
ĠPer c
Ġ â
ĠP ejabat
K M
P usat
av e
Ġmenj adikan
ti c
anc e
ĠN ik
u ari
S oalan
ub uhan
t d
Ġ ayah
In fo
ĠKos ong
Ġb ola
ĠN asional
al is
lam at
E O
AK AN
Ġangg ota
Ġsep anjang
Ġw as
Ġk on
Ġper ang
k en
Ġberd asarkan
Ġl angkah
ĠP ilihan
Ġdib erikan
B enz
ĠH aji
ĠH ybrid
Ġbak al
er n
angg il
Ġmengin ap
la san
Ġd uduk
Ġc antik
Ġb ur
P ost
ĠPEND IDIKAN
ol eksi
P autan
Ġbay i
b on
c ik
imb alan
Ġn y
l et
Ġ2 6
Ġ empat
Ġm urah
s el
Ġpand angan
Ġgol ongan
ĠA ut
Ġb ij
er usi
Perm ohonan
Ġmin imum
op e
last ik
ert ai
M itsubishi
ic on
8 8
al im
ĠRam adan
ul l
ĠMes in
Ġb as
Ġp autan
om un
Ġg adis
at es
ub ang
T M
fin iti
Ġb arang
os it
ĠW eb
y uar
Ġula san
and ingan
c m
0 6
Ġb angsa
aj aran
yuar at
ul ihan
o ga
ur y
ĠM akanan
l ip
ap aian
5 00
isik o
emb ilan
d agangan
Ġn ya
Ġl emb
at as
Â ©
ĠKec il
ud ung
Ġas al
and ang
Ġw ith
Ġ ok
aks ud
ab is
ĠL ucah
Ġk ons
ai b
ĠSela tan
S p
e a
Ġfit rah
A s
w ay
Ġput ih
ej a
Ġh ampir
* *
w p
l oad
ĠL azim
Ġses i
ĠK M
ar k
Ġber f
ĠPol is
AN A
Ġter j
Ġ es
at uran
Ġsej arah
c aya
Ġselam at
Ġk orang
ed ar
por an
emb ang
Ġdib eri
L AM
Ġc epat
Ġt eg
m b
Ġberb anding
Ġl ihat
ĠAl i
Ġv ar
Y AT
unc i
anj ung
ahw inan
Ġn avig
ĠMus lim
ĠE ng
ont h
Ġ ik
emb angan
ĠT aman
Ġn ilai
r en
B agaimana
P ENG
ry s
tan ian
Ġmen ang
ĠUN TUK
ic h
Ġm aj
Ġind ividu
ov e
etak kan
ih kan
C o
Ġb apa
Ġkeper luan
ec es
L I
ain ya
f aat
D ir
ĠP art
ĠS yarat
ob er
3 4
Ġla t
z ah
la w
Ġtemp atan
_ .
ĠPER INGKAT
r it
Ġt ambahan
em ak
ĠP opular
d ua
S ekolah
id a
Ġ $
s a
i gi
Ġb aca
J awatan
AKL UM
angk ap
ĠRas mi
am er
ala f
Ġ if
anya an
ĠPRO GRAM
and aran
Ber c
umb uhan
ĠR ep
aft aran
Ġk alangan
IH AN
i ap
Ġs uatu
E im
ĠQ amal
Ġhits Eim
ĠhitsEim iza
op y
ong k
ir ik
k ira
O D
Pemb ungkusan
ateg ory
ula t
Ġmeny atakan
ia c
ĠC ina
Ġd gn
Ġm ajlis
U nd
Ġ ent
el uaran
rys ler
iti on
ĠhitsM ohd
In finiti
Ġtel efon
om m
ebih an
ĠAb u
Ġmin ta
ĠS ch
Ġdik atakan
= =
Ġg una
en y
Ġbah aru
ĠP AN
ĠS ukan
Ġses eorang
il le
id get
omb or
P I
Ġl engkap
D aftar
j ah
ĠPemb angunan
c ur
en ayah
C atatan
Ġht tp
" )
ĠY us
Ġad ik
Ġter ima
ĠM udah
er e
S ila
Ġberb eza
H yundai
UMP UR
ĠBerk aitan
Ġtah ap
ĠS istem
ĠEM AS
Ġkaw an
Ġbak ul
Ġas ing
eluar ga
ĠJ AWATAN
Ġak ibat
erl ukan
ĠS EL
Ġla gu
ĠL ap
ĠKep ada
al e
ĠJ aya
Ġ ayat
Peng urusan
B orang
Hak cipta
ĠN ur
ĠK U
up p
omment s
ĠRasul ullah
ĠUS D
Ġb ut
0 3
Ġb ar
Ġ ambil
Ġs un
In jap
ac t
ĠS UHAI
ra v
& &
Ġmemb aca
Ġser ing
ĠA lat
B antuan
ĠK ed
imp inan
V olkswagen
v ideo
ak ai
ec h
C ad
P as
Ġmem as
4 7
Ke upayaan
ĠL UMPUR
enar ik
ĠI I
ĠBh d
h ati
ĠL ama
Ġb ilion
ĠPer ancis
ĠPEN Y
ik u
uk ti
Ġis lam
Ġpel anggan
v ar
ĠSem asa
k er
Ġp elak
U tama
Ġm urid
v ices
ab ah
B u
er r
ĠA ssalamualaikum
4 8
Ġj enama
ektor i
Ġm angsa
Ġl ima
e el
âĢ İ
ĠT o
ed it
0 5
anj i
ĠJ u
S ep
w al
G aleri
Ġmas ing
Ġlak ukan
ĠK u
ik ap
Ġked udukan
ĠW ikipedia
it le
at istik
ĠPER TAN
Ġt au
ĠUnivers iti
uk ai
ĠIn g
: "
ĠI t
Ġen jin
Ġpemb angunan
am ar
id ah
ĠM on
ĠT eknologi
ĠB ag
E C
Ġ asa
Ch rysler
en alan
ĠN i
ĠP M
ism e
Ġt ujuan
ĠG uru
ĠB ulan
S P
t o
iv ers
aw ang
p eng
ĠM el
Ġs okongan
Ġh ukum
i y
ĠA R
er aan
ump ul
Pi eces
at al
Ġs ub
ANG G
ĠI d
ep eriksaan
Ġc ontoh
Ġt engok
ING AN
op i
Ġmem erlukan
Ġn ot
uc i
ĠT EKN
AN TAN
ĠPi ece
ĠB i
ĠM asa
AJ ARAN
S es
iz e
Pes anan
ĠPER AK
ĠT empat
ikir kan
m eng
B ER
F acebook
er ta
Ġt inggal
ĠF ar
ĠMas jid
A U
ĠBER S
h ari
o id
c i
Ġn ampak
anc ongan
9 5
Ġber w
Ap akah
Ġh ilang
en j
S at
ĠT a
Ġkej adian
Ġla poran
Ġbert anggungjawab
amad han
ĠL im
n er
aj et
ĠâĢ ¦
_ _
Ġt ubuh
enar kan
i i
Ġr ujuk
Ġkes eluruhan
in at
A c
A lat
ag al
ĠA t
Ġpula k
ĠNov ember
ĠP D
ĠTerb aru
ĠSain t
Ġs unting
ump a
Ġdis ediakan
ĠF ir
ulis an
ec ara
Ġz aman
om an
K L
Ġp elaburan
Ġb isa
ĠP EMB
p s
ai wan
K eb
B oleh
o or
ĠC atatan
ol usi
d ing
rad isi
Ġ. "
k e
Ġk otak
ĠA Z
o in
ĠPak atan
ĠM od
d ah
Ġ api
Ġp opular
ENG KEL
Ġk isah
Al lah
Ġs itu
ah a
im us
illa c
p ut
at ar
m ati
Ġkes elamatan
Pro fil
K etua
Ù Ħ
Ġmemb eli
Ġmengh asilkan
ap ura
Ġ ist
M y
ĠVal ve
aran ya
al s
N ama
Ġsi apa
ĠPen c
ĠP h
ĠM ela
ĠB oleh
ĠJ am
Ġel ektr
M I
Ġk adar
ĠW an
Ġ3 1
N ew
P ont
Ġ ]
ĠEx p
Ġkek al
id ik
entuk an
Ġhad apan
ĠPem ain
ĠPen j
ĠB aju
A sia
apat kan
C lass
KU ASA
ĠT uan
T etapi
ah iran
Ġper asaan
od oh
Ġperm ohonan
ĠU t
Pen afian
alaf y
Ġpem er
P ort
Ġmak lum
ĠB and
Ġpet ang
ĠS ya
ĠJan uari
a edah
ri pt
Ġb onus
D is
utam anya
m s
M ajlis
Ġy ou
Ġc uma
j asama
3 2
ar uh
P ejabat
ans er
ol ler
af s
ĠPemb ungkusan
Ġ q
V D
C T
H onda
Ġk ak
hat ian
Ġ2 7
oleh kan
ĠB e
k i
M ar
Ġf ak
ĠS port
EJ AB
d en
Ġnavig ation
ĠP ent
ĠG old
J K
Ad akah
4 4
et apkan
ĠK emas
pt imus
ad em
ĠL agu
ĠK en
ew asa
Ġr emaja
Ġt arikh
ĠB anyak
Ap abila
AM B
N ya
har e
ew aan
Ġmem ilih
Ġmin it
on a
imp i
ĠB arat
Pont iac
Ġing at
Ġmeng alami
P r
S A
est asi
was ta
ĠM ad
B ut
y am
ru ari
umb angan
l uk
K anak
Ti ada
ay am
ĠS PM
um uman
ĠK ej
Ġs us
l ukan
Ġpak aian
ĠP G
I Z
9 0
Ġseg era
c t
ĠC ol
Ġke g
Ġdil ihat
t ak
201 4
ĠBers ama
Ġs urat
H ari
K ed
ĠI r
ĠG URU
T r
Dir ektori
uh kan
L if
KU ALA
Ġakhir nya
angg ap
Ġm eter
M ESYUARAT
Ġmeng atakan
ĠN ot
si p
ĠB AGI
ik el
Ġdis ebabkan
ĠPro duc
B ila
ĠSem ua
ik l
og raf
6 5
on y
ĠT AN
akit angan
d apat
kan d
enc ing
Ã ±
GM C
on i
O ld
am in
p ad
Ġ? "
ĠD asar
har ap
imb ang
Ġpeng eluar
ĠK et
Ġs ana
ĠSain s
em erl
san aan
art anah
Ġkew angan
ula kan
od e
ĠO kt
aw ar
Ġtert entu
Ġpas aran
ĠP al
ac e
Ġseb ahagian
S k
r iti
Ġin s
inc angan
mas ing
Ġm ilik
ĠAbdul lah
Ġ2 8
Ġberj alan
l eks
ant au
6 7
F ungsi
er v
om atik
ef ore
at h
Ġper ubahan
Ġmus im
Ġd asar
ĠA man
Ġ 01
Ġdi la
HT C
ĠF r
Ġse ter
P AN
ĠPer niagaan
ĠL uar
k itab
ĠT uhan
Ġw ilayah
ĠKom un
ĠM ay
P am
Ġmel ibatkan
Ġter utamanya
stit usi
Ġt anya
Ġk enderaan
Ġt enaga
ol n
S u
ger is
ar e
Ġsek iranya
ind ak
ik iran
uk ul
Ġ( +
ustr alia
ĠA G
ah ami
ĠS ah
B M
S ijil
R encana
ar ak
uk kan
s alafy
Ġkem atian
Ġ4 0
Ġt hat
tar abangsa
al ly
Cad illac
ĠT engah
AR U
O ptimus
ĠKEL ANTAN
ĠDar ul
r aj
elar ut
Ġpas angan
ĠL ebih
er y
o ot
as aran
Ker ajaan
Ġs ur
ec ah
es yen
AM AT
ĠEsc alator
K isah
Ġdem ikian
ĠPak aian
Ġ ikut
Ġmenc apai
Ġla luan
inc oln
ĠA tas
b i
lah an
Ġas as
W alaupun
ĠK omp
N or
Ġp al
B ukan
Ġt ua
is ti
Ġterp aksa
T E
G ambar
at o
Ġm ulut
ĠJ ulai
Ġum at
Ġk ela
Ġp egawai
im ia
ala san
Ġb alas
Ġun ivers
Ġt alak
et engah
o ard
ati ons
ian ya
ĠIntern et
ĠH as
uma at
Ġh adiah
Ġhad ir
on ik
erl and
en ih
ek alkan
Ġpeny el
as anya
p oh
J enis
Ġkom en
ĠM o
Ġ200 9
ĠH ad
Ġmeng had
Ġsi ap
ev en
h ana
Ġkem as
F ollow
ian a
ore a
or ld
V itamin
angan i
p ar
em uka
ĠKh as
ĠSE B
i x
ĠC er
Ġpak ai
ĠH am
ik e
K u
ĠAn war
C M
, ,
Mes in
ant al
ir ian
ĠG ambar
Per b
Ġm anakala
ant a
Ġperc aya
uz ik
Ġseter usnya
enuh i
) âĢİ
ind ahan
ĠJ enis
M azda
ĠB agi
H ar
Ġmak s
Ġ- -
ab le
T entang
a it
ĠB ay
Ġp am
ĠAk hir
lob al
Ġun it
ĠJAWATAN KUASA
Ġdi adakan
ĠK ewangan
L OG
i es
ĠI l
Sel epas
Ġdi am
ag n
b l
Ġap likasi
at aan
Ġsed ia
ut ian
Ġj atuh
ĠMar k
ĠP ort
M an
s ama
Ġ eks
Ġ operasi
C H
ĠInd ustri
Ġt eknologi
y e
201 8
I V
Ġs usu
ula si
i q
Ġkeh ilangan
ter a
ĠF ilem
ant as
Ġker usi
Ġsed ar
al il
ĠBAH ASA
ĠY B
ari ah
ĠP ela
0 4
âĢ¦ .
ind ah
Ñģ Ðº
ind ungan
Ġc omp
adi o
ik gu
uz uki
Ġl o
6 6
OH ANAN
Merc ury
form asi
aj uk
AW AI
sm obile
Ġs ukar
h arga
ĠUm um
ĠT ok
ĠM ENG
Ġmas jid
ĠD ALAM
ĠPer lu
ĠIng geris
Ġc ari
Old smobile
LE E
E s
al ikan
ĠTi ada
ĠhitsM OHD
h en
Ġterl ibat
Ġm alaysia
Ġkhus us
am aan
AK YAT
imp unan
Ġs eri
Ġr uang
Ġt epat
Ġs ayang
om en
ĠE ks
An ak
IK AL
og el
EG AWAI
ĠG er
imb ul
C B
og g
ĠM y
ĠP K
ĠS ol
Ġb unga
Ġseb alik
ĠS ebut
Ġmener usi
ĠP eri
EJAB AT
Ġpas al
A z
ent ingan
g ov
un ung
ĠRos lan
est inasi
um ahan
ĠN ama
ĠR AS
ĠG u
Meng enai
Ġs amb
, .
Ġsa udara
A g
Ġpun ca
ĠT urun
ir u
in apan
Ġk ajian
AW AH
D B
Ġket iga
b aru
ĠOkt ober
Pen c
l m
el anj
Ġg agal
Ġart ikel
Ġked ai
ĠSing apura
ĠPeng guna
Ġc atatan
J ag
Ġsen ang
o ol
law anan
ĠB ek
Ġbay aran
Ġp aip
ĠM et
ĠS w
Ġal ih
jek tif
J enama
ĠFeb ruari
ur uskan
ĠU tara
ĠS il
am kan
ek atan
imp anan
ĠM uda
ad angan
it em
ed ahan
ĠS ur
la ce
por kan
Ġsep enuh
un i
Ġn af
ĠD ir
ĠPerm ohonan
Ġs oalan
Ġpek erja
T ambah
ĠMen y
Ġd oa
unj ung
el d
if at
Ġs ib
ĠOr ganisasi
Ġk ualiti
ĠSela mat
ĠO N
Ġtak ut
en akan
ist an
Ġb atu
ĠRah sia
I m
om a
ĠT emp
aj ikan
Ñ Ģ
Ġr e
ĠT ur
P ortal
Car ta
S E
ĠIS LAM
Ġpend apatan
ITI A
ĠTr ans
ir ah
ot ong
Seb elum
ĠB ud
Ġpeng urusan
ag ar
ĠSup er
KO KO
ĠPAN ITIA
Ġj abatan
ĠUt usan
ug u
Ġken apa
ij au
ĠAn tarabangsa
r ep
R E
ĠSet ia
B uku
Ġp ul
t ir
F or
Ġl okasi
b ox
k h
ĠS c
ro up
ut ama
caya i
ĠR oller
Ġant ar
ĠB unga
rom osi
ĠS e
Ġt entera
ĠH idup
S ejarah
Ġt awaran
in s
ers ihan
am anya
it ung
E x
e ur
ic a
ĠS ed
ĠIs mail
al uan
Ġl upa
ĠM enarik
â Ĩ
L anggan
ener asi
Ġh otel
Ġmemb olehkan
Ġj er
ĠT ungsten
Ġdi ambil
G ER
ĠA st
Ġber usia
aw apan
7 7
Ġp lastik
ail and
qu e
ek i
y le
un it
ERI TA
ĠP KR
Ġmeng eluarkan
B N
at ur
S K
ĠH us
Ġt un
Ġdem i
ĠL embaga
K adar
e ep
ĠS W
S ukan
Ġmem inta
la r
Ġsen i
Ġras mi
Ġdiper lukan
uh u
ĠL og
emp en
E l
ĠDi j
ham dul
ad at
imp ort
AT I
ĠK ab
AB ATAN
e ut
ur angan
Ġberh ubung
ĠG h
a q
st ag
um kan
ÑģÐº Ð¸
T R
Ġpert anyaan
ĠA K
i ar
ust om
ingk as
Ġ ayam
opy right
x x
ĠA pa
AD I
ĠPeng h
ĠN et
ĠPer l
Ġset ahun
ĠP EGAWAI
Ġk ayu
Ġm cm
W aktu
Pend idikan
ul ia
angk ang
Ġas li
uj ukan
ĠS embilan
Ġ uc
ĠK EM
Ġser amai
Ġtr ans
B A
Ġmela yu
C arian
ala l
ĠB as
S umber
0 2
Si apa
Ġmeny okong
unt ut
T an
Ġd h
Ġpeng g
enti an
utam aan
ent al
ag es
E H
r ika
ĠK asino
n ers
ej ut
n ama
o on
Ġb acaan
ia ya
Ġber ubah
ab aran
ĠR amadhan
Ġmeng urangkan
b e
if e
ad anan
ogg le
af iz
Ġmelak sanakan
ta in
ĠT witter
Ġberw arna
Ġt e
ENG AH
Ġmen ulis
ĠR AKYAT
ela mat
ĠK H
ud in
ĠC on
Ã ¨
w ak
Ġm alah
http s
etah uan
ĠP H
Ġmemb uka
3 1
art in
S er
Ġ id
ĠK eh
Per s
5 9
ant ang
Ġmengh ar
ingg it
ĠP ortal
s ch
s l
Ġz akar
O r
Ġd o
Ġ alat
Ġp ulang
H anya
Ñ ĥ
Ġp us
Ġut k
in kan
Ġmes in
ĠPEL AJARAN
stag ram
Ġf rom
ĠS K
Ġmeng etahui
Ġkeb anyakan
ĠPeng gunaan
Ġf aham
AY U
o int
ĠM ATA
S y
4 9
Ġdir inya
Ġw ak
ĠC inta
tern et
Ġla hir
Ġs ihat
as is
per t
Sat urn
T V
Ġterb uka
K r
Ġpro f
T ips
Seb agai
L incoln
d er
b efore
as akan
raj aya
P aparan
ĠP intu
Ġh e
Ġw idget
D ic
Ġ isi
B ers
ongs ian
OM P
ĠK ap
it er
rav el
Ġc ok
c ss
ous e
ĠTerb ang
5 6
Ġb enda
Ġ2 9
adb ir
p an
ok a
Ġsel es
K ia
Ġper hatian
tiv e
Ġkap al
em uk
Ġc iri
ĠRaz ak
ĠW ilayah
Ġs emb
ec k
wid th
ĠL ain
ĠB uat
u am
en aran
ĠK O
ĠIst eri
5 8
Ġmengand ungi
Ġk al
Ġp anduan
Berc uti
Jag uar
An tara
ahan an
ĠW ang
ĠAl l
Ġ ang
Bu ick
Ġs iri
d is
r aya
Ber k
M emb
aun ter
ing at
Ġd ak
alan ya
Ġ ianya
Ġw ajah
âĨ Ĳ
S c
ot os
w aan
.. ...
ĠAl or
I tu
si f
Ġperm ainan
ej ala
Ġkaw alan
m art
Ġar e
Ġ ;
Lap oran
Ġka edah
ra el
S EL
Ġut ara
Ġantar abangsa
en an
Ġm e
ela t
ĠH AR
A ir
Ġment eri
H ome
Ġm onth
AN I
aw angan
S uzuki
St atistik
h o
ken alkan
un ter
ap e
Ġmen urut
eles aikan
Ġ200 8
201 5
T AR
Ġter g
Ġk operasi
ila t
Ġdij ual
elas kan
anc arkan
op s
Ġy ear
ungguh nya
pa Ã±
amp aikan
f it
s ed
ind ler
Ġtemp ahan
Ġsu ara
ĠD VD
Ġber i
ĠT imbalan
c ol
B r
ĠC ipta
AR AH
ĠB AWAH
ĠPENY EL
K lik
ĠA D
ĠT H
aik i
Ak tiviti
Ġb angunan
Sela mat
ĠMin yak
Ġmen awarkan
ĠB ola
ĠBer t
ĠYus of
n ik
Ġp lat
ĠL a
ĠAk ta
P ADA
y n
ĠJ umaat
Ġmen ingkat
en angan
Ġber harap
uj i
7 8
ĠBlog ger
ri ca
Sek iranya
B ag
A f
ĠPer ubatan
Ġker jasama
Ġmend engar
ĠM SS
D INGAN
ĠMas uk
u ali
um ent
p h
anc ar
ĠA v
ara ya
tr ans
Ġkeb angsaan
Ġ ot
a us
Ġ: )
ep an
Ġter c
ay udara
i et
Ġmen ambah
es el
E k
Ġpem ilik
4 1
Ġpal su
K ata
ĠZ akat
tir af
Ġberm ain
la b
ik mati
J om
ograf i
et akan
of t
os ak
ĠS iti
Ġw e
ub lik
ab a
r ain
Ġunivers iti
Ġap akah
AJ AAN
AK A
f ah
tr y
EM P
ro s
or mat
enc e
ĠD iri
J A
ight s
Res epi
Ġbi asanya
M AN
as ut
ĠW aktu
re at
u ga
ĠE ur
o e
Ġse gi
ĠIntern ational
ib er
ĠC he
A lamat
ĠK orporat
t in
Ù Ī
ap arkan
at uk
Ġterk enal
ĠEk onomi
ĠK orea
ĠE h
Ġberc uti
Ġmen inggal
Ġper h
re v
el ian
ON AL
uk aan
ĠSh alat
u y
ĠN O
M a
em ahan
ag ia
edia an
Ġseb elah
ĠW arga
Ġst ok
ĠAr ch
Ġm ar
Ġy our
Ġp engan
i wa
Ã §
Ġt ali
g o
ĠKAM I
ila ian
Y a
Ġs ay
ab u
ĠP US
Ġsepenuh nya
Ġy akin
ust adz
ĠB EL
untuk an
T U
ĠF it
Ġpr ot
Ġdilak sanakan
T el
Ġmenj alankan
o und
Ġt ungg
ra ul
Ġk ad
AR T
AL I
Ġseb ag
ĠIn t
Ġkar ena
amb a
Ġc on
Ġter utama
Ġ udara
T emp
Ġb umi
p d
Ġg aya
t ing
ĠL td
p un
Mas jid
Ġr ak
as ha
st on
Ġr eka
ind ex
ĠProduc ts
unc ul
K atanya
araw ih
Ġ anj
P et
hat s
Ġp ingg
em en
Z z
akar ta
Ġterd iri
Ter kini
Ini lah
ind ungi
g ian
o ul
ĠSer vices
ic o
Ġdok tor
ik tiraf
ing a
Ġp ejabat
B I
ĠA W
ĠK ES
Ġma af
b ur
stit ut
C at
paÃ± ol
P EL
r ed
ĠHak cipta
em ua
M M
Ġam alan
Ġb ab
C I
Ġsebag ainya
ip un
unc a
Ġbers alin
Ġber ter
ujud kan
ĠTEKN IKAL
k ata
erb itan
R A
omun ikasi
ubuh kan
Ġmen inggalkan
' );
Ġbers et
r ul
ĠMEN ENGAH
Ġg aji
0 7
Ġperk ahwinan
erit akan
ad anya
Ġt ar
Ġpend apat
Ġmeng aku
Ġs aiz
ĠG OL
Ġd ar
. "
Ġp ed
b um
is yen
B eg
Ġp uasa
P ek
ĠB arang
ĠU r
ag ing
ĠM D
ID M
k es
G AN
end ar
ĠK ek
Ġem ail
T IS
T uan
ĠAk tiviti
ĠP P
Ġ ob
ĠM akan
j anj
Ġmeng adakan
um umkan
201 7
Ġsib uk
H iburan
H R
Ġb l
Ġbud ak
Ù ħ
Ġsah abat
Ġd agangan
| |
Ġberas al
hamdul illah
ĠP autan
D r
Ġ otak
u x
Ġh ebat
Ġt uan
ĠA ustralia
ĠKE J
ĠM uk
Set iap
ĠP EJABAT
ip an
Ġ19 8
am is
Ġn g
ĠD UN
ĠR endah
Ġt radisi
re en
ĠU bat
C erita
Ġsem entara
S earch
ĠâĢ İ
at ak
Ġpen ulis
Ter dapat
Ġsek si
ord er
ĠSt ates
int aan
uz u
Ġm andi
Ġb ot
c el
Ġm atang
Mak a
Ġpengh antaran
ĠI mp
ap ur
LIN E
F A
Ġper anan
uk up
CM G
m ak
am era
ĠH id
ĠM ont
M ungkin
Ġp elarut
ub le
k n
am atan
ĠS alam
Ġper dagangan
Ġhar ta
Ġt ugas
ust ak
ĠS osial
Und ang
T arikh
Ġg el
ĠW orld
Ġb intang
tr a
ĠSem ula
Ġs ikit
5 3
Ġdit erima
Ġmem enuhi
Ġk ategori
in ess
N ak
, ...
END AH
Ġn ombor
Kes ihatan
janj ian
M ah
A ng
Ġmeng ajar
n u
C C
ĠTh ailand
Ġs ya
esi onal
Ġj awab
ĠA id
ĠM ata
l ing
eg an
S ebab
ak aran
ĠB aik
Ġmula i
Ġlat ihan
an el
anj aya
Ġter jadi
Ġb et
Ġmeny ertai
d ata
ĠB ahan
ĠP ap
Ġsej uk
Ġterb aru
ĠH igh
Pen yakit
Ġper ubatan
Ġg enerasi
Ġbur uk
R AN
it or
AJ A
ot ik
ĠJer man
ID EO
ĠIk lan
enar nya
ANG OR
uj uh
ANG K
M el
Ġpemb inaan
Ġd aya
int ar
ret urn
ĠMela lui
Ġuj ian
ok er
AG A
ti ba
Ġrah sia
ĠS U
any i
aj ak
Ġv ersi
ĠM ultimedia
ĠPer tama
Ġp unya
A tom
T P
Ġdik eluarkan
ĠS eg
ĠK ad
ĠM ala
ĠP ublic
out h
s ya
Ġin fo
Ġr ela
s ite
ĠZ ain
aw ler
Ġpem ulihan
Is uzu
Ġt ungsten
ĠP am
Ġb ayar
s aya
L ebih
Sub aru
uruh anjaya
est oran
y ss
Ġp okok
u angan
ro und
Ġk ah
g ai
oh or
Ġper bu
id i
ti ons
ic ara
ĠL aut
Ġmenj aga
Ac ura
Ġs usah
Ġk anan
ING G
iz ikal
ĠM B
um ur
Ġs up
ĠS AW
is u
Ġw ajib
U s
emas kini
ro g
Ã ª
ĠO tis
S C
ĠPER C
Ġn as
al id
Ġterk emuka
M in
Ġberk ongsi
Ġw ujud
Ġpes akit
ur ga
ĠPERTAN DINGAN
L abel
alis is
ĠLat ihan
Ġse unit
Ġb r
Ġt ok
K ongsi
T oggle
ĠKom en
ĠM aj
Ġpak ej
Ġab ang
err ari
Ġk anser
n am
K ar
Ġg ela
ĠS urat
UM A
ateg i
angk itan
Pi agam
ĠM al
ĠB UL
ak ul
S olat
ad o
Ġkel ihatan
ĠM alay
antal um
Ġr isiko
Ġber kuasa
Ġand roid
ĠS en
7 6
Ġdiper cayai
ev el
r ia
at en
ĠS Y
ĠC H
o ji
ĠK ita
ed aran
ĠM oz
ĠB u
ta u
) :
PRO GRAM
ĠA da
M AD
ĠTAN AH
ĠM AS
ĠP elajar
ĠM AKLUM
as c
9 8
Ġ9 0
b adi
Ah li
ĠIs rael
L A
ĠS R
Ġ( âĨĲ
aw ak
j ian
ĠPart s
Ġni at
ĠPeng erusi
Ġmel etakkan
ĠJ av
Ġor g
s eg
N o
ĠF re
and angan
Ŀ ¤
Ġm otor
ias atan
t ih
Sem entara
b t
Ġang in
Ġs ifat
Ġhendak lah
b ack
ĠS PR
Ġmemb entuk
Ġker as
il ip
Ġh abis
Ġm uncul
er o
ĠAk hbar
ĠHari an
eri c
Ken apa
ent uh
ĠBERS AMA
L ain
Ġ* *
Ġsed ih
Ġ6 0
ustak aan
ĠD oa
Ġr inggit
ĠK an
Ġp orno
ĠRah man
Ġbert indak
Ð ¹
Ġkem udahan
ĠAf rika
Ġser angan
ĠR AZ
H ospital
ĠG e
os akan
ĠC ont
Ġh as
er g
ĠI poh
M asa
AM AN
ĠPer tanian
Ð ¾
Ġ _
Es paÃ±ol
Ġber gerak
en azah
p ustakaan
G O
Ġdit ahan
ĠB T
Ġbin ti
ah at
ĠF at
Ġkep entingan
ĠBer b
aw alan
if f
Ġum ur
ĠK umpulan
ro ses
ĠGr and
b jektif
umb ang
un akan
ĠPro f
lin ik
Ġm il
Ġse w
m o
Ġr ep
Ġk o
Ġs enarai
rom e
B ahan
ab il
K umpulan
IL AN
Ġs ar
ĠM erah
Ġin ternet
Ġberh enti
Mas alah
erv ed
Ġen am
H antar
IR I
om o
Ġdij alankan
P AS
ĠY a
c iri
ĠAL AM
Ġpeng etahuan
ec tion
ĠZ ul
Ġm arah
sk i
Ġ ðŁ
Ġpek erjaan
elak kan
un ners
Ġsen s
Ġber ambut
ĠB ENGKEL
e in
ĠTan pa
us iness
K etika
Ġmemp ert
Ġseles ai
angg ilan
ĠPas ir
Ġsek adar
Ġcuk ai
T H
ak h
em is
ab it
Ġd vd
ĠJ ABATAN
M elayu
ĠHar apan
Ġberg antung
D P
Ġs ikap
g t
angun kan
Ġbert anya
Ġs aw
Ġbud aya
Per ubahan
unners even
C OM
ĠPost s
si on
Ġt op
ĠJawatan kuasa
M AJLIS
Ġju al
ĠD AT
r al
ĠN as
ĠS atu
ĠK ini
Ġd ewasa
atut nya
Ġak tif
ambil an
L and
Ġpent adbiran
y id
uc ing
ama ah
Ber ikut
â Ŀ¤
r ap
r asi
P ar
Ġnik ah
ĠB OL
as m
ĠM az
C A
b enar
Set elah
Ġn o
Ġperk embangan
erb a
ĠR over
Ġt eman
in al
es e
ĠPer lis
Ġter h
in et
is e
ĠQ uran
ĠSch indler
Ġdep osit
ĠB elakang
ĠG ajah
Ġm isteri
Ġmengh antar
Ter ima
ĠSebut harga
E I
ĠKER AJAAN
udah kan
ĠZ ah
Ġin t
Ġsk ru
Ġt arawih
ĠE N
4 3
Ġper ut
Ġ Ã
ain s
Ġkos ong
5 7
K et
Ġp ukul
Pol isi
ĠPerc uma
w eet
Ġ u
i aga
ĠF oto
Ġind ah
ĠD it
er d
Ġdit emui
k ar
Ġmenj awab
ĠU st
P opular
angg uan
Ġb agaimanapun
edah kan
N ot
un try
S atu
ĠD ENG
erb angan
Ġperk ataan
Ġmus lim
Ġmem ahami
raul ik
Pel an
eg a
Ġmemb ayar
H al
n ing
if ic
Ġber apa
il angkan
Ġt entu
ran Ã§
ĠL emb
ĠUs taz
ĠS oalan
oleh an
f t
es b
= "
IM AT
S tar
D im
Ġs ud
uat ku
Ġh ubungi
Ġ ide
ĠC ap
C ontoh
he ight
G adis
or a
Ġ.. ...
Ġdij angka
s ter
OR M
ez eki
em uan
Ġmod el
ĠK ata
ĠPut rajaya
Ġber usaha
amp ai
ĠM P
ranÃ§ ais
Ġk lik
im age
it is
( );
und angan
Ġm ultimedia
5 2
s ik
Ġdi anggap
ĠM AH
C ari
E ur
Ġt anggungjawab
Ġterb esar
ĠS umber
Ġdij adikan
ĠIm am
ad e
ĠCr awler
ĠPi ala
im e
own load
M edia
J alan
ik et
ĠPeri badi
ĠSt andard
rep lace
Ġhar ap
Ġt apak
Ġt udung
ĠAk aun
ind u
elay an
Ġsebalik nya
Ap p
ĠM artin
eg i
Ġper alatan
v in
Ġst atus
it aran
âĢ ĵ
Ġb awa
Ġc ahaya
ĠAb d
ĠO R
or ban
Ġterb ang
eng th
Ġker ing
Ġs c
Ġket ua
Ġdit etapkan
asi at
S alam
Ġl emah
k et
ĠB ang
S tr
or ak
w anita
Ġf ungsi
C opyright
ĠD vd
v a
ron ic
Ġ impian
ef ox
ec ial
Port ugu
u alan
ip u
:" \
Ind onesia
Ġsem angat
Ġdib ina
ĠB ukan
Ġag ensi
Ġmemb ina
is au
C L
erit ahu
Ġr et
ĠM ini
ĠBah ru
ĠS usu
A t
Ġmaks ud
Ġata upun
AI L
us ter
4 2
C l
Ġmem ohon
eal th
ĠPer gi
ĠMah a
? âĢĿ
Ġun di
ema ah
Ġaut omatik
Ġhar am
ĠR ENDAH
ol ej
M alah
ol e
d engan
angg up
Ġd engar
Ġm aut
elaj uan
ĠK eluarga
Ġsep atutnya
Ġs ukan
ĠS enarai
m ata
ag ang
Ġla yak
elanj aan
Ãª s
Ġh ospital
( ){
at asi
c over
ĠS ej
h u
la d
erland s
ĠPUS AT
Ġkhus usnya
t itle
Ġc ar
K uala
ĠC ity
ect ed
Ġst art
Ġj oin
Ġman is
Ġbij ak
re asi
ez aan
Ġc omments
ont act
ĠAB D
ĠM R
Ġelektr ik
K ER
ind ustr
M us
ĠH ati
t en
az il
ĠH ARI
Ġ anti
oy ce
M at
Ñĥ Ñģ
alak kan
Ġf ir
Ġdi si
ĠPR U
S elangor
Ġs o
Ġ az
lat e
m emb
Ġfak tor
id er
ju angan
D vd
Pen j
orm al
A ssalamualaikum
Ġl ife
K ec
Ġs wasta
UN AN
ek reasi
oh anan
P AK
Kem udian
h d
ĠC at
Ġbert emu
Ġc adangan
air an
Ġmen eg
ĠDENG AN
Ġp u
ĠTerb uka
R ah
ur unan
og ol
Ġmem ulakan
ri z
ĠFir efox
Ġ angkat
S AN
ert aan
Post ed
Ġter uk
ĠPel ancongan
Ġ urusan
ĠO leh
it ed
Ġh amil
ĠN ak
industr ian
S ed
Ġdid apati
m e
Ġin f
er hana
c on
ĠD ua
ĠK in
ĠI ran
a ud
âĢ¦ âĢ¦
ur l
X CMG
eny um
ek ah
Ġmeny impan
Ġf uck
ek aan
an ia
T witter
ĠSet ar
Ġtungg al
W A
anc ong
l ebih
ĠK awasan
B ANG
ĠP UB
ĠY ah
Ġ aman
ĠA udio
Ġf oto
ĠT e
ip ut
ÑģÐºÐ¸ Ð¹
Portugu Ãªs
Ġsesi apa
ĠR awatan
ĠS l
Ġkes alahan
ĠB il
g h
] .
Ġp akar
ĠAid il
ĠS ar
ĠJ adi
Ġju alan
ĠC omm
ok us
ÑĥÑģ ÑģÐºÐ¸Ð¹
Ġmas ak
ĠT on
Ġak ses
Ġpeng eluaran
ĠD ata
E d
v ens
O C
I G
amb ung
ĠC l
T aman
um at
ĠT api
ĠB eg
Ġ0 3
Ġkar bon
am akan
est im
yat akan
Ġd el
Ġpem andu
aj uan
elay akan
ĠP U
or iti
Ik lan
ir al
Ġg as
T ah
ug e
ower ed
al lah
emb ak
Ġpemb ungkusan
Ġsek tor
t op
ĠP eperiksaan
Ch ina
ab ungan
L e
unt ungan
Ġsel esa
Ġa udio
AKL IMAT
ĠSt eel
ĠH itam
ĠS ecara
Ġkeb enaran
F errari
ela san
ul uh
ĠS UKAN
eg ah
ebih i
Ġdik enakan
AI AN
Ġdib awa
ib ir
al t
er an
P ilihan
eh e
Dic atat
Ġkej ayaan
Ġk aya
sc rib
ĠI B
Ind eks
angk au
Ġseh ari
ĠT ips
Ġper untukan
Ġpas t
Ù Ĭ
Ġsep ak
ĠIN I
Ġm iss
ĠPER S
im at
Ġs oal
ĠE X
ta f
oll s
C ARA
ĠSetia usaha
lob e
Ġr ef
ĠI z
Ġk ota
Ġdan a
ĠV an
Ġkont rak
ĠM end
Ġberk esan
S eh
amp ur
S hare
K INI
ad ilan
ĠPen erangan
un ing
It em
m al
s ian
J adual
ĠB l
AN J
ĠBay i
Ġmenghad api
isti wa
ĠB ur
ĠF in
Ġpes erta
m etik
.... ...
Ġt ump
K S
ud uhan
M od
A mat
ik in
L IC
T S
ul um
ĠS eni
I bu
aw ei
Ġb arat
Ġ3 00
ĠSeks yen
Mak lum
Ġ usia
ĠS UL
ak na
Ġt amp
Ġp e
ĠO TIS
ĠC R
Ġseh ala
Ġper lawanan
yss en
P os
Ġb orang
ĠSu ami
Y AAN
Ġj umpa
EK S
fit ri
eg uam
ĠO ut
den um
Ġla mp
it as
eb riti
u awei
os is
amil y
ip i
ch i
ĠM ach
s eb
emerl ang
ĠB et
ĠT alian
Ġ20 20
w i
ĠP aling
ov el
Ġpula u
ĠB antuan
uk un
ĠK etika
UB UNG
eng ku
ara j
j ana
ĠPar ti
Ġhari an
ĠA DN
U m
Ġd ada
p el
elah iran
Ġmer asa
ĠMan usia
Ġn eg
Ġmen olak
3 00
any ol
Ġh artanah
amp us
w ork
Pak ej
ĠM ust
ĠS an
ip t
ing in
ĠS ejarah
ĠB ad
ak lum
Ġsem uanya
Ġs empat
Ġh utang
F ranÃ§ais
Ġker osakan
K ej
ad ik
ĠB ak
ĠP L
ĠK ing
Ġpemb angkang
D ua
ĠL i
Ð ½
em asan
b il
ĠS emp
Ġmeng k
B aca
F at
ĠB lack
Ġk m
ĠTi oman
anj a
ĠC erita
ĠSW T
ind ing
g round
ĠD ib
ĠM ag
ĠBh aru
Ġs ize
ur na
Ġa v
o om
ĠA H
TI V
Ġitu lah
ĠPen yakit
Is lam
Ġ) .
B P
ikl op
Ġmend apati
d ay
S unting
ort h
d alam
Ġdis ebut
h ai
Ġbah wa
Ġ over
Ġperbu atan
uk uman
E r
Ġsel uar
ol id
Ġpos itif
AIN AL
IS I
ĠC ent
Ġmeng angkat
Ġmeny er
adem ik
Ġhuj an
ĠAr tikel
at ch
ĠD ig
us un
Ġmen ikmati
aw l
9 7
c ord
y l
Ġ' '
es h
ĠSel epas
ĠMen engah
Ġmel ebihi
ungk inan
B ar
ĠS aid
enang i
J eep
S US
ĠD ic
Ġdit er
Ġd ek
ĠM U
erb itkan
ĠKer etapi
Ġmin um
emb agaan
ĠADN AN
b ar
B uat
T AK
as ikan
B agaimanapun
ĠS af
ĠG lobe
Ġlemb ut
M alay
ĠH ulu
ĠK ulit
Ġk encing
c s
d ir
al endar
ani es
D unia
ĠBand araya
Ġj antung
AP A
O W
ĠL ab
in ter
ol og
ĠBer had
Ġ( "
KH IDM
ĠSUHAI MI
sc he
lus if
ĠM OHD
R awatan
M Y
ĠL ilin
ul usan
uh a
ir asi
ula s
Ġm ini
ent ley
ĠTer lalu
angk aian
eb u
Ġ0 9
ĠPeng ajian
im ewa
Ġk akitangan
ĠS ub
ĠB ilik
Ġres olusi
Eur ope
ĠP eta
Ġperc utian
ukt ikan
re ad
Ġtim e
Ġmeng angg
T ahun
ĠJ ika
l ian
ĠS and
lam z
Ġ er
ĠPERC UMA
K K
wp i
ĠS uruhanjaya
ĠS es
Ġpelak on
ĠB H
Ġor gan
ĠPol itik
amp iran
ĠL ori
Ġbukan lah
ah ari
end alikan
Ġk atakan
Ġl ink
Ġken al
ata u
od y
n ak
ac y
N I
oleh i
ĠPeny el
Penc apaian
Ġker ap
F O
Ġberm akna
eg as
Ġk ursus
ĠPers atuan
ĠComp any
EN AR
ĠS eorang
i asan
ĠR oad
ĠSUHAI DI
AL AH
ĠS O
Ġhits AINAL
Ġmener uskan
ĠR AM
ĠON LINE
ad d
z i
ĠSy ed
s unting
Ġh alaman
Ġb est
Ġhuj ung
ĠGOL D
ĠCh rome
Ġdib enarkan
k urang
k ep
ic al
ĠExp lor
Ġn asihat
ĠH al
seg men
A ston
ĠL iga
s ep
R AH
Ġh utan
ĠRep ublik
afs ir
C E
Ġg etah
Sem asa
T AH
ad angkan
ĠSH AK
eut sch
ĠS UK
Ġd lm
Ġm m
p as
Ġ3 5
Ġberset uju
ent s
ĠG igi
ri f
az ali
se orang
Ġst andard
ANT IKAN
INGK ATAN
ek tif
am ed
at ah
ĠPek erjaan
ĠG ol
Ġr ancang
anj ir
Ġb atang
ri ve
Ġwak il
Seb enarnya
eb uh
Ġg o
ĠSun at
P h
imb angan
Ġs gt
Ġj awapan
Peng angkutan
ab da
ĠExplor er
Ġl et
Ġr ingkas
Ġh aiwan
M ain
X X
si j
Ġperb andaran
Ġik lan
R olls
ĠPi agam
C O
Ġmah kamah
l umb
Men u
Ġs araf
Ġkek uatan
ul us
ĠS o
Ġb esi
m em
el da
ĠD ip
n egara
Ġterl ebih
Ġp elajaran
Ġmenj ejak
Per c
Ġberl angsung
ĠT et
Ġpes anan
S O
Ġpeng angkutan
Ġf ail
ĠT entera
Ġp ilih
Ġkec amatan
R akyat
ĠB orang
ch ronic
ĠPengh antaran
our s
ĠS lot
ĠT ali
\ '
B entley
aklum kan
Ġpemb ayaran
AT IHAN
Ġmem ikirkan
uh ammad
ger akan
Ġ ga
ĠPent adbiran
t ab
est in
M O
put us
K omp
Ġmen onton
S AAN
Ġf ikir
ĠR ed
Ġp ayudara
Ġj ust
L G
ĠMEL AYU
Ġmen unggu
Ġman faat
L a
PB B
ĠE mail
Ġdid akwa
ĠP uasa
chronic z
Ġj anji
otos ikal
Al l
Ġseri us
ĠRAZ IF
ĠK ong
Ġpr estasi
Ġbers ih
ĠDari pada
AT U
ĠK elas
Ġmembuat kan
ula uan
et h
ĠK od
Ġd esa
b oard
U lasan
Ġkec uali
Ġsh olat
B ek
P D
K ini
ĠKr abi
Ġpes awat
Ð µ
v ille
Ġr eal
Ġs eng
ĠP ri
y h
Ġ o
ĠK ualiti
ĠUnd ang
Ġbar angan
ĠR ay
ĠM urah
ik utan
P H
inc in
ĠD e
Ġof f
G r
ĠT as
7 2
iaya an
ĠRAS LIN
6 9
it t
V IDEO
ĠP antai
ĠSH AH
land s
or eng
eg ahan
Ġc arian
ĠPerk ara
w eb
c l
Ġ alasan
Ġmiss chronicz
engar uh
IN D
Ġb ukti
ell o
I su
Ġpand ai
L atar
Ġsek eliling
Mem ang
erah kan
k lusif
ĠB akar
ĠB ook
Ġl uas
ĠAst ro
ĠD em
Per utusan
Ġpeng undi
Ġseb aik
Ġ200 7
ĠPUB LIC
ĠD ARI
Ġs umbangan
Ġt unggu
ĠM ain
iz i
ĠH ome
Ġ usah
Ġstr uktur
ent ar
ac ific
ĠPerb andaran
amb aran
Ġseb ulan
Ġbert ujuan
H alaman
Ġp ur
ĠD oor
Kep utusan
elah irkan
Ġw bt
ti an
ĠPak ej
Ad uan
Ġk imia
aj at
S B
Ġpr om
iv es
Ġk ab
ĠL agi
Ġmeny elesaikan
esb ian
Ġas pek
Ġg ear
p lay
Ġp antai
Ġ op
unt utan
emuk akan
ug h
201 3
Ġj iwa
Ġt inggalkan
Ġmod al
ĠBer h
Ġmem er
angk awi
Ġd adah
ag lamz
u asan
Ġkem alangan
ut uskan
end irian
R eal
ĠH an
ang nya
Ġs idang
Ġmel uas
P e
" ,"
Ġ10 24
IM P
b aik
ĠC or
ĠO ce
in sip
DA F
elab ur
Ġn asi
S eg
Ġput us
ĠMes yuarat
ĠK UR
ut e
isi atif
Ġar ahan
Ġsemp ena
ĠPes akit
D eutsch
Ġkomp uter
Ġsamp ing
Ġd er
ĠP engan
Ġberter usan
am alkan
ID UP
Ġac ara
n in
alian o
ĠS alah
ĠB acaan
T ERI
ĠP anas
ing kan
ola r
Ġ ir
ĠG unung
Ġmen uju
Ġsen y
Ġl ancar
OG I
Ġmeny ebut
ĠAL LAH
ua ikan
ĠR e
Ġs ungai
ĠPem uda
Ġp rivasi
ĠT anda
Ġkem ahiran
ĠPr ot
S al
el y
ĠKel uli
Kr upp
yssen Krupp
out ube
ĠK AD
b en
uc uk
d ot
on en
Ġti ub
Ġdapat kan
Ġs anggup
EW AN
ĠA PI
Ġpelak sanaan
ĠP angk
ai f
ĠB ila
amp uran
Ġkomun iti
P hone
s o
8 9
T EM
ĠKomun iti
ĠS ubang
ĠD ik
Ġsal uran
Ġsed angkan
ĠI tu
Ġre qu
asc ript
ed an
mar k
od enan
Ġpro fil
k el
ĠP us
ĠAng k
ĠAn ugerah
ĠM alam
Ġp on
B anyak
v an
ĠH D
ĠS ihat
ot in
ĠP lus
ur ian
Ġh is
ing s
D apatkan
Ġmer ujuk
ĠD esign
ĠP adang
en ek
Ġpeng ajian
ĠRes erved
$ (
ĠKEJ OHANAN
g ent
em aran
Ġj enayah
ab alu
uge ot
uas ana
et il
Ġdib uka
Per alatan
ur ik
Ġlog o
Ġkeb aikan
app y
Ġberc akap
Ġj epun
Ġak hbar
Ġcok lat
Ġin stitusi
y o
P ela
iklop edia
ĠJ akarta
t api
AG AI
ĠPen uh
uatku asaan
Ġberm aksud
ĠBr it
per k
O n
ĠK on
E mail
Ġh ere
ĠSeb elum
6 2
ĠK ak
las si
ĠAidil fitri
ĠP B
ĠM azda
Ġb aki
ĠPut ih
ĠIS O
ĠB ut
Ġg ila
Ġide a
5 4
ĠPerm ainan
Ġmemb eritahu
m acam
eles aian
ĠS ens
Men y
Ġd uk
Ġdil antik
and at
I J
d ari
K ek
ĠS LE
B AH
dn k
Ġb t
sif at
end i
os s
Ġ0 8
Ġmengand ung
Ġmend akwa
Ġj angka
ail y
Ġl etak
Ġaw ak
Co unter
Ġdok umen
Ġsah am
Ù Ĩ
ĠU lasan
Ġmod en
Ġpant as
ĠA vis
ekn ikal
Ġpend ek
and ung
Ġse c
ĠA yam
Ġbern ilai
ĠS ig
ĠMeng gunakan
S eorang
ag o
Ġdip anggil
ĠT ender
la g
ĠMoz illa
ĠC O
ĠSEL ANGOR
is ian
Ġterb abit
Ġmenang is
ĠH ukum
i w
Ġmeng awal
ol yb
S o
ĠW ah
s ub
aik kan
Ġ5 00
utan an
Ġf izikal
It aliano
um e
i er
I r
Ġm au
ug ian
on ic
Ġ out
Ġc el
G er
L at
b b
Ġb u
ut ar
angg u
ol es
j an
ĠAvis ena
et s
T D
Ġmeng apa
t entang
Ġk oleksi
SE KOLAH
aj ang
m ain
c er
Ġhits Nor
ĠJ angan
.... ..
Amat eur
emb ira
adb od
K oleksi
ĠB eb
ĠPeng angkutan
ĠB LOG
Ġmenj elaskan
c ayaan
Ġdi had
Ġin ter
ĠJav ascript
ĠPet i
ĠI CT
ĠJ ul
ent angan
Ġprof esional
el ong
EN SI
ab ib
O ff
ENT ERI
ateg ik
b uat
Ġl i
ĠBIN TI
ob il
B i
s w
ĠK ursus
uas ai
Ġpemb elian
ĠM isi
L okasi
ĠM ore
ĠNEG ARA
N YA
ĠAs li
Ġd r
al ih
Ġmonth s
ĠC ukai
ĠR emaja
ĠIr ine
7 9
af f
Ġt angga
ĠSHAK LEE
Ġc om
W alau
I I
P EMB
p em
' )
ed eraan
or ks
Q ur
l l
eo Counter
eh at
ĠIl mu
en oid
ar am
ĠSep anyol
UBUNG I
t ah
IS AN
Ġmem andang
ĠR us
Ġberk ahwin
C ategory
ran e
ĠG R
ĠB arisan
Ġart is
Ġmenj ual
ap is
M inggu
Ġkons ep
IN A
Ġpen er
ĠL ah
Ġent ry
ĠR ights
ik ro
z e
ĠT arikh
Peng umuman
Ġy e
ula an
ANT U
" ).
âĢĿ .
Ġmeny ampaikan
Ġr ezeki
ev iew
ĠS L
Ġ ~
ĠI P
ĠP elajaran
Ġg ula
o uble
Af rica
ro om
Ġmengh itung
R oyce
Ġw h
ĠA kan
ĠP os
n is
ev er
oc ument
it us
Ġb ec
anc er
ĠS earch
Tan pa
ang e
Ġ7 68
ĠK lang
ul ung
ĠT ID
M ari
ed erlands
Ġb ang
ac u
Ġ ens
Ġperm intaan
ES I
IS MA
Ġdalam an
IR AN
ĠPet ani
ai lab
w e
ĠF aiz
uru f
urut eraan
ĠK it
ĠPergi gian
ud uh
Ġberf ungsi
ĠPar k
yak inan
lin es
or sche
TI M
Ġmen yak
ĠAn tara
enai hati
ĠIt ali
ah i
em ar
ahan kan
ov a
p os
D em
tern atif
E X
Ġh ukuman
epas kan
Ġr up
Ġras uah
Ġw hat
Ġk ot
ES T
ah awan
Ġw atak
d ara
ĠZ aman
ti ga
urun kan
ok et
ĠBrit ish
ĠO perasi
ĠEl ektr
ĠM H
ĠSep ak
Ġpel ik
ad am
Ġp intar
Ġ imp
Ġuc apan
olyb denum
Ġ199 7
Ġkak ak
K EJ
Ġbut iran
ew at
emb ar
AG IAN
ir ing
angg ar
t n
Ļ Ł
î ĻŁ
B isnes
ep asan
ĠL irik
el le
ailab le
Ġk elak
KHIDM ATAN
Ġ3 2
Ġsun nah
ĠE r
ĠL in
p ing
K awasan
r us
es uaikan
-- --
ĠKin abalu
Ġt angk
m asi
ĠI a
st yle
es aran
ĠO f
âĢ ĺ
ind ow
Ġmem egang
AP AN
am m
Ġd ara
Ġsamp ah
Ġdik etahui
ĠM or
import ant
t idak
ĠP aparan
Th is
tuk ar
Ġp uas
L elaki
Y ou
ĠS erb
Ak hir
Ġj ari
Ġw ar
Ġt ambah
ĠM u
ac ang
S U
Ã ¡
Ġ Ø
ĠPas aran
ĠP UT
ah ulu
Ġp anggilan
Ġsem ata
anak ah
Ġmem enangi
j azah
p ost
h al
ĠG roup
ĠK uasa
ĠPENYEL AR
Ġin ci
M U
ĠSE TI
ond on
ĠE v
b ers
Ð »
ĠE m
le ft
L agu
K AM
Ġkar ya
in ah
Ġb antu
Ġt eknik
Ġb row
AN C
st em
Ġs imp
Ġpingg ang
ĠC ab
Ġg ue
3 50
Ġsemp urna
ĠG T
Ġmem akai
ick up
Ġmew ah
Ġc o
im ah
N A
os h
ĠÃ Ĺ
ĠM EI
Ġj ur
L angkau
ĠPer empuan
Ġpen ingkatan
ĠT AK
ĠK elab
ib le
Ġtim ur
m is
ĠPENYELAR ASAN
ĠH e
Ġmen entang
Ġres ult
Ġk ahwin
ed a
F C
6 3
I st
ekut if
ingk ap
Ġperl indungan
B UK
ĠD arah
ĠIs u
Ġr ama
Ġ4 5
k od
ĠT anjung
ter s
usi on
Pen erbitan
Ġb ilangan
tor y
O bjektif
ĠP injaman
ĠR om
M ent
ĠB M
ai h
Ġh amba
ut kan
ag er
Pemb ekal
U J
Ġes ok
Ġk itab
ĠN az
Ø§ ÙĦ
ĠIn fo
ĠD ak
ĠSig ma
Ġv iew
Ġper aturan
Ġmeng ekalkan
S e
ir us
ak um
ian o
Ġdih asilkan
M ohd
ĠG adis
Ġg unakan
ĠA y
Ġla m
ĠMSS D
Ġmes yuarat
ov asi
B ay
D it
Ġper anti
L ER
Ġm ekan
ĠBER K
t ahun
ĠKE PADA
ĠTi ub
inj am
Ġt a
inc ang
l ed
Ġal iran
Ap likasi
of f
ang it
amb ang
B ERITA
eh er
ek itaran
Ġm elahirkan
asha ari
6 4
af ir
ĠM UH
ĠM un
ĠJu alan
Ġtradisi onal
Ġis ti
uck y
ĠL TE
engg araan
ĠHas san
AIN S
Ġk ongsi
Ġk ain
en e
ela i
ĠAd am
ĠB ajet
urik ulum
Ġl ike
ĠB y
N ederlands
Ġ ajaran
Ġdip ilih
Ġmeng es
Ġr ingan
AR IK
Ġke untungan
Ġbag us
Ġd aun
m ula
ĠW ire
ĠM enc
g anya
Ġj amb
Ġbern ama
U TAN
ain kan
ak e
5 1
Ġmen angani
Ġdi f
B eb
Ġber ani
Ġ uang
b ut
tiv asi
ĠT entang
ĠM emp
ĠG ear
U C
hir t
k alau
c lus
Ġ erti
ĠB alas
ĠB ot
Ġb angun
U G
il m
isk in
R amai
ĠMEN TERI
ĠT empatan
ati ve
end ang
Ġt ulisan
Ġsens itif
c ess
ĠAm ir
Ġpert andingan
ud it
ĠT ravel
er ia
p ap
Ġmemb enarkan
ĠP an
ĠB UK
Ġes k
Ġc ontent
K eh
ew ah
ĠEn jin
Ġmeng enal
ĠD es
Ġs aid
AN TA
on ok
AJ AR
ĠM ic
M acam
asis wa
M P
i yah
Dari pada
Ġt imbul
ec air
j ur
Ġbag inda
R aja
Ġad akah
ot ensi
U bat
Ġl ilin
imp ikan
uc u
ĠAw ani
angk it
kurang nya
Ġla w
Ġal l
ala i
Ġ8 0
ĠPeng g
ĠUst adz
ĠKO TA
AK IT
d om
ongs ikan
P ilih
m ara
Ġt ujuh
Ġb uka
7 1
Ġket ingg
Ġh ijau
But iran
Ġg igi
7 3
kand ar
el it
ĠPerh entian
H ai
ĠHotel s
Ġp op
and angkan
um iput
com e
v al
l elaki
Ġbert anding
Ġper juangan
ĠM ulut
I TA
m od
uat kan
Ġens iklopedia
E E
Ġmengikut i
Pek eliling
ĠL o
K T
im au
Ġmemb alas
Ġm uzik
Ġuj ar
ro ss
Ġm al
ĠD h
ĠC om
ĠMes ir
raf ik
Ġw a
Ġpemb elajaran
ĠH alaman
Ġbers edia
G B
K os
Ġd aftar
ĠMoh amed
ed ding
Ġpenj agaan
Ġ aj
ur ni
Ġsed erhana
Ġ îĻŁ
d eka
Ġmem udahkan
B lack
ĠMas yarakat
ok tor
AJ I
oot h
t he
id ebar
omb ak
illa r
ent ikan
pe ed
em atik
enz hen
ĠU p
Ġalam at
ĠT ekanan
ĠIn f
emb ahan
eng aran
ud ang
O B
T ender
Ġf lange
Ġc ont
Ġr apat
ĠP ickup
ĠPER J
uli ah
lumb alas
ur ung
r c
omb a
Ġtert inggi
Ġesk alator
s ikan
Peng alaman
Pak aian
ah aman
B y
ĠZ akar
Ġsek urang
1 50
Ġc uti
Ġh ave
ĠPen umpang
Ġk ut
Ġk iri
l ight
Pemb angunan
ub aan
Ġkem enangan
Ġ its
ĠTID AK
Ġf ree
k it
ĠBi asa
T e
ĠP E
Ġberd iri
T AS
ĠP at
im er
Ġav ailable
ĠM ED
anjut nya
erl uan
clus ive
S iasatan
ĠR AH
Ġem el
Ġcer ai
Ġb engk
angk raf
B ul
Ġber akhir
Ġdila porkan
Ġter per
engg ara
H e
idup an
anc aran
Ġsem inggu
Ġmeng ubah
Ġ engk
ĠM ER
ĠSil ver
s ek
ĠS tar
A ut
Ġmin at
ĠC y
ĠR o
ĠP OL
ï ģ
in er
Ġper lahan
D ewan
Sem oga
ĠAg ung
int ahan
ĠS he
aus e
ĠP elak
orm ati
N egara
elas a
St esen
Ġpemb aca
Ġt olong
s em
Ġsitu asi
Ġk empen
ol s
ĠT engku
H IB
ad ia
Ġla r
ij i
ĠTah unan
K omun
ĠC ari
M DB
Ġsep aruh
AJ AH
gent ina
Ġt ingkat
ek ap
Ġg angguan
et es
ĠF L
PS R
î ĺ
ĠSh olat
4 00
Ġf esyen
up aten
ĠPer ang
ĠC E
al nya
ĠJ awab
ĠB es
Ġs isi
c es
ĠS ent
ĠM obile
ĠS pr
ĠL ong
Ġmew ujudkan
IM A
ĠT INGG
ĠAs as
W eb
Ġberf ikir
uah kan
Ġter asa
t y
ĠMas alah
Pel uang
amb arkan
ĠM Y
Ġke had
Ġbrow ser
h ab
sed ur
ĠAm erica
adi um
T ype
Ġk adang
ĠF ila
ĠM e
ĠR oh
d etil
ĠSa udi
r ent
ĠH utan
ĠBud aya
il li
ol um
ĠBOL A
ĠB isnes
f or
Ġprom osi
ot e
ĠPerh utanan
amp i
ak kan
Ab out
Ġp an
Ġs alam
ik i
P orsche
ĠS akit
ĠDij ual
ĠHak im
Ġbi ar
ĠD rive
M u
Ġ et
ĠKh alid
Ġpant at
ĠK ons
ĠK awalan
Ġd osa
Meng h
Ġ Ð
ĠBer at
uster u
Ġ `
ĠR usia
ob a
er as
ĠG ate
Ġdi mana
ed era
Ġm aju
Pe ugeot
Ġj entera
ĠF elda
Al hamdulillah
ĠPenj agaan
ĠB est
og ram
Ġh any
Ġp ah
ĠY ork
!! !
ĠW ord
ay angan
es is
ĠMa x
ĠTr uck
ĠL esen
Ġv s
S alah
h luk
Â Ń
ĠZ an
Ġk n
Ġ7 0
Ġse olah
ĠAm alan
Ġter uskan
d ai
ĠKed ua
ĠPer alatan
ĠKU ALA
ak ta
Ġmeng elakkan
Ġplat form
Ġmah upun
ĠR ob
Q u
Ġpemb er
Ġses etengah
ad h
Ġperb incangan
Ġset akat
ĠP romosi
un ei
Ġd ay
Ġmeng umumkan
b ahan
Ã Ń
Ġh at
ĠKen apa
ol i
Ġas et
Ġker ugian
ĠY DP
ih al
Ġke utamaan
id angan
b ila
ais al
ĠS ewaan
eg o
Ġ emp
re atif
er k
Ġ199 5
is ter
Ġsed ap
Ġtr end
s ara
ĠPol isi
ĠNet work
an n
R as
ĠPem ulihan
Ġt aman
Ġsun at
S eri
Ġg ak
201 2
Ġm ore
Ġc uri
ASI ONAL
is y
Ġtar ikan
Ġj aga
ĠM i
U AL
Ked ai
iktiraf an
ams ung
emp ut
ĠL angkawi
Ġp art
Per niagaan
ĠAl ih
ĠMEL AKA
Ġberh ampiran
id b
Sk ip
Ġstok ing
K erja
Ġengk au
ov en
F ilem
ex ico
Ġmer angk
ĠBer d
ĠM ari
Ġf orm
d ate
umiput era
ĠS ebab
ĠS ud
tuk aran
Ġsu am
t ro
otor an
ĠPer umahan
ener al
es if
of a
S urat
ĠK isah
Ġmen utup
Ġg embira
Ġmeny el
Ġad min
Ġkemudian nya
T utup
ĠBers atu
ĠC antik
C on
ot ot
Ġmemb unuh
ĠS INI
I b
as as
D E
Ġn abi
D ik
elab uhan
es ahan
OL OGI
Ġmenghar gai
ĠL ee
a ul
ir o
int ai
la p
Ġ ev
ec ent
ĠT ahu
ila pan
IM AN
Ġmemas uki
L AN
Ġc abaran
ĠH ong
ĠS P
" }.
u aian
M ont
unt ikan
rol l
at ing
Ġmeng ak
uti ara
k isah
Ġd aging
ĠW hats
ilik on
unc it
wp idb
Ġmeng emb
ĠG ST
Per h
Ġber ikutan
B uka
Ġdih antar
ist al
ĠP ul
Ġl emak
Ġm ag
ĠS aw
as tera
ĠH j
Ġb ro
ĠB ab
lat an
W h
Ġberm inat
Ġberp end
omb ongan
or ry
ĠA ri
omo tif
Z Z
Ġad uan
amp as
ĠP IN
ĠE K
ĠK PM
or kan
ul uskan
K ad
ĠW ar
Ġmeter ai
ĠIN G
ĠPer industrian
ĠS okongan
Ġkep adanya
m impikan
l ess
T et
k ey
t t
h or
col or
ĠC ustom
Ġr unnerseven
Dim impi
ĠDir aja
ĠPro jek
K aedah
Peng enalan
ĠH ana
uf ti
ĠH adi
Ġr aja
7 4
ay asan
S Y
ĠM c
Sep erti
Ġs asaran
ak ili
V isi
Ġ200 5
ĠMus a
k em
ĠBer p
ĠS am
ĠT ag
Ġpeng inapan
ĠB o
UR L
l ist
Ġt ema
k if
Ġd awai
ump ah
ĠB R
ĠB lu
our t
z im
lay er
M isi
Ġmak in
ĠG en
K ampung
Ġdit ubuhkan
AA AA
Ġ5 9
ĠTur ki
ĠKh air
Ġterk ejut
Ġ200 6
it ud
vens ka
ĠM UR
ĠAR IF
Ġt and
Lap angan
ĠLap angan
r akan
h ak
k adang
inc angkan
Ġd ubur
Ġmen entukan
ĠD AR
Ġanak nya
Ġmenyak sikan
omp ok
Ġap p
ĠC al
at s
ain t
D UN
iv er
B aru
ĠD el
Ġm om
t im
Ġn eed
IM B
ĠL and
8 5
ĠK D
ip is
ĠIn stitut
E AN
ĠArch ive
ĠP ad
ĠP CB
z akar
ĠUnd angan
Ġpen umpang
Ġw ant
Ġkehad iran
per gi
ĠKE H
Ġmer ancang
iet nam
R am
l ength
Ġb imb
Ġrela u
Ġb unyi
Sh ow
ĠDig ital
ĠAd uan
Ġdak waan
P ihak
Ġpus ingan
Ġment al
Ġini lah
KEJ OHANAN
Ġber per
eb asan
atuh i
ĠP N
ĠD ah
Ġsk rin
Ġdar jah
Ġm et
Ġn ew
ĠBel anda
Ġpend aftaran
ild ren
ĠBer j
b el
er m
Ker ana
s alam
on an
Ġ, "
OR T
Ġt eb
n af
Ġt epi
S udah
ĠS UNG
NO OR
Kem udahan
ĠM A
ĠC re
B andar
it ec
ĠB en
Ġpert umbuhan
ĠPela wat
eg ar
Ġbert ambah
' t
lin k
Blog ger
id in
T un
Pol ski
W AR
uch ing
u aca
ent ing
Ġk ucing
S ee
Ġper tanian
f ol
Ġr oda
ikl anan
Ġs uhu
ant ara
ĠO mar
Ġbukan nya
Ġsud ut
Ġ) ,
Ġk unci
ĠT op
ĠKem ahiran
Ġm on
Ġ14 38
Ġb enih
M akan
lam a
Ġpers oalan
Ġtel inga
M ENG
Ġk lip
Ġpihak nya
Ġters enyum
ĠAw ang
Pro jek
i am
Ġj arak
ag on
Ġr ekod
S l
ak tor
ĠKec antikan
ay akan
Ġ %
ĠSETI A
Ġbat uk
Ġres p
ĠTer ma
P UT
OR ANG
bah agian
ĠH yundai
end aki
oh an
ap akah
Ġs ent
Ment eri
af e
Ġp atut
ĠTer akhir
ĠT rip
N ur
R ekod
Ġhttp s
M AKLUM
ĠPend aftaran
H AR
ya p
' .
ĠW arna
AM MAD
b ot
S venska
Ġot her
Ġm u
T eknologi
ĠF aisal
land er
is ma
af ah
Ġb unuh
ĠKer jaya
estim oni
Ġdem am
oul d
ĠM ov
Ġsk ip
B ENGKEL
Ek onomi
aa a
int as
eri al
ef in
ond ok
ĠAn ti
ENG GAN
N ik
M ag
Ġmeng atasi
D ah
Ġkem ungkinan
ĠR eg
ac ara
Ġr eg
uk uh
ver ter
Ġber asa
H ow
ĠR od
ĠDi pert
Ġs idebar
Ġk elab
Ñ Ĥ
Ġ ef
Ġr ujukan
Ġanj ing
Ġper ak
ĠJ as
sk ip
Ġlap angan
ĠS AINS
F ORM
Ġpeng unjung
: :
ĠKAD ET
ĠM EM
ed u
B etul
d ia
om est
ĠSh enzhen
ĠE mp
SEL AMAT
C om
Ġsebagai mana
ĠU L
ĠD in
ĠM EMB
Ġper janjian
Ġtump uan
C EP
Ġin isiatif
Penj agaan
uk ang
Ġd es
T ab
Ġkel ebihan
ĠT enaga
ĠZ H
P ulau
ilip ina
P ÑĥÑģÑģÐºÐ¸Ð¹
n an
ĠAm eric
as iti
C ol
ĠS amp
Ġber umur
imbul kan
ĠPal estin
ĠS D
ĠB ro
IL IHAN
emb an
Ber d
t inggi
Ġp eperiksaan
Ġr ata
emp roses
L D
ak aian
Ġmasuk kan
C ontact
Ġl eher
af ikan
Ġ ep
zah rul
ĠhitsNor zahrul
ĠZan adanan
g mail
P J
K ap
ini um
Pem odenan
6 1
S un
as ang
KR S
Ġab u
AM P
Ġd rama
Ġmeng amalkan
Ġt ulang
ĠC omments
Ġm otosikal
ĠS ER
P ut
Ġfit nah
ĠKomun ikasi
H AT
at ed
n ia
untuk kan
eg riti
Ġ uk
Ġberk embang
ĠJ enayah
8 16
ĠF A
er ap
Ġpeng enalan
Ġmaj oriti
Ġbah kan
w ood
r ist
P romosi
J am
g ambar
i arkan
im en
um mer
Ġan ugerah
Ġmen u
SI TI
el and
aj ahan
Ġp apan
Ġdis ini
Ġp oint
ĠL ondon
ĠG ran
Ġhits NOOR
Ġula ma
Ġmes ra
Ġh and
ĠT own
ar ch
ĠSM K
mar gin
Ġok ay
uh ai
ef a
ĠGh azali
Ġh alal
Ġkep impinan
j en
K dnk
Ġhar apan
Ġm ohon
ĠPut ra
Ġt as
k eb
us uan
Ġ5 5
arah kan
ĠPAS UKAN
da erah
Ġb re
uj itec
en anjung
ĠM OD
ara ikan
iks a
sp irasi
Ġm ul
ok e
ĠIs kandar
Ġr ancangan
" );
ar ia
Ġmin uman
Ġh ours
Ġ ov
ĠV itamin
Ġni e
ĠP AK
ok umen
Ġp ortal
ĠST PM
Meng apa
scrib e
Ġse latan
AC A
P ress
Ġg old
Ġd esign
Ġun ik
Ġw ill
Ġm eja
Ġsamb utan
Ġdit awarkan
Ġk art
ĠARIF IN
ny ata
Ġt ulis
Ġw ww
Ġpr insip
imb angkan
Ġpers et
p g
amp uan
Ġtun ai
im u
Ġberd aftar
at alkan
ĠJ ack
Ġdib awah
ĠIn s
Ġg ejala
Ġor ganisasi
201 0
ĠS amb
el s
Ġla a
anding kan
S ah
Ġem osi
Ġpemer intahan
Ġset ia
k erja
( )
m on
ĠMeng enai
ĠV er
ung kan
i ang
Ġmeny ambut
alah kan
2 68
ub uran
ĠB ES
( ).
ĠPangk or
er ing
Ġsus pek
w o
ter aan
Ġ1 50
Ġg en
alu e
Ġpenyel idikan
m es
L embaga
Bers ama
u gi
ĠKing dom
ĠSab tu
Ġmer asakan
Peng g
T apak
AD AR
Ġdig ital
ela m
Ġr ibu
Ġant aranya
S ultan
M on
ĠSPR M
ĠU l
Sek arang
Ġstr ategi
ĠM AT
Ġm un
ĠM ana
Ġberb uat
ĠSeb agai
ĠS ak
Ġhid ung
ĠZ UHAI
ĠB angunan
Ġm uk
ing o
rog ol
Ġc ipta
ĠT angan
end am
Ġs impanan
Ab dul
Kem enterian
ĠZUHAI R
Ġc emerlang
Berk omunikasi
ĠAZ UAR
Sem akan
B hd
Ġberas askan
ĠR eal
em ail
ĠT UAN
Ġlalu i
ens ik
Ã ³
B eli
ungk us
6 00
Ġsy urga
E m
UL AR
Ġ 99
Ġb os
t anda
OR I
Ġse e
Ġc etak
Ġtel ur
ĠUs ahawan
Per pustakaan
ĠR abu
Ġis ter
ir l
ĠL aluan
ĠB eli
ENGGAN U
t ext
Ġ iz
ĠB enih
ĠH amil
Ġberd epan
ori al
Ġse wa
oc co
Ġmem utuskan
B ilik
ĠD atang
ĠM p
ĠK ahwin
Ġpem inat
ni ah
y lus
Ġt untutan
G oogle
Pem ain
ĠR ambut
Ġs ing
ĠAw al
ĠE st
ĠT iga
i ous
ĠKE T
Ġm alu
Ġkek urangan
ob i
Ġg et
ok s
P ap
Ġsh aklee
ĠBr azil
on j
er ahan
Ġt umb
up us
Ġd apur
ĠB AN
end ali
Ġt ol
Ġs aman
ag alan
ĠBah aru
Ġprot ected
ĠU R
s urat
Ġmat ahari
kif li
ĠKab upaten
PER TAN
M akanan
ĠB apa
ac un
Ġpeng ambilan
en om
PR K
K emaskini
ĠAZ IZ
Ġpeng ajaran
ĠMas ter
Ġpeny okong
Ġ4 8
ĠB ayaran
Ġlog am
Ġs ih
ĠTer k
ĠS endiri
ĠC AT
ĠKh amis
Ġmew akili
Ġs uasana
ter eo
Ġt uhan
ĠD B
u u
ĠP anjang
Ġmes ej
ot her
Ġpela cur
lah irkan
Ġf ikirkan
Ġs impan
Ġlamp u
ind er
K hidmat
S yarikat
ĠMeng h
ĠAN DA
Ġbij i
Ġin san
E V
Ġberk es
Ġket at
ĠK OMP
uj ung
ĠE nglish
Ġ> >
Ġsem ester
ĠH i
ĠAg ong
Ġbah agia
ĠK alau
pr otot
y ukur
ĠV it
T weet
ĠL ink
Ses ungguhnya
in fo
em ukan
Ġla yan
ĠK ajian
Ġmengh alang
Ġnik mat
ĠAut o
protot ype
ĠH uawei
uc tion
ĠA had
ir aan
Ġmah al
ug al
Ġse x
V IR
anj urkan
Ġneg atif
ĠK ali
Komun iti
ĠT ar
ĠIN D
âĢĻ .
Ġkem enterian
inc i
ĠSE K
ĠDi esel
IL A
alan i
r im
Ġk uning
ER L
erj asama
M D
J ohor
anc ap
ab rik
Ġjam inan
D ata
GER IS
ĠAir lines
ĠD ep
ĠKep ulauan
Ġmenj elang
ev isyen
ĠSUL TAN
ĠING GERIS
Ġs am
9 3
Ġt amat
C er
Ġsew aktu
Ġg out
Ġp residen
ĠC an
A udio
Ġl ori
Ġh appy
n ey
Ġt ips
ĠB U
ĠAman ah
es tiv
G et
afs iran
Ġmer awat
ip ment
si aran
M EN
p m
Ġtak de
Ġk alian
P acific
Ġdi ubah
ĠQ u
ĠK ont
Ġmel indungi
ĠD aftar
ir it
ĠPer jalanan
S en
Ġker jaya
S ejak
ĠE L
Ġc ikgu
Ġmela inkan
Ġak si
Ġpenj ara
Ġmen ahan
Ġpel an
g aan
Set s
ant ou
Ġmeny ed
ĠSy ariah
p is
ij rah
Ġd a
K aunter
re f
Ġm ala
Pol is
Ġperk ongsian
ĠNo or
ĠR oda
ĠM ewah
Ġbers amaan
ĠCont in
b ank
Ġr adio
es ak
hat ikan
: #
ĠW ak
k g
ĠL okasi
Ġyear s
D IN
ĠR O
k ipun
Ġr estoran
ĠS S
ul en
ĠTel uk
Ġdi w
Ġret urn
} ,
Ġâ ī
Ġnas ib
ĠU ni
Ġterp elihara
ĠPert ubuhan
Ġhak ikat
Ġser vices
In t
B elum
al ent
ok rasi
ut asi
enc i
ĠU PSR
unj ungi
ĠY ou
An ugerah
E TA
at angan
ĠJ om
M ic
Ġgela p
Ġk elahiran
ku ad
ĠP uan
ĠA SM
uc apkan
Ġm iskin
ĠS aiz
AY AAN
UAN TAN
Ġpen erbangan
i at
ĠH y
Ġim ej
Ġs ol
ĠL R
H AD
ĠM uka
ĠC amer
Ġ1 60
ĠJ awa
omb ang
el an
Ġ0 6
M IN
v ert
Ġpen iaga
g en
Ġf unction
ek or
E A
f iz
Bag s
id yah
IK A
Ġmen emui
eks port
Ġpem eriksaan
il ogram
ĠV isi
Ġp ublic
ĠD im
ĠX L
O k
ĠS ee
ĠK ok
ent ak
ĠB ack
angk ut
Ġs ains
Ġdir eka
ĠS in
Ġab ad
R ES
ot t
K enali
S ecara
Ġc an
ĠK asih
Ġt ir
ĠK at
ias at
ĠA yat
ĠKE C
d r
ĠV ir
Ġj udi
ak ini
Ġp ep
Ġf okus
ĠT ahan
trans form
Ġdisi arkan
Ø ±
âĢ Ķ
ita chi
ah as
Ġ! "
ĠPengan tin
ĠDipert ua
ĠPER B
Ġl ove
ĠPut eri
Ġg ua
yh ose
ar ingan
ap uri
ĠKeb ajikan
ai m
Ġf ull
ĠR ekreasi
Ġh er
Ġberb uka
Ġist imewa
p emb
ĠG ab
ĠC EO
Ġmenges ahkan
end alian
un aikan
Ġk hidmat
ot al
Ġm ust
ay an
Ġse arch
Ġk alah
W AK
b as
D estinasi
ĠA ss
Ġber sifat
Ġteg as
at tr
Ġkes emua
en or
Ġmempert ahankan
O ST
Ġmend edahkan
Ġdiper t
Pen erangan
uti on
ang i
Ġmemb uktikan
Menurut nya
Ġb anjir
Ġj arang
up e
ĠD om
N egeri
ĠEh wal
K edah
Ġt ukar
ĠT em
Perk ara
p hone
Ġper istiwa
Ġmemper oleh
Ġmm g
ĠP e
&& (
air ah
ipt aan
ĠIn stagram
end era
ĠAg ensi
ĠA tau
etengah kan
ĠS wasta
ĠT antalum
Ġberb agai
Ġber operasi
Ġ af
elaj ari
ov atif
imb a
eg angan
F F
ĠP ekan
ar ahan
ĠW arisan
Pend aftaran
s at
ĠS UR
' ).
Ġ ulang
Ġperb ezaan
vin si
Ġberj amaah
ĠO ff
d ik
ĠM AK
Ah mad
elamat kan
z er
K om
qu ipment
Ġp impinan
Ġkos metik
Ġst esen
OH OR
B ola
Ġk asino
ĠL UAR
in es
esen an
Ġter ma
Ak aun
ĠT abung
W ar
Ġr osak
ĠJul y
efa ult
Ġpem ilihan
ĠSya wal
p res
t ung
H ad
emb unyi
T itle
Ġb es
ĠC L
g k
S a
ol ongan
Ġdi alami
Ġkes edaran
Ġ20 01
Ġmengg alakkan
ĠPek erja
eng er
ĠS eh
Ġmemper kenalkan
Ġâī ¤
Ġseng aja
all eh
ĠCh ar
( /
1 99
Ġmen untut
b etul
ĠR a
en am
ĠPen olong
Ġpeny elesaian
à ¸
Ġj ua
Perk ongsian
inj au
B atu
ĠI kan
Ġal bum
Ġt ajuk
ĠK asut
ĠL epas
r g
ook s
ĠâĢ Ķ
ĠT O
P ara
Ġ ala
Set ahun
ĠG AJAH
ej ah
ĠTh is
il kan
Ġl ong
et an
ĠP UL
EN AI
ĠS ula
ĠM d
G aya
k ec
ni aga
Ġad d
ĠSun nah
ĠV is
orks h
at im
OP ULAR
LE H
al ut
engaruh i
" ),
ĠT ech
Ġc edera
Ġhany alah
M B
Ġny ata
ï ¸
Ġp orn
ĠPen afian
ĠKar angkraf
Ġs ungguh
ĠK a
b ukan
Ġperm ulaan
Ġket idak
N ilai
ĠG elang
el la
Label s
ï¸ ı
ï ĥ
ĠB elajar
Ġber tukar
ĠTh yssenKrupp
Â ·
Ġkon on
Ġ0 2
old er
Ġhits Z
Ġw ah
ot ongan
ĠP akar
usu f
Ġtr ak
ĠEks ekutif
Ik uti
ĠIst ana
ĠPer dagangan
H AN
b unga
S urah
h p
Beg itu
Ġ200 4
Ġmeng ing
imp alan
pad ding
ĠC iri
K alendar
Ġm ulia
L irik
AR ANG
Ĥ ¬
an am
Ġt p
ĠAW AM
ĠS elasa
Ġmenj alani
ĠPend aftar
M uk
ĠTer s
ĠMala ya
ĠKep utusan
Ġmemb er
Ġt enang
Ġtok oh
P US
Ġmemp erb
elat ed
men y
ine a
ĠAk ses
B akul
ĠM S
h rib
id ul
ir man
Ġnaf as
c le
P L
ih ah
ir ikan
R uang
Ġpeny anyi
Ġab out
ild ing
K orang
ĠAL OR
ĠMer eka
ek apan
ĠU dara
ĠDi am
M otor
er aka
ir d
it ahu
ĠIs nin
us uk
Ġg uy
ĠMus im
ĠJam ak
V E
ĠPemb inaan
A udi
N ASIONAL
er al
ĠT our
v ent
Ġweb site
Ġdit utup
ep ak
Ġs uruh
Ġ qu
art ment
ĠN aib
Ġs uci
ĠF ilipina
Ġas y
1 01
Ġg lobal
s yar
ĠS imp
Ġke gi
uj ian
Ġdit ulis
Ġlak i
ud uga
ÙĪ Ø
ĠS urah
y yah
ĠB ogel
ĠX XX
ĠF ood
ĠRes ort
ma x
ĠP emas
uar y
et te
AS Y
ĠT R
amer an
Ġb uatan
ih i
Ġt utup
Ġl esen
ĠS iri
at uhan
Ġel se
Ġk od
m int
us h
ĠI SM
ater p
Ġsej umlah
T ok
F r
Ġbers abda
Ġsebelum nya
Ġpeng ilang
D oa
ĠS OL
Ã¨ s
ĠPK G
ĠSM S
Beb erapa
ĠH ang
pad uan
BM W
8 3
ent uan
ĠH erba
Ġsaw it
ĠK akitangan
S UR
ur ai
ĠJ anda
angs apuri
as y
ĠK opi
ĠD esa
amp ilan
c apan
ĠMent al
AC H
Ġked i
eng ahan
Ġad il
K on
Ġt angg
ĠP unca
ĠBr unei
L agi
ĠK unci
ĠAm p
ĠSp ecial
Ġtu ala
f ar
Ġb ogel
Ġt uduhan
Ġmengh ubungi
ĠEn c
v ice
Ġdi esel
Ġperb elanjaan
P id
ĠN ota
Ġt arik
Ġ ikh
anc ing
Ġkedi aman
ĠMar c
fol io
ari f
Ġl e
ĠNur ul
i ak
Ġhid raulik
ĠT INGKATAN
Ġpant yhose
Ġkomp onen
Ġla ri
AL ING
S har
uz ium
ĠBES AR
Ġpers ekitaran
Ġter had
UM NO
Ġn enek
Ġd inding
ĠW alk
eal and
ĠAG ENSI
ĠHad apan
la si
amp ing
Ġbec ause
Ġr eb
ĠG reen
r em
gan egara
K ajian
Ġmen imbulkan
ĠPer ingkat
ĠT ingkatan
M aj
ungg ung
Ġdis ana
ĠD R
ĠD EWAN
Ġh it
Ġw ajar
ĠEng ine
th man
ENTERI AN
emb ara
abi at
Ġter ang
ĠKu antan
Ker eta
Ġper gerakan
ĠLap oran
Ġt ek
ĠContin ental
k rit
Ġcomp anies
Ġdim inta
T ube
olog y
Ġmela porkan
ĠK R
M ela
ĠH afiz
Ġister inya
ĠS oc
ĠK EN
ĠD AS
ĠPD F
ri end
Ġmemper k
AR D
ĠF eed
am ing
Ġkek asih
Ġters edia
ne um
Ġusah awan
Ġbeb an
asi c
Ġt emb
IP U
as er
ĠU jian
engk apan
ĠM uzik
ĠEn ter
Ġpel ancong
ri ce
J usteru
ĠJoh n
Ġpend irian
Ġkes es
Ġw alau
usah aan
al ukan
Ġsej enis
erd ekaan
Ġpar as
v ia
Ġt araf
Ġber ikan
Q URAN
Ġk elayakan
ant ah
i on
und ing
ĠN avig
ĠL ar
Ġk aca
D AP
ĠC ikgu
q uar
ĠPenyel idikan
Ġb isnes
Ġl angit
n n
T eknik
Ġp adi
UH AN
ĠMust ika
Ġpend ekatan
ĠW e
ĠPER T
W ah
Ġdin yatakan
Ġmerangk umi
Ġdi lahirkan
ist en
ĠB atang
OR AN
Kes elamatan
Ġberkes empatan
Y MM
Ġdit erbitkan
ĠM r
Ken yataan
ĠSek itar
raf t
Ġmat lamat
G uru
Ġc omment
ĠKE D
ĠH asil
Ġaut o
Ġber iman
amp an
uk aran
8 00
Ġken angan
H UBUNGI
eb r
ĠNO OR
IN FO
Ġl engan
ti p
Ġberj umlah
ind ahkan
Pert ua
P egawai
Ġh ayat
Mah kamah
ĠD IS
K ons
ĠS ay
Ġm ainan
Ġmenj ej
ĠR id
st an
B ulan
Ġp ecah
Ġment ah
D esign
Ġser b
ĠDAT O
ĠF C
M aksud
aman sara
erb it
Ġr oh
it ah
Ġpemer intah
ĠB ox
umpul kan
Akhir nya
IT IK
Ġdiper olehi
ĠMED IA
D T
K ONE
Ġs uku
ĠS of
ish ah
Ġk ol
Ġterp ulang
ĠP etua
Ġs il
ud ayaan
ik ini
ĠC el
P EM
Ġt ab
ĠP ET
Ġblog ger
Ġg ug
In g
ĠAt asi
C R
w ide
ĠS if
Ġdir umah
ĠU k
268 00
Ġtermasuk lah
ph p
J ualan
Ġh aji
. /
N as
ĠPert ahanan
ud ak
Ġberd ua
ĠSh antou
is es
C etak
uj ah
Ġb apak
U jian
ĠOn e
K ursus
B LOG
i akan
ĠZ ealand
ĠCh ampi
Ġb is
Ġla wan
Ġbur ung
ĠB uah
Ġmel epaskan
ĠDr ama
et in
Ġl ewat
ĠBel ia
D atuk
ĠX J
Ġpenj elasan
ĠMen jadi
T ARAN
fi ed
Ġp i
ert as
Sh ah
ĠPR K
sik ologi
G AL
ip e
E AL
KAM AH
Ġn ormal
S usah
ĠP I
ĠK hidmat
ook ing
S uka
,, ,
ĠB intang
Ġ2 000
U nivers
Ġseb ut
ak tif
ĠPerl embagaan
DAF TARAN
S umbangan
als afah
ab un
Ġmengg antikan
ĠTel efon
Ġpel ancongan
ĠB al
R ead
Pol itik
Peng gunaan
k ed
AJ AYA
anta uan
Ġ amb
Ġaman ah
G u
is ap
aterp illar
ĠW idget
Ġpur ata
P ahang
IK EL
ĠId ham
Ġr upa
agn etik
P owered
T awaran
b ek
id s
Ġdis ahkan
aks iran
imb al
ĠM inggu
emproses an
is is
Ġc am
K A
f ir
J et
ĠG el
Ġ0 5
H idup
Ked ua
al y
Perb incangan
mas alah
und ingan
AH A
8 2
ĠC up
engk api
ĠS ir
ĠS tor
c an
ĠK au
iw ayat
ĠEur o
ĠS mart
Ġ0 7
Ġpem ikiran
ĠL ag
Ġberd ekatan
omm un
Ġdi masuk
ĠR ancangan
Ġbers alah
Ker jaya
war e
ĠL eg
ĠBH ARU
Ġ3 000
im am
ĠH EB
ĠSEB AGAI
Ġsen j
j et
U ng
Ġp at
Di am
Ġpemb edahan
ĠMAKLUM AN
anc h
Ġperl ukan
ĠI man
Ġmem andangkan
ĠK ayu
Per aturan
AK I
Ġses ungguhnya
esif ikasi
ip at
Ġmel ancarkan
Ber b
AI M
iz ab
ĠMUH AMMAD
ANGG AN
C D
ut bah
R ep
Ġras anya
Ġmener oka
T op
ej ar
Ġtan aman
Ġman y
ĠP AR
M OH
Ġrak aat
ĠB encana
ks on
H A
W P
ĠB on
Ġh iasan
ĠKUR SUS
ers ih
ĠC ast
Ġelektr onik
D uduk
Ġmeng anggap
e an
Ġper intah
ĠG L
az ar
op tions
Ġh antar
ĠP ara
Ġpas ar
Ġ1 20
art awan
On line
eb arkan
oles ale
E ng
v i
ĠJ I
ic y
o tivasi
aw as
ĠB at
ind ung
ejah teraan
leks ib
Ġmak hluk
evel op
Ġseks ual
ip uti
m us
__ __
ali f
Ġ1 000
ĠF ree
S abah
Ġdi har
ĠB umiputera
Pos kod
Ġb il
Ġs in
Ġperm ukaan
k irah
W arga
Ġ15 00
h um
ĠD il
ĠPER D
Ġk ond
ERI TAH
Ġmengaku i
Ġkar b
ĠL ib
S us
H asil
Ġdiper buat
c ase
AI TAN
ĠComm ons
em angnya
Ġmen etapkan
Ġt em
al ur
ij ak
Ġs isa
umb aan
Ġl u
and y
oy al
Ġ uruskan
ĠV ietnam
Ġin ovatif
T ukar
Ġs bb
em ia
Per ak
ex clusive
K P
Ġmeng undi
U r
ĠH asan
ĠGr ed
W hat
e or
J el
ĠH anya
Ġt ag
ĠBer c
Ġm eri
K ES
en angkan
ĠKed ai
Pas ukan
U TI
Ġber lak
ĠWorld wide
Ġg us
Ġterp ilih
Ġpast ikan
ĠUT AMA
Ġsuam inya
is ang
PEN A
Ġm is
Ġ14 37
Ġ0 4
Ġkeper cayaan
ĠKER JA
Ġtel anjang
ĠC F
Ġdengan nya
Ġm ark
Ġ alah
ĠT om
ĠLe af
Ġh adis
onal d
Ġcel ana
Ù İ
EM ERL
ĠG lobal
Ġmeng hid
ĠH af
V ersi
ĠMen j
C inta
Ġr uangan
ell ow
Ġdin amakan
am ilan
Ġj ahat
R ON
ĠD ec
anti an
Ġd ingin
Ġmen umpang
Ġseb eg
B iar
M S
ĠX izi
M enc
ct ric
ak iman
Ġkr edit
ĠPER KHIDMATAN
Ġ enggan
uas akan
g ed
ĠKE B
Ġs uk
ĠFar masi
l unya
Ġper ancangan
Ġ ul
ĠS ex
s ah
Ġmeny emb
Ġsenj ata
ĠK o
Ġlaw atan
Ġr el
Ġkec ewa
enz a
ĠG o
z z
Ġt iket
k k
ac au
ard s
ĠAb ang
Ġad anya
uas aan
ĠM itsubishi
es si
Ġk amera
ĠFila ment
B S
ag ikan
ĠIn verter
ver si
Ġt afsiran
Ġex port
ĠV iv
TA U
? "
ĠP oker
az a
ĠAp i
e ikh
S yarat
IDUP AN
ep ar
lu gin
isah kan
ĠJ PN
Ġmemas ukkan
Ġterp antas
r il
ĠAmeric as
Ġview s
estiv al
ĠSh af
ĠK lik
Ġm ay
ĠC uba
bur g
ĠFor ex
ust aka
Ġb uta
Ġj enazah
Pela wat
k au
ĠK aki
Ġtangk i
Ġn elayan
M udah
ĠMAKLUM AT
B ank
Ġ angk
lu g
ĠOR ANG
Peng eluaran
ert o
Ġak al
ANG UNAN
Ġdip aparkan
Ġt umbuhan
if t
ad or
ĠT I
O f
Ġn amanya
Ġdiper kenalkan
Ġpengan tin
amb ing
ĠO s
Ġt ep
Y us
ĠT AKLIMAT
bl ock
n ew
ĠC epat
Ġst abil
AKIT ANGAN
Ġmem a
ov o
ĠBes ut
For um
Ġpenc apaian
Ġkes ilapan
ĠN asi
ast am
ias aan
ic s
imp al
Ġ$ (
ak itan
UNG AN
Ġs abar
Ġpet rol
E ks
N AMA
T eks
Ġmaklum an
B l
s idi
n ull
Pem akanan
o kan
anc ur
K EN
Ġr ed
ac ing
Ġc awangan
ĠInd ah
Ġmem ainkan
Ġs hare
A man
n b
Ġmemb angunkan
g ota
inc e
k ali
u i
ĠK olej
ĠS ektor
Ġv akum
Ġref er
R os
co untry
TIV ITI
ĠTER KINI
ang is
et ta
ĠL ive
Ġguy s
ĠPeng umuman
ĠK ampus
P etua
ĠPerk ahwinan
ah li
ak luk
pr ises
ib ukan
ar akan
ib ah
ĠL ess
Ġbek erjasama
Ġt eks
B as
Ġg reat
Ġper dana
Ġun sur
ĠP okok
ĠM exico
ĠN adia
Ġkena ikan
ĠR AYA
si akini
h over
r b
ag ama
ĠG aleri
az kirah
hi asan
SH AH
Z akat
om eter
sh awl
ĠH ijau
ĠG AP
ĠD ewasa
L epas
Ġberj umpa
St ylus
dis play
L angkah
T eman
Ġf ikiran
ĠW h
g us
ĠM AN
Ġm ikro
T ip
ĠK enderaan
aj j
ĠKEM ENTERIAN
ĠW omen
p am
N ajib
ĠH artanah
ok i
il es
und a
Ġp agar
ĠT ube
ĠPERTAN YAAN
: -
OL EH
fa atkan
Ġsem ak
Ġpert emuan
m ud
bot tom
c ep
ah tera
ĠP u
eg e
R AJAYA
ĠK i
ĠA q
Ġad at
ĠJ enazah
ĠO p
ĠAc eh
ĠMan is
Ġs at
Ġk t
ikut i
over n
J AH
Ġlap an
ĠR eka
eh endaki
Ġberk hidmat
Ġc ecair
ĠS ERI
h lak
RM IS
D es
EM AS
ĠHam id
AK SAN
amp asan
Ġke yakinan
Ker atan
ĠSed ap
ĠDij amin
EK A
AT IK
ĠAS EAN
S ya
ic tor
i lah
Ġdik etengahkan
Ġpen ulisan
1 15
Ġp etua
S usu
Ar row
ses at
ĠYah udi
Ġmemb a
Ġbel ia
r ag
isy tih
Ġac uan
Ġdit ambah
ej as
Ġperh impunan
Ġper umahan
Ġr agam
Ġakhir at
t angga
ĠIs a
ĠZ h
j pg
Ġpen ubuhan
est inya
s ul
Ġberp indah
u el
Ġger akan
D aerah
Ġter amat
quar e
ari at
ĠD ay
S ama
umb a
Sub scribe
ja uh
ĠD amansara
Ġ3 3
ĠB entuk
i u
ap ar
M ore
ĠS isa
ĠASM E
as at
ĠN ilai
ĠSEM PENA
Ġkegi atan
ĠT or
ĠL ISAN
Ġcok elat
ĠFaiz al
ĠPeng edar
P antang
T anda
ik mah
unc ak
z ech
ur ungan
ĠP ack
Ġberb entuk
Ġv itamin
Ġmen engah
ĠId ris
am atkan
la i
Ġberd arah
E F
ukup i
ĠK KM
ers ihkan
P ent
m iliki
aun sel
ĠKem ajuan
Ġhal us
Ġmem aparkan
ĠB agaimana
8 4
Ġpeng arah
H S
ĠC ay
Ġmus uh
ĠB I
Ġtahun an
ĠAr kib
ĠL EMB
Ġsemp adan
ĠO LEH
J AW
p i
ali fah
ĠY ayasan
Ġketingg ian
Ġbers yukur
uj a
ĠR ec
Ġisti lah
ug ut
Ġpopular iti
ĠK ategori
ĠN g
Ġp ayah
ĠH ot
Ġmela wat
b ung
ed ge
F oto
S ony
ĠK UANTAN
P anas
d y
L IM
ĠG ar
yid din
Ġk as
Ġs itus
Ġmeny umbang
Ġj angkitan
Ġl uaran
Ġlemb u
ĠA SS
M ana
Ġdib ayar
mar in
C ukai
ĠC ru
ĠC rane
Ġon e
Ġj adual
omb ong
ĠG as
ĠK uching
ant ungan
ĠArch ives
Pen ulis
Ġf aedah
ĠS IS
ia w
Ġbat in
K ertas
Ġber guna
uk ah
Ses uai
it men
fi q
ĠPet aling
iy ana
ac i
Ġber ulang
} ;
Ġseg ar
ag ihan
Wh olesale
ĠP elaburan
Ġl and
PT N
ĠTa ubat
ĠP and
o ti
Ġad e
ĠLog o
eh old
ĠRay uan
ur iti
Kes an
M anakala
ind aan
Ġmeneg askan
Ġdimasuk kan
Ġmeng ec
si apan
U I
S aint
al ib
Ġkes ibukan
B ayaran
iti onal
Ġkeb ajikan
ish a
AM PU
ĠU PU
ĠBEL I
AK AP
ac tion
Ġl ubang
ĠF er
A bu
ĠP lastik
ĠH az
Ġpem indahan
ĠJ eli
las ik
ter est
Ġkeg agalan
Ġberd oa
Ġmem andu
EM PU
Ġb ulu
Su ara
Ġs ch
ĠHAR GA
EMPU TAN
Y B
ĠElevator s
ĠB t
man faat
riv acy
t olong
M uhammad
Ġp oker
ĠB aca
ĠA KH
ĠO ld
ĠK AKITANGAN
Ġorgan ik
Ġup load
ia an
T AKLIMAT
Peny el
B et
Ġpand ang
G S
Ġib unya
t le
em ikian
u ara
P al
Ġmemb uang
b oleh
K embali
ot er
P us
Ġp aparan
Ġkat il
Peny ertaan
F E
L emb
Ġk opi
ĠEh san
ĠAr tis
ĠA TAU
Ġst at
ĠMore See
L esbian
ĠA yah
C ER
eal er
N et
AM IL
ĠS ijil
Ġsemula jadi
Ġmeng uruskan
ĠChampi ons
th eme
ĠKEH IDUPAN
G P
ĠS alleh
Ġhid angan
ump ai
Ġket erangan
UMP AAN
ĠEscalator s
ĠA udi
Ġp elabur
?? ??
im ak
od ay
aw anan
ab aya
b order
ĠM UL
ĠM ur
ĠG ombak
ĠM AR
isk ut
sij il
Ġke upayaan
up u
Ġditer uskan
ĠWord Press
Ġr isau
8 7
l ima
T o
Ġl uahkan
Ġk elajuan
amp aian
ĠTER ENGGANU
AD EM
Ġmend aftar
Ġk adbod
ĠPen ilaian
el ek
ĠD S
s he
ĠKan ada
ĠPar it
Ġkeh endak
Ġb imbang
D ip
aft arkan
enc y
ĠHid raulik
S an
Ġ est
Ġke gunaan
ĠP ihak
Ġmenc ipta
Ġmeng enali
ĠK anan
ĠðŁ ĳ
ĠR amai
v o
Ik ut
it ure
asi f
Ġber adik
erj akan
ĠL um
Ġar ab
Boleh kah
Ġ urus
SI RAN
ĠS AH
eb ak
ĠSeri es
ĠT ab
ĠP lat
Ġr angkaian
ĠAH LI
ĠS inar
ĠJ amb
leksib el
Ġst ud
ulat ih
ĠAN SI
ap uskan
ras tr
ĠH AS
ĠSt adium
Ġb au
ON AN
ĠPerm otoran
P elajar
empat kan
v alue
os ongan
S eni
AKSAN AAN
ĠUm ar
Per undangan
PEMB ERITAH
c erita
K elas
Ġdis k
Ġker amat
M EL
kep ada
ĠB angsa
ĠSer emban
ip uan
ĠMuk im
ro ke
angk itkan
U t
Ġf ar
h ou
ĠTer hadap
Ġt unjuk
M ala
ĠPEN TAK
hh hh
web kit
K ey
ut ut
K elab
AND UAN
ĠL u
ĠSk im
ĠK alangan
s yarat
Ġpers embahan
Ġanak ku
k awan
pap aglamz
Ġjam ak
ingg alah
Ġdil etakkan
Ġpember ian
Ġmem atuhi
ĠF X
Ġmaj alah
Ġmenc ukupi
ĠH AJI
AP I
Ġd estinasi
aj am
ĠElektr ik
8 6
lassi fied
Ġb iru
on ia
Ġus taz
ĠBek as
ĠSem enanjung
R elated
g eo
ĠM ARA
ĠSy stem
eb atan
Y our
per ma
Ġm ama
amp ar
bah asa
K au
Ġp eguam
ĠF B
FORM ASI
Ġk asar
ĠMen u
Per l
ot ografi
ĠL ebuh
ĠJI WA
Ġmeng al
ĠK DN
Ġf ant
C AR
ĠE nd
ĠT idur
Ġmen ilai
Ġr em
Ġb asic
Ġs ilikon
ĠPem uat
orm on
iz ed
Ġm ut
S ur
uk is
Ġseny um
mint on
ĠT alak
ĠR adio
ĠStr ategik
ep si
ela p
ĠG PS
b elah
ĠP ES
et uai
y c
Ġ6 00
atas inya
Ġ eh
IK UM
ĠFor um
] ]
Ġl ingk
Ġla ju
Ġket urunan
Per ihal
Ġpem egang
Per anan
Ġ ed
AI R
EMP AT
ĠK ON
Ġam aran
ĠPERD ANA
ih ad
PERTAN YAAN
B ab
Ġib adah
ĠAs al
Â ®
ĠK amu
Ġkel ulusan
ĠK ALI
ĠP ed
Ġdalam nya
ĠKes eluruhan
Ġdim iliki
ĠIn c
eh eh
IK SAAN
ĠC ut
d t
yan mar
Ġmengg ambarkan
ag at
Ġkela pa
Ġla ku
ĠCer amah
ĠM IN
syar ah
ĠG rid
Ġdil ancarkan
I X
Ġl antai
ĠK or
ĠAp p
Ġkec antikan
angs ar
ĠSol enoid
" ;
Ġberp uasa
Ġteg ar
ĠV egas
le ar
Ġs aling
ĠFor ensik
V I
S PR
andat angani
ĠPin terest
ss on
w ikipedia
Ġar wah
M ALAYSIA
ĠG ua
Keb anyakan
angk ok
il iti
Ġmesti lah
C uma
ĠBERK AITAN
8 1
Ġmenghad iri
o ung
anj awan
d u
Ġju ara
Ġ3 6
Ġtet amu
ap anya
Ð° Ñ
r ilik
ĠOce ania
Ġse har
m anakah
ĠF RE
ĠI D
H ukum
Ġn ovel
Ġk ukuh
Us taz
il ler
he ad
c uti
ĠL iyana
Ġmen unaikan
ĠT anya
Ġg rad
ous ehold
Ġpeng aruh
ub ai
Ġt itik
M T
Ġkaw in
ĠH and
ĠB ol
ĠH o
Ġ Ùħ
ĠD en
g ht
Ġpop ulasi
ĠKeh idupan
Ġr encana
ĠL angat
Kel antan
Hotel s
D UK
Ġkes empatan
Ġpemb iayaan
Ġkel dai
S embang
ĠIn tan
Ġdik ehendaki
ï Ģ
Ġ ill
ingg ah
ĠRah im
Ġ order
ĠG uan
B orong
ĠG al
an kan
ĠM ufti
Ġmenjej askan
Ġb ina
Ġt eknikal
Ġk abel
G UN
eb aran
ĠR ak
Ġs urah
ok lat
urn iture
Ġmem aklumkan
Str uktur
c u
Ġm alas
ĠM ES
ĠG re
L M
Ġs w
Ġp lan
ĠMUR ID
ĠG aya
V iew
f ont
am us
ĠTer j
T imbalan
ĠKH AS
Ġg unung
Ġs ula
Ġg roup
is er
Ġ amp
ĠA udit
ĠAn n
Ġm ne
ud ul
BAH AGIAN
ak men
Su ami
AM AD
Ġc ab
B onus
Ġper g
ĠB a
usia an
rastr uktur
ĠB ayar
Ġh iburan
ĠC awangan
ĠPERJ UMPAAN
IB G
por no
ĠZ on
SO ALAN
Ġpem as
ĠSah abat
Ġla ga
30 4
C an
uduk i
Ġr enang
ut us
Ġsed emikian
s ebab
et us
Ġter n
ĠBeb as
engk el
K N
Ġrequ est
n ess
O OK
Ġters endiri
Ġhat inya
sp ektif
ang u
ĠPEL AB
g r
Ġsemb ah
Ġbot ol
l it
MENG ENAI
Ġd pt
ĠKes an
uk isan
Ġses ama
TA G
ult s
i el
wid geo
Ġbre ast
Ġpar limen
Ġfak ta
Ġs ijil
Peng inapan
ĠK ongsi
ĠP asar
Temp ahan
ĠN y
eh ic
ĠP angsapuri
ĠSpecial ist
eb uah
Ġg h
uh ira
ĠG aji
ĠS umat
Ġr ugi
Ġal ternatif
ĠD ol
Ġpenj ualan
s yarikat
ĠTech n
S iri
Ġb odoh
ĠKer ana
Ġbl ok
A lex
y ari
ism o
ĠP res
t ur
ond e
ĠP age
ĠF ujitec
ĠSy ria
ĠhitsZ uhira
" }
Ġm impi
Ġov ers
s in
ĠZH IPU
ĠAziz ah
ĠK g
Ġdi v
ĠB awah
Ġmeny erang
ing atan
ĠM ans
Ter lebih
Ġmeng atasinya
v en
Ġg e
Ġser upa
M et
neum atik
Ġmeng endalikan
Ġsem estinya
ĠTer tinggi
un uhan
ĠA sp
ĠN at
Ġmenc adangkan
Ġm inda
ah ar
ingk ah
Ġwant ed
ĠABD UL
s un
ĠB OM
ĠK uki
Ġsehar usnya
AS S
ĠMalay sian
Ġpem asaran
emp urn
ĠUnivers ity
C omp
ĠB ingo
ĠF idyah
angk al
ĠSak ura
em ium
Ġkr istal
ĠGol f
Ġbulan an
agai manakah
Ġmengangg ur
ĠBin ti
ĠM US
Peng h
ain ing
Ġmeng isi
ok al
ĠPem akanan
ĠKomp uter
Ġdis esuaikan
Ġar as
re ate
ĠS AB
Ġkep ad
ĠM old
s hirt
D ar
ĠMet ro
Ġkeluar ganya
UT AMA
ĠKe utamaan
ĠCh ildren
ĠV illa
ĠEks klusif
Ġmel iputi
Ġkeb er
c ar
anjut kan
ĠG UK
2 50
T im
ĠS JK
Ġmengh ilangkan
UL AN
Ġs untikan
Ġel ok
ĠPel an
ĠPek eliling
Ġmeng uasai
ter ia
ab uk
sk ap
k ota
! âĢĿ
Ġsel anjutnya
201 1
upp ly
p ool
Ġt ulen
ĠR antau
am ik
Ġh elai
ord an
ĠPemb ersihan
ĠL ihat
P u
AP ORAN
Ġmen ubuhkan
um inium
ul ist
Ġw ayar
olum nis
ĠK OS
enom ena
Ġp il
ĠN ig
Ġterd ahulu
alim ah
t ri
h ip
Ġkem ampuan
ĠJ amal
orksh ops
Itu lah
emp uh
ul ullah
f ilem
ĠK al
ĠNik otin
M end
j ect
Ġto lak
ĠPem andu
ah il
Ġp ad
ĠK itab
Ġrup iah
aj ud
H ummer
K an
Ġj as
ĠB ARU
or s
aks in
CI O
Ġal oi
Fat in
ĠII I
Perm ainan
S oal
at ap
Ġlo an
ĠJ el
Ġj odoh
In stagram
ategori es
Ġgela ran
Ġberp el
en anya
I poh
aw akan
ac ity
Not is
Ġmenjejak kan
had apan
L ag
Ġmas akan
ĠSh op
Ġtumb uh
P ART
ĠMEN Y
ĠMach ine
ĠS aif
1 20
om as
Ber ry
Ġp aru
c ore
ĠB AND
ĠY usuf
har ina
Ġc all
Ġnaf su
Ġas ia
Ġla tar
D ownload
ra q
ĠKep ala
Ġla dang
ĠS udah
em at
y s
Ġg aris
atal og
ĠKAM AN
aw ay
unt y
b ab
HR IMAN
ĠDAS HRIMAN
c he
Univers iti
ĠP antas
Ġmemb u
Ġl uka
men ulist
Ġcer amah
imb ol
Ġp adang
ĠBer nama
Ġberla lu
Ġiz in
Ġthe ir
ĠM ed
K E
Ġd eg
M ad
Ġ1 999
K ela
Ġpr epar
5 10
or b
mp au
Ġ4 7
Ġ aja
ĠP ADA
Ġr ib
ot h
AL IAN
ĠSUNG O
K eluarga
ro versi
M ata
pos ition
ĠS is
ĠC omment
uruh jaya
Perh ubungan
Ġh aba
J an
Ġkel emahan
Ġstat ement
Ġnya wa
ĠB umi
T enang
Ġt alent
Berd asarkan
ĠExp ress
Pro ses
ĠDis ebabkan
S ab
ĠIs land
ĠB ela
i eld
and akan
f ikir
Ġdik enal
9 2
ĠT radisi
AK IM
Ġ ajar
Ġb uang
Ġpeng l
Ñ Į
ad uh
Ġdid alam
M r
Ġmeny erahkan
G lobal
Ġdiper k
ĠZakar ia
EP I
ĠNew s
ros oft
ĠT EL
wa it
p es
ĠE ric
ĠM ul
ĠP ump
Ġaw ek
ĠNot e
Ġid aman
p end
lad esh
com ment
erb ai
Lat ihan
ĠK OM
oc us
Mak lumbalas
ĠM urid
% .
ĠM ati
ĠK P
ĠPemb ayaran
L esen
ĠSek arang
S peed
Ġmil k
Ġp eta
j ing
Ġr am
ĠTER G
AW AT
Ke adaan
J AYA
Seg ala
Ġs orang
Ġdib ah
ĠT w
ĠBUL ANAN
ĠPent ing
ĠAm in
Ġmen ak
Und ian
c ta
Ġj emaah
M AS
t ua
ob ium
s orry
Ġter m
ĠASS ALAM
Ġpen at
Ġterb a
ĠM T
Ġak ademik
er on
L ATIHAN
Ġp anel
ĠP ages
ĠC zech
Ġm uat
ĠA IR
form ation
ĠTuan ku
Ġk il
Am alan
E mel
vis yen
ac o
Ġmer okok
Ġmak na
onal iti
Ġkonon nya
Ġk ok
Ber g
ĠP ay
ant s
and er
alah gunaan
Ġmaj ikan
her e
ĠPER H
D AT
perk ara
am es
ĠPer ancangan
ĠBerh ormat
ant ra
op le
Ġv irus
J uma
ĠW est
RO S
Ak ta
AMB AR
ĠDr s
Ġj antan
M asih
ĠAd min
ĠTr ak
ĠM olybdenum
IH ATAN
ĠPD RM
Seri ous
N oor
us a
anj aran
Ġm ayat
ĠSi ang
W arna
f ire
rom o
ĠBer ry
kn own
Ġk i
Ġent ri
ĠS im
esi es
M ay
Ġhits Juma
ĠPELAB URAN
ĠS I
Ġex p
Ġterd ekat
urn al
et if
Ġ4 00
Rah sia
Ġmenc uba
Ġmem anggil
D ato
erbai jan
ĠPer anti
R ecent
C uba
Ġseg alanya
I l
ĠKej uruteraan
uk hari
Ġp anggil
t ika
ant e
ja e
ĠIb nu
ART IKEL
' ;
Ġc uaca
ti ca
adem i
Ġmend alam
Q i
at alan
Ġdi orang
Ġp lak
P rivasi
UT ER
B e
Ġc l
ES S
ENAR AI
ĠL O
Kh alil
Ġberh arga
k ita
Ġdi e
P injaman
T ali
Ġb ack
ĠEd itor
ent angkan
ĠAp abila
Mod el
Ġb elah
ĠPend apatan
ĠIn ovasi
Ġset uju
ĠKomp leks
it im
ĠPol icy
Ġt ata
7 68
Ġlak onan
ejut kan
uk uhkan
d own
Ġmenc eritakan
ĠTEKN OLOGI
Ġter nyata
st at
ĠT ua
T ext
ĠV i
b ul
ĠPEM ANTA
ĠBer kualiti
up anya
ĠTINGG AL
Ġs embilan
AH ANG
N i
j enis
Ġfir st
Ġl ist
9 6
ist on
ĠMer deka
Ġpert engahan
ĠPen ulis
ĠKemas kini
Ġl ucky
ĠDi gunakan
Ġag enda
Ġc incin
ĠPerl indungan
ģ ï¸ı
ĠT UN
Ġke empat
ĠðŁĳ ģï¸ı
ĠKE W
ĠS astera
s oalan
ex us
M elaka
Ġn eraka
ic ations
ĠFit rah
Ġ-- >
ĠAs y
H P
Ġd ika
ĠAd s
Ð ³
y orkan
Ġm isi
n l
ujud an
ĠKej ohanan
} }
ĠTr ib
ub lish
uh ur
ro k
lot h
Ġpela yar
Ġtel evisyen
ĠS UM
ĠAk ademik
amb ak
S ec
ĠH a
Ä į
Ġset empat
ANGG U
iner ary
Ġ3 4
T ar
uat kuasa
ĠD apat
ol et
Ġcon f
mi es
auh id
ĠPEN DAFTARAN
ĠS yah
Ġcuri ous
re a
J udi
al og
ĠL ai
it ch
ĠK ilogram
ĠW AR
Ġuc ap
Ġ ej
par ent
ĠR ingkas
at angkan
un ch
yar ham
omp at
ap ore
Ġf leksibel
Ġ anc
ĠH abib
AL L
Ġbet apa
Ġmer aih
s b
ĠPENTAK SIRAN
Har ini
_ -
l ow
Ġmeng emukakan
Mas ukkan
ĠX T
Ġg abungan
And roid
Blog This
3 20
ĠPel bagai
ed en
Ġ eng
alik nya
f an
9 4
( ),
Ġ3 500
Ġkomun ikasi
ĠComp lex
ĠHar ta
Ġg em
ĠBOM BA
Ġsee ing
Ġf amily
ĠD enaihati
ĠPem egang
T iga
ev an
Ġkec emasan
et ulan
Ġv ehic
ar ing
ak t
K ira
% ,
Ġdi umumkan
S ewaan
ĠCl ub
K orporat
ab entuk
ADEM IK
ĠL an
Ġam al
ast is
Jel ly
ĠC eme
Ġterl epas
Ġmen afikan
Ġlam bat
Ġr ec
Ġberh ak
Seh ingga
a x
Ġmen ukar
Ġset engah
ĠK im
Ġc m
Ġdi et
Ġh angat
Ġrah mat
ah aha
å ·
U Z
Ġch eck
K ota
ot is
ĠK W
ĠJ ur
ĠB orong
ĠB S
ĠBAN K
Ġpro sedur
angg ang
EL AM
s en
Ġ Ù
ðŁ İ
pas ti
d o
Ġl ebar
ĠR akan
Ġ iman
Ġla mb
Ġb ad
Ġover come
% ;
ĠMarc ello
ik ah
ĠBak al
ĠK itar
ŀ Ĺ
ant aian
an usiaan
Ġpemb uatan
adah al
Ġc iptaan
ĠSt atus
back ground
Tr ans
b o
ĠT afsir
ĠSem ak
ĠMeng enang
Ġsem emangnya
rev ious
c ategory
Ung u
Ġsel ebriti
iy yah
Ġsup er
Ī Ī
l oma
Ġsur au
ĠK imia
BANG SAAN
cik li
Ġberla inan
ĠS aham
ab b
ĠAN AK
et ap
V F
er ob
ĠJ AW
ĠW ik
Mengh itung
ĠZah id
VIR US
P emas
Ġhas rat
S akit
ĠAn t
ĠP ower
ĠSet iap
P andu
UD AH
Ar ahan
ĠD a
AJ IAN
Ker as
ĠTun ku
Ġs is
ĠKE BANGSAAN
F ar
V C
ĠM ungkin
ĠTERG ANGGU
D a
ONG AN
æ ŀĹ
IN T
H ye
IK UL
ĠM alik
Ġsya itan
Ġr m
It inerary
ĠT M
eg al
å· Ŀ
ARA WAK
im atan
Ġd ewan
kand al
è ĪĪ
ĠAd alah
âĢ¦ ]
ĠKab inet
æŀĹ å·Ŀ
æŀĹå·Ŀ èĪĪ
Ġp ucuk
Ġexport URL
Z Zz
ĠAz min
Ir ine
as abah
iz en
A lam
T us
Ġovers upply
T as
Ġb icara
Ġj iran
ĠBack ground
Ġbab y
n r
Ġkec ederaan
Ġp d
Ġlain nya
Ġmom mies
m et
Ġd ita
Ġâ Ĥ¬
Ġmul anya
ĠD ila
atuh kan
ej uang
it ro
Duduk lah
Ġmeng ucapkan
id ad
Ġbasic ally
Ġwidget s
ak wah
ber ry
Ġbeb erap
M E
Ġ} );
Ġill usion
ĠPer siaran
akul ti
ĠMemb uat
o per
Ġb a
Ġr un
ĠP aip
Ġk orporat
Ġ Ø§ÙĦ
isi on
Ġ era
ĠK ajang
ĠA is
PEMBERITAH UAN
S amp
ti ck
Ġpr emis
g ing
Ġb akar
Ġpeny ej
ĠMaz idul
Ġkart un
om et
Ġk aitan
Jawatan kuasa
Am erika
9 1
ĠH el
Ġdi ab
ĠO l
ĠSet elah
Ġk or
EMB ER
U p
ĠTer ima
Yus ri
D ARI
p iano
s al
ĠC am
end erah
ĠMEN J
at usan
Ġtop ik
Ġ angka
ĠS wit
Tenang lah
Ġillusion ist
ers ing
z an
imb ing
Peng edar
I d
Ġc eme
C ase
L upus
de a
ĠS eluar
ongk ar
ĠD estinasi
Ġ3 7
S ch
ef f
ĠK eg
ĠWidget box
in ja
Ġf r
and um
K aki
Ġber impian
Ġkr etif
An war
untuk ku
Ġfant astis
ĠIk utan
_- _
b ook
ad uan
Ġwang i
evelop ment
Ġ* #
ĠT adbir
Ġsk im
ĠS us
Ġpemb eli
Ġpah ala
Ġbeg ini
ĠDi visyen
U ANG
isti an
Ġdih ubungi
ĠLat ely
ĠPro vinsi
ĠPelak on
omest ay
Ġber manfaat
uc ap
Ġseg al
ubung kan
ang hai
Ġsur prises
Ġseb enanya
ĠT indakan
ern ary
Ġsamb ungan
T u
ĠM CA
a Ku
am as
Ġberc eritakan
K UR
Ġkel ompok
P OL
Co unting
ĠR E
Zz z
UM AH
Seb ag
Ġrah im
r unnerseven
ter cipta
LA IKUM
Ġn et
Ġc r
ĠG ad
Ġit ernary
sep erti
Ġir ine
Ġpemas angan
ev ille
bung ak
org ia
Ġtert akluk
Teman mu
ĠBer impian
ĠBackground s
ĠN eoCounter
Zz ZZz
ZzZZz Zzz
N eoCounter
uc eme
Ġsh aaa
Ġasa aa
Ġpu Tus
ĠASSALAM UA
Qi uceme
bungak ikin
ZzZZzZzz ZZ
Berc u
Ġh el
ĠY as
imp a
Ġsias at
Ag ama
Ġk ur
oh amad
Ġvehic les
ĠPh oto
g uru
Peng erusi
ĠBers ih
ĠTemp ahan
ĠK amar
B ak
o j
âĢ¦ ..
en o
ĠD ATA
ĠR ock
O h
W ak
B EL
as hi
OT IS
ĠRas uah
Ġsekali gus
sij ilan
ara ja
ĠF akta
id an
Dik uasakan
ĠT aj
ĠPenc egahan
K at
ĠPer aturan
Alat an
Ġpul ih
K ali
Ġc ur
b ert
ali za
M uh
ĠI L
. $
ĠR ES
h riz
Ġm uh
Ġpand u
Ġf at
C AT
ĠEle ctric
Ġdic apai
ap aan
Ġc ol
ash im
ker eta
g adis
tain er
Ġlap isan
war ni
RAH IM
Ġb awang
ut in
ĠSar jana
h as
ĠGu inea
Ġsus ulan
ĠKET UA
ĠPeng urus
u ff
Ġdi ikuti
aman an
Ġasal nya
m uk
Ġj in
Contoh nya
ir im
t g
Ġr ay
Ġkom itmen
ĠT ep
eter usnya
Ġterk ena
ĠBer gerak
ĠDh uha
Ġb ibir
Ã ¼
Ġent ah
S ing
Ġkel marin
ĠDAR UL
enderah ati
ĠW al
Ġb ela
ab itkan
Ġpem uda
f ord
rain e
s rc
A li
v ey
Ġk otor
sya ikh
x i
og en
e en
abis kan
Ġmen el
Ġim am
si ze
Ġwe ek
ir iman
ang lima
ĠMAH KAMAH
is ar
F arah
ĠPro fil
AJ IB
Ġins iden
Ġb arisan
Ġjangan lah
ĠT ee
Ġmekan ikal
ĠUT USAN
ĠBers alin
b erb
ong g
ĠSerb uk
M R
ĠY our
Ġ ur
as ai
ĠJ ALAN
up kan
str uction
Ġdit anya
ĠSE PAK
ĠS ila
ht ar
Ġdak wah
ib ur
E mp
ĠN ic
ðŁİ ģ
ĠL uc
AW A
sh ow
Ġim g
Ġp age
ĠK ela
AT UAN
ĠM acam
Cl ose
L Y
c la
Sp ace
ĠPUT ERI
ĠR ev
on ial
M AH
ĠLab uan
t empat
ab ot
Ġket awa
Ġ4 3
l angkah
Ġ ip
ĠPr int
osak kan
Ġ6 5
Ġb orong
)} ;
ĠP elabuhan
Ġmeny elamatkan
Ġb ajet
ĠP apan
US AHA
ĠA F
ump at
Ġmenc abar
s atu
Ġm ani
ĠK AW
Ġked atangan
Ġdik ongsi
ĠSand akan
ĠM ekah
Ġt ry
Ġr awak
ĠPas ukan
Ġdil engkapi
Ġdik emukakan
> >
Ġter as
ĠT N
Ġmemer intah
IN AR
Ġpemb ersihan
Ġpen awar
ĠH onda
ĠK ul
ateg or
uk e
ab led
Perc uma
ĠP elarut
Ġist ri
Ġse akan
ĠF az
ĠF ungsi
ĠOce an
be an
ĠPeng uatkuasaan
C ON
R e
v iew
ĠK operasi
Ġf acebook
ej ap
peng eluar
+ "
N a
v est
C iri
gan iz
Ġr unt
ster eo
p ng
ĠH er
ĠG anti
ula tor
ek abentuk
Ġjawatan kuasa
Ġk itar
ad inya
ĠMus ang
aut y
ut upan
ĠBer g
t ype
Ġsi ang
ĠS or
en araikan
Ġhits Yusri
N S
Ġmela wan
av y
en ne
Ġikh las
V al
âĢĻ ,
Ġpet unjuk
ol ek
ĠMod el
p p
200 8
am ak
ag ung
G eni
z erland
S up
D ulu
Ġ14 0
ĠK anser
d im
ĠJ a
c al
amp ong
ĠM yanmar
but ton
s ay
ĠHEB AHAN
Ġa q
2 20
lim at
e um
ing inan
Ġ4 4
K itab
oh ol
S iti
= !
ĠCre ative
ĠPeng k
Ġses ebuah
el ing
ĠC uti
ĠR asa
b arang
v es
Ġb and
K ewangan
Ġtet ek
ĠMar in
Ġmala ikat
Ġr okok
G aris
Ġmenc egah
ĠAs ing
Ġn ame
el uk
el ancer
Ġn asional
ĠAl f
ĠJ ajahan
Ġpen erima
uran s
ir in
Ġp lag
ĠD ouble
es arkan
ĠY uk
Ġdi atas
( \'
eb un
ELAM ATAN
ist im
ĠC ik
Ġperc etakan
ĠL etak
ĠL ED
ah lian
isk inan
Ġterper inci
T or
ĠLemb aran
od ata
op h
Ġkeb ebasan
ester ol
Ġmeng an
ï Ĥ
ur awat
Ġkon f
pen y
Ġs yah
AD IL
Ġj a
Ġbert ugas
Ġas id
fi ah
ĠS n
Ġ200 2
Bul etin
Ġc he
og rap
p ol
Ġ ali
imp angan
B ias
o ja
ot an
K adang
Ġasy ik
ĠB usiness
Ġpos isi
ĠS uka
Sem ak
ab ut
ĠR ekod
al la
bu ahan
H ealth
Ġf ood
ĠPEL ANGGAN
uas ir
UT USAN
wak ilan
ĠF ac
UL I
Ġber hadapan
Ġt ip
il y
index Of
ĠC ond
ĠT amp
K etahui
ĠJu ara
ĠS emb
Ù Ĳ
Ġres epi
Ġper i
AD ER
Ġper paduan
ĠP ep
ĠAb idin
Ġek or
ĠD oktor
ĠAd akah
overn ment
Ġkh abar
ĠSens or
S am
ĠB ERITA
mar hum
Ġc ampuran
st ar
Ġp unggung
ED AR
B T
ĠSk rin
S eluar
ĠKap al
RES EPI
Bek as
Ġmaks imum
P okok
Ġs ulung
y ana
ĠPerc utian
C ap
Ġg oreng
Ġsub sidi
ĠR h
\ \
Ġbert ahan
AK AR
Ġot ot
ĠS EN
di q
re za
Ġk asut
ĠPemb antu
ĠM OH
ĠT aw
af ul
ĠW ajah
Ġh ala
Ġkemas ukan
ii i
Ġsela ku
Ġs aksi
Ġin formasi
ĠH ish
b bean
Ġkes akitan
sat unya
PK R
ir am
ĠBag an
ĠA j
ĠBas ikal
0 01
IC S
PEL ANTIKAN
Ġs udi
ĠB elum
j uran
Ġamat ur
ĠL ATIHAN
istim ewaan
ĠBag inda
AG AAN
ĠPeng eluaran
res if
Ġperset ujuan
Ġdil uluskan
ul e
] ;
a ing
as uh
ĠS uci
Ġk impalan
ĠA TM
S ampai
Ġs angka
ĠP eguam
ĠMin utasi
ĠJ im
B ur
Ġdika itkan
ers ey
od er
Ġb utang
Ġr um
am uk
P anel
Ġj adikan
Ġpem akanan
d efault
ĠP lay
ak uan
Ġterb ukti
ĠT ukar
Ġdik awal
Ġkeb akaran
ĠS PA
Ġh uruf
ĠA ur
Ar gentina
Pert uan
j ub
ĠL E
ĠS m
emp ah
ur t
9 46
Ġseny uman
Ġger ak
Ġthe y
ĠEric sson
Ġ: -
IKUL UM
er at
M ula
ing ton
ep al
Ġk linik
ĠS ad
Mela lui
ER TA
Ġp layer
ĠJ antung
ĠCamer on
ĠBar b
un e
ĠSi apa
Ġk ongsikan
Ġanc aman
ĠZain al
Ġbin atang
k ala
ĠCru iser
s emua
ĠK ah
Bek alan
ug asan
C erit
Ġrak aman
Pro f
Ġcer min
en na
Ġm uhammad
Ġperl umbaan
b le
R emaja
Ġmengk aji
ĠWhats App
S ertai
C aj
In f
Ġbah u
Z A
Ġmeny entuh
ĠUm rah
st ant
Ġpemb erita
emerl angan
b ang
ĠSemp ena
l on
Ġpast inya
Ġc ender
Ġr indu
Ġl ip
e on
ĠEks port
ĠC ategory
R ancangan
Ġc ap
ĠPar is
ep adu
C ookie
Ġab ah
p al
ĠO EM
Ġf araj
w h
Ġsem oga
ĠTim e
ĠT ip
ĠR isiko
ank a
Ġh ang
n ilai
Ġt ayar
agu e
r ar
umb ung
ASI H
Ġsam ada
D ANG
MO SI
ĠMov ing
ĠH iburan
angs ang
Ġu ols
A ustralia
N orth
ĠF EL
Ġdi men
Ġmenj ana
ĠKe adilan
Ġdib eli
C AP
iz yan
ĠAp akah
Ġw ho
ual ity
Pel bagai
In stitusi
ĠK AR
Ġ Ġ
ĠBek erja
ant age
Ġg aram
ĠMSS PK
ĠC ON
ant un
ĠW ajib
ĠM ersing
Ġdis ampaikan
Ġmen urunkan
ĠPUL AU
dah ulu
K ak
O m
Ġg elang
Ġmah a
as ia
ĠVir gin
ĠDA A
in um
ĠD IN
ni val
Ġdit olak
Log in
ĠK oleksi
erb ang
S IS
z am
i Phone
p elajar
Ġser ba
Ġh d
p indahan
ĠK emb
Men j
Ġeks port
M emp
ĠM ir
ĠD aya
Ġpeny ertaan
ĠM PS
Ġpen ipuan
Ġat t
An t
ĠE s
Ġsub jek
or al
)} ,
Ġs lot
ens e
Ġdi ing
on str
anj angkan
ĠH AN
ĠCol or
Ġv an
ĠM F
Ġti ap
L ib
Å ¡
ĠKEW ANGAN
ĠC oklat
Ġberh ati
ĠA KU
A UN
ĠKES ELAMATAN
Ġ3 8
ĠL angkah
iz an
Ġmen ep
Ġmemb incangkan
y angkan
Ġ alahan
ĠKel ebihan
Ġd eng
UN J
Ġj anda
ĠOut lander
ersi al
Ġper siapan
B acaan
ig res
ĠPer janjian
angk alan
ĠS outh
Ġdik impal
PER ASI
PER IKSAAN
had ow
ĠAp likasi
ĠS ayang
S w
Ġmen ekan
B est
ed er
our g
ĠU K
Ġtak kan
Ġf asa
ĠSO ALAN
f eed
ĠAM AN
ĠMes h
es uaian
Ġr awat
ĠIn ter
Ġ200 3
li e
ĠW AI
AF IAN
af ik
ĠAc tive
Ġl g
oc ial
TER A
ĠS AMB
g han
ĠT EN
Ġpend edahan
j son
ĠM PK
Ġdihad api
t engah
t ual
Ġ'' ;
Ġn uk
' m
ĠTechn ology
N ovel
ong o
Ġpet ani
Ġh igh
Ist eri
Ø ¨
Ġh antu
ĠZul kifli
10 5
MOH ONAN
ĠA ishah
ĠDat in
ĠP on
ĠKr istian
ĠDes ire
res ults
ut orial
ĠR EM
int angan
g ar
A yam
k m
Di ambil
Ġs m
Ġis yarat
P elak
Tag s
ĠPad uka
Ter engganu
ung ary
J ump
ekolah an
ĠUN IT
ĠT ek
Ġkej ohanan
z uan
ĠLif t
Ġkek ayaan
Ġmeng ulas
ĠBer kuasa
ĠJ ump
Ġb ulat
ri e
m otor
ct nr
ĠGab enor
ĠS amad
ĠA C
men u
uj ur
ĠPap er
av id
gerak kan
ĠSel ebriti
ut aan
ind rom
d uanya
Ġker j
Ġk alu
ik atan
Ġdim aklumkan
Ġsek al
ead er
ĠA P
ĠComp anies
ĠB la
O I
ĠPEM ILIHAN
Ġd atuk
ĠMuh yiddin
N abi
M s
Ġbas ah
ar um
ĠMan ager
ant ap
BUK A
ĠP late
ĠBer as
Ġsih ir
K ont
oter api
ĠF M
ĠMer awat
Ġw arisan
Ġl iter
Ġm ed
ung un
Malay siakini
ĠNor way
Â ¬
f e
ĠPro ses
Kep ada
ATI ON
ah agia
Ġtangan nya
el ir
ter ma
R ed
Ġmag net
ita in
B elajar
Ġp isau
ðŁ Ĵ
unj ungan
Ġ end
ĠP agi
ĠImp reza
ĠIB RAHIM
ag edi
KO L
ĠB angkok
ĠP ur
J er
ĠD O
ĠHar am
ĠY IN
P residen
ĠSep erti
NO V
ĠOld er
et i
O ne
Ġj asa
ĠL iber
ag ak
asil an
Ġpen ilaian
Ġpeng esahan
Ġdis impan
ĠMad inah
ĠC amp
ĠPT PTN
ek ali
Pemb angun
ĠT aksiran
ut awan
Pet i
ĠCari bbean
mod al
ĠF urniture
ĠTH E
Ġd ef
ĠC atat
Ġd ec
ĠA lex
ĠL es
ĠPerh ubungan
S eterusnya
ĠD H
f alt
Ġmemas ak
Ġmah ukan
Ġteb al
item ap
aunsel ing
ĠPER K
S he
se Int
abung kan
ĠP C
ĠV ol
ĠS impanan
ĠD uit
amp ilkan
Ġju jur
mer eka
ĠAz erbaijan
ĠB alik
ĠDis k
el se
TA DB
Ġp ec
s ekolah
Ġs entuh
ĠMas ih
Ġw ere
New er
asm ian
H ati
ĠD z
Ġpeng ec
ĠK linik
Ġkeb iasaan
Ġk afir
Ġters embunyi
ĠAngk atan
Ġhits LEE
anj utan
ĠLEMB AGA
Ġmeng elak
Ġs he
ĠCo upe
Ġn ih
Ġc ampur
T ravel
na v
ta ff
s umber
ĠTr ail
ub u
ĠPak istan
ĠP orno
ĠCent re
itor s
ĠAr t
re am
Ġdip apar
ĠIN S
ĠBang ladesh
si apa
c ap
har gaan
ĠTradisi onal
T ungsten
ĠW ild
Ġt ukang
AL ITI
Ġpers ediaan
Ġg ambaran
Ġkeg emaran
f ind
uas kan
Log an
Ġsar ung
ĠTet ap
ĠT enggara
Ġrequ ir
Ġmenyed ari
ĠPEL AJAR
Pen ilaian
Ġko lam
ungg ang
ĠDep osit
ĠPri us
on om
ĠMen ang
Kos mo
ĠS IM
erti an
Ġak ak
7 00
ĠH alim
S ungai
Ġmemp engaruhi
at atkan
ĠMen urut
K omen
Ġd itu
Ġp h
all et
ĠIs lands
im g
Ġ{ {
C ikgu
Ġs ain
ĠL os
ik alau
ĠPend ek
1 12
R ob
Ġkem ajuan
B usiness
Ġpas ir
ĠM il
ĠC ross
u ak
w ard
Ġr ev
ingg uan
Ġsay ur
ihat in
SM K
1 16
Ġp otensi
ĠMal ibu
op acity
C lassified
Ġp in
Ġm adu
amad un
ĠS on
ĠD agangan
min al
Ġmem uat
j angan
Ġn ow
Ġmen amatkan
ĠIB U
BA IK
ĠF OR
ender ma
s ar
PK G
j ika
ĠM aya
ala de
Ġp uk
ĠT eknik
h ouse
s ak
ĠT RAN
Ġsela gi
ĠCab ri
ĠDic kson
Ġbah aya
aj ukan
p aru
ĠPeng iktirafan
emp a
Ġujar nya
ant o
uk ri
p ela
Ġsebeg ini
ĠO thman
w n
Ġser onok
Ġsekal ipun
Ġal so
B O
C har
er ra
Ġk orban
ĠL engkap
Ġb anc
ay ati
ĠAc cord
Ġbimb it
ĠK encing
! "
ON I
ĠSEM ASA
ĠO rig
ĠAG AMA
ĠK T
uat tro
Ġpilihan raya
ib atan
Ġum rah
Ù ĩ
al urkan
Ġket ara
ĠYuk on
ĠTah fiz
Ġm atanya
ĠG RO
ew as
ĠK harina
Z ul
igres en
ĠV antage
ĠBer jaya
In sya
ĠPen ang
Ġmem akan
c ak
ni e
Ġmener angkan
aran kan
Ġpen ampilan
re y
Ġkil ometer
Peng arah
ĠWak af
Pel esenan
Ġberl ebihan
Ġ urut
Ġstr ess
ĠL yn
Ġsy ariah
Ġper hiasan
ub i
ĠJ alil
angk aan
ĠM ulia
us uhan
Ġw orkshops
anc a
T ema
li es
ĠCut lass
edi um
Ñ ĭ
IS AH
ĠUR US
PR U
ĠEsc alade
ol f
ĠSilver ado
HIB LI
Ġak hlak
amer kan
Ġs ang
ĠMazda Speed
ĠM oto
imp ulan
ĠSy eikh
ĠEd isi
Ġdibah agikan
ĠRas hid
er ingan
ĠO h
urat or
ĠKec emasan
T occo
Geni o
G HIBLI
oy ang
Ġmuslim ah
ĠK ut
gan as
Mes ej
Ġanj uran
Ġpenj imatan
Ã ·
r itik
Ġa is
ec a
Ġg amis
Ġte ori
af ar
ĠRos e
en tif
ĺ º
Ġdem okrasi
ĠO LAH
C ipta
Ġh a
mas ter
Ġpenj awat
au f
9 22
ĠY an
usah awanan
lu c
ya yang
B arang
la ku
ag ihkan
Ġdil indungi
ĠS EMB
ĠN UR
Ġac i
ĠAs h
ihat kan
Ġrumah nya
ĠC os
Ad d
aser Jet
ĠS C
ĠRes epi
Y O
Ġreal iti
ag ih
Ġs ubuh
Ġan alisis
Kela inan
Ġb ukit
S X
W W
ĠKr edit
ib ub
UD I
Ġbi arkan
cla imer
Ġper tukaran
on c
Ġmemp ers
b etes
ĠA mat
us us
SM S
re ak
(' .
ĠW EB
S in
ĠC orn
ĠPENYEL AMAT
ĠM K
Ġs endi
P intu
H uawei
Ġkont eks
Ġper asan
ala kan
TI F
Ġy ak
AN AK
J EK
Peng iklanan
r and
ĠP orn
Ġmengh ormati
enj ak
P aling
Ġl eb
and ra
ĠR oman
Ġmenghar apkan
D S
et t
ĠO m
Ġb g
ĠKER TAS
r ay
ĠEn cik
angk akan
Ġmel angkah
Ġpert ahanan
ĠT ap
Ġsel era
gi g
Ġel emen
Ġs iku
rad e
f er
ent iti
la gi
Log o
Ġkn ow
w rap
Ġr aj
Ġpemb unuhan
B ARU
ĠPL US
In stitut
ĠBUK U
S amsung
ĠB antu
rom os
ĠM O
ĠSk ru
ĠVit ara
ep atan
ĠP S
ak waan
ĠJ emaah
Ġkes ejahteraan
ĠPEMB EL
ĠB UKAN
ela wan
ĠKr ai
alim antan
uj ang
angk uk
ĠT eknikal
Ġpers endirian
ĠPer nah
T anah
ĠDak wah
t ag
ut h
ĠL as
ĠMod al
ĠPerb adanan
er ma
le ase
osh iba
ĠKD YMM
AND U
Ġ3 9
ĠR SS
Ġberb incang
L td
ĠB all
ĠSk y
lassi c
ĠC ahaya
Ġc orak
ĠT ata
ori es
ĠSu ara
z o
u angkan
r umah
Ġtidak lah
Ġterj ejas
ĠPIN ANG
Ġak ar
Ġberpend apat
eb askan
Ġmend uduki
L ower
ĠD epan
si um
par ams
Ġl elong
ĠJ EN
ĠK ilang
Ġun tung
ĠIb n
ĠP hone
ĠInt egriti
c c
Ġsamp ingan
AT E
Ġmenj amin
Ġs ingkat
ĠV ersi
EB OOK
ĠKW SP
N AH
ĠP agar
6 01
Ġmengak ibatkan
Ġdari pad
Ġ4 1
Ġpenc egahan
Ġlet upan
Ġtand as
Kons ep
ĠD aud
g b
Ġr ogol
Ġ5 6
Ġmemb abitkan
N ame
t ai
ĠCh in
h aliza
Ġdi an
ER A
L alu
Ġb alasan
ug at
ĠU lama
ĠSETIA USAHA
b aikan
asm ikan
ĠP ahat
and ai
ach ok
Ġmen aiki
ĠQ ur
Ġpert ubuhan
A V
CL ASS
â ľ
C all
ĠN ub
ant ina
ic araan
z lee
T urut
ĠPT FE
ĠTah ap
P G
R SS
P ad
Ġk uda
Ġw artawan
ĠO KU
Ġc ik
Ġsen aman
uar d
Black Berry
Ġi jazah
str umen
ĠO F
Ġmel anggar
nah kan
ĠAut omotif
R AGA
ĠH ouse
R UL
s n
ali gn
Ġh aid
Ġperang ai
Ġus ul
Ġkel antan
OD AY
orn ia
os ok
ĠW ater
ĠR imba
Ġdib angunkan
F i
at is
rad ing
AK U
ĠR ang
orb anan
im aan
ĠB os
K ET
Ġb elas
ibub apaan
anyak kan
Ġjamb atan
Ð ¿
T ON
Ġb en
ĠA ustr
Ġber niaga
Ġmas anya
S ENARAI
Ġf abrik
1 14
Ġcom el
ĠKr is
S outh
old id
ĠTo uch
Äį ina
Z ER
k ohol
H D
ĠSE J
k rip
Maj alah
Ġ8 00
Ġpeng umuman
row n
Ġkes al
ula tan
S esi
Ġjamb u
Ġh ormon
B agaimanakah
Ġg ram
ĠSer vice
ĠB etul
el is
ĠPut eh
ensi f
ert akan
w ord
ĠP EK
al oi
Ġst ill
Ing at
R akan
ĠS ama
si ap
UR UN
em ahkan
B R
H IR
la c
ud u
z os
e ach
Ġn ur
ĠPend engaran
( {
it ra
Ġit em
ol ok
ĠG udang
ĠCh at
alif ornia
ĠKem atian
ĠJu ga
ass in
end ing
ĠE mb
Ġsela ras
ĠT ambah
ĠK elajuan
ĠU KM
Ġw edding
Ġsek alian
Ġs taf
Ġb encana
ari um
engk apkan
ĠF e
ĠD ara
ĠS id
ĠSer upa
W e
Ġmeng umpul
37 0
ĠA ura
T ajuk
Ġk ambing
k p
ĠT ambahan
pr ise
es tern
== =
ĠO cta
ĠAr gentina
Ġd ll
AH AYA
Ġg itu
ĠOr gan
urni akan
ĠP ayudara
ĠBIL IK
ĠBe ach
Ġseg men
DARI PADA
ĠH ashim
UN IT
ĠJ ok
ĠL TD
ĠC ontoh
ĠL ove
ĠBerb uka
Ġla st
SEL ANGOR
M AR
Ġt eh
Ġbers ikap
Ġsud u
ĠYus op
Pent adbiran
acu um
Ġmemperb aiki
ĠD adah
iz ar
Ġind onesia
ĠSUR AT
m asa
Ð° ÑĢ
eg ram
m enc
Ġmengemb angkan
G e
ĠJ umlah
ĠO bjektif
ĠK az
AIL Y
Ġp iaw
ĠT awaran
Sc ript
Ġtamp il
ĠL S
AK AT
ĠB enar
Aman z
ĠE th
Ġdo uble
f acebook
ĠâĢ º
Ġmend ek
Ġper j
ĠAD UN
im i
Pert andingan
Ġdi rogol
il ikan
ĠM uar
ater ing
if i
ĠS DN
Ġbert entangan
C atat
ĠMas ak
Ġ our
ĠKes atuan
ĠIb adat
S mart
i arah
S inar
ĠS idang
ĠTemp oh
ant ahan
ip as
and o
F R
ĠJ en
J o
ur ing
i TM
ĠOLAH RAGA
rem ove
T UAN
Ġmes kipun
Pi ala
ĠN af
Ġb apanya
A ssalam
Ġt d
angg anan
Ġk urus
ait ul
ĠN GO
Ġist ana
k ad
k o
Ġl ulus
z al
Ġpen erangan
uj an
Ġmela mb
Ġwh ich
ump ama
Ġi Phone
L ink
Ġ udah
ĠI jazah
ĠM andi
ĠMaj alah
ud ing
ĠD ungun
or ge
ĠD ual
vert is
Ġs perma
b ih
B os
ard en
Ġ18 0
ĠInd eks
ĠK eluar
18 0
AT IF
Ġw at
AC EBOOK
ĠM arang
p ed
A tau
n egeri
ĠR oll
Cl ick
R ujukan
L awatan
ak am
Ġdic etak
ĠM adu
iz z
ghan istan
K asino
Sep anjang
ĠRAS MI
str ing
T injau
ĠTok yo
B ack
Ġmemb ersihkan
Ġter kand
ĠPeng inapan
ĠSoc cer
lu ang
Ġ5 1
US D
ĠSh ams
ĠS ESI
ĠHigh lands
AL AT
p ur
ĠL evel
9 00
N ov
Sek tor
Sek ian
ĠF ox
Ġk it
ol ly
R asa
el or
Ġt eksi
M enderma
Kep erluan
r ite
Ġk ari
ĠM ilan
Ġl ebuh
ĠPeng enalan
Ġla ks
Ġab dul
Ġmah asiswa
tain ment
Ġsem akan
ĠWh ite
ĠL ot
Ġk ubur
Ġmela mpau
ĠKOS ONG
Ġs inggah
Ġbel anja
p et
er gi
Ġmen aikkan
ĠJ ac
ĠM uat
ambah baikan
ec tor
Ġdis elesaikan
V ari
ĠT aip
Ġl um
s earch
f az
gan asan
ĠS quare
ĠF orm
A O
anc am
Ġ/ /
Perb elanjaan
M il
ĠL anka
ĠNi at
ĠS ilat
ĠF ort
ud e
Ġpers atuan
P lus
L U
p cs
ĠW eld
J uga
F eed
Ġla b
Ġjer awat
Ġmeng ira
ta fa
Ġberlak unya
Ġdila rang
Ġsup port
B intang
ĠSpr ing
s uka
l oy
se in
Ġse jauh
Ġter uja
D ER
L ar
Ġl idah
ent o
ĠT ema
ek u
ar ta
Ġb on
ĠSy urga
Seb aliknya
C asino
ah aru
Ġper usahaan
R az
rang ler
Ġk acang
ĠM ond
ĠC incin
Ġwe eks
ĠL ub
Ġmer osakkan
Per tama
Ã³ n
ĠPes uruhjaya
P ur
ĠW ay
I anya
ĠAH MAD
ahagia an
Ġke ganasan
ĠPr ima
Ġbengk ak
orn eo
ev e
ĠIz zah
Ġc ita
ĠCh er
Ġkap asiti
Ġp l
ĠT aiwan
1 13
ĠI T
et uskan
ĠN AK
Ġ5 3
H as
ĠCol omb
v el
UK A
id th
Ġnot is
ĠTer us
M i
In formasi
q uran
Ġâ Ĩ
ĠPemb ekal
ek tar
Ġf ollow
ĠK as
is alah
Ġs tor
Im am
---- ----
T estimoni
S ar
P OPULAR
ul kan
to Lower
toLower Case
Ġmenc ecah
Ġserb uk
ker ana
ĠP a
onj ol
UL A
Ġberg elar
Ġ[ âĢ¦]
Ġfor mat
ĠâĢ¦ .
Ġmeng enakan
Ġsp esies
Ġterl ihat
Ġ} }
Ab ang
d id
Ġm utiara
ĠREM AJA
Ġkem aluan
S arawak
S ej
ant ut
T ur
Ġ4 6
T rader
ena ult
Ġp ra
u ela
ĠH alal
Ġterd edah
Ġmengg anggu
ĠH ebat
Ġdim akan
P rivacy
il ir
ĠPENG ADIL
ĠM os
G en
Ġmenging atkan
Ġs imbol
Ġse ekor
emp utan
q a
ĠA in
F X
S angat
Per nah
ED AH
Ġse imbang
ud ar
ĠT ODAY
Ġyak ni
cur rent
yak i
Ġb agai
ani e
ĠTaw au
ans ur
B ro
b agi
ĠK adar
ĠBr itain
Ġ ajak
ĠK embali
ot ika
emp uran
ĠLah ir
au x
ĠCh ord
ĠS ini
ĠHaf iza
K olumnis
Ġinf rastruktur
Ġer otik
dn ey
S olid
Ġmem otong
Ġdik esan
us e
le c
Ġpen onton
ĠJ OHOR
A w
ictor ia
EM I
T ekanan
ĠEur ope
Ġringkas nya
Ġo per
Ar ch
Ġg oogle
enj ata
ĠK ur
Ġk reatif
Ġberb ahaya
Ġmeng esan
d it
Ġkont roversi
ĠUn known
ĠNub iles
Ġag en
Off ic
ĠBu ff
E jen
Ġber itahu
ĠE UR
ĠMah mud
B adan
uc ian
aa aa
Ġus us
os ter
Ġ4 2
AW AN
ĠPEN INGKATAN
ANI TA
ĠK adbod
Ġberc erita
ĠM ok
ĠYah ya
Ġdiper oleh
Ã ¢
ĠT amb
ĠAr m
12 5
if atkan
Ġmenyel uruh
ĠJam es
ĠJ ordan
Seks yen
V i
ĠLin ks
ord in
Ġ any
ĠC av
ti es
ĠU capan
Ġmen ipu
ĠProf esional
T indakan
J EN
aga ikan
Ġpeng k
gi um
Ġaw ning
Ġp adanya
Ġpro duc
Ter l
âĢĿ ,
ĠPE PERIKSAAN
S aiz
Ġth em
ĠNig eria
est ing
eb ei
16 0
ensi on
ĠViv ix
Ġpert uduhan
Ġdip asang
ĠG oreng
ĠB omba
ed ang
uny ikan
es us
Ġl utut
Ġberc er
Ġkomp leks
ĠPer lawanan
ant ing
HAR GA
ĠF lat
ĠKED AH
ad alah
Ġbert ajuk
ĠP intar
Ġt at
Ġdi sip
ap u
ĠF amily
lam an
K eg
ĠJ AYA
l emen
Ġkem urungan
ĠSwit zerland
c ita
ĠFin ance
Ġhits Farah
AY ARAN
Ġh airan
Ġpemb antu
T iba
s id
ĠH oki
Ġun d
AS T
eb elah
ĠPela cur
ef t
Ġmeng arahkan
Ġters uai
Pem andu
Ġmeng ajak
Lemb aran
Ġgrad uan
Bi odata
ew i
ap ung
Ġg anda
f eng
ĠJoh an
ĠS at
ĠG una
Ġpar k
intang i
ĠSIS TEM
Ġbet ina
Ġm edan
ĠAl t
lam p
ap t
ĠD ulu
Ġkem erdekaan
ch ar
eb us
L uar
Ðº Ð°
af az
Ġob jek
ĠD o
ĠSh ow
ĠR IS
ĠAmp ang
Mes yuarat
ĠTER BAIK
Ġ14 39
ĠKet iga
J IAN
ĠV o
ĠM elak
ĠHar un
R ekreasi
j ar
ĠBlu e
F ir
Pert anyaan
ĠS AYA
ad ai
ĠSab u
Ġla y
amb i
ĠFre elancer
ĠG abungan
ed onia
Ġmeny ambung
In ter
ĠM ilik
Ġm Star
ĠR ujukan
Ġdik endalikan
enti asa
uk uran
ĠW ith
IK ASI
EM A
Ġmengh abiskan
En akmen
Um ur
K y
ĠT ubuh
ĠC opyright
PA UTAN
ĠT eh
id ata
ĠI K
ĠS AL
ĠF esyen
G ejala
Ġ5 50
ĠT udung
ĠT ARIK
ĠDi et
Ġek str
Ġen able
Ġdi angg
ĠC OMP
Ġst udio
ĠS uk
Ġdisip lin
af a
Ġtert utup
G URU
Ġcar ta
ĠJ ADI
Ġkon krit
la ah
Ġkom ited
Seb uah
ĠN ab
ff in
ĠR OL
ĠLemb ah
our ces
ĠGer akan
ĠW isma
ĠJ IS
KO TA
b ir
ud ud
Perb ezaan
K andungan
H ampir
ï ¿
Ġb o
ĠAm al
Ġr ead
Sem alam
ĠPEL AKSANAAN
Sed angkan
Ġg u
ĠE mel
od ua
Ġpet i
f ie
UN T
Ġdit entukan
Ġg emar
Ġstr ategik
Ġh ormat
Ġpel epasan
Ġtrans aksi
ĠM all
ĠC aterpillar
un aan
ĠSe at
ĠAz har
anj ikan
Ġpers egi
ORT AL
IMP IN
Ġpen utup
l Ã¨s
T C
Ġc ek
Â ²
m emp
AW ANGAN
Ġc ip
00 00
Ġkec ik
ĠTr ump
ĠL G
El ement
ĠSamp ah
ĠR UMAH
ĠJ adual
P OR
z iah
ĠSela ma
d ha
ĠMOD UL
N asi
Ġdis erang
f at
Ġmeng anjurkan
ĠEnc oder
Ġdaripad anya
= '
EN C
Ġbert ulis
D R
ĠP ED
Ġs tereo
ĠW indow
oy an
ĠPol and
ĠÂ °
nik ahan
ĠTRAN S
op an
d ib
ay lor
Ġ199 0
T ES
H abib
Ġm int
DAF TAR
P ET
ĠMuk hriz
M AMPU
ï¿ ½
la tion
b ulan
k at
ĠSela in
ĠDol lar
tr im
ongk ong
ĠIr eland
aj is
ĠB ON
Ġc aj
Ġmengh isap
Ġberp eng
j it
Ġmen ampung
ib umi
ĠP VC
ĠAkses ori
rag ma
Ġj ah
ĠH ajat
AR AT
Ġ199 8
ĠA ce
ram ai
C as
Ġdita yangkan
W ilayah
M AT
Ġgel ombang
p rev
ek alan
g g
ad ir
eter an
ĠB L
ta ubat
Ġsh ow
ĠF i
Ġt uh
Ġt embak
el ine
is ip
c enter
ĠKos metik
Ġ url
v oy
ĠB ali
ĠS taf
ĠB AL
ON OM
fi eld
ĠSula iman
ĠCh rist
ĠH IDUP
Ġbers emp
Ġ ubah
ĠH ilang
ĠN I
IH AT
ĠN aik
ĠMak mal
Ġp angkat
ri es
Y AK
Ġd urian
ĠSad diq
ĠT u
ail kan
Ġpem enang
elar as
us ta
ĠSur abaya
ĠH ubungan
Ġdik etuai
Ġper isian
ĠLebuh raya
C alon
ĠGRO UP
Ġb abi
Ġ upaya
ĠSh ally
Ġpenc emaran
Ġhad api
N asihat
angg aran
mel kan
ĠT azkirah
Ġbe en
Ġpenc arian
Ras ulullah
ĠMotor s
estim onial
S W
] ,
ĠAl ternatif
way atkan
M al
Ġhits SITI
Ġhits Noor
sp ek
ĠShally na
Ġd ini
un kan
Ġl ot
ĠAf rica
AT EG
p ress
ĠPERS ATUAN
mat ang
+ +
Ð ²
Ġmen ump
ach ing
emb ung
ej al
ag an
Ġn gan
aham kan
Ġ5 2
Ġup d
ĠEst ate
b ak
per s
r ot
Ġk olej
Ġseb entar
q ah
ab an
Ġmend idik
d ocument
ev a
Ġbers alut
ĠSh anghai
ĠS ARAWAK
H adiah
ĠF estival
up uk
ĠPr estasi
ĠJ DT
Ġk uki
Ġet nik
Ġg angsa
Mas yarakat
an asan
TIM ONI
ob s
Ġmust ahil
M ed
Ġdim aksud
ĠDak ota
Ġr ad
ĠFEL DA
Ġpul uh
ĠPEMB ANGUNAN
Ġberla ri
1 000
Ġsed iakan
ĠS anta
ĠLand skap
g ara
ĠE quipment
raf i
q i
ĠB ig
C ont
am eter
Ġ Ø§
ĠS IRI
id o
Ġsela lunya
lu ar
Ġmel ancap
TI ON
Ġsila p
B ook
L o
ing er
ĠEng land
C or
T ambahan
ĠS ewa
ĠCh all
Ġr oti
OT OR
Ġaj e
ĠâĨ Ĵ
ong feng
ING ATAN
oc i
R AM
b nb
Ġ2 20
Ġmemb atalkan
ak ia
Ġt ik
SI M
Y EN
ek ad
as ter
Er otis
IV ER
ĠWik idata
T ARA
Ġrunt uh
3 60
U st
ĠTim es
P C
Ġdik ira
ĠV acuum
Ma af
É Ļ
Ġpeng ikut
ana u
J EMPUTAN
Ġr iwayat
etak at
Ġkr isis
Ġd ocument
Ġ6 3
Ġh y
ĠROL LER
ajar nya
D okumen
Perk embangan
ĠPERT AMA
R eka
ĠK hat
ĠR ew
ĠSw eden
B o
ĠS esi
w azah
la wan
ĠV en
Ġkr itik
ĠAng eles
Ġt v
ĠKeh amilan
en ovo
uf act
ĠKar bon
ut ihan
eriks a
ĠT ani
Ġper ayaan
ĠK andungan
ĠW rangler
t anya
r aja
H utang
P AR
Pemas angan
ĠF ASA
Wah ai
Ġp uan
Ġmem an
ĠMar ine
Ġkew ujudan
c ent
Ġlet ih
GER AKAN
ANGG ILAN
ĠBl ok
ĠM ekan
ult asi
p at
ĠS uhu
ĠB alai
ĠN OR
f on
ĠN am
ĠBest ari
G ambaran
) )
S UKAN
Ġb edah
ĠI E
Ġd om
it os
up usan
ĠR uang
ed ak
Ġsel uas
Ġb usiness
est o
ĠAs mara
PER S
asihat kan
B elah
ala wat
Ġsamb ung
ĠKDN K
Ġmel anjutkan
K D
ĠTARIK H
Ġlar angan
d am
Ġmem f
n anya
ij ing
duc ation
IC E
ĠB id
ĠR encana
ĠF usion
ĠRAM AD
ĠPD TAG
r ikan
Ġ19 0
z bek
ay angkan
IS N
r ani
ĠMah kota
ĠPer pustakaan
B uah
angk ala
ĠP AD
ĠD ownload
ĠB it
P elaburan
ĠPem ohon
ĠS angat
ĠJ UN
Ġpers ekutuan
ops is
ĠC D
Ġmend atangkan
Ġmem eluk
imp ik
ĠSel uruh
O perasi
ĠR iz
Ġhak im
ĠP AHANG
ĠI C
M L
z at
K IB
Seh ubungan
ĠT elah
ron as
Ġfor um
ĠCap rice
Ġmemb ah
Ġumum nya
ĠShaf ie
elaj ah
S oft
ab ad
Follow ers
Ġfor ex
hats app
L uc
Ġform ula
ĠN on
AR E
ĠSep anjang
D ouble
ah ir
Ġ6 20
p in
Ġb al
ĠBAH AGIAN
Ġberp uas
man i
eles aan
ĠK angsar
ĠL alu
Ġkar go
N ota
es ta
Ġdip akai
ĠZ ON
AY AH
ĠSi aran
ha el
Ġpemb entukan
ĠPRO F
Ġb om
un o
iq h
Tah niah
C ur
Ġs ite
ĠP OS
ĠAKH IR
Ġs kuad
Ġt gk
ri x
Ġsek ejap
Berg abung
ĠT AB
id es
Ġsembah yang
Ġar us
Ġsol enoid
M enarik
ĠKont rak
ĠD apatkan
Ad alah
KER JA
ADAR US
ĠT ADARUS
US I
Ġdis ertai
Ġg atal
ĠM ALAY
ut ur
ĠD atu
ĠNot is
, '
v ensi
sh ip
sl ider
Ġm ad
man y
ĠB oard
Ġl ukisan
egan asan
ĠH ard
ĠH ealth
od iti
Ġcender ung
ĠR AJA
Ġk ant
J elas
op ping
Ġl if
ĠN amun
end uri
op ia
ĠBad minton
ham ilan
agn osis
ĠK aya
ĠWhats app
ĠI raq
IL AH
Ġm antap
Ġpen urunan
Ġkes ayangan
ant at
.... ....
ĠKemb oja
Ġdi anjurkan
s akit
Ind ividu
Ġt indak
Ġb ikini
an akan
inc ir
Y outube
ĠR ef
Ġc awan
r ata
ĠSOL AT
ĠNas ir
ĠK ucing
Ġkeb ersihan
B en
or matan
ĠI TU
Ġdit ukar
p ihak
itud e
Ġmenj atuhkan
! =
Ġbers atu
ARA PAN
ĠKE PUT
ĠQ asar
Ġke hamilan
P dt
ĠVis itors
Z I
12 8
w im
Pus sy
ĠIk h
ass im
yar ak
Ġberk umpul
ĠSej ambak
ĠC emerlang
ĠC lass
Ag ensi
g asi
Ġb akat
Ġmemb antah
Ġlat in
ĠA la
ĠPengk alan
Ġing atan
ĠAk ibat
ood s
ĠR estoran
O ZER
ĠV IDEO
Ġmemb ekalkan
ipt akan
ĠK empen
TER KINI
ĠT ugas
it ir
ah asa
ekod kan
Ø ¹
Ġpen imbal
A q
H ot
ĠH ungary
Ġmeny ifatkan
LD OZER
ĠBAND AR
unt ah
ĠP ress
Ġn is
c at
T ujuan
eel ofa
P unca
Ġimp ak
MAKLUM AN
ĠKEL UAR
ers on
ĠAs et
Ġdi iktiraf
ĠBUL LDOZER
ĠS uhai
am o
ut ip
Ġh im
ĠV S
ĠMuh amad
p on
ĠR em
eh ehe
rol i
ant iti
Ġap e
b uku
ti ce
ĠPerb incangan
co unt
Ġperh entian
UR UH
I si
12 3
Ġpes ta
Ġpel ancaran
V illa
Il mu
ĠSep ang
L upa
Ġp neumatik
ĠK ang
US T
K PM
Tet ek
C awangan
Ġk lasik
S okongan
ĠL adang
amb ia
M alam
Ġk g
Ġmeng us
PUT RAJAYA
A kan
ĠA ST
S ES
Ġp adu
ĠM AI
Pap er
PEN AFIAN
ak er
ell es
emerl oh
ĠBook ing
ikan an
ĠL EL
ar ag
ĠPert andingan
ĠHam zah
per empuan
ĠEle c
ĠNavig asi
ber g
tif ik
m urid
ĠRam li
ASY ID
Ġc lass
ĠMeng apa
ĠP ondok
oh n
Ter b
empurn akan
ĠT AD
Ġf alsafah
B ukit
Ġdiw ujudkan
ĠMark et
Ġti ang
ĠAng gota
y g
ch a
S ains
ĠTINGG I
ĠY un
ĠSEM UA
ĠR ap
Ġtel iti
ĠP UN
Ġseh arian
ĠS ubuh
EM AHAN
p ak
Ġ7 5
ĠKem aman
Ġangg ap
Ġpol isi
ĠJ entera
Temp oh
g rafi
aris kan
Aut o
TADB IRAN
ĠKES IHATAN
Ġd etik
Ġdit angkap
Ġib nu
Ġper industrian
ST R
jub kan
Ġl ebat
K awalan
Ġki amat
N ET
Ġmem antau
ĠSeb erang
iff on
Ġberp antang
Ġmak e
D ec
ad ika
ĠMain board
B enar
Ġ 00
Ġy uran
an aman
tiv is
ĠBUK IT
D in
Ġk amar
Ġmeny us
Ġh erba
illi on
s emak
ĠS AS
ĠAn uar
Ġh ow
v iti
ĠK y
ĠSt ok
ĠS US
)} }
Ġke adilan
og yak
enter aan
Ak ses
eter ai
Ġb uk
ĠI NOV
la sh
AI MAN
ow i
Hak im
ĠTh ai
D ib
ĠK urang
ĠSE T
ĠCh a
Ġterb akar
Ġdiper untukkan
efin isi
ĠB iru
ĠD aw
eng e
P uan
ĠL eb
ĠK arat
EM ATIK
Ġberikut nya
ĠMeng ikut
Ġdiab etes
ĠHus sein
ĠSamb utan
D O
Ġs end
Ġper iksa
Ġmem ul
ahar uan
ogyak arta
Ġmengal ir
n ext
2 15
ĠS ip
Ġdi agihkan
ĠU lu
ĠF izikal
IS ASI
ĠB eri
ĠPOL IS
A yah
on ya
ew arna
Ġt alk
h anya
ANTU I
Ġrup anya
ub in
ij ab
ĠSh ari
J ABATAN
ut r
Ġl iar
Ġsal inan
Ġke amanan
ĠCam ry
or o
Ġterp akai
vens yen
ĠPeny u
ĠPER UB
isytih arkan
ai di
eric an
B ilangan
n at
oh ong
it eknik
er us
az anah
d es
olid ay
MAKLUM AT
w arna
ĠC ro
ĠEng kau
ic ip
ĠIslam ic
Ġkarb urator
L ooks
Ġkeb imbangan
ID EN
ĠC iv
Ġh ektar
Ġsek ian
ĠO b
Or der
D at
Ġ import
ĠM ama
ac ar
Ġrawat ib
Ġsep uluh
ĠZ ak
ĠG ajet
Kel ebihan
Ġpas ang
aru ah
Ġga y
D EWAN
A yat
us nahkan
ĠLag oon
h aka
W edding
ĠAl marhum
Ġke inginan
loth ing
wid get
Ġbaru lah
B AR
ĠD izyan
Ġ ebook
ENT ANG
L ilin
ĠJ PJ
l ia
ĠS tereo
B ORANG
Ġtamp aran
Ġpes an
Ġper undangan
ock et
ĠIN T
st ein
Ġ2 50
ĠP ustaka
UG ERAH
anc urkan
Ġs upp
D el
Ġ6 4
itt le
akh stan
c uran
ĠX S
ai re
ĠFre ight
c inta
ĠJ in
und ur
ĠPER AYAAN
ĠU JIAN
Ġjur ulatih
ĠMad rid
K EM
ĠM obil
ĠR ange
ĠL ak
ĠSaf ari
l anti
Ġmemb esar
ĠSt ats
ola kan
emb au
ov akia
Ber t
ĠG B
ĠM ia
ab s
Ġg red
Ġw hen
Dis claimer
L AS
un sur
Ġn orm
Ġdi arahkan
ĠFin land
Ġ[ [
Ġseh inggalah
ĠPENG ARAH
Ġt awar
Ġber agama
Ġk uku
ĠN ASYID
ĠY oung
Ġmemp elajari
ĠD E
ĠKOMP L
Ġb enci
ow s
Ġp isang
as eh
Ġek ar
Feed jit
C ode
D enaihati
TAN D
B B
M olybdenum
Ġp ingat
cel and
t elah
ti ar
y ear
d em
ĠTwitter Kongsi
ide os
Gr ant
or os
ĠW in
pis od
m akan
w in
Ġsek etika
ĠMon ter
ĠO per
ĠSE CARA
Pes ta
ĠIni BlogThis
B a
ĠKul im
ĠL ancer
Ġv ia
Ġkr onik
ĠN epal
ĠAz man
ĠB ACA
p ag
Ġd os
20 20
J en
ĠDi per
ĠP anel
Ġc ekap
et ail
qu es
Ġb ody
ĠL AS
ĠR ead
UL IS
m onth
ĠY e
ĠPEN J
ĠPEMBEL AJARAN
Ġd ealer
ĠIn formation
Ġt ajam
Ġbert uah
ĠAN G
ĠT apak
ER AAN
ump ut
Ġterj un
M is
k ek
Ġpan ik
W est
Ġm ari
ĠFr anc
Ġp elar
ĠMar ia
PEN Y
Ġak rilik
Ġ ular
ĠD AILY
Ġmend orong
ĠRos mah
K linik
ĠJ e
ĠJ UR
ĠLR T
Ġya itu
Ġ: :
Ġkons isten
y r
Ġw ould
ĠFr ancis
ĠO k
ĠMemb eli
pd ate
ĠP il
ĠKris mas
Ġbeb ibir
ap h
im atkan
Ġ12 5
j am
H RMIS
A IK
ĠW AK
ew engan
em es
ĠEx cel
Ġm alang
Ġr ehat
Ġalam i
ĠP l
B AN
ĠP owered
ĠPOL ITIK
ant om
apat ah
ĠProt on
ĠO li
Ġper lak
aw ati
Ġsej ahtera
Ph otos
L P
Ġr iba
sub string
ĠKh ai
lah u
Ġupd ates
v g
ĠAm bil
el ia
ĠW el
ĠBek alan
B alas
ĠP apa
m edia
ĠMag hrib
Ġmint ak
ĠPem impin
ĠPen erbangan
ĠW H
Ġdip enuhi
Ġpel antikan
Meng ikut
R U
TES TIMONI
ĠS ATU
Har ap
p irasi
ĠK art
l n
Ġest ate
ĠT ri
Th yssenKrupp
S ER
1 10
Ġ5 4
Ġmen anti
ĠAK TIVITI
ĠK PK
Ġber ahi
ĠTr aining
H a
ol ution
Ġkontrak tor
9 21
b it
P EJABAT
n ab
ĠJ U
Ber nama
Ġm ov
engg elam
ED I
ĠCh eng
Ġkeluar kan
IS T
ĠM ut
Ġc ent
elay ang
Ġk pd
Ġterkand ung
ĠAs ri
Ġkut ipan
ass alam
ĠTas ik
Per lu
ĠEnter tainment
ĠT E
ĠO il
ĠAw ek
H H
ay ak
B tn
Ġmeny ebarkan
ĠP IBG
ĠC ard
ĠH ousehold
In gin
Ġp atah
ĠC alon
ĠMemb eri
ĠR i
Ġc ak
AK AH
Ġk aunter
Ġun der
ĠRak aat
Ġper ingatan
ĠPemb elajaran
V ER
ĠT umb
Ġs oleh
Ġmen urun
M ath
R ak
Ġl umpur
ĠUk raine
ĠAllah yarham
ĠSent ral
ĠV el
Ġdic adangkan
Ġt ingkah
ĠIn formasi
ur uk
U b
ĠS um
Ġdib unuh
Ġs ara
ĠK ena
ĠH adis
ĠPemas aran
ES TIV
Ġc ili
ograf ik
Ġmeng erjakan
ĠSUL AIMAN
Ġkec ekapan
Mont e
emb alikan
ĠBUL AN
naf asan
ĠJas in
CAP AIAN
ĠJ K
ĠIs hak
lian ces
ĠPERB AND
ab ak
Ind iana
Ġsew ajarnya
Ġakses ori
Ġpener oka
j om
urs a
Ġr en
yah oo
Ġdi man
Ġm otivasi
Per umahan
ĠG ejala
ĠW CB
Ġwar ganegara
el er
Ġl eg
ĠJ ah
Ġs okong
Ġl urus
ĠTah oe
Ð ł
ĠPap aglamz
ĠLog am
v iv
cs v
t w
Tweet s
Ġbert empat
u q
Ġmen awan
Ġe quipment
R ambut
ĠG rad
Ġmeny emak
F B
Ġp n
Ġpeng uatkuasaan
ĠD arat
ĠMoh ammad
mer c
Ġpenyel enggaraan
omp in
ĠProt ege
int ahkan
Ð ´
Ġr uncit
Ġkep uasan
ĠS ukar
Ġt imbalan
ig ami
M alang
uch ong
Ġej en
S JK
ĠL ow
Ġtem uduga
Ma x
ĠD urian
ĠM agnetik
Ġmem impin
Ġrumah tangga
ĠN av
ub apa
Im ej
C N
lin ikal
Ġp ekan
DUN IA
Ġdit arik
ĠK ubang
ĠR ico
Ġg emuk
ĠSal im
ĠSud an
Ġbers uara
ĠPh antom
Ġger ai
Ġapp liances
ĠS ec
Ġla zim
ESTIV AL
ĠC as
ul ingan
ta q
Ġpers onal
ĠEd ge
Call Btn
way s
Ġpeny ediaan
ĠD aily
ĠN ob
K EP
Ġs oft
ĠM ahu
gi ve
Ġrequir es
f lex
ĠIN TER
Ġup date
Ġdis abled
M e
Ġdis erahkan
ĠH itachi
Ġsing le
duc ational
ommun ications
Res ipi
Ġmelakukan nya
Ġc ucu
Ġnavig asi
CT V
ĠFacebook Kongsi
ĠB ukhari
m uda
A la
ĠM ASA
Ġs ign
ĠA KAN
ĠV iral
ĠK acang
Mas uk
ĠK lip
P lay
ĠOR GAN
Ġp emprosesan
AR AHAN
3 16
Ġk uala
Ġp arah
Ġt ingkatan
ĠKer ing
sl ide
ĠTe am
us y
ĠCr uz
m it
ĠMeng andung
ĠKU ALITI
Ġny any
k y
M o
Mas ter
ĠBerk esan
ar s
ĠK ud
et ooth
Ġmengh entikan
Bah kan
Ġr ob
PER KHIDMATAN
IJ AU
ĠF as
Ġng gak
erg asan
k eh
ĠPENG AKAP
ĠFRE E
Ġk ala
Ġdib aca
h ah
ĠK S
af ter
ĠPERBAND ARAN
Ġb awak
Ġf e
Ġper airan
ĠS om
â ĺº
ĠB ent
ĠT eks
ul es
ug uran
ĠJav a
S ebut
Ġlingk ungan
ĠSt esen
ach er
Ġx xx
Ġnorm ally
ay anya
AM AL
Ġpent as
Ġku ih
Ġuk uran
Ġsub scrib
ĠP aul
P E
ĠH AL
ap er
Ġdit unjukkan
da us
Ġter fikir
ter ima
Ġdit urunkan
B an
Ġberk em
Ġdiam alkan
Ġberpend apatan
Ġser am
Ġterk awal
ĠJ ual
H M
J ID
el eng
ab ul
Ġmemp erl
ĠS ampai
ik ing
ĠG oji
ĠO ct
eb ahan
s ana
âĢ ĭ
Ġmengg esa
p ot
Ġter endah
B angunan
J angkitan
es or
Ġw al
Ġmer ampas
Ġpun cak
Ġboleh lah
J awapan
Ġmen angkap
p anas
uj aan
Ġpar seInt
ĠNi aga
ĠEn voy
Ġnik otin
Ġ apatah
Ġpem ohon
ĠSUM BER
ĠS ul
ac tive
r ew
Ġtah i
Ġcontoh nya
ĠHus am
ĠK ara
ĠSport age
th er
K AH
Ġt ewas
ĠPelak sanaan
ĠA am
ĠMemb aca
Ġpep erangan
Ġland asan
Ġdisk aun
Ġmen atap
Ġmeny usu
um n
Ġmak cik
op en
Ġdim ulakan
Ġ5 7
Ġdif ahami
D AS
Ġpeny ebab
Ġob jektif
B aju
ĠK OR
Ġperk a
ĠIs ti
ĠSEJ ARAH
ĠSy dney
Ġh alangan
O X
lu e
NI AGAAN
F lange
Ġj an
ĠPemb ersih
ÙĦ Ø§
Ã¨ res
/ -
ĠH p
ĠD er
ĠArab ia
ĠMAT EMATIK
Ġt isu
ĠTh eme
su ai
Comp uter
T our
ĠN a
et ish
endah araan
et apan
romos ikan
ĠMR T
ĠB aling
ĠF ESTIVAL
Or ganiz
Ġth en
ĠSerb ia
Te am
p o
ĠR ope
af er
awai i
ĠS ibu
ĠN ational
d ung
Ġkeb un
Ġmeng ejutkan
ka edah
ĠMEN ARIK
Ġg ig
Ġkeb olehan
w esi
Ġter atur
Ġpen emuan
ĠIn san
HIB URAN
N ampak
Ġg anjaran
IC T
ur ismo
Per dana
Ġy atim
Tel efon
Ġses awang
ĠSlot s
Ġk embar
ĠKh an
ard hu
Ġkab inet
Ġdo akan
Ġb aw
ez akan
ĠD ih
n c
Ġp lay
id d
AG E
is asikan
Ġj gn
b isik
port e
ĠMat ematik
Pr emis
Ġbu ih
SPR M
onstr asi
ti ada
P revious
res h
ĠTaip ing
Ġberp akaian
Ġst atistik
ĠL ip
ĠK am
Tah ap
ĠSp ins
Ġraj in
er apan
P IN
AS E
Ġs kandal
Im port
ĠElektr onik
A min
h em
ĠM aran
ĠPem ilihan
z en
ĠK ITA
il mu
ed dah
ĠV s
EMERL ANGAN
ĠD ukun
Ġkem anusiaan
a ini
S ula
Kh as
ĠSens ation
Ġberj uang
m ag
ĠBr ek
on o
KUR SUS
I kan
aid ah
en ue
ĠSeb enar
Ġtep ung
ĠK aedah
ĠPen asihat
Ġmela yari
ĠPT D
Ġkonf lik
c ast
ac atan
Ġb angkit
KO R
ĠBER T
ĠSes uai
ĠCabri olet
Ġla ser
PT S
8 22
ĠM onth
Ġgug ur
Ġmeny es
Ġp adat
Ġperka uman
ĠD un
ĠPers idangan
B IR
ĠR ama
Ġdis okong
ĠMY R
Ġt amu
ĠIn stitusi
ĠX cover
Ġtel us
o akan
W an
is ikan
Ġas mara
ĠTep ee
uattro porte
ĠH UBUNGI
Ġmeny iasat
motor ola
ĠC AWANGAN
ĠG EL
d ong
Ġal kohol
Om nia
Q uattroporte
l os
ik lan
Grant urismo
Ġbas ikal
Ġseb esar
ir t
Ġmen andatangani
op a
ĠSw eet
OT O
r r
ĠBe ijing
Ġmem elihara
L in
Ġmel anda
Ġv is
Ġmemb iarkan
Ġsemb uh
atik u
Ġd on
ĠH ur
lak i
od es
ĠKOMPL EKS
B eri
ĠL ampu
OL ONG
Ġbanc ian
Ġh ikmah
app end
ĠShe ikh
pen yakit
T anya
ĠRO AD
ĠPRO DUK
ĠAf ghanistan
l ement
ĠEK SA
ujah id
id ent
Ġberpel uang
H AS
ut es
Ġat let
ĠP layer
GM T
Ġz on
UD IN
IMP UNAN
ann el
Ġket ahui
Ġmem ori
Ġpers ekolahan
IC ARA
ari o
m ur
it el
A lahan
ĠT U
Ġy ah
ĠTah ajud
pd f
Kar ya
G elang
h g
Ġm ur
rad itional
Min yak
A pr
ti ang
Ed isi
Photos mart
L ist
ĠÂ ¢
53 01
Ð½ Ñģ
ĠInt eg
ĠSEL AMAT
Ġas rama
S ungguh
ay y
ĠY assin
Ġr amadhan
anc el
ĠFat imah
Ġnet izen
ĠAut omatik
Ġal lah
ent unya
ĠBER NAMA
rik ulasi
OMP OK
inc are
Ġep is
ĠPerh impunan
al g
UD IT
ĠL U
ac unan
Ġp indaan
ĠR ingan
Ġf enomena
ĠP acific
uk arkan
LE X
ĠMan faat
usah akan
ĠRAH MAN
Ġs ala
ingk asan
W ajah
he im
ĠC N
ĠPap ua
ĠâĢ Ŀ
Ġf re
ĠMR L
ĠT emerloh
S itemap
ĠMar ch
Ġmel antik
Ġp la
Ġj aringan
M ich
) ?
ul unya
Ġses ekali
n as
ĠN e
; -
T afsir
Ġberp unca
ĠD aun
c ons
ol ia
ot on
eku ensi
Ġ oh
Ġmemper untukkan
fah aman
n one
u w
T a
ĠC INA
ĠE D
ĠSh a
ĠIn n
ST AT
asif ik
In s
ut or
Ġsa ud
Ġd own
Ġr acun
ĠN ampak
Ġkali grafi
Ġdisi asat
Ġte am
Ġses at
Ġkr im
ĠPri ce
b lack
Ġk astam
ĠISM A
?? ?
in son
al se
add Class
Ġb uasir
Ġ( !
Sek ali
L ive
P etik
Ġmer deka
Ġb endera
Ġpen syarah
Ġp ampasan
Ġk alis
Ġc ina
unc ulan
ÑĢ Ð°Ñ
ĠBud ak
Ġmeng urus
Ġtemp ah
ĠV ent
etul kan
r ail
Ġr ights
G etah
ĠKep erluan
ĠIm igresen
kes anan
ĠB AD
ĠG ER
angu age
ĠR oyal
Ġmis alnya
ĠMans or
Ġl ic
ĠB enz
as inya
Per jalanan
Ġmela rikan
Ġd orang
ot ai
uc ible
ic ago
Ġbers esuaian
ĠUS A
PP IM
c uma
Ġlo ji
Ġc erah
Ġpen ing
memb aca
Ġperh ubungan
ĠGOL F
x t
ĠBut ter
ĠT oday
Ġp ondok
ĠP ah
AD ILAN
Ant aranya
Ù Ģ
M ark
ĠOs man
egi onal
Ġpen ambahbaikan
ĠSp ec
ĠBlu etooth
ĠAl p
ĠT umpat
ĠM X
ĠG AMBAR
J ul
j ust
oy s
Seb arang
X U
Ġpeny usuan
lat ul
Ġbimb ingan
Motor ola
ĠD IR
og rid
er os
ĠCh an
Ġt ular
Ġmemb akar
inja uan
M ENTERI
af al
D oktor
M or
P astikan
eh a
END IRI
u aan
IS IAN
h ref
SH ANTUI
ĠC aj
ĠMenc ari
ĠRes ources
Ġmeng hadap
ĠR OS
ĠRew ards
ol ina
m all
ĠPon tian
Ġmenc etuskan
W AN
Ġp res
Ġmeny alah
Ġmenep ati
ĠL emak
ĠMar itim
Ġr antau
ĠT uah
Ġl irik
w ell
ĠAB A
h il
k ap
Ġketingg alan
give away
t antalum
Ġsar apan
Ġmengangg uk
Ġdimaksud kan
Ġpenj ual
AS IN
UM AN
UMP ULAN
am ili
k ami
ĠTh read
ĠDAP AT
ĠP las
Ġters ebar
ĠKh usus
d iri
P rin
aj ipan
Ġs umpah
ĠFr ank
I f
Ġmenc intai
Ġla wak
anc y
Ġm anakah
ĠS elayang
akt ikal
ĠSi erra
Ġpeng orbanan
Ġbers em
in ner
ĠPeng unjung
ĠPart ner
ĠS OH
is wa
ĠPem indahan
ĠAl iff
ino x
ĠH aid
Ġam alkan
Ġdis ambung
ĠT ol
ĠC ER
lat ih
Ġhits ROS
ĠRoman ia
o em
ĠUnivers al
ul in
Ġpeng asas
m alaysia
asil iti
ĠPenc apaian
amp ang
V iv
n ur
Al bum
Ġdip indahkan
ĠSun way
Ðł ÑĥÑģÑģÐºÐ¸Ð¹
H id
S port
" :
ĠBab y
F re
Ġkel uaran
ĠZ am
âĢ¦âĢ¦ âĢ¦âĢ¦
ĠM ara
Ġhidup nya
Ġber ehat
ger ia
D IS
Ġmer tua
c ont
Ġpro v
946 5
Ġbas uh
Ġket er
st al
M ulut
aun a
Ġs ul
B enih
Ġres erved
s ela
Cad angan
ĠK luang
eles ai
n ame
AW LER
udara an
ĠV olkswagen
Ber apa
ac tor
Ġk l
Ġr est
tr ol
Ġdik alangan
Ġc int
Ġp aten
Ġmengh apuskan
ĠEk o
S UNG
ĠC orpor
ĠCR AWLER
ĠSif ir
Ġd enda
ĠC EP
Ġmend esak
ĠA ID
ok r
H adis
ly mp
Ġpem andangan
lu enza
ANT UAN
L ike
P orn
ENT UK
iq ah
Ġt ipu
ĠN ahas
Pengg antian
Ġdit inggalkan
Man usia
c y
Ġsaya p
Ðº ÑĢÐ°Ñ
9 19
ur uan
ÐºÑĢÐ°Ñ Ĺ
Menc ari
ĠHish am
Ġcomp lex
Rah man
ĠR embau
S L
Ð½Ñģ ÑĮ
ep h
ĠPEMANTA PAN
ĠM ampu
Ġpeng urus
ĠS ik
ĠB achok
pa un
ĠAngk at
Ġbengk el
ANG AT
ĠB orneo
Ġmenjadikan nya
IF A
ĠCay man
Ġpeng usaha
Ð ±
ĠTrans lation
iaya i
ew askan
Ġv iral
ĠCo unty
ĠLeg end
I E
P andangan
su ami
ĠS ang
ek ar
Ġon ly
ĠP la
ĠR io
AJ U
ĠBil stereo
if a
s ema
Ġberb unyi
ĠMan ufact
ISN ES
Ġb lack
am ana
K embara
Ġber upa
Ġsela ri
ĠTerk emuka
U bah
Ġek oran
Ø ©
Ġeks klusif
IT AM
Ġ! !!
AM RI
ĠP un
Ġak ta
har d
ĠLif e
c all
P romo
Ġs n
n aik
Ġins urans
ĠC ons
emp arkan
Ak ibat
port folio
ĠSp are
ĠK uning
ĠY AHAYA
ĠM ega
Ġc tn
ingk ai
Ġ9 5
Ed it
kt op
B esar
IDM AT
Ð½ÑģÑĮ ÐºÐ°
ĠAd at
Pers atuan
ĠW atch
ĠJ ikalau
Ġt rafik
elak angan
R aya
an im
Ġin to
ĠCar bon
ĠK elahiran
st atik
Ġp atuh
ar in
on im
Ġn ota
Ġ ela
Ġb ir
ĠM art
unt ungkan
ĠOl impik
ĠL awatan
and as
Ġser at
B K
ĠD on
An ti
Ku wait
Ġr eview
Ġdit erj
Ġny er
ĠD ev
Ġpeng awal
Ġ <
ĠP lug
Ġb udi
Ġ2 10
ĠAng el
N ext
ĠW ash
pres i
B AGAI
ĠM ayat
Ġr os
S ihat
ĠH ai
ĠS amsung
EN TI
Bias anya
TAND ARD
Ġ4 9
ĠL A
est one
ĠMen ingkatkan
Col or
Ġsubscrib ed
Peny usuan
ĠM s
ĠAG ONG
t urut
ĠM ula
ĠT T
H ubungan
à ¤
Ġb omba
Ġ5 8
m ing
Ġn ada
Ġag ain
Man ual
amp ungan
Ġpiaw aian
ĠQ ue
AC K
v ador
ĠG etah
ĠW illi
mas alahan
Ġmen anggung
T O
Ġpen empatan
Ġingin kan
ug is
Sem inar
ĠPerc etakan
amb ungan
iss a
Sed ang
m end
ĠGe orge
Ġr ej
K al
b aca
ĠG alaxy
lu askan
27 5
Ġdib andingkan
est yle
ĠInd ividu
G h
ĠM inda
ĠSej uk
Ġt angkap
Ġmela bur
at ia
ĠJ AN
ĠAy er
st op
ĠC AD
ivid ual
Ġmenel iti
N aj
B L
er aian
ĠL EB
K AR
Dis ebabkan
Seb aik
ĠB aitul
ook ies
Z on
ĠH at
eb um
Ġrel evan
ir ates
Meng gunakan
Ġb angga
Ġk ampus
Ġdis emb
ĠM ix
ĠMar qu
Kap sul
ĠPP D
Ġpeng erusi
Ġpu ak
ĠSimp ang
e er
ĠStr eet
emb uru
ur as
et y
ak asan
em ari
ĠH erb
Ġset ting
2 25
200 9
UR A
p ura
App le
C el
ĠHad ith
ej et
Ġser tai
Ġpengh asilan
ĠO ver
ĠPer undangan
ĠKeb udayaan
ĠO pt
St atus
ĠS ala
ĠN eelofa
H afiz
ĠS V
ecial ly
ALAM AN
al ihan
ugerah kan
Ġdi as
tic al
ris tian
ĠS OP
Ġber erti
Ġteg ur
Ġp m
anj il
ĠH OT
ad un
c ari
N ombor
ĠM angsa
ma is
Ġmeng ab
ĠPER NIAGAAN
el ut
ĠKes alahan
ela ga
Ġmenyer u
Ġses ak
Ġpr int
ER S
ĠAL I
Ġ elak
Ġab d
ĠC ir
ĠPB B
ah nya
AD AH
Ġkeses atan
ĠW i
Ġber isiko
ĠT ir
ĠSEB UT
ĠKH IDMAT
Ġdir ujuk
ant asi
Ġdib uang
ĠR atu
Ġpeng edar
New s
Ġre aksi
Ġamb ik
30 8
Ä ±
em ala
emb uhan
Ġd apati
Ġth ere
ĠSch ool
Ġb antahan
ok kan
ĠMan ual
Ġayah nya
Ġkep ing
pro gram
ut uran
ĠM ember
b g
Ġmah ir
ĠD ana
rit is
W ork
Ġbak teria
ĠTer l
R i
A sy
ĠINOV ASI
Ġm ost
Is ti
K I
Ġmeng er
S is
Ġmem uaskan
Ġmengh ina
ĠG ula
ĠM and
Am erican
ĠMuslim in
Sl oven
M egan
Ġl ine
pr us
J ual
ĠBar angan
Gr and
t el
ĠP OPULAR
L APORAN
M ohon
Ġab g
ĠG od
L ori
ĠL AGI
Ġmengak ses
eg ro
Ġmeng ejar
Ġada b
H ard
ill o
Ġnampak nya
Bah rain
ĠKad ir
ĠH iasan
Ġpengh ujung
ut ri
ĠTrans it
ĠCer min
Ġr om
S EB
allah u
ĠRAH AYU
H p
Ut usan
ajib kan
Ġp ejuang
Pelak on
ĠB esi
ĠU iTM
T otal
il id
sw ord
ĠS aat
ĠLim au
image CLASS
ĠKEC EMERLANGAN
r or
Ġib adat
ĠSeb uah
ĠPerk embangan
Ġper wakilan
is lam
PP A
ĠAST M
Ġs ind
Ġdi antara
Ġdij umpai
ĠMak lum
ĠCiv ic
ĠT ro
ĠPer f
tr ue
er amah
Ġl esbian
ĠPer ut
lo om
aks ikan
c ontoh
ent asi
Ġpeng endali
t ok
Ġp ay
Ġsek umpulan
ĠJel ebu
Ġc ontact
af i
erang i
Ġh ajat
angg ih
ĠIt alia
b udak
Ġb leh
ĠChampions hip
Ġdik emaskini
Ġw an
lat es
ĠAd un
SM FA
ĠBel gium
Ġr ukun
st ra
PRO F
Ġp ort
ap s
SI R
ak ti
Ġdim uat
Ġpu isi
ĠSemula jadi
Ġkej e
ĠPr emium
Ø ª
ĠC adangan
ĠPer ubahan
Per intah
Ġim un
ĠT etapi
ĠT oyota
Ġkom ersial
s angat
Ġdir ancang
ad ha
our ce
post s
ĠDAT UK
up load
ĠWeb site
con tainer
ol an
Ġt auhid
aka unan
Ġber upaya
Ġreg ex
ĠPet rol
K o
Ġmend irikan
ÙĪØ ³
Ġmen olong
ack er
at ul
Ġked uanya
Ġj emputan
IS H
Ġmemb angun
ĠMU ET
on line
Sc ot
ĠH ampir
ti anak
Mas akan
ĠRAM LEE
ĠB isik
ĠU PM
b anyak
ĠS iasatan
ĠA ff
ĠB an
Ġdeg il
Ġs ir
ĠKej ayaan
G old
Ġg il
s hadow
Ġar ea
l ina
ans elor
aju i
rid ge
ĠSt atistik
per ties
g y
Ġpemb ukaan
EN CE
Ġb umbung
Ġp apa
ot ton
J OHOR
ĠK OL
V O
IN AAN
ĠStr ategi
ĠH ARAPAN
AW AL
J AWATAN
ĠSumat era
C ukup
R angkaian
d aily
ĠU mat
ert y
G aji
f ormat
Ġju adah
w ani
Ġpenj aga
eal isasikan
ĠP n
ĠJ our
ĠK assim
ib aan
ĠM aks
ĠIm ej
Per empuan
uat emala
ĠP lan
ĠKL IK
tic s
S imp
ĠY O
iz er
GUN AAN
ĠB ukti
Ter us
ĠJava Script
ĠBu ilding
P art
ĠAK ADEMIK
EKN IK
ÙĪØ ª
ĠMend apatkan
ĠEmp at
); -
ĠKEL OMPOK
M os
ihara an
Ġed isi
ĠH ub
Ġke fahaman
em s
omest ik
ĠTag s
Ġberpeng alaman
ken apa
tr ik
OW N
D ep
ro ugh
ĠW ANITA
ĠT ype
utr isi
ĠY AB
ĠP anglima
Ġdi hid
(/ \
in n
Ġr ekaan
ow o
Ġbers aing
Ġr ent
Ġins entif
Ġl isan
Ġal uminium
ju ga
C r
ai ro
ah ad
Ġsek atan
ĠP A
ĠMas zlee
Ġkej atuhan
ĠPus aka
" +
up ai
LIN A
A sh
ĠMen ara
Ġk uliah
rah man
ĠPort ugal
ikh arah
ĠT AS
ĠAK AUN
ĠAZIZ I
Ġperl embagaan
Ġmeny uruh
ĠSing le
Um rah
tar ik
IT AL
ĠSem akan
Ġ! !
Sk im
UT UP
ĠCom el
Ram adan
G U
ĠP op
it inya
ber k
urn ian
S PM
Offic ejet
B udak
ĠS umbangan
Le ave
ĠSAB AH
TI PS
Ġc ond
UD DIN
al isa
UAR I
Ġr undingan
Ġberj anji
Ġmin eral
Ġped uli
R eview
f r
Ġd ownload
Ġroh ani
ĠAn c
Ä ģ
luc ah
ic ation
ult ur
Ġdig elar
B IL
ĠO tak
angk atan
ĠP ow
ĠL est
Ġl er
ĠT EMP
ĠPeny elamat
Pas aran
u v
el bagai
angg uran
ĠD evelopment
P ay
ĠColomb ia
Ġev ery
ĠAMAN AH
ĠM aju
lah ir
m d
s oal
av or
F L
ĠhitsROS LAN
ĠCar s
ĠBerj amaah
Ġid entiti
Ġkes us
Ġkes abaran
A y
ĠC alifornia
N anti
ĠAlam at
Ġr intangan
Ġwah ai
R estoran
Ġdis ambut
ĠSEK ARANG
inter est
O ut
al et
ĠPEN TADBIRAN
ĠRaz if
ĠV II
. )
ĠWindow s
ĠS tain
ĠLe ague
ĠM edan
ĠC lassic
SI H
ĠTh omas
ĠMok htar
Ġ6 2
Ġsent uhan
engk ak
Ġpers a
ĠS arah
Ġr utin
Ġberb icara
utam akan
Y AH
b in
Ġpan ic
ar n
om asi
ĠDen mark
ĠS ara
Ġy er
: )
B aik
Ġpem utar
ONOM I
E EL
ĠH ind
und er
ĠM iri
ongk at
la id
ĠAd ik
D ubur
ĠMay bank
P akar
f m
Ġt antalum
ĠJan uary
ĠS g
ĠPeng alaman
Ġberset ubuh
Ġ enter
ĠM ALAM
ala ikum
Ġaku i
ĠUl tra
anch ester
Ġpengl ibatan
ul angan
BUK U
i ya
iz am
rib d
B la
Ġt en
ĠC ongo
ĠP ANDUAN
Ġmen ampilkan
T ime
amp iri
ÙĬ ÙĪ
L iga
ah abatan
ĠCer ai
Ber h
Ġp egang
Ġp otong
ul urkan
Ġmer asai
Ġpers epsi
Ġek zos
okasi onal
Ġsar jana
ĠB unt
ĠF au
Ġsem enjak
Ġni aga
ĠL AMAN
IN S
Ġpenyej ukan
b our
k awasan
Ġsel ang
ing ya
ĠR egional
Ġt ingkap
w ati
Ind ia
H el
G olongan
ĠT AW
Pr int
lanti c
ĠBook mark
ĠD ubai
ĠL ite
ĠMem ilih
ak et
em on
U capan
ĠComm un
ĠKL IA
Ġsh ah
ĠPas angan
engg ong
ou is
ĠJ us
Ġmeng el
Set ia
ten ance
tr an
N avig
Ġ7 8
ĠFit nah
Ø Ń
art is
ĠMon aco
Ġs ujud
v at
L aserJet
Ġm s
if esto
and s
ĠH old
Ġf otografi
ĠSaif ul
2 000
KH EMAHAN
em impinan
Ġdin ar
L TD
et e
ĠApp le
D rama
ĠSy iah
ĠMotors ikal
ent olak
lah i
Ġip ar
ric t
ĠT ingkat
Ġp ohon
ĠT D
Ġmem aksa
Ġdem o
N AIM
t ember
Ļ Ĥ
C enderahati
Ġmen empatkan
Ġpem antauan
ĠBulan an
rog en
ĠL ux
ĠN orth
ĠO SC
Ses etengah
yb oy
Ġray uan
Ø ³
Ġsem inar
ESI ONAL
ĠC uit
ĠM emas
Ġdib entuk
Ġbert udung
ĠL et
ĠMond eo
ĠT amu
UT Z
Ġm iliki
ry stal
ĠAustr ia
is ia
log an
amai ca
Ġberb au
Ġterd engar
ĠAv enue
Bay i
M angsa
ĠT aylor
ast e
Ġp elabuhan
s ungguh
Ġberp otensi
Ġdir awat
Ġctn r
O O
ĠAss oci
Pengh antaran
Ġm obil
OS C
Ġter api
ĠHy d
ĠC afe
ĠH AM
ĠJ iwa
Ġmemb ela
ĠL aci
ic ial
ug ar
ĠW ANG
Ġmendek ati
AD UAL
ual ian
Ġpus sy
Ġan eh
ĠCorpor ation
ĠA th
LAM AN
Ġsen yap
Ġg irl
ĠDARUL NAIM
Ġbat as
SHAH RUL
ler y
ĠEx co
S etakat
iver pool
Komp leks
Ġmela yan
Ġke istimewaan
G E
AG AM
Hak ikat
Ġt anggung
ny e
ĠD uduk
ĠR og
it ikan
Ġsi aran
Ġmeman faatkan
R ay
UR USAN
Peng ikut
Ġp indah
Ad ik
bat ch
el ement
ĠHad its
Ġaf ter
tic le
Ġmela rang
Ġtempat nya
Pek erjaan
ĠBot ol
ĠF ocus
ni at
ĠP elabur
Ġhits SHAHRUL
ar row
t ikan
oc ation
L C
it ia
AW I
Ġs antai
ah uan
ĠPend uduk
OL A
Ġ25 00
ĠU g
ĠSAMB UTAN
ec ut
A ug
AS M
ĠAg ar
Ġmenj emput
ĠAz lan
ĠAs ma
af at
ĠRes olusi
y z
Ġmer ealisasikan
Ġsain tifik
P ANDUAN
m ualaikum
Ġhe avy
Ġberas ingan
ĠU P
meng h
R ental
Ġterb unuh
Ð ¼
Ġpas tu
UL U
Sc roll
ĠH on
For ex
ĠKe adaan
Ġm awar
Ġbercer ai
Ġin strumen
C AL
at ic
SS R
peng h
r ian
ĠSof itel
ĠA T
ĠTim or
eny ih
P lat
ik o
ont ak
Ġmenc atatkan
R ona
Ġpul angan
Ġf ound
ĠP o
eb alan
ĠMin uman
Ġb ini
ĠC i
Ġnaf i
ĠUm mah
elanj akan
afiz i
ĠA TAS
ai ban
ĠJ uta
10 7
V an
IL AI
ĠT utup
Ġmeng en
Ġsec ond
TI GA
IK IN
H us
enti al
Ġm oto
ĠB ANG
ĠMen onton
Ġawal nya
Ġn ipis
art h
ol ik
Ġg eg
int is
ĠDat aran
Ġmengemb alikan
A IKAN
B ot
ĠP ANGGILAN
ag ement
ĠL aw
Ġs ome
AY ASAN
n ect
S ri
Ġs im
ĠL BP
Ġdis el
ĠS elak
ĠAk ademi
Ġsp ek
S aat
Ġmenc atat
ĠIklan eka
ĠE p
Ġket entuan
Sin opsis
ĠP O
ĠAis yah
Ġm az
ĠTur k
Par ti
k aki
ĠP asifik
Ġp otongan
ĠPem er
m aka
u araan
ĠW alaupun
ĠÙħ ÙĦØ§
Ġs apa
F ree
im al
ĠEd ition
H G
elbagai an
Ġpeng hargaan
Tas ka
p opular
Ġh antaran
st one
ĠAl hamdulillah
Ġtrans it
ĠISM AIL
Ġkal o
Ġbr ek
ĠV and
ĠEnter prise
l omatik
eh ouse
Ġpem aju
ĠIn k
Sela ma
Ġkal endar
ĠDiam eter
ĠW a
ĠAR AB
ĠA ssalam
th umb
ĠImp ian
ĠN ombor
ĠÙħÙĦØ§ ÙĬÙĪ
ĠS iv
as ah
ĠIndustri al
ad ak
S ay
ĠF iji
ony et
urut era
Peng guna
Ġberk ait
Ġhad ith
b esar
Ġs ubur
aw awi
b p
ĠK elayakan
Ġmenj ayakan
hh h
Ġrib uan
ĠC ash
era ikan
Ġf in
G N
ĠM uzium
ĠMon o
ĠK astam
H am
af kan
anc he
erit aan
Ġr ight
Ġ199 6
antu i
Ġpe ople
ĠPER KHEMAHAN
eluar gaan
ĠSal e
ĠB idang
ez uela
ĠK reatif
ĠS A
" >
ĠD id
Ġkej uruteraan
Ġj ersi
Ġadd ed
Ġg ag
Ġkel engkapan
S or
ĠA ug
ĠT ulang
Ġfuck ed
W idth
o alkan
AI D
Ġa urat
ĠSen aman
Ġ3500 00
Ġh ot
H ARI
d ar
w indow
Ġs ulit
Ġp egangan
ĠP ear
d ip
Ġkep alanya
Ġpener imaan
Ik h
V er
ĠV ib
He ight
Pem uda
Ġla utan
UM LAH
DAT O
ĠMes ra
j o
Ġkem iskinan
ĠAS Y
ĠPut era
P END
Ġs ms
ult anan
Ġp j
Ġp anc
Ġt ugasan
Ġprot ein
ĠKaz akhstan
u is
im asi
ĠBel anjawan
en ian
Ġstud y
Ġpen erbitan
UD UNG
{ {
ĠT A
ID A
Ġbos an
Ġk ag
ĠK amal
ĠF ull
ðŁĴ µ
ĠB apak
G uang
Ġwajah nya
xx x
Ġberc ampur
ĠRos li
Ġins ya
ĠQ Y
Ġdip roses
Ġtengah ari
Ġmemas ang
ĠH aiwan
Ù Ĵ
enc ang
ĠR oz
ÙĪØ³ ÙĨ
Ġberc inta
ĠMen ulis
ĠS ams
ĠMus ic
ĠDUN IA
la gu
Ġdh uha
IN K
t imum
Ġmat ematik
ĠORGAN ISASI
Ġpenyel ewengan
ĠPENG H
ĠUni on
k ara
Ġmenj auh
ĠDan iel
ĠBel la
H itachi
ab ang
Ġdik h
ĠCh ong
AB Y
Ġbert araf
But ik
er re
Im age
Ø§ ÙĪØª
ĠPro perties
ĠMaj id
ĠMo Jo
ĠAk tif
trans late
ĠBer l
N GO
Ġmemper olehi
ĠS UB
Ġn om
Ġi Paper
ĠNat Online
Ø§ÙĪØª ÙĪØ³ÙĨ
F eb
ĠM ikro
Ġsek eluarga
Ġpat ung
ĠD apur
Sec ret
L ama
ĠI dea
Bag inda
I mp
ĠB ENTUK
Ġpeng urangan
Mus lim
ĠP uchong
') )
orm asi
Men jadi
hy l
ĠBang i
blog ger
Ġd olar
K it
as al
ĠB ed
Ġp ameran
on na
Ġber anak
Ġkomp et
Sch indler
b or
Dem i
ĠL ad
Ġdib entangkan
Ġmen aik
Ġbag inya
Ġl embaga
: !
ĠA U
Ġger am
b r
ĠF asa
es sion
ĠC ur
av el
Ġbes erta
ĠLai latul
H an
ĠG ila
Ĺ ı
Ġpen utupan
Nas ib
Shar p
Ġtah niah
Ġs if
Ġl im
Ġm j
AB I
Ġ6 1
sun ami
p us
Ġsk it
C al
si at
ĠT ig
men ia
ĠS lip
iter ia
Ġangg aran
Qu ery
Ġpers en
f uz
Ġum no
P UNG
ĠB BM
r upanya
Ġmeng untungkan
Ad am
aj akan
ĠMemb antu
ĠX AA
ĠBr on
Ġm obile
ĠY aman
t ub
ĠA DA
ĠK aca
ep ikan
H impunan
ĠW ong
AL U
Ġdis enaraikan
emb ourg
ver y
l ihatan
ĠP od
G V
Ġt ingkatkan
ĠPen er
Ġc kp
ak amkan
Ġber aksi
R ef
ĠR ela
ib il
yat uan
our se
Ġr adi
AD UAN
Ġmenambah kan
Can on
Ġkritik al
Ġmeng erti
Ġkel ima
IR A
Ġsay s
Ġs l
Ġras akan
ĠM AC
Ger eja
j oy
Ġt on
îĺ Ĳ
n al
ĠG O
POL ITIK
Ġb agian
ĠB ias
K AD
Ġm ara
S AP
23 4
Ġmemp romosikan
ell ite
Sah abat
M edan
T rak
ĠT KRS
Ġpem ahaman
19 0
ick en
g aria
ĠK INI
E p
ĠE tika
J B
ĠP ic
C amer
ĠK aunter
ĠSem inar
J ohn
Ġm urni
ĠI h
Ġkeseluruhan nya
J IS
K amu
ĠP ilih
T okong
Ġp aksa
Ġj us
Pemb inaan
ĠSp in
it asi
A tas
Ġmen ara
ĠPr emis
ĠMel ihat
ut u
Ġch iffon
ĠF araj
ĠO S
Ġg ame
ap isan
r ab
t eman
A v
ĠOrgan ik
Ġberk h
ĠSing apore
ĠðŁ ĺ
K urang
p ose
ur ch
iy adh
Ber mula
ĠPB T
ĠTN B
ĠJ imat
IS IS
Ġkep akaran
inj al
Bul ldozer
Ġg eng
ĠF lu
uri at
Meng ulas
Ġm ic
Ġg ajah
Ġ100 00
ĠM atang
D en
Ġberk at
Ġdit ak
ĠK un
l ul
Ġh ehe
ingg akan
i apkan
m ela
Ġsemp it
P ed
ĠP ra
Ġtr agedi
y akan
Ġ1 10
ip ping
ĠKed udukan
pro jek
os ip
Ġt uju
ĠR EKA
Ġresp on
Ġdi uji
ĠB AG
P asar
ank er
Put rajaya
ĠNO V
ĠW ager
Ġberb ahasa
P aip
s eh
ung ut
Ġc at
ĠI KL
Ġdit anam
ad os
ĠJ AM
zbek istan
ras ah
GO V
Ġr agu
ĠE jen
IVER SITI
ak ses
Ġ ungk
Ġmem anjangkan
U AT
ang a
Ġsa ingan
ĠPEMB INAAN
Ġmar in
ĠL ine
amah a
IF I
Ġmemp erj
ĠAS ET
ĠR en
ĠBer mula
AD AT
ĠF u
bah aya
T B
k aunter
Ġm aya
Pers onaliti
h ehe
um my
ungg al
S ize
ĠT angga
ĠRep ublic
ĠM ast
ograp hy
ĠI M
ist ret
P ages
Ġam ik
ĠMont ana
( !
omp ak
ĠRus sia
ĠCo ast
ĠK etahui
Ġberp egang
ĠChe f
ĠOrig inal
Ġm o
ess a
Ġlog ik
us antara
ĠLat in
ĠK ekal
ĠBand ung
Ġk ipas
K W
itch en
Ġ7 3
Ġterl upa
Samp les
Kh air
Ġken e
Ġdid ik
ĠMAS JID
Ð ·
Ġpro stat
M iss
elak s
LAS ER
c tica
Ġkeh ebatan
ĠRid zuan
Ġh amp
Ġpengg antungan
ĠS TANDARD
Q A
ĠK ay
T inggalkan
ĠT emb
ĠSEB ENAR
ĠC CTV
Ġger eja
ap us
Ġmeny usun
ĠF ail
ĠBLOG GER
ĠB O
Ġmin utes
ĠE qu
Ġmekan isme
ov ice
ug g
l r
r aga
Ġdit uduh
ad ap
K ain
Ġdid edahkan
ĠNik ah
engg am
V is
ĠB re
Ġber alih
ĠB APA
ĠPer olehan
ĠKE BER
Ġx de
Ġm aruah
Ġc reate
Ġdij adual
PRO MOSI
Ġj et
Ġmain tenance
ĠC oll
ĠD avid
ĠMach ang
Ġsula m
aj arkan
ĠSer ai
Ġb alak
is en
ĠFar id
Ġnuk lear
mais uri
iti ons
ĠMak lumbalas
alg ia
Ġk alimah
Ġpes at
r ing
Ġ _.
Si apakah
ĠCan ada
Ġmeng adu
ĠPol y
Eks otik
ri ot
ĠO pen
Br azil
ĠH antaran
K atalog
Ġt ong
Memb uat
Ġh us
Ġse awal
Ġperlu lah
ĠDec ember
ĠG reat
Ġperset ubuhan
Ġdihar apkan
Ġb aja
Mic rosoft
ĠR p
Ġn on
iv ia
ĠHana fiah
ĠB int
ĠH ill
6 40
umb at
Ġmula kan
Ġmeng ulang
ON D
ĠPak ai
Ġepis od
ĠK ASIH
ĠB ellow
ĠSUNG AI
Ġmen etap
Ġf ilm
ok ee
angg ah
ĠB ea
ĠD N
Ġseni or
ĠBah aya
Ġmeng et
ew akan
Ġ8 8
14 3
Ġmil f
Ġatt ack
D apur
ĠD okumen
ĠBel t
x ia
ĠPeng eringan
Ġkej ah
EK T
al un
Ġ6 6
Ñ ı
ĠM ong
ĠL angsung
Per anti
sp l
Ġmeng undang
ĠE SP
ĠSl ovakia
ĠJ KK
ĠM IC
Mel ihat
ĠR aj
eg at
Ġef ektif
ĠLiber al
Ġc ons
ĠP ANGK
ĠUS B
EMERL ANG
el e
C ik
dari pada
G T
ĠO VF
ĠSel era
at her
ĠRob ert
Ġkol esterol
ĠKara oke
Ġpers idangan
ET ER
ĠK OK
ol y
K ualiti
Ġberh asil
Penyel enggaraan
Ġs mp
Ġ ila
ĠSeg ala
ri ck
d oc
ĠC OM
ian i
AR KIB
ĠFor ester
T oshiba
ĠT URUN
ĠSej ahtera
Ġby k
Ġper masalahan
vest ment
f ly
k r
ĠKap asiti
Ġgas ket
G igi
ĠD ES
gig it
ĠB anjir
ĠTel egram
ĠB imb
ĠSU CI
ĠKar ya
Ġm edium
Ġj antina
ĠSur au
Ġinf luenza
ĠTAD BIR
ĠI celand
ĠM ANJ
apt asi
Ġh ab
ĠPerm ata
ĠR ic
D apat
ĠY A
ĠS CH
ĠGad get
ĠPos isi
ĠP eter
Ġc Trader
w ich
Ġperc ubaan
Ġ3 60
m Star
TAN A
îĺ Ĵ
p age
ĠIn gin
Ġt ur
ĠR F
IS A
LIM EN
ENC ANA
V iral
Ġk ud
ĠL ima
ĠRoh ingya
ĠStor e
Ġk raf
ĠKer jasama
Am bil
ĠK ol
AT KAN
Ġkeb ahagiaan
uju i
HT ML
Ġdib atalkan
ĠAg en
S af
ĠMod ul
ĠR ompin
ĠDar jah
P eri
s port
Ġ3 16
Ġgh aib
ĠS oal
S aud
ĠSER TA
Sen aman
Ġh ancur
Ġter ikat
Ġhakikat nya
ĠS eksi
ĠH RMIS
c epat
ĠG rafik
R us
si ah
Perk ahwinan
Ġs iti
set iap
f ur
at utan
ent e
Ġmen emukan
Ġg ur
Ġ14 40
Peny alahgunaan
kan nya
Ter dahulu
B AL
D RO
w rite
angg uhkan
Ġterk ait
itu al
ej ay
EG AN
ĠMet al
Ġf inal
ĠAd d
Ġtert ekan
ĠPet ronas
CAR TA
GAL ERI
ĠUr ai
Pid ana
ĠP sik
r ac
ĠD OC
ĠL W
ĠNur haliza
S AB
ĠUr usan
ĠT eb
int ir
har m
Ġpert amanya
j aga
ĠSamb ungan
ĠP anggilan
ĠGe orgia
ĠSek ali
ĠInd ian
ongk ang
ak ob
Di et
anj at
Ġdi guna
ĠAN J
ĠT rop
eg akan
ĠE q
ĠC etak
ab ric
ĠU lang
Ġk aji
Ġmeng alahkan
ond uras
M oh
ĠK UL
ĠKemas ukan
tar ctica
out er
B icara
g alanya
ĠC EMERLANG
Ġberd agang
ĠJer antut
eter angan
ĠKan un
head er
th ing
n or
ĠPROF ESIONAL
Ġpr ihatin
ĠK urus
uar akan
N ic
t etapi
Ġter ingat
ank s
eri or
ĠE pisod
ĠK w
Ġket ak
ĠT amil
11 1
Ġkemas kini
Ġp elayan
ĠV isa
ĠSeh ingga
oll o
Ġberken an
Ġbersem angat
Ġas falt
M ans
res i
' '
Ġbers ungguh
ARA AN
trans ition
ĠR ank
Ġkek uasaan
Ġser entak
W in
ĠM UDAH
ĠMR SM
ol ute
Perk ataan
Sesi apa
eb ang
ĠPi lah
G ov
r ela
Ġkons ert
ch eck
ĠQ atar
ambi que
f ul
Ġber ucap
antu ya
el intir
ĠAd ib
ĠIKL AN
B AT
Ġram alan
aku i
Ġmel uluskan
the a
P adang
ĠMemb ayar
Ġadd ress
ĠB unyi
M otivasi
ĠD C
Or ganisasi
ĠSed ang
str ak
Ġm and
Ġt abiat
IV AL
seb agai
Ġkes uburan
in ika
unj ukan
jalan kan
YAT AAN
Tak wim
Tok oh
aut hor
as on
K uasa
er ati
ĠL ANTIKAN
Ġket enangan
Ġke indahan
ĠT en
ĠF air
ĠBOL EH
UNG A
eni um
ĠMekan ikal
ĠHAR IAN
per m
Ġmenc uri
St andard
em ens
Ġf ahaman
Ġpen erbit
Ġterper angkap
\ (\'
Ġdik urniakan
PP D
F akta
Ġkel iru
Berk aitan
Ġdihad iri
ĠS ubur
ish er
Ġperb icaraan
umb angkan
tiv a
Ġkap as
ĠKE P
ĠPel ancaran
ĠMAK ANAN
ĠAD ALAH
enc ies
5 50
Ã© n
Ġhid ro
G AS
25 5
ar ut
uc ks
ĠK AJIAN
Ġ" .
ĠPEM ANDU
A lum
G IG
Ġm oral
ĠVal ent
U l
y outube
Ġ âĦ¢
ID E
b et
26 9
ot es
S il
Ġmen impa
U E
Ker usi
Ġdimen si
Ġc urang
Ġmen tor
z aman
ed ari
ĠPin k
ĠKek osongan
ĠFA Q
j awatan
eks aan
Ġpeng iktirafan
ank as
Ter uskan
Ġdi alog
Ġw ork
ism illah
B at
ĠPal su
rif ugal
Ġpeny ampaian
Ġlap ar
Ġst roke
Ġt entunya
ĠT eng
ĠG enting
Ġt um
St ok
KL IK
ĠM ert
el ih
idad ari
ĠKh utbah
Ġmenump ukan
F akulti
N IVAL
ĠJ ay
si gen
ĠKeh akiman
Ġpel uru
Ġmar kah
G I
as rat
ĠR abb
ef ahaman
IT AR
Ġdin afikan
sc ript
Ġem ak
Ġmer asmikan
AZ LINA
ec ahkan
g ba
yl ene
ĠStain less
ĠT est
Ġpeng iklanan
Ġm anja
Ġrep ly
ĠRAMAD HAN
amb utan
ĠH impunan
Seb ahagian
Ġl iga
ĠCar olina
ĠMag net
og n
unt ung
bi asa
ic arakan
Ch rist
ĠTAN PA
Ġin ovasi
ĠC anselor
Ġbert urut
iv ing
ĠE lak
ĠR iver
Dit ulis
ĠG ps
ĠCOMP LEX
Ġber air
ĠR ukun
Ġn ajis
Ġbe ing
p le
ĠB uruh
ĠPERH IMPUNAN
ek onomi
ĠR adi
Ġterg olong
ĠEN G
g ua
Ġ ih
ĠSem enyih
Ġtun as
Dem am
ec ahan
ĠM C
ĠJ ab
r ec
Ġp angkal
ĠG et
Per gi
Ġdin aikkan
ĠProduc t
ĠS ENDIRI
Ġser vis
IK H
K empen
ent ik
Ġdic ukur
iring i
ĠL ipis
si la
Ġdiangg arkan
Ġkeber kesanan
ug aan
ia omi
C omments
s yat
ĠG em
Ġpr aktikal
ĠMari e
Ġc y
ust in
Ġ199 4
Ġ01 9
ĠPeny idik
ut nya
Ġbersemp adan
s uri
uriti us
P op
Ġkebanyakan nya
ĠKEM AS
Ġken alan
POR AT
TER US
Ġf riend
Ġmikro fon
ar angan
ĠY outube
ill en
ĠNov el
Ang gota
s emb
Ġs ia
ĠSt ate
ĠLyn n
Ġmenj imatkan
K a
Ġmaksud nya
s udah
C IK
Ġf i
ĠGold en
yl on
Ġs aran
Ġperbu alan
ĠPen erbitan
ĠSumat ra
AD ING
ĠC le
Ġg ara
Ġkej am
Ġ7 2
ĠSl ide
5 35
ari es
Ġdit embak
Ġterb itan
ĠHar us
ĠUnd er
B idang
Ġs um
ĠQ adar
En cik
ĠL AIN
Ġmel engkapkan
ĠMic rosoft
Ġr angka
HAT SU
Ġt able
ĠT arik
ul er
Ġr gba
og o
mar y
AI HATSU
ĠMan ek
Ġcer ia
Ġped agang
S EKS
Ġl ucu
ĠGen esis
AR IS
ĠTer as
E t
c ode
od i
Ġman ual
ĠS pa
ĠM utiara
ĠKOMP UTER
ĠB onde
Ġdid aftarkan
end an
omb inasi
pela cur
ĠPER LIS
ĠLum ut
D ek
ĠBU AT
Ar ab
Ind ian
ĠF IZ
ĠC in
Ġmeny iapkan
Ġst op
Pr estasi
ĠD up
k uat
Ġmeng uji
ĠF AM
ĠB B
G o
Ġke atas
az z
Ġter tarik
Ġc over
ĠF ah
Ġpeng ertian
Ġbert enaga
k am
Ġh udud
eor angan
h aan
Ġt itan
Ġmen onjol
ĠASY IKIN
tif ikasi
!! !!
F N
Pers oalan
ĠC ARA
ist r
Ġs ab
A st
K ena
Ġper nikahan
ĠT eman
B apa
say uran
Ġtern akan
m udah
Ø ¯
ĠS RI
ĠC ode
ĠP emprosesan
Ġ6 8
ĠPand an
ukt amad
r eh
(' ?
Pend uduk
ĠB au
Ġ+ =
g ula
ian t
oc al
ĠAll oy
n yataan
O tis
ir inya
lam bat
Ġdig antikan
CallBtn Text
Ġcomp any
ĠBH D
5 20
Ġb us
Ġkeb etulan
W ik
r ina
Ġdi ajar
ĠT angk
ĠCh annel
essi ca
Ġh eheh
Ġber ibu
Ġwak af
ĠD IRI
Ġmeny esuaikan
3 01
D X
Ġunivers al
Ġpeng endalian
Ġb uruh
ĠCh eras
Ġfir man
Ġr api
Ġas ap
ĠP adi
Ġpel ekat
ĠFrancis co
ek omunikasi
il ia
Ġl en
h amba
ĠM ik
ĠK eganasan
ĠC IMB
Ġs ombong
ĠUr us
JAW APAN
Ġb ala
ed arkan
AB U
ĠForm ula
T aip
Ġmenj ilat
Ġc emas
ĠUp aya
k ak
ĠM alim
B iz
l g
ĠSi am
um ni
L ab
T unjukkan
ĠDe ejay
ĠPUT RAJAYA
l en
ĠMo tivasi
ĠIP OH
Ġmulut nya
F il
ĠV ictoria
ĠJoh ari
ĠBAH ARU
ĠR awang
Ġhits AZLINA
ĠLAS TAR
ĠC ategories
ĠG a
gi la
b adan
d aya
ĠAl geria
Ib nu
m g
ĠM I
ĠDB KL
k os
Ġj d
Ġ19 80
P ul
ad iran
al inan
ĠL AZ
Ġlab uh
W estern
p u
t ure
Ġm ee
ĠIS TANA
dir ogol
ĠMES RA
Ġt emu
ĠSp esifikasi
osi o
) (
Ġ ay
P agar
ĠR EJAB
ĠH ow
ĠKem erdekaan
Ġseri bu
ĠPer u
ĠS ign
Kej ohanan
J R
t ime
Ġj alur
end or
Z en
B ON
Ġt om
ap ang
upload s
ĠT y
ĠV IP
ĠJ apan
Ġpet ugas
rep e
K ISAH
E UR
Ġs ter
) );
M ia
ĠP ala
ĠD ist
ĠAn alisis
eb alik
k al
ĠQ R
Ġmend i
Ġdig alakkan
Ġkel uasan
Ġev ent
ĠBr ankas
ĠAb i
bi otik
lar asi
ĠYou Tube
ĠH utang
ĠW ei
Ġberc adang
e em
Ġmen anam
t es
Ġpert olongan
ĠFila men
Ġ own
S ILA
F aktor
L ex
ear ning
ĠMach in
ĠCr ucible
ĠS ari
ĠHam idi
D uk
k l
Ġ imb
ĠMa ul
ĠInd era
ĠSal vador
ĠIL MU
d il
Ġk us
k ategori
y y
M emas
Ġ om
Ġmenj alin
P EK
Info Health
ĠMas akan
IV E
ĠOli ver
ar ingkan
ĠR eb
ĠB io
ĠK raft
ĠComp uter
ro duc
A cara
s elangor
am y
ĠL ight
Ġberp utar
ĠMak kah
M ac
Ġdij elaskan
ĠOct ober
ĠS ant
amb at
L O
ĠS impan
ĠH indu
ĠSh awl
Ġas asi
wrap per
ĠD alaman
Ġj imak
Ġd alil
Ã¨ re
m oni
itar y
M artin
er ox
ĠM ai
ĠF l
Ġt afsir
Ġketak utan
ika ikan
ĠCap tiva
Ġsy ariat
as ti
Ġtemb akan
ĠR AG
ĠO x
W hats
ĠT IM
ĠKer atan
yakit kan
C y
ðŁ ĺ
E h
ĠF ilm
ot ter
Ġkela m
Ġkeb udayaan
ĠSet er
el o
ĠL OP
z hou
col umn
ĠUnd i
Ġc anggih
y ani
ĠT ob
ĠSEMB ILAN
Ġseb erang
ĠL ic
Ġsebab nya
Kr edit
il ly
Ġhits R
g sm
ĠPeng lihatan
R AF
RON AS
ĠF adz
z h
W ash
ĠI V
adi yah
ĠInf lasi
ĠA UDIT
ĠSem entara
C Y
Bay angkan
S enang
Ġt enggelam
ĠM ujahid
IL F
m ed
SEKS YEN
oc ok
ĠMah araja
Y DE
Ġdis yaki
ĠSet empat
ep ing
J urnal
Ġt ang
Ġmenak jubkan
Ġm agnetik
elar us
ĠK l
Ġr antai
ĠSt ep
OM B
Ġtir oid
ĠK asar
ĠPeny ej
ĠHar akah
Ġv ol
N asional
ps yen
Ġbat eri
Ġpelar ian
ter masuk
ro y
Th ailand
cu ador
Ġmemperl ihatkan
Ġberd aya
Ġmer angkap
ĠY AYASAN
Kel uli
Ġdit empatkan
ĠBer ikut
c us
Ġb sn
tan pa
Ġdih ormati
ĠPus ingan
ĠOr al
ĠS uh
ec onom
Ġkeb al
Ġlist ctnr
Ġind uk
j ual
er ro
ĠBER HAD
port s
ĠIl ham
Ġb ikin
ĠT aib
AL UI
ĠK ir
eh atan
ĠPer matang
er asan
ent rik
Ġg anas
Ġpeng und
mi ah
Ġpeng uasaan
ĠKeb enaran
r vat
Ġpengh uni
Ġdi af
ib o
ingg ang
aj alah
aj aiban
Ġberh asrat
un ut
ĠPeng awal
Ġsah ih
Ġspek ulasi
ol ta
ĠL anjut
Kec antikan
ĠS ov
Ġpert imbangan
PER MOHONAN
C aterpillar
D M
ĠK UN
ĠD EAL
ĠD ewi
ĠBM W
ĠEK ONOMI
ĠFeb r
Ġpem injam
agam aan
Ġt ekan
Ġsimp le
ĠCo untry
F M
P ember
Ġpend akwaan
( _.
ĠP OST
id or
mem ang
M urid
ĠH IJAU
Ġberg ambar
la luan
Ġp sikologi
ĠR ej
ĠC ros
Ġn or
Ġmemb angkitkan
tr onic
Ġsch ool
am it
ig rain
25 00
ĠJun i
ĠEl antra
Keh amilan
b andar
IL L
EK UT
ĠSH OT
ĠDia betes
ĠM OTOR
int an
ĠZ a
ĠMono Space
uatku asakan
Ġbers ara
UL LAH
ĠAN UGERAH
Mat erial
epat itis
ĠIni lah
ĠRoh ani
g m
ĠR aid
IS U
ĠZ L
EMI UM
R C
ĠJ P
Ap artment
Komp ang
Ġmenghid upkan
Ġt est
Ġk hat
ĠP lugin
Ġr ek
Ġbis ing
Ġt wo
Ġg elak
Mer angkap
BER S
icip al
Ġ ïĥ
ĠD BP
ĠI v
Ġmem eriksa
ĠPEL ANC
atur ed
Ġdih ukum
Ġtahan an
Ġped as
ic he
ĠS eed
Ġseg elintir
Ġsamp aikan
ith uan
Pem er
ĠL isa
ti ps
ĠJ awapan
ĠK raf
IL I
Ġsimp ati
Ġdiaf ragma
Ġob at
ĠCent rifugal
W ater
Ġtak nak
Ġbert ahun
L ima
Ġberj udul
Ġres ipi
Ġmen ewaskan
Ġr oad
ARI AH
Sek urang
in stagram
ĠJun e
ĠKhair ul
B J
Ġd endam
Ke yakinan
its u
Ġ5 000
re ati
Ġmenekan kan
Kem ahiran
m ore
ĠIb adah
Ġkepad amu
Ġpem acu
ĠK ustom
AS AAN
ĠT AMIL
Ġfar masi
rvat ski
us er
ĠR oom
Ker jasama
ĠAM ALAN
K asih
~ ~
ĠB eet
Ġberk awan
Perl indungan
ric ing
loy ment
Ġj ej
D id
t witter
Ù ĳ
Ġdi luar
Rep ublik
Ġw ell
Ġter la
Ġw ay
ĠD et
Ġd at
Ġmen andakan
ĠAl uminium
ĠFr ance
Ġb incang
ĠJ o
Per spektif
Ġn adi
ĠU b
c antik
ĠH ead
ĠKL YDE
Ġ even
j e
Ġdis yorkan
e aming
ard i
Ġmer aikan
Ġdin amik
ĠFebr uary
ĠSing h
Kap al
Ġdi wak
Fat ihah
T IN
ĠChall enge
ĠR TM
Ġla bel
ĠAM G
t inya
Ġk unjungan
JAW AB
R eg
ĠC la
ew aktu
: .
An jing
en ah
ĠAp ollo
ĠBent ong
ĠC SA
araf an
Eng land
G unakan
ad akah
ĠL engan
ĠPemb iayaan
ĠBerh enti
ĠMemp er
ĠCar ta
ĠRaz ali
W AH
k in
Ļ ¥
ĠB ANTUAN
E nd
ĠP ublish
ĠT ayar
imbang i
b erita
S impan
ĠR AKAN
eliling i
L i
ĠPerf ume
ĠF abrik
Ġsemb elit
K ing
ĠD j
ĠRah mat
Tah ukah
ĠPel ik
Ġbin aan
ugu ay
ĠB atuk
ĠT ALIAN
ĠMak a
ik am
Ġj ejak
ump uh
En tah
Navig asi
B ud
il s
Ġdem onstrasi
Ġpol it
AH IRAN
Ġkr iteria
Emp at
Ġpengl ihatan
Ġ2 22
us ikan
F aiz
Ġkem arahan
33 3
fir st
Sal es
ĠN ad
ĠPear l
Ġper p
Ġhar gai
ĠK uat
ak tiviti
d ic
ump u
ANJ ANG
Ġdir iku
ĠMAS UK
ĠSt roke
ĠPAR TI
Ġdeng gi
Ġ udang
AM I
ver tical
DAS AR
ĠPer tukaran
Ġteg uh
ĠTok oh
Tim ur
ĠK ampar
Ġh ealth
Sem uanya
Muk im
ar m
ut s
Ġv aksin
ĠHang er
ed ik
OL L
Ġb la
ong su
oot er
Ġtek ak
ĠF lor
ec at
ĠTer r
K ulit
Ġh ome
Pemb elian
MA X
ĠL y
Kel engkapan
Ġlay anan
Dem ikian
P interest
ĠMEL ALUI
P engan
ĠT ong
isi oterapi
j uta
m um
h ur
ah ah
ĠR abi
Ġlemb aran
ĠKons ultasi
or na
K olej
K amus
Ġ aid
et ti
ĠPenyel enggaraan
et ubuh
ĠD J
ed ung
ĠSa o
ut y
A id
hir e
Ġp lugin
ĠS ize
AD U
umb uk
Ġkom ik
ĠHAN YA
Ġt ravel
ĠPENG GAL
rig id
ĠSeg amat
ĠK m
F ACEBOOK
ĠM iss
ition er
ĠYun us
Ġken ali
D ani
T wo
Ġn a
Ġdini lai
T K
Ġf etish
Ġkal inya
ir anan
ĠB EB
us salam
aq arah
PENG URUSAN
ĠC ell
Ġsyah wat
Ġbel ian
ĠS ea
ok ia
Ġd omestik
AW ANI
elar asan
Ġaz ab
ĠMun icipal
Ġb agaikan
ĠB EK
AK TIVITI
Ġpert empuran
Ġbiar lah
ĠKec ederaan
ĠJ auh
Ġpeng ganas
ĠJAW AB
Ñ Ĭ
ĠJok owi
end awan
ĠRIS ALAH
Ġ old
18 3
ĠDAR JAH
. _
ĠKel ulusan
ĠJ oe
Ġcon struction
n ot
b est
ĠH ujan
ala r
Ġdib antu
Ġhar d
J enayah
Ġs lip
Ġp ic
ĠR ais
E v
ol is
Ġmemp roses
lah kan
Ġkes ukaran
En tri
un ang
ĠD aging
ĠBel iau
ĠMaster batch
Ġs inar
ĠRAG BI
Ġw aris
Ġbers abar
Ġac tive
Kan opi
ĠSeter usnya
ung ku
ĠPers araan
Ġkes ed
K ab
ult ure
Ġ1 01
ĠPert umbuhan
it es
ban ia
li en
ĠTRANS FORMASI
Ġp uji
ih ir
ĠZ ar
ĠStr uktur
ĠL elong
ĠCher okee
Sp ot
Ġper ihal
ung utan
ket atkan
N ING
Ġg ps
Ġkem ana
Ġmeng ancam
Ġb alai
ĠSah aja
A j
Ġkeb elakangan
get Element
ĠBah ari
itro en
ĠMelak ukan
Ġkr itikan
R IS
S ud
n akan
ĠMus tafa
ĠCay enne
s ing
Ġdib incangkan
ĠUs ed
ĠKar nival
Ġseb utan
Ġq uran
G ab
Ġs peed
ĠM OR
Ġw itir
ĠMAH A
ĠCara van
G re
uc er
ĠB endah
ĠYas min
Ġtun duk
ĠMat ahari
ĠSalah uddin
P uasa
ĠV iew
c ategor
ĠK ANAN
Ġdig antung
p oint
2 13
Ġt ayangan
up le
Ġket egangan
lo or
ian at
Ġdik unjungi
US IF
ĠKEL AS
EJ ARAH
D il
im ana
ĠE sk
ĠPer ikanan
Ġdib eritahu
ĠPT S
c dn
ĠBers epadu
ĠBall room
ĠL oji
ĠF akulti
Ġberf irman
ĠM AKAN
Abdul lah
PAK EJ
Ġh ina
ul itan
Ġmengg abungkan
ud up
Pem impin
Ġsh awl
Ġdij emput
ĠT itan
ĠE ast
eran si
ĠDE UTZ
ingk irkan
Ġseks yen
Peng urus
Ġar c
Ġw asiat
Kec ederaan
ĠU pdate
m ove
th day
SUR I
p injaman
5 18
T ING
Ġe ach
ĠK alimantan
Ġlaks ana
ĠAz an
ĠSc ribd
S ifat
ĠTr ac
ĠStr a
uk akan
ĠSur ia
CER T
b esaran
s up
la u
ĠBah ar
Ġr ock
oc or
Ġpak atan
ĠAB U
Ġn eo
C ARI
ĠFir daus
Ġperi uk
z on
Ġac tion
C oll
ĠB UNGA
Ġmeng ukuhkan
ĠTan aman
Post s
ĠYB HG
AM M
Perc utian
Ġkom entar
Ġmemul ihkan
M ul
ĠCy ber
ĠH ijrah
Ġberk urangan
L angganan
p ricing
ĠDi ego
AF I
ĠSt ock
Ġ8 16
Ġpost ing
g eneral
Tr ending
ĠKhair y
C la
Ġberg abung
Ġterj emahan
l em
Ġp adahal
D AN
Ġmenc er
TI C
ĠSon ata
uck land
tic les
el ung
Ġsila t
Hard core
ex as
ĠKh emah
ĠS B
Ġdik ec
P ustaka
ĠBer nam
Ġder ma
ĠT unggal
PB D
ĠK one
et ihan
unya an
Ġsk ala
Ġterb alik
ĠCl ick
ĠAsp en
ond an
ÐºÑĢÐ°ÑĹ Ð½ÑģÑĮÐºÐ°
Ġsh opping
D ana
ĠPow der
ar ram
S ED
ĠB ir
per cayaan
d h
h older
Ġkond om
row ave
P ameran
Ġmelihat nya
ĠBAH AN
ĠW IFI
35 3
mas ak
ĠAd ab
U DA
Pem ilik
Ind ustri
Ġv ari
17 5
eg asi
Ġag resif
Ġef f
ĠKAW ASAN
ĠS uzuki
Ġperk ampungan
ĠGr en
E AR
Ġmen uduh
ĠCel ebr
ĠUs ul
ĠMuslim ah
Ġred ha
ĠDisk aun
Ġdi cipta
Ġc up
sel ected
Ġmemf ailkan
ĠM aksud
M C
Ġla ras
K IN
S ambil
ĠEL BI
Ġin spirasi
usah kan
Y ayasan
uc cess
emp ol
Ter baru
K G
Ġh am
am ic
ĠB ill
ĠSet iu
eran ian
ĠDA F
ĠAr s
Ġsimp tom
T elah
ĠD edah
OR A
Setia usaha
b al
Ġc ustom
end ek
Ġ19 70
ADI AH
Ġd edah
ĠT AMB
B ang
ĠI PT
ĠG aza
Ġme yak
Ġterj atuh
ĠMc D
ĠC amb
ĠF uck
mer ta
Ġser ah
IP TA
ĠN an
Ġperb andingan
Q SS
ĠM is
ĠPas u
C uti
Ġd ato
Ġconf ession
fit nah
ston ia
ĠPer intah
ĠAman z
N at
v et
Kes emua
Ġmun asabah
M W
ĠHar imau
ampak kan
ĠCR UZ
Ġberb aloi
Ġco untry
P adam
Ġm untah
agu ay
ĠF IFA
El antra
6 33
ĠH GR
ĠN anti
ov an
ĠAkhir nya
Ġtubuh nya
ĠSil icon
ĠTamp in
2 11
ari e
Ġs opan
ĠE S
ch en
as urat
ĠSp e
Ġp lug
af as
ĠR ica
Ġb it
ĠKang ar
Ġmeng gerakkan
agn um
Bah aya
ĠIn j
Ġdir ekodkan
en as
g ma
Ġdip andang
ol la
Ġw orld
lap se
PROF IL
g as
Ġl itar
Ġdib angkitkan
I mb
Rak aman
ĠB AKAR
ac at
kan un
Ġdis ertakan
Des ire
Ġmeny ekat
ĠFat wa
E le
Ġdib ebaskan
H y
Ġdi urut
or ra
S aringan
anc ou
ĠDiam ond
Ġp ipi
', '
ĠMENJ ADI
Ġmak mal
Mus im
ĠK ond
ib ia
ut uk
ĠOpt ima
z ar
T raditional
Ġaw an
Ġdir imu
ĠWel ding
ĠGe ogrid
Ġemp ayar
Ge orgia
Ġib arat
Ġag encies
essi onal
Ġin v
Ġn an
Ġhad its
" ==
ĠMENG H
PD RM
Ġkel emb
Ke utamaan
ĠEsc ape
rev iew
Ġag ung
Ġsep asang
Ġh enti
hid den
Ġmenc etak
ORM AT
B engkel
Ġperl ombongan
ĠN AZ
Ġpela wat
Ġkec emerlangan
ed y
ĠE LE
AD UN
ĠJamb atan
ĠTerj emahan
s ex
elir uan
Ġkomp osit
ĠPU ASA
p her
wat ak
ĠhitsM ohamad
ĠTak aful
utri en
ĠRa ub
H aji
ĠR antaian
M ohamad
Kon ica
Ġlip utan
T abung
ĠW olf
ai mi
Ġper nafasan
ĠDom inika
Sep tember
l ek
Ġger an
ithuan ia
Ġm n
ĠH aj
angg uh
ĠCol umb
ĠArm ada
Ġ ïģ
ĠG ug
Ġseper tim
G as
AAAA AAAA
ĠH aut
34 2
ÙĢ ÙĢ
Ġs asar
ĠCh icago
ĠStra its
# |
S ayang
Ġ9 8
7 15
R ic
iz ik
Ġp od
Ġpersa ingan
ï »
an e
Ġsal es
ĠVo ya
Ġf eel
EW S
Ġb id
ĠJa afar
Ġsel ia
ĠTAH U
Ð» Ð³
ĠCRUZ E
M un
em oji
ĠTr in
Ġ59 4
L B
Â °
ĠB uka
Ġb iskut
Ġdid irikan
M exico
Ð £
Ġ6 60
DRO ID
Ġus e
Ġ90 01
Ġs endirian
Ġh i
Ġpeng akuan
' +
Ġp ip
Ġhuj ah
âľ Ķ
C antik
aut o
ĠSp ur
ĠS end
Ġku il
( $(
Ġkes ah
P antai
R h
Ġm onyet
Ġpen unjuk
iri ah
Pemb antu
ĠRep ort
Mes ti
ÑĬ Ð»Ð³
ÑĬÐ»Ð³ Ð°ÑĢ
ĠK dnk
Ġbers aiz
J akarta
ia itu
ug ht
Ġcak era
Ġup ah
ÑĬÐ»Ð³Ð°ÑĢ ÑģÐºÐ¸
Malay sian
Berk ongsi
ĠS ai
ĠS und
Mes kipun
ĠZ UL
ĠC andy
ĠJEN IS
ĠBAH RU
= _.
F uj
at ukan
um u
ĠPer gerakan
AF IZ
al es
ingg alan
ons or
ĠTerb itan
EDI AAN
Ġpeny ebaran
z ikir
ah agi
Peng ambilan
Ġkepad aku
T onton
ĠAm mar
IK IR
Ġbay angkan
ĠSEM ULA
iti ve
if ilm
sid ing
ĠKen yataan
s ecara
ak ut
Ġh ouse
ĠUm ur
ĠMem ang
ĠT AR
! ==
Ġ edit
Ġdiam eter
ingk ali
ĠMold ing
ĠTw ist
ĠHOT EL
K PI
Ġkab in
ol ib
Ã¡ n
Ġdian ugerahkan
EN S
az i
Pro sedur
ĠHad ir
As as
riv ate
Ġbak a
Kep ulauan
s ori
ĠR eview
Ġsed ekah
Ġterg anggu
ĠB ani
Ġcab ang
P unch
ĠDip loma
Ġjur urawat
Ġberper anan
N iaga
Ġs olid
rip per
ĠL autan
ĠD uster
S erangan
( ".
Ġs os
ĠLo op
ĠWilli am
Ġber siap
H z
ĠAm b
ump aan
Ġpr ibumi
Ġmemperj uangkan
m ungkin
ala gi
ĠB AR
ungg ah
Str ategi
ĠBuff er
Ġsej am
ĠLah ad
emb angkan
Ter j
Ġma x
Whats App
yc ra
Ġgem uruh
ĠPeri pher
it o
Ġbi asiswa
O b
S ET
ad il
ila u
h ukum
Ġmark et
M ary
Per istiwa
Ġbern as
Ġsch eme
EKUT UAN
ĠG irl
Ġw ad
Ġn es
z ir
Ġs tory
ĠSport s
Ġsil ver
tern ational
ĠC and
s is
ro ad
J uara
ul ly
Ġser agam
Ber ambut
As al
Ġpingg an
oleh percayaan
ĠKar im
Ġsiap akah
ri ch
ĠPol iteknik
Ġ, '
Ġkes elesaan
ĠPERTAN IAN
Ġikut i
ĠEx tr
J ur
emp ar
anj angan
max cdn
Ġdip etik
Ġen ak
Ġer at
ĠL AH
Bu ilding
Ġt ampak
Ġ199 3
Ġaz an
el b
ĠG aris
ĠTER BARU
T ech
Ġberk ali
S lot
m alam
Sat ellite
Te acher
ĠSt ation
Ġkes em
Ġpela tih
alk ulator
ber d
TI ADAT
D MA
ur es
Us aha
Ġmemb eb
cep atkan
She ikh
R o
ĠH IV
Car s
ĠKOK UR
D aily
Ġmen yakitkan
Ġc ommun
Ġket ahanan
Ked udukan
T N
Pen olong
ĠPeripher als
ĠR afizi
Ġmem indahkan
hir l
Ġur utan
ib roid
ew ek
Ġmin ima
Ġpert ik
ĠEX T
L exus
ĠW agon
ĠBul oh
Ġlog in
Ġd agang
ĠEk sp
ĠX G
SB K
la sif
omet ri
Ġt rading
ĠTer t
Ġal hamdulillah
al bum
Peng endalian
par ti
Ġpuk al
i aran
ĠMa xx
Ġber isi
ĠTa urus
ĠL aju
ĠWah ab
: ...
Ġp ower
My GOV
ĠD AH
R ingkasan
Ġ7 7
ĠPer g
ĠPeng ambilan
ĠAd awi
Ġtert uduh
k ukan
ĠSol ekan
t emp
V ir
ri ed
Ġt adbir
gi lap
Ġresp ons
Ã ī
Ġz ikir
Ġib ubapa
ĠPEMB ANTU
c am
get ar
ĠAm ar
S ikap
ĠKOKUR IKULUM
ĠL az
ĠF il
ĠPer odua
uar eg
ĠIk ut
ĠPer maisuri
I ll
Ġber angkat
Ġbang lo
Ġmark ets
J UMLAH
Ġid eal
Ġt aat
Ġsw t
S G
z ania
ew oo
p enc
s ej
ĠS tan
EN ALAN
IL ING
ĠW il
ĠPerb endaharaan
Ġt egang
ela pan
ĠSeg era
t unya
ĠB IMB
ew ay
Ġkej utan
Ġl evel
ĠJ ersey
ĠW ali
eli gi
k omp
eri b
angg al
Ġlamb ang
F e
Ġ- --
ĠT ome
ĠH antu
ĠPem eriksaan
Ġdim ainkan
ĠKAM PUNG
Ġ ER
ĠF ut
Ġind ia
Ġkomp os
SI AN
Ġak tivis
Ġket enteraan
E lak
at ai
Ġt xt
Ġdik ongsikan
Ak hbar
ĠPET RONAS
ĠN ormal
Ġmemp amerkan
la ut
ĠH I
ĠTet ingkap
LG P
Ġs astera
ĠS amar
GB T
arag ua
M ED
ec ht
UM EN
Ġpr ia
4 25
ĠVoya ger
ĠL AWATAN
Ġmemper cayai
ĠTo uareg
ĠBeet le
Ġk acau
ĠE ducation
UK U
) -
Ġf ardhu
Ġdik urangkan
ĠBer n
KM M
tran et
Em irates
ĠMaj istret
vensi onal
Ġmemb ezakan
ĠRaid er
W heel
ar ab
Ġp ap
Ġpil ot
ĠCy prus
ebum ikan
ir at
urang o
ĠX CMG
ĠAri ffin
tw emoji
ĠPemb er
ĠUN IVERSITI
ancou ver
P in
ork eling
Ġberd osa
ac or
10 24
Ġj arum
ĠTAH AP
ĠHur airah
Ad vertis
Ġsun tiang
Ġpengan jur
D PS
Ġmem asarkan
Ġmengh ampiri
ĠJ ari
ANG KU
U k
Ġrum it
op ter
ĠCh ile
ĠPER LU
K itchen
B arisan
im ester
Ġht ml
D ak
Ġr over
ĠCros st
ĠBER L
ed ition
hirl pool
Ġsing ing
v as
onok kan
F ujitec
iq ih
Ġla ci
ĠPENGUR US
ĠDic atat
C ategories
ĠPER M
ĠSE KS
Ġl emas
ac ak
ĠPEN OLONG
H ybrid
Ġdip otong
Ġsy ukur
ĠHold ings
ĠH ingga
M K
d el
ĠG ame
Ġz at
k omen
ĠFac tory
ĠIn sya
J epun
d ulu
ĠUs aha
ĠCrosst our
emb iraan
ĠJ B
an nya
imp ah
Ġa ura
Ġh ilangkan
ĠTrib ute
co in
B on
Per isian
AC AAN
Co unt
udi es
G AT
Ġbers ed
L ux
Ġc aranya
ĠSpec tra
Ġoff ices
ĠP isang
ator s
Ġresp ond
Q U
ĠA J
Ġmut lak
' d
k encing
Ġun t
ĠD rop
Ġ198 5
Ġdisebut kan
categor ized
ĠK ew
ĠMa af
ur asi
ĠPen ampan
ĠPenj elasan
S elesai
Ġr usuhan
ow ong
ON ES
ber adik
ĠK urikulum
ĠL enggong
ĠHigh lander
Ġt onton
Ġ620 4
ĠJ eep
Ġint egriti
J umaat
Per data
Ġdic ari
Pend apat
N AM
ul uan
ungk ai
ĠMeng g
Ġdin asihatkan
l lahu
Ġdik uasai
Ġb azar
re as
P age
ĠS ING
Ġla faz
ĠJ EMPUTAN
Ġdik umpul
ĠRod eo
M eri
ah asan
ut uhan
Ġmem in
Met ro
ĠN aj
uran o
ĠKem udahan
ĠMarqu is
un duk
Ġela un
Am aran
Ġcent ers
E ight
ĠP ipe
ĠD urango
ĠSid ek
ĠS yar
ĠM ee
ĠB azar
up ang
Ġz alim
Ġmempers oalkan
Ġg antung
ĠTe ams
ĠK uliah
ES IDEN
Ġsalah kan
ĠAc cess
Ġkes impulan
Ser amai
S AR
Ġsh ops
ĠCos ta
Ġked ap
ĠLak ukan
ĠTur ismo
Ġt iri
Ġmemb imbangkan
ĠAir bnb
Ġkal sium
Ġ6 9
Ġap apun
sp lit
SH AR
angg apan
ĠS tory
ĠA PR
Megan e
6 60
Ġpen apis
ek tro
ĠPet ang
J ANG
P ass
Ġm uzium
ĠR ib
seb elum
Add itional
ĠD yn
Ġd u
ĠL GBT
Per ut
ĠPend ang
ĠMar iner
Ġs abun
raul ic
Ġdi isi
Organiz ation
Ġr a
abiat ul
ĠR ad
k lu
al ti
man is
Ġd amai
ĠR A
4 10
ĠT ang
ĠV okasional
Ġpetrol eum
ĠK ids
ĠF aedah
ĠIn spirasi
ĠâĢ¦ âĢ¦
D roid
ĠDem i
Mag yar
Ġk ian
Ġin stitut
ĠPeng endali
ĠGre ece
Ġok sigen
f oto
ĠS ell
E ducational
ĠOut back
D IR
T udung
ĠS eng
ĠS ib
FA Q
R adi
ĠR ub
Peng acara
____ ____
ĠRaz r
ĠSpr inter
Mil estone
ĠB ilangan
Keh idupan
ĠSimp le
Ġb ujang
ĠSp eed
90 01
og or
ĠDan i
T uhan
Ġpeng arang
nd iri
Ġas s
Bla zer
War ehouse
Ð£ ÐºÑĢÐ°ÑĹÐ½ÑģÑĮÐºÐ°
ĠAl iran
Zen ith
ĠR et
Ġc ubaan
edi aman
ĠExp edition
ĠPan amera
Ġt enggara
Ġdi uruskan
ig an
ĠStr ad
L enovo
t ons
Temp lat
ĠX K
Ġput ar
ĠY ear
imp un
Ġberp atutan
Panas onic
Ġ8 5
ĠZ aid
ĠBron co
IK L
C ommunications
Pen erbit
ĠMonter o
ĠUR L
Ġm ood
ĠT alib
ĠG anjil
Ġg empa
Ġter apung
ĠMemp unyai
ĠKat il
ĠBla zer
Ġh impunan
Ang el
ĠMU DA
ĠTrib eca
Ġpemilik nya
f uj
Ġber urusan
ukan ya
ob ak
ĠAz ila
isytih aran
m itsubishi
rigid aire
ĠKER ANJANG
Ġart inya
PENG EDAR
ĠELE CT
Ġsepertim ana
C lothing
h aha
Ġkep unyaan
ĠSubur ban
ĠGR ADER
H ousehold
ĠT ukang
ĠPert anyaan
vin ator
l v
ĠMi ata
ĠStrad ale
Ġg ood
Kej adian
ĠKa um
ĠLum ina
I z
ĠSov iet
ĠA PA
ĠSAH AJA
Ġm olek
ĠM urano
Ġdiper b
esting house
Ġdi lay
eg ur
ingk ir
ĠQ X
Ġib n
T at
ĠP ag
hid up
C ustom
ĠWild fire
Zul kifli
black berry
ĠMK Z
ĠR ai
" "
eng ang
ag ut
inc ian
ĠFor Two
Ġcer ato
Ġserb uan
w estinghouse
ĠT AL
ac le
isk al
SC DMA
Ġb ol
ĠM anchester
nd ows
iz at
Ġpengh awa
sep ak
ĠTrail Blazer
Ġmaz hab
L ot
ĠH u
PB M
Nik ki
Sup er
ĠActive Hybrid
ĠMer okok
ĠZak ir
Saud ia
or es
h on
W a
ĠPen imbal
Ġmel anggan
W ndows
Ġj alang
Ġberb ilang
Ġsp read
Ñ ĩ
C ast
D efault
H i
Ġs ultan
Per ancangan
Ġk itaran
Ġt ext
AL LAH
TA I
ĠPERUB AHAN
ĠTem uduga
ĠLAZ IM
Ġbadan nya
ĠD n
Ġj urang
ĠJ arak
Ġdib iarkan
ĠIS U
Web site
K AL
en ing
Cerit alah
l ihat
ost algia
b enda
izab eth
n ow
ĠBud dha
d g
Ġdip egang
ĠAd v
J AM
ĠK abel
P an
ĠH ilangkan
AK ADEMIK
ĠTun ai
ĠL T
ost ing
Ġmar gin
Ġj ohor
Tak ut
b apa
ĠðŁ ĻĤ
ĠF F
ĠTap ah
ĠL iverpool
ĠPen apis
67 8
ĠJ A
Ġik atan
gh far
L okal
iz ie
ĠHus in
Ġt ender
reat ed
Ġmenghid ap
Ġc ould
ĠAl ana
Fr ance
J P
h aj
Ġbers ejarah
ĠH US
ĠN ILAI
ob e
ĠPem anduan
f riend
ri er
ila l
ac akan
Ġn angis
ongs or
ĠP auh
ĠZ AI
Jam inan
Ġm b
mon ian
ada b
ĠKep impinan
Ġberlak on
ĠA iman
Ġberk ep
Ġ enc
bu atan
T UT
Ġment adbir
tt tt
h ot
ĠBER TU
Ġmuk im
K F
N ah
ĠSE TERUS
Ġth an
Meny ediakan
ep t
ĠSETERUS NYA
ĠR angkaian
Ġf il
Ġbers epadu
Ġmelamb angkan
ĠAd nan
D if
Ġper pustakaan
Ġl etakkan
ĠT iba
ep asi
Ġ= )
ĠPr inc
5 22
E vent
ah ak
ĠAlt antuya
all s
Ġm ir
ia bil
Ġmeng ikat
Ġkes ucian
Ġup acara
ĠS ena
Ġr umput
Ġpeny impanan
abs olute
L ay
off ee
ĠM eter
ĠMoz ambique
m ilik
= {
Ġ30 4
P aul
z ema
ur g
Ġin put
ĠKEPUT ERAAN
R ev
Ġdit emukan
Ġtert anya
Is nin
ĠAl bum
âĢ¦ âĢĿ
ĠPet unjuk
ib od
ĠPerk ilangan
Jangan lah
N UR
Ġs ocial
RE EN
Guang dong
Ġkejah atan
Ġb ig
olib denum
ĠK amera
ĠB ursa
Pas angan
b reak
Ġseles aikan
Ġj om
ĠI q
T EL
ter usan
eal s
ĠBr and
ĠA YAT
Ġres ume
undi ang
cel ona
ĠAn jing
ĠKer as
Peny ata
ĠB atal
mm m
IND AAN
ĠC oc
av en
ĠOn ly
Ġe ap
Pemb ayaran
Ġangk asa
Ġeap ecially
Ġdi angkat
ĠDom ini
ent ingkan
erd asan
Ġp injam
AS H
ĠAziz an
ĠCAT UR
Bulan an
Ġmen erbitkan
R enault
gu e
ĠTer api
ĠPerl ombongan
angg akan
K B
Ġkek alahan
RI VE
ĠK EMB
p uas
Ġ ans
ingg ian
ĠK A
ob ia
j ob
t ungsten
od o
inc ent
A gak
Ġj ati
Ġpemb akaran
Ġpar ents
ĠK TM
om on
Ġc ategory
ĠTrans formasi
( )}
ĠNaz rin
Ġc emburu
EL L
An tarctica
ĠAN TARA
Co untry
ub ati
Ġtert ulis
ĠM eja
AH SURI
ĠhitsM AHSURI
ĠHAR AM
ĠTer h
Ġpost s
Ġny amuk
Ġ ana
os ot
Ġg ive
ĠPangk alan
A ri
Ġc uci
Ġaut onomi
Ġcont est
Ġt aw
i adaan
Ġpeny alahgunaan
sk a
ĠEmb as
en ung
ĠLim ited
5301 768
ĠT embak
ĠC a
ĠF ly
ĠK AN
ĠL c
Ġmengh ubungkan
ab ol
eo f
op at
IN E
Ġ7 9
ĠLap ar
L oji
ren ch
Ġs om
Ġla por
ant is
Ġters enarai
Ġpend atang
Ġ ank
ĠB engkel
Ġmod ul
sek arang
ih ar
Ġr oyal
let e
Ġp ew
Ġtangg al
S UM
d unia
Ġ ungg
W ith
ĠS uri
Ġla g
Ġkew ajipan
B AHAN
Ġked alam
Ġkaw al
Ġpar ut
ĠPes anan
Ġt arian
im anan
Y an
Unit ed
Ġhis ap
M uka
ĠS auna
ĠKer usi
let ter
Ġta ubat
ĠA cara
Ġmengk ritik
Ġd akwa
ĠH all
M oga
ĠX E
ola wat
G ubahan
S uatu
et iaan
Ġ12 80
ĠR ail
Ġpemb entangan
H ong
R oller
ya i
ila m
Ġmeneg ur
ib ody
Ġula s
K ay
ĠB ALING
ĠPengg era
Ġsh j
Ġjalan an
ies ta
ĠCont rol
ĠK amil
Ġas alkan
Ġpenyel idik
zi arah
ĠPer ai
Ġsem esta
Ġin st
ĠB ooth
R adio
is ai
Ġ[ +
L y
yar d
ĠMer c
ĠLe on
ĠB or
Ġper atusan
emp as
In spirasi
F ort
ĠSel es
Ġdib ungkus
Ġp owered
eng ers
ĠSer dang
ĠK orban
H J
ur ukan
Ġteg uran
T KRS
Ġb usuk
ĠPemb edahan
Ġkel ikatan
Ġdah i
ĠKu wait
read y
ĠJ eddah
4 50
ĠH omestay
ĠSE PT
Ġeks ekutif
Ġkad angkala
Cerit era
Ġselang or
ĠB is
Ġmen unjuk
Ġd arat
Ġmenj erit
ch ange
ĠKon vensyen
Ġpla yboy
ĠDaw n
d ives
ĠTrans aksi
Ġb aris
ud ent
Ġpen asihat
H EP
Ġh atiku
ĠNi obium
IK LAN
Ġpers ahabatan
T ir
Ġ aff
ĠH J
ĠKek asih
H and
rg yz
ĠBos nia
k otak
r up
Ġplan et
Ġus er
ul ik
ik istan
le wat
unj ang
ET RO
ĠPas ti
ĠB ell
ra uma
ĠKE TIGA
un ikan
aw uf
Ġpen anaman
ĠBIMB INGAN
ir akan
Ġdep a
f ast
IK UTI
ĠMic hael
ĠK awan
Ġmel etak
EK SI
ĠB ANTU
ĠMa ur
ĠN ick
Ġkem unculan
Wik imedia
ĠJ KR
ASE KOLAH
m ir
Ġh ead
ĠMes ti
Ġked engaran
or f
Ġma upun
ĠMENG HAD
utar akan
ĠAmir udin
Ġsy stem
ĠAG UNG
Ġpem uka
ĠBer a
Ġsila m
b ag
D ev
Ġk uman
ĠY ellow
re al
PP P
Ġbang et
ĠB ina
Ġtah fiz
Ġar ak
Ġd ugaan
Ġqu es
ĠAk rilik
t ed
10 6
ju alan
Pen erbangan
S pa
ĠR ON
P oint
ĠK ain
ud y
Ġdis alurkan
ĠPr ab
isk rim
Ġk urangkan
Ġberk unjung
N P
ebelah an
Ġp g
Ġkur ma
er et
ĠSud ut
Ġmemb ant
Ber anda
ĠPAK ATAN
ĠK J
Ch ild
ĠCro atia
350 3
ategor ikan
U U
b and
i up
sif atkan
uc e
ĠBur ung
ĠH en
ĠAk si
sc ale
Ġh awa
L imau
ĠPer anan
Ġput eri
ĠBe an
og an
ĠY esus
ĠAr menia
ĠAdawi ah
ĠM PM
ĠPER MOHONAN
B ANGAN
Ġmus nah
Ġhasil nya
Ġn ext
ĠJas on
enger usikan
T ers
Ġdek ad
ĠKOM UN
G AMBAR
ĠPenj ara
k ir
ĠDI B
Ġdip aksa
Ġpr emium
ff f
ĠM IL
Ġn aib
EL ILING
Ġselam anya
Ġ199 2
ĠP ip
Ġdij amin
Ġjelas nya
ĠTI PS
I dea
ĠBah agia
ĠX V
à¸ ²
er u
min kan
Ġbro ker
G ar
or at
Ġmem usnahkan
Ġpem ilikan
ĠPen ubuhan
b ody
Ġmer ebut
ku es
Ġin c
ĠPr em
ĠJ AKIM
ĠSE O
ĠKon krit
Ġmeng atur
op eng
Az har
ĠPilihan raya
Ġt ro
Kh asiat
eg er
man usia
Ġn yatakan
ĠSem oga
ĠUL ANG
M ANA
ut era
elas ah
ked ai
Ġ9 00
ĠTr afik
Is mail
Ġlic in
hd ad
ĠJack pot
Ġdit anggung
Ġdip enj
Ġkomun is
H ur
ĠSab ak
ĠS oft
ĠC P
ĠPR ASEKOLAH
uny it
ai y
ilip p
Ġp ujian
Ġ| |
P ORTAL
Ġmeng isytiharkan
ĠF a
95 3503
elanj a
ĠChin ese
S EJARAH
Ġpengh ormatan
Biz ibody
en egro
Ġw hatsapp
Ġdil anda
ĠMeng enal
Ġwak tunya
en ak
ĠKap as
Ġselam atkan
P IBG
Ar tis
Ġdiper ketatkan
S anta
Ġl ok
ib lat
Ġv ery
duk ung
ĠAr ah
ĠMini Space
ĠVen ezuela
mak lumat
ĠSud irman
ĠM AD
Ġmeny erah
ĠTun isia
Ġjelas kan
ĠP otongan
ĠM AJ
ĠSal es
ĠCent ral
ĠE c
AF A
ĠTel inga
Ġber niat
ĠDi Raja
ĠJ agung
ĠY ong
X L
ĠS AM
ri ott
2 10
ĠE P
umb u
Ġkek osongan
Ġl eft
ĠG uatemala
Ġjas ad
Ġtahi yat
ord s
aut kan
b all
g al
Ġtangk apan
ĠSor ento
H artanah
Ġf alse
ĠhitsR abiatul
en ap
Ġt k
Y e
Ġt sunami
), "
van ized
Ġc or
J auh
L ast
ĠC C
ement s
ili ate
ter t
EG R
ĠPer pindahan
p etua
ag ensi
ĠSh ar
Ġmengh ancurkan
Pel ancongan
ĠU sia
f u
ĠSed erhana
Ġmeng uatkan
Ġberm impi
Ġs unyi
ump uan
ĠSu ite
enj ar
... ]
Kel dai
Ġterc apai
% )
ĠM ERAH
Ġman ifesto
Us ahawan
S erb
Ġsel sema
ĠU zbekistan
Am ir
and an
ĠSh are
ura ikan
Ġdiwak ili
kan an
ial og
Ġke da
tr ib
Ġkit orang
Ġber masalah
ĠCal c
AJ UAN
bour ne
ĠMachin ery
ĠB iro
ĠCH E
or andum
os k
ĠIst imewa
Ġkeses akan
e imbangan
Ġmeny alahkan
EL A
ĠJ odoh
Ġas ma
su ara
ONG KOL
ĠK AKI
ind ari
ĠK aunseling
Ġtah ajud
si ve
B angsa
C abaran
Ġs uri
Ġpela curan
% }.
ĠMac au
ĠB ou
rib u
fil ter
ĠON E
sah abat
Ġpengund ian
Y uran
G unung
f ungsi
j ak
ĠR I
Ġmel et
hi y
erg y
Ġw ali
Ġke agamaan
ont an
Ġmenyes al
ĠZain uddin
J AMAN
ĠM uz
li on
ĠAS B
Nur ul
ebih nya
ĠAW ANI
B ooth
ump amanya
ÃŃ a
Ġge ografi
Ġut usan
set ujui
As ian
Ġuc apkan
Ġdi sifatkan
Ġpak cik
ĠMin um
ĠB ISNES
W AL
ub an
ub uk
KEL AB
F esyen
ta ur
ĠP andangan
ĠLEL AKI
j ung
er in
Ġb illion
ĠN asihat
Ġat asi
Ġak n
omp et
ĠSem akin
Ġs or
ot s
ĠKELUAR GA
ĠPemb angkang
ĠAz am
S D
ĠK linikal
ĠL ay
ĠS ujud
eth ing
ĠH ip
iabil iti
ĠA Y
Ġ( )
ĠZ iarah
ai qa
ĠJ atuh
ĠPeng esahan
ĠP PP
ĠJ amaica
Ð ĳ
Ġt embaga
[ \
ĠG ood
ip ulasi
50 2
Ġberp isah
") [
) ...
M SS
Ġs pr
Ġterb entuk
adz am
Ġ198 7
uk us
im anya
J ay
Ġse iring
13 0
ĠSemp orna
Ġcol lapse
ĠPANGK AT
ong ga
ĠPes ta
D alil
Ġmel upakan
Ġmak siat
ĠH awaii
reati viti
Ġmemb esarkan
sel f
ĠHid ung
ĠPu erto
ac s
ĠInd uk
ĠBul garia
Ġ199 1
ajj al
Ġdiperk atakan
ĠB aja
ingan kan
elar askan
OK I
ĠI ron
Ġhid ayah
ĠBint ulu
Ġm andat
ĠA uckland
ĠJ empol
th ony
ĠAs ar
ĠWAK TU
K IM
m ari
az ir
Ġz uriat
iram id
Ġb ingkai
ĠJ ami
ĠE H
eb uri
Ġtr ek
ENG G
Ġpeng uat
EB IHAN
as ing
ĠG alas
ĠY outh
Ġik lim
ĠGen ap
J ean
O F
ĠT PM
ĠL ist
e ase
ĠZul kaedah
U ANGAN
ĠY atim
reh ensif
pt op
iet y
SIS TEM
ĠMov ie
oem m
a oemm
Ġkh asiat
Ġrep ort
PK K
ib ar
K atering
ĠM isteri
ek up
P sikologi
EC H
up as
ÑĢ Ð¿
Pu erto
Ġmem uji
ĠPEM ER
Ġ umpama
up date
M OHD
Ġb ing
ĠK atalog
ĠAl thea
ist ol
Ġche f
Q ibod
ar ti
ĠK G
Ġuj i
At lantic
W ala
ik opter
unan i
Ġdip utuskan
ĠSus pek
Ġ$ ('.
ĠH il
ĠKh al
Ġth ese
Ġres dung
Ġhar ganya
Ġmem upuk
H B
Ġsk rip
ĠB iskut
ĠR ezeki
ee ee
ela dan
ĠPEL AWAT
H ER
Ġam nya
S ye
ĠJer awat
Ku ih
ĠPEMANTA UAN
mis sion
K awan
ĠK B
ĠJ awi
Mem andangkan
ĠH oliday
ĠG lass
ĠW id
Ġas kar
Ġb ilang
ela wat
ĠKes eksaan
Ġset inggi
P lease
d oa
Ġm angkuk
ĠPemb aca
Pel anggan
ĠF ord
emp it
ĠO d
ĠLib ya
Ġdir aja
Ġdip engaruhi
Ġkeb angkitan
ĠAk ar
ĠKec emerlangan
D oc
at t
Ġb antal
UK M
Ġmengg oda
Ġh om
ĠC AR
N R
t q
Ġmeny alurkan
Ġber ib
20 2
ed aan
eron okan
Ġnes caya
D ING
ĠBN M
Ġoff ice
Ġberper ang
C ahaya
ĠP J
per lu
z ul
ĠO ri
ĠS AR
ĠS iku
ĠMar sh
ĠF AT
Ġses udah
Ġny e
m id
MEL AKA
ĠH onduras
Ġis su
av ing
Ġke har
ub arkan
Ġw r
ĠL ug
Ġmeng umpulkan
form atif
Ter p
men istan
Ġk umpul
ĠC arian
Ġsebaik nya
Ġg rafik
ĠPent adbir
Ġkal ori
Ġ umb
ĠANJ URAN
angk ai
ĠKes uburan
ongk ek
ĠAst ra
Ġget aran
ĠPK S
S indrom
ĠL PT
rela tive
Ġp egi
ĠC IK
ĠT itik
ĠY ani
Ġpenj enayah
ĠFor est
Ġb d
ĠPan ama
k atanya
Ġl ycra
ĠKh asiat
Ġber edar
M ur
w ajib
Ġmelak a
S uruhanjaya
ĠD RIVE
Ġq asar
ANGK AIAN
s as
anj ar
Ġtan am
G ame
w arga
ĠPemas angan
ing au
Ġlebih an
k ej
ĠJ ong
ĠN aim
Ġmem ecah
Dic ukur
N av
ĠV I
Ġket epatan
G eor
ĠT am
ĠAmir uddin
esif ik
g or
PER INGATAN
Ġ13 66
D ef
ĠP ulang
Ġberl ubang
Ġdi agnosis
Ġmen s
Ġsec ukup
ĠVit o
d iv
ĠC AL
unt ik
ÃŃ n
UNJ UNG
ĠI X
Ġj agung
ĠJ et
) +
Ġresult s
G al
M AL
ut ter
Ġbers erta
an ol
Ġp ita
ĠSl oven
Ġpro vinsi
Ġdip impin
ASI HAT
Ġpant ang
ĠLat via
iks yen
Y ANG
???? ????
i ester
si gn
ĠY amaha
Um no
ĠH ebei
Ġdit angani
An alisis
Ġpel incir
Ġhukum nya
ĠBah rain
X pose
Ġmilik nya
ĠR S
e es
ĠShams ul
Ġl orong
lamp au
r p
Ab d
ĠG ay
Ġmer osot
ur o
itan ia
ĠK us
ot ary
ĠM awi
Ġdiper setujui
F IZ
Ġkom edi
ĠPri x
ik ul
Ġpak cikli
ak m
ĠPENG EL
ĠMak e
ĠN AMA
Ġser angga
Ġke ibubapaan
ĠF okus
Ġm ade
ĠP ulai
W atch
ec il
Tan am
Cer amah
ĠMad e
Ġf ac
Ġv eteran
V ES
alon an
Ġberb ual
Par limen
UT H
ĠN ylon
Bel la
Ġb ungkus
Ġar r
Ġrob ot
k om
rgyz stan
Ġ uz
ad han
ĠD ef
ĠGer eja
ONES IA
ed akan
535 275
Ġmel uahkan
Pemb edahan
St art
s vg
ang ku
ĠCent ury
M ama
ĠB und
ĠS ong
ĠM impi
vers e
ĠSel com
pem ain
Lag ipun
ĠTAHUN AN
Ġras ul
Vari asi
k ulit
Ser vis
Insya Allah
s ey
ĠN ordin
Ġd efin
Ġp angkalan
ĠH ATI
ib i
ji ang
PER C
Ð¾ Ð½
Ġmenging ati
S ir
Ġmer ayu
4 20
g resif
ĠMem andu
Ġmemb etulkan
Ġbers ah
elay aran
ĠQ uality
add y
ĠBol ivia
asih ati
ĠSup p
Ġl antas
Aut omotif
Bonus Raya
g es
ĠP PBM
ĠMuh arram
S im
ĠKAR NIVAL
Ġsp esifikasi
Ġuntuk nya
ula ma
Ġar nab
Ġmeri ah
ĠKela pa
ĠC ontent
ĠJ uz
ĠOff ice
Ġmeng unjungi
ĠPeng angguran
Ġ12 8
ĠFRE EMIUM
c b
S UB
200 5
Ġjas mani
P UL
An tarabangsa
J apan
ĠH AB
F lor
O US
b atang
Ġk urikulum
Ġmuslim in
Pen sijilan
erob oh
ĠJ asa
d al
Ġs har
Ġj em
ri ger
Mod ul
ĠU thman
oc era
c lass
m ont
ĠT X
riv er
Ġpers amaan
ĠB F
ĠD ur
Ġkek ec
Ġku antiti
Raz er
if orm
Ġpemb aharuan
imb ab
ĠEmp ayar
Ġr asional
Ġmenj aringkan
ĠProf esor
um er
endah kan
89 4
ĠSpe aker
as k
ĠK ANAK
.. ?
Ġkesus ahan
L aluan
Ġmemb uru
ĠZ AKAT
ender ungan
en stein
ĠM amat
ĠR oy
Ġkak inya
Sing apura
ol ine
Ġtak limat
ĠSt udio
Ġse o
ĠV LE
fir m
S ewaktu
as har
ĠKEC IL
P at
ĠC ip
Ġbes arkan
hy si
ulia an
Ġmem ukul
Ġbert olak
ant in
ĠKek uatan
Ġc repe
ot te
uruf oto
ab l
ĠDAF TAR
un ta
Ġdi al
ras er
Ġtar get
ĠDI J
az ine
Ġberg aduh
us n
Ġkeb as
ekut u
angk iti
Ġ ey
SI TE
ĠL awak
emah ami
Ġkeda ulatan
et ia
ĠTer ap
N ig
Ġm p
T OS
ĠBias iswa
B ad
M ainan
ab ur
Per lis
IS ME
Ġdek larasi
Ù ĥ
Ġint elek
ĠAl laah
ĠAkhir at
ita u
EM M
Ġkes ian
Ġ7 00
3 18
G el
enc anakan
ĠG aram
Ġberh ijrah
ĠNor a
AH L
Is rael
Ġ emb
ĠNavig ation
olly wood
g ers
ĠV iano
PER L
Ġs hirt
ĠD IK
ih a
ĠAn im
Ġterp utus
Af rika
Ġpah it
Ġmenak utkan
A spek
Ġmem etik
b ay
Ġak idah
ĠMont e
Ġk andung
ti e
Ġke y
P andang
r asa
IL AIAN
Dit erbitkan
ĠELECT RON
16 5
t uan
ĠSem ester
Nov ember
ti wa
unt u
ĠPED AG
Sye ikh
emp ak
ĠEur opa
s aat
Ġpon tianak
H igh
ĠW AJIB
AT URAN
Ber ikutan
Ġkel uhan
Ġmer oyan
Sun nah
ĠC PU
amp s
ĠPENG ISIAN
Komp onen
ĠD ongfeng
Ġsem acam
Ġm alay
Mel ancap
ĠP ALING
Ġmeng ingat
si akan
ram adhan
ĠI AC
Ġmend adak
ila si
elit ian
Ġtas ik
K enderaan
ĠB alak
ATEG ORI
ok uskan
Ġpeng amal
Ter baik
m inya
ĠS eo
Ġf ind
ĠFir st
Ġmend atang
ij akan
K IT
d uduk
ĠC abaran
Ġkart on
ĠPAS IR
Ġdisambung kan
imbab we
D aya
Ġmeny ukai
Ġpertik aian
c ip
Ġke arah
Ġberg aya
PB T
B ayar
Ġger gasi
ĠMUL IA
Ġser vice
Ter ms
ĠPRO MOSI
ion is
ĠSel anjutnya
Ġdig ambarkan
ĠMah fuz
ĠReg ister
Ġb oss
ĠF ast
si lah
Ġmeny angka
ĠTer usan
Ġ10 7
ĠIS A
Ġ etika
elaks asi
ĠPublish ing
Ġg overnment
okr atik
an bul
Ġz ahir
Ġketer laluan
L im
h ta
az an
S uk
d eg
ĠL ok
Ġsat unya
Ġm oss
ĠB ijak
men j
ĠTEKN IK
Ġhidro statik
ĠH or
ĠPeny ata
ĠJur urawat
Ġrakan nya
S uasana
SI AL
Ġw indow
Ġdir eman
ĠR uncit
ĠBERS EP
ĠY u
Ġju g
Ġters er
ahulu i
ĠOn n
ustr y
UN DANG
Ġmag hrib
D om
Ġl epak
AM K
Ġmend atar
RAH SIA
O ther
Ġpenting nya
AA A
Ġtrans formasi
Ġmen ya
O p
Ġmen elan
s har
ĠMoto GP
ĠC enter
Ġl ega
Ġ" ,
ig o
impian ku
V A
Ġpert ahan
N E
ers il
ĠTour ism
L et
b n
ĠR ekabentuk
Ġmenyer upai
Ġb umiputera
Ġw ira
qu o
ĠYa akob
oks ida
ĠSif uli
is im
ĠF R
H ebei
k ai
ers e
Ġ7 6
Ġpep ejal
L ip
ĠBERSEP ADU
m ond
Ġpengg anti
ĠH ay
Ġsa ing
pem impin
D AK
w ara
ĠD ini
Ġke ahlian
ĠO K
Ġpemb atalan
ĠCon f
ĠP anc
ĠB endera
ont o
han n
aks ana
pur ata
D ist
ĠMen inggal
ĠR af
ĠV ancouver
ĠPen erima
rak tik
Ġ ego
ĠA PM
ĠTak ut
ĠKej adian
P eperiksaan
Ġku ota
ĠLE ON
J os
ĠL GP
L ak
p y
F orm
ĠSh ad
Ġ9 50
ĠUM T
ĠJ ust
ĠAS AS
ĠSal eh
iz za
ĠTeng de
ĠDEAL ER
ĠZ ikir
ĠBet ong
ĠH os
Ġdis amping
Ġd eh
IL ANG
ĠTER BUKA
eni x
Ġs tar
ĠN usantara
Ġbij irin
2 30
ument asi
ĠBerp uasa
empurn aan
al fa
Per ang
ĠCav es
am alan
BER AT
ashi on
p l
ĠW ell
ĠHo ist
ĠP uncak
ĠDAT ANG
Ket iga
ĠP neumatik
AW AS
Tab ika
Ġmeny iarkan
UM UMAN
ĠAsh raf
ĠPeng ajaran
ĠPEDAG OGI
and om
ti er
Ġmeng a
ĠJ eneral
ĠN u
Ky ocera
ĠU SIM
PRO DUK
U AH
ak apan
ĠM ali
Ġ19 60
ĠL ebar
ĠW itt
Ġad am
Ã ł
ĠX peria
T entera
ES TA
et ek
ĠD onald
â Ĥ¬
Ġ \
ĠC uma
ĠJ PA
ĠDip os
ĠDARI PADA
ila inya
oles trol
ĠAur ora
s imp
ĠM E
ĠJ ib
ĠAr n
ĠMah asiswa
or adio
Ġc har
ulis tiwa
Ġd erita
ol itik
Ġbaik i
Ġpen untut
EP AS
Ġc erit
ĠMen erima
Ġor en
ĠMac edonia
] )
Ġt ambang
andat angan
B entuk
B urung
T here
Ġ olah
ĠT arawih
unt ur
J un
EN ANG
R em
urai da
Ġt in
ĠG arden
ish ed
ASM IAN
us uri
ĠBut t
S elasa
ĠD IT
ĠG ener
Ġlam anya
Ġper olehan
ĠZ ub
20 3
ĠCo unter
Ġdir ampas
Ġmenyer onokkan
r ecent
em akan
Ġber alun
Ġl es
S UL
ĠPEM IMPIN
c os
Ġtr uck
Ġmempert imbangkan
m izi
DN HEP
ĠKEM AJUAN
Ġpin ang
ĠS iew
Ġl ek
Seb anyak
KAN AK
emb araan
ĠL I
Ġper alihan
oc oran
Jan uari
Ġst rok
Ġdihad apan
Ġlum ayan
ABY TE
ĠF iesta
ĠKes ultanan
Ġmel etus
KAD ET
k id
ĠFort une
ro v
Per ubatan
ĠâĢ ĭ
Ġin cl
Prin sip
Ġpeng iraan
ĠK BS
Ġseb ak
V M
Ġterb it
es iti
Ġs rc
18 50
ĠD AIHATSU
Ġc eritakan
PK T
14 0
H rvatski
as hb
Ġtak dir
RO G
Ġpingg ir
ibo uti
ala is
ĠBunt ar
mas ih
Ġs an
Ġsebeg itu
M ust
Ġb efore
ub al
Kar ena
sori asis
p egawai
ad amkan
Ġdi hadap
x on
ĠD inar
Ġir on
ĠDh abi
Ġpemb uangan
Ġcar b
Ġt amadun
AT OR
ĠTh emes
Ġharus lah
Ġnyany ian
Ġs ame
GIG ABYTE
Ġmeny enangkan
ĠKe empat
Ġc air
E ropah
ĠT AMAN
ĠL omb
ĠAR T
Ġberkem ungkinan
ong kan
ow a
ĠT EM
Ġpenyej uk
8 55
B aqarah
ĠElec tronic
amm adiyah
arik ei
ĠMANJ OI
ĠKr onik
ĠR acing
t estimoni
Ġwujud nya
Ġberper ingkat
ĠVirgin ia
Sela lu
(" -
an on
ĠSa udara
Ġla yar
Ġep al
m il
Ġberm acam
Ġkh utbah
ï» ¿
ic ap
ĠTer had
38 0
Kh abar
ĠKO AKADEMIK
r m
ĠS upaya
ĠS kuad
DIR EKT
Ġt itah
Ġst adium
20 5
Ġd ong
Ġp ola
Ġt untut
ĠM angga
Ġr ap
Ġrib ut
ĠO man
Ġb ubur
4 15
) }.
TA Z
PUS AT
F amily
M ail
F ast
Man faat
end ung
ker ajaan
KER ANA
ĠVer de
Per lawanan
IP OH
Ġsec epat
ĠPro cess
U IT
ĠY ogyakarta
v c
su aian
ĠB edah
Ġg alas
ĠMal ta
ilipp ines
ant y
asar ana
ĠBER BUKA
ĠP AGI
up on
Ad min
Ġmen entu
if ah
ĠOper ator
ĠRic hard
ĠKER ANA
Ġt engk
ĠI H
Sp ain
K i
ok imia
lo at
es anan
Ġrej im
os istem
Ġpemb orong
AY AR
Ġpeny impangan
Ġi ya
ĠELECTRON ICS
Ġb angs
us krip
Ġj imat
Ġinter est
Ġn ight
ĠB us
Ġmeng etuai
Ġmemb entangkan
ĠW afer
ans uhkan
Ġkela min
M AK
es k
ĠGu ide
ĠBel ud
ĠFat ihah
Ġkej iranan
bers ama
3 99
Ġberla yar
ĠI f
Ġpen ambahan
N e
emp or
ori um
ĠRos es
ĠP AP
DP E
Ġp eg
Per dagangan
sur vey
at il
Ġj angkaan
ĠO P
Ġkec acatan
D iana
h uruf
al eh
ĠF raser
ĠSloven ia
ĠB icara
Ġdik aji
Ġfat wa
z ing
ind as
ĠJim eng
Ak ademi
ras ul
l ong
ĠKi amat
H endak
Top ik
m ul
Ġm antan
ĠA JK
ĠD ang
Gu inea
M isteri
T olong
ĠM anjung
ĠKem udian
C RA
ĠC akap
Ġroyal ti
Ġagak nya
Per olehan
Ġpengan ut
mes ej
Ġpemb iakan
d ut
ĠHigh land
T ugas
Ber p
ah it
ĠS ejak
ch ildren
ĠMas sa
o es
ort hy
ĠRumah tangga
ĠS lim
ĠW OR
22 20
ĠB aki
engg ugut
END ER
: '
ĠAr ahan
ĠTi ong
Sl ide
Ġber api
Ġterb ina
SI T
IR AH
ĠMOD AL
MU AT
and ainya
ans k
p asar
Port ugal
we ight
ĠTob ago
Ġmeng guna
Kont rak
Ġbers endirian
AO EMM
B AGI
ay alah
ac ita
ĠPer istiwa
amp unan
SEM ASA
ĠSaif uddin
ĠM ek
Ġper spektif
ĠG angguan
Ġseb erapa
Apr il
s ampai
Ġl os
Ġsej agat
Ġpus ing
kan lah
Ġsamp el
Ġmenyer ap
Ust adz
Ġadik nya
ĠGran ules
ĠB ICARA
ĠF o
Ġbers ebelahan
ka it
ĠQue en
ĠGh ani
Ġdiw ajibkan
ĠR ey
}; _.
ĠPapa G
Ù ģ
ing xia
ati e
enc ian
Ġked ah
Sa udara
uk ung
Ġpus aka
Z ah
ĠP AT
anti ago
new s
ĠColumb ia
ĠT EMPAT
J I
ĠTom ato
Ġt oday
ib bah
Ġberl epas
B alik
ĠO t
ĠAb bas
Ġkep elbagaian
h ingga
l ocation
ĠKud at
g ah
cl ick
ĠW ard
ĠTemp lates
Ġsep i
TAN T
as ihan
ĠH is
b eg
ĠPemb uatan
Ġmenggunakan nya
ĠK embar
ĠP oint
ĠT G
ĠR enault
Malang nya
he jiang
Ġdis usun
ĠR indu
Ġch alet
Ġekstr em
wh ite
B AS
S ol
Ġs ofa
Ġdi usahakan
ĠP ath
N EW
Ġpol igami
Ġser ingkali
ĠMOH AMAD
S emp
asi un
ight y
ĠSY ARIAH
ĠJamal uddin
oh m
ĠY unani
Ġpend idik
G ib
Ġlap ang
eks ual
p ent
ĠD EP
st art
ĠPEN TING
uk h
ĠD NA
ĠJ enama
eng uk
Ġtert umpu
uu uu
ĠP antun
Ġmemer intahkan
ĠM awar
26 5
ĠMad ya
S impanan
ĠD OR
ĠB ibir
im in
AM AH
OK ASI
Ġt or
ent ry
ĠKe y
ĠB AYARAN
Ġl angs
Ġs int
ĠSal uran
ĠMod en
Ġ198 4
ĠLa os
Ġm kn
ĠR X
ĠQ URAN
ĠMak mur
ĠD uli
iv il
ĠAs rama
Ġkesed ihan
ast ik
Ġpemer hatian
Al b
AG U
ĠMemb awa
ES TER
ĠG ost
3 000
K EDAH
em o
Ġkar angan
ĠSah ih
Seb ulan
ĠRos ak
Ġgen re
ĠB elarus
Ġmeny anyi
R S
Y ONG
aw anc
ĠE cuador
al m
Ġmel ekat
ĠY G
ĠOcta FX
Ġg andum
Ġsaud aranya
ĠS iber
Ġmen oleh
ĠG agal
Men ang
Ġ198 6
Keh adiran
Ġgil iran
ĠNaz ri
Ġs logan
KL USIF
ĠL EE
avel ength
aw w
ibil ity
c rip
amp urkan
ch urch
ĠPER GERAKAN
ĠRes ipi
Up ah
KET UA
$ /
Ġsep ara
ĠAut oradio
h enti
us uh
ĠKec ekapan
Ġmem at
M AP
il on
f aiz
Ġd et
Ġh ip
Ġj utawan
Ġy ea
Ġj gk
ĠLO ADER
li er
Sel ect
Ġprint ing
F I
ĠÂ £
amb u
ala ihi
Ġkh alifah
Tr imester
Ġdif ahamkan
ĠH uda
ĠRay yan
Ġ ear
EN O
37 1850
D iv
em ani
ĠM ing
æ ľ
ĠW avelength
ert inya
2 35
ter engganu
engk a
ĠMoh on
ĠHus sin
K orea
ĠBer jalan
AD ANAN
Ġ' /
ala q
ubah suaian
k upu
Ġber ang
ĠPeny anyi
mah al
DIREKT ORI
R isiko
r uz
w aktu
ĠBER SIH
Ġik on
Maksud nya
ĠAug ust
ĠF IR
Ġpul uhan
Ġt unjukkan
Ġsk rg
ĠZH EN
ĠWH EEL
Ġ alatan
Ġk end
ĠCh i
ĠEx c
and ungi
no x
G overnment
T umb
it z
ĠY US
Ġsej ati
iks el
Sen araikan
Pet unjuk
9 20
Ġif tar
O lymp
ond o
epak atan
ĠYas in
p op
Ġt ido
AHL IAN
K umpulkan
T om
Ar as
Ġ198 9
ĠEv o
Ġt uk
ĠAl umni
Et nik
Ġm ufti
h ed
Ġmen enangkan
ĠH P
Kej ayaan
angk ali
Ġke imanan
Ġmeng emas
Ġbesar nya
D aun
ont ot
Ġkap ita
asm ine
ro b
Ġvis ual
Ġber taubat
rom i
data Type
ĠKap ita
m urah
Ġt ub
Ġl imau
enc ia
Ġpengg al
Ġf ut
ĠSil inder
O psyen
Ġt otal
Peng uatkuasaan
Ġkela inan
Ġdi min
ĠPet ra
ĠDz ul
K akitangan
ĠK ari
Ġmuk min
elir ukan
Ġ ^
and uk
26 220
M art
ĠT inggal
K UMPULAN
Ġdi ff
Ġper edaran
mak na
ĠLux embourg
|| (
H Q
b irit
IK E
Ġd ev
ĠL ati
angk ar
Ġp oket
ĠX presi
Ġkat ak
Ġrespond en
ĠP d
Ġdi ucapkan
ĠL atif
ac ana
AL OG
alim at
9 18
Z aman
Ġse umpama
ĠV akum
men jadi
Ġkel etihan
W H
gi at
per l
Ġwh ile
Ġw alk
Ġsil inder
ĠPla za
U X
Ġt opi
uala f
Ġdijadual kan
Ġpel umba
BEL I
STAT US
Ġj ihad
ĠI si
5 01
ĠM otosikal
Ġfir ma
Ġer otika
S ukar
orban kan
ĠFX TM
es eran
Ġmeny usahkan
ĠPers ekitaran
M ini
Ġmend erita
PEND IDIKAN
R om
ĠB utang
65 2
ĠW awasan
ĠIND ONESIA
è ª
al em
ĠBo at
IKL ANAN
Ã© s
l s
Ġmeng iktiraf
Ġmem ajukan
S entiasa
ĠP ILIHAN
ga ulan
f ace
ĠK alendar
Ġmeny enaraikan
Ġseh inggakan
J O
Ġ illa
Ġk anker
Terb itan
S and
ĠZ AMRI
Ġmend oakan
ĠSIM PAN
h air
èª ŀ
um inasi
RO L
ĠOnly te
Ġ ÙĪ
ĠBERS ATU
nik ah
Ġterh enti
Ġkebiasaan nya
Ġp eka
as ukan
ĠJ os
ci ence
r el
æ Ĺ
Ġmen aip
ĠL anguage
ĠSt one
Ġdil epaskan
Ġkesem uanya
ĠBERTU GAS
P adahal
ĠW ed
ĠPemb elian
ungg uhan
Men ingkatkan
ĠMala ikat
Ġ umah
Ġk asi
un k
per aturan
ĠCh ris
ĠB ATU
Ġl epasan
ĠPel uang
Ġproduk si
Ġdila lui
T angan
r ary
Ġl elah
ĠJer ai
H idangan
S ESI
Ġkeb anyakkan
ret e
Ġmaklum kan
ĠDALAM AN
iss au
Ġb an
ĠAl ias
Dak ota
or p
Ġmer angsang
Ġma al
Ġkeg uguran
D uit
Ġg i
ĠW A
2 60
Ġproduk tiviti
rand om
Ġr atusan
Ġib rahim
ĠInk jet
ĠT anggungjawab
ĠI lum
ĠKeb esaran
KER AJAAN
d esign
Ġmeng alu
ĠBeb erapa
T ulisan
over y
ĠKok urikulum
ĠIN FO
ĠS ES
Pemb atalan
c akap
ĠI ya
ti um
ĠST AR
cep t
anc ed
ug urkan
Memb antu
ĠRoll ers
ĠR okok
u ap
ĠSer ing
Ġs ambut
Ġ8 4
hiy allahu
Ġas ar
ĠPul ley
UST RI
Ġf b
sa udara
ĠKut ipan
t ikal
Ġk arang
ĠB illah
ĠR inggit
ĠMES TI
Ġb ongsu
Ġf eed
Ġ' ');
SY ARAT
Ġter tera
Ġberg anda
ung u
ĠG un
Ind ex
TAR IKH
Ġt emui
ig ital
Ġdik embalikan
15 6
ĠPrab owo
Ġpeny ulingan
Ġdij aga
ar atan
ĠF alsafah
elak uan
Pet aling
Ġber amal
ĠL ekap
TA C
P ower
ĠBAN YAK
ĠGr ab
ĠAt l
Ġber angan
aj e
Ġkesan nya
S AL
UL US
Ġdihar amkan
Ġsal utan
ijak sanaan
T em
esb o
ĠShop ee
krip si
ĠBert am
ĠTerk enal
ĠD inding
Ġj apan
Ġberb eda
Ġ19 59
ur rahman
ĠWitt ur
AI P
awanc ara
h es
ĠC OR
VD LM
Ġkari er
asi o
iber al
Ġg arisan
In ternet
any ikan
Ġpenj uru
PENG ENALAN
ĠSah ari
am ental
PER TUAN
ham is
Ġdit andatangani
echt enstein
in ch
ĠSh alawat
Ġmenc iptakan
Ġatas nya
Ġpengec ualian
ĠC CC
Ġat asan
ĠWEB SITE
J essica
k ena
ĠBert uah
J oin
ĠP ATI
Ġg aduh
A in
H arian
ĠH art
Ġdir ection
Ġput era
ĠSin aran
ĠP ac
AK HIR
Ġput aran
ĠMUS LIM
ĠFIZ IKAL
ĠNik mat
B rit
ĠR eno
ĠPerm ulaan
Ġaut omotif
dir ection
ĠSeb enarnya
ĠL abu
Ġth ink
il u
ĠMem ohon
or ing
ag h
Ġ7 50
ĠAs am
Ġmemb ayangkan
Bar b
ĠRev olusi
ĠIm port
ĠM om
ĠN izar
3 24
ar ung
Ġr ombongan
Ġat uran
Bukan kah
Ġmeng gun
ej ek
UB LE
Ġperb ankan
AT O
angk apan
Ġkek eliruan
Ġpet isyen
ĠEk stra
Ġsib er
ly n
ala b
ala yak
Ġkes tab
Ġmencer minkan
K uching
IK ET
ES P
Pek erja
Mon aco
ĠS N
ĠH om
Ġhy per
c ow
ĠTer minal
ĠP AL
AD IS
Ġkestab ilan
Ġt it
est ar
ĠCh iku
Ġide ologi
Ġdik ebumikan
Ġmela tih
Ġl iabiliti
AY ANG
Perm it
P res
d ij
AND AR
JK PAK
Alex is
Ġb ual
Å Ł
ĠKep uasan
c alon
aj o
Ġc omm
G reen
O OL
Ġkek unci
ĠHe art
Ġrec ord
s um
Ġ19 74
Ġmeny empurnakan
Ch er
M utiara
it ang
AS TA
Ġdib olehkan
ess age
Ġsent imen
w orth
Ġp undi
Ġg raf
Ġpend engaran
ĠDir ektori
ĠT API
UNG SI
Ġterj ebak
æĹ ¥
Ġr atus
Nor sk
Ġd eny
Ġdis arankan
Ġproduc ts
ev ent
UNJ UNGAN
Ġberk el
ĠKE ADILAN
ĠIt em
ĠPES ERTA
Ġkep emimpinan
V ille
ela an
ĠW ind
H aiwan
Ġmeng utip
Ġmengg el
t ek
od ont
Ġcont rol
IT TER
M ENT
t umbuhan
Ġp upus
Ġj ersey
ĠR end
Ġpem odenan
ĠPas sword
VIR AL
h ol
Ġd eb
Ġp ekat
ĠPres int
K ON
G ara
ĠKen ingau
Ġp aham
Ġdit untut
Ġm abuk
Ġgen etik
ĠN eg
ĠO ng
ĠMod ular
H appy
BANG SA
Ġuz ur
Ġse umur
Ġberb ulu
ĠS GS
ĠPed as
R ub
ĠG usi
An y
erob ohan
ĠSJK T
im ages
Ġmemb iayai
ĠSek iranya
H DN
ub ual
ĠMong olia
Ġas ian
Ġ6 7
eter inar
ĠP ORTAL
TIN JEN
Ġmel epasi
ĠC OL
Ġth rough
f low
ag ne
K emas
sh ah
ĠSEBUT HARGA
C reate
It aly
ĠOnlyte ase
B antu
i opia
For mat
E PS
H EB
Ġper nyataan
N K
mp h
ĠIP TA
at rik
Peng awal
TER ENGGANU
Sp ec
Ġbu aya
Ġtir uan
AN TI
Ġan imasi
Ġstud ent
Ġtelah pun
ĠPER ASMIAN
Penyel idikan
ĠSM A
s g
ĠP atut
ĠR ich
angk in
elak inya
Ġberk uatkuasa
ĠS TA
Ġth ose
Mod al
Per tanian
S ite
Ġke jap
Ġhar imau
Ġsind iket
z ina
Ġberc etak
Ġlepas kan
ĠPerk asa
aks asa
ĠWak il
erib adian
sh ak
ams ter
Ġref ormasi
ĠJ ANGAN
Spot light
ĠD iana
V eron
aw anya
ep uk
ĠG emas
ĠTH C
ro h
ĠCar e
E st
UR I
16 00
æľ ¬
ĠJ anji
ĠPeng eluar
Ġanti biotik
ISI ATIF
ĠS os
ĠS ter
ĠR INGAN
tim ate
Ġn ahas
ila r
ĠAv engers
emp edu
ĠRo ti
ad min
ĠL amb
ĠPem anas
ĠB AK
ni obium
am ous
ian na
ĠGer many
J ALAN
ĠP ocket
æĹ¥ æľ¬
n t
ĠSer ta
Ġmenga itkan
N aib
Ġm g
4 38
C ab
S um
Ġm olibdenum
uk au
if er
ĠBel ize
Mis alnya
J ah
Ġr od
lic ks
G H
R en
ĠS itus
Ġper abot
Ġpem ilih
ĠPerk ongsian
My B
ĠTUN AS
ent ucky
egi atan
ĠPen untut
ĠMeny ediakan
he imer
SUR AT
c ir
ĠAn ton
Ġz ika
ĠNab awi
Ġsel idik
.. !
eb ra
Ġberp aling
Ad v
T emui
ĠKem anusiaan
Ġd evelopment
ĠSya fiq
Ġbuk ak
ĠMeng atasi
Su ite
F ull
K eterangan
p agi
ĠB oy
( [
T ingkatan
Ġ ai
er oll
Ġkenyataan nya
Ġpos ter
ĠT ony
ban kan
ĠRh enium
Å¡ Äįina
ĠB aba
ag uan
Ġ ugut
S ubuh
anj ong
IL IH
Ġkom oditi
ĠSeks ual
Ġpel indung
Pem enang
ĠHyd raulic
Ġdi alu
or ongan
ĠSEL URUH
Ġd en
ĠT utorial
ĠCo oper
Ġpengan juran
err or
ĠKal ung
ĠB SH
ĠT uang
ĠV AL
ĠPe ople
Ġkag um
em ik
Ġbers ekolah
Ġtemp lat
Ser agam
Ġl anjutan
Ġg ames
lo ud
Keb aikan
Ger many
auf ort
aw in
ia o
at ure
il et
ud hu
el ola
in yak
ĠBro ok
Ġlingk aran
ĠPar aguay
ĠMa ahad
Ġbre ak
Ġla uk
Ġset s
Ġhand phone
ĠTAW ARAN
ĠS esyen
Ġr aga
Ġberk omunikasi
SEM UA
Ġil uminasi
Ġmengen ainya
n k
Ġ19 88
Pers embahan
Ġc ookies
ex p
ĠRus sian
Ġdi harap
Ġsh ould
T ingkat
Ġr adang
ĠE sp
Ġdik ekalkan
ĠSk incare
Ġtik us
at eway
em in
aw aan
Per ancis
rav iti
ĠAD UAN
Ġ ug
ĠW P
Ġmem entingkan
ey ch
ĠBerp antang
ua f
Ġmem uatkan
ĠMa uritius
Ti ub
Ġnis bah
Ġumb i
æĹ¥æľ¬ èªŀ
Ġmeng imbangi
Ġmer c
ur ukkan
Ġmengg amit
B ACA
W ed
Ġmeng amuk
os an
ĠMcD onald
M uzium
ĠH EL
ĠVib e
7 30
b angan
Â «
Ġbers enam
IST IK
T en
ss ential
Ġdimen angi
3 10
OB AL
E ON
M UH
ĠCh ain
tor ial
ĠAs falt
w anda
A had
m eta
s am
Ġp anggung
Ġberk uat
Ġtert awa
Ġbab ak
ĠSUK A
L ah
Ġb b
AN DA
ĠL ENCANA
Ġberk et
ĠMan agement
KHIDM AT
M ut
R iyadh
la v
Ġl upakan
Pak atan
Ġbiar pun
ĠSY AWAL
ĠE ver
Ġmat awang
ĠSya itan
H utan
n ail
ĠPer asmian
adi jah
Ġberk ec
ĠG REEN
Ġak ad
CER D
K anser
Ġah mad
Car e
c as
h aru
k unci
eg ak
ogen ik
ĠMem ulakan
Ġped alaman
Ġ ....
op tik
anak nya
Al iff
Ġday s
did am
K iriman
T L
U PM
Sp esifikasi
Ġamp un
Ġpeng agihan
ĠSa ad
D on
Ġb end
ĠK impalan
Ġ4 75
anim ation
Ġp ikir
Ġg erbang
ĠF adh
ĠINT EGR
ĠL or
ĠN ord
Ġmas sa
G angguan
ant apkan
Ġres it
ĠV OC
Ġmel ancong
ĠGol ek
ĠH AKIM
Sem akin
ĠKong res
S kuad
UB AAN
ST RA
P y
n ec
D isk
ĠT uc
ĠL incoln
ula tion
Ġperb ahasan
ĠSer angan
ĠG ue
L angkawi
ON IC
ĠAn si
pel anggan
ĠIlum inasi
ĠTM J
ĠColl ege
Rus sia
D L
ĠT EK
Ġdo es
ganegara an
ola s
ĠTrail er
ĠPer juangan
ul ikan
le ct
ĠSa ing
Ġk ub
Begitu lah
Ġmir ip
L anie
ad uhan
ER G
Ġdis edari
Pem ilihan
ĠUr uguay
amm am
J PN
ĠP sikologi
Ġber undur
Ġweb log
Ġt abung
Har akah
Ġt itle
ĠT elur
ĠD am
Ġper tar
ĠRep ly
ĠJamb u
Ġpark ing
Ġmen it
ĠW ain
Ġmem erangi
D e
ĠC otton
f era
Ġc elah
ĠG DA
Ġdij anjikan
S unan
ĠK ira
ĠC odes
P l
ver torial
ĠJohn son
ĠPlas tic
Ġan al
Ġmenyemb unyikan
Ġperlak sanaan
k umpulan
ĠW ood
ĠKh alifah
kem aluan
ak ter
ĠSya ikh
ĠAlf ian
Sus pek
ĠL ittle
Ek sp
ĠAccess ories
Ġmemb ebaskan
az iran
ĠEl izabeth
Ġrem eh
ap Limau
Ġj ob
ĠN FC
ĠSy nc
Ġmengab aikan
EK AL
Ġsmp ai
7 60
J ack
ĠSaid ina
ĠN om
Ġk ubu
ĠAl bania
ĠDI A
ĠSw ift
Ġsula man
Ġt eka
ĠE U
MAS UK
8 000
B ajet
C S
ĠL esbian
ĠN ext
Ġberk empen
b ukti
Ġdib akar
Ġberter ima
ĠAKH BAR
Vir gin
at ta
tr av
Ġmener ajui
En jin
Ġc etakan
J imat
M erah
Ġpenc eramah
Web mail
ĠKe ahlian
ĠB ob
ill ing
Sy ed
S ant
Ġak ur
ĠCorn er
G anti
Z ero
Ùİ Ùĳ
Ġs awah
wit ch
ĠSuhai mi
ĠR ALAT
TR ADING
ĠSJK C
ĠP atah
M emahami
N ational
Ġterb aharu
Ġ19 69
ĠEx t
Tun as
uh ar
... "
ĠIk atan
LD M
Ġmeyak inkan
â ĸ
ĠT ue
ĠR anau
AF AZ
ĠK eter
g atal
ib iliti
sw ana
ro duk
Ġf ormal
Ġsur vey
Ġrad hiyallahu
M ach
Ġmer ingankan
W ang
Ġberm inyak
En ter
ĠPerl umbaan
es ti
is ata
&& !
Ġber tiga
ĠPert uturan
ĠC ob
K ew
ter us
ard o
ĠA ni
ĠD u
WAR E
ĠLelong line
Ġd n
- '
Ġa udit
ĠWah id
Ġdiman faatkan
Ù Ĥ
ĠCF D
Ġ elakkan
ĠR ED
Sela lunya
Ġrad ikal
) *
K hamis
ĠD ai
ĠTa q
ĠB iji
eb on
ana a
ĠKEM AHIRAN
ĠPrem ier
ĠR acun
Pen a
ĠLar ut
ul ukan
ent it
ĠPENG AJARAN
ĠEK STRA
B IS
Ġtern ampak
15 00
ik ot
Ġsah kan
OS P
as ikal
ĠI lahi
perk osa
s eri
ĠP aya
ĠC OP
ĠU lam
yap u
Dif ahamkan
b eb
p usat
lang ed
Ġbert anyakan
t able
ur ers
18 6
her n
ent eng
Ġbek u
ĠF ACEBOOK
Ġper osak
ĠTer dapat
iz inkan
Ġcer pen
ĠM aut
Ġing atkan
N y
Ġk ul
ĠH awa
ram e
ĠFor ce
30 7
Ġtr aining
Ġtr eler
ĠEsk alator
A wak
J ANGAN
st atus
Ġas am
Mah athir
ĠSmart phone
L us
ĠPeng ec
PER T
ĠKhair uddin
if ul
Ġtrans port
Ġk ite
ĠR oth
ĠJan e
C up
Ġber amai
Ġf ast
ĠS OK
Ġmengh ukum
ĠPela dang
ĠPap ar
ĠD ocument
op or
Ġt urn
Ġkes ulitan
t angan
Ġpen is
TA CT
L ouis
g oogle
ĠAng ola
abl anca
al it
4 01
ĠL P
ĠG hana
MT QSS
U rus
ot ho
ga yakan
St op
AND AAN
Ġq uality
EAL TH
Ġp ayu
Ġli wat
ĠJok o
l ock
ĠS ony
sl oven
ĠAs asi
ĠP ameran
H itam
` +
o ugh
ĠP ang
EC ategory
Ġapi Code
action CallBtnText
Key URL
Ġhtml Panel
Ġuser KeyURL
ĠapiCode Samples
C ir
ex ox
ĠPEN ILAIAN
tor ies
ĠChrist church
z heimer
ĠN izam
Ġmenc uci
ĠBah amas
ĠIm age
Ġtet apan
Ġdil ipat
Ġul ser
al d
ĠAn is
t ahu
il ips
Ġter minal
ast y
ail ing
ĠKhat ulistiwa
Ġmeng ag
ĠAut om
t eknik
ĠPEN ANDAAN
G C
w ang
ĠA rif
Ġper hatikan
Ter lalu
s ir
ud er
Ġg ot
Kh alid
Ep son
Ġker abat
Wak af
Ġmer ebak
ard in
Ġdir asakan
ĠPEM UL
Ġp a
ENT ING
ĠSO SIAL
Ġ" "
ĠLEB IH
eych elles
ik ayat
ER USI
tan ah
H L
J OM
V ietnam
Ġw here
16 88
Ġ198 3
Ġk enduri
ĠâĢĭ âĢĭ
T azkirah
Ġters elamat
ĠPem antauan
D aftarkan
man n
ĠPrint ing
on er
Ġkec oh
Ġstart ed
" )}
ĠB ung
Ġberp engaruh
ool s
Ġj awa
IM AH
ah sia
Kes alahan
DO A
Ġm ind
ANT ARAN
Ġhits HJ
ak im
ĠM INGG
ĠSE JAH
P ANG
ĠN ar
ĠBar celona
Ġh on
9 01
Ġs abah
Ġkehar monian
Ġmon ey
M ARA
ap abila
Ġr oll
raf f
ĠLemb u
Ġli at
ajj ud
ĠMIN IT
ĠG i
Ġ8 7
rit ten
ĠSaf ety
Fir st
ĠS ilikon
aw inan
Ġr ampasan
ĠV V
ni ght
Al or
Ġlap is
sl ides
ĠIND AH
MAH KAMAH
t urun
ĠTEL AH
ĠSEJAH TERA
ĠB oh
Ġmeng ukur
el uasa
ut ed
Ġr ez
ip per
esh ow
Men erusi
ĠMela wat
He art
ar isi
ik ri
angs angan
ĠIS TIADAT
ir id
F okus
ĠBS N
R amadhan
ĠH ITAM
az on
crip tion
ĠL uka
ĠL CL
Mak kah
Si ap
ongk ok
Ġdiper hatikan
Sek si
ĠC ili
Ġnak al
Design ed
ĠPlat form
Ġpd f
Ġmen ampakkan
Ġungk apan
ĠAc adem
M aha
ĠNic aragua
ĠCand le
Ġdi arah
on ne
Ġpec ahan
Memb eri
ĠKOR PORAT
ĠCell ular
Ġw abak
RO C
AJ ET
Temp ah
M inta
Ġnaf kah
ĠCH INA
Ist imewa
ĠMU Z
itu asi
andar in
Ġras minya
bah aru
ĠBur uk
Dep osit
ĠP ecah
ĠC offee
Ġl ongkang
EN A
R isalah
Ġdek ati
Ġpen arafan
Di per
Ġk lien
st il
ĠIslam iyah
Ġsej urus
ot ography
ad wal
LIS H
net t
J uru
Ġk wn
ĠP ula
Ad apun
Ġkedudukan nya
U V
ĠT ETA
Ġsay angkan
UC K
Ġkeb encian
ĠL IM
n ita
v ok
Ġy outube
alon kan
ĠPerc ubaan
inter aksi
ĠGol ongan
Ġm ud
ĠA ch
ĠL afaz
ĠH ud
UK AI
ĠAb out
Ġj eti
ĠIt aly
ĠJKK K
Ġat ur
Ġ8 000
asc ar
in ue
Ġla da
Sel ebriti
Ġke usahawanan
ĠI CERD
Ġperc eraian
Ġberc anggah
Had ir
ublish ed
mat ch
ĠMor occo
AT IH
P antat
sur ance
ĠFer ro
roduc er
C os
l inya
ĠB rown
Ġdis ebalik
Ġmer ta
ukt amar
ĠDn ars
H AM
Men ara
W F
rig ger
IT RI
Ġsp an
ĠS oul
ĠDi v
ĠKes ejahteraan
q amah
Ġmel egakan
Ġperm it
ĠAw ak
Ġdar inya
UN A
ĠButter fly
22 2
Ġkeg embiraan
amm uddin
ĠAl if
Az iz
Ġm i
Ġk uah
ep a
Ġsukar elawan
ĠN ap
ĠS umpah
Ġr oom
UAR EG
V il
in it
ĠCh ang
ĠPro v
eg on
ĠD uc
ingg ung
ĠMem akai
Ġp sik
Ġmengg ariskan
g askan
Ġm oga
ĠM ail
ni on
ĠKE K
ĠProduc tion
arm Net
Ġdah syat
Ġte ater
cont rol
Ġmengel uh
= $(
T ata
epat utnya
ĠTO UAREG
B endera
Ġla sak
Tab let
ĠK ATA
N eth
ĠS endi
Ġi j
d asar
m arah
es ch
Ġkela bu
Ġbon et
ĠSH EN
m ala
as ekolah
ĠT EGAN
ĠF EB
ĠBer apa
ĠSh antui
f aktor
Ġt gh
ĠSela t
et on
od am
ĠKe usahawanan
bers abda
F AR
Ġr isalah
Ġdiing ini
M uzik
v ani
ĠColor ado
Ġl ive
ĠF AR
ĠAg ak
sk y
ĠPul se
ch ina
ual ikan
ĠPak cikli
ĠIz z
Real iti
ĠT uaran
ĠF ollow
Ġker etapi
akm uran
ĠD ajjal
Ð¾ Ð»
ĠGrad ers
Ġk encang
S emb
Ġt roli
Bila kah
k lik
l ook
Ġ ori
Ġt rop
ent a
ri ah
MR L
Ġk ilogram
ub agaimanapun
per b
ĠKO PERASI
Ġn e
Ġput ing
Ġkomp rehensif
ĠKen ya
Ġberb elanja
aja x
Neth erlands
D y
Ġr ampas
ĠAz era
ĠSAS O
Ġlamp au
bagai mana
elihara an
ument ari
Bar akah
H er
ol in
ĠPer usahaan
ik ai
ĠPEN ER
ĠZAI DI
Ġpenc uri
Ġ19 76
ĠKEN AIKAN
W arisan
ĠF arah
EST ASI
8 80
in jap
ĠL ithuania
PR ESS
Kep ala
w ai
510 70
S ewa
Ġbag itau
' re
ĠM engk
ĠG uard
Ġkek eluargaan
ANGAN I
Ġmenyemb uhkan
T unjuk
ĠG AA
sel epas
51070 342
T inggi
Ġt rip
tara f
ashb oard
ĠDem o
Ġpeny erahan
Ġk uc
ĠUnivers e
ĠB E
ĠT otal
EL I
Ġm art
COM BO
ĠDES A
d eb
Ġtak ziah
Ġkes ehatan
ĠWash ington
Ġk lu
aks amana
et ed
angg ur
Ġto o
ĠAN D
ĠIm ran
ĠDim ensi
lu as
Ġdib ekalkan
ĠKeb akaran
Pr im
ĠKh azanah
Ġdir encanakan
Ġdig anggu
atur al
j anji
Ġk ilat
Ġdi di
ĠHar ry
W iki
ub ar
ĠKUR IKULUM
ab as
ry pt
ĠI mm
si ar
ĠAk idah
rim inasi
Tar ikan
Ġmengulang i
Ġk aunseling
US TER
ĠSaf ar
Ġagain st
ĠG ong
ĠCo ol
d rop
por n
M az
ĠS IHAT
um ar
ĠL ancar
si lap
Ġlu ahan
Ġs ure
Ġse tan
im ut
unt ingan
id eshow
ĠW all
AS AH
isip aliti
us im
ĠKer ian
had its
M oto
Ġb ed
Ġmer akamkan
ĠEl ement
G eneral
S arah
ĠN erus
ĠK hir
Ġmemb imbing
? .
H on
Tr end
alla llahu
ĠLic ense
Ġdi utarakan
ĠSab ri
ever age
Ġtangg apan
tr um
ĠØ ¹
N EG
W al
ER SI
Ġkas ihan
ĠKOL EJ
ag ascar
ĠH ollywood
ĠPend apat
ĠKT L
Z hejiang
Ġ Î
inc u
comment s
Ġbernas ib
ĠTers edia
m edi
Ġ ol
ĠD engar
ĠM BM
Ġmemb awakan
Ġ01 3
ĠPala ce
l epas
ĠP rivacy
ĠJ utawan
Meng enal
Ġh afiz
ĠSem i
Um um
ĠH ol
an aan
Ġpost date
Ġben ua
("- ")[
Ġp hone
el iti
ĠI ST
ĠCo unt
war es
Kej uruteraan
ĠKD L
Z S
Ġs af
ĠL ang
L ampu
Ġcommun ity
ĠE stonia
Ġtun ang
R izab
ĠU SM
bl em
PEL AKSANAAN
t itude
Ġak a
Ġmel ew
Wak il
Ġp rice
ĠBer main
AB AT
ĠRAS UL
ĠB UD
ĠD eng
ĠF ath
ĠPEMUL IHAN
Ġket iadaan
ERTA AN
ĠT eka
id rat
KEN APA
ĠFau zi
R T
ĠS oh
Ġi on
ĠMat eri
Ġmeneg ak
CON TACT
ĠK amus
Ġter awal
ac ai
Ġf os
ĠMED I
Ġhamp a
ĠT enang
ĠPer paduan
ust ar
Ġdih entikan
ster dam
ĠM ARI
Ġla yari
Ġf lu
ĠS IJ
ĠR ani
ĠL ANGK
Ġc ewek
ĠG ames
And aman
Ġterh asil
S erv
ĠPenyej uk
Ġk uar
ĠProt ein
lag en
Ġbern afas
riz ona
ĠS ANTA
ĠN eraka
Ġh inggalah
Ġmel ompat
akin ah
x el
or ig
ĠEn am
Ġdim eterai
c ia
ep ek
set elah
S aif
k ont
w alaupun
Ġr ece
AY AT
ĠBEB AS
Ġal im
Ġsalah nya
Ġpost ed
else a
ĠPM R
ĠReal iti
Ġw ayang
ĠAs har
ĠAlp ha
ist ory
qu el
ĠBert udung
ĠNOV EMBER
Ð ľ
Ġkes eronokan
Ġpemb aikan
TER BARU
umat ic
Ġmer cu
ĠV ill
Ad din
Ġdig anti
ĠPAD UKA
ÑĢÐ¿ ÑģÐºÐ¸
Ġd uka
ĠTwitter Share
R EP
ĠN X
Ġberk orban
ĠPK NS
Ġtat kala
ist s
B alasan
ĠB ADAR
// //
ĠRes earch
ĠâĢ¦ ..
ĠC INTA
Ġpeny erang
Ker acunan
S antai
l emb
Ġl anggar
ro e
Ġter una
Ġsus unan
ĠBerd asarkan
odont ik
ĠPr insip
Jam ak
ĠCAL ON
Ã ´
Ġg elas
Feb ruari
ĠTER US
UD M
ĠUg anda
D o
art akan
ĠPTG S
f ull
p uan
Ġberb akti
F in
ĠThis BlogThis
R ec
Ġpemb unuh
K ur
R X
S ala
ĠH ORMAT
OSP ITAL
. -
ER ENCE
engg ang
agan za
Ġsom ething
2 24
K alu
b us
Ġpers onaliti
, âĢ¦
t our
Sloven Äįina
F it
Ġd ebat
ĠS ifat
KES IHATAN
R upanya
ĠR uangan
ĠMP V
F irman
c rete
ĠAng g
Ġkerj anya
B issau
T ang
( ?
ĠBON US
ah yang
Ġb anduan
ĠIr fan
ĠTan zania
ĠSed unia
ĠDip lomatik
Ġk embang
ati va
ĠS UN
ik ari
Ġmeng utamakan
ĠJ amil
ic i
Si aran
ĠBe aufort
Ġdes akan
ĠTerj un
Ġl ook
Ġpen ekanan
ĠK op
ĠD ubur
ĠIm sak
j aan
s eksi
ĠW AH
Ġbab e
Ġt ajaan
ĠG uang
ĠSE C
ern aan
â Ļ¥
ud h
lam anya
ayang i
ĠGr up
ams endiri
Ġmen amakan
Ġdisi apkan
ad ari
ĠJ ho
ĠO UT
Ġberk urang
ĠMaks imum
Gre ece
C ubaan
ĠKen angan
Ġditerj emah
S ham
Ġpen yayang
aik al
m uka
Ġc hann
Faiz al
ĠG enerasi
IN C
Peng esan
ĠUl timate
Ġp ot
ĠK otor
ĠD ok
ĠBer laku
ĠSEPT EMBER
d ur
IS LAM
ĠSt asiun
Ġmay be
ĠK ediaman
ans uri
ĠKel i
dis ini
tip u
ĠPara cord
J anji
Ġt injauan
iv ery
PN M
L itar
c r
Ġb atik
ĠS ertai
Per janjian
ĠDr um
AD O
Ġib lis
Ġkeb aikkan
ĠAmeric an
I AC
O UR
ĠD al
EL UM
al iran
HA EN
ĠC ecair
ID IK
ĠAs ian
Ġdiv iden
Ġs mart
ĠS untikan
sp ektor
o gi
ĠMas ukkan
Ġkek erasan
ass ar
Fil ed
f l
s iri
Ġpent adbir
27 0
Ġtak hta
ez er
KEP UTUSAN
Ġter lambat
Ġm uch
Ġpeng kh
P agi
Ġd tg
si es
Ber tiga
econom ics
Ġind eks
erk atan
ĠGal vanized
ĠPen utupan
ĠSE TAR
t eki
Ġd ot
Ġs uch
Best ari
u iti
ĠT umbuhan
Ġin come
ĠAg ro
orn ing
ĠST R
ers atil
ĠN ah
ĠBerd aftar
n on
ĠO z
Ġ12 00
d osa
ĠUn ik
J awab
Ġinf lasi
T UDUNG
ent am
AJ AK
Ġhar apkan
ty p
s ide
ĠImp erial
S hirt
em ai
** *
us ul
Ġke war
form ance
Ġterc antik
AM ED
ĠSIJ IL
ĠDis ney
Ġd sb
ĠBi ar
ĠSemp adan
ĠUr ut
in ambungan
Ġp iksel
ĠJ KM
ĠCh o
Ġterb ahagi
ĠMarsh all
m cm
ĠH amb
ĠG ift
AS IS
Ġket ujuh
v ik
ul ing
ĠR at
ĠF iqh
Ġint eg
Ġk embung
le a
36 00
ou x
Ġper asmian
Ġmel onj
inc irkan
ĠABDUL LAH
ĠM ingguan
ĠY g
Ġhar inya
Ġkeh akiman
uni on
ĠDat oh
Ġbur ger
Ġperlak uan
Ġter owong
Ġkeb esaran
Men onton
ĠSol omon
Ġst ep
ait un
ĠSystem s
ĠG l
Ġpemb ersih
Ġdis uruh
ik ar
Ġw uduk
Ber at
eh kan
Ġmenc ium
ĠSy ukri
Ġcy st
Ġw ain
Ġabang nya
ĠK IM
Ġdis elamatkan
gu es
Ġmat rikulasi
ĠH um
ĠMengh ilangkan
Barang siapa
in ame
ĠK ADA
Ġ1 30
mi e
Ġmeneg akkan
D ALAM
Ġr antaian
Ġbel anjawan
ĠPenc ampuran
ANC ANGAN
B ooking
ĠSain te
C ons
Ġter mak
Ġmeny uarakan
int ik
Ġbert arikh
ĠComp actor
B ikini
ĠL ucky
ons il
ĠTo ols
ĠAz imat
Ġmat erial
ĠB ai
Ġv isa
ans as
ĠD alat
ĠE KS
orksh op
Biar lah
Th omas
s ihat
var s
F OK
Sk rin
ĠJ ER
AK S
Pel ekat
Ġmen unggang
Ġd rop
ĠK ampong
ij ik
ARIK AT
Ġcur ve
si ght
ĠEn tri
s hare
Ġt ow
S oph
g at
is ing
ind o
Ġtak e
Ġkaw en
m udahan
Ġser endah
Ġpas port
c ontact
Ġkeb urukan
Ter im
Ter nyata
ĠPerm it
Bi arkan
ĠTab let
M ond
ĠComp ass
ĠFar m
ĠGer ak
ĠW AN
ĠAn ne
web site
ĠKED UA
B il
Ġmen embak
our i
KEL ANTAN
cl ose
ĠJAN UARI
Ġkelemb apan
ĠSh ell
K urikulum
ĠN Y
ĠU jar
ĠSi akap
Ġkon vensional
KO K
Ġmenyemb ah
ĠC ook
Ġmeng ek
room s
ĠD uty
ĠAn a
ĠK arang
ĠPER INGATAN
urt ad
Ġd re
ĠBer warna
3 30
ĠMo tion
ĠSula wesi
V ID
Ġimg url
j ukan
ĠL ipat
Ġ9 16
Ġpek ebun
S ambutan
ĠP SS
per imen
zah irkan
Ġped ang
feed s
Terl upa
Ġk ombinasi
g esa
ĠN IK
Mag hrib
Ġbing ung
ĠHar ris
Ġmun isipaliti
Ġ Ñģ
Ġbert unang
Ġturun kan
Ġso ya
Ġsin is
Ġ ingg
ĠMuk min
Ġbad minton
ĠK AH
Ġ7 4
F ri
ĠS edia
ĠF an
IT H
)}; _.
um o
IN AN
ĠPeng asas
Su omi
Ġter atas
Ġkem asan
BAN K
ep it
Ġterb anyak
N AK
g rid
eb uan
Und uh
Ur ban
M ahu
M obile
Ġm eet
Ġdi masak
Ġkes ungguhan
Ġg ang
For ce
Keg unaan
ĠSE G
pap ar
ĠDIR AJA
Ġbe auty
ĠGu yana
ĠKEJ UR
ĠW orks
ĠFr ekuensi
ĠYusof f
ĠValent ine
Ġpel uk
ĠBimb ingan
et ts
Ġmen asihati
end ela
AH LI
ut ch
ok o
ĠLemb ut
Ġpeng alih
r k
oh idrat
ĠMah suri
Ġkeses uaian
ĠIv ory
ĠK ant
Ġpent ern
H ajj
L ET
Ġungg ul
L u
ĠD uta
mat or
ĠJour ney
Ġut amanya
ĠEv ents
E us
G una
N IS
ga ul
per ak
AL ISIS
remove Class
ĠVAL VES
Seg men
C ash
Ġmem alukan
Lap orkan
ĠM ani
ĠJ angka
ont al
ĠMu adzam
ĠSaw it
k ina
ĠKar ena
M ES
ĠM au
ĠT adika
Ġb ox
Ġg esa
ĠInf ografik
al ir
Ġseng it
ara y
ĠVal ley
Terj emahan
C ancel
ĠGel ongsor
ĠPort ugis
la im
ĠT auhid
ĠSer agam
Ġberg egas
ĠPERB ADANAN
ĠR antai
ĠR undiang
ĠN ow
ef lon
uz z
ur au
ĠJ i
R iwayat
Ð ¡
ĠS ia
Ġmen antu
Ġmen dukung
ama zon
j p
Pem ulihan
merc ial
C hat
a udio
up i
ĠAr au
F OR
ik matan
ta x
ĠTAH FIZ
Ġkej ar
ĠMEN DAP
C and
p ath
eng at
Ġmenyalah i
ĠR y
Ġ6 52
Ġtert ua
ĠP inggang
eh an
Ġap artment
ĠBOL ING
Ġpemb eri
ĠAr my
ĠS eal
Ġl umpuh
N isa
ter j
Ġtrading economics
ti bar
uz ul
ĠAsy raf
D F
uk ir
Ġmeng kh
ĠN AJIB
ĠS oleh
ĠW hat
I ron
ĠR elaksasi
eh y
Br other
keb olehan
y er
Hakikat nya
Ġtet ingkap
ĠCar r
P indaan
w anan
Ġâ ĸ
ank ing
CH ING
m oe
ag or
ĠW ani
men yatakan
Pela min
ĠPer atus
ar ea
ĠK lasik
â Ĺı
ĠL aki
ĠC rown
ĠP OW
angs ungan
Ġpr ak
Ġs taff
lah oma
Ġ19 63
ĠJur ulatih
b ach
hid e
n ombor
ĠG OT
ĠIND USTRI
E tika
K ahwin
b eza
ĠInj il
Ġmenj angkakan
ers a
ĠZ ambia
Ġret i
H t
Ġp ix
ens a
ant arkan
ĠS AF
anc ial
ĠAnn uar
SW K
Ġs olo
Ġse gan
S EG
ĠH ij
ĠPen ampang
Peng iktirafan
Ġwh ole
ĠSamp ul
ĠTaj ikistan
; _.
Ġd etail
P ink
and ria
Ġmemer hatikan
ĠK AS
Ġn ilainya
ĠT ulen
PENG IKLANAN
Ġs pe
ĠM inta
Ġmak nanya
Scot land
Ġkel enjar
&& _.
ĠMont enegro
Iklan kan
ĠT isu
Ġmeng ungk
Ġmeri wayatkan
ĠJ PM
Ġdip elajari
Ġjam in
R a
B atal
ok ai
IL AYAH
ĠCond itions
T engku
Ġp ej
ĠH OKI
Ġkond isi
Ġques tion
M ix
Ġlat itude
) ),
R Y
ĠT andas
ĠL AP
ĠAr th
ĠBah rin
ĠOr der
ĠOrig in
R BT
Ġpenc en
akh iri
ten tion
ic ine
Ġmenj anjikan
ĠMin eral
x ial
ĠH amba
Ġker na
Ġpeng acara
ĠPeny elesaian
ĠS uit
d w
ĠW ag
Ġdil upakan
TR Y
Ġj utaan
ĠY ak
Ġdis itu
L aa
ia q
ĠSet s
Ġmaj or
ĠHid ayah
ĠLan e
ĠMEDI ASI
ĠFer mator
ok ol
Ch a
Perc etakan
UJ U
Ġmengan tuk
ĠØ ¨
ĠCIK GU
L aw
X Y
Ġc irit
Ġ3 300
ĠIn stant
ĠP AC
Ġdi akui
ur et
K am
op ak
OR E
Ġdias askan
typ eof
âĢ º
Ġmengg eleng
ĠNam ibia
b eri
ino is
ĠIsti adat
Ikh las
mela lui
J urufoto
M UR
PER AK
ĠChar les
PENG UMUMAN
. '
Ġj ubin
Ġmem ujuk
Per ingkat
In verter
Ġweb master
edit asi
ĠJac ob
L AIN
Ġt abah
AT ER
Ġpro siding
Ġas pirasi
Ġkh alayak
Kes impulan
Ġmus y
Ġco uple
ĠP ita
AS AS
Pen uh
Geor ge
Ġj el
Ġkep eribadian
PER GERAKAN
E mas
ĠAN WAR
Ġ198 2
Ġli ur
ĠO IL
Ġsp ecial
ĠBU Y
18 2
ĠFas o
ĠS antai
D avid
ap ter
Ġpeny ata
PU ASAN
T engok
el li
ĠT L
ĠL UC
Ġop en
assalam ualaikum
ag li
lim au
ĠSeb alik
Ġsp esifik
TR AN
Ġc un
eh i
ĠKL USTER
ĠBarb ados
N ick
Ġkem elut
Mat lamat
Ġmut u
AR NING
Ġkh emah
F u
ĠD ada
eg u
Ġgas trik
Ã Ĺ
ĠP indah
Ġkem uncak
ĠAL AN
ird s
Ġpers atu
SB H
8 99
Ġmenj urus
Ġas naf
ĠAr as
ĠBer bahaya
Ġrakyat nya
angg ut
lad angan
ĠC Y
Ġmemper cepatkan
PERTAN DINGAN
Pul ley
S AH
eg arkan
ĠN adz
Ġkeb ijaksanaan
ĠHaut e
8 30
ĠH ER
Ġemp ar
ĠT ra
ĠAv i
Ġjug alah
ĠP anda
Ġmen ikah
ĠPut ri
ip lin
Ġb uktikan
Ġpenj ajah
ĠPin n
Dis ember
ons ep
J ust
M elak
s enyum
Ġs arang
ĠT au
ĠR ain
ill s
ĠBert empat
ĠMALAY A
Ġkes atuan
ĠMast eri
C re
ĠT rading
eg aran
ES CO
ĠKos mo
g eri
ĠKON TINJEN
ĠSis wazah
7 16
ĠKamar uddin
Ġmed ical
ĠT ian
Ġr ongga
UR E
Ġdik ategorikan
lus ter
ĠPil ot
Ġdis alah
IG N
ĠL APORAN
azil and
R ANGKAIAN
ĠNas uha
4 30
seh ingga
Ġp iston
ĠH F
Ġmengenal pasti
ĠMENGHAD IRI
d ie
or eh
ĠPUB G
Ġk ids
Ġt arif
ap nya
Ġsek eping
ĠZ amb
ĠPr ibumi
lar k
13 5
ĠSom alia
ĠS AMP
Ġmengh ulurkan
Ġlong titude
Ġk ri
Sc an
Akses ori
ĠT awar
Pend apatan
ĠBAD AN
ĠPeng etahuan
Ġmemb enci
imb as
ĠKS SM
ĠShad ow
Ġ urat
im n
ĠJ amaah
Ġberj aga
Ġbin ari
Ġdih apuskan
ĠG an
Ġf estival
ĠKamar udin
ĠWal es
P lan
T engah
f uck
Ġl earning
Ġsu ai
ĠPr ec
Sis ipan
ĠSamar ahan
Ġilla l
Ġ475 00
is it
Ġprot es
ecut ive
ĠTrip le
D ubai
l il
Ġk ampong
ĠM IX
min yak
bab y
Taip kan
Ġad egan
op ing
C epat
P AT
ĠK oh
Ġw omen
ĠMent ah
ĠS SR
ev in
Ġdatang nya
esi on
ĠPeny ertaan
ongs ang
Ġber unsur
ĠL am
O kt
ĠL awas
Ġla ptop
Ġberk elayakan
Ġmeny asarkan
if ikan
land askan
ĠTrin idad
ĠP ot
Ġbaik nya
Ġdij angkiti
Ġkon ek
Ġsin aran
aunsel or
C uaca
Ġc apai
ĠSt rok
Ġgel anggang
Ġl ead
Ġ? ?
emat ic
rang e
Sed ikit
B end
ĠL angit
Ġg ad
ĠMeng urangkan
Ġberp anjangan
PENG AKAP
ĠSUK U
K entucky
S iasat
Ġper f
rad o
Luc y
ĠK iri
ĠWang i
ĠS ow
ĠEM B
B utang
Ġt ype
F UNGSI
ĠTah ir
Had ith
ones ian
Ġkelak ian
Kom entar
ĠTEN PIN
r s
ĠB odoh
ĠL antai
Ist ana
C ent
T on
Ġmer ek
h ia
art o
Air bnb
ĠPROFESIONAL ISME
ĠK SSR
ĠT OL
we en
ĠRec overy
Ġs yarak
ĠB AWA
ĠL emah
ĠPERK ARA
lim ited
Ġuk h
p ons
r ate
ĠSer amai
Ġorang nya
Ġz ina
d ila
ĠM istik
ĠBat eri
Sebut harga
p andangan
s elamat
yak kan
Ġpeny edia
WP E
Ġt awarkan
ĠSay yid
B EX
ĠV w
Ġser antau
K ekal
K opi
L esbo
Ġmenc oba
Ġfre eroll
ob at
ĠNaf as
S ocial
T utorial
ĠT amadun
âĺº âĺº
eng arkan
ĠB uang
is ir
ĠR C
T Y
V aksin
Ġb n
Ġpen alti
Ġmem ecahkan
ĠZ uraida
Ġsep upu
ĠSet ahun
35 4
F enomena
OR K
ĠPe ugeot
s ain
UC ER
Sing apore
ĠKeb ersihan
Pes akit
ĠK AL
Ġseb agian
Perk akasan
R L
s bb
Ġ10 894
ĠL ing
Ġter ingin
13 8
Ġreb us
ĠAPR IL
S upp
ĠG on
ĠCON T
p lus
uk uhan
ĠB uatan
Ġberk e
CR L
Ġs yar
Ġpeng isian
umb awa
Ġ19 48
Bl ok
ĠJAW APAN
ask ular
2 12
uk ita
Pengg ali
ĠPack ages
ĠHAB IB
adiah kan
erti b
ĠDib uat
k esan
Ġdi gerakkan
ĠSh ukri
Gh azali
" :"
Ġk reativiti
per khidmatan
ĠSis ipan
ĠT al
Ġber us
ĠJ obs
Ak ustar
pis ahan
Ġs abung
Ġg usi
Ġmem adai
ĠBer masalah
ill on
ĠK ubur
ĠN uh
ĠPIN JAMAN
Ġber interaksi
ĠSer ian
ĠCar lo
Pas ti
ĠCAD ANGAN
V ersatil
ĠL OG
In formatif
Ġdib uktikan
ĠMUR AH
(' /
Ġmeng as
ĠG az
ĠPRO JEK
ĠAssalam mualaikum
H adi
Ġg ets
ĠLif ts
ĠMAR HAEN
Ġdom ain
oc ol
Ġucapan nya
S ens
Ġser ang
ĠKU ASA
H I
ĠJ on
16 9
m akanan
ĠBer lin
ish ing
Ġbu ilding
ĠT unjukkan
UMP AH
ĠDyn asty
Ġr ang
Ġg un
Ġsistem atik
ĠLE ARNING
-------- --------
Ġ ops
Ġ" ";
ĠEx clusive
vok esyen
en ch
ĠT iket
ĠF le
WW W
Ġb eza
ĠPar si
W T
Pas tu
ĠFit ri
ĠPP Z
ĠJim my
F ath
ĠKE GUNAAN
Ġken yang
T anjung
in line
ĠJ ihad
Ġsus ut
i asi
ĠT ungku
ĠPeng etua
U mat
ĠPer ancang
Ġpas ca
TR AV
AR KAN
ĠAl b
Ġrep utasi
ĠK END
Peng ujian
Ġkont ena
Ġr etak
ev o
A ishah
ters ebut
ĠZ izie
IK UT
Ġhel p
ĠINS TI
D umb
Ġdi ulang
Ġl ow
Ġterj aga
ĠSn ow
Ġar ena
ÙĬ Ø©
ĠPinn acle
] =
f ig
n amun
y m
ĠKER ETA
ĠIk lim
6 50
P AHANG
ĠPeny ediaan
nb sp
et ar
and ong
ĠC ED
angk asan
s ambil
Ġk ola
75 3
ĠId rus
ĠTer apung
Ġmembuat nya
Ġs oket
ĠA yu
Ġjawapan nya
ĠE CRL
Ġmend ahului
Ġsay uran
PUS TAK
Isti lah
ĠB AIK
ĠTer dahulu
Ġberd iam
Biar pun
v oid
Ġd lu
Ġmeny ewa
Maklum an
ĠIns ider
Ġd efinisi
Ġr ekabentuk
In sy
ĠAg ric
sh alat
Ġaq idah
h el
ĠB ush
Ġent iti
ĠLib erty
ul iharaan
Ġj iw
anj ur
Ġal ur
D iri
ĠP rev
Ram alan
Arch ive
Ġmolek ul
Ġf amili
H ub
ĠL edang
Ġterd iam
ĠSel idik
Ġb oy
ĠG am
Ġboleh kah
rit rea
Ġnur haliza
Ġr eman
ila s
ly de
ĠMel bourne
ĠZ aki
kar ya
Ġnew s
ĠDila kukan
ĠTurk menistan
ĠS IL
ĠAn as
l if
Ġg r
Ġc al
ac anya
Ġkes etiaan
Ġ og
l ig
il is
ĠPer unding
ĠFacebook Share
ĠKontrak tor
ĠBERT ULIS
usn ahan
6 12
Br and
Ġtentu lah
PUSTAK AAN
O SIT
Sebelum nya
ĠSes ungguhnya
ĠVol t
Cukup lah
ĠK UB
ĠA FC
ĠO PERASI
Ġ8 269
ENTI AN
ĠT ENG
Ð° ÑĤ
A Q
ĠW alau
ĠMen anti
K ongsikan
N iat
ĠT untutan
ĠR ujuk
Ġgh airah
J entera
R u
d as
c ca
k iri
ĠS uz
uc akap
ind onesia
Ġmeny arankan
Ġin tern
ĠD ot
ĠSela lu
Ġseb ilangan
ug ikan
T ulis
Ġk raft
el ess
ĠD eep
Ġf ace
ic om
F one
T OR
Z aid
Ġp ati
per cuma
s istem
ap alan
ĠF ive
Ġberp ecah
ĠMar udu
ĠIkh las
Ġbi ologi
A th
ĠM ons
Ġberk umpulan
M impi
Ġs ince
US IA
Ġhar moni
Ġdi elakkan
ĠL imbang
Ġd engk
Sek itar
ĠSw ing
E lec
z ed
Ġberj angkit
ĠSam oa
ĠEth iopia
ANG AR
Mas s
ĠM ulai
ĠT um
ĠD ian
Ġh os
IR ASI
ĠBER H
Ri uh
J ADUAL
Ġp asif
ol itan
Ġg am
ĠL Y
ĠKer ajang
Ġum mah
atat ertib
Ġsp ec
ĠR ia
ĠS asaran
ĠExcel le
Ġmend arat
Ġhidup an
pel ik
ĠAs m
Ġres ort
ĠMemb ina
Th en
O KU
qu ir
Ġprof ile
ĠLest e
Ġmeng irim
ĠGem ilang
Ġb lue
Pem eriksaan
Ġmen empuh
Ġdis ebarkan
Ġen joy
ĠA rea
Ø ¬
PET ALING
ĠKEPUT USAN
ot aan
ĠGr ain
Ġex am
s ebut
w alk
ĠG ob
Kh utbah
ĠM urni
Ġc ub
âĢĿ -
Ġlazim nya
ĠCommun ications
ĠA xi
ov ie
sch ild
(/ ^
Ġbil stereo
T ENTANG
t ima
Ġn ever
ĠTr ack
Ġmuh ibbah
K alkulator
Ġn utrisi
Ġmeng aji
ĠIm un
ĠSeles ai
pengh ulu
B ari
m os
ĠP antang
Ġb ocor
Ġc are
ĠBer guna
Ġsuk akan
2 16
ĠPB S
ĠSin onim
L ANTIKAN
Ġber ansur
ĠJ ie
Ġprof essional
SAP P
F erro
Ġc engk
Ġdib erk
ĠFaz iani
Ġmembeb ankan
Dar ul
Memp unyai
Ev ents
ĠW at
ip ar
Ġsed ari
ĠDI G
Ġmemperk asakan
L um
M ingguan
P and
Ġsetia usaha
W EB
ĠT enom
Ġc i
ĠF ern
sl ick
ĠVersi on
ĠMaur itania
ĠB aj
ut tle
ĠPenj awat
Ġg iat
ĠR onald
Tak limat
itah uan
ĠD agang
ĠR iau
UN D
ine ering
Veron ica
Ġpenc erobohan
Ġtab let
ĠT ree
Ġc oz
Ġmer enung
D ila
Ġkom isen
Ġtert inggal
b andung
Ġhits ABU
ĠAut ow
kes ihatan
ĠPERJ UANGAN
$ .
Ġk iriman
Ġj ajahan
47 76
ĠKw ee
Ġd orongan
uh uhu
Ġund ian
ĠP ANT
Ġover hed
C ERITA
ĠJ ones
ib ati
Juru video
ĠZ ai
B AB
ĠS ST
ol ve
AY AN
E ducation
ĠH em
ed e
ill es
Ġsecukup nya
Ġters usun
ĠPro ject
ĠSip itang
Ġters ayang
Ġdic ampur
ĠA EON
il fitri
ĠCo aching
ĠEx im
Mes h
alim i
ĠShari fah
ĠSy ariat
SUNG O
j at
ĠMarket ing
Mor occo
ĠB uta
ĠN ight
ĠF ace
AP AK
St udent
Ġoper ator
K ilang
ĠV eteran
Ġsekitar nya
R ama
b iah
Ġl ess
Ġc ampak
ĠF ire
Ġmer empuh
Pen ang
Ġhel ikopter
Ġn ilon
ĠP allet
ĠA AA
ĠJ ama
ĠSh ield
ĠK VDLM
ul ur
Ġs ap
Al iran
Ġ! =
Ġist ikharah
ha o
ĠZh ipu
ta uliah
AK IMAN
vertis ing
ĠCh ip
wa iter
fe atured
ag inasi
ING GA
ektro d
U mm
Ġberh impun
Ġperi od
ĠI J
ANJ AYA
C a
m ust
ĠS ambil
ĠB ulu
Ġ9 2
c uba
ĠP ARA
ĠV ig
Br unei
N N
al lam
AY I
ĠBerc etak
T ekan
ĠS enang
Ġn utrien
ĠN ABI
ĠSeb anyak
ren eur
pol itik
t own
Ġber aya
ec tive
Ġlaks a
ĠW ira
Ġseper tinya
Ġh abuk
ĠM id
ĠD av
ĠH R
eri ahkan
Ġ} )
empor ari
ir itual
ĠAngk asa
jan nah
Ġmengec ewakan
A lasan
F antasi
ĠCh ua
ear ing
nes day
ĠUst ad
AD K
ĠAs c
Ġl intas
ĠMeng etahui
Ġ198 1
ĠH ikmah
t oggle
ingk iran
Ġangk atan
Ġk eta
ĠM izan
Ġdis ukai
ĠMar y
Ġsain tis
Ġh uman
omb erg
ais y
Ã º
Ġ| #|
Ġsel ebihnya
Ġdit ipu
12 7
ĠDI C
Ġeng in
ĠAutow alk
as ian
Ġmeng orbankan
Ġmem ancing
v ir
Ġ ari
ĠAl ang
tab s
if ikasi
Ġdis empurnakan
isa uan
Ġek uiti
ret ariat
Plat form
Pember itahuan
Ġterb ongkar
Ġsus un
ĠFat in
off set
Tour ism
W alk
pag anda
ĠVII I
Ġmeny amar
ĠHish ammuddin
Ġtom ato
Ġc ourse
Asian parent
B iskut
ĠS arikei
Ġin stagram
ĠAb ad
ĠBER M
LIS T
kit ek
B ukhari
ind y
anc uran
ĠB ij
ĠG H
Ġkri ogenik
K reatif
ĠA V
Ġg andar
ĠAyah anda
Ġdihadap kan
4 23
u ya
ĠH atch
lass es
Ġnik mati
ĠPER IB
ĠPel epasan
ĠKep entingan
ĠKy rgyzstan
Ġint im
Y ah
ID ANGAN
Ġdig abungkan
ep end
Ġterd esak
ĠSU AMI
Ġder etan
Ub atan
n sy
set ting
U g
Ġpen ebat
11 8
ĠIst anbul
Ġsay e
Off ice
ĠShe et
Ġbar ing
ĠNetwork ing
Ġr eda
Ġrev olusi
ĠRoth schild
E book
Ġk ang
uk ulan
ĠT OP
Ġdib intangi
el usan
ac ruz
min at
om ing
Ġmeng elirukan
ĠV eterinar
urang i
Ġdin ikmati
ĠMaz lan
ER JA
ĠSt em
Ġkak D
H ebahan
N az
Ġm alahan
ĠR yan
ĠH air
ĠSp irit
Mem ilih
Ġpengalih udaraan
ĠS ew
P ekan
ĠP W
ĠK acau
ĠF uj
ĠPer akaunan
, !
ĠAs alkan
sk in
H E
Dia betes
ĠM AMPU
Ġr i
ĠI MAN
ĠMemas ak
ent ur
cir cle
c d
oo oo
let t
Dumb waiter
ya z
ĠKE AHLIAN
Ġpeng angkut
ingg an
ĠOr t
pert y
T W
BERS ATU
Ġb ul
Ġt entukan
Ġny aman
ĠBoleh kah
Ġs iling
Ġj ongkong
emp is
ĠAdd ress
r adi
ĠM ajikan
Ġpers is
Ġditer angkan
ĠPel esenan
ĠManufact urers
G ripper
T EMPAT
af an
ĠPen iaga
ĠExtr eme
ro se
Ġkek ej
Ġet c
r ir
ob art
L AT
ap y
Ġmaksud kan
L IMA
M ee
ir isan
sem oga
K DN
T EMP
Ġterk orban
Ġdif ikirkan
Ġsej ajar
ĠPEL BAGAI
Ġj Query
op timum
ev i
ĠK embara
ĠU kh
uc apan
EM ENT
ID AH
Es ok
ĠWalk ways
Ġbers el
URUH JAYA
4776 60
Ġg und
ind ik
E TI
ĠH ilir
ver at
uy ung
f lik
13 1
200 7
C apaian
ĠL upa
st ur
ĠTag ged
ĠV ictor
ĠSup r
r onesia
ĠK enali
Ġpend arahan
ĠKom ik
M antan
ĠL aserJet
T ran
ent um
ĠKes enian
ALA U
ĠHas y
ĠSEB ELUM
kec il
ĠT ac
aw agam
Ġter angkan
Ġand aian
Ġpenc ernaan
ĠO KT
Ġpr im
ĠBeras askan
+ |
A men
N ER
h entikan
Ġs osio
' ll
Ġb enang
Mic rowave
Ġd oc
es okan
ĠL ike
abel la
ib awa
Ġpel uh
ĠPel anggaran
S EK
S abda
ĠKo lam
b alik
ĠK ulai
Ġterhadap nya
oz a
ub arak
ic ia
ungg ak
uny ian
Ġd ri
ĠT EKS
ĠBer terusan
eks a
oz hou
Ġl iberal
ĠKem alangan
Ġila aha
Ġkec enderungan
Ġs olar
y es
ĠM am
ant ha
ĠHon or
s il
un ner
EN ZA
ĠAb ah
ĠMeng angkat
Ġberl ian
lv ania
Fat wa
ĠM LM
ari j
ĠBERS EK
[...]
