[PAD]
[UNK]
[CLS]
[SEP]
[MASK]
!
"
#
$
%
&
'
(
)
*
+
,
-
.
/
0
1
2
3
4
5
6
7
8
9
:
;
<
=
>
?
@
A
B
C
D
E
F
G
H
I
J
K
L
M
N
O
P
Q
R
S
T
U
V
W
X
Y
Z
[
\
]
^
_
`
a
b
c
d
e
f
g
h
i
j
k
l
m
n
o
p
q
r
s
t
u
v
w
x
y
z
{
|
}
~



¡
£
¤
¥
¦
§
©
¬
®
¯
°
±
²
³
µ
·
¸
º
¼
½
¿
×
Ø
ß
æ
÷
ø
Đ
đ
ı
œ
ɪ
ɴ
ʖ
ʼ
ʽ
ʿ
ˢ
Γ
α
δ
ι
λ
μ
π
ω
А
Б
В
Г
Д
Е
Ж
З
И
К
Л
М
Н
О
П
Р
С
Т
У
Ф
Х
Ч
Ш
Э
Ю
Я
а
б
в
г
д
е
ж
з
и
к
л
м
н
о
п
р
с
т
у
ф
х
ц
ч
ш
щ
ъ
ы
ь
э
ю
я
ѕ
і
،
؛
؟
ء
ا
ب
ة
ت
ث
ج
ح
خ
د
ذ
ر
ز
س
ش
ص
ض
ط
ظ
ع
غ
ـ
ف
ق
ك
ل
م
ن
ه
و
ى
ي
٠
١
٢
٣
٦
٧
٬
ٱ
ک
ھ
ہ
ی
ۥ
ۦ
ಠ
๑
ᄀ
ᄁ
ᄂ
ᄃ
ᄄ
ᄅ
ᄆ
ᄇ
ᄈ
ᄉ
ᄊ
ᄋ
ᄌ
ᄍ
ᄎ
ᄏ
ᄐ
ᄑ
ᄒ
ᅡ
ᅢ
ᅣ
ᅥ
ᅦ
ᅧ
ᅨ
ᅩ
ᅪ
ᅫ
ᅬ
ᅭ
ᅮ
ᅯ
ᅱ
ᅲ
ᅳ
ᅴ
ᅵ
ᆨ
ᆫ
ᆭ
ᆮ
ᆯ
ᆷ
ᆸ
ᆹ
ᆺ
ᆻ
ᆼ
ᆽ
ᆾ
ᇀ
ᇁ
ᇂ
ᴀ
ᴇ
ᴋ
ᴏ
ᴜ
ᴬ
ᴱ
ᴵ
ᴷ
ᴺ
ᴿ
ᶜ
‌
‍
‎
–
—
‖
‗
‘
’
‚
‛
“
”
„
‟
•
…
‪
‬
‰
″
›
€
⃣
™
→
↵
∅
−
√
≤
⋅
ⓦ
─
■
□
●
☁
★
☆
☺
♀
♂
♡
♥
♪
⚠
✅
✌
✏
✓
✔
✧
✨
✰
✾
✿
❀
❁
❍
❝
❞
❤
➖
➡
⠀
⭐
、
。
《
》
【
】
ツ
ㅋ
ㅠ
ㅡ
㏘
一
七
三
上
下
不
世
东
个
中
为
主
么
之
乐
九
了
事
二
五
亮
人
什
仔
他
仙
代
以
们
会
你
佳
便
信
做
傻
先
光
入
全
八
公
关
出
分
到
前
力
功
加
动
包
十
华
南
去
发
口
古
只
可
台
吃
名
后
周
味
命
和
哈
哥
啦
喜
四
回
国
在
地
城
多
大
天
太
头
奖
女
好
如
妈
妹
姐
子
字
安
完
家
对
小
少
就
山
工
师
平
年
开
弟
张
当
很
得
心
情
想
感
成
我
手
打
报
拉
拜
掌
放
教
敢
文
新
方
无
日
时
明
星
是
最
月
有
李
来
林
果
样
歌
正
步
武
死
毒
毛
民
气
水
江
没
油
法
流
海
清
火
点
爱
牛
狗
猪
玉
王
理
生
用
电
男
界
白
百
的
看
真
眼
知
神
福
空
笑
米
精
红
经
美
老
肉
胡
自
色
花
英
草
菜
虎
蛋
行
西
要
言
记
话
语
谢
财
走
起
路
车
辣
过
还
这
通
道
那
都
里
重
金
钱
长
门
阳
阿
陈
随
难
雄
雕
青
非
面
风
飞
饭
香
马
高
鬼
魔
鱼
鸡
黄
黑
龍
龙










































































































































































































﴾
﴿
﻿
！
（
）
，
：
？
｡
･
ﾟ
￣
�
𝐚
𝐛
𝐝
𝐞
𝐠
𝐢
𝐤
𝐥
𝐦
𝐧
𝐫
𝐬
𝐭
𝐮
𝕖
𝕣
𝚎
🇲
🇸
🇺
🌈
🌚
🌟
🌸
🌹
🌺
🌼
🍂
🍃
🎉
🎊
🎶
🏻
🏼
👀
👅
👆
👇
👈
👉
👋
👌
👍
👏
👑
👻
💁
💋
💓
💔
💕
💖
💗
💘
💙
💚
💛
💜
💞
💦
💩
💪
💫
📍
🔊
🔥
🕊
🖤
😀
😁
😂
😃
😄
😅
😆
😇
😈
😉
😊
😋
😌
😍
😎
😏
😐
😑
😒
😓
😔
😕
😖
😗
😘
😙
😚
😛
😜
😝
😞
😡
😢
😣
😤
😥
😨
😩
😪
😫
😬
😭
😮
😱
😳
😵
😶
😹
😺
🙂
🙃
🙄
🙆
🙈
🙊
🙌
🙏
🤔
🤗
🤣
🤦
🤪
🤭
🤷
🥰
🦋
🧡
##i
##t
##2
##0
##a
##x
##l
##p
##k
##n
##g
##o
##h
##A
##B
##T
##e
##c
##r
##d
##m
##b
##K
##s
##G
##u
##z
##v
##w
##y
##N
##Z
##5
##1
##9
##E
##M
##f
##D
##I
##S
##O
##
##
##
##
##
##
##8
##6
##3
##7
##P
##ع
##ا
##ر
##ي
##ف
##U
##J
##R
##ᅵ
##ᄂ
##ᅢ
##ᄅ
##ᅡ
##ᆫ
##L
##H
##и
##с
##л
##о
##б
##к
##в
##а
##W
##C
##Y
##4
##н
##е
##ч
##j
##ж
##q
##ب
##Q
##ل
##ك
##م
##ت
##X
##ز
##ة
##س
##п
##р
##т
##²
##و
##ق
##F
##👇
##ش
##ن
##خ
##ک
##V
##ج
##د
##ى
##🙄
##э
##ь
##ю
##д
##м
##ᆷ
##ᄁ
##ᅥ
##ᆺ
##ه
##ط
##у
##ɪ
##ض
##ı
##ᄋ
##ᅩ
##ᆯ
##ᅧ
##ы
##ح
##😂
##
##
##ۥ
##─
##ѕ
##і
##ᄀ
##ص
##ᴬ
##ᴵ
##ـ
##💕
##œ
##¤
##©
##я
##
##
##
##
##
##
##
##
##
##
##
##
##
##
##
##😁
##💛
##
##
##з
##😌
##ᅮ
##ᄇ
##ᄒ
##ث
##°
##ذ
##г
##
##ᄐ
##х
##🎶
##
##
##
##
##
##ι
##ᆹ
##ᆼ
##ш
##ء
##ц
##К
##И
##Ф
##ᴀ
##ɴ
##
##
##
##
##
##
##🏻
##👍
##ᄃ
##ᆻ
##ᅭ
##■
##
##
##
##
##
##
##٠
##ٱ
##
##
##
##α
##ᅳ
##ᄆ
##
##
##
##
##
##٢
##👌
##
##щ
##😄
##
##
##ᄌ
##ᅦ
##
##
##
##
##
##
##
##
##
##
##
##
##😳
##
##
##
##♥
##ø
##ᇀ
##
##
##
##❤
##
##🏼
##‪
##ᄎ
##
##ۦ
##¥
##±
##غ
##
##ᴜ
##ظ
##ʿ
##
##
##
##
##
##
##ᆨ
##
##
##
##¸
##
##
##
##
##🙂
##😭
##ᅨ
##
##
##
##¦
##æ
##
##ᅯ
##
##🌟
##
##
##🌸
##ᴺ
##
##
##
##
##𝐚
##𝐠
##𝐢
##𝐧
##
##
##ß
##Р
##
##
##𝐫
##º
##𝕣
##😅
##
##
##
##🇺
##🇸
##😊
##𝕖
##😃
##😹
##ᄉ
##ᅪ
##
##
##
##ಠ
##✨
##ی
##ᇂ
##
##
##
##
##
##
##ф
##🎉
##🧡
##😢
##‍
##♀
##𝐞
##¬
##ᶜ
##ᅱ
##ᅫ
##🙊
##♡
##ᆸ
##
##Đ
##
##
##🙏
##
##
##⭐
##٣
##𝐛
##𝐬
##𝐮
##😆
##�
##®
##
##
##💞
##×
##😫
##‎
##⃣
##
##
##
##
##😍
##ᆾ
##
##🤣
##ω
##
##ھ
##
##
##
##𝐤
##
##
##
##
##
##
##
##
##😒
##ᄏ
##ʼ
##😝
##😨
##
##ᆮ
##
##
##
##
##➡
##
##ᆭ
##
##ᄍ
##𝐭
##
##ᅣ
##
##𝚎
##³
##💘
##™
##
##
##🌹
##½
##
##
##
##🤪
##💙
##🔥
##
##😘
##
##
##
##
##
##−
##
##
##
##✔
##😵
##✌
##
##£
##
##٦
##١
##😤
##ㅋ
##ᄑ
##¼
##٧
##😩
##ᇁ
##
##
##😛
##😖
##♂
##🤷
##А
##ˢ
##ᄊ
##💜
##
##
##‬
##
##💓
##ᴷ
##😔
##ᄄ
##
##🙈
##
##
##😜
##😋
##
##✅
##ъ
##
##
##ᴱ
##Г
##У
##Т
##С
##
##ᅲ
##ﾟ
##Е
##🥰
##
##
##𝐝
##
##💗
##ᴿ
##☺
##ᆽ
##
##ᄈ
##ᴇ
##●
##
##ᅴ
##🎊
##→
##
##
##😬
##😉
##𝐥
##💫
##ㅡ
##В
##Д
##€
##✓
##
##
##
##✧
##μ
##😱
##🌈
##😏
##
##😣
##😑
##
##😎
##⠀
##ᴏ
##ᅬ
##🤔
##😮
##
##👅
##💋
##👋
##☆
##🤗
##ہ
##‌
##
##😶
##💖
##💦
##💔
##М
##👆
##🇲
##😪
##👉
##👈
##￣
##ʽ
##ᴋ
##👑
##✏
##𝐦
##😕
##🙃
##💚
##😇
##□
##😐
##
##π
##О
##😓
##😈
##
##👏
##
##
##😗
##
##💁
##🍃
##√
##П
##
##🙌
##😙
##λ
##
##
##😚
##﻿
##🖤
##µ
##🌚
##💪
##😡
##🤦
##ㅠ
##👀
##🙆
##
##Ш
##😞
##÷
##★
##💩
##Л
##✿
##🦋
##ⓦ
##¯
##đ
##😀
##
##🔊
##
##➖
##😥
##
##ツ
##๑
##🌼
##📍
##🤭
##δ
##Ø
##🌺
##ʖ
##an
##er
##en
##ah
##ak
##ar
##ang
##at
##al
##in
##am
##as
##em
##el
di
##un
##ya
##kan
##ad
##ap
##tu
##eng
se
##ik
##on
##it
ke
##ku
##il
##is
##ing
yang
##ur
ber
##au
##or
##es
##ag
##ai
dan
##ul
##us
##ir
men
##ol
##um
##et
in
##ut
##ih
##id
##uk
##ari
##ek
ter
per
##ab
##ay
##ia
aku
##ung
##da
##ti
##nya
##aw
##aj
##im
mem
##eb
##akan
##ada
##eh
##ga
##ok
##om
##ama
##ara
##alam
an
un
##tuk
##ep
##ed
##agi
##aya
##engan
seb
meng
##uh
tak
##ot
ini
##eg
##asa
##ud
##alah
##up
dengan
##angan
ni
##amp
untuk
##os
bu
th
##adi
##anya
##ac
##ent
##AN
or
##end
##ana
##ong
dari
mer
##ita
##eri
##ain
sem
##asi
##and
ada
##ua
dalam
##aan
##atan
mas
itu
##emb
##lah
##ant
dia
tu
yg
at
##ian
nak
tid
##pa
ker
##ro
##ri
kal
memb
##ati
##amb
##oh
##api
ju
##ta
##si
ad
20
Per
pen
##ja
##per
sel
tah
In
##apa
bel
##atu
orang
##ata
##ub
pada
##pada
mel
sek
##od
##aa
Al
tidak
##ib
##ow
##yak
al
pun
##emp
##ter
##alan
##oleh
kam
##aik
akan
lagi
the
##elah
##alu
dah
kita
##ic
##re
##apat
juga
##gi
##uan
##op
peng
##ahan
##agai
ken
##aran
am
Aku
##ec
##ukan
si
##ali
kel
##ini
##aru
##iri
##ew
##uka
##ER
buat
##uar
##ahah
menj
ng
is
la
pas
##ebih
##sia
boleh
##eka
kan
to
st
ban
##00
meny
apa
lah
##ila
##isa
tahun
##le
##ip
##leh
##AH
##ika
##ala
atau
adalah
kat
kau
kepada
ku
kes
Mal
mak
je
hari
ser
as
har
##orang
##anj
sama
ya
saya
201
Sel
berk
tapi
pel
min
ak
bagi
##udah
##angk
bah
An
##angg
##ingg
##asan
bers
neg
##ind
pak
##arang
Ter
lebih
##aysia
dib
##ob
oleh
semua
##angs
mereka
sed
and
jadi
##AR
##uah
dis
makan
kem
satu
telah
##umah
##uku
Ber
pem
lain
bisa
##iti
samp
##AT
Malaysia
##aja
pro
##aman
##gn
##ve
##ump
pr
##st
terl
##ej
of
bi
##ver
##ch
##awa
ap
anak
kamu
sebagai
##af
##epas
beli
##angat
pul
be
baru
kalau
##est
##ulu
##ont
##li
bukan
##alau
##upakan
sh
mau
##IN
dapat
##aha
man
##pun
##EN
on
##ou
##ly
kaw
##anc
##acam
##AK
##hh
##uat
##inya
ben
##nah
merupakan
banyak
##ulan
mana
##int
##AL
keb
rumah
dik
sebuah
Ind
##ee
ch
##ena
kar
##anti
menjadi
##uj
tr
19
##yar
en
##ust
mend
##gun
ag
##aki
ket
##idup
##ima
##lu
##AS
##yat
aja
##og
ters
##asih
terb
so
##ist
##isi
pemb
##apan
##AM
##man
kec
##ingk
sen
##etak
##hir
##na
##ina
aw
bal
bang
tan
##gh
Is
baik
ga
macam
Un
##arkan
berb
send
##aga
negara
##ajaan
Sem
##imp
##uc
masih
re
##ANG
##olah
seper
##se
sudah
##arah
##dah
kena
##amat
##aat
##ones
daripada
##angkan
##art
RM
nya
##mp
Di
##kin
dil
seperti
teng
temp
Tak
dit
##res
kami
ut
set
Ch
##bu
sampai
##esar
ar
##utu
pert
masa
##ebut
Men
sangat
##ilik
##onesia
##ikan
menc
tet
Th
pend
##wa
##uhan
##ami
Sh
##ula
##gg
##ingga
tau
rasa
ked
##enteri
##aks
su
##oc
kep
##erah
for
##aku
##had
Pen
##ra
##ajar
kom
wh
##ihat
hanya
Ku
terus
sendiri
##era
ab
pernah
##ue
sebab
keluar
Allah
beb
##ilih
Ker
amp
##elum
##ast
##anan
seh
##aju
##aling
mah
##ungan
##eli
##ekat
##ort
##ill
##ota
Sek
##lam
air
##ungg
##di
do
##tul
dulu
##ons
##kw
Mel
10
##olong
you
say
dip
##ram
##mas
##ore
sep
Seb
sej
sec
##uran
Peng
hati
bert
kerja
##umb
gak
hidup
##cm
##atkan
me
##amai
baw
ay
tim
ing
balik
##tara
ny
As
##ni
ti
gi
Kalau
org
##orm
atas
kata
suka
##mu
##ambil
##de
##dul
kur
##iran
##mm
##ood
salah
##akar
Tapi
perk
pl
##one
Yang
##ate
berl
dua
ses
##der
Har
masuk
##gk
tahu
##atang
##gunakan
us
terletak
##ani
##urut
##ual
##asil
pol
Indonesia
dgn
##uruh
bila
##EL
##tan
tem
##if
kali
jangan
##ayu
##az
##20
mengh
##our
Am
2019
##onal
##oll
##ial
##usia
it
##all
sah
##akyat
tidur
tersebut
##inggal
##adan
sp
pakai
##ii
ah
##tar
kalo
##ine
##ON
##ira
##UN
##ers
kl
##IS
war
##ans
diri
berj
##ilang
##epan
200
cer
Mas
jalan
ia
##iz
##oo
##aka
Neg
##unia
##ost
da
Kem
##akat
##utan
kanan
hal
##EM
seg
dekat
kerana
##aca
secara
000
##erapa
##av
sebelum
perlu
Ap
punya
Ke
berh
sekarang
##inggi
##uit
lalu
no
Ab
sik
kul
jam
##YA
##th
lama
##ce
##AP
##ack
##ike
St
##ingan
##unan
##oga
##ungkin
ialah
kh
##und
sekali
##unya
##iao
Saya
com
kej
##uma
##akukan
##any
##ahkan
seorang
##ampung
hahah
##ayah
Islam
my
Dia
wak
udah
Ada
serta
karena
##ham
##ide
ek
bersama
kerajaan
##inta
##antu
##IT
jum
besar
um
berkata
kawasan
##eta
tempat
mu
##edia
bulan
Kuala
mcm
memang
##ma
sus
par
anda
peny
Ini
Si
malam
##akap
##adang
up
##gt
beliau
raya
bl
nk
Menteri
Ar
##akit
##aikan
##oy
berd
paling
sekolah
##andar
Ad
##ff
##gak
mes
Pro
##angsung
##ond
memberi
##uang
##upa
##lim
##epat
Pada
Or
selalu
##awan
##min
##uu
mal
##tur
##tua
beberapa
##uduk
katanya
nanti
##ihak
##elaki
Set
##UK
berp
##ikat
ok
sini
##ink
sk
##ith
sy
ketika
pagi
##tif
lepas
##ampu
##usan
##ES
Jangan
##antik
liao
##omb
##iba
harus
##anjang
##ei
that
masalah
##adah
seti
lo
pergi
ac
but
##ey
##tor
diper
dir
tent
pers
Kel
##unj
##amu
##egi
not
##ell
##AD
mul
##anyak
negeri
dij
##eker
saja
Pas
dr
membuat
li
##duk
Dan
##lis
nasi
##ght
##angsa
##urah
##awat
##yai
##ikir
##engg
##agu
setiap
##ny
##illah
sup
pent
##antan
Ak
##ess
##UR
##ov
##angor
Dat
##IK
dim
##ET
En
bawah
kek
##usi
Pr
belum
saat
##ank
main
tengok
Nak
kak
kasih
##abis
##arat
##akin
antara
##olo
##sh
##ij
##ampak
can
ex
##ilan
depan
rakyat
##uru
##imb
memper
##itik
like
##ry
te
Moh
banget
betul
##we
utk
##amun
##ilah
kawan
mata
##ere
lelaki
nama
pihak
mener
##entu
terk
##awab
he
wan
##ie
dunia
##aitu
bay
##app
had
##ation
duit
##masuk
##gram
pes
##aji
berm
##are
Selangor
##abar
Dalam
pertama
##oto
tanpa
tadi
##engk
##lm
##ikut
gue
##uta
lap
tp
##han
tel
##punyai
em
##ran
cakap
sayang
##unc
mempunyai
Mer
Ah
##enang
baju
sih
15
Dr
##hadap
##IL
de
kenapa
##agian
##alkan
go
##ard
##unggu
harga
12
mus
datang
ye
##ug
##omi
##ukup
akhir
##empuan
PER
Keb
time
##enis
pake
aj
manusia
pulak
Hahah
waktu
##auh
##elas
sb
langsung
el
isu
res
kulit
ind
##umpur
Hari
##alui
br
Kerajaan
##iliki
##pt
##ark
ibu
cuma
Beli
selepas
dem
##AHAH
Kita
did
##IM
08
Mah
##itas
##yarakat
naik
Pak
pu
jika
ramai
##ait
terd
siapa
30
##UM
##ili
##dang
##abat
hingga
Kes
##ingkat
11
leh
Pem
termasuk
tolong
##san
##ous
##US
##arik
Sy
##atakan
##apkan
keh
##inc
##apak
##jek
##ha
by
##kut
##abatan
##unt
So
##hamdul
kalian
##esi
##enar
terhadap
tinggi
sm
##inggu
Untuk
mat
ha
mendapat
es
Lumpur
sur
kr
pin
##ome
Ay
sehingga
sesu
##kk
kemb
##iden
mungkin
Apa
luar
##aaa
##itar
##idikan
Ked
##ajah
makanan
Joh
##isan
##ambah
le
##tuan
ne
##ollow
amb
kecil
Meng
##mad
Ken
##sa
##ity
Dah
##inan
with
mengg
##uman
The
##ook
ras
lupa
melalui
##aut
gr
Kar
##yarikat
buah
gun
##hi
Sab
tetapi
eh
DI
tiba
Ser
awal
##ambar
##awatan
bag
bod
cari
perempuan
##tim
##aian
Ia
##onomi
##hat
bat
mengen
tangan
pilih
##ungi
##engar
kiri
fr
was
##amad
bahawa
biasa
ingin
pe
iaitu
tengah
sakit
##urun
14
##tak
##tion
terj
##UL
Par
badan
##adar
##aaf
rep
pet
Ya
##anu
are
##asar
pasti
##pl
##vers
daerah
pula
##ss
berg
penting
##ui
##ambut
Pol
benda
this
##mi
put
Selamat
18
##ologi
##uri
we
##ING
lagu
##ame
##hamdulillah
mampu
kereta
mod
##ase
##akarta
cerita
inf
##udian
##engah
##caya
##abila
Tid
##uy
tentang
##ital
pand
##tiv
Kal
Sep
produk
##UT
kn
Melayu
RT
sedang
memiliki
Tan
Bah
##tr
perb
keluarga
##oba
ka
nih
Pel
semp
ins
100
##amanya
Datuk
##esa
##jid
##awak
juta
PR
terp
kurang
kira
##AY
co
masyarakat
##ember
##kwk
##ideo
##ilayah
Tr
habis
##OR
Jadi
minta
##ebab
muka
Negeri
menggunakan
##ori
ur
bar
##ism
##AW
##alaupun
Man
##ihan
bak
penj
Seri
ko
Beliau
batu
bab
kot
##enterian
##amatan
bud
##tikan
siap
##lik
##angka
sos
##ikin
Az
##ayak
pan
kembali
##askan
digunakan
Se
komun
korang
##ish
wanita
one
Bukan
##aham
##ensi
tanya
belajar
Mem
##atus
##tern
adik
kedua
##antai
kok
##OL
##ice
pos
##ach
fil
##weet
cara
##oran
gel
##wit
##omp
##ekerja
Mak
##AG
##ongan
##ola
Tah
bgt
cukup
##IR
tek
SE
##rat
Ag
##apun
dih
mati
##tup
##angi
##ru
##AB
selama
Sekolah
##anding
##akah
Nasi
AK
##OM
tinggal
##ilai
##iah
dig
##andi
Kau
jugak
biar
anj
##ert
##asaan
Put
gitu
##teri
##istem
##ayan
Orang
##ment
tetap
agama
melihat
KE
##itam
just
ayah
Kh
lu
cantik
dh
pon
##erb
##dh
sikit
teman
lor
your
Ok
kampung
Johor
##uti
nampak
##ree
##edi
##unjuk
##ju
Semoga
##rah
##port
##buh
##ally
ro
jauh
##ID
jer
##cing
masing
perm
takut
##ect
turut
##uba
para
IN
Harga
Mus
##angis
##ng
Tim
##din
Bi
##ne
lem
##ivers
tanah
bahan
##mat
##idang
##ura
##ebabkan
##IA
##ite
sbb
##enc
##atuh
##tud
Mar
gila
Rp
Min
##dana
program
##ick
##ef
##50
tert
all
if
##isah
Alhamdulillah
jenis
op
Bila
sahaja
kesel
##za
##19
13
##ENG
mudah
##so
##angsaan
##egitu
Sul
##mg
Dari
##ajlis
Baru
buku
agar
##AA
hasil
##angunan
Kami
cont
##ock
kos
##bagai
Bel
Ket
lg
cepat
buk
##ahw
jual
##usat
membantu
bek
sambil
Pul
bas
sejak
kap
##atif
kemudian
50
00
bahasa
kaya
Negara
BER
##hid
sedih
##air
sebanyak
##okok
ik
from
##ohon
##tah
##anda
Anda
baca
barang
##usnya
##lang
##ela
##adaan
berat
gambar
##akang
##lo
duduk
##ev
apabila
dap
setelah
##ajib
politik
##ail
16
##ubah
berlaku
##ehe
sis
pelajar
##ungai
kini
bikin
memas
17
tul
Air
##eran
penc
media
minyak
##untu
##anggung
##amil
Kementerian
##hone
perl
Aw
##etah
##age
sub
tiga
##opi
At
sebenar
##angga
video
jumlah
Abdul
malah
ayam
mo
##anjut
dok
berken
Shah
Li
dic
Br
pasal
minum
##mana
sol
dong
##yah
##ibat
con
utama
din
diberi
RM1
dlm
sal
kt
WA
##erint
undang
##DA
bagai
then
##oses
kons
susah
##alik
##umber
bandar
takde
AS
Ni
Alam
angg
##amah
No
tuk
melakukan
##ayang
Terb
##ven
Sar
##uskan
##ihatan
order
Dis
Rep
##ress
##wan
wor
199
Pemb
sc
ekonomi
mengambil
Hal
##angkah
Sed
##akhir
##ile
##ener
masak
##alnya
##lum
01
bis
benar
kuat
ma
Tun
Kenapa
2020
Tidak
bur
mengenai
##witter
SM
##ukul
##emu
##indu
tok
berada
ang
berc
ahli
Jalan
bro
Pend
##mb
Kep
Perdana
sekitar
budak
##anakan
##her
turun
sil
ikan
ikut
seluruh
ingat
##ustri
ob
##ll
Raya
##aid
guna
what
##oi
##agia
##eki
sia
kelas
diken
Me
##enti
Dengan
KL
##ash
syarikat
sana
##OT
##ikit
##ris
Jika
##own
jumpa
##seku
##ampir
mula
cl
best
hub
Ketua
##AU
Kat
Tuan
Jakarta
##OK
##oreng
##OS
Boleh
Kamu
AN
mulai
hahaha
kaki
rend
Itu
Bers
kont
uj
gua
tuh
##eluar
##aaaa
sosial
peg
##ape
##ose
Pres
sistem
pat
##lat
##ril
berkenaan
seri
awak
mesti
##uda
##ARI
##AJ
MEN
maka
##ender
##ig
huj
follow
##kur
ped
##irim
##ujud
namun
semula
mis
##ingkatkan
##entara
##out
gini
warna
usaha
haha
hak
terbaik
temen
semakin
##la
##ass
##ajian
##nn
ger
have
##pe
supaya
##qu
hi
minggu
pelbagai
##aksanakan
begitu
##agaan
meninggal
Bagi
off
##dara
Pet
member
##arg
25
terlalu
sering
##umpulan
##adahal
Kota
wilayah
beras
rambut
out
##org
belakang
bet
panjang
SP
##anggil
Muh
Sabah
jd
sl
##IH
Pert
##uny
menerima
maaf
##indakan
##engganu
##kn
terima
##yakit
UM
##way
mb
##GA
memberikan
AKU
Mereka
Terima
##alaman
pilihan
bos
##cik
Mat
ja
##perasi
walaupun
24
rt
##ady
buka
marah
##ukur
bilik
##aksa
##be
berjaya
##ace
ib
perkara
rez
bahwa
##impin
liat
##ewan
##asanya
car
Kan
Jabatan
simp
penuh
##faat
##very
##ca
##idupan
##unga
##akkan
##antung
mot
sedap
puasa
##eks
makin
##ft
Kom
penggun
lemb
selamat
##ayar
tiada
21
mengan
##yen
Ib
##line
pastu
##ki
will
kucing
##okasi
bakal
dilakukan
putih
##matan
Buk
ambil
Be
suami
bangun
cuba
they
##su
##okow
Lap
##tt
still
Re
TER
keadaan
Mau
hilang
##angun
kedai
guy
Jom
bilang
kanak
mur
bodoh
##PA
Kab
##onton
esok
##itan
diter
##ker
##EK
nik
Sen
Pulau
##hhh
don
bawa
foto
Semua
##salam
kepala
War
Presiden
Sej
Namun
tk
##ebat
##kah
Kampung
bin
##rr
##aksi
mandi
Perak
##rop
##utusan
##lan
##abi
kon
##nologi
warga
Mes
##UNG
sampe
##ikal
Wan
2018
##OD
tunggu
Sebab
post
##esan
##ikasi
sar
muda
got
Sultan
Selain
##ern
situ
pintu
sedikit
##empat
sing
wa
##abung
##ahwin
hai
alam
parti
##ERI
wajah
cinta
mengikut
Kedah
vir
##okowi
##vel
segala
AL
##uli
pulang
sesuai
enak
Ng
##co
##olak
##imana
##adian
mmg
tip
jawab
samb
kerj
okay
Ac
##ory
emp
sw
##yum
##ens
##hidmatan
sebelah
ver
wat
##ona
##atur
also
##form
Melaka
td
##ancis
Menurut
##nyata
pukul
tua
##aikum
##juan
##ban
PH
##rg
##war
##eter
##apai
##rib
##kus
terdapat
jelas
agak
Eh
##anji
Kebangsaan
##uanya
bes
Terengganu
##RI
kol
laut
Ek
pendidikan
jaga
panas
dpt
Siapa
##osp
##erika
##adu
berku
sabar
rezeki
Ti
Kalo
Univers
##ole
##zah
inst
##titu
##tuh
arah
##ANYA
##orn
India
##asarkan
Jer
fir
id
goreng
April
sebenarnya
##angku
suruh
22
semasa
il
anjing
##awai
now
##alon
##antikan
filem
sat
semoga
Pin
##ade
khus
##limen
Taman
pengh
proses
mahu
bo
tindakan
##aitan
##gas
sesuatu
menarik
kehidupan
##arin
abang
##ahang
##jak
bagus
China
Amerika
akhirnya
##ulai
##yataan
jgn
##entuk
fak
bern
percaya
##urkan
murah
deh
##gu
Makan
her
trans
sorang
imp
##ese
##uni
suk
Jum
membawa
amat
suara
pengen
##ilangan
##ci
##enda
##vi
##utus
kadang
pop
part
It
cm
jatuh
##erti
##ye
kaum
Seti
senang
##old
##ck
kuasa
merah
##men
##enuh
umur
##AC
##epak
Da
##uci
##ekan
sab
##erl
beg
kac
asal
##ediakan
gw
##EE
Bar
call
##umi
##ungguh
bentuk
##appy
terut
##jir
guru
##riend
cam
diam
Kec
lat
gt
Yg
cik
mew
Majlis
DAN
##ongk
Ahmad
str
##ich
tik
##EMB
Mei
##ajaran
km
mendapatkan
tgk
##ger
teg
##sekutuan
Perancis
##nak
perj
Us
Mohd
##ord
mencari
projek
##sp
##ingin
berapa
zaman
tep
##yy
##irkan
##antau
day
yaa
##ote
bapak
dag
##usah
##olongan
##araan
##ias
##ewat
##bah
##erang
##umpah
bantu
bot
im
##AYA
##AI
Sarawak
##NO
Sp
gad
##able
pot
penduduk
Karena
##amadhan
##TI
Memb
##ary
his
tweet
bekerja
##isme
perang
##athir
last
##ult
bus
##ho
int
know
cr
langkah
23
bahagian
Kelantan
kisah
##kwkw
##kt
make
angk
##ewa
pasukan
##uld
##erintah
##ream
laki
##40
##ilion
aktiv
sese
laa
Gr
Hahaha
Um
menyatakan
wkwk
Sri
##uas
sib
##unjukkan
Buat
Rakyat
kayak
Tel
##wah
polis
hampir
ta
##ammad
##awi
dri
manis
##osi
nggak
Samp
dibuat
##oin
Sal
tubuh
prom
pi
##12
And
##ner
semangat
kota
hitam
Jaya
bayar
Assalam
seseorang
##iku
##annya
##angkat
pembangunan
My
kew
##alis
##odoh
kor
yuk
##ld
rem
Ibu
penyakit
bantuan
##ses
##anja
may
40
##ONG
##ekerj
Mahathir
kenal
keputusan
sesi
guys
Pers
Sing
kakak
##aus
##UAN
##ji
UN
meh
##ikm
Bh
##arian
menyel
Masjid
PK
##EP
luc
##ber
jabatan
##antar
meningkatkan
Selatan
try
Besar
segera
##ower
UMNO
nangis
##te
##ulis
##insi
faham
selain
keti
##owo
##hl
weh
Barat
Hai
##edah
kopi
##adakan
jah
##anyakan
##urn
##pp
terjadi
##ihkan
anggota
stud
awam
##eluarkan
industri
good
seng
sok
perasaan
##awal
get
ST
PERT
Perk
Ins
##uhu
Sungai
sgt
seramai
##ement
Sur
##udi
##rak
##IB
gaji
##bar
ist
Fil
twitter
##aten
##alankan
bola
more
Ras
##ited
Rumah
sin
Banyak
##ejabat
kumpulan
Anak
dasar
##asama
think
fo
##ospital
ten
##alk
Mac
art
##ayaan
semalam
hor
##fi
dengar
mengur
##inal
Tuhan
tempoh
ris
##30
##ingat
ul
Raja
ri
Ma
##RM
Bisa
aman
bekas
Tem
KU
198
masjid
Jep
motor
kas
##ualaikum
BN
##atas
berkaitan
rib
##aris
every
Su
##osa
##akai
Feb
leb
bidang
##TS
##ikiran
##nik
##ral
bermula
Persekutuan
##no
##OP
PAS
nilai
menyebabkan
##opee
bilion
any
##amily
What
##yarat
##ull
##oa
##nis
suatu
peratus
keper
Ing
start
##EB
Parlimen
##anjung
antar
##usaha
##uddin
Hi
##xt
##rik
##sapp
Bandar
##ium
##rol
Batu
##day
KP
Pl
##unyi
##ake
Dewan
##vid
Lepas
Jam
banjir
bir
##ARA
##itif
##EW
Res
maks
##ife
##IP
dep
##inggit
ade
##ron
##ode
rendah
##ukum
ji
##akala
##ance
Tet
##tg
gag
perkhidmatan
desa
seles
emang
##engkap
##adb
Sudah
##alahan
##ool
Pi
sepanjang
berbe
##unuh
##ren
##erita
umum
memastikan
##ibatkan
Satu
##ambat
##raj
Te
Timur
hujan
Kak
she
##ser
60
##abu
bahagia
Peny
maklum
link
pemimpin
##lin
skrg
solat
##apatan
ed
app
komp
26
merasa
menang
Ram
Ahli
lewat
##akon
dek
##alian
isi
semb
hand
uc
fe
##10
Salam
##angkap
terakhir
##orea
first
melayu
##hy
conf
##jawab
milik
peringkat
fit
some
dikenali
rindu
pemain
penyel
gab
iya
##AMA
##bat
Dar
Bagai
tahan
##andung
##ED
Utara
##abangsa
##urusan
##ajak
500
menjadikan
##awah
pusat
pec
rm
Bukit
##IC
Tahun
27
##read
##upaten
Tolong
##ka
Ses
kadar
senti
Lagi
##ilihan
bunga
##iter
##sel
Seh
##alami
only
##aliti
et
demi
##ullah
##act
letak
Kej
##ubung
##ush
cab
jg
##rasi
hmm
ilmu
free
Iya
Jokowi
area
##tw
sentiasa
af
##amin
soal
Pahang
menunjukkan
peluang
kenyataan
28
##IV
##allah
Salah
##enal
ternyata
##my
kang
##uruhan
jawatan
pres
empat
Setelah
mutu
##mail
##ANT
ruang
##otel
tiap
kecamatan
Mu
rel
lanjut
##raf
Program
##ahu
##arap
RM2
Sub
##cri
##asis
harini
##andang
Muhammad
malas
##of
##anyi
sa
fl
back
perc
asli
##utang
new
kejadian
##ungk
##agram
##kamah
##murah
Syarikat
dur
kit
El
duk
karna
gem
berubah
##anggap
kahwin
##entang
teruk
##manapun
YANG
hel
##aktu
Asia
udh
po
##empatan
rek
Dapat
##land
need
mob
ck
cap
##uktur
baj
##pek
Inf
Assalamualaikum
##andu
musim
chat
##ting
over
##phone
hutan
isteri
Sekarang
berjalan
tamb
##udukan
lari
##asta
Pendidikan
perub
##cs
##ST
baharu
Yuk
bawak
Pos
ditu
##daya
Sk
hubungan
##fer
ret
bayi
##atuan
golongan
##alang
2017
##anggungjawab
##13
diberikan
Jun
emas
see
##ahaha
##ampus
prof
##EH
##etik
susu
bg
##uncul
bener
##rajaya
gam
##etu
sul
##erh
cok
padahal
give
Muslim
New
##ational
DAP
##aruh
menteri
alat
Dunia
Masa
HAHAH
mar
Lo
abis
##OH
##ukai
top
keseluruhan
Bat
Cina
Macam
##eck
##isang
Rah
##ahun
malu
biasanya
aut
kapal
##ould
##zz
##iling
##lease
maj
##UH
Sebelum
##wn
petang
gimana
food
hehe
long
YB
##urus
ajak
Mungkin
penat
##bum
##KAN
##aksana
Ketika
##asilkan
mom
fikir
ngan
has
##ungsi
teknologi
hadir
terbang
ringgit
##rip
yah
Nur
log
roti
tud
Wah
share
ment
year
##ahagian
teh
##ANYAAN
indi
29
Bahan
##yo
##ikian
##ople
##ence
popul
PERTANYAAN
sumber
janji
lima
##ams
bebas
comp
aktiviti
##ton
##esen
dak
##ents
##ektr
Jav
lihat
##ty
##kuran
PM
##gan
Bl
On
asing
He
darah
##endak
##impi
##II
Co
##egang
pokok
##he
Le
Sup
memp
hij
##atih
dimana
Cl
##eksi
menjaga
ayat
##utup
sempat
ph
Setiap
Nama
##embang
when
fi
akibat
Tok
Ju
##embangan
##sk
Masih
calon
##sion
##indah
hat
##orkan
family
##ormat
##2019
gl
norm
##ggak
##uju
uang
taknak
sejarah
bant
sehat
bahkan
pay
mahal
Pusat
Kabupaten
##ruari
berbanding
memilih
2016
wah
unt
IS
lip
Nasional
smp
##KM
##ais
deng
##andaran
##22
otak
pal
sau
Ali
butuh
##TM
Go
tangga
muncul
down
##inda
mama
said
Bur
##ampur
perut
wang
mengatakan
##hhhh
kab
##entar
dar
des
pekan
there
rakan
kalangan
Lapangan
ba
bau
bagaimana
Hanya
Eng
ide
##ANGAN
sahabat
Ist
2015
end
rec
Mana
pad
##cript
ngga
tujuan
##nd
lampu
##roup
##alitas
harap
berita
##asnya
##imak
lainnya
##imu
him
kesihatan
##UD
kesan
##pd
Beb
##ekerjaan
coba
##okong
pekerja
mil
menghad
yakin
Haha
Universiti
##alanan
even
##aiz
usah
Terbang
Dir
Ro
tumb
##go
terc
siang
ape
Mohamad
##iaya
##iman
2014
hang
##ings
Jepun
contoh
via
jar
Pal
##cl
saw
OR
##aim
Kul
intern
lahir
disi
Sebagai
alasan
tempatan
SH
bank
##OW
bertu
selesai
##unda
##ascript
Memang
how
PEN
##fat
##reen
You
dm
Javascript
berikut
##UP
##awang
Teng
Tanah
Bag
Singap
Walaupun
Em
sepak
individ
##ayakan
mengand
Follow
dkt
##irl
Kam
##alagi
Kur
Intern
doang
Katanya
Im
bec
info
##ge
##kuasa
Tp
ru
their
##syen
##ujuk
pant
tahap
mintak
berdasarkan
lemak
laporan
akun
##niagaan
Hidup
SEM
ckp
work
02
doa
TH
MAS
Ramadhan
##jo
rasanya
MENT
tambah
Pinang
cek
dapet
##ains
##orry
babi
##ba
bangsa
want
pendek
Terd
Februari
##aun
api
keselamatan
##etahui
##60
##ahaya
khas
Sil
##ancangan
##ure
semuanya
keras
cel
##ping
##aper
pelab
mencapai
##ret
##nt
##elang
pandai
who
tepat
US
##angani
utara
##ema
##emen
Dulu
murid
Timb
##adiah
Lebih
kedudukan
Ye
klo
##wal
##idi
teb
ki
sementara
happy
nikah
them
Jawa
terh
kant
tangg
##ech
Wilayah
here
urusan
##ikmati
##Al
##umlah
cuti
##ainya
197
Putrajaya
hp
pasangan
layan
##oni
tol
##awanan
##itkan
##ze
##AGI
Es
##ALA
##iranya
gagal
Sementara
drama
data
bad
Kap
DM
kalah
Aman
Kr
Nanti
bagian
pac
Mari
sebarang
##anggar
##rahim
cor
Nov
nonton
dapur
Pat
##likasi
dat
yo
Tu
sayur
hid
jen
##11
##ime
Najib
##ustom
##ohong
##ulkan
mulut
Oh
##uck
Daerah
pener
##UA
lokasi
Ri
Oleh
sun
qu
naf
##asakan
harapan
berbagai
coklat
tutup
Tengah
membaca
##arut
tukang
play
melibatkan
##erta
De
dilaksanakan
ig
MENTERI
Ex
Arab
Jerman
manakala
Maaf
bakar
Sampai
Polis
barat
sungai
very
##anuari
gat
mengalami
tentera
terg
##udahkan
AM
anti
Bahasa
##ies
##TA
friend
Udah
pegawai
##NYA
##ADA
##iii
berhenti
##pon
Jl
##bl
nie
##fit
rah
pantai
penggunaan
##iss
##YAT
##ehatan
pengg
##amaan
##intang
Dem
tun
kewangan
##mar
acara
PT
menurut
Buku
disini
Seg
Saat
##inaan
Iran
##hatian
pri
Cont
sehari
Malay
med
leg
surat
##ouse
##gr
baby
exp
individu
mangsa
PP
people
trad
##apati
##kwkwk
ps
pingg
Ger
Ko
kene
ask
##arga
Dua
##esign
##ocok
menyediakan
swasta
majlis
TV
##mal
diambil
bor
##afe
##akwa
unit
##kr
##EG
kamar
##ingkatan
loh
MAL
pendapatan
SEL
berusaha
##ASI
game
##ahanan
##esanan
sibuk
##ugerah
Rasa
bul
##KW
Meny
kebanyakan
31
HAR
##entukan
perbandaran
##isasi
dahulu
Ga
sektor
Antara
mengel
model
##tic
##estasi
Januari
##ps
Semb
melaksanakan
Bank
hahahaha
##uhkan
terpaksa
ditem
ganti
menuju
tarik
##oss
##adangan
##tle
##ANA
buruk
Af
##hing
timur
dilihat
disebabkan
##HH
##uasa
hm
sumpah
acc
lepak
##omet
##aq
##dag
namanya
pus
maklumat
love
pembel
kurus
inter
batik
##ainan
##80
##yang
tepi
##ATI
Timbalan
pengguna
mobil
berf
angin
Mo
##uji
Akhir
bersih
SO
pisang
elok
Ingg
##ork
Wanita
menem
elektr
mutualan
kajian
pertu
malaysia
kacang
##RT
bangunan
AD
Leb
Terdapat
Kerja
pekerjaan
eng
mag
##vinsi
about
perjalanan
minit
dirinya
##umkan
##asaran
##impinan
##bo
hutang
Ayah
KAM
inv
sihat
tukar
##oke
##eee
bapa
##Allah
besok
##yik
##ct
serius
pinj
terutama
Tek
seni
##15
##tian
2009
##ahh
##entera
Car
TAK
too
bermain
##ater
##undi
##pis
##atian
Gun
album
az
team
lol
##bb
miskin
Ut
buang
2010
##ipas
##ublik
##uki
##ora
na
jad
nger
##its
##erusi
mac
let
sesiapa
menangis
SK
##inj
khusus
##bi
45
oth
Tinggi
##anggup
##ejut
90
##PS
Sc
mi
##ez
jel
DARI
##asiswa
##rs
Mul
##aiki
SI
##amak
##amakan
tw
menerusi
berharap
##untukan
Selepas
perniagaan
tenaga
2013
tiket
##ten
##egah
cikgu
Sama
Lemb
operasi
indonesia
Repost
panggil
Peg
apakah
look
tenang
##luan
##umpang
kecik
kasi
tido
##ongsi
GA
35
##enya
taw
pandangan
##aporkan
##ester
sias
##erial
terasa
##les
Akta
May
kering
jarang
alias
Berh
bio
##IVE
##99
meminta
pengalaman
after
Penang
##ALAN
geng
##inasi
##edit
demikian
But
##ainkan
BTS
##dn
tugas
##yukur
##ruktur
##ulang
##aul
really
keperluan
rup
pah
##14
##LAH
##iko
nasib
##ariah
##abah
Hmm
daya
serv
modal
##enangan
Sum
run
join
##88
cew
dll
NG
##abil
mimpi
Atau
Sah
kerjasama
##irm
terkenal
70
##son
indah
##aknya
##omong
##emuan
INI
##iks
##kand
##back
##abowo
Bal
tg
Fr
##ken
Cara
Mod
PL
Malam
##ute
Korang
##tas
bodo
Dato
pur
sebulan
week
Bo
##fa
kain
##utnya
tanda
Ed
online
dun
##17
PD
aq
islam
berusia
##aih
wujud
Harapan
kekal
Vi
Sya
##araf
##amkan
##aksanaan
Perl
##va
##row
high
budaya
jemp
skin
Aziz
##UMP
##titusi
Has
open
Haji
why
terbesar
menunggu
gk
##indak
kemas
kah
##UB
AP
minat
##umahan
##rb
##ely
lib
##ator
hukum
terlibat
RAK
segi
196
##andingan
must
##arm
##iring
dana
tas
##icara
##als
tentu
##asihat
##aring
pemerintah
lembut
organ
##AND
met
##ombor
##EC
maksud
yak
agensi
##tinya
Gak
PEMB
gil
hadapan
muslim
gula
Nor
positif
Quran
trus
om
jak
jom
terdiri
lang
brow
berhubung
saham
diorang
##let
please
samping
perubahan
Korea
##udahan
belanja
cur
##ertai
##alikan
sebahagian
##dagangan
Cik
tdk
Pes
pasaran
plan
perhatian
Padahal
Ham
##JA
lengkap
Singapura
##reak
We
085
##ause
##ise
sedia
minuman
ged
ulang
Nah
##45
umat
kond
##entingan
##taz
Ha
For
dianggap
heh
##ANI
die
##edar
klik
Pilihan
kelapa
ketiga
vi
##ture
Ibrahim
##uuu
Best
keter
Pan
lau
AW
##ajin
##adikan
pesan
dadah
pasar
syarat
##by
Com
AB
##irian
seter
##aksud
sedar
##urat
beri
senyum
Ayam
its
Info
layak
dom
##adbiran
take
##uter
##enj
Sept
IP
univers
Hahahaha
tamp
kad
##ebihan
Sec
mohon
ev
kebangsaan
sang
Aust
tekan
berani
terbuka
Anwar
dew
jerawat
Do
##orong
RAKYAT
jualan
Abu
##enuhi
Mad
##77
bertemu
byk
status
Shopee
gaya
Bas
oh
##fore
Bud
balas
##ASA
daging
sampah
kosong
allah
##mbuhan
##eras
nd
Pernah
##ony
Raz
wajib
perangai
##ated
Piala
apapun
##imal
admin
##irah
berbeza
##fah
Pay
manfaat
Sm
fitnah
##omor
meninggalkan
##eral
kend
##ebook
hospital
keku
##ataan
jin
Op
Bak
usia
cat
membuka
##onya
##ajuk
##ailand
##oot
virus
bil
takkan
##umur
Pagi
Aceh
dapatkan
##indonesia
##kh
puas
##erahkan
thread
lambat
##uaran
menjalankan
kun
Pengarah
sanggup
##eman
check
Order
hebat
##usahaan
pegi
##ober
meningkat
harta
##atasi
##guna
##away
aktif
setahun
Biar
sud
##arti
##aliknya
##ingung
saling
##ations
del
payah
##ida
keg
Gue
##uga
##erak
##ukung
saudara
kehilangan
##usu
##endah
##intai
##sian
##iput
##BM
reply
mengaku
##ts
kesalahan
##anyaan
angkat
sukan
##pad
pelanc
dtg
##TUK
##esaikan
patut
##tuju
tertentu
tambahan
fokus
kesehatan
bole
list
##ilu
durian
rest
park
Thank
next
Menj
gol
faktor
peruntukan
##inar
##ajuan
Fac
##ition
##38
##erd
##itahu
abah
80
##umumkan
Antar
ngomong
temb
##mn
BUK
##awasan
Perlis
September
story
Bab
##astik
##akt
menikmati
##erg
komen
##hkan
##uarat
Maka
Tur
than
##ilangkan
meter
##anggu
##ubungan
membangun
##yuarat
Kol
##rap
jog
diadakan
sejuk
##sur
##elar
menghasilkan
Hak
study
Mohon
Siap
Baik
##ancar
karya
##oma
Gi
##eris
bernama
DEW
##jah
##etapkan
##not
Diper
##elaskan
lucu
##pir
##ope
kegi
gar
##ical
Bhd
custom
##led
terlihat
Ast
Pembangunan
##rast
##ancarkan
bon
gener
MB
YA
bac
##udang
##ganya
##ujudkan
Bek
FR
stress
mai
kuota
membeli
salam
Ph
##imat
##enderaan
##zi
Id
300
maju
##fl
NAK
rasmi
fav
membentuk
Bay
phone
dorang
##erlukan
gas
Amin
KUALA
form
feel
##raya
pejabat
Trans
nombor
requ
pesawat
diterima
which
Kons
Hasil
Lalu
ambik
KAL
kematian
Twitter
che
Cor
Betul
bukak
Asli
Komun
deg
BEL
khususnya
##awarkan
red
beda
##arket
real
##anian
simpan
##aftar
##adium
##ubungi
before
sawit
band
gu
inform
full
Apakah
LIS
Had
hadiah
##formasi
Filem
Bang
Ny
##alas
hubungi
BIN
tradisi
Kl
Kadang
group
##wi
pic
##fek
##enek
##UU
##reat
memerlukan
##aib
##jur
32
##unci
sya
berbuka
##uali
niat
seterusnya
apalagi
##alin
##adem
menjual
Sau
##una
soalan
girl
other
##KK
Sembilan
##omo
Sumber
##indungi
browser
Cuma
sew
kegiatan
nyaman
##impan
##enyum
ON
##angkang
ujian
begini
##ismillah
Ismail
Tanpa
Tol
##oon
soalnya
##vo
asyik
rapat
yaitu
hendak
##OC
lakukan
Ta
##atik
##shop
kipas
##abaya
Wa
Terus
##itamin
##minat
seminggu
Inst
cle
mendengar
##iq
Kedua
Liga
mengeluarkan
##AF
La
paham
##RE
joh
kirim
life
Bu
##55
pembinaan
##kg
Baju
whatsapp
Tentera
lapar
cem
##anggan
er
Industri
tudung
##aturan
Berd
DAT
pikir
##iner
ketua
Sa
ID
bersyukur
IG
bumi
terutamanya
Penc
##SS
##33
##AKAN
Mahkamah
WP
##yung
kapan
Kon
NO
rata
##16
dikeluarkan
tulis
timb
##niah
##ukaan
sial
Okay
##obal
bisnis
UNTUK
ketingg
ADA
##lic
##jana
Ekonomi
sn
##esh
Produk
law
ribu
hotel
antarabangsa
presiden
dosa
Pakatan
##auan
##adik
##idil
krn
TID
cu
ros
JP
kepentingan
single
dibawa
takda
##kul
tgh
somet
Okt
def
Thailand
gadis
ketemu
strat
##round
pecah
##70
promo
Masuk
IT
##ATAN
chi
Ayo
##onik
##antara
thank
PKR
##ino
Pertama
##ompok
36
##gos
iku
Suk
pertanian
##amba
sepenuh
##po
jasa
udara
##IF
mood
##get
JAW
38
memba
##ITA
pandang
Kok
##enggara
##ipt
sumb
kemarin
##DER
##yan
dibuka
Seorang
##iak
Kata
##ecial
##juangan
keber
##zik
##etan
##gain
##andungan
##unch
lapangan
kuliah
DEWAN
CH
BI
##nti
our
meja
##alanya
dikatakan
##ahari
##ehat
##olog
Ingat
lengan
bantal
##ume
under
super
Nas
kim
Ari
Med
##etakkan
latihan
##ke
##date
Pengerusi
##utr
##untuk
##lahan
Abdullah
##rastruktur
##zin
##agam
##oli
##embagaan
film
pakaian
##ooo
shop
November
sokongan
2012
tuan
##do
##idik
wkwkw
tersenyum
##enarkan
pentadbiran
obor
peranan
rajin
cukai
##ampang
sebelumnya
kenderaan
arwah
pulau
Keluar
##daft
##iiii
Julai
##ampaikan
##amatkan
pep
Perm
ip
siasatan
Dasar
Ang
RE
##erhana
##otong
rak
menu
##ahter
Agama
menit
Jawatan
##encana
##ning
come
bukti
mc
setakat
sidang
ataupun
disebut
sens
berasal
II
##duc
##anjian
mental
Bin
##ipta
2008
##top
cadangan
cannot
ciri
tanggal
Ros
line
##omba
##other
Mend
Tidur
##AHA
##ebar
gen
mikir
##KL
Menc
jodoh
akak
DP
satunya
Oktober
##enter
enggak
dijadikan
##ENT
lawan
lul
pengan
penjara
Jgn
##alangan
rendang
perkembangan
##kip
stop
masker
selatan
##untut
##aza
Waktu
raja
enam
##antas
##ono
wkwkwk
pd
Prof
cermin
sapa
##ling
##kenalkan
##18
Kanan
malem
bareng
Disember
anak2
cocok
haram
boy
Lama
##olat
Sejak
much
bingung
mengurangkan
sekiranya
Ne
keje
risau
ala
##48
##ire
1M
boss
##erintahan
Bersama
##erit
Inggeris
Sedih
pub
Bagaimana
##ekalkan
pn
##angkutan
campur
##utuskan
Bersatu
##olusi
##APA
Con
pre
Seperti
telur
melaka
tag
curi
##ving
##etail
perh
Yah
sungguh
Klang
kontrak
##incang
Pejabat
kuih
##enting
gara
wis
lan
alami
power
Perang
berter
##bur
##me
lak
##angnya
##amar
##mau
2001
memul
Badan
viral
dg
jiwa
##UMPUR
adanya
Hati
Provinsi
mant
ty
##ashi
Parti
perlawanan
cuc
ajar
##ADI
kub
Tetapi
PENG
Lah
jahat
Nabi
support
##ajikan
International
Austral
LUMPUR
##eeee
Contoh
Subang
Foto
Lim
##ason
##atim
kebaikan
bib
anaknya
Sabtu
Seksyen
ear
normal
2011
bn
undi
Sayang
menambah
##END
terba
sebut
rupanya
Kew
laju
spe
Sukan
##istik
##ene
gelap
benci
RM3
reb
doakan
stay
Pertua
trs
##ding
##oney
wakil
Sl
buy
level
##wak
perak
mesin
##gkau
berkuasa
EX
##utuhan
Lab
Kit
muk
##ching
##kod
##fitri
tanggungjawab
##SI
peduli
##ahagia
##incin
setia
##urna
net
lawa
those
Isu
tingkat
comm
kurung
pertanyaan
rus
pengurusan
amik
Rom
lingk
pelik
SEK
olah
ot
##load
##kipun
prem
maybe
kut
better
biru
##ways
Ikan
Ogos
##oner
pertumbuhan
##ERIT
Abang
##tus
padi
##pet
##imakasih
dec
KET
Bantu
##uth
update
berdiri
pasang
huhu
##idah
##umpul
gigi
##aip
Sun
Suruh
Masyarakat
GUK
klin
Hospital
Muk
mun
vs
##daan
kil
dibawah
Kim
korban
Good
Bulan
show
kg
many
##com
aplikasi
##yle
Sdn
##23
Petaling
dijalankan
lab
lok
kayu
mkn
##uluh
55
##intaan
Rasul
Han
Banj
serangan
berdua
##90
BP
##ekah
##kurangan
Prabowo
City
##awar
##ale
##elak
NI
daun
bergerak
halal
##ancang
##care
penerb
most
pengel
stu
Walau
##AIN
Din
mengadakan
tv
Minyak
menghadapi
sch
Sw
##asik
lemah
Dapatkan
Belum
##ohonan
##AMB
kerusi
##irik
##imin
##atikan
Manusia
MP
One
BANG
Pe
##ftar
tips
same
##olehkan
Kor
nder
##iksaan
grab
LISAN
bersi
PRU
bed
Whatsapp
##DN
sikap
meneg
##TER
##tip
berarti
sambung
##ikah
##ambung
##atis
Apabila
Ben
ukuran
never
##inding
hijau
Australia
Nasib
diperl
prot
##jaya
195
Berb
##25
Say
menyertai
PEMBERIT
aspek
##anjaya
Bismillah
WIB
sisi
##etul
##akak
alhamdulillah
##AMP
PEMBERITAH
sorry
Part
way
Fir
entah
bunyi
sebaliknya
KM
Otak
##akaran
sahur
##NI
##tulis
##abuk
cons
Tiada
perusahaan
mov
Ul
beradik
lt
again
kertas
##UC
##view
Zah
pelaksanaan
SMK
walau
##SIA
break
haiwan
Kas
##isik
##udaya
Poskod
##ulah
##juh
##oday
kag
##hu
##AHAN
shah
ngel
KEL
pemandu
menolak
were
ditemui
institusi
Semen
kementerian
##IAN
##nam
hujung
comel
HARI
Takde
##78
##buhan
##odo
disel
Fak
sdh
abg
bohong
dont
Pantai
sifat
sd
##isiatif
smpai
jari
Syed
All
dijangka
Ramai
##por
bagaimanapun
Wh
##eriksaan
##jin
##ready
tat
##ident
semata
##arnya
PB
Amb
sure
Kesihatan
right
##OG
cour
jap
pakcik
Tengok
bekalan
kemudahan
KER
ais
der
berakhir
##ALAM
##empen
bawang
asas
luas
plus
diet
dipakai
ringk
##inet
ge
Cr
would
##ello
##andat
##umiput
##ange
Warna
##iru
hantar
selesa
ai
dewasa
pelaburan
##unjung
##ath
Laut
##ayangan
menya
tot
Pand
Akan
##obl
pemenang
##str
##ombak
Lu
##manfaat
YG
##AIL
universiti
Kereta
Esok
pm
##egara
sadar
Baca
Pekan
Jenis
won
kemana
United
sepat
##asm
##ular
melebih
Paling
##ria
##ahwinan
konsep
bukannya
Antarabangsa
##xi
Panjang
##asional
pinjaman
Rindu
UP
bung
##yid
lepastu
wr
tab
berlangsung
##elanj
tl
##arif
##idilfitri
dipanggil
Cari
sengaja
##ahami
Dit
well
##ATU
langit
SEB
perkataan
Bul
berik
HARGA
cuci
##ilin
Angk
Kek
sepenuhnya
##dy
taman
Beberapa
kesian
##set
digital
nenek
##amer
Tenggara
##ayanya
##ungguhnya
denger
03
Dib
Facebook
dada
##pirasi
##enangi
cita
gemb
FREE
big
doh
##APAN
##lish
##arakan
BU
##ough
##jazah
klinik
design
menjawab
already
##OO
potong
mr
kelak
cina
besi
menyer
ol
##endol
##AAAA
GR
##har
UT
palsu
Sakit
##uch
bertanya
APA
MEL
##timb
##atin
Perb
Sis
MIN
##uuuu
takd
##ayanan
shopee
##24
ayo
peningkatan
plastik
Happy
BAR
##acun
Tanjung
ucap
Akhirnya
##ize
##ley
Rahman
##000
peserta
##iskin
##utrisi
##ews
reg
##gunaan
##ungkinan
tunjuk
should
setuju
##SM
Teknologi
Keh
Maj
belah
##ayaran
Time
menyus
##okrasi
##aren
##irip
putus
##AYSIA
Awak
point
Balik
abad
pembangkang
Republik
Ir
SPRM
##esal
##engaruh
##utin
fin
halus
Dipertua
botol
Cinta
Emp
mengikuti
RM5
##UAR
berhasil
mempert
Minggu
Sbb
Dip
sewa
sedangkan
Undang
Brit
cuman
trav
##ropah
memenuhi
tulisan
##ful
gelak
hard
berper
pelanggan
Kena
Lelaki
##ex
memandang
Kulit
nnti
##adz
plak
efek
Desa
##tain
pelakon
##oriti
web
peris
##GB
Lokasi
##adilan
##daftaran
mbak
gap
pemerintahan
Ka
Kemudian
dibina
##ection
##ebu
tetep
##efon
Cepat
##cayai
kilang
Dep
jantung
##PADA
##asikan
pindah
amalan
##28
untung
Bes
jur
kesempatan
infrastruktur
Bagaimanapun
##alaysia
Rest
kekuatan
##umiputera
KUR
##ograf
##95
##tau
Menengah
melebihi
Kewangan
instagram
##uster
##food
Insya
menyak
makcik
aset
33
mn
book
Eropah
menutup
popular
menulis
been
Ramadan
Berk
##ecah
BIS
##istan
Jawatankuasa
padang
##ete
gojek
Razak
##erangan
tanaman
sempurna
Ge
pembelian
##put
##ves
##epet
mamak
34
nyanyi
urut
Fl
GIVE
##eni
pap
Sam
##21
MALAYSIA
sejenis
mengk
kecuali
tengg
menjelaskan
pa
blm
##yk
Ukuran
jag
bangk
Alor
##ahankan
##uam
peri
##66
Luar
Kali
Itali
sate
##km
Terk
Band
##abak
kandungan
sam
sign
dagang
Coba
kebun
This
Gl
bilangan
mon
Kumpulan
perbu
Tadi
##kurang
MAU
Instagram
##alur
stok
##ero
berbeda
sir
kaedah
disediakan
##OB
ms
##ening
##etahuan
pek
##emas
Darul
Pasir
Bis
sisa
amanah
pegang
maupun
##ider
col
membolehkan
##tupat
bs
hahahahah
ama
kejar
##rama
##esu
##ph
Selalu
Fit
End
##hlas
##ambing
##waan
##andakan
talk
non
ketid
sekalian
Moga
##intas
KEN
##alakkan
dihad
##light
sore
##ausaha
##udul
rasuah
##erj
##ENGAN
versi
##EMP
dilantik
SW
##alani
Red
fac
Suruhanjaya
terkejut
Er
##for
sukses
Hus
menyokong
##imbang
##operasi
Turki
Tau
perasan
kotak
itulah
##indungan
sukar
##FC
Il
mahkamah
##entikan
mari
because
resp
##pm
komuniti
pihaknya
Ur
##DB
tamu
kepad
pedas
siri
##amuk
mengetahui
Super
Suka
##daftar
mendapati
lag
arahan
##LE
lancar
use
kawin
##arak
##egori
akaun
Sos
pelajaran
##arkoba
Ters
sebaik
semen
Bapak
beng
PROM
mulu
parents
watak
##self
always
Far
150
informasi
Ip
##enangkan
PEMBERITAHUAN
Tempat
terlebih
kangen
##jil
##emban
nah
##insip
##gus
size
suku
perjuangan
artis
sta
kelantan
Sekali
Mengh
##umsi
75
permohonan
Jumaat
British
##ayat
pendapat
student
rawatan
sempena
##isyen
report
tegur
av
##afik
##ips
eks
AT
cover
##amed
IC
##ric
menentang
result
merasakan
She
lim
langgar
nasional
Weh
##alth
Sebenar
Mil
Kasih
perdagangan
##yol
##enaran
##iriman
Mall
tpi
Tamb
##amanan
Pegawai
kaf
##gkir
##imum
kecewa
far
dijual
case
Pap
fb
##ajang
diku
bertindak
menangani
gerak
diperlukan
42
Umum
##icial
mewujudkan
##KWKW
##onok
kondisi
gant
##inga
kemenangan
##ukuman
PAK
##ampuan
Dh
tertinggi
##untukkan
Mc
SET
##aint
##kkk
Penj
##blem
Sch
##thing
berkembang
##ating
##thday
##kuh
mengandungi
##KI
##ild
##ucapkan
pip
sederhana
Video
bosan
HP
Tahniah
##owok
Pastu
bayaran
Media
##untungan
mamp
Siti
bend
dipilih
##NA
Rm
Lagu
inc
##oko
##tukar
##RA
##ogle
Ik
KAN
Bandung
Rabu
rej
Masalah
##mah
getah
##yu
head
sad
ucapan
##tir
##andingkan
help
XL
HAHAHAHAH
internet
##nes
laman
menurun
Malah
Amp
##ograp
2007
Bad
##fe
reti
aneh
tapak
##75
Pengen
##bitkan
Guru
slow
mengandung
btw
doktor
Simp
Lembaga
##ato
bergantung
##pres
##umbang
Cukup
ws
memakai
ready
old
Mama
ubat
takleh
##orning
##umpa
##io
Terl
terbaru
seneng
RM4
MC
seks
sebag
hany
##endam
Persatuan
##INE
##oro
pakar
##reet
fungsi
perlahan
ts
kelompok
since
Berat
##ily
BAN
##apu
##ella
##ards
bersatu
idea
##tually
dlu
laluan
setengah
Kini
48
Para
##adio
bh
berpend
##OV
TIDAK
##oth
##rin
##alahkan
##eliling
##isten
generasi
cincin
Rasulullah
ringan
##erv
Pertu
mont
##otor
menyebut
pacar
perg
Bahru
ketawa
Muda
DUN
Padang
kejap
##rom
kabar
##ental
menyelesaikan
bibir
Sebenarnya
nikmat
##AIK
##itm
##arch
care
ditahan
remaja
nanya
years
##warna
perkahwinan
ORDER
##aster
##intar
kuning
##emua
##SP
nel
hahahah
##sss
ra
kesed
ey
dingin
PDRM
JU
penumpang
mengubah
Barang
self
Cantik
##onom
Berita
##apain
##otan
##intah
##iness
aksi
job
nas
##cle
##less
segar
class
membina
Angg
rancangan
subuh
##ulas
Perh
tump
Met
bintang
Secara
##buhkan
Habis
service
tungg
##YAK
##airan
Terbaik
Yus
Kawan
inisiatif
muzik
hy
Harap
bukanlah
tuhan
stat
Zul
Material
pass
DR
tumbuh
##elan
##friend
mengatasi
##antaran
lum
##uw
term
pemilik
bertahan
posisi
Mcm
##angguan
##turunan
berasa
Bunga
##atap
##ars
era
confirm
##alat
##ikh
##illa
Kuantan
sejumlah
Pasukan
##ilkan
everyone
gatau
Bro
permainan
keren
Benda
kus
##EST
Ternyata
travel
tri
telefon
epis
polisi
situasi
into
parah
pengeluaran
##urga
dilaporkan
Kang
##endang
nomor
##elit
kud
##med
jenayah
pria
den
##lee
Aidilfitri
song
##tanian
##angkawi
izin
##ampiran
read
Ustaz
dn
bertujuan
##26
today
kejayaan
tipu
kekurangan
port
terang
##sikan
gampang
ramadhan
Park
##erikan
Size
##aras
2006
Gua
tiba2
Kanak
wait
##omen
##AAN
grad
cal
##ondon
##que
punca
populasi
pelan
##kup
drive
##bab
##ifi
KH
fun
##ebak
masakan
##agh
makl
gig
diff
customer
##alid
##emah
##raga
##anjutnya
bertanggungjawab
terkini
something
mengenal
Istana
37
Nik
##tra
obat
##ogor
Cap
lek
dam
##oooo
##kon
Diraja
Long
##ibah
kacau
berkahwin
59
memasuki
##nye
gitar
giveaway
jangka
bertambah
emosi
PAR
subs
daftar
ibadah
diatas
hab
##ler
##esional
nasihat
##lus
ditetapkan
Naik
##ann
DENGAN
unik
berikutan
##awapan
kantor
kelihatan
##udin
luck
lho
gaduh
Selasa
Sangat
du
laaa
##ubang
Jad
Sistem
eff
##akna
To
problem
##arusnya
teringat
xde
mencintai
Ten
pengetahuan
Ui
Rt
konf
##osed
##umba
nunggu
permintaan
##ungkan
menawarkan
pangg
##yt
##sus
##dangan
##amsung
memegang
jamb
gabisa
##ayangkan
toko
sumbangan
Bahkan
Imp
mewak
RAYA
##ject
memutuskan
Free
SD
kasar
hukuman
##ampilan
Keluarga
##tik
2004
##orth
DIS
gais
yaaa
##96
sepatutnya
menjalani
jujur
Sains
memahami
ngerasa
bangga
kehad
rokok
fat
##aklum
sekaligus
BUKAN
04
##jing
office
Bahagian
cerit
add
##elasan
##jan
Mudah
Up
tinggalkan
Cent
saiz
06
Sabar
##obi
Tangan
emak
gunakan
##tok
spes
kunci
lot
tit
DARIPADA
Pri
##tiwa
##ARAN
Team
expl
kup
perbuatan
Anugerah
##to
##EAN
contact
Kah
##jata
body
sarawak
65
pusing
##etengah
Belajar
move
mengumumkan
Entah
tar
kebutuhan
kecantikan
kari
##emuk
King
Org
home
mba
plat
Adik
KES
##47
phot
##ipan
matahari
##amping
##xy
pinggang
##ahagi
land
##SH
##orld
separuh
Pertanian
lebaran
tujuh
MU
##shsh
asam
global
##sA
Des
titik
IND
mabuk
##sy
LAGI
##ejar
membunuh
Star
##LI
##anjutkan
kualitas
Selama
##oka
Sedap
dad
sulit
##utuhkan
##arikan
##br
POS
sebagainya
peral
memenangi
ulama
Zain
ram
pil
apa2
pengajian
Berhormat
Aduh
##aff
##leep
Inilah
Lee
lantai
##KU
dikenakan
OP
eksp
Wak
doku
##adangkan
menimb
Bon
##alog
silap
##pool
##mer
05
lingkungan
Nya
kp
kpd
##imantan
TR
SER
Hotel
seolah
larut
##uncak
biji
Kepala
ditubuhkan
Kesian
tetiba
Fel
Asal
Khas
Gab
gur
##ody
tgok
win
requir
##cayaan
##ukti
##ergi
Isra
Kemb
##yn
Sepan
Like
Sumpah
boc
mahasiswa
##35
##ulasi
##ebr
Makanan
depa
39
kemalangan
kemudiannya
##nyk
Sebuah
Sesu
Tiba
##AWAY
Memper
berhampiran
kop
diketahui
Azmin
cahaya
kebenaran
berwarna
black
##anye
tern
gunung
nyari
Belanda
##ajam
sekadar
Sepanyol
##agar
biaya
lulus
Perempuan
##val
demam
kelab
##ujur
GIVEAWAY
Abd
drop
Perkhidmatan
##ambutan
stock
dikit
luka
pulsa
memulakan
mewakili
prakt
##iksa
##iskinan
Mur
akses
Kong
##ashion
sembuh
Setiausaha
MENG
shi
Ped
mean
##rig
Bangsa
dp
moden
dipercayai
Cel
ngn
menemukan
emg
##itra
Putra
##INGG
##indahan
nan
train
exc
final
rela
petani
##ters
##nin
##arget
kehadiran
Ki
Bali
cak
Buah
silahkan
standar
##andom
paket
Mohamed
mending
##itung
##eheh
takpe
live
Kepada
jarak
patah
mengemb
ngantuk
2000
##sib
menjelang
sangka
Sik
hot
Pasar
Perlembagaan
gede
##ukkan
##asilan
##andas
##punan
berikan
sape
event
keep
Gunung
ANDA
sabah
##egahan
Gh
Pakai
##inggah
novel
##osir
where
berjuang
bercakap
##ids
PRK
##ude
tekanan
##ao
berminat
Kin
##iki
John
aduh
##azar
laptop
##34
##TT
singap
46
garis
Mi
kemungkinan
alih
bersetu
High
jaj
##CT
##ors
Jan
bahaya
rosak
##ugian
ALLAH
mirip
Click
##angkaian
Hy
##emat
bunuh
##vil
hamba
Hutan
adil
##sApp
kasut
merujuk
tulang
bermanfaat
BERS
##ras
Banjir
Fi
anjir
bkn
JANGAN
sop
lawak
mantan
antaranya
membayar
##obat
pengundi
dul
movie
merangku
teriak
##gar
Bakar
hah
johor
mad
Lain
kompl
Institu
jelah
Putih
kategori
menahan
meletakkan
##engkapi
peraturan
Last
ml
makluman
bulu
##ampau
Begitu
silam
basuh
##andangkan
RM10
Uj
##upun
Buka
##endiri
##sea
laku
Projek
night
Ibn
Sat
##aria
Sus
##utar
tolak
miss
##aikkan
lilin
jela
##erian
away
tes
##eda
##elanjaan
bijak
meet
##ibu
melindungi
Sehingga
jaman
##ediaan
400
pls
##eld
papa
melepas
kampus
TAN
Main
segini
Nampak
44
Agong
month
##atah
sudut
alm
##uktikan
pertemuan
meneruskan
IM
elektrik
mesyuarat
##IKAN
##ombong
quit
##incangan
gus
Sorry
Semangat
prinsip
company
bersetuju
saj
##agang
##isit
cewek
##ogja
remp
ketinggian
##oe
Kain
bernilai
##fir
Utama
cream
##irus
inget
##SA
##umbu
ntar
bukit
Day
nmp
Rek
##unjungi
Dik
Barisan
Sumat
##ekatan
EN
beroperasi
penulis
turn
crush
perumahan
Maret
##2nya
##ahiran
##count
Gad
baginda
gembira
SOALAN
##ery
##ohanan
iklan
Gel
penerbangan
Indah
##andal
own
burung
kuah
mencegah
belom
memperoleh
sambal
istilah
##GG
##tiraf
scr
##ubern
Ash
1MDB
sg
kamp
##olehan
import
Mata
##asana
RI
Pasti
Malaysi
bermakna
gangguan
melawan
Ipoh
##uatku
Pihak
##KT
Stadium
pikiran
##asang
AH
Jen
##emahan
tarikh
##arn
##INI
##isip
perjanjian
akh
##OLL
Dev
hom
##uangan
Awam
hamil
Btw
##verpool
mencoba
##IMB
vitamin
rutin
money
WhatsApp
huh
ujar
simple
wei
thing
##ALAH
AWANI
Dur
rog
##inginan
tokoh
##ubernur
bf
##iayaan
menemp
Penat
TERB
sesama
Budak
nice
Jamb
Bant
kasus
hus
nga
corona
##ooks
jahit
Imam
Bor
##eon
least
pk
DAH
mengal
0812
Kesel
Tai
sweet
##PM
##incangkan
diterbitkan
istim
bersalah
##ebasan
##ejahter
Cuba
##iaga
##sha
ketiak
##anah
Kedai
Restoran
##entuh
##audah
Tengku
##uluskan
menentukan
kerap
house
##emak
##PT
haritu
camp
Dig
pertandingan
malay
Minta
Kejadian
diw
ijazah
mengapa
Na
sebentar
mlm
hangat
##entak
rap
siao
##aklumkan
Agung
##ormati
Tas
Uni
##ihara
beban
menyampaikan
jan
sak
Tanya
##mmm
##uasan
dikenal
prib
##akaian
Semalam
respon
Adakah
##oks
Guy
##epi
engkau
stesen
Unt
Makin
##ANC
Dil
Penyel
course
kite
##stem
didakwa
##sek
##anak
##EO
##chi
Juni
cendol
##krim
ketupat
pohon
Pokok
##itaran
ikutan
##MA
ant
Gambar
negatif
##ihi
berjumlah
SMA
FC
pack
Aq
Kawasan
Bet
trend
makeup
anc
MER
juara
sains
Tabung
Adam
##rit
##XL
memohon
nda
##ister
Klik
nek
serious
Pergi
konon
face
berdoa
berkesan
##sekutif
barangan
mengec
##aaaaa
##bin
##asif
##ikirkan
Jumlah
Dok
pok
han
##resh
sila
AR
ali
Val
retweet
##akini
Tunggu
##acara
dire
going
seharusnya
senjata
##oyal
##emaah
##cak
##afiz
##uble
##oyang
Wow
##arta
BB
risiko
Gila
Yo
Yog
sebesar
ren
ditutup
someone
##2an
block
perib
##uple
bnyk
##36
Kiri
##tive
ii
didapati
##ingatkan
suasana
##27
Sosial
##emput
lorong
##eraan
ikhlas
jempol
friends
BL
elektronik
##iktiraf
##irt
test
EM
Hij
cut
PUT
count
banc
MA
aliran
##tube
singapore
##ics
##usa
##akh
keuntungan
##arahkan
Berdasarkan
##ahagiaan
actually
##rika
##ibur
Av
##isata
##ongkok
Bert
Muka
##wh
Berhad
##andangan
DALAM
deket
UiTM
jiran
##ipu
##esel
98
terper
Bil
unsur
dibangun
##tick
Teme
##lion
##dahulu
##sal
terkena
GO
Langkawi
wed
kapital
##ought
ditambah
Syariah
ho
##rt
PEM
800
##usteru
Por
kambing
loc
item
Huj
##udara
menyaksikan
berterusan
etc
smart
Lat
dikasih
##ayani
##yek
nelayan
person
##ering
Kecil
MAK
##ship
bicara
##ks
##osok
ongkir
Pad
perubatan
##usun
sku
sempadan
Tiga
Hakim
kimia
##inat
2005
##ety
birthday
##estiv
##ambang
beneran
JAK
San
pam
sim
##gen
gerakan
Ji
kre
ste
dihasilkan
room
##iber
##apaian
##alil
Unit
pink
Perj
wes
profesional
memel
busy
##itmen
Israel
mek
tell
bini
MAN
males
airc
kebaya
##oman
kemampuan
##awas
skincare
##otes
AC
##lh
fiz
klu
Temp
fans
meraih
nyata
cewe
kempen
##argai
Punya
99
melah
##rid
normally
Kerana
Kris
Col
##ACK
acah
low
KKM
##gerakan
Hahahahah
pesakit
bangs
Hang
saluran
terkait
Just
##els
Warga
rat
uitm
hg
##arapkan
mendakwa
timbul
Tuk
AG
##amiin
rekod
Ready
Bos
happ
ASEAN
senar
Allahu
nur
ditanya
sembang
pej
##okan
dirimu
knp
fakta
##API
Ingin
##asy
PUN
kelebihan
tt
percuma
DIA
lebar
##utkan
sarjana
##auty
ner
##anto
world
rugi
charg
##resi
keturunan
disana
Che
perp
Aj
Real
##gai
settle
Port
ganteng
market
##unter
##iam
Open
inspirasi
penyanyi
##onda
##undur
Airport
##baiki
##iasaan
Pemerintah
Susah
##ADY
rupa
produc
Malaysiakini
##dar
ringkasnya
##estival
compl
Sahabat
##icken
pemesanan
bok
##yap
##den
##iarkan
Saudi
kepercayaan
##2020
musuh
Line
karpet
pembayaran
##zer
disab
##tual
##ader
Maha
max
##ept
aras
kir
ngeb
##raz
pura
Rev
geram
Int
47
perlukan
pantas
Terimakasih
Mon
##sara
these
##abut
tabung
##ambarkan
Bumiputera
##esaian
taraf
cowok
##ubuhan
water
wife
##ness
##yiddin
##iburan
sarapan
Bus
Langsung
World
##etnam
##araya
Sad
cepet
Harini
##jok
##enak
Yes
95
Sekian
##29
two
##rian
telinga
Anti
Bharu
moh
Kont
few
University
TOL
rum
tanggung
GU
dress
menggalakkan
##kkkk
Kalian
menatap
cb
nnt
betapa
sewaktu
dilah
perbelanjaan
ujung
suam
quite
jawapan
att
bermaksud
Bola
cerah
mampus
##39
basah
##alem
WH
jakarta
Lebuh
##esies
transfer
bunda
natur
##emaran
##ografi
harian
Daripada
bengk
ast
detail
##irahat
menimbulkan
Semp
auto
Pertahanan
Itulah
Dekat
fam
##sc
##aud
kedah
##ilet
Ahad
haji
##asti
##unei
##ersihkan
##hari
##ALI
lel
nutrisi
Yay
ORANG
garam
mengangkat
mencat
##TR
lar
matang
##Nya
Fo
around
bt
Cer
Amir
dokter
##fiq
##yam
melahirkan
##adbir
Hu
FB
Sai
##imah
kemiskinan
Bodoh
Puan
##paduan
made
Alamat
COD
kawalan
Her
gratis
PIN
TW
##tions
##embahan
##mo
telev
SWT
##MM
ep
##bank
kenyang
cas
Wajah
basi
oper
Gold
perso
Pemuda
mention
saksi
promosi
sambutan
ec
school
matanya
Halo
##red
istri
194
Mulai
##CR
meskipun
##IMA
Mob
merek
ngapain
ll
Tag
roh
##ILA
##EF
Guan
Fin
cos
memudahkan
##ilat
##IG
##tum
##ancur
dokumen
Sesuai
##mudahkan
##65
fa
Perkara
##asiat
persek
Can
##endalikan
pij
maut
250
SPM
##orit
##dan
musik
tradisional
##37
##ompet
gul
54
##jen
berumur
gf
tang
gay
requires
Kg
Ol
selanjutnya
cucu
Perumahan
Seni
laksa
Emas
Ust
##ondok
Dew
hahahahaha
##undang
07
Kopi
##alisis
korea
##olid
lahan
kencing
lunch
Hab
peluk
capek
##ado
##entangan
blh
persen
##ejahteraan
tuu
pasir
kualiti
hmmm
atur
Emang
Merah
##atihah
##cel
##ins
kenaikan
tingk
85
meman
Seremban
Pah
keluarkan
BOL
Syarat
Wal
1440
kurangnya
Pilih
jadikan
##ved
hehehe
panggilan
Cal
##CL
Untung
coll
bob
tir
enable
##ekor
kerugian
Mic
First
haih
Cek
Senang
##allahu
pendekatan
##IRI
wajar
fast
mengucapkan
Zaman
ass
bersedia
kongsi
kenangan
hiasan
Palest
##uatkuasaan
melaporkan
until
disabled
##KA
##uatan
##bh
panc
Meow
termasuklah
##ffee
##hluk
ditinggal
eat
udang
hanyalah
Looks
cop
##dk
Net
Tes
Then
SS
Sin
perdana
Ais
##fc
YO
GST
Rob
bekerj
dilahirkan
organisasi
racun
##olar
Hasan
##band
sum
ngerti
done
##irikan
fre
news
berguna
dinding
Guys
##neo
light
berfungsi
menengah
##67
mengangg
##ersi
##asinya
Felda
Kalimantan
lgi
##iaman
Thanks
tegas
adek
mempertahankan
menggantikan
KAU
tamat
##ulusan
##otton
##asia
maki
Online
biskut
strateg
##hip
perlindungan
yakni
jubah
##fan
43
Cy
shopping
merangkumi
Lip
##ative
akal
Muhyiddin
##ankan
Pertubuhan
cook
DO
Kos
ampun
Baj
perbincangan
cabaran
det
tong
jb
##etulan
Please
komunis
Surabaya
singgah
mendukung
dif
ngakak
##gres
tebal
58
Minum
setan
##alih
wasap
##ARANG
Mis
gan
##oritas
lelah
being
hantu
##luk
##ampi
prestasi
amin
jgk
##ATE
BISA
mark
##jol
hands
gudang
Hello
lesen
##impunan
##malaysia
hatinya
inilah
Jumat
rob
kafir
Amanah
##ohan
Tom
berbahaya
hr
star
Papua
caranya
##minal
SUK
uda
Semenanjung
mewah
menyesal
grup
pesanan
Teluk
Black
dirumah
Gu
liter
Mor
mm
membenarkan
date
pening
##AMAT
SEMUA
angka
edit
##zim
##abalu
kod
seku
pendaftaran
09
ih
gemuk
awek
41
##ania
tertu
mask
santai
adakah
Filip
Membantu
Perc
melancarkan
##ovasi
TUAN
49
If
56
Food
kebahagiaan
##ikel
##ave
wong
differ
weekend
BR
ekor
teks
blu
##HA
nyawa
keterangan
Juara
jep
##aduh
##osh
##ift
merawat
##umen
mahupun
peristiwa
nafsu
pelaku
tea
BUAT
sasaran
Naz
##kandar
##buk
terbukti
Bangun
SB
another
nafas
KAMU
Pur
gajah
##KON
menyambut
Hassan
##hidmat
##ds
##joy
mud
##akitangan
##awangan
##ersihan
mie
PERD
##idmat
MRT
##emukakan
Wil
second
rom
bertanding
Sir
Puteri
pemikiran
suspek
##aving
les
Menurutnya
Sepang
nok
##dio
awalnya
wey
priv
total
##iket
bancian
##ensem
berbuat
berasaskan
purata
##yakarta
Str
##ouch
##ometer
##enger
toilet
terdekat
istana
##engaruhi
KAMI
##alak
katil
kelakar
##AJA
AY
Top
##estinya
sent
##yuman
##iga
bol
penjelasan
Suara
penyelesaian
akadem
cond
IDR
perform
peribadi
sma
rangkaian
berak
mall
box
##ikul
bersifat
Qur
nmpk
ent
##iptakan
##udayaan
sesetengah
insya
##AJU
both
PS
Sumatera
Demi
strategi
Cerita
gug
kaos
tepung
Riz
anugerah
Off
AJ
mor
ci
exam
menghadiri
Jaga
KAR
##pr
restoran
aircond
cre
berlalu
##ging
mini
find
##isk
demokrasi
suci
Kabinet
Smart
Malaysian
Let
##can
##izan
62
ruangan
##yakinan
anggap
saran
Pot
ahh
pcs
wangi
drpd
mcd
hidung
##alunya
##andatangani
Kamp
buta
legend
wo
mengekalkan
Post
##ereja
##eller
Gudang
London
kemahiran
MEMB
harimau
##nan
##untung
membuktikan
Patut
##ats
ibunya
##ean
Hitam
##oax
Grab
##bon
KLIA
memainkan
menegaskan
cup
yes
objek
cowo
menjej
disuruh
sepatu
Gombak
memperkenalkan
##ebaran
mand
beh
##oyo
Pelab
##eal
bahu
Haz
pengaruh
Mun
##ikuti
mampos
Pang
##egan
64
Justeru
blok
kw
nii
Pil
##vin
Wid
By
##deka
berkongsi
sbg
Jawab
Po
##DI
bersep
Hahahahaha
##OTA
##idan
Mesti
subsidi
selagi
Saint
##tin
##ney
KITA
tali
##UMA
dos
Medan
RAM
##oice
BBM
Kisah
##aban
kawan2
Tetap
mengawal
Kuc
Pengh
##utaan
DATO
Vietnam
TAH
BH
Senin
Ment
madu
tur
Rem
##CC
bekerjasama
Prem
place
membuatkan
Roti
##oris
##itau
##idangan
serum
##adat
##ring
##akuan
##isma
##abet
MK
##usantara
jalur
Bagus
bap
KEB
special
TU
membangunkan
ketidak
Meh
##PP
hek
jl
##FF
polit
52
Filipina
sepi
mam
##orban
mind
1998
Afrika
Nk
jas
Atas
struktur
Politik
##mpul
##ungkook
mok
solo
halaman
##ugh
Char
ditulis
##erbal
ladang
MAT
ced
misi
NEG
masing2
Gw
##ampas
could
Biasa
Tinggal
SAM
##ajari
melip
dewan
Qu
##jam
while
langs
Jauh
ngasih
ianya
penang
##iaw
##ple
pengangkutan
##ules
senarai
FEL
nye
Semasa
Sedangkan
jaringan
PET
##uara
##yyah
##For
menyerang
engga
jemput
loghat
KEM
Tang
Kajian
bincang
Jual
komputer
Operasi
tetangga
pengarah
senior
stabil
hu
Manakala
##ebarkan
rev
transaksi
Gar
Cat
UK
kind
Juga
urus
tampak
Rusia
hormat
Fat
dipl
hair
watch
Del
klau
berkhidmat
##diq
kebajikan
##etika
such
##ography
Institut
BANGET
Jel
Ob
jdi
##ession
Berikut
penampilan
##TU
HAIL
syg
darjah
##imut
##che
##lak
Beg
Ref
Brunei
bb
##ezaan
pribadi
##xic
makhluk
personal
sant
##cc
aje
AJA
Bir
Harus
##nal
MES
Leg
##GK
Dim
pintar
Cle
Setar
Proses
spesies
##unting
majoriti
sekian
##ytih
Sud
Malaya
tangannya
sendirian
gamb
Takut
##yatakan
persoalan
Kad
sebagian
seru
buatan
desain
peralatan
Don
##iakan
BAGI
terbakar
##erahan
##upuk
Rus
Usaha
proper
##sen
HAILAK
Hah
nam
hijab
##ots
agenda
selera
##ajat
Lingk
2003
##engahan
keinginan
##enernya
isinya
beza
card
talian
Kebanyakan
Karna
##tivasi
memandangkan
seluar
700
wish
Datang
##ziah
menganggap
##usuf
pelancongan
things
190
leher
tangkap
##sg
platform
jumaat
days
##edahkan
paper
kediaman
rad
##alal
diperoleh
Umur
Hm
kamera
orng
Pener
##NN
DPR
terpilih
##aker
bersemp
justru
jem
PAN
Tuj
##ejap
batin
nge
menyumbang
damn
Perub
menuntut
biarkan
##egr
Kun
BAH
keli
Tuanku
target
cute
dinamakan
##asai
berbagi
komitmen
Promo
##untutan
Komp
detik
##onc
ic
Ja
Ray
penubuhan
##ante
kerabat
pemilihan
memerintah
##EY
##erlang
kumpul
betul2
kemaren
Yayasan
##ica
SEN
iphone
does
##adak
tema
saf
##EA
LEB
##ventu
Are
singkat
dibenarkan
JAWAPAN
pori
TAPI
##wat
Love
##kar
membant
style
istimewa
apply
div
##nnn
Was
Puasa
shoot
Sekitar
radio
menges
Hat
heran
perund
petu
camni
hina
Dij
ustaz
por
##IGA
jus
Silahkan
Os
##ekaan
##vern
haa
##Di
##iaan
Hehe
puncak
##imi
##urai
Komunikasi
mulia
2002
bonus
53
ragu
##unjungan
jaminan
##inci
##erat
rangka
Mb
menyed
##dian
insan
##lamat
Kompl
Apalagi
teknik
benc
chop
paras
##zen
tangk
san
melepaskan
Tindakan
Gerakan
Keselamatan
##ared
Hahahah
How
tom
seronok
gh
Bintang
perf
##ssss
Hong
dgr
Nilai
bertukar
Boy
Centre
perbezaan
##adika
potensi
Kelas
##ronas
toner
jump
Rantau
##setu
Sesi
kitab
##antang
neng
Dani
hb
kesemua
Rambut
seharian
ubah
Cab
##ITI
##aitkan
##zan
lauk
Narkoba
staff
gmn
Duit
ANAK
fan
tap
gaada
padu
Den
Pengurusan
akhbar
##ucap
CIMB
van
syukur
jantan
Lau
##afikan
##eti
pemeriksaan
##urangan
RES
berlari
##anser
ust
##alive
comment
doi
menghilangkan
##eja
##Tren
##ehehe
##idd
wow
Sesungguhnya
darurat
Ampang
##uatkan
menyelamatkan
gabungan
kesayangan
jelek
melanjutkan
canc
##etakan
mengajar
melawat
hasilnya
orang2
peminat
Portu
sudi
Zak
akhirat
kapas
##rang
BES
binatang
rame
huru
120
pergerakan
Bern
##indung
Samsung
seharga
Digital
pacaran
masi
sleep
pimpinan
morning
Gimana
KON
##ted
BO
ingatkan
##uncit
makna
##jt
gamau
##ahaman
kotor
sabtu
resmi
dakwah
##agat
##ekali
PEL
Sang
76
Mesyuarat
##elivery
LA
His
mee
siswa
vol
##anam
ehh
##inkan
teringin
BOD
##ove
sembilan
Luc
Polisi
Azizah
Lebuhraya
600
##edahan
##udit
Kucing
ari
##elahiran
tampil
olshop
##yun
kay
Kamar
Hel
gelaran
ident
ME
PayTren
##yarham
##OCK
ancaman
kolej
menurunkan
##umuman
smua
Iskandar
menilai
RM6
MEM
found
didalam
ae
Undangan
##empar
khabar
##onis
pahang
mengak
##LY
Iz
later
##lusif
pertahanan
##erk
##upan
dakwaan
##upsi
##iji
tai
##ubuhkan
TM
motif
##izen
51
PROMO
kaca
dalaman
etnik
##ever
thanks
hensem
##ualan
Uc
Yun
##tice
##DAH
Mr
KOM
Now
cuaca
##apus
Pemilu
Kinabalu
Laporan
repost
SAMA
##tuduh
Bekasi
asik
dikur
##angkau
Liverpool
driver
menghantar
oke
Max
Group
##sum
##enderung
Langkah
public
pipi
##ultasi
upaya
diikuti
print
paksa
Melalui
Kn
##entif
bising
keberk
kakitangan
trip
DKI
berpikir
gram
brand
kyk
perintah
##rey
Member
JK
atu
iman
##CH
Bebas
tumpuan
mist
Syiah
uw
##agen
##ggu
Pengangkutan
sor
conc
SERI
material
##nikahan
perancangan
mengam
##uality
Sepak
misalnya
berangkat
##isu
##afs
kursus
##obrol
ngeli
berbentuk
slot
##eluarga
##ml
lit
paip
##ko
Pon
mantap
rusak
##ugaan
parlimen
##LIM
Mag
belia
JAM
JB
pern
episod
terlepas
57
cadar
##embak
##iliar
orig
manag
##imes
##ttt
berfikir
Kecamatan
Maz
Isnin
BOLEH
Gat
kebiasaan
lemas
Stu
##AYANG
bias
##ASAN
Drama
sebagaimana
##agic
bela
stadium
vide
##ulisan
##atuhi
##sey
##firullah
tiktok
##eritakan
pc
1st
Gam
Sila
susulan
Enak
Link
kenc
dibilang
berni
mengundi
Biasanya
pembelajaran
##izza
senyap
##je
pastikan
Kant
Allahyarham
makanya
email
serba
diumumkan
##ehyung
##esak
standard
apaan
##ujung
Kakak
##ASE
sekeliling
##arikh
ded
jawa
77
hektar
makasih
##ukah
##indahkan
Hujan
Teh
##eph
UKM
##eliti
##INA
persembahan
Aut
ref
Suami
darat
Alhamdul
type
TOLONG
Ba
hadap
fail
##osit
##urunan
senyuman
komod
##sign
Saf
alamat
Kajang
Eksekutif
soft
##PER
rumahnya
maksudnya
##ier
##cess
##onen
tunggal
majikan
setempat
penyokong
##antauan
bulanan
ITU
##artawan
kayaknya
PERDANA
televisyen
##44
##ambilan
##emar
yu
bangkit
##bt
##epal
disc
Sejarah
peniaga
Zulk
berjumpa
##etuai
Bantuan
##inian
Mant
##ea
number
berulang
JADI
season
ajaran
Admin
Yogyakarta
keyakinan
##omm
pembiayaan
ditemp
gatal
Hampir
Riau
Berl
dibeli
diem
msh
##rise
Klo
##ausah
LRT
boh
ketat
##siapan
dimiliki
penyelidikan
solusi
tenggara
##98
TNI
Prot
sokong
Mmg
##ray
fur
Manfaat
Lihat
business
##ols
sit
mengakui
produksi
##He
kala
Roh
##angkitan
ego
Tab
Udara
##awit
orangnya
WAR
stream
##abiskan
ow
lawatan
batang
berharga
##oblos
MAR
Sungguh
doc
Bangi
##iff
potongan
##unggung
isti
##ague
subjek
berdepan
Design
##BN
##MI
##ejala
0813
ketinggalan
Tambah
memanggil
berisi
Mati
##eneral
1990
Berm
menubuhkan
mengajak
selamanya
teori
sombong
dipermudahkan
Model
mekan
1000
kelulusan
langg
Polri
cash
##TV
##UJ
Grand
meski
##order
Comp
barisan
fly
##atangan
komunikasi
terbab
suhu
impian
pengajaran
##agama
Cikgu
degree
beraya
Islamic
premis
dest
lapan
##97
##inese
premium
##epe
koleksi
Sandakan
membutuhkan
##ombang
##empuran
##lix
ATM
mentah
left
##cial
##unaikan
##luck
claim
Ade
##isahkan
##nie
mengingatkan
kawen
Gubernur
Pop
ray
##enerangan
keamanan
##opment
##egas
Awal
Kolej
pew
kris
couple
memberitahu
##ariw
young
diperkenalkan
Hid
##ency
Note
##dg
##uhh
grosir
IK
ال
##sin
##EET
Baby
road
pelancong
##du
##dak
##dom
##ampah
Angkatan
Hall
READY
##imbangan
##PTN
mengurangi
FELDA
pengusaha
##awatir
RM8
##rover
bandung
sorg
wal
menyimpan
jadinya
ann
memikirkan
Mesir
##nanya
Panas
ler
merata
Perdagangan
gapapa
Georg
karak
##angkut
dipert
FOLL
##abad
Terp
buaya
adv
Berp
hiburan
pt
Semakin
rencana
Harian
##atnya
COM
ANJ
meliputi
krim
uni
##erdekaan
kaget
bergabung
berbicara
pencapaian
bw
hit
##ipe
asrama
KEC
Wang
cac
Besok
Km
##off
sabun
random
FA
altern
artikel
nang
jalan2
konflik
rehat
##AST
berdekatan
PKS
Rup
##aste
Ris
##ology
##EPAT
ungk
medan
Dap
Belia
lumayan
screen
skali
Rec
sama2
##alif
penyebab
Dom
duluan
incl
teach
##tarik
harganya
BARU
PUL
Surat
##omend
##angkalan
fashion
sekurang
dateng
SAH
##asin
##ulaan
tuntutan
ketu
Tiap
usahawan
##osikal
1999
berlebihan
Kuching
##kandal
terhad
busuk
ADUN
##utor
olahraga
Baginda
##ewas
Not
sensitif
##ANGAT
Sinar
bong
##APP
##ompat
berpuasa
##fast
tahanan
##ال
Mart
request
##mmmm
Ren
350
##jang
pemilu
##ijik
##BS
jee
##ision
sekalipun
Noor
SAYA
mainan
bru
Mont
Tunku
Spes
Strat
ril
kesedaran
serupa
MOH
Peguam
Puncak
stand
##mur
layanan
##rrr
Bung
##eke
akademik
##CA
LU
cod
Tahu
sinar
Astro
##hal
BEN
KAT
sara
Petani
##enci
Rais
sholat
fot
lam
melainkan
menikah
woi
Anjing
burger
Rasanya
##inder
##omatik
TK
dimasuk
Hubungi
##ele
thn
kemajuan
Mai
cic
kebakaran
luk
##epasan
listrik
berikutnya
##enge
mengerti
Motor
##dr
Bisnis
Ret
penerima
Disebabkan
tgl
##site
thro
MAH
##ution
keman
##atar
##follow
##ago
##tiar
##ead
PERH
tn
##pal
diperb
surau
permukaan
simpanan
amal
Low
##uchong
##NS
Taw
side
##dd
adat
berupa
expect
provinsi
KPU
Bumi
kelahiran
##news
idol
hamp
##anga
##wakilan
kebebasan
SY
##use
khidmat
Trump
Kari
Kapal
memer
menetapkan
bye
##egar
##met
pulih
##ULAN
strong
Dimana
##gent
Beras
##tahun
Kurang
##thman
mengalir
PAD
##akaan
##ys
pastinya
Iman
kesejahteraan
bimb
##adap
##asiun
SU
NGO
asalnya
diminta
Perlu
keliling
memperbaiki
ds
mobile
##ried
berpel
lumba
cant
Tenaga
##enam
Wat
fasa
Gem
Kac
##esta
Jah
##agalan
dibayar
##lon
menyemb
RM100
Gol
MAKAN
lai
taktau
thought
Jelas
SUP
tertawa
Give
Full
##cha
SMP
Langat
##aging
Art
INF
Ketiga
##idin
dengannya
minimum
##Jokowi
PO
##ampilkan
##ATIS
##ijakan
Gajah
keempat
Berminat
Pelanc
enjoy
mesra
dimakan
Bangunan
##ilo
pertengahan
##import
Diam
sound
sesungguhnya
berpindah
Mark
Turut
seakan
##CO
##otak
KDN
Klu
kuliner
##ISI
##ahahahah
petugas
Jo
##tunya
##ajadi
once
##ilaian
Kira
abu
##essi
lik
##ox
##atuhan
saman
##68
Anies
keluarganya
heart
Muz
Rendah
sulung
##osis
##acu
Lum
hancur
##epsi
persatuan
view
##bal
##linik
curang
Puchong
Pub
Samb
nemu
engg
pemberian
membah
##AMAN
mencadangkan
##entuan
##uasai
##uro
pinjam
walk
tembak
hakim
berkualitas
kelayakan
##uz
kepimpinan
tuduhan
##ugi
fresh
Inggris
kilometer
Comm
Mok
ve
##bag
BAT
Dav
##upu
Daftar
##kota
##emburu
##asmikan
##uf
pola
jud
##TH
melangkah
##ORM
lps
88
seram
Serius
Meningkatkan
confession
bayangkan
diluar
Meskipun
Hmmm
perpaduan
##pen
Doa
jil
##untah
Bub
BAJU
##UDAH
hala
##dari
dipake
##100
##ully
##work
Teb
diluluskan
account
Anggota
ditayangkan
##eline
##fo
MR
Intan
Depan
save
##ajukan
masukkan
Jin
reformasi
iki
lanang
disiarkan
Tersedia
Pic
alah
berkualiti
Log
mendorong
##roses
Pingg
ppl
runtu
MY
gamis
##On
different
menemui
##ym
Terj
Hulu
HATI
umumnya
Burung
EXO
Namanya
##enazah
sendu
mic
##awati
means
##Aku
##INK
fizikal
pembuatan
SED
NYA
suar
##annel
penjualan
kritik
diangg
menyerahkan
cedera
##Ind
##aransi
bungkus
##lima
##baru
Takkan
hour
##etap
siam
##uduki
017
##ulauan
##ikap
Susu
##upayaan
gelas
lic
menghargai
dibandingkan
gpp
peh
tum
Panc
Stat
selaku
Malang
sultan
KK
bina
Ehwal
Lisa
##titude
kk
kreatif
Hadi
##jakarta
##alakan
##alia
Maksud
kerjaya
everything
##erai
Kond
##emin
selangor
##far
ofis
##pk
keliatan
lori
sibei
DIB
Sg
##cin
Maju
##emasan
nothing
cob
Ste
##otein
LD
bumbu
##alurkan
Hind
AIR
Sambil
##tiviti
##iny
##asak
##angkitkan
Masak
maap
##URAH
##tab
iv
sapu
##ariwisata
##awesi
##ifest
kuda
##agedi
KUL
minimal
kredit
##pcs
dilancarkan
##net
liar
tersedia
tunai
Murah
belas
khawatir
##itis
Bogor
memperk
Bikin
menggel
diriku
fuck
##ihad
melepak
ora
Hukum
Segera
##rek
army
upload
##kahkah
##ube
Mir
spo
cemerlang
wall
##adanan
Teman
huruf
##usak
sijil
kudu
investasi
suda
penjawat
HR
##chen
merajuk
membalas
##onald
berw
##entasi
Cafe
ish
petrol
SES
Mans
mik
bagitau
interview
REP
kitorang
vari
lakon
##pu
NK
perairan
ditangkap
Paket
##pol
pengas
kolam
##unduk
LAH
ganja
MAC
RM7
##yyy
lh
chatime
##umpai
Kredit
Bol
YAB
KW
Hey
during
tawaran
##apuskan
##ebelah
psik
##63
diteruskan
##eat
##isytih
Ass
##TP
ilang
Sehat
change
bencana
diskon
##URAN
##ication
arab
aduan
Nurul
Mom
google
iP
mencuri
menjejaskan
lirik
##adinya
fasil
Naib
##ingkan
each
##room
ss
Pengiriman
##ingatan
SAW
pemul
PC
Pelajar
KAW
tarif
kursi
Khalid
##awe
##fikir
tersendiri
liga
##ekolah
Nan
RS
kltu
##angkit
mengganggu
nct
semestinya
takyah
##juangkan
##utamaan
Chat
kendaraan
bertugas
simb
konteks
bakat
Festival
GRATIS
##diam
##ww
Haa
##faatkan
##ebang
dihantar
hope
##ege
##orasi
##entian
fight
bagitahu
##ONES
##ahtera
InsyaAllah
Tq
##eo
##inter
##unk
##agak
##aing
kartu
Setia
lembaga
##usiaan
KR
shiok
Malu
##aro
short
Beng
##onsor
edisi
Google
original
Rad
sekejap
puluh
Kanada
##hatikan
oil
panduan
Kham
019
##awl
##arden
##pro
##ido
##ambahkan
dikira
pahala
Rez
##aannya
Lib
vcs
##ustakaan
bersempadan
##come
##erin
wrong
Toy
paru
Halal
fon
sejauh
segalanya
perawatan
kanser
SEKARANG
flight
giliran
judul
ceramah
PU
##GT
##LA
Jap
wk
penempatan
##time
viralkan
Hol
##anger
mengelakkan
niaga
mempel
Jepang
Khus
Siang
membeb
##enggam
Kamis
menekan
pemuda
Jln
Prom
menggambarkan
tertarik
mesej
##ukupi
##PI
##itim
pens
Nat
penurunan
gold
Adalah
celana
hur
Ilmu
Nad
penghasilan
jawatankuasa
Agak
Sepanjang
Joko
##lok
motosikal
MO
##tusan
chicken
TO
dilengkapi
Dana
Labuan
price
RUM
Wong
##ifikasi
umm
tahunan
pakej
small
##onsumsi
Ec
bulat
##board
Balai
Pisang
Isi
ditawarkan
rasah
##rene
Keputusan
ambulan
dian
##amansara
##ancing
husband
dikirim
sedekah
seksual
mengesahkan
Yusuf
korg
Form
Seng
batas
Sandi
Ars
kapitalis
##mati
##ned
invest
cafe
canai
Klinik
zakat
emo
sayap
nom
katakan
Om
##AGA
lokal
Yusof
Lan
ngobrol
berhad
youtube
KETIGA
layar
fisik
ttg
##erloh
bid
##hum
mir
##aijan
##afah
MH
through
RM50
Hay
##ebuah
##sj
Sant
modern
mum
##utih
mertua
penguatkuasaan
maggi
BUM
##vernment
salahkan
sport
Oke
SAL
kwn
##ukanya
##ancam
##ikmah
Power
##Day
swee
kerabu
Nasir
##ompak
seumur
menguasai
system
##orak
Makasih
offer
wae
cint
FOLLOW
tealive
Inter
panik
##enan
Nggak
PTPTN
bom
##NB
keju
##ANJ
Orig
##nas
key
manja
elemen
##fll
##lands
menghalang
##inisi
Saham
##erbaijan
SELAMAT
wonder
avail
went
JAWAB
Ev
##ahasa
##ky
agen
1997
##mpt
permulaan
Syah
insiden
persekitaran
##iral
bubur
rok
lebat
##ulitan
##ifli
artinya
##engkapan
Hingga
68
cerd
##oci
Gaji
Sku
Perg
Ain
##YY
tipis
tumbuhan
##ogan
Kasi
Van
##riz
##ialat
##timoni
##car
##osedur
waktunya
menampung
##empurn
Wahai
Reposted
pengend
##argaan
##opedia
Palestin
##entangkan
penonton
##flfl
meeting
##oso
melanggar
baling
rahsia
mengakibatkan
BAB
wahai
jawaban
disampaikan
##In
Cyber
Azerbaijan
CO
Spe
milih
##tahu
kebal
sarung
permas
kia
##AJI
belok
kfc
pemberita
health
pahit
Turun
##elle
Wakil
est
##indo
used
aib
Tips
##roid
lahh
Empat
##aloi
##ombongan
Aamiin
HAL
##abot
##TAN
SAB
kejohanan
mara
social
##WA
##ULU
hok
##anggal
diperuntukkan
##ped
##asila
appro
##itive
warung
##hlak
##nikal
Janji
lec
Cz
lidah
##timedia
mut
##pi
##uruan
sind
true
wartawan
membuang
##amal
Ajak
##esai
Pakistan
girls
refer
Batik
arus
##DUL
rapi
coach
##vey
##undingan
##ILAN
vote
hoax
sekedar
buru
dijamin
##pos
##ewati
effort
Usah
komponen
memanfaatkan
mengut
dengk
##utsal
past
jialat
memperl
kenduri
dengerin
near
##ito
##unkan
wanna
yatim
##inium
Berg
##etty
Pertuan
belikan
Bekas
##ONESIA
##razil
Shaf
usul
67
tanam
memaklumkan
topik
##ropa
sentuh
suaminya
sepertinya
feed
pengl
DAPAT
##ball
menghentikan
lapisan
ques
sebarkan
kuil
##aba
##ewakan
menghabiskan
Serious
JD
##une
puji
##rot
Album
Sini
rice
terdengar
##asangan
##tig
dist
zizan
menunaikan
##ule
##apakah
menyentuh
teruskan
bisnes
kontak
Hamid
##elitian
##inginkan
Inv
Alex
contohnya
LGB
PBB
alternatif
Kaya
beruntung
kubur
rempit
mencukupi
##49
##idur
Menjadi
extra
sex
cool
dinner
pernikahan
78
##IKA
Musim
mart
Pus
kutuk
kebolehan
double
Bayangkan
damai
hrs
Pake
subang
Alah
berkah
##ujukan
libur
Pre
berhati
Pent
Akadem
Czech
moga
Pintu
hatiku
berhadapan
tajuk
##ahagikan
Pencegahan
seekor
membincangkan
##ocial
bercinta
Bunda
##okrat
bakalan
##chester
Of
##ARTA
iron
##egal
malang
lipat
##ujah
##elek
mengus
kesah
##tren
mna
##intangi
Durian
kebetulan
kekasih
##etin
##otik
berhak
##rist
##idaknya
##etus
BANYAK
LANG
takp
Miss
kue
cair
Setak
##over
##EJ
Sol
keadilan
disahkan
kalinya
dihadapi
##echn
pencemaran
Ashraf
KEP
Khamis
tlg
ori
##itek
Internet
Dadah
borak
##utut
##ander
membersihkan
##ines
zah
konsisten
##uture
Juli
##signment
##FA
##enom
Jak
Polsek
Setakat
bali
pengiriman
##erto
Wei
tergantung
ditemukan
matlamat
Doakan
muntah
##UST
##utuh
maen
tipe
insta
##alisasi
bacaan
LIK
Sak
jul
Mini
Serv
Kompleks
dugaan
##sing
menjamin
Skim
York
##yuk
Corona
siapapun
syurga
##X1
##iaomi
memasak
happen
##KS
wedding
Sent
##abrik
skr
bercerita
enggan
dk
Sekiranya
Dam
MS
ndak
nambah
##pes
jokowi
##abur
kuantan
##artment
syariah
##rew
penjuru
chiong
Wo
told
brp
oi
tajam
Cok
baki
##icaraan
duanya
##tanah
##onan
##minyak
Gen
tandas
pengambilan
proyek
jejak
BAL
HA
enough
statement
partner
Fed
easy
menyenangkan
mengamalkan
##aihi
penasaran
partai
##estik
Tamil
spesial
110
Pemesanan
moto
##uahkan
SPR
Sulawesi
##angkok
bajet
Mengan
##ror
pemakaian
mundur
##Un
lemang
step
Encik
GUE
sian
Makanya
Norm
Tour
favorit
Engkau
keberadaan
Je
diorg
##ista
kepadanya
##kop
##iang
gaes
sejam
##ONE
##ineer
berdaftar
ever
jua
kekayaan
pulut
Meski
##aaaaaa
pertubuhan
##alo
gmb
hari2
Alat
sosok
##ewaan
punggung
Akibat
ump
memeluk
kesulitan
janganlah
pemandangan
Mengen
bayang
indo
Cut
twit
soon
batuk
Tot
INDONESIA
180
Coll
abam
##enarai
Lol
Mukim
##urant
Kirim
Pesan
72
##ubaan
campuran
pokoknya
Ira
Ameri
bertahun
neraka
hakikat
##awet
Yahudi
buruh
kpop
menghormati
menyeluruh
bla
Out
##aktif
bersed
Nih
reli
##orb
##ekal
diselesaikan
##itasi
mengulas
efektif
66
##akunya
asap
BM
Tani
##uha
ALAM
mengkaji
TAU
##IST
RTM
cul
##rong
##atalkan
Calon
king
##irman
pusingan
##xx
##kuat
##akso
yan
##bas
kesal
beserta
Perjanjian
less
##mit
##awei
##ahar
Darat
harusnya
##right
spt
Rasuah
Cu
Temen
dalamnya
supp
keker
peguam
Vitamin
keduanya
parut
##32
selimut
som
resep
Universitas
SJ
gejala
##ANGG
DS
pangkat
mutual
##awih
human
##atuhkan
Done
Kelapa
zon
##ibe
##With
Soal
Umno
Singapore
PROD
Jul
tempahan
Law
##erob
Bohong
parking
tawar
cemburu
beragama
##uslim
transport
Hj
##angkal
mengenakan
komoditi
pelabuhan
##esuaian
SAYANG
##ANAN
AWANInews
Serb
Ann
Goreng
anggaran
OK
pengec
muat
Yahya
Original
sandal
Partai
pembeli
##box
IL
handsome
Call
##bek
Md
cir
mengejar
hidupnya
##araja
ice
Norway
cy
half
Berapa
close
rantau
##ces
LEBIH
liburan
##ajur
runtuh
##omun
without
SA
##eland
##mpulan
kegagalan
dorg
POL
SR
##hhhhh
Karya
##ayalah
Budaya
##oda
semester
Kembali
hasrat
SIAPA
Tar
##iraan
lun
cc
boyfriend
##inst
##eme
Ci
clean
Sapa
sampaikan
Brazil
##erjakan
pdh
##alent
##you
##AGE
IB
digelar
Film
Muar
latar
Skin
##rul
##ollback
Blu
##cantik
eyes
##ancurkan
interest
diajak
Agensi
97
##erja
RUMAH
##auman
pape
radikal
keutamaan
##taurant
kukuh
Shop
##cu
##epatan
terjaga
cheese
##imalis
##omblo
hum
jemaah
##ubuh
azan
TEL
mendek
Minat
Nam
##apis
##ends
strategik
##tukaran
pengeluar
deal
bazar
##injam
##ays
clear
##eback
bateri
buli
berant
komentar
##nnnn
tebu
respond
penutup
bersuara
Fitri
CON
dream
##ries
memperuntukkan
earphone
diantara
##isian
##urahan
##AAA
lubang
##edak
##ently
NY
##cam
##ordin
AZ
##elsea
##aikat
##ucuk
Omar
##enggaraan
reject
Cam
##aight
kemerdekaan
Ty
gang
##ulatih
##ASIH
menak
##iding
sponsor
brg
Sim
##ading
devel
KAK
dibantu
##ZE
bersikap
Malas
terdahulu
Won
graduan
Tenang
imam
HAHAHA
pendirian
PERC
Gil
##ESS
berkali
respect
whole
official
cenderung
yaudah
ARM
Ban
##lami
##asat
kegunaan
sorang2
##uding
Hil
peti
Area
Latihan
Did
##agih
menangkap
skandal
##OSI
jiak
publik
usual
Mahasiswa
##ejas
SOL
##erbang
##spir
mode
Salleh
DB
Dak
##MIN
##usuk
pembaca
basic
##ukar
mengadu
nyany
Alasan
##emon
Enggak
Modal
hidangan
PPBM
Abah
bentar
Sehubungan
maksimal
dompet
##ongsian
##onsel
mengantuk
konser
Pu
##amm
pertamanya
LINE
ngeliat
##esarkan
PERS
##arium
denda
prov
intan
ganda
assignment
##tera
pros
cent
terfikir
chill
##edaran
##ilafah
Tug
125
sap
pendukung
##ahahaha
asa
skrip
merokok
bendera
##egriti
krisis
meros
kluar
##yi
Pakcik
England
##nyaa
times
Mand
sebenernya
sesebuah
Kingdom
##Jakarta
diletakkan
majalah
FIF
esp
Bob
Data
pelabur
MOD
Family
wisata
Zahid
kasian
Gre
buay
Seberang
##incl
record
netizen
South
Ho
##JS
merancang
##aci
lup
okey
music
Jumpa
Sape
mengangguk
Hand
##ece
##ambahan
payung
selfie
##IHAN
dimasukkan
selaras
feeling
NCT
china
KENAPA
pang
Reg
##etnya
##yarah
LGBT
dini
kill
##ERS
nu
menghubungi
inginkan
yeah
terbabit
kepalanya
wayang
##terinya
hargai
sayuran
posting
JOH
hon
Caranya
ECR
##TAR
##Kita
Lebaran
KFC
berpendapatan
bij
##alaxy
servis
gend
##atic
Cast
Idris
Segala
McD
Wkwkw
##anjutan
pejuang
Bio
##unuhan
skim
##bel
##BO
##alsafah
owner
disitu
kononnya
slalu
Lupa
##angsar
pengganti
coffee
feb
##oblok
Tahan
anjing2
Contohnya
##yal
Pac
Wkwk
##As
pembentukan
KPK
jenama
Rh
1991
News
THE
dark
Kapol
formula
WKWKW
##DATE
##ici
ECRL
##sue
faedah
##list
Hadiah
menump
siot
pelantikan
##LL
##EASE
adem
kejar2
breakfast
##ward
##amaian
##pas
Kemajuan
Plaza
snd
##erap
didn
hendaklah
##cy
ngajak
##ongkar
Play
God
##assar
aff
keupayaan
Musa
KURUNG
tewas
tragedi
semenanjung
PEND
direct
##unding
koyak
TEM
Penyakit
jalanan
##kl
sid
##IQ
##ween
##engkapnya
cabang
POST
kebijakan
prep
hewan
##uaan
##owing
##tttt
Ulama
spm
beriman
memandu
akar
##unculan
Any
BAND
NEW
kelemahan
perundangan
masanya
##kannya
dicapai
kalimat
menyerah
skill
Umar
download
disertai
##ukuran
umah
Dek
Telah
##RAM
Saddiq
melayani
siapkan
spec
bring
HAM
##elam
ug
otw
##win
Faiz
Pengajian
Kesatuan
bangsat
Zulkifli
Tra
Hindu
##migres
##asifik
enjin
Fre
Agar
##abaran
West
penemuan
BELI
ping
spot
##ratis
Amri
dimulai
Swasta
Baharu
kompet
persekutuan
fake
cili
nuk
##elis
mendedahkan
mayat
almost
project
EL
mineral
Tarikh
Rap
##rick
tkde
menguruskan
##sw
selesaikan
UPDATE
berlakon
Jogja
##mate
maafkan
##migresen
ganggu
##online
##ongg
Berj
Widodo
##stick
Mengur
##ecure
terengganu
SL
berpeng
##shot
Hot
Pemimpin
jajan
lost
perih
CEPAT
surga
finish
That
Jarang
lbh
SAR
##olahan
##epuk
kenalan
JAKARTA
##abisan
ceritakan
##linya
##ebun
aktivitas
Blok
GAK
##lex
review
ribuan
selalunya
Mengapa
gelar
Tujuan
##PR
Maklum
Ikut
tindak
pemegang
ir
tunang
along
##HHHH
tertutup
jimat
nada
MOT
##ampar
KANAN
terbatas
dukung
dinyatakan
ribut
dengki
Solo
##oco
pinter
##iptaan
moment
##MY
##ariat
Tert
##ster
pagar
##itor
surah
mampir
rac
pentas
Pendaftaran
Pelan
##lines
john
lega
memantau
bertajuk
Devel
kehendak
energi
0822
##assin
dy
##liam
JUGA
karakter
Cuci
WO
##enial
cakep
##ford
##agut
perkauman
Stop
##UKA
jerit
kaitan
berkat
berbincang
OPEN
##azaar
##ersial
logo
##ekar
delete
Even
rambutan
mengelak
Eropa
##kom
sehingg
papan
Babi
Damansara
Ged
##zal
skuad
notif
Bilik
Its
School
bimbang
##aulatan
hyung
Tempatan
mix
persiapan
kekuasaan
##tasi
Selesai
##wards
##iro
Simpang
##autif
haf
SHAH
consider
##GIN
Menghilangkan
jurusan
ipar
prosedur
HAHAHAHA
roger
##ories
meluas
##afood
mane
##aven
##ealand
photo
berpendapat
SUS
##ants
##angkaan
##olitik
BAW
Lang
Rab
kids
lurus
##AYU
Rezeki
##MU
##adesh
menyakit
GL
karang
TERUS
training
##ERD
pinggir
TL
##empak
Bonus
##AZ
Coach
##RAJ
DATUK
Cocok
##eling
terjejas
Tido
pengumuman
Dear
iPhone
##yh
Isteri
kum
keham
xs
menampilkan
serem
baiknya
pengunjung
OL
protein
Hp
terbuat
Multimedia
mengin
mengisi
melampau
##emukan
##rain
##par
Manchester
secukup
experi
ton
masalahnya
2x
fikiran
##otol
istirahat
##alib
Rat
69
##yakan
mengab
PERK
Global
dibangunkan
##ORANG
mempengaruhi
Daniel
##clusi
pantang
Lok
##engers
FIFA
##nies
##timbangkan
Pelabuhan
kehamilan
ibarat
Mengenai
TANPA
followers
semak
73
jogja
##under
berbaloi
##utiara
ovo
##iler
semacam
Duk
Terminal
Khair
Halim
Pukul
Rid
Ambil
swe
##ilapan
140
foodp
##bs
##fiz
cabul
Bursa
##ette
Land
rasakan
Tasik
otot
Bajet
chiu
Cheras
anything
##ehh
PIL
TT
##64
puk
natural
dibahagikan
Suh
rakaman
berkawan
jo
dibuang
budak2
Gus
Sari
chao
sense
simbol
Tahukah
##ohol
party
Sawit
Rej
ud
##NE
mencipta
bapanya
optim
budu
cite
format
##1M
bawal
habiskan
gal
seen
##endirian
sesak
##avy
Tambahan
##van
##alaikum
Pembel
melu
Sebut
##ERA
Abam
Trus
KA
##apas
pick
HANYA
muh
dibentuk
city
lamb
pandan
treat
seluas
Ish
airport
Pam
##ernya
10k
Mula
##oken
1996
##ohor
##IND
kutipan
mengembangkan
postage
payudara
##unami
Kayak
NEGERI
##ware
berkumpul
Fu
ratusan
ribet
Pelajaran
tulah
Burger
bergaduh
Hung
##mark
redha
##roversi
HD
filter
asia
ditolak
baik2
1995
DU
Plan
tour
Habib
Ps
##oph
lupakan
streaming
pesen
dear
##ASH
Serbia
Ala
menjauh
##asien
Mohammad
zh
##aps
##omas
menghadap
ketara
##ombol
##ITTER
perlembagaan
Kir
##umput
##RAJAYA
master
1980
Kapan
##rn
kuy
Ts
##akanan
Lepastu
SEH
opo
Pa
duh
Sias
##oul
Menu
##ggest
Lautan
Polres
scroll
JE
Uang
##otensi
##hb
sopan
Panglima
##ampaian
RM20
##ertaan
ceritanya
galau
Kerj
kee
Haih
##isnya
siasat
Peraturan
##PAI
permasalahan
jln
bahas
##UKAN
puan
##agihan
Sebanyak
Khusus
##atukan
##imen
Ant
berbahasa
Khan
tahniah
cha
amek
##burg
pis
aya
mengendalikan
sekitarnya
Ih
SEBEL
cancel
BT
Kode
##epek
Jungkook
Hilang
diperk
remember
##azir
##Bers
pendak
tertinggal
##porat
berminyak
OM
Lingkar
PAL
mengirim
Syukur
mendadak
puak
##elai
government
become
destinasi
jeruk
Terbuka
camtu
kid
teratur
III
##unity
##ijrah
AMAN
leng
beauty
banyaknya
pomp
natang
Raf
Kasut
belak
##ujudan
Lima
Saksi
Zealand
##life
##verse
##dus
between
menaikkan
agaknya
##sos
Lembah
##antungan
domestik
seribu
Warisan
Pertandingan
BANT
seketika
##ming
##osisi
ayahnya
rebahan
Penjara
##31
##ibatan
##rugg
mengarahkan
sesekali
Pastikan
underst
Pria
##eransi
Green
##aluan
##urs
##allenge
vis
wargan
##enomena
CS
##anmar
semenjak
mung
##uduh
sale
##ports
##bang
##ahil
menandatangani
doing
Siasatan
TIM
seat
##autiful
tentunya
Wajib
##iayai
awk
##emes
postingan
mengingat
##indari
Haut
##69
dirawat
dihubungi
##udar
menduduki
##ulti
demo
bts
tup
##itt
tow
terbalik
Mahm
Sarjana
straight
##een
##ektif
Malik
disaat
nis
##unyikan
List
bangang
Rak
sepuluh
##iar
menipu
dating
##ForX1
##wo
wajahnya
900
##ampungan
ava
bomba
deep
SEP
Solat
delivery
mulanya
EP
bosen
defisit
##MAN
##upati
##CI
meres
bermas
##ampasan
##CS
##ALU
ati
uji
laz
##fllfll
##estilah
Semarang
private
letih
##afat
Organ
##sm
STOCK
kaga
101
mukim
cet
kedatangan
magic
##85
##iting
##OMB
kelakuan
##isir
buruan
insecure
penjagaan
joging
Belakang
PLEASE
##ities
##niakan
pujuk
##urahkan
dipel
##oq
menonton
terjun
iri
ikh
##Indonesia
##elin
rogol
Tangerang
Market
Skrg
##ELL
Telur
##ott
ngaku
##yer
terimakasih
hay
lawas
MAG
kepem
Tk
##ecially
blog
CAR
aurat
membakar
Pengguna
flat
uk
50k
Utk
kemar
##eless
##iharaan
relations
##strak
Kristian
Tri
##ANS
gada
jend
Alm
kompleks
hihi
hartanah
ketak
Well
kayanya
##yaki
toh
menceritakan
Keadaan
based
##ATS
Mos
ramah
yet
lakonan
website
##omunikasi
menanti
kemasukan
Bahagia
Next
Ra
##ihatkan
MCA
milk
jadual
##raving
Iku
##DM
laugh
poin
##qi
ttp
SUR
mamat
text
BERT
cawangan
gabung
Menara
dikaitkan
gor
Sedang
Dataran
Detail
mudik
##zo
puisi
##hab
KALAU
##engaran
##edakan
##upaya
Kend
penghargaan
biarpun
Custom
perayaan
Tukang
hol
dikesan
little
##esuaikan
LIKE
teras
AKAN
Abis
juni
BUN
rind
Gaya
aih
Plus
hadis
tand
##usinya
Semuanya
liberal
##olls
called
Pontian
##pop
Parit
##bok
plis
Fad
Trafik
jagung
Hani
Rel
##arge
gedung
Giveaway
Kehidupan
pg
##udung
SIM
##anjikan
ORI
##kusi
Cil
Fe
player
sedem
##tuduhan
aturan
##icy
KOTA
##night
rock
studio
MURAH
Membuat
##laju
Kaw
memakan
country
##rrrr
harinya
KPM
mens
pertukaran
ditempatkan
Cyberjaya
rujukan
##lar
sblm
0857
menambahkan
kunjungan
##endar
dampak
gaper
sediakan
Petronas
mencatatkan
oversea
Saiz
Suri
period
Pengg
pinggan
tetamu
##idam
BINTI
##sage
##urt
direk
gara2
Asas
Said
Dist
Awang
MARA
Zi
nabi
##87
TIDUR
mengira
ea
##hiasan
penjual
Rancangan
penderita
MASIH
sometimes
Seluruh
jambatan
opini
Bai
Cir
##play
1994
kesilapan
gantung
##boy
##egram
bertentangan
Jujur
##agan
guar
Jamal
##unggang
Jalil
##ipuan
##angkuk
Takpe
indom
impak
##sklusif
berkenan
##ein
lepaskan
hatimu
lintas
menamatkan
kedepan
bersaing
Jenayah
sedemikian
Eksp
rebus
Portug
##quar
len
##ilis
mematuhi
dosen
gtu
likefor
Myanmar
rahmat
SEG
excited
Cond
Web
jenazah
INFO
songkok
##arankan
puj
lautan
ngam
GT
memaksa
buahan
Bukannya
kasur
dukungan
Wkwkwk
control
##ganasan
diketuai
rent
##lier
KED
##oller
##enerasi
##kas
##ario
##AHAHAHAH
question
omg
bersamaan
pencegahan
Yaudah
##krip
##indust
Direk
jurulatih
##AHH
padat
Pekerja
ges
Toko
##anjawan
pengantin
Must
zi
##rab
##ictor
macam2
Gula
KURUS
Maybank
##inah
geli
beria
Big
##tf
pow
tq
seberapa
##uss
nget
##gger
##iapkan
atlet
##READ
bun
hous
amalkan
sosi
Surah
##ilikan
menciptakan
repeat
rundingan
state
saatnya
lembu
Gal
SATU
white
Akademi
lal
pember
##oyan
##rif
semul
##anggang
mendatang
##ajarnya
##aringkan
Kart
takb
wad
##aparkan
kebersihan
##ijak
gausah
Camp
##ird
##taf
knn
club
Ladang
##itip
National
MANA
Pant
melarikan
motivasi
Hijau
##imas
kuku
smlm
Premium
sebeg
drink
xb
##inton
karo
##ikulum
63
##lawan
##amaah
quote
secukupnya
Lati
penilaian
PJ
parkir
Laz
lamanya
anyway
##LINE
OKU
##eve
##AKA
##tifikat
episode
Kondisi
great
hikmah
##ucation
berlian
Live
common
aiya
keganasan
pembukaan
##ijab
ARMY
##unjukan
Cin
ntah
Som
fuh
dilarang
langsir
Nepal
kerjaan
hobi
##juran
anim
##eku
bercuti
##ector
bersiap
Melihat
imej
Buloh
##tiga
dibaca
persetu
ungg
##ARU
prefer
##zlee
debat
##ongrat
KALO
char
JPJ
##ature
##sinya
debut
three
skrng
bocor
ijo
##elcome
Mengulas
cabut
kanker
ternampak
##rasah
asasi
Mint
contin
trust
##orp
lati
Cur
##cal
Manis
COV
Yu
##fti
##acy
explain
##aser
##UARAT
##atangkan
Kejohanan
##ticker
PUTRAJAYA
sotong
##elakang
##ederaan
memimpin
Kub
##opay
Ayat
brother
leave
##iasat
Fah
TI
fact
kusam
kearah
berkel
pag
Stesen
##gl
Public
komersial
anjuran
##rov
seger
##impulan
sepupu
##ifa
Mahkota
##kritik
kemanusiaan
##YUARAT
##unction
nad
didepan
teman2
Meg
##udu
dias
Kepulauan
Bener
mengejut
##ongi
SANGAT
ngec
ikat
bersabar
##encian
##42
kubu
Mutu
gereja
##erdasan
Juta
Peri
Bayar
Nusantara
##ATIAN
BUMN
bersem
kurma
menafikan
##Heart
Ide
Fer
Senyum
##iksi
Bernama
ideal
##CM
Borneo
Kitab
Peringkat
peluru
berkurang
juak
Asy
dimsum
mengungk
umrah
pengenalan
corak
perabot
berbunyi
Mener
takdir
iz
pertuduhan
Kenyataan
mengatur
relev
Pep
##ected
Sering
Pinggang
Kay
##Malaysia
diploma
##hon
Kacang
##ocus
igt
##GI
##onesian
lutut
manifest
Sidang
mang
##indas
##azanah
1440H
##ZA
Benar
isterinya
mendekati
##UHAN
##more
##vious
ringkas
pain
Indo
jaket
alum
##ihatin
Gratis
pembunuhan
Pasangan
RM15
tmpt
##UAL
looking
akta
Hadir
With
komited
kaunter
JAB
uncle
bucin
MESYUARAT
SUPER
##arth
sbn
CEO
Run
##ulur
cho
Lub
BGT
future
PERL
dipenuhi
Mobil
nyamp
present
diarahkan
eksport
Ustadz
mengalahkan
##imbah
match
memprom
sod
##ecil
runcit
kampanye
##esor
Merdeka
bocah
Papa
ilm
##ajj
Alf
berlainan
Hendak
XXL
menempatkan
pompuan
##ghter
konten
instan
Teg
local
Pok
SMS
Street
royal
keja
##hirt
badm
medi
teksi
##eu
penjaga
B40
##akm
awet
Stok
diharapkan
dunno
##isinya
pingat
##ingati
Tadika
##Pr
PENGG
##ets
seragam
sushi
Pakar
gemes
kesini
confess
##andum
menyebarkan
##Ar
berjanji
kmu
follback
Thread
##plin
sapi
##niture
telek
##mais
ular
Pink
Sate
sunyi
munisip
women
##ewe
##abda
penambah
handphone
Virus
##pn
##IAL
saje
Loc
mit
##huk
realiti
dendam
##osakan
chance
name
##umu
##ovi
Format
Lev
Send
##iram
Yam
issue
tingkah
JDT
menaiki
Siri
##umbo
##agon
##erba
sper
Kebun
WAN
Sn
##antina
seem
##icap
Mulia
##iskan
Informasi
pemantauan
diganti
mengembalikan
Fuh
Jd
berjudul
peperangan
reason
siaran
asalkan
Agus
Cakap
mengemukakan
Persi
menyiapkan
mencatat
Dewasa
David
160
kecederaan
rmh
Raj
miliki
tuuu
##ENA
THREAD
##anjat
dpn
Aisyah
Umm
Aplikasi
dog
##arl
##ocol
funny
FM
LO
menetap
##imbing
130
melupakan
HAJI
tisu
silakan
kerjanya
##turi
##isha
CR
##wood
Tandas
Why
membantah
Hafiz
##ianat
pati
dibanding
gombak
tnya
They
##aves
##akk
beraksi
##otography
against
Mengg
##ombok
charge
wkwkwkwk
Lampu
ampe
pgn
##ambu
syok
##ORT
giler
BIO
munisipaliti
Zon
##engarkan
##impik
CARA
From
JALAN
akn
Camer
##abetes
ponsel
Reform
Sayur
cost
ratus
shalat
BAD
menyakitkan
niii
Development
apatah
diwujudkan
sebegini
Nok
##ILANG
autonomi
##elet
##ows
ATAU
nyanyian
hape
hayat
diserahkan
##ejarah
##arto
tikus
1Malaysia
Jus
pubg
61
forum
Banten
##oying
##tabak
ipoh
lead
ditur
Hash
##akn
mengeluh
##inclair
stasiun
PRU14
##wayat
TWITTER
berdarah
kejam
##edaan
##mon
SEND
taik
shawl
PA
child
guess
PRODUK
ML
ujarnya
kong
##emangnya
##elut
dimaklumkan
fel
Daun
mendalam
senja
berpotensi
haaa
ptg
ditak
Kesehatan
Syawal
HI
nakal
bertur
##OTO
Mending
dus
puluhan
ill
##erbank
Metro
##ground
Kuasa
Komuniti
Perusahaan
ditinggalkan
shit
basikal
Taehyung
Hungary
Dress
kentang
96
##side
##enteng
perkongsian
##vensyen
HS
Serdang
larangan
rank
Penulis
anyone
TAHUN
penulisan
Lampung
beralih
bersalin
NUR
Ulu
sobat
##rup
Kut
ditanggung
##yyyy
flash
green
warisan
sunnah
catatan
Saif
ED
kandung
##Top
miliar
strugg
kontraktor
tingkap
riz
##uruk
keluaran
bekasi
kencang
Cream
##46
spend
Kantor
zat
Royal
##aranya
Soalnya
Arm
oppa
pkai
86
zip
ank
Komisi
SC
Rama
kesabaran
Harun
Sabu
pemulihan
pasien
ingatan
##ogo
Bau
iii
ketenter
Vol
pais
##ehan
bahagi
##orean
UDAH
takpa
##ando
1993
imag
Cup
page
Alang
bnyak
uia
pembantu
##gggg
magh
highway
Du
##nyaaa
poster
gos
tersebar
reka
akhlak
Mobile
Rib
Hebat
cotton
hey
Rendang
##bul
Olah
##GP
Butuh
que
penelitian
hadapi
SHOP
##tude
sert
PERHATIAN
jug
##isytiharkan
membela
##urans
gon
kawal
Huhu
chang
ago
##iasa
CANT
usus
sempet
##gaya
untukmu
sell
fix
Comel
##idence
saing
Laluan
##baikan
dianj
ngeh
diraja
mol
Penggunaan
suaranya
##egiatan
umi
##HAN
##ahabatan
late
sentim
macamni
Mbak
##osikan
##ewek
Phil
bile
press
gm
facebook
mana2
bercampur
Syria
act
pernyataan
##omendasi
jat
penyelenggaraan
Bayi
Gabungan
##edo
Rupanya
terperinci
##qq
alk
mengharapkan
Kayu
kepikiran
cukur
trop
prim
berupaya
Scary
inovasi
##epon
##ubarak
Bentuk
Kampus
Make
aa
Beri
kart
Taknak
ditentukan
petunjuk
Bara
taun
Revolusi
Pow
henti
Pemain
JPenerangan
staf
rab
penuaan
kemain
hijrah
moral
merasmikan
Bidang
ham
##icarakan
benih
padanya
##ajarkan
surp
promote
goblok
maunya
##86
taks
kemeja
meriah
lay
##ices
##ontak
1970
##ampions
Duh
RET
beranak
Kurung
bumiputera
##osan
Akun
Sejuk
bund
Teringat
kerus
mencabar
##ganas
##nahkan
ideologi
survi
##raw
##ikari
students
##ourt
Lest
##aghfirullah
Zainal
JO
JOHOR
iHeart
menaik
##lit
kecam
kode
NU
##innya
##SUNG
##erland
English
##ipi
##ATUS
Suatu
Ganti
Hana
speak
##ett
PERTAMA
##maisuri
nj
##Pro
mekanisme
ce
snack
##iliun
##arinda
label
Song
##eday
##UNGG
##fahaman
##Awards
Termasuk
instr
Labuh
ato
##tery
sewajarnya
hampa
##rm
mengamuk
Tamp
Tiket
psl
Bun
citer
##arangan
ngopi
tambang
##orok
spread
##TC
##ahahah
TEMP
income
##jui
George
Jar
suc
##embab
jej
Galaxy
##41
menoleh
melantik
segan
##embatan
loan
penipuan
##TON
menyukai
##ific
skit
##200
Karang
bales
serendah
##EMI
Mantap
ketah
##tention
pameran
sebaiknya
##ced
##industrian
pengurus
##pdate
Jack
##pers
sikat
Kot
Penuh
0838
konserv
##osistem
meyak
coming
teknikal
rase
lee
kutu
peneroka
##IZ
brain
mengenali
##GN
##ubungkan
##ancy
Geng
ceb
soleh
##arjo
lompat
##firm
berpisah
roda
##NAH
##iknya
lgsg
memulai
pertempuran
mengger
YouT
ketakutan
aing
dikemb
Reply
Gunakan
##eum
Christ
wehh
menghamp
WAJ
semulajadi
menjatuhkan
ekstr
##lian
pindaan
murni
Der
##odkan
lagunya
jutaan
memin
##sible
##Sy
celcom
english
##ahi
upacara
lapor
ALAN
internasional
dilepas
konsumsi
##makan
karoke
seputar
Dih
##like
##woo
##iteria
Komunis
MUS
Swit
##antak
##eny
kerosakan
##odua
penyertaan
smartphone
Game
Acara
relationship
##gether
##UCK
##III
##empurnakan
gaj
mendo
1992
mingg
Bomba
##Ch
Moto
kabinet
MD
tin
diubah
pengk
kabur
koe
kebudayaan
Pengalaman
##essional
##ahhaha
diperbuat
##amina
##opo
cape
##aly
menawan
##abungkan
Morning
belakangan
##cer
##akiman
Mong
Nomor
sedara
kehabisan
SIH
dikemukakan
membuatku
licin
dianjurkan
hold
##enor
BERK
Ven
pondok
##usikan
Paris
disiplin
Duduk
Yassin
Angel
##corn
##ansel
konv
might
pajak
##gb
ES
Terlalu
##ormatan
Payudara
##tertain
Pilpres
cium
##ayam
Abg
Kegiatan
082
Kaki
cry
hemat
X1
menjerit
Jasa
myself
Kuat
Ghaz
Naj
##antinya
Div
Ehh
insentif
kebencian
chinese
bandara
LI
panggung
landasan
tonton
##MP
isyarat
angkatan
cause
jaya
penah
menyanyi
Road
Ky
kandar
atasan
ABDUL
Sib
##ebatan
track
seimbang
sembah
laper
warganegara
##adual
##egrasi
melamb
##apatkan
Sand
GOOD
Bandaraya
ahad
##enas
undangan
massa
fine
##oucher
##fum
terputus
erat
##elat
##ority
TB
imb
##LAM
pegangan
OT
cerdas
##adisi
##isnis
Ape
persetujuan
##hyun
Rich
bermasalah
mencecah
##LIMEN
NASI
Tutup
beres
membiarkan
##TING
camera
cleanser
using
suay
##spirasi
mencuba
Huawei
kuar
dipasang
##db
reaksi
son
askar
Bac
BEST
menjaringkan
Produc
Setuju
kesedihan
diorder
##tibar
AND
till
alaihi
Sebaliknya
mk
famous
hantaran
berebut
Harry
ain
##ign
together
berenang
especially
dibakar
Ibnu
Paul
mangga
##RR
##alukan
bobo
Pizza
House
##fort
maksimum
ajaa
others
SEBELUM
namp
sawah
##hael
hello
##iker
##metik
##oki
konsert
Tentang
Tapak
Bodo
Pondok
##astikan
MUL
Sejadah
Zakir
umno
kne
klasik
scene
##ists
Chelsea
protes
cec
PERCUMA
base
surabaya
##ayy
Miri
##kes
jomblo
TE
##ates
##ended
perkampungan
##ematik
jeans
##ormon
seksyen
mustahil
pesta
peringatan
COVID
Perbadanan
kai
profile
berturut
iHeartAwards
Kebudayaan
Bupati
Pengk
Maszlee
Home
pup
##auma
After
sai
##itah
kesuk
revolusi
##orbanan
##py
kagak
suh
karet
Penerb
##enaraikan
Jimin
##umpung
malaikat
87
cetak
##ART
##atra
##aiman
pemer
stuff
kelemb
kabupaten
relax
Gur
KOK
telat
##apter
ngeri
dibunuh
booking
kopiah
Perp
##ffff
xp
TENG
##anjangkan
LG
Standar
looks
Dengar
AF
touch
Batin
bener2
Asalkan
Utusan
##ane
Haaa
##GH
Ayuh
Pandan
##oja
keluasan
##ova
##AKI
Gas
##RON
##irnya
jersi
Hur
dol
Stock
Musta
JOM
penya
Luas
throw
##ANGK
TERBAIK
NOT
Bid
Perubahan
manifesto
##idana
police
demand
CL
dolar
Kemen
Kemarin
RAH
kebanyakannya
Screen
arti
PARLIMEN
JER
keuangan
Insha
kantoi
product
mengump
##ahamkan
HEL
##ersih
elaun
##asmian
Pahat
Gag
dipers
##isipasi
tuju
kadang2
kalori
hahahh
##ensif
Mukh
Cak
Mie
Mandi
Ingatkan
##screen
##PO
##erve
Lengkap
Chris
##ominium
hbis
yh
RAMAD
mukanya
##embus
##hrs
##abel
scrub
malaysi
dianggarkan
Besi
melek
SAMPAI
Retweet
Ling
##tut
Share
##uruteraan
##yih
##Per
KWSP
82
dialami
takdak
##ungkus
tabah
POSTAGE
Sovi
blah
aka
saldo
##ective
dibeb
Coklat
Lemak
Asam
Cukai
##uja
kete
kurangkan
##UMB
god
pengembangan
##irul
TP
kesus
##berry
Station
gelombang
##ewaskan
assalam
##isikan
TA
##amik
mikirin
Book
having
tubuhnya
##okal
terluka
wifi
gambaran
##zh
Selagi
Thai
PAC
Simpan
KULIT
Japan
mengag
Apapun
##imaan
mengesan
blg
Zip
temui
elak
KDNK
tertera
sesat
Sweet
BERB
Madu
ngant
memperc
BAIK
##onav
perd
persepsi
turunkan
Bilang
Sap
Maybe
nipis
semakan
lebuh
Pasifik
kontroversi
gik
kedalam
Hubungan
dikh
paiseh
Muzium
##rumah
##assi
Ruang
Terdahulu
##ITAN
Way
##luaskan
Tl
bakso
mestilah
quality
##case
##ARE
Iron
Sumb
ky
oot
tib
dijumpai
##43
##ebon
##live
Haah
Biru
##etapan
arg
##atat
dimul
lebihan
CANTIK
##uarakan
BANK
audit
baka
Soviet
Pengan
Selat
prop
Lebar
merayu
##umbaan
Sobat
##ility
berkuat
Pelbagai
gigit
##ingya
apps
##ANTI
Hehehe
Jur
disimpan
neh
##Cinta
berpun
##ekanan
Bach
telor
Taiping
Hold
Plat
sob
Pancasila
GILA
Ramli
##ICE
Pesta
xd
visit
keindahan
##ebus
##aze
ending
##elakaan
##baik
early
##vert
Dagang
Tubuh
dialog
Special
Tokyo
mig
NB
adab
getting
asked
Pelancongan
Mampu
dikendalikan
pdhl
rang
##anggih
##ahal
1960
came
##endaki
mendekat
daddy
Serum
GEL
##ulus
else
tng
huhuhu
##kal
automatik
##ides
komunitas
##takluk
accident
hik
##tib
rp
##tivitas
Tap
Datin
terjatuh
Azhar
bersabda
kemunculan
Tokopedia
bende
Perubatan
berniaga
##ahatan
##ako
##argan
kelima
##ehkan
BERSATU
TINGG
TS
push
##rut
portal
Ngga
People
store
##antren
apart
TEK
XS
meneliti
bujang
##lig
##ogram
mei
pijak
Akh
Jeneral
menghina
kembang
Manag
religi
##ador
mikro
pelarian
kantong
##93
BBMAs
Studi
taktahu
Saja
merdeka
melewati
tiang
matrik
##itud
##embuhan
organik
Milo
Chen
##lay
628
gemok
##won
##eber
##turn
tekak
jati
istr
##wear
garang
herbal
Masya
Mujah
SIK
sebutan
mulakan
lock
varian
##udhu
FOR
mengundang
station
##kaun
Efek
ditunggu
videonya
gosok
digantikan
ibuk
##urnal
menyusahkan
ketuk
muslimah
ucapkan
##Baru
SIAP
sosiologi
maghrib
##anka
YouTube
fish
dikawal
##intir
membesar
Rahim
Bandara
melayan
AV
James
rele
Curi
pengin
perbedaan
##zerland
dimas
menanggung
iktibar
Reformasi
##alaya
sales
experience
##emahkan
##game
##onavirus
dimaksud
Palembang
##marhum
amaran
Taiwan
beratur
##eshop
sr
Elektr
BAK
Girl
Ohh
instead
##afsir
##alla
##ression
beliin
##impangan
Peluang
##unyit
Laki
Perniagaan
melanda
Kaum
Empayar
Rock
##odi
formal
kekerasan
jk
ling
##wangsa
silat
note
Def
mg
##2in
dirancang
mendirikan
gugur
blue
Water
menyedari
##afas
ingt
##amerkan
Osman
##akui
##pert
##ilia
##aruah
Sedikit
effect
dara
melec
awan
Dz
Dick
hist
##atutan
##agn
persidangan
aiskrim
##affic
Fatihah
yer
Misi
dijaga
anime
##aces
secepat
Lin
pengikut
trying
##celona
Lam
pik
##EX
mendidik
SRI
##150
attack
dituduh
tro
Kelab
Bawa
host
perwakilan
UI
##rown
disiasat
##Is
RM30
balasan
segel
Penduduk
thinking
berlakunya
menghampiri
Sayangi
1987
##opter
LIVE
MIC
fu
beautiful
Gap
Berc
budi
temen2
Kemas
Sebelah
fasilitas
##unty
##esaran
dalem
##emis
##embahkan
balai
kepemimpinan
##quare
74
See
Rohingya
2nd
agent
Api
##ellow
bokep
MV
PAY
tick
##nia
##ampun
UTC
guling
Mahmud
kantin
pelancaran
Bib
quran
GB
gigih
robot
PUNYA
Sambal
SYA
kaka
ub
##foli
##reci
working
batam
Gereja
##aft
sempit
Tor
##dung
au
dinilai
hop
##eteran
bully
SUDAH
menenangkan
##urity
kesep
decide
trending
gmbr
Tanggal
jentera
##IX
sms
latitude
dinaikkan
dicari
##oter
JPN
Ciri
terjangkau
rupiah
Menggunakan
KEK
ASLI
ceria
##iza
Bawah
dihadiri
alarm
##iringi
sharing
korporat
due
bercadang
89
Huh
telan
Saudara
Tugas
Yakin
##Social
##ukun
atm
Flor
##ensive
misteri
##roh
menganj
Sok
terlambat
tenggelam
Jadual
##uty
mencetus
Boss
BULAN
##embunyi
sejati
khasiat
Penyelidikan
##aine
##odohan
Nis
##ALL
Belanja
Switzerland
##amis
##ether
Kualitas
panel
##sd
##acita
##onyet
santan
##aintif
Paduka
penghuni
##aksin
KB
Batam
Karim
JIM
cake
sticker
##DD
##ather
##erc
Penerangan
Honda
##akam
merem
saying
rumput
dipindahkan
##ledge
yok
Keadilan
terharu
##ucks
statistik
Kadar
gerai
Silat
Konsultasi
Pek
keatas
capai
sarang
complain
Corpor
BATU
melekat
worth
Down
lont
##wanita
PROMOSI
##VE
terkesan
remb
##iyah
##lemen
lama2
Price
sekeluarga
menguku
Jon
##Sh
011
longtitude
cil
Celana
bai
yr
bwk
rais
samsung
Your
##flix
##istim
Ami
barai
TPS
Budi
prihatin
menghar
syah
Minuman
coz
korupsi
pagi2
BRI
melarang
Pls
SAHAJA
bleh
##SC
periode
##UTAN
##endi
daripad
##UTA
Hamzah
Diri
##ulurkan
Light
ngg
Bakal
Friend
##olik
Seter
Koperasi
colour
mencer
mahukan
Mengikut
Mary
mostly
##kriminasi
Serikat
HID
##Asia
merusak
toxic
MENJ
BODOH
langgor
mach
##uaskan
butter
mp
kecemasan
Fokus
##ubur
SAMP
org2
kritikal
##king
Apple
Singh
Sukses
##jb
##alaf
gelang
binti
Fast
##tag
Rok
pekat
machi
##EKA
##perty
Penasihat
sepasang
bln
panda
Dus
Thomas
borneo
Dri
lantas
##tie
Mencegah
##cr
##amana
diiktiraf
bantuin
Center
penghantaran
##ulung
0878
Status
Zahir
NKRI
84
Liat
tercinta
seawal
berkep
bersah
setinggi
##geria
ruf
planet
diangkat
Pec
gym
##impah
fall
kura
dial
##esahan
bengkel
memperjuangkan
ISLAM
##ros
Atl
##uper
##aaaaaaaa
memelihara
tmn
##allallahu
tulus
snap
Promosi
##oyak
celah
hero
1985
CIN
jeng
Haute
Ijazah
Putri
goyang
lazim
Cendol
craving
poslaju
door
Ai
##alifah
bae
Scarynya
nut
identiti
Johan
More
Harimau
1989
dikat
tempatnya
##book
terkand
Gojek
Brown
Every
012
Alias
##alisasikan
##timbangan
##iha
Body
Dong
dai
stalk
##andainya
##tipu
93
##kanlah
##aful
Gob
Hum
farm
menangg
front
series
79
audi
ride
diman
round
penambahbaikan
MM
##awakan
pemaju
##arung
##esyen
pretty
nyamuk
Prib
Keg
##wara
##alihan
says
Khai
Olimpik
renang
falsafah
sister
Daging
##bk
praktikal
Persidangan
LP
lena
piaw
handle
Press
keta
##aafkan
padamu
##ergy
##asabah
##gig
##pect
##itain
##aharuan
##akti
kui
lif
##tupan
Maksudnya
##HIR
LINK
##lie
PES
terancam
sejahtera
3x
Bayan
iso
tersayang
##angkakan
USD
Robert
focus
##reh
BNM
##pur
tidaklah
jadilah
bella
Mencari
North
##eboh
Sulaiman
Sew
Strategi
Duta
membuatnya
tunduk
Boc
hisap
struggle
corn
hamb
##sap
81
pakatan
pedalaman
##gy
##ABIS
twt
terkadang
##61
berkem
besaran
relevan
penghujung
jok
##umbung
mengurus
auth
MELAYU
beris
##erie
pengganas
##acamata
##ief
Kasian
analisis
setidaknya
kabel
sudu
Keterangan
bacot
Hisham
jangkitan
##venir
Jab
mid
Shin
Abi
Wisma
penal
dagangan
Idul
Lag
terminal
ngej
##outh
##ventus
Daya
Jawi
Que
##TopSocial
##astag
##kulu
arm
Masker
Marah
RAS
##itikan
##venture
##uko
adiknya
temannya
seiring
Sambutan
pp
lembab
##ladesh
harm
peman
##engka
Konsep
Maya
##akitan
kemasan
understand
Jag
##dha
##vent
dimin
meluluskan
minister
Proton
beracun
Toyota
##ahhh
memasukkan
pedih
##hm
Alb
Hen
Rules
##fu
##ahit
ukm
##turan
skip
lukisan
Mintak
Cons
gabut
mng
##endek
DULU
OV
##angsang
ditarik
caj
sofa
##azz
sememangnya
##eeeee
Sid
Pemenang
Memp
Federal
fenomena
tertakluk
dipaksa
##gentina
tauk
kakinya
##ACA
kewujudan
diuji
##isar
92
Join
##aruda
##ikirin
##ongkang
Golden
SAK
beribu
sambut
mrt
macem
##ket
There
Ayer
gopay
musnah
memus
bajum
##olakan
preg
IH
##oliday
Imigresen
berdikari
Kop
Alhamdulilah
3D
Ver
serentak
perhimpunan
RUU
syiah
hob
putra
##ians
skirt
##rove
prac
denggi
##vis
##obile
tante
Chong
##ega
##ingkali
mencerahkan
Yunani
eksklusif
helai
dapetin
believe
##ASS
rese
##iktirafan
Seterusnya
Kertas
Pun
pengorbanan
mendesak
nt
BAY
jek
curr
perihal
##oid
##gerak
Geb
Kre
##anta
Lengan
Sukar
Pariwisata
takziah
wakaf
##egaraan
##IRIM
##rahman
##anggaran
penyebaran
ganj
manual
Gadis
##ajahan
dahi
Aksi
lob
RM500
cheap
PAKAI
##irakan
bimbingan
Situ
months
##ocolate
pasca
WHATS
Poland
Andai
##kuk
Get
Yaa
kin
CariAku
##yarak
##asihatkan
perlumbaan
Britain
VID
valu
responden
menemani
Audit
Xiaomi
##anjangan
##ajui
##ptn
kotoran
menukar
Music
grow
##rakan
beredar
peperiksaan
Pulang
Tat
comeback
Saifuddin
Meri
UPS
took
bedak
5k
Bapa
utang
kekec
Bany
narkoba
gempa
##asal
RM9
##adab
bergelar
mempelajari
##Syurga
gong
##ulk
diturunkan
##roduk
ajib
piring
##anjak
##utihan
##ukri
KERJA
DONG
##grade
SIL
##uv
disambut
##ifatkan
wear
Disney
##REAM
Cadangan
JUM
though
##onjol
HAHAHAHAHA
jago
diatur
##Sel
Keempat
berdosa
Kebajikan
MACAM
rich
betina
deposit
meme
daripadanya
##Mu
Akak
jendela
Matahari
pojok
Ming
##MAD
##ATA
##ggg
momen
friendly
Sebaik
Ratu
bengkak
Latitud
seminar
april
##elawan
ado
terbentuk
worry
imun
nar
pesat
contr
tax
Ariff
machiam
##onic
Non
Takp
Sampe
##anaman
##antangan
##teria
William
Bukti
SETI
Mujahid
STATUS
Engineer
Longitud
IV
Alif
sejenak
gurau
Menerima
NIH
lamp
wala
yi
ramai2
pertik
Ot
##astam
insurans
YUK
lidd
caption
geb
rules
syak
menger
materi
SIZE
##xico
##LIS
##eriak
jis
Pasal
india
maz
##jar
sari
Hei
dipandang
kiamat
followan
MIL
menantu
HO
Hallo
Ulang
diduga
bantahan
macet
Oil
jumat
mempromosikan
najib
##andra
##thn
Diskon
DES
##nul
junior
##jogja
##ekas
##oved
kian
dibutuhkan
ign
##tupid
##CE
pemahaman
Usahawan
Airlines
Shari
dimulakan
Et
##TB
##ilaku
##ooth
##nival
glowing
##ners
##ahasan
##enderal
Othman
KO
Isti
Olahraga
aamiin
err
##wang
##DP
Remaja
Stay
lajur
menep
##ede
##intik
Chan
rilek
menyifatkan
suggest
Abidin
billion
hn
##uruskan
bersedih
Anis
logam
ns
mengerjakan
##ournal
ikatan
Perasaan
pengedar
##angkali
lemon
Formula
pentingnya
barusan
credit
pabrik
sj
##ahas
ana
derma
Dic
attention
dibintangi
tertidur
Luk
sip
sampingan
kedaulatan
DIY
kara
tggu
##ther
ustadz
action
Sunnah
Perhimpunan
Vir
##angkatan
Isa
dimainkan
Fungsi
Wira
##lear
pemindahan
mesjid
putrajaya
Fakulti
menyiasat
Hub
Ujian
BE
Work
ciptaan
##oster
pengangg
1986
##action
Gamb
Mew
babak
tasik
ngurus
Asyik
liddat
##NIS
Memiliki
Kanun
penglibatan
##amas
##uler
sugar
Les
Wangsa
menandakan
KELUAR
annoying
##clusive
padaku
mendoakan
alone
Sektor
dipegang
berpuas
Cameron
KALIAN
##ongkrong
##apin
##empol
senin
##andai
Bawang
UV
street
pai
##pong
PKI
tida
kelar
Dinas
Dada
Warung
##ense
##ITAS
Korban
##ipat
Kelebihan
##Army
lalui
Naim
Taj
##72
direka
gadget
Tpi
Konvensyen
doctor
pemasangan
Seronok
erti
Doktor
Nusa
terku
Via
##antis
konsultasi
##egangan
dirujuk
Kandungan
porn
##rad
color
##tertainment
Samad
laaaa
menyadari
insyaAllah
berdaya
menjana
apalah
dipimpin
DEP
tawa
semesta
##tifikasi
mulus
professional
##ajibkan
mimin
##pasti
search
temu
Travel
learn
Cib
kuala
speed
##ONAL
Depok
KTM
temerloh
MAJ
jawi
mere
halangan
##intis
##ualian
jadwal
hormon
deb
##atimah
Direktur
CM
##eprek
##obain
Pesawat
mengunjungi
dl
Bangkok
Ran
##jual
Arief
perikan
memad
FAM
Argentina
patung
##Online
klang
wash
Arsenal
##abul
Young
liputan
Disini
peka
##mod
##bour
nikmati
##field
Pertanyaan
Pembelian
Bent
Polda
ess
ef
sepeda
kmrn
##KWK
Tetiba
tembok
Lt
Kandar
Tentu
Desain
temenku
futsal
mandat
##erakan
SEMASA
##COM
satay
##engerusikan
Buang
##iron
doesn
larat
AUT
upah
Mira
Nob
Pelaksanaan
##DiSyurga
Wes
terdiam
##ustaka
persahabatan
musibah
assalamualaikum
Menang
keret
saingan
Bukhari
When
##tures
pendatang
White
Kangen
##ulik
##aruf
inside
genre
Romania
Tawau
bara
BPOM
Vill
Zh
##idap
diserang
disamping
##arna
CariAkuDiSyurga
saudar
iftar
Cawangan
fig
DIJ
putri
##akmuran
##fon
##AWAN
MENY
Brand
taunya
yourself
permudahkan
SUN
185
20k
Bermula
pensyarah
JNE
##ihun
TUR
DUIT
Stud
##74
channel
Ikuti
perikanan
rebut
Kerjasama
Final
milo
##wed
berke
Puteh
1988
mendaftar
Radio
praktis
##ingankan
Menjelang
Mutualan
four
ketul
mengu
##sein
##ville
##via
bestnya
Sesiapa
BEK
UU
dibincangkan
menekankan
menolong
piala
BADAN
Jej
Pekerjaan
Suci
Demokrat
radi
##BD
##down
berkunjung
KONS
ANJING
Fan
trauma
jaa
tingg
Walk
berucap
Penting
testimoni
WHATSAPP
EH
LEL
Sempat
rew
aroma
State
enaknya
1984
kekalahan
mengancam
persediaan
siap2
Aja
##mpu
##ultanan
accept
keluhan
ngat
tdi
##omatis
kemaman
Bersyukur
##ouvenir
Barcelona
Knp
Sara
##kala
pertimbangan
konservatif
Selayang
kata2
##sigen
##echnology
DAY
Generasi
##rie
##INT
TV3
pensi
penguat
onlin
quotes
dadi
iklim
murtabak
PW
impor
karyawan
hir
yuran
##zu
lep
##apres
##ulunya
menyebutkan
##ULIS
vid
##ops
tren
sngt
objektif
##batik
FL
adam
BBMAsTopSocial
berib
nyoba
sekumpulan
squ
tumpang
terbiasa
##uruhjaya
Anj
##ither
##ijaya
mine
Arif
Dipl
JABATAN
JEN
LIM
jurut
bertempat
YOUR
##lies
Slov
dewa
imm
Kesan
Tumb
bersihkan
##avi
Kasus
Smartphone
baper
peminjam
PRO
JomKita
##injau
WARNA
pedagang
##astera
Khazanah
umumin
Era
Kembangan
ortu
Petang
Rashid
mencetuskan
##wok
##egor
stres
curhat
##KIP
pengawasan
halo
Marang
pemakanan
Victor
##ungut
Bund
0896
berbau
tekstur
Mud
##iya
berkait
perfect
diisi
finally
Bend
kembar
Antaranya
sirap
perpustakaan
HEB
menari
##ovie
Cover
##usahakan
Ghazali
##gko
keag
berbangsa
Aset
##berg
##ungun
kelamaan
hap
##WEET
ball
##Rakyat
##islam
##rict
Haram
##ault
hadi
lin
riwayat
Tingkat
##yani
peran
Michael
##bulan
badannya
lipstick
MAGIC
##GAN
KEDUA
010
Mexico
Mik
jamin
##iskal
zahir
Bengk
kelajuan
copy
berpunca
Tua
lapis
cand
bebanan
Maharaja
PADA
biarlah
Ikh
ekoran
poket
##usahawanan
Jualan
Mokh
cawan
beritahu
Undi
ayang
amatlah
Kod
kriteria
ditangani
weyh
##reas
Leon
survey
jun
buatkan
gapernah
serabut
##abol
PLUS
##IRA
170
pecahan
Tik
##inerja
TOK
GER
LAIN
##tify
##ages
Islami
Jerawat
cun
merc
dilindungi
bagaikan
Fau
pertolongan
rahim
Kus
stick
trafik
nihh
town
minda
##empang
diber
click
ONLINE
Dec
mmb
heard
Wash
exo
013
BAHAN
Semenyih
BANDAR
bgi
disek
mcm2
##amadun
BELAS
Dub
##lia
diwak
##yatanya
Lapar
terhibur
uwu
4G
SUB
cum
teliti
jilbab
Shi
kb
chan
Cuti
##oint
##EEEE
##yarl
gift
melakukannya
fol
memaparkan
pembedahan
rub
sambel
started
menyambung
rempah
Lem
nau
naj
##zy
##ille
Pengurus
aktivis
Madrid
##AWAT
Bosan
hall
kecerdasan
Makassar
##etar
Bangladesh
keseluruhannya
MALAM
Bagian
OB
bogor
baring
NAMA
wabak
Kongres
Nenek
berhubungan
##rok
##yalah
mw
tutor
melon
##INYA
peralihan
popcorn
##armon
waris
Aeon
gg
manj
##mualaikum
##bably
##94
pelayanan
utamanya
SEJ
Hashim
AI
pamer
Cc
menyalahkan
Transformasi
RAMADHAN
AirAsia
##ampong
kosmetik
Ucap
KD
RON
##afaz
Niat
econom
71
Uthman
joget
kapasiti
##andarin
83
##unggulan
pra
##ejo
Mesin
##UUUU
Life
mne
##SU
##rame
##ulikan
Garden
kado
function
memuaskan
##anganan
Fakta
nyampe
MED
scam
wisuda
Tam
tgn
##tamad
##siapkan
##ousin
Gatau
maha
xi
dicadangkan
pala
kerumah
##aingan
##theday
marketing
Padi
alaikum
##atihan
Maria
gonna
94
##cast
Pelakon
Kaz
dibangkitkan
persegi
##pasar
##ribusi
##emia
##empas
komb
##ORE
merampas
gubernur
inci
terjebak
Update
ly
##dam
menara
version
Garansi
diabetes
Banjar
pekebun
keri
##ekalan
memperhatikan
miliknya
HER
pilpres
rain
matter
##AWA
sci
##ential
kmk
Emm
nab
balan
xleh
##endy
Ori
Adib
Tambun
Jambi
ditangg
lepasni
menganjurkan
Kaf
##GM
##audara
perhiasan
##otai
DISKON
##IGH
##marin
menjemput
dikec
Dm
##owa
Bazar
integriti
lucky
Syaratnya
Senarai
##Ber
kening
ultah
TET
##oom
TOP
menghubungkan
Dickson
Maritim
Nar
##alut
##oles
Beda
dianugerah
mois
wind
ext
##imbangkan
##ernaan
Omg
SOP
Try
UL
gov
##eer
##oser
aduk
didik
Nek
doll
##len
batch
mandiri
kelurahan
bergambar
135
Tangkap
baja
menguatkan
Internasional
hilangkan
ars
menghilang
Box
##elbagai
idaman
tao
##iiiii
SUKA
research
manager
ootd
pray
klia
Dgn
##lement
mengecewakan
hip
##EON
repot
##turer
maybank
Merawat
penganut
kapitalisme
Dewi
pengasas
##SES
##adari
dikurniakan
persaingan
##vei
##IDIKAN
LANGSUNG
##akia
nafkah
##afizi
##key
komik
Start
Karawang
Jadilah
PAGI
Masukkan
##elanja
##likes
menewaskan
aziz
Tengoklah
kese
##92
##siat
##unday
berpeluang
Euro
##eret
##ikopter
terserah
##370
merta
dibalik
##eps
RETWEET
ngumpul
Py
Tgk
eye
ft
pengiktirafan
dasarnya
menderita
RP
bill
nulis
million
##log
##ending
membatalkan
menghal
datuk
Kluang
##aram
Restaurant
istiq
dijemput
menggesa
engine
topi
115
VIDEO
ngep
mrk
barulah
YOU
tbt
unifi
berniat
Rub
mangkuk
018
Yup
CER
Kum
input
##adiin
berpengalaman
Gro
Sb
siak
BON
mengas
ptptn
##emuka
Almarhum
perbankan
Exco
urat
Musang
WANITA
unless
tambun
Laksa
cpt
hahahha
ktk
Urusan
##erikanan
OLEH
##sul
##UE
provid
appe
Sijil
BEB
ditukar
bubuk
tembakan
segelintir
keset
seriously
pras
banyak2
everyday
Shafie
##alinya
##onia
menjalin
kesakitan
krna
##ertinya
##dai
induk
kebimbangan
Pulsa
Rang
mele
Epis
ach
teka
tayang
grand
adik2
available
disyaki
monyet
emb
Alamak
bercanda
behind
pemp
math
studi
##opy
kelap
kesana
appreci
##emenin
Sci
Umat
tsb
##emate
##adion
traffic
pisau
Sentral
Jasin
haz
kafe
##ibus
usai
sakitnya
##itch
certain
Peter
hours
Corporation
Stress
rejeki
members
adap
##uyung
TTDI
DA
diesel
##ularan
perken
##kulasi
mencintaimu
##All
bergaya
##oshi
sentimen
blur
campak
##endung
Beauty
delay
Pertumbuhan
botak
Bengkulu
##rus
Mengatasi
GPS
kdg
rl
BCA
##jat
##epend
##ajakan
salahnya
penyediaan
Pengkalan
relate
##gian
menunjuk
Paytren
SETIAP
##ugat
pencarian
bokap
diskaun
ono
tular
##sol
##quran
##idge
Guna
benef
Ow
Rice
debu
Teknik
NP
waw
ISBN
tadbir
##ak2
dicipta
safe
##62
Misalnya
App
##erhati
fitur
Dad
persis
KLIK
bazaar
maya
skala
##TION
Terkadang
SJK
Kup
serang
Infrastruktur
DIK
Mimpi
##yanya
##tui
bersara
dibentangkan
property
sekelas
kepakaran
berpatutan
ujan
##esis
budget
emm
penyampaian
leader
Jiwa
terkandung
dili
sekitaran
KLIA2
menjayakan
Auto
Cincin
##inger
##127
PETRON
Bella
Perikanan
##andan
selamatkan
straw
gasuka
Fitnah
##fitnah
##vet
mengalah
Lai
periuk
##inang
asin
Teringin
##limat
##timbang
TIP
ingg
prabowo
court
Anth
##sn
probably
STOK
flop
disiapkan
pregn
canggih
##cara
meluk
memec
ngak
beruang
kagum
Tanda
MT
lur
##aysi
Back
dng
sebalik
disalurkan
##esterol
##loy
Percaya
berasingan
berperang
##angkung
##lame
Myvi
ster
Jantung
UR
Aktiviti
Salahuddin
ngerasain
tadika
##esss
gegara
menanam
bgtau
League
##bandung
##asalah
ketenteraan
astu
cantiknya
furniture
tingkatan
##ghan
Elok
Koleksi
BARANG
Bed
perbicaraan
Kahkahkah
Cem
sekilo
reach
Mut
jungkook
##Bahagia
idola
mengukuhkan
luaran
##aharu
membahas
judge
jga
til
kalendar
##terior
Okey
Pembinaan
jurang
Kempen
blender
woman
##yul
Cos
kejahatan
Menarik
tiri
pengurangan
mendatangkan
0877
Perjalanan
##elbagaian
##aulat
Bersih
Bagan
Maklumat
menyampah
nyen
foot
Hill
aslinya
shj
##lymp
coc
memperlihatkan
cah
Cas
Cip
##urang
##eksaan
lolos
Mantan
hastag
##antian
tercapai
Edisi
Dor
##tangan
kecoh
Trust
omongan
explore
PENGGAL
pizza
Guar
diperolehi
kosan
##uns
##rogen
##ingkirkan
memaks
geran
Alami
parfum
dihukum
KOP
atuh
sehinggalah
Faz
Sepertinya
making
Janganlah
FOTO
kaji
ayu
##ration
##indar
1945
profil
##nk
ngamuk
bersenj
deras
##akamkan
##uhur
##ITAM
##ENGK
##ury
##ekeh
curiga
kejutan
Rapid
Pinj
FPI
##irin
TERK
Perlindungan
porsi
Bei
##ehhh
menerangkan
Service
Jung
##asib
duka
##ongs
Town
##etua
##YS
##ayi
forget
bertanggung
Geram
Dlm
##GV
tender
reseller
Akbar
DE
##upai
##acing
Wakaf
Invest
perkasa
March
labuh
Cutting
##atusan
ron
dijadiin
puteri
Bill
stage
105
rayuan
ayaq
##hai
##KG
##untungkan
Istilah
##daftarkan
psikologi
##ummy
##ribu
tepatnya
Yaman
Youtube
pemilih
terkawal
rumit
##essa
solid
Sudirman
sink
Perut
chow
Kuning
Hart
Trip
##umin
DAR
TUN
##745
kesukaan
1963
Mara
dead
maxis
##hil
##yana
ditanam
sembari
Darah
membas
hmmmm
Tukar
Loh
##utihkan
Putera
Pentadbiran
sebel
tsunami
pau
stupid
##ekonom
koko
##bers
##eno
adu
##obu
secret
PENDIDIKAN
sendok
Juventus
Kualiti
tangkapan
Nutrisi
cli
##sem
##isl
##uuuuu
System
menegur
mendengarkan
##CTV
dsb
Yas
bossku
rant
wtf
Ketupat
Ara
produktif
##soalkan
offic
STR
sho
Tahap
LT
Batang
##aborasi
keberkahan
xda
empuk
Sale
HOT
Mam
lusa
pelepasan
Eli
Masalahnya
##asukan
Hom
Kud
Past
##ison
Usia
usually
MET
Master
haid
woy
muz
Ahok
MASA
##HI
bubar
ekspor
paw
berperingkat
##num
keses
Paya
tayangan
##market
sangat2
Kesemua
penerimaan
Spesifikasi
Pesuruhjaya
details
ORIGIN
seafood
apam
harapkan
Magh
Azman
menyerap
##ebum
Punc
selengkapnya
##utur
Mufti
Sky
pemilikan
Tib
cow
ngikut
tuduh
##itia
Getah
meg
Champions
Parade
Sleman
kutip
kuk
answ
khat
Ireland
##pagi
##amel
MUI
bedah
kicap
prank
susun
##akhiri
sndiri
Sof
ART
Jos
Jalur
tio
site
cimb
mira
membangkitkan
Mach
kerak
syaratnya
ABC
gim
##UANG
katun
hadith
ikuti
bongsu
ORIGINAL
Aff
janda
seringkali
prioritas
steady
yam
Shar
Week
Rosmah
##acana
thats
Perkasa
SUL
jihad
atok
menyalurkan
Highlands
Sese
berpengaruh
flo
mbah
dius
##apang
##nalillah
menghancurkan
BET
sdm
MotoGP
TN
Cahaya
Rai
##asarana
penerangan
##orat
##body
##stan
##ITED
Buruan
Maafkan
yee
##antiasa
sayangnya
intelek
Kamal
jbjb
menumb
kecelakaan
Tolak
##usic
Buddha
keberkesanan
Cotton
Dol
Sleep
##RIL
musang
cheras
Pemilihan
Johari
##gin
tega
membenci
##UMPAH
Rose
Kadang2
Terkini
Haziq
tergolong
tm
##sium
kecek
Apa2
Ucapan
Wind
##EPAS
GAMB
seung
beragam
pengund
diamalkan
##resiasi
DBKL
Adi
napa
##HAD
komedi
BAG
Jas
hil
rahasia
japan
##mel
##sar
Hit
1983
insha
disokong
words
pian
##urch
Berbagai
tam
KEJ
ISIS
jemputan
BUT
Wey
halah
##ampai
##asha
keny
Club
kli
kunjungi
##alisa
KOR
Ong
slim
Channel
tegar
fer
herba
nil
bismillah
##inggung
persekolahan
cep
lomba
##bola
process
Kuih
alkohol
menggelar
petronas
##anggakan
memperku
dani
kesimpulan
Blue
##ekonomian
Cash
timah
timeline
topeng
berperanan
BESAR
PETRONAS
##ang2
setara
##guese
boring
boneka
syaitan
ONGK
kombinasi
##SD
dekad
Indeks
rekan
Hussein
Rey
##turizer
foundation
panen
bekal
pencerob
Noah
Mengurangkan
wkw
##yad
##usuh
##ifikan
smpi
Tebal
omb
feedback
terikat
##residen
buktikan
medium
##zam
Mencerahkan
Zam
##asya
##astian
arak
##rav
broken
Konf
Tum
gunting
perlis
##ampakkan
##pg
diajar
sold
baek
gender
Seramai
Pesanan
##idor
terapi
parit
terpenting
oren
peluh
nyuruh
##sksk
##minya
##olf
Alum
##shs
didirikan
mother
##ahha
pakwe
Biarkan
angkasa
MTV
gerbang
alot
Berbuka
sorok
Koh
##bil
##astis
##cetus
kasihan
Simple
charger
##enggarakan
Ayu
direc
##ewanya
pangan
Faktor
##nivers
cane
Times
##ences
Portuguese
Mek
mv
Goodluck
WajahBaru
Win
jala
##ission
##uary
Mahal
Sikit
terdedah
kritikan
limited
pendedahan
##ornia
berhas
dijadual
##esaan
##sip
pengerusi
national
##mir
##Ke
AMB
terkorban
Resort
Eur
Gor
Iq
pengu
bm
##ington
##egaran
menyuruh
kecurangan
hidupku
##itanya
terawal
##icu
potato
Loire
Kuliah
Forum
##akapan
mummy
lembar
Anuar
cerai
waiting
ramadan
25k
Novel
Total
WajahBaruJakarta
MON
maret
pom
##HAM
ore
##zzz
limit
hash
pnt
##54
##used
bertau
dibebaskan
signal
volume
##pack
##irit
PADAT
ca
mega
Sesetengah
cabe
Seseorang
##anyikan
Resmi
wanted
dimurahkan
Company
##ebelahan
DIT
kunyit
##ight
##eden
sinis
##istimewaan
Aqu
##cover
VIR
padan
merk
KPDN
REAL
dkat
towards
##okk
##89
##apur
selari
1982
##idat
Subuh
JA
cau
isnin
##roduksi
##ustry
Sahur
dibelakang
Darurat
jajaran
Store
word
Ongkir
menuduh
kann
JAYA
MAMP
##ARIK
diskusi
sebabnya
tertekan
##UNGK
Nel
Permaisuri
##con
maruah
##ikot
Iyaa
Iklan
masukin
menghapuskan
simpang
##hod
games
Halaman
fiskal
perhatikan
jambu
positive
Sempena
##init
bersam
##hysi
##ungu
##atasan
LAB
sebak
asid
MEND
Muzik
memulihkan
Nikmat
awal2
##injauan
##alalumpur
sendi
##dney
Dijamin
##role
age
polos
##azak
##ondong
pujian
tayar
##ilas
##OOK
##INGK
carry
nv
##The
Perodua
##oksidan
HIDUP
keagamaan
##iaq
dibiarkan
Diet
mager
Boh
triliun
diperiksa
jeragat
##bih
Setahun
##307
1969
DEK
fund
##Dia
Rasah
jw
##embar
Soalan
mbo
##alifornia
##ales
##inget
Awalnya
Nav
cen
kick
father
##aduan
Kuota
otomatis
holiday
perisian
Jenderal
Shopping
##boh
diucapkan
##ghfar
sosmed
compet
kirain
Istirahat
toleransi
oksigen
Siswa
SENDIRI
NST
Pemeriksaan
ISU
1x
LEM
##tom
penanaman
Penguatkuasaan
Mandiri
opinion
##agfirullah
melihatnya
nampaknya
rambutnya
3000
##01
PhD
Klau
wisat
Pag
skrin
table
wadah
cooker
##base
##abang
Hahahh
Det
##eget
plk
tbtb
map
##UNGAN
mengejutkan
nin
gile
tatapan
Gayah
Laks
##apor
Bye
Xi
##ekk
Len
##oskop
DPRD
Herbal
membiayai
##astra
##Prabowo
buil
visual
##eport
##ITY
liverpool
Penyelamat
hate
Key
Pendapatan
East
##nu
Lot
Mang
Sut
gent
NIK
nc
##arya
Assalammualaikum
Postage
Tawar
iseng
hao
kejatuhan
SUMPAH
rotan
meraikan
Terg
##minkan
dor
fik
##onst
##injal
ring
taat
teater
##pisahan
##ulat
##ULT
##ONGAN
##pak
Sebahagian
aiyo
istrinya
##84
important
berhasrat
bebel
resepi
nampk
fatihah
##adaban
sekatan
penguasa
##ITE
rid
Hard
terkemuka
lazada
Reb
SKM
nota
##ussalam
kilat
##angkir
ajaib
##amsul
Charles
jantina
taste
##ebihnya
menyay
Level
KTP
Tweet
borang
akuarium
semudah
ALL
##uasana
Jho
##KP
facial
Mukhriz
pengangguran
Berikan
stan
Kartu
WE
pelatih
Jemaah
vc
woo
##oho
Perwakilan
penak
Seminggu
besarnya
Sug
vokal
Tea
##alion
##IHATAN
Profesor
##dis
pencuri
nat
##isili
sket
sallam
##xiata
TWEET
bajukur
CP
Daud
rb
rasional
UTK
memori
berisiko
gampong
##Out
pencernaan
##AMBUT
Ramly
dawet
##akes
##udak
kejut
timbalan
HALAL
serbuk
kananku
lulusan
Strateg
kental
pengawal
Soft
terpisah
medis
##ritory
bik
##pernah
##ATKAN
tengahari
##okasional
lucah
LH
##ambaran
menghindari
Artis
bhai
##las
Seminar
pijat
##ongket
nob
hidupmu
Donald
pendam
Est
Yak
##urabaya
jeee
encik
menjadikannya
astaga
Jong
ejen
Atasan
Tump
riba
##atever
Central
noh
##rd
##ipar
Izzah
Gara
Lombok
eksekutif
Kabar
hidupan
Masing
##timpa
##adiyah
Fasa
##ux
##elling
##organ
sunat
AFC
Suasana
MRSM
Hutang
beramai
##ontok
Indonesian
menutupi
Faizal
nongkrong
##ehyun
dikurangkan
melecur
##roleum
##ges
##You
ketentuan
Afghan
Kipas
Kambing
##eres
##ERT
perolehan
Coffee
operator
Pengedar
temukan
Lyn
uols
##lywood
giat
knowledge
WAJIB
Jati
##aukan
serat
Sinclair
loe
##oseok
Puas
mamah
saintif
##ihh
Akses
MASALAH
Congrat
rombongan
##bor
##FT
##Fan
alif
##anyakkan
terjamin
bercerai
Dai
Most
rate
indomie
Heheh
##02
Ado
TNB
##pan
seump
dahla
Some
Diorang
shot
agung
definisi
release
##ikatan
tempe
Card
GAM
##gasi
diantar
bual
dihormati
BA
Gelang
ZUL
mempers
##ASIL
TUD
roll
##OVE
ikhtiar
RO
Danau
general
Nu
imagine
##lock
menerus
##was
##ekek
meroyan
BALIK
Chinese
PREMI
##gah
##ubal
##kinian
keknya
merosakkan
dijelaskan
##tudung
scary
##awanya
Belanjawan
Nice
bata
##akses
pengecualian
senantiasa
usha
Rahmat
Hidayah
##dal
berenti
Inc
letupan
##ariskan
lempar
medsos
semi
upgrade
##limited
lil
212
Milan
confident
Wall
berpolitik
signifikan
Lorong
pembaharuan
keterl
ditempat
percakapan
diwakili
##aph
##edek
ngada
tauu
goes
Madrasah
##DiaBahagia
Opp
Muara
Greek
MUT
ahhh
nantinya
ekosistem
voucher
##entik
penularan
##UNT
Eks
AsalkanDiaBahagia
gebu
##awn
dikuasai
Pengel
Kemaman
Artik
Makcik
recei
BPJS
shift
##uction
##OND
Android
HAHAHAH
##omotif
Wonder
SST
##edang
Jog
pod
Anthony
Olymp
Yelah
##endahkan
##engkapkan
AJL
mengumpul
terjumpa
meyakinkan
penalti
Lepak
JUAL
Slovakia
##asir
Saksikan
bre
terbitan
KIM
##urian
KALI
Gaza
PAH
##ektor
##zed
##tional
##iform
##KKKK
Petu
Arah
BATIK
##olisian
##INGAN
Pertempuran
Scot
cuk
##eram
##alahgunaan
kesatuan
Madinah
bbr
tor
##tazah
serawak
##ording
1974
Powerbank
jal
pasai
kuc
Avail
hafal
##unsel
California
Great
MH370
##etop
##ible
hent
slip
##ajemen
Khilafah
AWANI745
Standard
GUA
Hend
##ount
dipengaruhi
nyar
##aini
##sif
tersel
Pontianak
##73
1950
pembersihan
Our
##lor
tertulis
persamaan
##irulina
bego
borong
sukanya
LANC
WAH
##anjong
Udh
hh
menonjol
kontrakan
Transfer
keping
Perhubungan
reading
likes
bajukurung
##jukan
compare
surut
meriam
kd
astr
##AAAAA
Kaedah
HELP
batal
alas
##ITU
Haritu
cemana
Ly
##chan
##eigh
ONE
Castile
kuant
notis
dihargai
mbok
recomm
Lou
UIA
ditunjukkan
babe
Terbaru
lift
pariwisata
##buan
Sydney
instag
##KAUN
##itr
tngok
Pandai
muter
##akbar
soci
Keseksaan
NURUL
Milik
##ive
##IIII
DISKAUN
seller
manage
Obat
tarian
alis
Bot
Nikah
##eleh
Alpes
mengutamakan
BANTU
yog
##BP
##YMM
dikeh
##muda
butir
dinafikan
last2
talking
menggeleng
Andre
segitu
pict
UPM
Tradisi
KLCC
Menjaga
nature
Pinjaman
princ
Sebelumnya
KASIH
##tangga
keliru
stor
ahmad
bergaul
Business
##elia
##eth
berantakan
##aler
##antum
##AJAR
hawa
Perpustakaan
Hor
jet
mengungkapkan
FAST
tunjukkan
##acle
perbandingan
Pustaka
laga
visi
##oker
Lanka
##uping
bersesuaian
pred
yea
Train
Sejumlah
Yeay
##ATION
bersepadu
##ano
##indukan
ee
##low
##ribut
ngerj
lecturer
Nab
##ULL
LAP
Mee
pj
motiv
Mood
Naf
dang
mengisytiharkan
kebodohan
pangkalan
tertuduh
Self
hakikatnya
Mustafa
Kapas
rakam
KESIHATAN
FIT
Lawatan
diakui
undian
benua
Lek
##ANGOR
idup
Gelar
pke
sdt
JAKIM
Customer
RA
Villa
##kum
##epit
nyaa
hih
##kuhkan
##ument
##ovid
repair
skuter
##IE
outlet
##esterday
##eknya
##zuan
dev
Samarinda
Ath
##ampoo
##angkar
mahir
BISNIS
Fa
sand
##ised
##epung
solusinya
Gading
OVO
tersangka
##uage
##atie
refl
Niaga
1965
##opok
dipec
rojak
HAHA
##opatra
berseri
##punya
ngomongin
Save
mengumpulkan
ONGKIR
Break
Jemput
died
##alahin
Penolong
TANGAN
fed
selam
Menangis
Ahh
##epakatan
##kini
bersejarah
##ogen
payment
sperma
conn
Gobind
nia
##arac
##USAN
Perjuangan
##rated
Kampong
keharmon
PASTI
##cribe
Gul
voice
ikon
background
##ebriti
Tertinggi
##idak
##ancial
Gedung
Ig
Roy
##lasi
berterima
animasi
BLACK
Peti
Solusi
memuji
memajukan
Adnan
resign
perhubungan
Kunci
LED
##76
krau
ER
serantau
##inting
cekap
##onight
##nh
##empit
etika
menyakiti
##omah
Fiq
Harusnya
1981
daily
sihir
donk
##idoarjo
Maghrib
Anjir
##ographer
berbelanja
RM300
Iraq
Rawang
menular
ANGK
apple
Baitul
anno
menerapkan
ibuku
jumpe
Pribumi
##auda
##inggan
survive
sembahyang
Lantas
##onial
datangnya
yaaaa
##fil
##hhhhhh
##ezakan
SALE
##ukat
mengaji
sour
sambungan
##photography
Avengers
dianugerahkan
Ess
Kastam
SALAH
mawar
pingin
Berani
shar
blood
koi
korek
kepadaku
##pat
RM200
jut
timp
terser
Harta
##ovo
ulasan
extr
picture
##fr
lose
##79
##eser
dance
Enam
Krn
Normal
Penerbangan
ple
##edisi
smpe
Lahir
kulin
##ajiban
teguh
bertuah
Damai
##egory
##ucu
berputar
vaksin
diseb
##niversary
gurun
memukul
Perpaduan
keser
##alar
diinginkan
##ofa
##KIPM
Pembayaran
install
Ox
hidayah
Kunjungi
##inilah
##adanya
able
##AWAK
360
PIS
TAG
alik
meringankan
penjen
SELANGOR
pendakwaan
Over
Aik
saving
Permatang
PUS
haus
dijalan
##mentasi
Pedas
rantai
depannya
Jambatan
dimanfaat
menginginkan
setel
Segamat
sudden
##arganegaraan
##wk
merayakan
pond
Cook
Rafizi
Yan
##ebunan
running
saraf
merugi
penambahan
##ict
Chin
doain
persatu
militer
taehyung
menumpukan
sujud
Mokhtar
wudhu
##astic
taking
##ico
Idol
CC
IR
mela
##eranian
booth
Cleopatra
##Tan
wahabi
##elakangan
##imar
maknanya
inves
Wis
napas
##col
##eds
PAKE
Rese
menguji
Bencana
Vel
##UMAN
EXCL
culture
selasa
ngapa
milenial
photography
##FanArmy
##kam
adlh
Keren
BCL
inti
##uksi
kalini
ditengah
JOIN
##abek
melatih
sekor
flek
Golongan
terganggu
Corn
##emik
pakat
##sik
selling
sekar
ngangg
##angkapan
##obati
Ampun
Temerloh
menyusul
Sendiri
##acan
akrab
rekening
pontian
mej
menyuarakan
menyeru
MINYAK
##setujui
##ahat
##ASIK
River
tried
Amal
kow
##unce
##irukan
rezim
##382
hambar
##eem
Bahaya
Sejahtera
American
Jatuh
Los
heng
##fera
##onaldo
dinikmati
HE
flu
valid
mengkritik
celebr
##Unit
luntur
##SG
abadi
Rizal
##ayo
penyus
Since
hshsh
ngamb
Berku
challenge
klub
##rel
##jadi
kekinian
Percayalah
Alahai
##anselor
MAJLIS
Dukung
PN
##yp
return
##izi
##utong
##upas
##achi
tegang
USA
thankyou
Tekan
code
Mert
condition
##ATIK
BestFanArmy
Sepat
rompak
terawih
memaafkan
nego
##gne
Laptop
Pelaburan
Lakukan
##St
##URA
intro
TVET
Pameran
ceterah
##ishi
kartun
pencerobohan
Bec
CUMA
menel
Zai
##ailah
telepon
LUPA
Fatimah
Surau
pntai
Izz
##hits
terlampau
dikongsi
living
playing
ojol
##iday
kurun
BAWAH
angkut
Ikhlas
Punca
PE
either
##papan
##itional
diperhatikan
Sore
##utama
memotong
Astaghfirullah
pregnant
elit
Contact
bersepah
besa
dikutip
Skincare
tata
makmal
Temb
berpakaian
kalu
2021
hashtag
peta
##rani
jogging
WAK
##alit
favour
merekam
##FM
Patah
manggil
beku
bernafas
mulutnya
Jambu
##erawat
##flflflfl
Garuda
dihentikan
banding
tarikan
andai
murung
maksiat
Ana
shaa
##atering
pengendali
kesepian
ZULK
##pot
##PL
##enap
##ahulu
Jadikan
5000
allow
##82
##qa
##engin
menguntungkan
kepuasan
Adventure
koc
NUT
vic
choice
Series
Gini
##irinya
Indom
Pemandu
Night
lawyer
berangan
Entertainment
Pelanggan
MENC
international
PREMIUM
kerusakan
IST
membaik
Army
sumbang
##umpaan
plg
APRIL
SUKSES
nyenyak
Latin
PEK
PIC
##YI
##inn
sayangkan
BERH
unis
##ubahan
pencen
PALING
##itz
semut
Inovasi
##unggal
##USI
Impian
rabu
##ingi
Berhubung
ngerjain
Location
hant
##arning
ustad
##DAY
##emil
Berik
ditandatangani
100k
Pertolongan
1967
oso
penunggang
Add
##rnya
helikopter
SKIN
PBT
bersemangat
terlupa
mendarat
##entum
kamek
AWAY
passport
Letak
##late
##imba
##ridge
transportasi
KEMB
OFF
lahhh
##street
setiawangsa
hahahahahaha
Dapur
Udang
carik
##BACK
und
nyesel
mayoritas
Sushi
mcmni
Butter
DNA
xtau
ICERD
continue
diwar
Perai
sangatlah
dipotong
diputuskan
Sedapnya
MAIN
PAT
role
kulkas
Artinya
quick
Dian
Tepat
Tengg
##viron
issu
##eping
berkes
##edap
##anggg
##iller
##eign
medical
Email
Fav
seremban
warnanya
Diploma
Holdings
RW
##emerl
##ulangi
mengek
##unyai
senilai
##ectric
Linc
didi
shirt
DIPER
balance
Dj
##ZAH
##ocr
mataku
Makmur
jajahan
sng
##ffe
##assim
##ements
yall
##uke
Kesultanan
jelasnya
Aok
kome
Point
bersel
spray
Lucu
gone
Research
SG
fard
nun
KAMP
hanat
Beijing
festival
pengakuan
abt
Wi
##aret
BOS
##osen
membekalkan
memasang
misal
ticket
kacamata
##ailkan
Kecantikan
zoo
##BI
##vy
##unik
nyet
##undation
HARUS
fair
ngambil
Mask
##HHH
##enta
pelanggaran
##agaz
Seung
Acc
tanjung
remeh
Official
gendut
Tower
xnak
##ende
melulu
Sultanah
menepati
kuey
ketahui
Come
MAP
hajat
##ajan
makannya
bakteri
##erjaan
Welcome
cib
kepelbagaian
##ONGK
metabol
Square
keringat
dipersetujui
Japek
mencerminkan
GM
MIS
##EFA
Wasap
Mid
sibeh
wehhh
Lagipun
Perbandaran
tongk
##300
karbon
menyerupai
Camb
##emari
Keuangan
ING
Reseller
Silakan
Sind
lisan
ukur
##91
masin
among
disenaraikan
gave
Kemenangan
fatwa
minus
ANT
Motif
##ebalan
##ampingi
cobain
Tuh
tug
kaleng
##riot
dikel
Adapun
cuek
##lass
terbunuh
usahakan
Listrik
##Lagi
##ingkuh
bening
board
Biarlah
##alous
##osongan
menyebar
HAPP
##WW
Terh
Territory
Color
##WithL
Bpk
##iyyah
Perbe
konsumen
jawabnya
##emparkan
tanak
sepakat
TERM
tumbang
foodpanda
siti
Cinemas
bomb
mengajarkan
##Raya
subject
seems
##syat
##zon
draw
Pertemuan
sedapnya
answer
souvenir
##onday
AYO
##uaq
rakyatnya
NSTP
bertiga
menim
president
SYAF
investor
Afghanistan
Bicara
Story
blouse
Wed
##AMI
bing
mengiktiraf
Melayani
##aysiaku
telus
spa
##AJAAN
trigger
merubah
ngilang
Selanjutnya
fahaman
mt
peratusan
mengetuai
byr
SIS
##stik
membuatmu
bertek
matematik
following
##ilap
##idas
tempur
km2
##omorrow
nungguin
jealous
abaikan
uruskan
siber
menyusun
Tiba2
Jatim
perli
##anaan
Peris
Austria
JKR
Lanjut
##rog
capres
##idiya
##eraian
##odor
JabatanP
sunscreen
KOS
Lawas
Rugi
mab
jersey
UEFA
raj
##tulu
##onel
inn
tertua
biasiswa
##tha
Menyediakan
Bingung
##egur
sela
Silap
##ORMAT
Scotland
CCTV
jimin
##asepak
workshop
##ahagiakan
hrus
surprise
##eikh
ungu
##joon
cus
##bau
##fur
##okjin
##ominasi
battery
baku
halu
##mak
menjel
repl
digambarkan
Rhin
dikehendaki
Cre
Uda
comes
BERN
pahlawan
patuh
Pej
yay
Kemang
Mawar
Sarah
##UTUP
Kursus
91
Bangs
Baling
kaku
nai
dipastikan
kurikulum
penyalahgunaan
Kulim
dropship
Lor
hell
##eru
081
nomer
Agn
Shir
uolls
##epikan
muak
1979
Mansur
OF
space
Pemerintahan
penggemar
Padan
##press
tersusun
##URUH
belaka
##USIVE
deserve
##utes
bayangan
alahai
Tokoh
Tong
cust
##keb
##oz
seberang
##endan
Berbe
##ampion
mrs
sav
##ianati
Mutiara
##reasi
pelukan
MOHD
Grosir
##ulin
taken
##uncil
sertai
Mujur
memek
Under
sensor
soto
##uce
Yin
##emerlangan
persimpangan
rekomendasi
membahayakan
berganti
packing
lanj
bdk
akui
##ohongan
aspirasi
Museum
bersebelahan
bangku
Penutup
JUN
tahfiz
##atural
dewe
Tangga
ln
sume
akad
sha
SHOPEE
Lawa
kuman
bubb
berbasis
partic
##Bersama
WNI
bedanya
Gapapa
PSS
fandom
roy
##ativ
maintain
##ords
education
cecair
##dil
syariat
Rain
##ehal
lontong
Nap
##juta
##ecuti
mempertimbangkan
iyaa
Kubang
Loke
honda
##orangan
takh
agr
Sha
nasik
##atidiya
pengkh
android
bangi
koperasi
##ioami
Kadir
sebar
almari
ignore
wai
##AKU
##igu
Cic
renc
##tusi
ampang
Regi
##FIT
1948
##Mal
PART
doyan
teacher
sekel
bolehlah
Memandangkan
##ANTAN
terhenti
golek
1959
Bre
Gong
Lit
alukan
Assalamu
##ervous
END
sesudah
Merupakan
tolonglah
Hamidi
casing
memerangi
bpk
tutorial
Chicken
spam
MELAKA
##aitun
##ernak
Zakat
pesisir
Valent
berhijrah
Insyaallah
Mertajam
Sign
percayalah
autom
girlfriend
Drop
eee
Serpong
wali
Peruntukan
##AHAHA
Rog
wir
Elsa
cemilan
BERSAMA
##GGGG
Kalah
jack
lest
keenam
bertulis
##angkak
##aisal
Simak
aqu
menaruh
makam
like4
Pencapaian
lada
diguna
berin
indeks
JabatanPenerangan
##ultur
##ego
kelmarin
Terakhir
inspir
Bismillahir
##long
##eduh
##egarkan
adop
pengakhir
negri
cutting
tantangan
##etuk
jamu
sosialis
##zuki
simpati
BY
##abumi
membel
iflix
Katolik
hairan
Bekalan
include
ceterahatidiya
ninggal
pucuk
orangtua
gorengan
##ls
##pink
##KN
kacak
Hasilnya
##anyeol
spoil
##ikmat
Patutlah
Check
Bestnya
Koi
jawabannya
MASUK
PPR
location
AYAM
##vironment
kerasa
melabur
blk
##inking
PUB
hug
jijik
kemp
nes
##RAH
##ancara
##ergian
America
Health
Petugas
Care
GE
jkt
sams
kurta
Tujuh
dilepaskan
##ilmu
kemej
##ghur
management
prepare
kemarahan
##embabkan
paid
Baiklah
chiobu
Dokter
lens
kelam
Setapak
cucuk
penerbit
##oper
##ahlian
dilanjutkan
Sports
ukh
##here
weeks
Mamak
plot
Single
heheh
rawat
##awawi
##eksual
metode
Aiman
Ner
##bucks
##ekinian
chen
ibadat
Kw
##ributor
##gia
memalukan
rusa
LELAKI
naga
##ungutan
Institusi
NEGARA
##face
ketenangan
mutlak
development
Caves
Xioami
haw
lambang
perpisahan
##ardin
rakannya
hanyut
##official
diasaskan
##UNGGU
Amat
Angin
merebut
##giat
175
KERAJAAN
Terkejut
berantem
ehhh
sri
dikaji
noob
fiq
performance
pure
##ente
##ewatkan
##uate
##URI
Sebenernya
Double
typo
ketiduran
iKON
##rans
Canselor
ceng
##obe
Asian
##alonan
Bantal
InshaAllah
Berikutan
aer
dipenj
skor
Parsi
Kawalan
bubble
##utanan
Richard
cintai
santri
investig
skolah
Biro
heboh
waras
##ILLAH
antioksidan
Farid
Kangar
kesesakan
Batas
berkurangan
dimasak
Zurai
berkh
Agen
dow
##xel
##apar
##ecahan
##ANGIS
opah
serbuan
Khal
kupu
bapaknya
1976
104
##love
sweater
Bina
stuck
malaysian
Wales
merosot
AEON
dijawab
disebutkan
Junior
##jd
goal
##mart
cubaan
##epatkan
menget
##ontakan
Chi
1978
choose
treatment
COB
diin
kabut
##lilah
##uning
##aaaaaaa
Econom
raga
ruas
tutur
dirasakan
Bersep
College
Pram
##aye
Amar
sosio
badminton
Woo
atom
Martin
Mers
Nonton
TIK
##ubarkan
Sheikh
Artikel
Judul
utuh
##enian
dipul
Kt
hahh
kinerja
##UNA
content
BNI
Demikian
manfaatnya
Tahanan
Take
Sekret
success
ROS
paha
##ekonomi
##vention
TINGGI
##CK
##adays
biod
bergegas
kolesterol
geprek
pengsan
jahitan
goodluck
Astaga
cs
los
##engahkan
##union
relatif
five
guo
Hair
##adam
INST
Betapa
onlineshop
LAG
Innalillah
Subhan
##entingkan
jembatan
##mont
##obia
berteman
INT
BIK
##sor
##edy
Nikmati
ink
##egakan
##ambungan
Indera
above
crow
##adaran
belon
appreciate
##bie
pulangan
Mits
Senti
berpegang
yukk
wujudnya
dimanfaatkan
CUC
Journal
##emy
Sunway
Type
##eez
pembuat
Muhamm
flow
##ARMY
mempercayai
##heels
Nokia
memindahkan
##orium
elu
pupuk
##olekul
##egorikan
pemasaran
128
LANCAR
Jil
diarah
Show
Jat
##unang
##siapa
bajub
jeles
Pokoknya
SYAFIQ
aidilfitri
blom
##empor
dibikin
ADALAH
SinarOnline
PERLU
seraya
##istry
kaunsel
Nick
##ajal
chocolate
Siam
PUTIH
DJ
Dusun
mengata
##USIA
mengant
Aah
Nag
WEH
Tiongkok
caus
yelah
berlebih
mengutip
SALAM
cin
##sesan
##UNAN
Panduan
nuklear
450
##olan
##sir
##UG
keusahawanan
pasrah
pemalas
Amalan
hear
Pandangan
mengabaikan
cepat2
begadang
lengk
bersungguh
MEREKA
value
HAPPY
##asari
perilaku
Berarti
Aktif
penggal
asking
Lambat
Nie
keberh
##ikasikan
Angkat
penguasaan
bow
gum
##hin
ngaji
##isahin
Sport
wi
##enung
mengena
topup
speaker
unggul
digi
Garam
Buruh
##iton
anget
Syaf
220
Obor
Begini
influ
pendengaran
Bulu
Tip
##jemahkan
TRANS
Potongan
LIP
shock
Cha
Purw
FT
##hah
rasminya
Awas
Mansor
##orf
harum
Sehari
Condominium
AID
Daim
digantung
Bef
THR
pig
penerbitan
sindiket
aun
keng
##Menang
dihar
hias
interaksi
PON
Yong
rs
##ceed
0852
Semenjak
Portugal
##kat
pembuangan
wassap
Sosi
##ertakan
Frank
bnda
ngeluh
##JO
##isih
memecah
Supaya
perfume
rare
##obatan
chef
teow
Kesalahan
profit
Lg
inch
oppo
meletup
Ntar
##WP
##ERIAL
langganan
5G
kandang
menyalah
##idupkan
Palestina
aaa
##airah
nged
menyatukan
rm1
##zat
##udh
##adies
Peningkatan
Perlawanan
BPN
General
Zar
fem
tonight
vac
##urau
##uncurkan
Simpanan
SRC
honest
Percuma
romantik
GAMBAR
Garang
berist
Menerusi
##plo
atuk
##ores
memusnahkan
Tig
Arwah
psy
Perhentian
strategis
bantai
##hana
##ewatan
ash
Ani
sejuta
LIAT
KIRI
Qatar
##awaran
##ifah
KECIL
Hindi
Job
fase
semarang
dibatalkan
Sikap
Miskin
disebelah
enter
Teks
dibagi
putera
June
lane
istimewanya
EXCLUSIVE
REL
lanjutan
tumpah
##JEK
##agukan
intim
kebelakangan
##imbun
liatin
Nur2
FO
Nnti
##amen
menyesuaikan
photos
CARI
menggabungkan
awok
##tea
kuno
gapunya
bp
##xas
mende
insyaallah
##kripsi
Eff
xl
betol
##anggah
diskriminasi
Kesejahteraan
angan
paytren
tidoq
Kai
##Ak
ship
wkwkwkw
##ekarno
##paper
##owong
ones
sexy
berehat
Adat
145
##aub
##pektif
CAP
Roll
ceni
nemenin
##JANG
##appp
Tahunan
Pangkalan
##resif
Sams
BESI
wet
Inisiatif
kiss
##amurah
driving
Begitulah
gre
Takda
##take
Biaya
lian
gemar
tshirt
ungkap
Cod
Pn
##ees
RM19
##ITAL
Cen
Sor
##sl
##isy
##ecutive
ij
cmni
##AIZ
##iddle
LIMITED
Rum
bangkai
Haj
aim
urutan
slogan
AMANAH
##FL
##struktur
telpon
Kaos
menyedihkan
Halah
##yallah
disemb
##Health
##att
##alapak
ekstrak
Kepimpinan
lasak
rujuk
##etic
perse
##aplikasi
##erior
diket
permit
transformasi
##17382
##urance
sebatang
pembentangan
BUR
liang
Suria
##aruto
azab
whether
hujah
dihadapan
memeriksa
##rem
luahan
Legend
pie
Support
tangguh
reh
##81
##iliti
mempersoalkan
##rary
##usuhan
##olaan
##sive
percubaan
Jempol
TUHAN
puc
Bukankah
outside
Serangan
Ramlee
##EFLI
royalti
SYAFIQA
##baj
drum
##shah
Sedunia
pecinta
RM25
poor
Only
1957
Foundation
Speaker
LE
UD
kestab
lipas
Prix
ZULKEFLI
Oper
fm
##urukan
arr
AHMAD
76307
7630717382
Pengumuman
TIME
Lamb
##BC
##mudah
##etabek
mementingkan
binaan
sensasi
Ey
##ewengan
UTAMA
kestabilan
temennya
##TO
##umbat
syed
1971
tentukan
Seoul
Ngapain
memenangkan
fotonya
menyembunyikan
Cuaca
Bawak
kesusahan
Pav
##naf
centre
merealisasikan
##uts
##embung
Perf
Kebetulan
putar
Studio
including
3G
Aidil
Dijual
##ordinasi
Sweden
Jadwal
WAL
XX
veteran
Jawapan
##amatin
fikirkan
Pember
##bali
Lynas
Hon
Lps
Tanjong
nape
sung
##auhan
yaallah
Kampanye
Catatan
##fm
##oof
##eksport
married
Citra
keputihan
ej
##uto
aparat
liatnya
TMJ
pengundian
JKT
lisa
##ately
penekanan
Usai
Saatnya
tangki
history
IYA
MAD
wib
tuala
##ombo
Mulut
##fahami
Talib
dal
dota
asupan
posted
PI
TEN
##jun
##APAK
scared
rather
Zakaria
Sentiasa
bng
Head
rush
##ided
helm
##orter
kede
suri
KARENA
WUA
diproses
Testimoni
atasi
serangga
Hijrah
yesterday
memancing
kualalumpur
##arahi
betulkan
##ologis
##door
CINTA
##house
##eriahkan
umbi
Management
Actually
concern
Fun
Kag
LAMA
##emade
##eting
safety
HEBAHAN
pari
kejuruteraan
bbrp
Lari
cipta
TERL
Skuad
FEB
Wisata
##bud
##We
pelaksana
##KAH
perisa
sebijik
##istrasi
HUJ
##elap
Kemalangan
position
Sampah
MATI
teratas
##ayangin
IPT
7780
Niz
##panjang
chem
Download
##orite
LOK
MUDAH
sandi
##zation
##ubuk
##cos
##ince
##AKAK
KPKT
Russia
Tulang
Tulisan
dj
fdah
kanda
makro
ayok
hapus
##rina
##52
cross
Ringgit
##lek
##ble
bez
Case
Dpt
HABIS
membentangkan
##openg
jarum
keharmonian
Cru
##emurah
##istal
Sebarang
approve
AA
aneka
##impanan
perlakuan
sembunyi
##nat
##elilingi
##afsiran
menelan
third
dua2
omong
Dinasti
Rhone
difahami
Aliff
Prima
##ugut
logik
ong
##IMANA
##ifik
permata
menggerakkan
Heh
alhamdul
pengacara
##obil
Tema
Pelancaran
##WithLuv
##rep
lain2
parent
Korupsi
Fix
EMAS
##ungkinkan
##ension
points
Institute
GEM
alim
Games
selebriti
perspektif
SDN
adegan
pengakhiran
EU
BIR
hlm
##isaat
bless
Rabb
GOL
HM
Wir
berker
Anna
penjajah
##ajjal
Lia
Nasihat
nahan
semalem
##arki
reput
Sibu
dikonsumsi
awat
Lawan
prove
##aafar
jelaskan
kana
diiringi
##empel
##afi
Takyah
tepuk
Sony
Yok
ktm
##agaman
lao
##IKIR
##ofood
Majoriti
mingguan
beribadah
RM150
camne
Slot
RASA
pampasan
##kot
berz
Chang
##UND
##unjang
Kebaya
kewarganegaraan
LK
MI
rama
tula
Perkataan
999
##odetabek
dngn
Gabenor
HILANG
hun
##onesi
DEPAN
##OLOG
idk
BENER
Las
ginjal
##hg
mengimb
Stasiun
KENA
Dakwah
ming
dimuat
piawaian
LUAR
gawe
appl
KEW
lembah
kenyataannya
Statut
LAY
NANTI
aura
mumpung
##ework
##arathon
Faisal
larang
##tanya
##rich
selia
Mega
abangnya
dram
Penemuan
whatever
kewajiban
Perkembangan
Byk
FAK
Kangsar
gmail
siakap
menerbitkan
KJ
Kick
##eramah
diab
##echan
Terasa
Island
lemari
tanggapan
tampilan
DIP
gagasan
jib
lady
##alain
##etti
##ultas
kahkah
cacat
Ronaldo
kecap
Nic
luah
##rec
##antut
within
menghadirkan
JEL
Jitra
##An
##arep
individual
skripsi
Leh
##ders
stroller
##PSN
Kayaknya
efisi
judi
sinyal
Lewat
jeb
##OOOO
Lingerie
Bendah
Quality
ohh
##akiti
keseimbangan
Fath
srs
anu
kelengkapan
##kward
butik
Micro
nengok
##RU
didunia
pinang
Wai
akuu
disusun
##ansuhan
##ribun
Memberikan
minah
##style
ganas
##lif
diterapkan
##ongkong
Desember
menimpa
Eid
##IMP
MASK
instagood
##ananya
kontol
nurse
Zuraida
Hamil
hits
kemelut
##ejal
PERM
western
Seriously
##ooooo
banduan
Bg
bum
##okoli
##upusan
karen
Kedudukan
Imran
##ForX1Unit
PATI
##AHKAN
invol
pertikaian
##ayati
0000
suke
munafik
ilmiah
minim
kira2
##zar
kepadatan
lowongan
Philip
karaoke
Kotak
race
membayangkan
##amankan
ngikutin
wallet
Kassim
buntu
##liah
PROS
BERAT
##EMPAT
##enye
berkira
##cho
agree
persendirian
Pakej
political
moisturizer
berurusan
terin
perman
gred
penglihatan
Son
Algeria
PROG
Lunch
Wajar
mimp
##fatkan
situation
bgst
DV
heli
##CING
tuanya
Dif
ombak
berteriak
Axiata
##laa
##angin
seksi
dicampur
konfirm
tomyam
Layanan
##71
##ebel
diaa
juz
Keep
##rehensif
7D
##crib
mengkh
Tahfiz
kegemaran
sist
##elamkan
kembung
marg
brader
tunik
jatoh
BIL
bent
cousin
lagii
Union
3k
##83
minute
Syeikh
mommy
Gitu
Giliran
tugasan
##iew
karam
Rio
hara
##utt
guard
Ds
laris
butiran
##uncur
Bee
pedang
lumpur
##MB
Menambah
##taraf
##urahmi
lapang
750
EC
saku
Karak
saking
OMG
##Tanpa
Fur
beran
counter
Pendek
jeli
##yatan
malaya
Cro
bintik
hua
##chong
##AMIN
ujungnya
##AllOut
##Cor
bakteria
menempuh
##IGN
ParadeForX1Unit
kecekapan
Jal
Kara
Tir
njir
##OLAH
GoAllOut
kapasitas
Wangi
dio
##ulangan
mena
Siapkan
barang2
Sandiaga
GoAllOutForX1
RM12
##orbankan
##areng
Repub
##young
Modern
tabungan
##elanjakan
Pack
DIG
salad
Memberi
pantes
KRI
tb
diut
##ersil
untk
Khat
##vian
##adiun
##artakan
butang
165
anggur
penyelewengan
BIG
##iiiiii
##lady
##esalan
notice
Uk
Yb
pidana
rint
##anjur
##ropol
Pir
juru
lump
bawahan
##aily
1975
ARE
JL
##rim
Asing
SEKALI
fizik
btul
menghala
resiko
Campur
##olek
demonst
##aktub
kilogram
##ercise
geg
jn
lingkar
tiber
segmen
pencalonan
Demokrasi
##surabaya
menyapa
MATERIAL
##azing
Bahu
##heim
screenshot
Aish
##otot
##ersamaan
swt
nowadays
MOTIF
alumni
HQ
galak
ginian
esk
##iaran
##erapan
merebak
##ontrol
berbaju
score
Mersing
Fik
boba
dipukul
baginya
Intel
ning
##dukung
Gan
heheheh
samada
Oxford
suan
membahagiakan
tahi
##yaku
berkom
setting
teroris
sesuka
kakaknya
2k
Nga
ubi
suap
foreign
berkec
Azmi
subur
bersepeda
Hik
HEH
teramat
##anggaan
situs
Datu
Mangsa
##ekam
takaful
airnya
##It
##real
ngeg
0823
##AJAH
SEBAB
Agustus
Jaafar
peranti
memf
##okap
Pembiayaan
##ertian
cookies
Remb
megang
##onut
restaurant
Cabang
dab
lfl
##acak
ketegangan
Telegram
Bit
bererti
bersinar
##ANGGA
Mesra
kolom
happened
alergi
KIS
Mubarak
Sabun
daniel
ani
penyerang
Kulon
title
##fashion
##Putih
Kamera
pilot
peha
hibah
##lied
bukber
Luna
Suku
sastera
##angkala
degil
bisik
ane
kitchen
longgar
##bus
merentasi
Before
Brig
Solid
miring
##Hutan
##aliza
pembakaran
markah
umpama
Aug
irit
vot
jamuan
edc
diminum
##Malaysiaku
peredaran
bertaraf
HIV
memuat
##taq
dahlah
Berkuasa
##enyap
interior
pertahankan
intinya
ziarah
client
##umumin
##ARD
kebangkitan
barangkali
diuruskan
##die
silver
nctbase
NPSN
perekonomian
##angster
Shell
Hahahahahaha
##abeth
FULL
keistimewaan
kesembuhan
Siapapun
Hatta
BUD
##wujud
kannn
file
temanku
Kejap
Alumni
tomorrow
manakah
Sekar
Timor
KLASIK
BERTULIS
physi
##los
membe
Kematian
gaboleh
SAMB
##akkk
reco
##krit
ngin
##ilaf
1966
MATA
##ava
##OWN
berpeluh
IBU
Tulis
mengarah
romantis
Doc
KBS
##olawat
untuknya
Pelik
sekul
##ajai
pena
beat
pilihanraya
riak
famili
Cermin
Eun
Pimpinan
Umi
##bak
##eler
sampel
##intan
fire
kepadamu
VIRAL
Sop
nabung
##SB
##uaf
terjadinya
Washington
Dream
nyala
tampan
##dut
##olok
AME
sebiji
Perindustrian
melemb
ekar
telegram
bra
##AX
bukunya
sekuat
Uz
led
berdiam
Terhadap
burn
Yeah
Damn
Komen
##eleg
##gium
titah
foodporn
Kilang
Project
latte
chio
Network
hiks
##ambo
given
workout
masukan
perlengkapan
Situasi
Lut
##adil
Francis
SayangiMalaysiaku
bumbung
cuy
diaorang
dahan
properti
mazhab
kaa
##lukan
##laim
##DE
##ications
perbaiki
Bilangnya
tabi
##raft
Allahuakbar
memperkasakan
juadah
BERP
cit
lambung
mengikat
JOG
##anduan
##ontot
kampret
Fatwa
sebilangan
terbangun
keluarg
BOT
attitude
McC
GUYS
solehah
memperb
##vely
Ribuan
Disaat
ijin
uh
penasihat
cebong
Rind
hingg
##UAT
berendam
keropok
Karnival
##hyuk
ternakan
os
##esome
makes
logistik
Amboi
lrt
##ikmatan
##estan
##ghts
membebaskan
BABI
Bell
##atul
TERHAD
darinya
syawal
dividen
BILA
ketik
##oodie
##gkos
temenin
Izin
longkang
dituntut
OneHealth
kongsikan
Dungun
Ianya
Aliran
ena
tebing
Kimia
AGEN
Spesial
Portugis
Laksamana
Bav
Kebiasaan
resort
SEA
oii
jamtangan
Sleepwear
##YO
##aje
ngetik
letter
Lestari
CD
dalil
hack
##sema
##ranch
Selamatkan
##elapan
menged
thai
apel
Adv
SARAWAK
kelembapan
Gram
teruja
Asri
patin
Salim
Emak
Jih
Layan
bandingkan
pulang2
Kitorang
egois
Tlg
Sip
ran
kelewatan
pendar
syari
fardhu
betah
nilah
charac
boys
##reneur
Victoria
Hir
HAD
gempak
iy
kalung
pengesahan
kesepakatan
mydin
##akor
##imatan
tidurnya
Setidaknya
AUTOM
##wanya
menampakkan
##hadow
mentadbir
Ria
bala
jalannya
##AGAI
Fasil
KOL
Aneh
didedahkan
Batalion
##enjun
Jaringan
##JK
##eloved
Arena
Hahahha
0895
cokelat
##worth
berkomunikasi
merugikan
visa
##enaga
launch
##usn
ditemani
Khairul
sebegitu
##ARAH
Kelana
Rezim
penganjuran
Associ
nenas
##impun
Peringatan
Intinya
pusaka
##wig
bioskop
sedihnya
##loud
Asyraf
OneHealthKIPM
Gand
melirik
menyangka
yao
jadiin
##umbangkan
155
moi
temenan
EV
Versi
hwa
##vas
menanyakan
unfollow
##ungkap
direkodkan
MAND
Viral
eku
perahu
##antri
disarankan
Nyaman
saintifik
turu
crepe
Lembut
##alim
Child
Kecuali
tupper
Fai
LOVE
Pauh
tombol
terbayang
RAMBUT
lon
misahin
##aikal
berbilang
##akuin
##arkah
Azam
elok2
bilis
Nathan
PROGRAM
teror
smile
##yl
Lemah
##dek
ditindas
user
Usul
##fllfllfllfll
inggris
Somet
ark
orderan
Scr
praktik
taubat
calori
Ishak
7D13
Rambutan
jang
##juk
expensive
dye
Terc
Azlan
Ach
Sif
backup
wood
kerang
crowd
belang
VS
##arab
terma
##ANK
jugaa
Proyek
Sepatutnya
##ilasi
##endra
keberanian
gizi
kuping
PULSA
##iw
##jub
kepan
kapc
ves
valent
##lop
##ahayaan
##etch
penghormatan
Menyesal
Finally
healthy
NA
VI
lepasan
mendi
petik
Barak
Ditanya
children
Turn
melompat
PEMBERITAHU
menyembuhkan
Bilangan
Bangsar
jenuh
Count
Balas
HUT
QS
Posisi
memperolehi
suddenly
##anggis
message
engineer
university
Neo
Kehad
MANUSIA
Human
Rapat
dikekalkan
Menurun
Serta
populer
Istri
civil
koyo
keahlian
##iduk
##imis
##aaah
bersekolah
biologi
pembunuh
punye
##izinkan
##ODE
Hmmmm
kahkahkah
audio
Today
UAS
##ek2
##stein
Minimal
jajanan
jepun
##zita
kesi
masam
menyimp
repres
oppos
Jabar
##ying
##ZZ
##acakan
##llll
##aganda
Deep
Tempoh
Indi
Haf
center
##fam
##tuhan
##ugurkan
Minister
overth
BIAR
##ubat
##ARAM
##tical
sangkut
bertaubat
Ep
NASA
##viral
##Video
##indir
KEPADA
##lover
tdo
Tw
akur
dahulunya
dimensi
bentuknya
AUTOMATIK
Gig
##Hari
##jilan
sedari
jasad
selebihnya
JKM
perku
alang
dikasi
dijauh
legal
Sana
retak
tertanya
najis
RC
bertudung
sembar
information
GOR
ganu
##nab
diukur
##store
reda
examp
fren
memungkinkan
ansur
mengaw
##udarkan
##INGGA
refund
UPSI
Oppo
##yakini
Bersepadu
euy
ting
Yao
Perkahwinan
Basah
##ergency
Peduli
cacing
rembat
##suit
berduka
pia
concert
##aron
teri
thr
##ongo
##erma
##ihhh
##anduk
limau
Joseph
##BTS
keda
skg
loji
MN
RR
Sav
honey
##RIEND
Peserta
cip
##anteng
##ambi
dirampas
Lazada
Sust
mos
##ombia
PERNAH
##alonkan
Birthday
##minggu
##alisi
dahh
TANAH
dikembangkan
konvensi
Taq
hati2
Kemahiran
indahnya
dominan
termaktub
Hilir
##atal
##awless
keburukan
Gregory
Menyampah
Cirebon
sut
Anton
proud
rapuh
nap
poly
1972
kedekut
Laju
Pra
wont
##OI
pemohon
rekaan
jew
tal
genetik
pengendalian
##Untuk
Tuah
yt
yng
##hub
##Ter
##400
ehwal
diantaranya
Fort
mutiara
menghulurkan
Ngan
##abiliti
Vis
jurnal
##enderungan
cmtu
waste
memor
1973
1977
Rayuan
victim
takhta
vital
tercatat
ngadain
HUB
SAIZ
##alai
berbalik
deals
Akibatnya
favourite
CV
Court
REB
##ambak
baiklah
eq
##kusan
tetibe
Syari
terjemahan
bergurau
Pelaku
sunset
mitos
Sewa
depends
Syaikh
hong
np
##RO
nick
kerangka
##rect
ngajar
highlight
##oj
##ontan
Doku
##run
##Ku
terbanyak
appoint
##REEN
Bentong
gatie
##ilar
PENTING
##atau
merangkap
membanteras
##arui
dibersihkan
sampul
##ONI
viva
Code
kenak
perbaikan
Kosong
entiti
Mempunyai
Bug
mematikan
dikelilingi
pembekal
Ibadah
Lingkungan
Outlet
telekung
lazimnya
POK
tunt
kesannya
enc
STAR
Inget
gagah
Futsal
mudahan
##itnya
prog
progres
Wahabi
Garis
##pam
Belgium
bngt
lahai
major
previous
disebalik
##daus
mengakhiri
Anep
dibesarkan
bertenaga
Sebagaimana
msuk
Bkn
rose
##Raja
Soekarno
##efully
dapati
Botol
##ondo
terpengaruh
kunjung
##BU
##cus
disalah
Daw
Farah
katalog
nyah
HITAM
das
grgr
benar2
##aksikan
Magic
xiaomi
##asut
Rencana
nyatanya
##bing
##bir
terendah
melimpah
Along
##ariku
tampar
PGA
##mata
##Ng
whit
##ONA
warni
meresap
ekspresi
Lumut
##ruk
ketimbang
##opak
Pening
ajah
Marketing
Yamaha
##ulut
security
TERIMA
UniS
identitas
##ANJANG
sq
##jr
netflix
Saiful
bri
##abl
Menuju
##untik
known
Telp
Bt
fung
korean
berbulu
mrsm
##uno
##selves
##larasi
Elektronik
Ford
##fal
##eefa
##lovers
ATAS
tertumpu
penyebabnya
##tamadkan
##ged
meletak
##change
##onne
boros
jm
##elo
Politek
pawagam
penjenayah
GW
##mikan
Muhamad
Kejayaan
Event
SKMM
BACA
##aire
##ubapa
menyiarkan
sertifikat
keji
padam
detect
KT
Lawak
gd
Arg
boom
Permainan
YD
jung
##bol
kentut
##assic
saudaranya
Kurus
Rawatan
Sta
ibn
##ordan
celaka
merindukan
jamur
wisatawan
sembarangan
Old
ketum
##egasi
nyerah
Kontrak
Sibuk
##ikam
##ulia
disesuaikan
mentang
NUTR
BAS
nong
##SK
Pergerakan
melayang
warganya
##ardy
rm5
bajur
ummi
lonc
nervous
terok
menyuk
former
Raka
SN
##News
##atri
##atiin
dipengerusikan
##encil
Wahid
Kapten
Kirain
KEWANGAN
##IAH
##ebaya
berlagak
jelly
LUCK
petak
Kepong
nisbah
Emb
##ae
menyarankan
Cher
bangsawan
##YAR
##ekik
##inted
Dahlah
PILIH
Peristiwa
Bawal
bought
git
Perso
##icated
##orig
catch
BUKA
Better
tart
menentu
##imanya
mencuci
umobile
##mnibus
Dont
UA
Wali
##gaskan
##56
##agung
selidik
menyes
##OMI
Sarapan
Reza
Vs
kya
parang
lautnya
BELUM
Pekanbaru
##ujurnya
Rejab
SIMP
##edari
sesaat
geografi
##muslim
pelac
blik
depresi
disifatkan
Woi
##47DD
SESU
Henry
memecahkan
7D1347DD
UTM
Terkait
##pura
pedes
knows
melaungkan
Dy
hri
##empur
Respon
Ngak
Rod
cris
mual
terjual
gelisah
Mist
baran
##aimi
peradaban
Permai
##INGGU
Politeknik
peb
melintas
closed
PENY
Cikarang
Ular
Sgt
pengeb
##essert
Kecewa
diusahakan
menamakan
##lahi
ganjaran
Sanggup
nor
##iwa
Selengkapnya
##indra
##install
prosiding
##ULA
DATANG
monitor
##BA
Selalunya
tanyarl
gandum
ditimpa
##anggapan
Pens
bagiku
scan
penutupan
ninggalin
Map
frame
hodoh
yrs
pacarnya
cemas
sint
mencium
INA
##icious
##nih
##mara
##elok
takmau
1955
##hias
penyelidik
##ahahahaha
##erhaka
Office
takpelah
kelainan
serah
institu
##AAF
Konon
Lar
Wood
Xin
pengemb
##ontarkan
kekosongan
Telek
Class
Education
##itinya
MEMBER
RIP
deli
##kuensi
minimalis
bear
##ugu
jauh2
timpuk
Detik
tamadun
amnya
longer
difahamkan
kesukaran
TURUN
kelaparan
hem
##bung
pelayan
rm10
ranking
##SN
terbaca
##ensik
Wahh
Conf
##PON
##ucian
current
##ION
terwujud
kebagian
Sebagian
Kemudahan
##leting
Second
TAHU
spoiler
Sr
##eder
5cm
##LAN
##ances
ketagihan
##ensus
Saad
Produksi
konfirmasi
NANGIS
##irat
Inn
Berjaya
didengar
invite
TERKINI
Tipe
kukus
SEKOLAH
##alifikasi
##ased
bangtan
dicintai
sembako
earn
DROP
##Property
PUBG
Bavaria
Iowa
memesan
##ckck
Lowongan
kerakyatan
sever
##uktamadkan
##uburan
makasi
Kuil
0821
kehakiman
rasis
##achet
President
kilo
collect
kis
##ADAH
transit
IIUM
##econ
kulitnya
terpakai
variasi
sbntr
RIS
salinan
Koper
bacanya
kekecewaan
Dilan
Dewa
##bara
##Ri
##umat
skang
Aminah
paparan
powder
DC
dikenang
jalani
jepang
Statistik
Rawa
##tilia
beratus
##acca
dijanjikan
##ubishi
blush
112
taklimat
##ansir
basket
keyboard
izzah
kost
##word
##ujuran
pesantren
esc
legit
##umas
##udupan
segenap
death
Santai
##uduga
six
##angsungan
brown
Coast
Gofood
kna
sengk
AKHIR
KEEMPAT
##romi
Perintah
ditugaskan
looked
Mengurangi
berapi
##etes
melep
republik
carta
Nurh
create
Lun
50K
##Ad
election
tergelak
SUMB
untukku
oknum
##tory
##atifikasi
##arenakan
Denpasar
Tg
Tony
occ
##estay
##ogok
berbisik
DESIGN
Joe
##VI
Indian
bia
##rar
##esat
2024
disebarkan
tumbuk
teachers
##siah
Lay
Pemp
##idul
##otin
RM40
Cheng
Ron
Sung
dipercaya
temanmu
korup
JAS
WOW
tkn
talent
##zabeth
melengkapi
bey
Kelompok
smk
kron
Awat
##gigit
Jay
##eries
dirasmikan
Girls
BIKIN
akutu
BERJ
TEMPA
TUK
##imanan
pembahagian
dilupakan
terpel
saringan
Persoalan
##uransi
##quid
donasi
weight
Valley
BR1M
##ITION
pupus
dare
Bintulu
##KLADY
PISANG
KANG
##deg
halnya
Keku
Pros
Keju
kabeh
Bakri
kejuaraan
sodara
machine
Iftar
Jean
PUAN
aaaa
ks
mangan
##uling
alu
127
resolusi
SBY
mengutuk
Hye
##town
##RY
baris
bandaraya
BoyWithLuv
Episod
Kehadiran
Jaman
diad
didukung
menyemak
tersembunyi
##block
kusus
Will
##jad
kalimantan
mempersiapkan
berkenalan
nyobain
pencipta
NCT127
PILIHAN
Persija
berbual
malahan
konsesi
alamak
##Corona
Laman
Zaf
WKWKWK
Menter
Rata
Wad
truk
helmet
##888
##imahi
Baek
Ukr
##qah
meluahkan
berkala
lotion
Kapital
##rant
dibalas
##masin
Haris
Bahar
cengk
m2
##engok
thailand
Hakikat
Permata
dimaksudkan
TAMAN
##itungan
##esto
noda
Sayangnya
##angkasa
##ogel
rute
##yaa
mengun
##ectr
Mengec
MAI
menyempurnakan
susp
tentara
Awani
firma
diffic
IMP
Gagal
Hyung
##ingen
##iruan
Princ
diny
PINKLADY
xpe
##got
##fs
mase
muslimin
lingkaran
badmood
panjat
kefahaman
##estarian
##UNYA
tolol
metal
melambangkan
##idih
employ
SELURUH
Dun
taip
##iawan
DIRI
Kil
##cul
dicat
Italia
TEST
kecut
kritis
MLM
duta
ditangan
##venue
mengalihkan
zero
merapat
##izz
satelit
DUA
YE
beranjak
cars
Ehsan
sahabatnya
kesuksesan
4nies
KORANG
fully
##empaka
mendahulu
berbahan
Still
AU
maw
pengajar
arini
perkebunan
penjajahan
nanas
perindustrian
berhutang
works
##agina
below
##anca
Target
lalat
socm
begitulah
Bambang
Pura
##embilan
imut
Denmark
Tudung
##kit
shu
##aksasa
DUNIA
Sumatra
ummah
Kuah
Tgh
##onteng
naikkan
##where
1k
Baq
sambar
##ipulasi
susahnya
hubungannya
error
##ACE
Penyebab
higher
Gempa
Mampus
Nd
keped
##2018
ekonom
##ABLE
GSC
pudar
##ught
##antapkan
tempoyak
Saleh
gilak
penderitaan
raw
##var
##58
##efly
##fied
tunggakan
optimis
Dzulk
JPA
Ops
Who
jgak
berisik
##ekt
2022
Kelurahan
ajang
##airs
Celcom
Lippo
hen
menumpang
hehehehe
commun
Pearl
Tampil
##Of
kembalikan
rejim
achie
##oal
membintangi
intelektual
beruk
##antic
khilafah
khamis
##bahaya
##ungkai
diselamatkan
Jeff
betui
tani
Kitchen
epal
##tusias
Dini
jt
lukis
Sumbangan
##folio
##suran
102
batasan
inflasi
Hasnul
perbualan
ARAS
mitra
menembak
Selera
Kemboja
Bumbu
redah
komersil
berpandu
Hadith
caleg
Muhammadiyah
Bentar
Cenderung
mantul
terpercaya
instansi
bersahabat
joke
penyu
convers
Kurma
timbang
biasalah
bayangin
dikategorikan
kore
tuntut
##idrat
Kahkah
Bra
JIKA
mh
McDonald
afford
##sah
##PAS
digalakkan
Soci
##antin
##ahanam
disukai
Prinsip
kakek
menurutku
Konsert
##AAAAAAAA
wani
canada
Sempor
janj
pkul
masok
energy
forward
rezek
takboleh
telekomunikasi
berkepentingan
Lady
Toner
Marin
otaknya
Cita
aunty
Istim
##ILITAN
Sial
membezakan
menceb
Kuy
dry
diger
society
Yee
usi
##stal
##afa
dekorasi
Pari
Social
ustazah
poli
dikembalikan
##TOP
##ingers
minutes
Abbas
Pred
0811
astro
DH
Lov
##Win
##ibakat
forever
petroleum
tablet
rosi
sajak
yen
komprehensif
1952
aksesoris
Mekah
Tingkatan
ngono
myvi
Jis
Adil
heavy
sukarela
cyber
layang
##asing
sambat
mampan
##using
kebangun
Prestasi
Pindaan
Tommy
PERHILITAN
kib
##mes
##esokan
pengawet
LC
Ring
##edu
bajuan
purba
istighfar
Ill
##roso
memetik
kepo
dipisahkan
##incian
Genting
NAT
Toh
anis
##luc
exist
koridor
further
menakutkan
Tsunami
HTI
uol
##kkkkk
nmpak
SEGERA
Pajak
##MENT
##Sandi
ampuh
community
socmed
Epal
Ry
ven
Au
Premier
bingk
hei
wacana
songs
rampasan
##verage
saksikan
fos
berbunga
ehe
ADMIN
Syafiq
GLC
Tal
##endali
khal
Cantiknya
NUTRISI
tumis
luahkan
samar
menyekat
diciptakan
Amm
ground
Asisten
penyimpanan
berpihak
Matrik
KAWAN
Amien
##ajaiban
Bong
##imur
memeriahkan
penawaran
menghukum
tegak
Anggaran
Yesus
Tay
##BK
Hadis
gurih
bersenjata
HAH
duni
##cor
##dukasi
gelabah
Report
Ntah
nn
slide
CNN
Mkn
##ikhl
perjumpaan
Photo
keberkahanNya
##YE
anakku
tempah
shooting
Kreatif
duti
##abuh
anter
Jeli
Sisa
rada
##emakan
membazir
seratus
calar
menyayangi
oven
##fb
multi
Normand
ibukota
memburu
Terbuat
satgi
ONLY
lamaran
Gais
Lantai
dau
##luas
independ
##hion
toy
susunan
sky
Alloh
Dipikirin
Kasihan
LUC
##yari
ditembak
SEHAT
mengemas
kecilan
##cang
serahkan
hadits
penginapan
##53
kera
pelamin
penyerahan
##ovatif
##erbong
rontok
##qw
BukanCinta
micro
Anyone
TEAM
##utbah
tanyakan
Rajin
##rum
##ades
disempurnakan
spr
twist
Basi
COR
PNS
kalut
berpesan
field
Pahlawan
Rent
pantau
##ahuan
berukuran
##anjakan
Angkasa
Mongol
rn
menjanjikan
##allery
AKUN
PENJ
DAPATKAN
GET
Otw
Ru
tired
ekstrem
##ius
##irrahim
##inggalan
Karpet
Mengandung
##original
Rud
ratu
atasnya
##apppp
Polit
Help
throwback
##eliner
karung
bertolak
spek
##AWI
diganggu
watching
ditujukan
hangpa
##fokus
TUDM
BukanCintaAku
Jim
kepulauan
terpencil
Langit
##ebek
shampoo
##ademy
approach
SULTAN
HUJAN
##iser
##angkas
##cher
Lef
Pdh
##iy
arri
##utub
emng
016
##head
sdg
tropika
Cob
##ukau
Alaaa
dibuktikan
banglo
Struktur
liur
RapidKL
##dress
##artemen
Nana
fesyen
##awain
kelabu
Takd
nyeri
obes
Petra
Credit
Farm
##ibes
sehelai
diharap
Halimat
##zzzz
gedik
floor
Diana
Kenangan
digosok
dinas
celup
harmoni
Him
LIMA
Uitm
lanc
seleb
cmn
Mudik
Tari
##ired
memacu
kataku
Mass
begin
Rupiah
martabak
speaking
Ever
Jes
##bed
##jalan
##ukir
pembesar
blous
##plus
Beach
Giant
##medan
rosix
nusantara
perasmian
makmur
kecepatan
obvious
lembap
issues
Cant
pool
naek
merekodkan
fasiliti
wawancara
##hol
Kelima
teguran
apartemen
ngurusin
hint
##elf
pengarang
guide
##Music
##upang
waspada
Lion
Sunda
WIL
mons
##buran
##NIN
Peranan
Maluku
Science
Hua
##etron
shallallahu
felt
##epa
##ATAS
Sepuluh
Iy
Maks
raih
sebatas
mslh
TAS
karat
gunanya
Seandainya
##eeeeee
nctea
##omel
organi
Lis
##pap
oks
##hhhhhhhh
1964
##59
##YUN
selang
##ARKAN
segelas
Teen
##eroangkasa
Rakan
lantaran
agre
##emuanya
dijadualkan
##embiraan
IKAN
##HB
##eharto
##okol
pasni
##ALLAH
Shak
Apalah
telapak
ngambek
pucat
##nel
kanc
jadian
##OLOGI
Cawang
Yeh
yup
diatasi
macamtu
##oyok
Samping
##ticle
jelajah
040
merangka
##arani
serve
Serai
coffe
dato
Bekerja
KAF
##gakan
##uih
memupuk
##elahan
mint
##ancak
RM60
habaq
Investasi
##kebutuhan
mendahului
NOW
iq
sick
Ibuk
cashback
bundle
hbisin
perdebatan
Gebor
Iphone
takat
taktik
adonan
sentuhan
industry
BERL
maritim
Mandarin
Tech
Marina
totally
Noh
poc
malam2
depression
mempertingkatkan
ketujuh
mengirimkan
dro
singa
ngumpulin
Eva
bc
##asid
berhantu
Moden
Fair
LEPAS
Mia
hulur
##iani
belanjawan
brkebutuhan
puchong
slamatin
Engga
isap
Shang
blkg
magnet
kaftan
cancer
Suriah
##auk
exercise
standby
Bubur
Ryan
Uw
mengorbankan
Keamanan
consume
printing
nutri
##GANU
Mitsubishi
bim
ngad
Mydin
##idz
thru
##ITH
nana
kesib
##ising
bug
kebesaran
militan
kuantiti
Technology
membimbangkan
berkempen
flav
Kubu
bsk
##iasi
##sidi
memory
massage
berjaga
dilakukannya
receh
instrumen
Nombor
OS
yeke
memisahkan
##anjar
gear
Upaya
MEMANG
Jac
cairan
##but
##urg
##ques
Temukan
Menurunkan
Nay
basa
xnk
hostel
Tafsir
voc
yb
benang
awkward
Marilah
1968
spesifik
SAT
Seafood
German
##iqlo
februari
housemate
Kunjungan
niatnya
MINI
cerdik
bontot
gih
##info
nyiny
modul
Yogurt
Grabfood
singkatan
build
pengedaran
Majalah
Psik
announc
Faham
kemakmuran
DEKAT
SESUAI
##OOT
##eren
periksa
penipu
##percaya
pelatihan
##OTE
##FAAT
Deg
KAP
pulai
##IKASI
players
cicah
emoji
Jimat
##osial
menerajui
possible
##razy
Eee
regi
##udrey
kuatkan
dikalangan
108
activ
jae
Komb
memanjang
##entrasi
##ARAT
Apr
Agenda
##argebang
##tenham
HIJ
pressure
konvensional
Kash
Natural
Amy
aceh
dirasa
Baba
Mika
lantikan
lantak
pasta
Keuntungan
##URE
penyelamat
berfirman
hiking
Ca
jilat
kinda
##asur
Analisis
ward
Syifa
perbahasan
##ENGGANU
commit
Ajib
ungkapan
dude
##idangkan
selsema
sejajar
##gor
##NER
##olas
##abungan
##ainless
gading
selipar
##ujang
elegan
TERJ
Phone
simak
mengukur
berdebar
yeay
Hanbin
JBPM
Both
Benci
##ikalau
mengadap
stall
fitrah
Fresh
bull
pint
##ukaran
kuali
SPF
pantat
hee
mami
##sial
##abisin
racist
example
Fuhh
##lina
##FER
maksa
peliharaan
##estrol
##istol
Sham
momentum
Jenazah
bolak
berpuluh
dicuci
bursa
bajuk
marilah
Lets
##fik
dihadap
##ENS
##hae
##uriat
naw
210
profesi
language
hbs
diyakini
merakamkan
terbeb
Nelayan
dipecat
membicarakan
berpusat
empayar
STOP
Fans
bsa
##rl
amir
##stream
##chat
award
Plastik
regular
msg
langkawi
##o2
menyeb
bebal
diculik
tebak
1962
consult
Yunus
Kuku
loss
rail
##sari
sekat
##anggilan
##ijen
mekap
YDPA
Titi
pakek
##though
TERENGGANU
MINUM
Irfan
MOHAM
##bohidrat
JUTA
##eto
penyumbang
ehek
##aturday
difficult
baya
hide
melengkapkan
terlanjur
Khidmat
angkuh
KATA
Fajar
Td
tersisa
Priv
kemarau
Bimb
dorm
poto
ngene
Meja
marah2
Darussalam
tambahkan
alasannya
Colombia
besaq
##kuit
##illi
tho
Ummah
keberhasilan
##Rp
memperingati
tv3
reward
kancing
kedengaran
dataran
Transport
Freeport
Fahmi
garden
molekul
saus
tend
RIB
aiman
##bian
beral
merangsang
Tham
dipertimbangkan
TIADA
Elizabeth
##odorant
Fadz
disus
agresif
PRE
##OME
Telev
IPTA
##dusen
molek
Jodoh
sala
rizab
Haw
penangkapan
ketiadaan
bajunya
PG
pump
sender
##AYAH
mencurigakan
kenyamanan
west
##DR
##roy
Sebulan
bantargebang
keters
lali
maf
diurus
force
##ikator
takutnya
haihh
Aa
RU
jaw
##endor
serbu
##ITM
anymore
Nota
bersin
##ukuri
##mani
kuli
kekangan
Secret
KELUARGA
jurutera
vers
kalsium
membesarkan
##ourney
Merasa
menggoda
likeforlikes
Peh
YBhg
FGV
Luka
TAHAN
##cafe
IPG
publish
director
##KIN
##rob
Selimut
##angkai
##aduhan
membendung
shell
manapun
sukai
Mix
Face
Terutama
pulok
##AKAT
resume
koin
Khalifah
dicuri
indie
Bayaran
lom
##agas
disangka
mencarut
pencahayaan
##tigma
MasyaAllah
Pecah
rampas
atap
kesenangan
separa
opis
tomato
Europe
Hoax
MUKA
##kel
##gala
##urungan
prnh
carbon
KAIN
##itions
##afal
triggered
Sihat
syar
##Lisa
MOHON
patient
##wedan
Delivery
Mba
mop
##ural
##acanya
Berkah
penyedia
##ETA
Kamaruddin
benefit
##ENGKAP
Bunyi
Cewek
##has
##mil
selayang
kecenderungan
moyang
oles
##El
##rease
nyalain
upsi
##uguran
##bach
##57
membagi
ngaj
berganda
depok
Iv
##ross
##ament
##anjing
bertel
Pelayanan
tekad
##ressed
Tuhanku
IPD
tech
pengadilan
TERS
##marecon
##Pol
banci
kate
berbohong
legging
access
career
bluet
tadinya
Kelayakan
##IDE
Tolonglah
bihun
xm
decision
kowe
efisien
maid
##PK
meninjau
asem
Semula
##rozen
Halimatun
Aur
##ilem
keboleh
needs
register
berinter
mass
pengagihan
salleh
bengong
jih
##uaian
##JKT
Akaun
##mig
Rp1
SDM
tank
ENAK
kirinya
doub
ANTI
Skirt
##oha
mendingan
bertunang
##IRAN
jauhkan
menegakkan
pemberontakan
##inum
##avling
financial
Berkat
Smp
bej
halau
discount
syiling
Tiong
SHARE
##empurnaan
building
1kg
Korean
lame
ria
Alaa
pemel
##UNGI
bibirnya
Ms
##onet
anwar
adl
Entahlah
Ngantuk
Hg
NAIK
buff
dulunya
##rifkan
Difahamkan
Heran
rot
##soo
Kekabu
Skudai
sig
Seneng
perpecahan
Koperal
Sembang
cetakan
jia
yela
kepastian
##usnahan
Zen
denganmu
berpaling
penjimatan
kapten
Terbukti
Angka
Mich
##ebal
ditingkatkan
wake
helok
##ancuran
terbahagi
Messi
pnya
##emo
menggun
##otek
Anf
UNIT
Eric
##js
Die
##ahuilah
PEMES
Buy
yun
##ied
##atalan
##abentuk
minoriti
Pakaian
##clude
gulung
fee
nyatakan
##rome
##idato
mengaitkan
##ewah
pelindung
angel
dibuatnya
Hero
##hd
dahsyat
frust
BETUL
SING
jumbo
##eso
##ajaya
benak
sepah
Asasi
resah
Alhamdullilah
pengertian
karangan
ketel
restu
demen
haah
Hahh
jangkaan
##irut
##emarang
ongkos
jualb
PKNS
SERUM
kesibukan
Pilah
TAR
##abarkan
amount
##baharui
Maap
typ
BBC
bersedekah
Dorang
mim
rumahtangga
##gkn
skop
##wokerto
TUH
didaftarkan
sekala
kesadaran
##inggikan
penyeludupan
Berhenti
COS
suzita
iblis
diselenggarakan
perisai
Menterinya
Trop
kebanggaan
berlel
##essor
pose
BERG
buluh
Mentor
disekitar
DL
Lha
pisan
sangkar
mengenang
penanganan
##angkin
submit
ANTARA
buncit
##cinta
##anjir
matiin
##menung
Website
Sewaktu
haven
Selesa
syirik
replies
Pulai
##enjataan
Debat
hulu
##obo
pemansuhan
##ALING
ucapnya
Sesuatu
lelak
##ahak
muatan
fruit
Urut
walao
Ltd
Sian
oat
##dirkan
##ichi
kesat
Salman
suff
topic
decided
Kaun
TRI
congrat
egg
sahih
##igami
countries
Organisasi
##NP
##HONE
digun
##ilit
perangkat
Teruk
motion
denga
assist
Tarik
Zuh
clos
uangnya
Nnt
rag
pengawas
meal
jumlahnya
Brokoli
favorite
dianggotai
berkemungkinan
Dark
##arawan
engineering
CUT
Omnibus
sekata
jernih
##rolan
photographer
helium
Bour
instant
twice
Thankyou
hahahahha
hanbin
##ampek
Malim
230
Exc
Summarecon
Bazaar
Fb
UCL
gerbong
lekat
##BUM
telahpun
Stadion
ajal
##TIF
sukarelawan
MCM
Mental
tafsir
##720
Meninggal
##ematika
madrasah
complete
hd
Ngomong
Silver
Hope
paste
shak
shake
USM
leaders
Lincah
Sob
jengk
##minit
##trep
##DAI
spekulasi
Gk
##adai
keris
hailing
bosku
ibubapa
Besut
Urus
Jib
KAB
Saran
##sun
Kerugian
##minimalis
##erintahkan
flawless
tugasnya
Atlantik
ulam
##zir
alp
makang
ente
berbayar
Kevin
survei
sembur
AVAIL
kamb
menst
##erif
crack
PenangProperty
propaganda
Daily
REC
ble
dalang
##OGA
##ahahh
bersamanya
main2
Deli
Tulah
langka
suit
comfort
Jeruk
Flop
dibahas
Telok
Darjah
Bestari
allahu
meluangkan
jwb
##yon
##egat
##embira
mult
keberatan
spesis
Sapi
squad
##kab
##LAK
##وا
##anis
##ulit
sentap
##road
Ayub
##ernakan
DGN
##ruddin
Chung
cuak
bengap
Cross
jobstreet
panggang
Lik
Ketu
Prakt
jahil
##injen
bgn
semu
KEDAH
##rovert
##rosesan
Ganja
catering
radar
keinget
Kene
eyeshadow
Bendahara
##rosoft
muar
##add
##ilm
Teri
TUNGGU
cold
genus
kkm
apo
PERAK
usahanya
Binti
Dhuha
Nissan
Fern
Yatim
##eun
##vc
##mpuan
elakkan
yoongi
##iritual
realis
mahasis
##USUS
##EV
khur
keselesaan
##ability
Dubai
Vit
##how
koq
bercanggah
240
karier
Ball
GANT
Tbk
pny
##NG
terangan
tangani
Matanya
sabu
added
##SEL
seadanya
dilanda
##antuy
##ECT
melepasi
PEMESANAN
##ayap
LHDN
vill
dilalui
MODEN
berinteraksi
tf
##ukk
##atani
penolakan
##ontoh
##ansing
tabiat
Nawawi
SIN
TAMB
mencetak
CAK
MAM
pengobatan
sikit2
Salak
Wehhh
habib
practice
hung
oc
##inambungan
Pemul
kenceng
kri
saks
##sain
diingat
##awapres
patutnya
ultra
PAKET
Hantu
Ug
##atinya
##ausa
##opol
Serang
KIN
##Love
akidah
014
Hujung
singk
merasai
setinggan
domisili
##etulkan
Risau
Naruto
PSM
banya
kik
Kemaren
Ehhh
SEMB
sebotol
nyer
##EDIA
letakkan
HAN
Waduh
mendidih
Melati
ALI
Peace
Cabaran
Istimewa
wira
##maid
##380
tanganku
Tanaman
pamit
Gausah
rukun
##Cho
berkons
##ALITAS
Pasang
urgent
tulen
Pembangkang
Yoongi
MENJADI
overthinking
DET
pple
##mf
pertar
##yeon
Hindia
Pegi
##tel
##solo
##imatkan
siol
apaa
berkarya
berbakti
##gget
Pemilik
Mayat
Zainuddin
berleluasa
qui
##TIM
memerintahkan
opening
Jelasnya
Pd
Tali
hk
##hand
0819
pencuci
Beirut
terbabas
cobaan
Hamp
VIV
jemu
Penilaian
Pengusaha
berdampak
murahan
Telkom
Teori
kiriman
jannah
##awaslu
science
Potong
kwa
##ulian
Berharap
Queen
KUT
OUT
welcome
##call
##ayal
##ambangan
trade
bermacam
mengganti
Makkah
NON
##dik
disambung
1930
berlubang
pkl
diharamkan
beramal
penentuan
mins
pemu
lately
rakan2
Hawa
##eros
kalem
kenikmatan
Adrian
Sederhana
Rasmi
##abilkan
However
las
menghidap
Merapi
angry
Cambridge
##ropolitan
cub
##utch
##ariasi
##opp
SPEC
proton
##edom
##istret
CUK
##ammed
berkerja
##rait
produktiviti
mula2
sheet
ketidaks
BK
fark
memujuk
##made
##oftheday
mempamerkan
Limited
wu
##adin
##tics
Keunggulan
116
Sertifikat
##eluarin
24jam
PEMBEL
circle
mercun
Bangsat
sne
belacan
##ipis
##plement
barunya
swim
trading
metabolisme
Jarak
SINI
gb
sehun
benda2
##ifestyle
kompetitif
RON95
dollar
Normandie
Tipu
cp
##TAK
##urawat
berjuta
Stream
MENANG
Senator
relawan
Teknikal
1961
sports
Eco
##Give
##zaman
##arum
orangutan
Nova
Barangsiapa
Murid
1949
sndri
ubatan
istiqomah
strawberry
Cm
PANT
gulai
##optim
menyanyikan
sendirik
pendidik
##spsp
Juan
##ections
sendirinya
##osiasi
SEMOGA
1958
Susulan
Bendera
often
kepeng
related
FIN
mengidam
prob
mess
wedok
BOOK
##Choice
femin
##hasil
##eel
SEC
kapsul
kerjakan
RM35
BANJ
character
Kand
##apuri
Chef
arang
##orthy
##void
crew
MEI
caught
rimas
##amy
bebek
biasa2
Komod
sarana
Astagfirullah
BEBAS
Bani
rai
##card
teros
seberat
ngirim
##anyol
##enggelamkan
BERITA
Maq
Texas
layaknya
Slim
pendengar
kekh
bodohnya
Pyrene
Windows
Cowok
Gang
yong
##udes
susur
##ILE
##hless
Sukabumi
contract
conversation
Bangka
##eliruan
##ILAH
Seribu
komposisi
terperangkap
Sosiologi
MAAF
Wu
##sssss
##EBIHAN
Muslimah
Pau
bond
zuriat
##aleh
##iso
menyala
##yaratan
##hirup
arena
kegembiraan
TERBARU
nilainya
Sala
jab
##lucu
kepal
bertarung
##zahirkan
AQ
Kala
farah
diikat
##ikai
##esek
dipasarkan
gelanggang
Residence
meni
penahanan
sahkan
##enggu
Trs
munculnya
Available
Esp
##vensi
bergi
adakan
pengkaji
SAKIT
ojo
##LAT
##ASIA
merangkul
Kamil
Wait
pangkal
Alp
berlindung
COT
Hwa
##Co
Inform
manajemen
##untun
##ograph
seladang
Insan
sehabis
colle
bersamamu
Teruskan
##star
permen
simpel
Menjadikan
Rail
penuntut
memperkuat
##idae
Gigi
Rayyan
notification
kesetiaan
Onn
Zoo
##dog
Perikatan
##ADAR
wants
unf
menyimbah
Kapolres
Olympic
KAH
Tara
naib
tersenarai
kece
medic
BUKIT
farmasi
PWTC
TQ
lantang
##haj
##NING
##eranya
kebersamaan
##enggal
##encanakan
CAB
Kutus
##ingy
menyewa
makwe
nyeb
matamu
gosip
cilik
##girl
mengalu
stiker
katak
##ancaran
Round
Capres
##firmasi
##Art
##sch
##asuh
berundur
TESTIM
##abrak
smooth
carikan
Spring
mls
diplomatik
Mani
berpr
Kebakaran
##IHAT
improve
mempercepat
##MusicVideo
##aind
demonstrasi
Saling
gangster
##entot
##opoli
##ptg
tujuannya
careful
yal
Insp
Timnas
saddiq
WOI
diliat
Fore
cast
##umurah
##otanya
Dinner
##enin
##uhi
membedakan
##ERJA
Kemiskinan
089
##ngan
Membangun
Nangis
Tepi
inj
##udud
##olla
Permohonan
diwajibkan
KING
##epatah
teu
Personal
IPOH
Profesional
##oksida
Mengk
##prise
##NU
##plet
Berlaku
Weekend
Pyrenees
Wib
cable
##emudi
berst
konco
Nordin
rusuhan
lindungi
##bit
sea
Act
deny
##HAMDUL
Ext
lalin
polah
##akwah
tuang
troto
##enggang
978
##SAT
mainkan
crit
Jaminan
kamarnya
titip
meaning
duri
##angguh
1940
DIR
Yaak
Bangga
Lomba
Plis
disajikan
##anced
##laq
celan
Gerai
Mamp
Rina
##orr
meleleh
Malacca
environment
pembicaraan
spp
##ishing
himself
##enjar
OC
tdr
penduduknya
fleksi
correct
Mazlan
Goyang
vit
kaler
balang
berpecah
maling
Pemikiran
learning
##hoot
Lega
views
ucapannya
Review
bongok
Komisioner
Jurnal
##emaskan
##issa
Seketika
outfit
##333
KHUSUS
tiram
continu
TPM
##umma
##abe
pembersih
instal
recently
##UBA
PETALING
DVD
dust
lesu
##ianto
##sana
##onim
terik
##epost
bensin
sepertimana
stokin
Rhineland
Movie
lampau
##lot
##wani
sayangi
##hern
terserempak
Asus
Akhbar
laksanakan
##SE
##ulukan
Teruntuk
##ours
Palatin
Bawaslu
Tent
izinkan
##jokerto
interested
jail
##well
wktu
Nadia
economy
Cit
garansi
##ix
##eing
masya
printer
Adek
##encia
BEG
Coc
GOMB
##ebag
##ungguhan
Settle
Seram
angah
2030
penetapan
Choice
##astory
Maktab
##BER
seandainya
antr
kitaorang
##ILL
Medical
Palatinate
Himpunan
Josh
##pin
##DIN
##PINK
berumah
##ayangi
membimbing
cupang
rilis
Ringan
mala
pnd
##aming
chair
##yeong
Senior
COK
Kenderaan
fill
berencana
sty
##asihati
Prim
Poly
sinetron
Stan
Sasaran
benteng
##asah
pelangi
106
halang
membakarnya
##aplikasikan
JOGJA
Garut
##Presiden
dipikir
bercahaya
Kejuruteraan
ENG
develop
Ice
KUN
lend
DiRaja
tauhid
1500
Trade
carut
tatkala
pewarna
##ysis
Bismillahirrahman
Mbah
##elangan
denganku
##aluasi
kelangsungan
Andi
107
Resep
TAKUT
mekdi
seumpama
eg
berit
berarak
Pertamina
sentral
Potensi
provokasi
Dosa
##pus
##ms
merenung
Steph
wkwkwkwkw
TeamLisa
JERAWAT
essence
Jiran
Made
##adir
seketul
rumahku
ketahanan
berjemaah
kronik
petir
taxi
bantuannya
Febr
Confirm
Firdaus
menempel
1942
Bocey
gom
uniform
15k
Soeharto
presetnya
Jose
NTT
sachet
pengetua
##alip
menyasarkan
Seru
##IRT
earlier
sajat
santun
TEMPAT
khurafat
CA
zakar
prono
balit
Cho
Engko
Hyun
Little
msk
##Ap
memutar
Chu
ungkit
Deng
kob
pit
##uhhh
chun
Justru
Rembau
CEK
lans
tiru
##lr
Perasmian
##ahanda
berkorban
Moon
Hanum
shoes
CUST
koh
nunjuk
Alan
siapakah
agihan
memperluaskan
Sentul
Muslims
literasi
KEBAYA
kompetisi
Rukun
awas
##ACH
Ribu
mudahkan
BUKU
nyaris
Pohon
Also
ditekan
timun
persenjataan
mempercepatkan
Nun
Panggil
ponteng
menunjukan
mengarut
selingkuh
Indra
Chev
Aira
Mill
MEMP
dish
INTER
gerik
tangisan
Mind
afiq
##ecess
Ell
KAS
jawat
diel
Kement
##ESO
didapat
ALHAMDUL
tagar
Kids
Mumpung
cinc
##ilau
perokok
Perlahan
ingatlah
##agazette
causing
gah
hafiz
sangkaan
cri
##ties
##osting
Berbagi
Khairy
numpang
swit
##aguan
sisanya
everytime
attend
pemerhatian
malaysiagazette
adaptasi
nobody
DYMM
dikejar
##artaan
Bahwa
ASN
celik
Sungguhpun
##Maju
dibiayai
proaktif
Kategori
Amirul
Rela
cegah
yeh
zul
##LO
tertipu
lagi2
berpandangan
111
##apake
Council
ngatain
##250
##ANJA
##afasan
Takziah
##ITAR
BODO
650
Lord
##osari
yaAllah
mendes
Reptilia
##kuriti
ekuiti
##WI
##ource
Kolam
komplek
Jahat
sbnrnya
NAM
##riage
Maul
EXCO
bidadari
Ajax
Banda
##HEP
##ahaa
SEPER
mouth
##iasatan
gengsi
Parah
aur
guan
taj
##addin
##udup
##inggir
agam
satki
Piai
PLN
KONSULT
Uthmaniyyah
Lath
SOS
##ampingan
penyatuan
Pesantren
tembus
##uwangi
cicak
Kartini
mentor
akeh
Vivo
ANJIR
Page
WANG
litar
oo
niiii
pembawa
forgot
Adu
tenuk
menghidupkan
bermimpi
Marit
Bakti
Billah
sebati
passion
kesemuanya
Sholat
Maur
Ultra
Fiqh
Gangguan
kajang
nti
seorg
##olution
##ERASI
ngegas
menyegarkan
##ustrasi
10m
Katun
##spot
KUCING
##ANTU
Ujung
kedepannya
dialek
rondaan
##wich
##usik
##embut
##sekusi
sopo
Netizen
Nobel
Jordan
tingkatkan
ditipu
##odern
pakistan
khalifah
pasangannya
bajuanak
Vokasional
##vs
##wana
akk
gituu
according
GAARAM
Nazrin
lesung
KOMUN
##juna
terindah
##rier
ekst
Mendengar
##struction
GOMBAK
KIP
##eed
propos
kecemerlangan
dinamik
auntie
##tek
##lung
##BR
sedek
sesawang
Redmi
Studies
jutawan
stim
##kantor
perintis
loose
Akmal
ramuan
Cop
Test
##teng
##umar
Grup
munasabah
Pagoh
Saw
gate
penangg
ngab
didnt
##UUU
candid
##ebumikan
Falsafah
padah
##lom
inovatif
terowong
Pasaran
##timate
remain
Wehh
haba
Liberal
Ukraine
Lagian
Wol
preloved
Java
PM8
considered
SAJA
saint
remind
##rediksi
Louis
ngr
##itiv
119
melonjak
tad
vape
##tis
##FIR
##istro
Chapter
PERF
##ocket
diterjemahkan
1941
MUSLIM
Luck
##bye
##akal
##ongin
CHE
sarankan
Fuck
gro
jp
pir
tail
##faz
##arisi
##umuskan
pepagi
Ratusan
TENGOK
memperkukuhkan
ntr
##ion
##DS
##ان
##size
kokoh
##kien
Smith
mindset
KEMBALI
RED
citi
bergelut
artist
terhasil
sifatnya
football
Tit
##pose
berbahagia
Arch
internal
##others
hype
Devan
pleas
GOT
Hop
##saan
##apung
##usif
nyokap
##OWER
MAKIN
limp
##NK
##illy
perit
##daerah
##IDEN
Menyambut
PBS
BALI
CLE
Fashion
bambu
merendahkan
sivil
maleh
Sampaikan
suntikan
KERETA
Kampar
BODY
SAMPE
Fund
Oct
Rangkaian
blame
zaitun
##rica
##icia
kebayang
Penasaran
Import
##SHSH
diberitahu
recommend
fant
##Bukan
##eding
stamina
kls
##weeps
##andatangan
figure
Tud
penamp
##abilitas
Vanessa
Women
Zara
dod
pertiga
tue
Florida
mabok
Siaran
Kebaikan
gergasi
baunya
Ujar
tilam
PTS
nit
##OUS
##itiga
tiup
##ejutkan
planning
IHSG
LOL
Soo
manisnya
berkesempatan
Dingin
Hok
hw
##usin
berlatih
berjam
knew
capital
bao
##oraemon
Pusing
genting
kj
##51
##ination
##ikmurah
Fred
Crepe
mengenalpasti
terkumpul
Jari
jokow
rse
##burn
aliff
berbulan
kepolisian
Sedar
DBP
##initely
keterlaluan
5x
Nantikan
VB
Wife
hdb
##ajor
Pengundi
ahlinya
##APUN
ibu2
perbatasan
Buruk
Kazakh
berapakah
##unggah
Pengembangan
flying
geser
Tn
tendang
zai
diserap
komedo
Siew
Express
Conc
keretapi
Bayu
Tunggal
##etta
Alquran
negative
##lue
##tivitamin
insurance
rapih
##isytiharan
Makeup
C1
MOB
manga
opt
antusias
dimenangi
Ibarat
thu
Anas
##intasi
bisanya
FIR
stigma
mengulangi
membawanya
pemak
chapter
RM90
haruslah
worst
##OSE
diedarkan
GG
Haq
S1
dikerjakan
##ujian
##tury
mengeliling
method
astaghfirullah
Cleanser
Rach
cong
##PAT
##ehatkan
kerudung
diperluaskan
PANJANG
BERNAMA
Kasar
eating
##ik2
merep
andalan
apahal
berpanjangan
Keduanya
belakangnya
February
Elm
earth
terdaftar
##eji
kekeliruan
##ffffffff
TIPS
550
DAG
KUAN
##wel
Seharusnya
mcf
network
ekspedisi
July
Penutupan
Sometimes
Dugaan
##wangi
##embungan
Foot
numb
Pendekatan
flower
portfolio
RESPON
GP
##wt
exclusive
bertutur
##170
Rekomendasi
1946
ANGKARA
Jateng
Kp
Rupa
##FI
##anza
##about
dipesan
##ORI
Sulit
problems
roommate
membebankan
##mos
sudahlah
Biasalah
Jelang
fah
##akr
##edib
##avia
jerebu
Ilm
meniru
##icate
kesesuaian
menghela
kekadang
Pras
politic
bersempena
komoditas
pensil
##ploitasi
Qi
Staf
##lem
translate
diwartakan
arsenal
##sung
##safat
diag
apartment
Sales
eleh
aksara
chief
peace
follower
derajat
berperan
MAMPU
##angkiti
##ostal
gantian
mobileleg
tomat
##jong
##ayung
itupun
mancing
##matullah
provide
Monggo
Jub
KAY
Ping
UANG
##lean
##ooper
siku
opport
dicoba
penganjur
eyeliner
diplom
TENGAH
KIT
lha
##aco
Perancangan
Ear
PAP
mute
##rag
menjabat
mahkota
Armen
aci
Residen
Koko
Convention
Meriah
MOTIFNYA
Dag
Syar
##arasan
##otcom
kebohongan
Syurga
Serie
dicetak
reality
KELIMA
Nai
raksasa
dikarenakan
gofood
Nurin
WHO
privasi
LDR
alaa
mendaki
HASIL
TAB
##gm
Menunggu
Engine
AMIN
kecik2
##Islam
Spa
gesa
wig
##Pemb
##utri
lagian
Marne
scholar
shahih
Fitur
Ahhh
Pakat
gain
##zub
ameri
##tract
dihati
penggambaran
Whit
Kite
Oku
##yok
##asons
##tial
##ubual
perempuannya
perlulah
USB
AWAL
homemade
rohani
FORMAT
LEMB
naz
##sak
meniaga
bangett
brush
Edward
KELEBIHAN
nekad
familiar
Tegur
AAD
Ez
lower
lpas
##abor
prosp
PERGI
dongg
conce
wkwkkw
golf
Komputer
MODAL
Periode
wawasan
##uhuhu
##odok
integrasi
kondangan
Popular
BAYI
several
8k
##ieq
tabur
SPECIAL
Tul
yellow
##alap
terusan
tenan
kementeriannya
Colorado
Bakso
mong
##sman
##apusan
##ERY
bahayanya
Arahan
ibh
provider
Fasilitas
sni
##uap
##okah
path
##serv
pikirkan
KPDNHEP
Joy
dipetik
Ard
Pembantu
pandangannya
##777
Sedihnya
surpris
Maruf
nitip
vel
Anne
emergency
123
buahnya
Lahad
lekas
felda
##jj
##andaskan
pengkritik
pernafasan
Istiq
tinjauan
xk
##raman
##lyn
mewajibkan
##ference
Ongk
BTSARMY
Milk
PUASA
berkuatkuasa
Cour
Cerit
##ijat
source
Cris
Fran
HU
diing
##osk
nyambung
Indahnya
Santa
##Giveaway
loud
bakul
##kerja
Ngah
lebah
anyhow
##asteraan
SEDAP
JIMAT
Sia
##akup
##edil
pemutih
pram
wallpaper
Investment
kaunseling
Wik
nutup
zina
##aign
##lamasi
susut
degan
pingsan
diumumin
berun
##oglass
Terlebih
meminum
TESTIMONI
Liter
zikir
##oral
Aslan
Siapakah
acuan
exact
latest
MPV
Beneran
Ariffin
diabaikan
valentine
2XL
##HER
Persp
nyoblos
berhari
tercemar
hanger
##USTRI
Matang
rider
menabung
##perm
##perimen
pengamal
bawaan
##ADE
stretch
pondan
Semporna
DAF
justeru
sebb
##iburkan
menjangkakan
Biskut
duet
Dll
OH
mendung
pinned
berkemampuan
Haikal
REND
sebaya
KOPI
dt
##och
##Nasional
server
Rosli
Ujibakat
ESS
jadah
Mahf
discus
membebel
Congrats
Basic
Bimbingan
Perhatian
##indasan
##resik
kanak2
##eluargaan
sertakan
##uafakat
boi
maa
pengisian
Ditunggu
KKMM
sekutu
derhaka
diisytiharkan
##andy
Perawatan
Malangnya
karbohidrat
pertambahan
Keramat
tengoklah
brapa
Membaca
BRE
Dang
Yela
diundang
##lev
warning
SEORANG
results
jamaah
Males
##angsing
##AKS
Spo
Auth
XI
memo
selamba
macamana
geleng
Vote
mate
lebam
Wee
##lil
##Ah
##omod
kecilnya
Jersey
##eroboh
tanduk
Jutaan
og
##EI
bermul
##ternal
obatan
Cry
memantapkan
Tern
Masakan
Paras
PRES
jahe
TLDM
BUNGA
Oli
##otoran
melembabkan
boikot
dewi
Netflix
pengasuh
Lanang
Bohemia
5kg
CALL
cg
##YP
##uluan
jelasin
starting
##akonkan
Staff
Nurhaliza
Purn
UEC
##UALAN
##inge
adoi
##ocoran
Heart
France
genap
SABAH
COTTON
Katakan
Sotong
naim
dibubarkan
##ombe
##eyy
educ
legenda
Facial
PENGH
Tibet
pemuzik
gamba
iium
##malang
##just
##emanan
##endara
meletop
shut
indon
SPAD
Transit
Nabila
gast
##adijah
Berlin
klip
Mahu
universitas
Kulai
beta
manus
dilap
article
bljr
Setan
##instagram
kerusuhan
mengekang
TeenChoice
##erce
##ultan
termenung
bersaiz
trek
session
##undukkan
pencerahan
##emangat
yaampun
pemberi
digabungkan
Subianto
lets
rusuh
explor
Friends
Touch
uhuk
kebahagian
Keras
usim
jammed
KUOTA
BUAH
Ilham
Capek
Sebutan
meri
jalankan
##antui
PPP
Jem
aok
juri
##BAL
Peralihan
Prime
themselves
erm
1953
classmate
tarawih
kayuh
ketahuan
##MK
berserta
kemuncak
kebab
BERMIN
##OHONG
SONGK
tuuuu
Penubuhan
mcmtu
Planet
DIL
Tarif
dagu
##bell
berus
serban
aktifitas
frekuensi
LAGU
KOT
Sambung
##abau
pendiam
berpura
produknya
Alexander
Hajah
##wet
##ahahha
berked
datar
Microsoft
##Super
##ekh
##gie
wax
Mariam
Tapah
HKL
kump
##ikl
##awali
aslan
kroni
moots
260
Sehun
bengang
Tergantung
GORENG
##ben
##empah
##ishang
kadangkala
Bey
gok
toksin
gamiss
glass
trial
paj
##eway
Khasiat
perlombongan
naungan
Almari
DT
Pintar
perompak
berlanjut
baterai
SEPERTI
Ohhh
kiranya
lebih2
arch
doanya
dulu2
##uasnya
Biarpun
Duli
Persiapan
apik
##ebutan
Kemuncak
Karen
increase
Gamis
KI
Youth
habuk
##giang
riset
vivo
suamiku
HAMIL
Singgah
##atku
prmudahkan
##ULUS
kolonial
graduate
Bolasepak
Flat
Suar
##hope
##oming
seliter
pengiraan
##ITIK
cukuplah
Persembahan
WKWK
suic
##umble
ayuh
Meru
##biotik
acah2
Product
keajaiban
##integrasi
Kemakmuran
laporkan
penghalang
Room
dires
##ebes
sekecil
kelamin
negaranya
maneh
klaim
dihilangkan
Ibni
##arutan
##usta
memicu
##digan
##ilux
CHAT
Maxis
Sidoarjo
za
##ometri
pepejal
powerbank
Butterworth
INGAT
bait
uduk
zoom
##Aja
tikam
SELES
pekena
berpengh
##Week
KG
NAS
wl
##rihat
sayajual
Pasca
##shi
deme
USIM
package
bli
asw
Sesekali
taiping
IZ
##cow
##jer
##ebo
serp
RM80
sahut
Stev
cart
png
##hen
##GO
##Ob
##ulture
tahulah
kebas
Ungk
##sky
pale
lekor
spesifikasi
NASIONAL
Mewah
DEL
Tajuk
##unikan
dibicarakan
dikebumikan
truth
##undry
telp
female
neigh
##atahkan
##aww
asus
diser
##ultasikan
bijaksana
author
SAY
hajar
ladies
##PING
##akanda
niq
amarah
ditel
tngk
POT
ami
balek
##ocent
Wahhh
Armenia
asnaf
dikarang
itik
hahaa
Fauzi
Ooo
hitung
##onto
bros
##IDA
ojek
kemurungan
trail
menghapus
inshaAllah
3XL
Bole
veget
##imo
##epin
pundak
dikamar
chu
sug
##affar
Fikir
Reli
domba
##Food
tersumbat
##imahullah
Dengk
Lob
Mol
##gender
dihi
##ohh
admit
koma
Pemasangan
##mates
daratan
btl
matrikulasi
Eleh
##To
##YUNG
mengenainya
anjay
berasas
##EKSI
Kristen
##KKK
Armada
sakan
##HM
buktinya
pegel
garisan
1956
sehinggakan
klien
BF
BAJ
nempel
kawannya
himpunan
dmn
library
Nasution
avengers
ketersediaan
Panda
##syah
##enk
awai
doo
hahahaa
MUDA
983
didalamnya
##baguna
SAP
sekut
##orejo
mengucap
Anc
prasarana
Superint
##skap
PENC
likely
coconut
perati
mengisahkan
kuis
disisi
pembebasan
sepasukan
##umbar
giving
Apaan
penyerapan
salurkan
transp
pasukannya
Terlihat
steel
spotify
hentam
yuu
##pens
tertib
##seas
goals
##jiang
badut
Gerak
##ELLER
Beh
terlajak
demokrat
didorong
Nunggu
##vic
##kuas
berlandaskan
skli
##trin
murahkan
intel
desakan
Hussain
memadai
balu
##lap
##Mel
sekeping
chart
Keroh
Surya
akibatnya
Comment
aduhai
Nampaknya
EMANG
##yarakatan
WAKTU
##wil
##elix
##max
acik
idm
Tealive
gengs
mengelilingi
bcs
nurut
##MAT
##ilir
Unifi
Thats
Prov
beginian
mnt
range
Menpar
kho
##ergantungan
Jelutong
Baqarah
saiki
##rio
Rahsia
Lebak
azmin
Rin
sump
##bun
##anium
Balikpapan
##HL
##ayangk
biadap
##raits
kehebatan
YaAllah
respons
##GET
##fand
##oria
##ekin
RM45
##ESH
INGIN
Sarung
Saluran
JBR
Western
##arapan
##alatan
nic
serasa
##AKIN
kejujuran
betoi
BLACKPINK
GI
Mamat
od
##hop
##malam
menepuk
memutihkan
alay
tersalah
berbuah
depend
yahh
Aer
tajaan
##amo
##aulan
##ibar
pakenya
digoreng
Bukalapak
##idio
Komunitas
protect
INDUSTRI
Banting
collection
BOR
aik
ngaruh
##ALIS
awesome
sekolahnya
indonesian
putaran
fitri
discuss
hoki
Wkwkwkwk
hos
kip
pemburu
kecuaian
reve
tengk
sleeping
Kapolri
nggo
abe
Kafir
rantaian
Pip
Sunday
vo
sayu
buleh
istiadat
Bod
Gg
db
lampung
rating
##Cegah
ate
acak
Timah
##onceng
tandanya
KAC
##urukkan
##aum
unlimited
##eger
##uban
bersambung
smok
PERKESO
muzium
dijauhkan
Gri
soo
bertarikh
berhemah
Kekasih
Depa
lenyap
##cat
meat
bash
##EEE
sembelit
Pagi2
chees
Jkt
Pew
injur
##obatkan
chin
tiap2
kitorg
Krim
mirror
IJ
Nev
lalang
mks
##badan
sifar
blus
deter
##ecor
##encer
Perangai
Hati2
##onge
drug
Pray
kehormatan
langsing
Ck
##cewek
##edam
kesuburan
liabiliti
Result
hapenya
Adul
LPP
Pandu
Sorang
Titik
gajadi
##pik
##park
##ishh
dibekalkan
Dialog
Kesimpulan
kitaran
similar
CUSTOM
Talk
euro
##vest
orange
artif
pencari
AST
0838720
pemprosesan
Hiz
Paham
Tian
fiber
##ontalo
pertunjukan
##umbai
Pelantikan
##yungsoo
operation
##ligence
ninja
Sifat
Gug
male
##tega
PLIS
##uuuuuu
Tempahan
cases
Ratna
Latheefa
bk
derita
##etis
inner
pasya
beach
berjerawat
terdampar
Syam
dayana
badai
AMP
Hijab
lmb
initi
mengobati
kedok
watt
promil
MAX
Diameter
tiduran
##tors
terdesak
riang
##Artist
Leng
##apalah
pantun
Bima
Mot
Pm
##Narkoba
engko
blum
##ikmalaya
kegelapan
response
piano
ying
##cut
##600
##osong
Razali
Kahwin
fasih
mia
Aneka
1920
dilayan
Shams
Kemana
Sout
##etulnya
lenguh
Aishah
##GAK
menyingkirkan
Penampilan
ikea
Sens
referensi
lemp
##erre
Keluaran
##ellar
Patrick
Cikampek
Yusoff
Aduhh
jilid
MENDAP
Berkualitas
memfailkan
Same
##ritik
##zone
berkeras
agamanya
diamond
STPM
terhindar
bonda
##ekalongan
religious
PAHANG
Dara
##imurah
hadirkan
telon
hak2
Iklim
berketurunan
kapcai
##enne
##kutan
bersembang
nyaaa
menggantung
bersihin
hyd
BONUS
KIRIM
##lip
##autan
menyamar
Selam
Chem
places
lebai
Ambik
PINTU
dibeliin
mendekatkan
Hell
tari
Sebarkan
Stand
DAFTAR
Nda
REK
fc
##pati
dicalonkan
handbag
Never
Bugis
Mig
Nia
Sena
middle
##xia
##pret
Kemeja
##blog
Transaksi
write
Cuman
##tal
serap
##church
choc
lawannya
alien
Dzulkefly
quar
##agne
mengangkut
berser
karyanya
kejadian2
Year
except
tknk
Aji
PED
gajian
mny
##election
menunda
memihak
solar
##unyian
Deo
tiruan
hoodie
pistol
Keong
kolestrol
Imag
tambahin
BAPAK
bertemakan
Kenal
Belom
ISO
titipan
sounds
BEA
##dem
##uatiri
##mania
suppor
##ished
stroke
EDITION
AJL34
##itraan
ngef
##ABAT
writ
Murni
literally
Training
Valentine
berstatus
##WIN
##ulation
reali
bawahnya
weather
Sea
moon
ASB
percintaan
Baswedan
kusut
sindir
GAP
Jubah
hentikan
##free
##arus
buzz
##andarkan
sampailah
Enjoy
menggunakannya
Amirudin
Annuar
Jend
ngatur
##rating
Mars
SOR
UITM
breat
lapa
nation
sholawat
##encangkan
konvo
##cles
Society
keunggulan
kekeluargaan
delegasi
tembaga
droplet
munc
nadi
berunding
mengada
PDIP
ShopeeK
GRAB
celebrate
Tingkatkan
mera
pstu
Hannah
ngechat
dub
sasar
##amnya
membawang
terbaharu
Ghani
sipil
Pensyarah
antrian
##OCO
promotion
MANFAAT
window
RCI
gapake
Chow
regard
##ORMASI
officer
930
Fot
##qman
plastic
barangnya
Brl
obrolan
tunaikan
Suspek
mentioned
entry
CAM
menitik
##ajipan
bertepatan
parcel
panitia
##tenan
Ditambah
##NT
kepake
abi
elite
menyusui
unikl
ALHAMDULILLAH
3rd
Ranger
##ulations
##etown
prime
jatuhkan
takdelah
ckup
##lika
##umer
##eknik
tuku
mengharap
Menghad
View
queue
MEDIA
Pdhl
CIK
##peri
##rex
jerawatan
SEMANGAT
SIAL
editor
pronounce
paus
penagih
##ucin
Harganya
Dal
##eddy
##acunan
##echless
department
hoaks
hobby
Sunan
cangk
techn
zona
##tl
mengkonsumsi
Quick
tingginya
tuntas
Sarang
jfb
wasiat
##ingnya
##ectiv
siput
RMKe
kendala
Elektrik
##tv
balon
berlepas
penyembuhan
SME
0853
##ografik
Jadinya
LAMP
##Hour
##okat
ork
##ogol
103
Kursi
##ARANSI
Hollywood
Mrs
tuka
taruh
##ored
membiak
Tottenham
pelacur
HIGH
Kans
hemp
tung
##pel
yahudi
lele
rebutan
fungsinya
Fly
diagn
##mpat
Mineral
KLANG
SPA
OPPO
pinklady
Cimahi
zim
pembaikan
describ
MENGH
Matrikulasi
##ianjur
penukaran
temuduga
pesawah
114
basis
pede
profesor
Demam
##while
BID
Ton
dorong
ulat
##adh
##antikkan
urang
panah
Repair
##argo
lelap
Tradisional
##ooftheday
##Obser
kand
##SOS
##arinya
berlarutan
outdoor
NGAKAK
wujudkan
Madura
Records
Bachtiar
Eth
gerah
##isika
##rei
##opor
##ingkir
Prasarana
280
panci
BANJIR
Nau
Ouh
jatah
wid
##eles
##omu
laen
dilatih
Shame
khemah
mulfand
biarin
RM120
swipe
Sudahlah
DLL
##aled
##agis
selit
ngemil
Termurah
Hasmah
Commun
deliver
KONSULTASI
Biji
Mitra
##Corp
seksa
##likan
makanannya
BG
Hosp
Mons
##VEL
susahkan
diduduki
cloth
Terpaksa
xboleh
dipersembahkan
AADK
PUK
Ud
kanannya
Matlamat
sengit
Anak2
Majistret
gebetan
idul
##DC
dituk
engk
spontan
Mengencangkan
breast
Bry
LENGKAP
Padu
UUM
duga
abal
plate
PROT
purple
definitely
televisi
mengusap
Student
Tante
##Baik
##mond
##mable
##ENING
Kert
##incir
RM250
kebiasaannya
kwn2
melukis
lempang
##PANJANG
##ekkk
##sions
menyusu
##ucakap
##IFT
investment
Ridzuan
Samar
##alysis
merepek
sii
##avier
penyesalan
Bangang
NC
iris
koran
marang
tusuk
##suhkan
menemb
Bn
ragut
zalim
Kue
Amalkan
Adun
Bukak
implement
##aghetti
simi
BUS
Mirip
lma
sarat
##yr
Seks
Senja
kolaborasi
Madya
pukimak
Imb
##PN
##unah
sedunia
satuan
logika
antri
Sudan
Hem
##suai
duren
SABAR
Gurun
Til
##antap
ngarep
Ayoo
kontrol
Ati
GUD
beranggapan
stories
sendal
##ITRA
Sepatu
agak2
##tenance
Association
Thamrin
pertarungan
Crown
peletakan
tetapkan
abs
posisinya
curious
1954
##arifikasi
mutualku
AIDIL
Leftenan
dihiasi
##eww
Than
##IMU
ambyar
Loose
Chee
sejagat
Harris
##ansur
firman
jaraknya
lakuin
pewartaan
SUSU
likeforfollow
Perfect
GITU
Rokok
Zaid
##130
sey
merungut
alun
pearl
salon
##ashier
TELAH
Komoditi
Emg
Mizan
Puny
qi
standing
disapp
mush
##ects
Gpp
##fans
##URU
telunjuk
Boeing
Spesis
judulnya
Yaz
hapuskan
##bn
##otaan
dihapuskan
mcam
cleaner
Pembelajaran
4x
Bap
##isya
##aganya
termurah
pundek
isn
seniman
KEH
cabai
Pengeluaran
Hoki
hnya
##idaya
diseg
##AKAH
dikemas
##izat
##ensinya
siram
Last2
steak
##vestasi
membandingkan
Energi
##SHIP
behave
Jackson
Bengkel
ric
merangkak
pelawat
pru
##azam
coup
Close
pax
DIM
Xde
##TE
keraguan
##artab
Mengambil
Butik
Bismillahirrahmanirrahim
Janda
##oan
Kanda
##ghat
##ferensi
##youn
Finland
TEKN
Aturan
Lulus
meledak
kamis
teams
terpikir
Agro
Pendakwa
Gred
horny
rekreasi
brownies
UKURAN
Booking
appointment
##ualikan
reaction
Jamaluddin
GF
berujung
Kemerdekaan
While
Flash
Potret
rintangan
Dokumen
Kekuatan
Bian
Bangg
Tin
galanya
##harian
diberk
soul
rout
##135
Cekelet
Kutai
ditangguhkan
UC
neut
bass
saudari
butuhkan
badak
melampaui
Kaget
recogn
Children
Maritime
wif
##لل
##osak
kerepek
pelupusan
senam
diperbaiki
urban
ultr
##struksi
pergaduhan
Kazakhstan
Hist
##Dan
##UAH
##ulance
penamaan
Sekalian
dimuktamadkan
True
##AIKAN
beraktivitas
Kron
paya
Semak
Penyerahan
##etiap
takpayah
zhun
oiii
xiao
##alamin
##cean
##matte
sebelahnya
endgame
lengkapnya
kondusif
Fantas
jing
rx
mengatas
melambung
pemerhati
beasiswa
Takleh
Mohammed
##baby
lesbian
IKUT
JASA
##BB
memfokus
serai
berpantang
sensitive
Layar
buangan
Beruntung
pemot
Arth
Pradesh
Beau
renov
Caleg
cintaku
Screenshot
jisim
received
NTB
vagina
##imia
lagiii
berjangkit
##GAI
##watch
large
##NY
##ecuali
apanya
persaraan
electric
##math
edition
AGAMA
4f
Fish
wok
perw
##aceh
menjimatkan
karma
##mpal
##mpulkan
Seumur
Membawa
penggabungan
Phot
rights
royong
Nord
Tata
makar
##ORA
25K
Bajo
holder
Justice
dorongan
JS
Uish
wild
tercetus
memudar
ngucap
kutus
diteliti
RM18
SELALU
RESELLER
ketelusan
F1
Lec
mengetuk
##aced
Pern
##uansa
##azer
offline
penghinaan
##erluan
crash
bimbing
basically
dipenjara
EKON
YAA
##goreng
Inspirasi
sebabkan
pattern
##abilitasi
##ehic
mengizinkan
terseng
DIET
clingy
Haihh
tercari
pembelaan
Swiss
advance
MULAI
##haban
kerapu
##hering
Koman
Franc
PENGEN
Mcd
failed
pemberontak
Lahan
nb
##err
mengonsumsi
ngap
bawain
penyet
besarkan
hahahahahah
usianya
jahanam
##700
dicek
HAHAHH
Lumayan
Tourism
TINGGAL
EKS
Mada
POP
Sandal
candi
##kanun
didendang
diterajui
Venez
Afiq
TEH
zone
##eria
##asuk
##iance
##stagram
270
##OWO
slowly
Cis
DON
rsa
##paid
merch
##embuskan
menjumpai
disaksikan
dilan
mahathir
Prancis
Spirulina
Fakultas
Dilengkapi
roomate
dikhuatiri
Nang
tawak
sebatian
bersandar
bebudak
listen
fiqh
##som
pengumpulan
pembuluh
arisan
Mele
duitnya
Ketiak
shows
##ordinator
dee
##DO
paku
shin
bertembung
Seine
##DAYA
dukacita
dicatatkan
dungu
diy
##etas
dikejutkan
Separuh
##ternational
palembang
Expo
Christian
corner
KickIt
Beta
Burn
##eong
##jk
##ebies
##istis
mencakup
dirah
0815
Senjata
Palm
pejam
CAT
menasihati
Takpa
opp
patriot
implikasi
Heaven
HAHAHAHAHAHA
ugut
kdg2
nyinyir
LS
bolong
dkk
fw
lantik
rip
##inea
##awatiran
PR1
##eva
MoU
Huhuhu
Istiadat
##JI
Prince
ambulans
Daulat
FAT
Malaikat
Another
combo
krik
dihidangkan
##ordir
##iqah
RAMAI
MAKANAN
SAND
##bakar
##GAS
diak
Asman
##AHAHAHA
Memilih
cikgu2
dikenalpasti
nerima
hurt
yas
##pc
##hr
melamar
kekej
Academy
menyelamat
##rench
pahal
picit
Farhan
Delhi
ghost
##acuum
Angeles
##antumkan
Herb
Jang
crazy
##ads
##isia
rasul
mreka
winner
##irumah
##ajinan
tanya2
mao
majority
Penjelasan
password
Bilal
Kamarul
flex
sebekas
##empuh
spiritual
modus
##caDay
Lux
Cheese
##EXO
BEAUT
Yohan
alesan
plain
##anies
##ISAN
teluk
worse
memerhati
##aziran
berpangkalan
reserv
posa
Bela
kito
##YATA
dikumpulkan
haaaa
##HP
perasa
##edes
takraw
nyebut
##inansial
##yhur
Tekstur
Mali
eon
muj
nyakit
##esona
mengad
ngabisin
kedutan
pentingkan
tkleh
##rolet
##issue
0858
ICT
haru
kargo
timing
setiausaha
suplemen
siswazah
DIPERPANJANG
Ciput
Maim
untu
##istration
##ortel
Harm
AME2019
IF
uum
##uak
##unangan
menunduk
##anggut
penyandang
Musik
percayai
ritual
lipatan
tangerang
Nazi
jenguk
Bijak
CT
kij
##lasif
##endong
Loghat
Subhanallah
##with
pulangkan
##claim
photooftheday
Bertemu
##iffon
mempersembahkan
JI
Lake
##city
kesinambungan
##aksel
lov
Have
asi
cumi
mail
rong
##emi
##alls
Aras
drone
bahannya
Belitung
salary
Teo
Ikhwan
Cruise
Hilux
Jami
marin
##Amin
##usim
penindasan
opor
berkulit
speech
arif
faster
##Pem
##enario
##abo
punc
kejora
Energy
Kebutuhan
MENARIK
boong
##erlian
ditakdirkan
Ce
Lomb
##erm
##uters
tersimpan
##anksi
ikutkan
Mekan
march
terms
pendakwah
Prediksi
UB
bwh
gud
syarak
##Ab
##tura
##awaan
mengerikan
penanda
Sebentar
Keman
##jualan
wajahmu
hukumnya
taksiran
AFF
eeee
##500
##oden
##ASUK
setimpal
##iversiti
Panel
Idk
memorandum
##aindonesia
diakses
##akannya
##station
Seolah
Atlet
tercipta
aritu
AZIZ
Cemerlang
Fiz
lobi
kesungguhan
smbil
bestfriend
kompak
Exclusive
Gampang
LTT
marathon
kelopak
ketetapan
Massa
Kemasan
konsentrasi
metrik
##keu
huawei
Mazda
##crepe
##ostalgia
Rani
gaul
songket
##kad
menter
##estra
menggugat
RM24
momongan
bantah
bersiaran
rileks
##UNGKOOK
terselamat
GUDANG
JAH
LB
WS
##cream
##muddin
terror
##osfera
bersaudara
gaming
##UBAH
Isuzu
TANYA
dajjal
ngidam
##auhid
Marsh
021
viol
MERAH
dipertemukan
hitungan
Perbez
kepanasan
##zubillah
##UI
Pergh
##iriah
pasport
terlintas
across
kelasnya
Sumsel
rindunya
Ngakak
MAY
sti
zarah
##nai
Peralatan
menghitung
mount
takbir
migrain
Corner
nolak
##2kan
##pay
##VAL
kelancaran
berdebat
##iliasi
Liew
##igo
PANAS
Friendly
cushion
bff
nood
pill
beransur
##least
chelsea
enakan
Chanyeol
Pengambilan
menghambat
skrang
suria
syafiq
Husna
Uighur
maskapai
Runsing
Lemon
TON
dessert
ejek
amazing
active
supplement
Membersihkan
cicilan
CUCI
Bini
##hips
##ewhere
ngasi
##impit
##anker
tertangkap
perceraian
Rahasia
galeri
Hurm
FAMA
##urung
##enggong
BestMusicVideo
Kompas
##ocracy
Sit
eun
laser
saka
sastra
Adit
##alikota
##wayatkan
CF
Yew
dug
layu
##ns
dakwa
avaku
Impor
Pacific
##endekkan
hihihi
lubuk
val
##yorkan
##CARE
##adise
##dives
menghibur
##aftarkan
MASKER
Oiya
##mainkan
##egeri
meow
spill
153
Pola
##ayaknya
Memperbaiki
sidai
DAS
Jihad
Wawasan
dilontarkan
perjudian
menjauhkan
diperkirakan
Jonker
Tumpat
Hajar
Pt
TG
##Jangan
unge
##rium
usik
league
dinaik
Gerindra
##ctv
expected
bajumurah
MIR
SENG
rancak
memanjangkan
mengac
Arus
##AHAHAH
lgbt
dekor
perpindahan
Hasanah
supplier
penggantian
Ub
romp
membanggakan
gao
Champ
sinaran
PM7
meyakini
Consult
Pemprov
Bright
bep
##ebe
##ized
30pm
became
KHAS
##bourne
Pangan
nangka
rude
##isen
keluh
berkisar
Shu
##anie
knpa
penerapan
Turk
JPM
##ANCE
nokia
Komplek
Lemang
Omb
ragam
##TOK
kesenian
broke
infeksi
ckap
##arafan
berbakat
Penyanyi
ternama
inde
mengajukan
##ipedia
INS
Jannah
pemanis
COKLAT
Pod
Ting
##bert
##مل
##egasan
sekilas
Melancarkan
pesara
##101
##erhatikan
HARAPAN
##AFE
##ological
reported
Integriti
Woy
urip
##ERAH
##ukuhan
Kerabat
##uitar
berteraskan
Hakikatnya
Bangkit
Ich
Jembatan
md
##fone
ahahaha
smoga
Laura
Department
##metics
Sas
tsk
wel
##core
Peru
ngeluarin
makan2
Barusan
bibik
BACK
idi
otor
##aur
##minton
##ayn
##imalkan
Kebijakan
siswi
##ICK
alhamdulilah
Gitar
JT
Tro
izz
##elatan
##atives
##oyono
penjanaan
Oneit
PEMBELIAN
Date
LEG
dw
##sit
##ically
terlelap
Soon
reminder
bungkusan
Jane
Fattah
Hidayat
Logo
Sime
dz
tre
##YAH
##alus
intake
peroleh
##ampunan
##essel
diceritakan
##125
Kejora
SHM
moody
mengawasi
saksama
BING
PAND
avoid
##mlm
bub
deodorant
sakitkan
motornya
##ateral
Ustad
ngeliatin
##epalm
tongkat
Juru
bazir
hamun
berder
##orot
2025
pengambil
enek
notes
guest
pengelolaan
sado
hahha
gentle
digerakkan
Mainan
landing
larian
rule
##ound
Pabrik
SAS
kada
aktor
Chile
khai
Triton
scare
dipelihara
Indomie
keong
pertemanan
spirulina
##batasan
overseas
gatel
Penjawat
##sibility
holistik
Eq
Hh
rabi
##tad
##Twitter
##Han
##quad
instastory
held
Syabas
MINTA
Ase
KAYA
yauda
melintasi
gaun
RM65
sejurus
menurutnya
jururawat
ooo
##Banjir
##anter
tersentuh
KPW
perundingan
Ongkal
LTTE
Soph
hahahahh
Ketawa
purch
APEC
ipin
Sayyid
mengecilkan
Jahitan
Chatime
humor
##iramid
##visor
immedi
DOK
Jamil
hav
ugh
menzahirkan
##epok
##edan
keluaq
nging
Print
SELL
keberkatan
Study
tinta
##tuanya
mentega
bersendirian
##angsapuri
kekac
Syaz
##ajurit
EUR
Sapu
##Gb
bersenam
bersembunyi
olehnya
##angsangkan
Optim
dikuatku
progress
Yudh
gengg
urg
angkot
##erdas
gantungan
Cili
Four
Hun
jagaan
mill
samun
aloe
insaf
terhalang
gilaa
tumor
Gran
HUK
VCS
Isma
109
Pemangku
##itary
Badak
competition
innocent
dikuatkuasakan
NET
Tepung
Yi
##ruit
diimport
##erio
Manila
Hiasan
hidrogen
rakaat
Pacar
##FITRI
daughter
serpihan
Audi
Copy
EK
Ego
Pekalongan
wit
##kay
bera
Asik
Kelakar
Dahlia
tawarkan
pickup
mukmin
xixi
VIP
tis
diingatkan
##iraya
siung
lafaz
sholeh
terkeluar
bergetar
dinasti
kehidupannya
Pesona
Party
supply
PARA
PINGG
Sani
Taib
##edral
Besor
Pantas
TEB
tara
tind
##Men
champion
Ching
Shamsul
Memory
diamkan
##ique
sumbat
Diamond
Baki
dimanapun
duniawi
teling
Seiring
Leo
opera
Komanwel
zomb
##alir
##ources
distance
pelaksanaannya
proposal
Cend
Paus
bright
ole
yoo
##ebatkan
gaiss
empangan
events
##endaharaan
golden
primer
ESOK
religion
edukasi
Pelangi
Ekstrak
pecat
Dkt
Mail
RB
Tewas
ew
##One
alr
biadab
bawaannya
Apps
Ayok
alleg
Leste
progresif
EKONOMI
Ceb
HUH
soh
##bow
dilema
Kering
Kenaikan
Pembukaan
Presint
##IBA
##ombolan
AREA
Maw
Ukur
##nyaaaa
##alahannya
seruan
Jamek
1951
Tiger
BUDAK
represent
Hans
Rick
ان
disia
##paun
##ubi
menjangkau
disertakan
senaman
berpart
Karin
##ungkam
haters
Strategik
Chevrolet
switch
Nina
##bes
takes
Hari2
KEEN
Positif
perutnya
ORG
HARIAN
pekak
memperlakukan
K9
KS
Owh
WAS
ost
##ihir
Sekadar
button
salut
otp
SIP
mengej
##enty
merapatkan
sekerja
pelayaran
dikunjungi
##ASIS
Ungg
kru
##acher
coaching
Berjalan
TOKO
diutamakan
Perbezaan
TBS
centu
fang
digugurkan
rm2
mobilnya
lokap
difference
sekalinya
Buatan
##asmine
Jae
Steve
von
##oleransi
setanding
grafik
ALBUM
Kuliner
Sosialis
Hud
Lapan
Mimin
diungk
##isap
Resepi
ekspres
ghaib
tapau
Bow
Duyung
Ruko
cecah
##dia
##DK
##PET
##andeng
kebocoran
serigala
follows
kedudukannya
papua
nntn
##erkasaan
REBOOT
Skandal
xpernah
##jae
soda
Uncle
cermat
##zzi
Wahab
GRO
Calor
MAHB
Hemat
Kaca
Sadar
Two
Yaitu
menjurus
##AHTER
topping
PCS
Mengantuk
introduc
routine
Wass
putuskan
tauuu
abdul
SMART
Spanyol
remove
Sesyen
elektron
Klebang
ngelakuin
Pedagang
Objek
##elisihan
arsitek
Dayak
Wuhan
dadar
rancang
##lai
##JID
##uly
merinding
pergelangan
ketidakp
cibai
KPWKM
mengeks
##antunan
indonesi
diameter
feet
kirimkan
Pencipta
Kehakiman
lumrah
##emahiran
kutub
carbonara
Panggilan
born
ion
row
##engat
brought
handuk
##khah
IKEA
penguatkuasa
pisah
tone
inku
lanjutkan
Bandor
##jubkan
suicide
hui
tha
##inggo
##ujat
##unggak
Arya
mempermudah
##uncing
dinobatkan
Manager
MUTUALAN
Bok
##ME
##anas
although
##arger
Sejauh
Bachok
hambatan
yayasan
PUP
##GUN
permaisuri
##iano
belanj
ketauan
##uyu
sched
perguruan
Canada
WOY
Banyuwangi
pelihara
##chain
brl
Pendang
kerjayanya
compared
tercabut
perhati
pergaulan
sulungnya
KOSONG
particular
inklusif
Earth
tread
vert
##ront
##uliaan
suapan
upm
nantikan
okayy
however
Esbok
Urban
Starbucks
WALAU
jngn
Pis
Wish
duty
grey
tunda
berair
pembahasan
penyiaran
ajarin
coronavirus
quot
KELANTAN
SEDIH
AAAAAA
CEP
zam
##mek
takk
belaja
karir
dipantau
smoke
Ibunya
bajuraya
7is
jong
##inity
kelate
island
kekalkan
##apps
Suf
umumkan
USJ
##115
Kuningan
KPDNKK
LUCU
duyung
nangga
sengg
yohan
##BIN
##muk
##esti
Uno
##ESCO
panjangnya
caruman
risk
Mount
Edition
tasha
Saujana
Christchurch
Pik
equ
berbangga
spirit
100rb
BERM
sgt2
keringetan
##EMPUAN
saintis
cai
##nm
##aby
terbiar
CREAM
Ndak
Raih
kimak
memfitnah
balm
##akuasi
adikku
Nigeria
Sedekah
##elanjutan
##TREN
Jawaban
volunt
REPLY
Agak2
jugalah
pensiun
pensijilan
Sustagen
CUKUP
sunday
##baan
##adow
##omy
sikda
##hiy
Gorontalo
B4
Bujang
Tonton
seokjin
berkont
##erson
##itarasa
bernasib
patutlah
Perguruan
berkhasiat
##agus
peneliti
##olahraga
bermutu
petanda
##scar
Ceritanya
Renggam
pepatah
yummy
##cap
sebat
belit
khutbah
##awatirkan
Hahahaa
Matematik
perasaannya
penggunaannya
deketin
SYARAT
Publications
Idea
femes
##ahad
ngun
Digi
giant
##ISH
##enggini
Sabri
##uliakan
Konsumsi
Gambor
beristirahat
Here
yaya
##ulingkan
keranjang
kelestarian
bee
dipikirin
##azi
customers
tulisannya
gambaq
Gusti
LOKASI
hv
##wijaya
##Dem
##unit
keramat
Perku
Perform
spring
##ersa
perladangan
runner
hadapannya
breakout
aduhh
Boys
ShopeeKpop
goy
##08
##awin
##anting
##echat
##eyeon
bakti
Ingatlah
##comm
nur2
dikelola
TRANSFER
Cape
Oo
Puji
YES
cend
cell
terangkan
alf
##ALITI
pemba
berdekah
busana
Osaka
Watch
secepatnya
AIDILFITRI
MANT
menasihatkan
disekolah
shang
bebenang
pesaing
dihina
132
BERKU
tambahnya
Pangeran
##strukturan
concealer
Blo
bike
##iac
##ainer
tourn
khasnya
sistematik
becanda
##inergi
sekutunya
Jaz
Manu
eps
mapan
tamak
##ما
chim
sett
Melawati
residen
dipelajari
mengagihkan
##INGKAT
Pemulihan
Waq
##asily
paling2
watson
Empangan
##oooooo
##shshs
rabun
xdpt
nyakitin
Hih
Pati
Tegal
ding
imigresen
pork
##wise
##MAIL
##oment
Apatah
siapin
Pixel
Refer
dipertingkatkan
Tentunya
##esia
memand
sedondon
##lug
Penelitian
Pemakaian
kontena
##audaraan
MINGGU
pamp
##RAF
sebelas
penger
shade
dipuji
sihh
panch
Majid
menganggur
Tomyam
lengket
bluetick
Laun
##Zone
dibel
nyuci
lovers
acne
bilangnya
Person
SEBAGAI
Deposit
sekular
ct
##shit
##USIF
maafin
services
advice
TN50
dihadapkan
tree
##main
##ebahan
##riah
##ERIMA
ketir
Liar
##awaii
Roz
Fox
##okus
danau
dipaparkan
span
PAYTREN
pornografi
hunian
BOOKING
Luh
##aton
##anded
ngek
gaess
tiong
spin
captain
TV1
protection
dedek
penyayang
dipulihkan
stadion
Terpercaya
pembayar
##azon
122
bisnisnya
decor
Dimas
fucking
ngilangin
adopt
##aweh
##odong
Slow
Navy
Uji
tangis
##hak
##ingungan
mengiringi
loker
radang
yaw
menusuk
##uarai
mufti
umurnya
##padai
untungnya
Valencia
queen
Covid
##intahkan
ditadbir
narasi
Bri
Haaaa
aeon
ov
##ATER
##mann
ditonton
kunyah
##eposit
Kediri
Marvel
image
capaian
mengelirukan
duo
Krisis
personaliti
roket
Organik
Waytha
princess
persefahaman
lelakinya
Pom
tenda
berilmu
##intage
##shoot
Dahla
##enced
pewaris
interesting
specific
perkenalkan
Bile
hs
##JIN
arep
Aktivasi
Puluhan
Nib
kangkung
sanak
skarang
Kencing
peranginan
nafi
MEMBUAT
hadiahkan
Grobok
menceburi
##BAN
menghuni
blank
Carl
nahi
readmore
Gemilang
Buboh
##YYYY
Bobos
##SelcaDay
penakut
Pejuang
Gard
Romp
zhi
##ukiman
oreo
pembalakan
Kuda
bila2
lembik
Highway
KEPALA
SUMBER
PNB
gausa
##bayi
##ektasi
merantau
Seku
Belajor
##ppp
traveling
ihsan
##GHT
vespa
Rini
##Yang
ngk
baiki
##arty
PRICE
KEDAI
lorghat
sisihkan
Math
piece
Prefer
TETAP
KUANTAN
Cador
Dest
Mab
nm
##udd
pengatur
Kemungkinan
##unjin
solution
suruhanjaya
Leader
##hhhhhhh
Hangen
Iqbal
Individ
6am
aaaaa
##media
merapi
nyel
penciptaan
bernamad
PASIR
Kurta
astronomi
A3
Dp
##ayasa
##otaip
tengkuk
Ark
Pemasaran
menggenggam
scar
Sakura
##liament
SUNGAI
##ered
##agakan
##ihah
##tiup
Maldives
silent
diam2
computer
mengelola
headset
pancasila
sitok
DIJAMIN
Xinjiang
Got
Hut
Mete
buny
nol
##cuit
##zur
##tiwi
##uct
spicy
##orokan
blackpink
Tambahnya
Tawo
Markas
perdamaian
radiasi
FIX
Hip
MOS
ludah
##gam
##ing2
##abby
##eption
Samud
Dapet
Cenonet
bezanya
ShopeeKpopWeek
##enza
##emilangan
##ukaian
setaraf
mateng
##hea
ala2
turned
complicated
Kapolda
tropis
DOM
genggam
pH
rim
##video
##amarkan
berlumba
teladan
akunku
rahimahullah
yrl
blend
Maryam
transgender
Virgin
Pastinya
SILA
raf
ruko
##isation
kedamaian
Askar
##days
supermarket
Kehilangan
POWER
keas
##osankan
tanyaku
mainin
Kebahagiaan
6019
mempengerusikan
populariti
GOJEK
PSSI
Za
##wajah
disentuh
kemari
traditional
Bulg
production
HUBUNGI
Denger
bhi
##oneg
##egeh
Perbu
meneroka
naikin
Lepasni
Puisi
Driver
MILIK
August
##ikhlasan
ShopeeKpopWeekGiveaway
BOHONG
Pindah
Sedia
##yaf
##agha
##ebur
nyalahin
##eyong
ramalan
PERSID
membasmi
Adoyai
Bru
PV
Harum
dekan
##ooking
Tahir
pejabatnya
pengkhianat
Lirik
PEG
nian
membuahkan
kamus
##AKE
##gunungan
secangkir
perkak
berlipat
APBN
college
##ittee
HANI
Jengka
Raw
aah
##ulasikan
bagimu
simply
##phet
BHARU
Namjoon
Najis
diingini
Roma
##pem
##gong
##IEL
menembus
Perth
belinya
##ubaran
##angggg
dibacakan
Bernam
##nier
hakak
bird
Iyaaa
flood
askmf
MANIS
Skuter
Berbeza
GOLD
PERSIDANGAN
Var
lifestyle
vlog
##angkabau
Takaful
dipandu
Adanya
MBO
Tae
panglima
Raihan
Again
Lho
kenna
kuching
glob
tanggungan
requirement
sinarharian
zonasi
presentation
Doh
ht
tgg
من
sebok
##ibawa
##hire
Kelakuan
nikahan
gamism
Beginilah
ngajakin
Hormat
analisa
ditamatkan
dipanjangkan
Pengawasan
reman
##iderman
##TRIK
mengusir
iritasi
Kyai
Rita
RAP
##non
##WAN
ats
delapan
trofi
SONGKET
Bij
Gib
lc
##poh
##jikan
##rior
meant
Pendapat
##ribadian
Facepalm
produce
Dimensi
Shanghai
bernamadotcom
HAND
Nora
bic
kunc
sardin
##oor
##ask
arek
petai
Mane
bother
banting
bilas
##SSS
kreativ
Uh
pita
puding
##bong
buck
penentu
kuasai
Sig
Acah
Yukk
resto
dusta
reputasi
Lav
Oi
dialah
##umus
kultur
INTAN
ALOR
Rizieq
Hahahahha
Safety
Tirm
average
##ois
memilik
troll
##istensi
##onso
[...]
