[PAD]
[UNK]
[CLS]
[SEP]
[MASK]
!
"
#
$
%
&
'
(
)
*
+
,
-
.
/
0
1
2
3
4
5
6
7
8
9
:
;
<
=
>
?
@
A
B
C
D
E
F
G
H
I
J
K
L
M
N
O
P
Q
R
S
T
U
V
W
X
Y
Z
[
\
]
^
_
`
a
b
c
d
e
f
g
h
i
j
k
l
m
n
o
p
q
r
s
t
u
v
w
x
y
z
{
|
}
~
##l
##y
##a
##w
##e
##r
##o
##u
##i
##p
##n
##g
##t
##d
##h
##c
##b
##m
##s
##k
##z
##v
##M
##B
##j
##Y
##N
##E
##W
##O
##D
##A
##P
##x
##4
##S
##H
##f
##I
##C
##T
##8
##K
##G
##5
##0
##9
##7
##2
##R
##V
##6
##U
##F
##1
##q
##L
##3
##Q
##X
##J
##Z
##an
##er
##en
##ar
##at
##in
##al
th
##ang
##on
##ah
##as
##es
the
##ak
##el
##am
##or
##em
##it
##ed
##un
di
##ing
##ad
in
an
##is
##kan
men
##ya
##il
##et
##ur
of
to
yang
##ut
##id
##us
and
##ap
se
##om
##ic
##tu
##ik
##ul
dan
##ir
##ent
##ol
##ion
ber
per
##ag
##eng
##ay
##ro
##le
##im
mem
##ada
##ek
##um
##re
un
ke
##ai
##ot
##ia
is
##ari
meng
##ac
##eb
##aw
##ers
##ec
##os
Th
##akan
##uk
##aya
##tuk
##nya
##ab
ter
##ih
untuk
##ig
##and
on
##ara
##ve
##ung
##ter
##ow
##ep
##eg
for
##ain
##engan
##ly
at
wh
ad
##alam
##ud
mer
##tr
##ian
##up
dengan
that
seb
be
##ation
##ch
The
##alah
as
##ug
20
##ti
##end
##idak
##ill
##ama
or
##atan
al
memb
In
##ver
dari
##ith
##th
pada
it
dalam
tidak
##emb
##uh
##ong
st
itu
##est
was
##per
ini
##ok
##ub
##aj
##aan
##angan
pro
##ce
with
##op
##od
##ew
##ant
##eka
com
##ere
##st
##ri
he
##art
tah
##oc
##ess
pen
##ana
##ukan
con
mel
##asa
sa
##any
##pada
are
##elah
bah
mereka
##eri
yo
sh
##au
##ua
##amp
##ata
re
##ort
##rom
##if
by
##adi
##ist
tahun
##ear
adalah
akan
##anya
saya
##ate
19
##ity
##igh
##apat
##ib
##awa
peng
##ingg
menj
ker
said
##ore
##ave
201
##ct
Ch
##oun
ap
dis
##leh
##ip
##ays
##iv
##ika
sem
from
ch
not
meny
##amb
##aran
##og
An
has
##ment
##atu
##all
sel
ex
telah
##int
##ebih
oleh
##asi
##ast
##out
have
##ard
en
orang
##emp
##anc
Saya
anda
##ial
##etap
pr
##00
tr
##agai
##ies
##ind
##eh
bahawa
lebih
##uar
pers
Per
##oh
##oul
##ita
##ff
##ali
##alan
##ated
##uan
Al
his
ab
kepada
pl
##ost
dia
##ell
##ould
ket
##agi
##ect
go
us
##ob
you
##ous
sek
##ight
##ev
St
sp
##our
pel
pem
mas
##ust
##si
##av
##ich
wor
berk
##etapi
##ack
##ahan
##ump
##ef
##alu
##ugh
##ov
##mp
ag
set
##uah
##mer
sebagai
##angk
we
ac
##uga
menjadi
##uc
Mal
##lah
bar
##apa
##ome
ser
##unya
##ice
##ami
juga
this
##ue
##ual
atau
##so
comp
##age
mend
will
##uat
neg
##her
##asan
##und
ar
##ive
It
but
##ona
do
who
##angg
they
bel
##ans
##ine
##anj
year
##anyak
##ord
had
##arik
##ld
200
kem
##iz
##man
memp
kes
##ks
sebuah
##atakan
##aik
hari
##ure
Ind
##ish
dit
He
##arg
sec
##ond
##ra
##one
kel
pol
also
##gun
their
##ime
##upakan
##oleh
Un
dapat
pert
bers
mak
Malays
##arkan
dib
res
Sh
pas
##ulan
satu
##ement
##ide
merupakan
##ame
pe
##let
can
seper
##ach
##ina
##ens
und
ada
##li
daripada
all
up
me
sy
inc
seperti
##esar
Is
were
##iri
##unyai
##uj
##ike
mempunyai
##ail
tetapi
##ally
##ark
##ook
banyak
ia
##ict
lain
##rit
out
##kin
kata
##ula
##ary
##act
##aga
ak
##ja
more
so
##orang
been
pemb
##ions
##ther
its
about
one
##ala
rec
dik
Pr
ne
off
##umb
##orm
int
fir
loc
##fter
##ons
su
which
##ence
cl
##ople
##eber
As
##ingk
mengh
kerana
Malaysia
##ult
Wh
Ap
##hir
##ati
her
##oy
##ose
am
##iti
##akukan
terb
baru
##ihat
##angs
##ile
##ese
##arikat
##own
man
##eberapa
Amer
##ace
mengatakan
rep
##ert
And
persona
aw
##port
##ont
##uka
ind
##qu
negara
menc
##ne
ketika
##aman
temp
pend
##imp
##ely
mengen
##uhan
##ebut
like
##ors
##ubl
##ations
people
##ie
##ead
##enc
##wo
##angat
dil
##apan
Ar
New
new
##esid
perk
##ingga
##day
kita
##aus
would
when
app
boleh
##ational
your
bec
##ool
##ini
beberapa
kn
Fr
##enar
str
##tara
tak
peny
##angkan
##uran
##ikan
##ound
ked
part
##eker
##ungkin
##aki
##oll
kom
comm
dua
##ition
keb
10
##era
Sel
after
##inya
Tr
##ick
##ents
##ner
##ram
##ven
000
min
##tern
##erb
##ical
##gunakan
##ustr
ters
##az
bagi
rel
besar
them
##gan
seorang
##af
bert
##letak
time
##ild
##had
##ings
##ite
there
Ad
##ade
##ahu
##ones
cont
pern
work
##ance
##ember
than
##olog
mengenai
##ilik
my
fil
##ree
did
masa
terletak
acc
##ction
##ign
apa
##ungan
kami
##ta
over
##ass
Dia
##ej
exp
te
Pada
secara
##wn
##reat
sangat
##old
##are
term
##vern
mana
imp
sej
op
gro
##ihan
##atanya
##urut
other
##anan
memberi
de
We
inv
##ima
first
##ry
##aja
##urn
located
##air
##onom
sed
##ory
sep
##iga
perl
berb
she
##ett
##ank
coun
sup
Sy
##unj
##ood
kaw
##ough
baik
##ase
##itu
anak
bet
##ates
two
##atkan
##elum
hanya
##ash
##iau
##able
sama
##ge
kep
some
##ahkan
mendapat
##arang
mus
##agian
Pro
ses
Sek
membuat
kec
##ou
##ater
berl
##ock
sc
prod
##usan
berm
cons
##udah
##chool
syarikat
har
##edia
##iss
dep
##land
katanya
##ause
bi
##olah
Ab
##illion
##aku
dip
par
##vernment
##imb
Mar
##lud
what
##asuk
##aks
##evel
co
perc
##ink
##ath
tan
##ional
des
Dan
lalu
##orn
semua
##ork
But
ialah
##tud
##ove
any
into
##form
##eral
just
mungkin
##ambil
Indones
bl
sebelum
rakan
berp
##unia
bu
##we
##try
Ber
##ince
##iap
18
##rough
berj
##utan
##ira
Br
tersebut
sur
kawasan
##epas
tingg
no
pertama
includ
##ital
##ota
lagi
hel
##itt
##arah
##ech
##umah
##andar
##erah
bulan
him
##ery
Pen
dec
En
Pers
##unan
if
mu
years
sen
##aling
This
only
##ited
##iran
Bar
bukan
##usia
air
##aha
##les
melakukan
##ept
##ris
beg
##ublic
##ey
##als
##ingan
memper
##very
tempat
perm
##abil
199
##upun
Indonesia
##gg
government
##ivers
15
most
play
##aian
Dr
##inis
dr
##ton
reg
add
Joh
##yat
Mer
##lam
12
terhad
##aikan
##unc
antara
Ini
##uring
##ased
##tiv
Ter
undang
Tetapi
Com
##udian
rumah
##trict
seh
##ee
##une
Amerika
Mr
berkata
Peng
send
Bel
##amil
polit
##res
##agaim
could
Cl
##ekerja
##ten
Di
keluar
##akah
##red
##inc
stud
##ities
##wa
fl
lel
call
inter
emp
##son
br
##aut
##ular
##ajar
pre
##oto
##uta
because
##fore
mon
att
##antu
##isi
atas
tent
melihat
##hid
##unt
Seb
Par
Dat
##gram
##arn
terhadap
berh
perb
want
11
##AN
high
qu
prov
ins
rem
suka
##oth
##alaupun
##alkan
##ampung
get
##unjuk
Am
30
##engah
pos
Me
fe
Kami
gen
ph
##umber
know
Sp
##uang
ele
##ajaan
dunia
##rop
Part
lelaki
pop
Ia
now
##ife
##ress
mod
Men
through
sah
##urang
##oint
how
##ount
last
long
report
##ait
##ism
tel
##ating
##ez
##omb
say
Ph
car
##eter
made
termasuk
##ayah
Or
back
id
ut
diper
fin
many
##ran
##app
##atus
le
pernah
such
menggunakan
##outh
##uct
##gi
##ower
##se
hingga
##apor
For
Rep
##ilan
si
masih
At
need
China
used
Ket
art
before
##ingkat
bandar
kek
##umpulan
##awah
terd
dem
##uruh
##ues
##askan
even
##ise
again
bersama
our
juta
sub
Se
##eli
da
setelah
##nolog
##vi
sendiri
##amu
Presid
Moh
##arga
salah
Americ
gr
maj
##ungg
show
says
company
ass
##anita
##ancis
kemudian
##ics
##ger
##round
Dis
Bl
##arket
jika
##anjang
On
##ongsi
##uasa
##other
luar
mener
##ihak
law
well
im
mat
dij
Islam
##umlah
Mus
##ording
may
lead
paling
##eth
make
##itar
program
under
world
Har
where
##gin
benar
being
##ren
##uman
York
##ga
akhir
##agaan
sm
##iliki
invest
##hip
berada
##lim
##ulis
bus
Pol
kedua
pent
198
million
iss
14
berd
Datuk
presid
makan
ret
setiap
##cess
##tar
kad
state
serv
cent
col
Allah
Kh
aut
bawah
kej
oper
def
##iness
##ikut
##ning
beliau
Dalam
while
##angsa
##atang
own
country
perkara
##io
good
every
RM
penj
##cc
then
Go
tiga
##atur
found
That
##ft
##anda
Neg
So
##riv
##sp
##ever
##co
three
##anding
##evelop
##ject
harus
##fer
16
negeri
##usi
end
##ices
sehingga
diri
##alui
contr
Trump
mov
sal
pes
Nor
filem
##ire
selepas
dim
##ongan
serta
Man
##uku
selama
Mereka
They
tahu
##ages
ev
media
##eld
very
13
##imes
##ision
mengambil
kali
##uskan
##unjukkan
##uas
day
##oot
don
hid
##illage
##xt
Mel
should
help
those
Air
think
##ilihan
kira
perlu
##ern
look
##inggu
ear
trans
##aint
week
industr
##embali
famil
utama
put
diff
##tor
##bu
##ason
still
Jan
pihak
berlaku
##pa
##uss
##uduk
wanita
##ather
sudah
ben
old
17
right
jen
down
##ouse
##eta
way
terk
##mad
##erv
##ollow
district
##abila
sk
dir
##hli
25
tinggi
##awan
school
melalui
##anak
##ied
##agaimana
##ecial
##att
ed
digunakan
Minis
##ween
##artment
semasa
There
awal
Mah
##lin
How
##erit
##omen
##akat
sesu
prof
##erg
Univers
including
ek
##usat
kerajaan
resp
vide
##its
##ple
##tif
dire
2016
You
em
##ros
##aca
##ative
offic
komun
Jul
group
##ekut
##inta
form
##ets
John
##ives
month
mengg
##ihatan
##ru
memiliki
see
National
nam
##ilayah
##ope
##awai
##akhir
##amai
##ward
between
##led
perj
tal
menunjukkan
##akit
##alth
during
kh
##ole
Brit
##ected
##ER
##edi
pemer
##akin
market
##ilangan
##ful
Cal
2015
hal
kongsi
##onomi
gl
dih
##yp
##ange
##asil
##eluar
##api
##ax
Ment
ken
##urr
##ins
pasukan
jalan
##ahagian
Ker
ob
gu
semula
masalah
##ake
##ril
Tidak
seri
##urs
Az
##elam
##tikan
kamu
##ola
much
start
##rat
197
tek
terl
##onal
Can
##der
memer
child
##stem
inf
##ling
##abatan
does
##sel
##adan
Persona
##ender
sejak
musim
##pos
here
Partner
##stit
Abd
##hidm
##ently
data
sekolah
##aun
take
##epat
public
cuk
Le
pet
cap
##eles
##engar
##ists
##conom
area
Ag
kecil
kembali
2014
dig
team
##ensi
##uda
##ains
##egawai
business
##ale
##angi
malam
United
Sem
##ney
##BC
since
develop
lama
ten
India
##ph
sekitar
larg
percent
video
same
April
kanak
##ull
##ley
##els
sini
##akkan
##ainan
Menteri
eff
som
organ
##wit
##impin
tanpa
these
penggun
around
##lan
memberikan
##ether
kumpulan
##ency
Set
follow
50
kini
Car
use
##ekerj
##AS
Syarikat
nama
bahagian
##yar
called
##isan
against
daerah
##erm
##ampir
kurang
Pas
bro
##ebab
School
biasa
contin
Sc
##ateg
##istem
Col
##ij
##tive
##gk
Mc
##iagaan
sl
##ible
bo
Re
##atch
##ani
Itu
##lis
She
If
##ui
minggu
city
jam
What
terus
told
##ilai
run
sekarang
prob
sign
196
village
US
today
angg
conc
##intah
##oci
direct
Con
Ed
seg
##ands
Sen
support
Nov
##ounc
peratus
No
prot
film
##ony
##rib
21
May
##idikan
Gr
##ilih
four
##angunan
home
##ator
##ution
##engk
great
##edah
##lukan
##ukar
plan
##ific
going
##ubah
pul
though
ann
cara
bekerja
hidup
second
known
Beliau
trad
family
Seri
##ayar
tentang
AS
##ebabkan
##ider
love
##riend
read
##ys
bur
el
##til
cr
lot
rasa
number
##arm
camp
##angka
ro
met
##iranya
Kel
##awatan
Ak
##enn
##AR
##arta
commun
##ield
ahli
ve
apabila
##vers
wilayah
membantu
ide
##ikasi
penting
Sekolah
##ric
vi
mil
penc
##erman
##ures
life
Keb
##ourt
Austr
ingin
100
open
##ambar
##orp
##urun
lat
perniagaan
Pem
##ants
##ungi
##ief
##angsaan
##ars
differ
top
pelajar
bil
Sept
menjadikan
keluarga
##ott
##agu
My
system
Im
hampir
kereta
##ished
wak
mes
##ush
Comm
##ames
##lum
##read
econom
##ying
Iran
##osp
Cent
seluruh
walaupun
est
Minister
##usaha
harga
rest
Bro
##oman
big
Sec
conf
##ty
Abdul
Eng
Af
##que
Adakah
cre
menarik
##umi
Anda
berg
jumlah
fr
too
##uhnya
Perancis
Sab
##way
##atian
head
really
##icip
Kual
para
diken
pan
pemain
##yen
ibu
kar
##elas
##alik
Mac
##oney
act
##ahui
wang
24
iaitu
##ayaan
datang
##ential
##hidmatan
El
##endah
##ier
Mas
##ulu
mah
##ikir
South
bagaimana
##adaan
Be
##atif
San
##aka
Kuala
##ird
politik
##ena
ask
Sep
fact
##ved
tech
##omp
##ebat
build
##ambah
sing
##asar
##udd
leg
pres
ekonomi
##uru
dilakukan
##lem
near
##akar
##jek
##uhkan
##ience
mul
mahu
##ody
import
Ex
##ikal
post
##line
kap
Do
sus
stat
##loy
Gre
mar
Kes
Intern
##ury
point
sedang
cal
disc
um
##upan
pilihan
real
ris
##arian
membawa
tanah
name
##ts
##obal
Pel
bek
##uction
sebenar
##rist
##imur
sebahagian
Kampung
incre
##inal
sistem
40
place
2010
##row
Dep
##uma
##awat
##lear
Fac
suc
best
##ious
##antan
based
##abat
bas
##ret
Dem
grow
##ute
permainan
##ebook
vis
rece
pay
Pl
##amah
##ams
terdapat
depan
sent
isu
Ass
Co
2009
sever
22
##ense
##etahui
##wan
City
##ained
##bagai
pros
Austral
##ude
##ility
pergi
##gn
rele
adv
both
##ried
##itan
##asional
##iving
spe
##akyat
##okong
masuk
##aporan
##eluarkan
##adian
##bum
##ais
September
##ancangan
makanan
##ikit
##ayu
##inj
terakhir
jadi
##ann
##aim
hit
Wor
exper
##etty
sahaja
nor
empat
##zik
Fil
parti
##ospital
##ode
##ura
23
samp
major
next
kal
sol
When
2013
popular
American
##ober
##apangan
Kem
pass
##tion
2019
sesuatu
terp
Ob
Ah
eks
mula
##tal
din
meningg
##oss
##akap
##LA
##ness
Feb
Moham
curr
prom
happ
Put
##ulkan
find
##ekerjaan
Gen
##eritahu
Facebook
sedikit
police
never
Walaupun
##yataan
Acc
##ubungan
##ission
seni
##ross
writ
##ron
##nologi
red
West
##utusan
##auh
Te
##ugg
Calif
Wal
##aji
berusia
Muh
##ral
members
tinggal
win
Presiden
##teri
##aksi
Pal
keadaan
Sa
Sing
Mich
hak
keh
official
TV
power
another
friend
##yarakat
##alaman
pur
inform
let
Fl
mata
berjaya
ref
Eur
Tur
##araan
meningkat
2012
##yah
kerja
##inan
##te
dic
##uary
kon
Dav
##ived
##uba
bahasa
##ety
All
interest
turut
former
perub
##witter
polis
##ahun
##awab
bermain
Apple
##dana
intern
##rip
University
##ivid
##hor
##pl
Ge
##20
bank
pekerjaan
##mb
##ways
vot
##reet
berc
women
##uck
##ocial
##anyakan
##amat
small
##ibat
##ori
mencari
##ared
care
##rap
##ilang
##ix
billion
##ized
##asarkan
sekali
##vent
web
level
menurut
later
##akon
book
pegawai
Malaysian
##ma
##IN
begitu
##eft
jelas
##ox
Rob
November
##ultan
pekerja
##ided
pot
##iev
turn
##idang
pelbagai
meet
Tan
pun
gener
kampung
##aru
each
His
memen
Nam
##for
##aknya
menerima
colle
Meng
result
tind
album
##inton
national
195
##yn
Ketua
manag
appear
perh
cond
##ecut
expl
One
children
##uhi
job
come
requ
several
Kan
pasti
bre
cer
26
vari
until
France
pasaran
##usnya
##onton
produk
##angsung
issue
2011
Will
raya
CN
sos
Sekiranya
penduduk
##amanya
World
det
gambar
perkhidmatan
Maj
party
tetap
jenis
mendapatkan
##asilkan
sukar
##ged
##elamatan
##eza
##ungai
##irl
##onald
keg
##za
##apkan
diberi
28
##view
exc
##enal
La
However
masyarakat
##AT
left
tengah
Pe
##uri
##uanya
problem
##angkah
simp
individ
King
lima
cor
Fed
hand
pengh
##ces
##earch
##anies
##my
five
things
laut
##aring
##aul
##ington
different
beras
##arna
Apa
##ines
According
Ro
Yang
##ler
##uncul
Oh
buku
belum
##nes
2018
water
mudah
Ang
President
##ient
vers
##anggap
##ualan
Negeri
##antai
keputusan
ras
War
food
sat
27
##ias
cukup
money
pengguna
aff
##na
few
##ondon
bud
got
night
according
North
Sch
pelab
addition
commune
##aff
hard
kew
hist
bal
memberitahu
Ya
##apatan
music
Gl
menghad
sw
bern
muncul
##thers
students
mur
##ats
fac
rancangan
allow
##umkan
##empuan
Sal
##ON
##ium
jauh
av
##aitan
anggota
##ically
young
London
Mohd
##ittle
##ki
maklum
##entara
##entu
##ingkatkan
Jun
State
Terb
Sultan
rendah
##unuh
kons
memerlukan
terbaik
mis
##ekat
bermula
194
without
past
making
waktu
list
quest
mengikut
consider
##arat
companies
Australia
cost
##ering
main
among
berbeza
##EO
bentuk
##tually
adm
sepanjang
statement
eng
ent
gol
health
mew
##thing
##anggung
pelangg
sementara
##aining
foot
case
med
return
record
Clinton
Oleh
##ucation
##oper
##ched
won
days
war
Twitter
tuj
##adang
presiden
pusat
global
##lish
less
##ister
gel
##lu
##iet
##orts
lagu
perempuan
game
##iven
Sup
##isa
menyebabkan
##ection
better
##ees
Muham
2008
##apun
##ined
muzik
##aly
bilion
terut
tit
early
De
menyer
##aving
must
##tries
##ident
tert
##ogle
important
##iba
masing
##kamah
often
manusia
dikenali
##orong
tentera
To
season
29
##eck
class
idea
Asia
##aid
##mi
Negara
##isah
##iman
After
ik
##ething
##ewan
kapal
Dengan
department
Namun
##uter
##ornia
##udi
##itkan
always
appro
stand
bola
Tun
##vious
##amer
bag
##alanan
Pert
##uatan
Res
##ments
laporan
##ired
##han
person
ramai
##aporkan
British
meminta
##MP
##akang
invol
terkenal
kill
semakin
bekas
##ament
Kebangsaan
##idd
Menurut
States
ketua
##elur
sebanyak
penerb
##yak
mun
fund
kos
##erst
##apai
Bo
Europe
##orpor
land
##ili
investig
attack
Japan
##entang
spec
500
##ball
respons
industri
Kore
hasil
social
##ases
##AP
memas
##iver
process
Google
hebat
teknologi
fail
##ester
##rew
beh
##ued
took
Ok
California
##self
project
kadar
lang
##ards
##iday
pat
local
Ke
sosial
success
##ecially
##urkan
terj
sebenarnya
Selatan
dibuat
seem
typ
hubungan
##ually
##atuan
pej
berusaha
##ipp
something
belakang
il
came
jabatan
susp
##uju
Erop
##omin
##ize
kebanyakan
announc
esp
compet
priv
##ately
kuat
sana
##akwa
##ieve
Gu
Republic
Untuk
31
##ida
##UR
maklumat
ur
Prov
Char
##aris
employ
activ
Reg
far
##utup
community
##aiwan
terbesar
ka
sebelumnya
Chin
##tarab
Tel
orig
Jerman
usaha
##ban
##nology
sering
publ
##ajian
Park
awam
political
product
meningkatkan
##uch
kaki
rakyat
##ekutuan
region
star
Arab
##uce
able
##ians
Jep
##adakan
news
##tarabangsa
March
tangan
##alis
inst
del
##EN
##eluruhan
##urity
pemerintah
perjalanan
strateg
##uf
##ves
35
##erian
short
##udukan
##ting
##DA
##by
##oon
serangan
hour
Muhammad
##agaiman
##ature
##ulation
pagi
tem
60
##men
Pend
tindakan
##side
countries
##lex
Geor
##sc
##ustom
information
char
saat
fav
Orang
terlalu
poss
##raf
vict
chang
pand
Eropah
David
##raph
Ahmad
##eks
fun
##OR
Francis
##ael
keep
might
Kanada
##alami
tell
hati
membeli
##ampu
div
##oston
feel
##antung
especially
Ketika
##agaimanapun
##iks
enj
##ekutif
##inggi
##ber
Pemb
2017
Bah
lo
##br
Pet
##ted
Foto
menjalan
UM
##ended
total
##inat
##itude
Sm
charg
keseluruhan
##of
didn
akhirnya
##resent
imm
rul
death
45
keselamatan
hot
Mei
Isra
kuasa
##ancarkan
House
Wash
author
town
II
Ked
become
Boston
mengetahui
Jepun
Singap
telev
song
##ides
Muslim
##aign
East
Sar
Obama
##itor
menyatakan
tempatan
berken
pengur
six
months
lik
##IS
produc
berf
##adb
muda
##andu
bir
bilik
Ben
Street
tax
times
2001
##NO
Ser
selalu
##uddin
Peny
##antar
##tim
Christ
##wh
With
free
kenyataan
Barat
##ilah
##ects
reported
##enda
Johor
pelanggan
Russ
view
Dec
komp
##aur
##anti
Pul
##ream
Melayu
##ibut
penyel
press
jur
design
model
ul
##ered
memilih
kadang
kind
claim
bahan
Pak
Str
seen
2007
##urg
tiba
deb
held
##anjut
order
##ending
situ
dok
Terd
##ulakan
Sri
June
##hidupan
kol
began
Hol
mot
##irkan
Washington
##oor
cand
berkaitan
cut
hospital
Perdana
##lic
##efon
kehidupan
saham
gun
pendapatan
##ny
##dag
Bank
panjang
financ
##ality
##egang
##umpur
doc
Hill
##uz
##iarkan
##auan
##ured
pak
berkenaan
net
##angani
released
change
calon
using
semp
given
industry
##angor
working
keper
pula
clos
leaders
mati
AP
away
valu
word
mendengar
##med
##eseorang
kas
pengg
##aine
kedai
melet
langkah
##anjian
##ocus
##awal
##ujud
Kab
##ahw
##anggil
Da
Sungai
beb
##aten
Mor
court
##ctr
posit
##aksan
president
##awarkan
Selangor
Chinese
Photo
development
mengur
dasar
##abor
##intang
became
girl
##empen
led
##lo
little
clear
hold
##aging
sumber
##ested
berjalan
##ened
deal
Cap
Airport
mengalami
bias
taken
##ancang
49
##AM
sejarah
kedudukan
##ambahan
##raz
issues
polic
##abu
line
Perk
complet
special
Mat
badan
crit
following
##ino
##aksud
Aug
##alk
##acy
Kar
anim
bin
##ertain
live
##raft
kelihatan
maka
##ests
##icle
campaign
##oyal
##ements
give
Lumpur
ident
service
##verage
##redit
##embang
##ago
strong
ago
ll
received
story
##ilt
##ories
enam
custom
kewangan
series
General
##olak
International
##rup
##engg
##ze
##umumkan
along
##ily
##ced
watch
IS
##though
occ
##emui
disebut
God
talk
Mos
Sw
Gro
##oran
terbang
##lier
human
America
milit
Department
la
laun
bay
##ument
Just
laman
July
Sund
##abis
enter
##abung
##ready
##esan
ruang
##la
perubahan
Dar
##ES
Shah
proses
reach
focus
##adem
movie
##tt
##uari
dri
third
##ural
account
pemimpin
due
present
##ham
body
lear
lakukan
examp
election
tepat
desc
##ologi
kesihatan
fut
building
Jen
umum
least
UMNO
##ky
meninggalkan
Perak
Terdapat
municip
vir
penuh
##mar
Getty
Inc
menjel
High
Mond
turun
##ille
##elf
ep
Ham
Jabatan
univers
##esen
seseorang
nilai
Sand
##awanan
##abi
agre
##ored
mencapai
projek
ever
large
berdasarkan
menulis
##ows
Jo
##rod
##ograph
berita
Mahat
Willi
percaya
arr
##ainkan
##antik
##less
##ikian
already
Jak
Michael
suara
went
Ne
pejabat
##ably
##ungguhnya
##eland
kerj
##abar
Med
Images
Mad
##ids
telefon
##andaran
underst
why
menghasilkan
full
##ken
anti
##sh
##alahan
Em
Pat
##ference
Sur
##angkap
##aruh
Mahathir
huj
##ague
##ico
##isasi
##isme
Min
asked
##reen
##ampaknya
candid
##etting
Bh
tahap
Friday
dilihat
##aster
Francisco
##ring
##ukit
Korea
panas
perang
##avel
##limen
##istan
##ila
##eph
Lapangan
thing
##iter
News
utara
##ungkinan
##entuk
Utara
room
##awak
##iar
##aham
Timur
##uarter
north
Oct
bangunan
jawatan
##enang
non
others
plat
kesan
##jata
##dagangan
research
##oo
Julai
dev
Januari
favor
##ein
CNN
Red
bring
##asama
api
whether
By
Og
##likasi
Off
barang
##dara
biasanya
kehilangan
believe
Prime
##ene
barat
Britain
##aksa
##aturan
cepat
##egu
2006
##amis
##ror
Phil
oil
PH
PS
##asy
Lib
Terbang
##most
low
Dir
mean
##inistr
Not
ketiga
menentang
bercakap
##rim
##emaran
Tues
enjoy
hom
peluang
house
Je
##ras
minyak
jo
##opp
wat
berbanding
Val
##adio
##ison
Qu
Ingg
##estern
##ni
betul
single
##AC
Monday
Comp
##aking
District
##ikm
Paul
Canada
membaca
##angun
cour
Center
mesti
##uth
CEO
Tuesday
##idence
member
##amatan
Ac
expected
##ungsi
boy
langsung
kota
Bur
added
buruk
merangk
history
Mart
Seorang
Israel
Some
##bar
193
Kita
##ization
previous
##eris
technology
sim
control
office
##adanya
Selasa
Mohamad
peris
saf
Hal
Okt
phot
##50
##ners
Nasional
Ace
##ajah
##asing
pertu
##be
peri
Wed
##ajib
agar
Jakarta
Kal
decision
log
saw
born
ti
##empat
##atih
Kerajaan
##ences
menyokong
##wood
memasuk
##enti
##ukul
Sebagai
tempoh
role
fight
membayar
lay
kul
tog
langu
80
haiwan
example
##jing
##eal
qual
##work
municipality
estab
rata
continue
extr
doing
buat
##kannya
et
##ji
##fa
##ots
buah
financial
##alnya
##oke
batu
Jack
believ
##ination
once
January
visit
##UA
cukai
announced
sesuai
##ades
Black
alle
late
together
mampu
kematian
lemb
Art
pendidikan
digital
director
##iko
##ica
Don
certain
##atik
peringkat
key
drama
half
Thurs
Ol
Associ
saja
Oktober
00
fall
aktiv
son
sour
memperoleh
angk
Isn
##erbitkan
karya
future
Sabah
Sej
Kong
bapa
SM
##agn
memastikan
Aceh
kelas
##ingkatan
##ecutive
question
economic
##tentu
Ir
memenangi
impro
Rich
Des
##ape
mom
Ram
include
suatu
Ogos
sepak
started
unit
tanda
perform
##ators
mengeluarkan
Thursday
Kep
equ
##ahim
##quar
gas
rev
Dunia
##eleb
penjualan
represent
##ela
##ukti
pract
##okongan
code
Fin
bidang
##ria
instit
##elesaikan
##ches
##EL
##enggan
##ned
father
Inggeris
Star
Bay
##jid
Hari
bebas
##okasi
##orning
light
Robert
sure
done
perjanjian
Juma
cat
70
action
##ified
move
##angkaian
36
Disember
kempen
##idge
August
diter
##enangan
perib
##alleng
memulakan
Jumaat
Ele
##ediakan
kemungkinan
friends
cult
comes
sebab
##aper
tertentu
Kedah
perbandaran
huk
doesn
various
quarter
rais
Day
recent
##tain
relations
##enderaan
Mem
##omm
Dewan
##lement
bad
Group
##enarai
Lat
ing
##okok
##uny
##attle
enough
##ahanan
##ivil
Islamic
hous
bertu
operasi
Bandar
face
##jawab
RM1
##ective
Indian
Isnin
gag
kurangnya
More
built
Wednes
##ior
sound
##risis
dirinya
##urther
pengarah
Gold
services
actually
across
Police
relig
Yes
mother
Kom
##lus
##weet
Pulau
sum
pelakon
growth
##iah
bahkan
##upa
##ops
##ford
tenaga
Kelantan
Rusia
dikeluarkan
Germ
Wednesday
Jadi
Op
pendek
Sunday
Ros
##ilar
##eign
Donald
dana
Jalan
##ening
mengaku
Setelah
##eraan
viol
##iron
Pan
black
rock
##ms
##embilan
mendorong
##portun
supaya
##caya
khus
##ugas
makes
##ocrat
##uty
Rabu
Her
education
##alisis
##IC
##kuasa
##anggungjawab
lim
namun
sokongan
above
Bill
almost
Aw
ub
security
Cor
melakukannya
##upaten
having
##mbuhan
Los
While
fa
menawarkan
platform
general
hop
##emu
Raja
military
##eguam
tambahan
seles
##antuan
##emuan
sales
field
##UN
Tom
merangkumi
penerbangan
profess
discuss
price
##ambut
Bukit
cab
##ainya
surat
James
##ca
south
caus
##off
berkembang
peranan
berasal
##ublik
##now
##aps
##ukt
##ends
##utuskan
Polis
##IT
##he
step
Bu
##anji
##ST
within
close
meeting
##sw
segera
##ktr
menghadapi
Dari
##engganu
sold
sex
##oice
fikir
##andingan
Besar
Terengganu
Instit
chief
##adu
Read
##itch
2004
final
##arap
suku
##ke
##atives
seks
died
##urunan
Khamis
warna
2005
timur
merasa
trying
##ances
kisah
dog
kenderaan
miss
##ibatkan
##atuh
rate
Pusat
##get
##ubung
##asaan
##ruari
##ugerah
##utkan
Pos
Februari
##uara
##alian
hitam
##aker
Ses
cuba
32
Lo
##iling
##ength
Fort
event
uj
woman
mempert
Itali
wife
buy
##ikat
##ku
##0s
##quare
Mont
Fir
penggunaan
Mex
menjual
Selain
terutama
anjing
benef
lost
thought
means
personal
agama
##wards
heart
bermaksud
siri
looking
##aces
bit
##ention
fak
age
##yle
shar
##vered
berat
yet
demikian
##yc
profes
Majlis
mengubah
jud
##ahulu
study
Satu
##kah
opportun
December
wanted
Chief
nov
victim
Now
Tor
kecamatan
berubah
supp
aud
kejadian
Si
nampaknya
##viron
Ali
talian
##icro
##ombor
Bal
George
Filem
33
Mes
largest
##eed
##igr
Cr
##sy
tro
##erh
##ised
refer
es
iP
Tuhan
##ulang
##endali
sesi
abad
saying
##gerak
##intaan
##ahaya
host
##ourn
concern
peribadi
mangsa
BN
fre
##adbiran
berpend
terbuka
Ear
sepen
living
diberikan
mess
People
##ogn
mengej
##enarkan
begin
##ught
inj
Sement
##ges
##epend
tri
##elanj
satunya
PK
period
##erti
needs
##olar
capital
drug
challeng
provide
asp
Sementara
meletakkan
economy
October
##erd
football
##pris
##ither
Saint
current
enc
ny
UK
##utes
coup
perhatian
kaum
sukan
taking
KUA
##liament
dianggap
##aced
pesawat
##entera
published
Mon
Und
##irc
Inst
##abiskan
##isyen
##nam
KUALA
bintang
Court
test
online
getting
##itions
LU
##itted
Malay
consum
##ka
rek
##used
increase
population
Pegawai
rasmi
berkuasa
areas
##entukan
##ihkan
##ajaran
##okrat
##acter
Chic
vol
##to
mendapati
pertumbuhan
##akai
kegemaran
prem
propos
Universiti
conn
These
elektr
##ambarkan
oppos
mengumumkan
jatuh
electr
Ira
##las
perdagangan
##IM
share
Germany
Emp
##umpulkan
avail
hours
kanan
port
Kabupaten
international
Il
90
Republik
##udara
##vironment
dom
pin
Sum
Long
##embangan
acara
Mark
English
Act
minit
behind
outside
England
putih
TH
37
dist
antarabangsa
side
Sarawak
##pite
celeb
creat
Cons
alat
involved
##aliknya
##etapkan
aplikasi
##adah
sugg
sambil
likely
named
dest
##mu
Kota
##ights
treat
Iraq
##umen
##ipta
Ahad
bantuan
##dom
Bers
##angga
##anta
PM
gagal
earn
##atas
##ha
perlawanan
##AL
Sil
further
##ench
common
ey
##ift
##iding
##adium
autom
khas
##amin
##arch
Chicago
menambah
partic
played
dekat
hilang
##airman
Amaz
##indak
##eme
##amera
##aliz
Angeles
Island
Mo
works
arah
##imum
average
##aksanakan
##anyi
##asihat
policy
perasaan
peraturan
ens
selain
##erson
insp
PR
watak
appoint
killed
udara
duduk
##uaran
##burg
terlibat
officials
course
wr
##arget
individual
##uti
##anks
##edy
memboleh
##while
##insi
##ittee
lapangan
##asaran
products
travel
Sam
usually
contoh
##BS
mengapa
private
Flor
##war
##rote
memutuskan
proper
shows
bagaimanapun
jar
59
menolak
UN
individu
Trans
Lee
Us
Mod
Er
penulis
##truction
##ohon
cann
repl
recently
kajian
##hone
asing
##inda
tid
##erang
administr
front
bergerak
Mass
Well
jangka
2000
##atikan
exist
language
##venue
2020
AT
Mak
Ma
##MPUR
##izza
Baru
##osh
##estiv
nombor
budaya
threat
##abel
Federal
position
lokasi
##PR
LUMPUR
pelanc
##kanan
##iddle
Sun
##ailand
300
##trak
foreign
pasangan
##bor
considered
describ
teach
##andat
address
Thailand
membina
wrote
##ayan
menang
belajar
menghabiskan
SE
##PS
Ste
34
Government
pengan
arg
career
Daerah
Febr
senjata
mengurangkan
kont
band
Counc
Id
melaporkan
kebangsaan
assist
akibat
dibina
##ware
seramai
##cayai
berharap
fig
nation
##avy
Ada
##kr
Council
balas
February
##adis
##etimes
##mail
Bern
possible
##com
Bagi
Rah
##inet
matter
eksekutif
selatan
##undi
##unggu
Ari
sekurang
Times
berikut
##ites
berakhir
##ving
Internet
Amazon
##hing
experience
##ully
Chris
workers
Sl
kil
favorite
Braz
##amaan
desa
coll
lanjut
che
status
##selves
Pah
semuanya
##uel
##oti
##artawan
parents
38
games
Parlimen
adakah
diffic
century
interview
Wall
##FA
kalangan
similar
Pin
membolehkan
##lik
naik
##embahan
Selepas
amb
##alahkan
##ID
##ertai
mahkamah
site
##ores
agak
meter
bertemu
Smith
##ex
##ikmati
##ips
road
Democrat
veh
deg
##ibility
harta
Rom
petang
stay
##aily
##LE
ger
##ills
suff
Tentera
##akh
tradition
available
lah
himself
province
elect
ext
##uters
bab
rangkaian
##ece
Kement
latihan
milik
##ensive
prices
Bag
menyed
##angkat
##oph
##astern
ayah
menjalankan
##aib
comb
White
morning
##fort
komuniti
##abungan
##akala
Satur
particular
sebarang
sias
introd
##iaya
po
pri
##ander
##ane
pembangunan
kulit
penyakit
Most
##cast
potential
mulai
meninggal
anything
Brazil
peminat
##ANG
##ujuk
Lebih
pengalaman
River
##adangan
deli
Persekutuan
Paris
novel
den
##brahim
sens
##ewa
earlier
##egas
tujuan
created
senarai
keras
prep
reason
Alex
bagus
access
Beberapa
ib
fed
plans
menges
Kementerian
melancarkan
##thern
emer
center
##untungan
tidur
sepenuhnya
pelaburan
##uit
Met
tud
##unjukan
##ournal
particip
merah
Tech
Cina
Central
daya
42
cases
dikatakan
##erangan
kekuatan
Net
Ibrahim
abs
Ministry
##berg
Sub
permintaan
diterbitkan
Gar
pakaian
Japanese
Taman
try
Law
##ukai
##ahami
sil
siapa
Mexico
seek
Saturday
anc
##aluan
##esi
Mahkamah
menganggap
berhenti
##ux
Industr
white
##ema
AF
Wan
Hall
space
peningkatan
terdiri
Parti
hadapan
##ote
##OS
diperlukan
##atic
##truct
lem
##DT
191
disebabkan
aktiviti
##oid
tentu
##ports
tour
##olong
##ubuhkan
##iting
mengel
higher
##iring
##rought
##elle
Cup
original
Miss
accept
selamat
kenaikan
menteri
##imbangkan
Mean
##antau
55
##embak
European
bertindak
Lou
##uktur
##ungk
##ukaan
meas
##urt
Afric
players
tujuh
Colle
problems
Kemudian
##alang
##okes
menyelesaikan
Lord
##nik
break
41
mengadakan
asas
groups
##back
##anjung
distr
##arikh
kemenangan
##estival
##mance
drop
celebr
apakah
Canadian
##arikan
IP
##inaan
seter
Super
##formance
Tok
##unga
value
influ
Micro
Raz
lib
Yah
dead
Ismail
##ajuan
seven
French
difficult
sejuk
radio
2003
sampai
alasan
##band
##uji
broad
Turk
pandangan
Aut
##esterday
##uali
diambil
##awaran
tiada
sect
trade
Demokrat
epis
##ekad
##amakan
serious
Syria
seterusnya
##room
##airs
bord
nearly
##atasi
Eks
ped
##rika
standard
tw
character
##uge
berfungsi
##jan
Kim
##use
McC
luas
##obile
contract
Then
##indungi
tun
##zer
usia
alih
membuka
Tex
doll
##ava
relationship
Jim
##add
agensi
comment
states
##entikan
related
pakar
paint
lower
Aziz
Party
##ails
Sabtu
gaya
Int
##uli
Ye
##udahan
stock
Meanwhile
player
##ped
Village
review
Serv
production
##ising
menyebut
##ughter
39
Um
Del
users
##olution
resid
hotel
whose
Ahli
merancang
##ube
norm
Kedua
##kod
##ively
Que
##aged
##adar
kesalahan
Thom
##lines
keuntungan
recogn
board
##anyol
##anger
Rev
tugas
##idi
Hospital
rights
Najib
##ET
attr
Ras
mengumpulkan
##ekalkan
lihat
true
Singapore
Apabila
menurun
##wak
##uced
##rovers
##ato
mengikuti
##yan
conference
Afrika
##aftar
tulis
quick
create
43
tuduhan
##ging
deter
##hib
ketingg
weeks
cause
farm
##untutan
terms
guru
##aiki
##ears
Semua
Stud
pi
persembahan
##ker
hope
##anian
##ble
energ
ciri
customers
offer
bergantung
##soft
heard
##elt
Ken
leader
##aig
penyelidikan
featur
fast
##erta
Commission
bimb
Although
Up
##annya
CBC
menging
expect
risk
Perang
##ING
PAS
loss
soon
##ograf
44
berter
self
##AH
##endak
yakin
coming
##itas
hon
##ication
Tim
Prof
pati
track
fire
melibatkan
menjelaskan
##yr
##urangan
fell
rather
##action
investigation
##asta
Frank
##awi
fem
Port
independ
restaur
points
##ector
Raya
terjadi
membunuh
Ukr
##ulasi
longer
Seperti
From
bernilai
bukti
menikmati
Microsoft
##amar
Sepanyol
Count
firm
##che
75
ple
reve
Sim
Hak
restoran
murid
tertinggi
express
##asakan
however
##ceed
ground
Road
Even
##UT
draw
48
##imbulkan
Green
wants
ball
##vert
Health
Inv
##ikiran
fish
round
walk
##etik
mind
##bo
##urch
sejumlah
192
respond
##usah
hus
performance
canc
##alon
organisasi
bat
mengk
##iala
##ival
gaji
pangg
Second
environment
wind
##ario
stop
driv
##PM
ach
sea
pasar
kasih
Salah
estim
##gress
menghantar
##akes
Richard
diadakan
cannot
##entingan
arriv
menyediakan
komputer
brought
impact
perubatan
income
bul
Rec
##tual
##yer
##EM
##apt
##lang
##ability
wait
Batu
##ucing
Tengah
dar
##ensus
lives
staff
reports
latest
dilaporkan
someone
46
zaman
##field
simply
##ette
pict
modern
pelabur
warga
perp
##go
Hot
##utang
##ulaan
##den
pantai
Roman
minister
kelab
##uff
bak
ya
Royal
circ
date
Brown
berpendapat
##ampaikan
currently
soft
rob
Abdullah
successful
Gun
semalam
##aves
##ocks
Jika
store
executive
sett
##ayangkan
##ww
##ville
Semasa
persekutuan
bertanya
raised
mengand
civil
Grand
prim
sebelah
Jer
siasatan
alam
##istic
##aju
##imbangan
2002
confir
##ayakan
girls
Poskod
##ampil
##oved
##ology
warn
##osed
era
SK
##oda
conduct
##iat
Are
MP
immedi
everything
minutes
implement
isn
##retary
mid
dam
determ
##imbalan
sell
arch
##luan
candidate
km
rib
##ecah
##endalikan
Bagaimana
leave
associ
##ming
setahun
worth
federal
William
type
memasuki
Association
pintu
manakala
##aing
Turki
##FL
management
Texas
eight
themselves
amount
##unyi
tua
running
pick
##arapkan
Mary
##isc
Baca
asal
##ella
##inkan
understand
pemilik
answ
approach
##ba
engine
saudara
Sebilangan
##egr
nothing
applic
separuh
berw
sib
bomb
##embangkan
parties
seems
ubat
leading
cadangan
investment
##angnya
##ahwinan
hukuman
##uai
materi
legal
Tod
pertandingan
release
televisyen
Pahang
CO
##IA
pertunjukan
##ifat
##Nya
Martin
energy
Singapura
Cast
Far
##lymp
rap
target
##hern
tab
club
##uble
##umbang
First
Florida
##ociety
playing
signific
sesungguhnya
Bus
Os
melepas
##intahan
television
Kumpulan
Province
Viet
kids
##untut
incident
ye
rac
Johnson
##ask
phys
Wil
color
gave
##sia
dijangka
pentadbiran
situation
##indah
##iasa
##istik
kejayaan
wartawan
##tra
##impinan
cur
##lywood
terutamanya
##indungan
Union
compl
Sekarang
stu
virus
menonton
sports
Peter
pener
Program
##aled
##ingkas
iklan
ge
prevent
ability
gadis
search
400
worked
##RA
cle
##itting
strength
halaman
husband
##ession
kontrak
foto
##10
##impan
segi
Perm
AM
daging
sometimes
##aiz
activities
pretty
Republican
yesterday
Lemb
origin
Sk
##atural
Press
jenayah
ujian
reb
beaut
sekiranya
Olymp
Scott
##ify
##outhern
version
serius
analy
##con
##kenalkan
tekanan
either
tuntutan
pint
Great
Piala
49ers
Mungkin
##ikap
postal
##yd
probably
Atl
##lished
Vict
launch
whole
##IL
##ataan
Gh
gemb
Jaya
Camp
Dua
##erusi
##esta
domest
network
##lom
hujung
Pri
memanggil
##onto
##adual
versi
##OT
Develop
Good
airport
wrong
continued
##ayaran
##estasi
couple
www
sn
##aksikan
##BA
Education
##unuhan
##agan
Laut
temb
##itz
##ume
risiko
Its
needed
Our
menunggu
itself
Pertu
##rep
Fortune
permulaan
lapan
via
##ck
##injaman
##embly
mendakwa
Mill
pembel
##ampiran
Rh
deep
Sebelum
County
keperluan
senior
##agram
menimbulkan
garis
##iausaha
menjaga
##vey
vote
sense
Saudi
##over
goal
Ut
wear
Abu
golongan
everyone
##ungguh
pengurusan
thous
##erhana
Bor
Ibu
nasional
cool
##ties
##amous
komen
specific
attemp
##BM
Por
peguam
##ordin
##gal
dolar
demand
commer
##hbar
##ado
Rakyat
##hi
artis
asli
Bhd
During
Li
##idik
##ografi
critic
##gantikan
kekal
League
Of
Nur
##empuran
diketahui
employees
isteri
Palest
##adiah
tumb
##ebar
shoot
Rock
##operasi
##andi
results
##ufact
Hong
##ritik
pack
AN
source
Thomas
Vietnam
Let
Carol
kand
##akaran
Many
ditemui
central
race
berlangsung
dibuka
Cong
memakai
##unci
##kand
Commun
##eum
PT
##head
hum
multi
meneg
##ps
##incangkan
##ipt
Vir
##incangan
kepentingan
Cont
tre
written
liter
provided
##encana
47
menangani
surpris
veg
##etuju
opportunity
##aza
efforts
rak
significant
Win
Rel
##ero
##bon
maint
##itiz
memenuhi
rent
Fox
##ambahkan
lahir
menerusi
amat
spokes
bisa
College
mass
quality
##uangan
##BI
##awasan
laws
cook
##aven
##ora
evidence
Kap
pemerintahan
aks
doktor
acqu
PKR
memang
Ott
menyertai
Den
##ecess
turned
hadir
easy
Bad
Masjid
uns
baharu
profesional
perkahwinan
words
mengakui
##akw
phone
ringkas
Ev
##ampions
obs
altern
eat
carry
pengas
Yus
52
segala
##leb
##encies
##iasat
believed
##gkau
##ster
Sov
ikan
Tahun
##ubungi
bunga
##antas
tradis
berterusan
dekad
investors
itulah
Sol
panggilan
Toronto
bersetuju
##eman
##ampuan
##enced
stesen
sakit
##ucakap
mewak
cerita
##enggara
Kej
Jeff
penonton
match
menemui
Mil
meros
contact
McD
melepaskan
##iel
growing
Som
##uncak
German
##angkalan
Reuters
Pengarah
Play
berkongsi
menggambarkan
Ukraine
##ikutan
##ledge
kepala
serupa
takes
Wah
##east
alleged
penjara
##ezaan
berhampiran
Afg
1999
title
bumi
regard
faedah
hair
grand
##uncit
rekod
sch
station
Lim
65
block
quite
pulang
schools
Russia
##roy
pinjaman
Kon
compared
##gr
dahulu
Cz
EDT
##iaga
pengel
shot
ste
moden
##erita
##ebasan
##ujudkan
##osi
Market
Public
##engaruhi
##hood
mewakili
##iant
Here
spes
Eksekutif
##jah
Bow
khusus
##CA
Post
##illed
else
Wilayah
##emuk
instead
cover
neigh
appeared
akaun
##edd
infras
pingg
Jok
decided
Antarabangsa
##tum
Also
wasn
##itive
opened
pus
Bahasa
1990
kepadanya
training
##umpang
FI
increasing
##ikirkan
peral
Bob
##ekerjasama
produced
hands
allowed
gold
mal
penurunan
becom
##aise
Development
blood
ant
##lands
included
53
check
##gest
hol
spread
##amal
aktif
##injauan
dihasilkan
Nabi
Nas
emas
sidang
stage
##40
ment
cho
##itaran
pembunuhan
Afghan
Hillary
culture
Ann
##undred
##lor
menjalani
memahami
##iket
bekerjasama
persen
medical
##eless
Anwar
northern
didakwa
##zz
51
Alam
##asons
Anugerah
##ongs
despite
dipercayai
pal
99
force
Louis
##AK
terror
##annel
senang
earth
events
costs
EU
##acher
remaja
Provinsi
moved
Kec
lif
melebih
books
Bush
##urus
Senator
##anch
Czech
##erve
kawalan
changes
##esu
##anggu
Perb
memegang
iPhone
##adilan
Oper
Quran
##onj
Pap
##ci
##wor
##usun
Aman
##itial
Hit
##itness
Hollywood
pil
ingat
membentuk
tried
##rown
diterima
##adangkan
##elesaian
fans
Bas
smart
Victor
tradisional
changed
##elanjaan
ensure
anyone
Soviet
studio
tuan
penyanyi
Darul
Harapan
dise
jangan
Kingdom
##iksaan
##yo
Charles
##ampilan
##ilities
janji
authorities
##ahwin
menyedari
dibawa
officer
ang
sektor
daughter
administration
##etts
mark
##iro
1998
##agon
Every
##onder
jenama
paid
forward
established
coach
kot
tawaran
berhubung
Ka
majlis
subs
##empatan
disco
gembira
plant
Sudah
perdana
followed
pemandu
strugg
##luk
##icks
##icles
disp
bahwa
kekurangan
##ED
hear
##orrow
professional
##akitangan
##hidmat
bersedia
student
bon
Pent
##ubli
boys
pertemuan
sederhana
bertahun
##engahan
unc
DAP
##aq
aim
penyokong
feet
##AD
##rey
##wide
item
perbincangan
pintar
Banyak
##umbers
Katanya
speech
construction
except
ways
##dn
56
park
##isl
pembinaan
titik
Last
##aria
Av
attention
Alb
Parliament
throughout
##min
melebihi
##eful
jobs
##agaz
terpaksa
##andatangani
bed
Bre
mengandungi
##mas
religious
##ehold
pizza
##iful
kiri
dipanggil
Indonesian
size
menyaksikan
subject
ren
##eria
##guna
mengesahkan
ditutup
menjawab
Love
rates
Norway
poll
sisi
Kr
Sejak
Mu
cender
summer
regul
purch
beginning
regular
Pinang
biggest
##ualiti
NFL
##yl
##utions
histor
dijual
Disney
190
Def
ma
##ruption
Bec
##jauh
failed
##cial
##osa
##arahkan
##alangan
##ijau
bill
Maha
birth
reading
response
Brook
##stein
Mot
##uasaan
saluran
akhbar
push
credit
perund
plast
##edahkan
cash
Bagaimanapun
ready
##craft
sesiapa
sun
##aded
##iment
Tuan
positif
##EC
manufact
57
Sukan
pertahanan
##ois
super
Since
##alls
jarak
inn
1980
Two
content
##olusi
Su
mengatasi
remain
Mari
syarat
Timbalan
includes
contribut
krit
pred
traditional
gar
hendak
##qual
##rin
Big
##alog
merujuk
fiz
Stadium
rawatan
##ikel
Inter
Sn
sebaliknya
##uments
##achus
cell
##OP
Pes
spent
RM2
Mi
questions
##ications
Instagram
menengah
melindungi
Mike
##iden
Ur
##okus
slow
webs
##iction
perlindungan
pesakit
Persatuan
Company
rah
katakan
Pakatan
Serb
er
##tainment
01
arrested
kilom
opening
Es
kemudahan
cenderung
Wanita
Pasukan
##otong
Media
##vention
##koh
##ahuan
membenarkan
pengurus
sentiasa
##achusetts
##30
##oi
##impik
interesting
Mag
##och
Massachusetts
defin
fear
##ektif
percuma
lawatan
##iance
teruk
##etuj
brother
##ucks
Sesungguhnya
reform
##imate
teams
style
menuju
Bab
##ship
##emen
##icial
##onstr
previously
##lied
joined
##reg
Azerb
bes
Ik
Ku
##inar
Azerbai
Pilihan
happened
kilang
college
Best
Hung
uc
wid
Yo
Jon
Ms
meters
kemampuan
editor
dilah
mental
collect
Perl
karena
##oud
protect
developed
Ist
##ady
cop
##ania
laluan
##untu
58
Hel
##AY
menentukan
tahunan
perbelanjaan
married
establish
nyata
Rahman
famous
organiz
##rif
##ajuk
Williams
##ires
supply
box
menyelam
mos
##aip
Azerbaijan
##uts
drive
##ei
dilahirkan
pulau
Republi
launched
debut
##awanc
programs
mach
##uduh
##ulas
##aries
berapa
Mur
Leg
##etic
swasta
hundred
scient
helped
##inks
although
##anjaya
served
##ellig
memainkan
Sams
##iksa
##irian
##umbaan
balik
disapp
##change
Capital
pihaknya
54
##alid
##ht
##lect
bernama
bertanggungjawab
##ought
features
brand
Mohamed
Wind
square
Mount
##abit
##ye
##inasi
##icate
Pej
selesai
##cayaan
described
artist
##eda
bergabung
movement
Kat
##ault
Akta
dew
increased
taman
06
tambah
moment
numbers
mill
##irit
berkahwin
##egi
##umahan
Land
##ahankan
ton
##ukur
agency
##US
Kol
Melaka
separ
##ahari
##lie
##eration
Van
##ereja
##ubaan
conv
animals
##yuar
huge
##lep
##angkutan
menuntut
05
competition
##ises
##iff
##arden
Undang
veter
below
Corpor
##ahar
Haji
##isions
census
text
Republikan
const
##juan
remains
goes
Tal
##pose
Global
##uing
##yuarat
Tek
forces
dipilih
elektrik
Simp
##ambaran
##ulf
Bat
Steve
Jawatan
sud
Jones
##awar
##incip
Ray
chairman
##oral
safety
Walau
shall
menjadikannya
ot
##oli
blog
highest
join
tingk
amaran
Palestin
##elak
Institute
##gu
##idangan
menghadiri
lap
belah
Naz
##anggar
##awancara
effort
##sive
Menengah
internet
songs
engkau
ST
150
1997
Sdn
Liga
##OL
letter
202
Anak
##ameran
bertujuan
##antaran
Perlis
##ters
##enger
terh
agreed
Today
##agement
debt
##iana
##tress
appointed
##umpul
pengeluaran
##ethod
caused
Angk
Det
middle
photo
Gab
surv
##ello
pukul
memand
##lyn
##ekan
Music
Pre
95
Pac
Tanah
revenue
##yam
pemilihan
corpor
anggaran
retail
female
Bukan
##RI
##play
Hen
berwarna
tarikh
fair
##onok
##nah
Book
hutang
##gen
screen
alone
penyelesaian
Conn
lack
Say
##andangan
Krist
terbaru
takut
##isk
anaknya
Leb
Muk
minor
##ricult
##emukakan
Afghanistan
##DP
Italy
dilancarkan
terg
Mul
pokok
presidential
Cru
tap
natural
decl
soalan
mahukan
PA
08
menget
pertengahan
perbezaan
episod
##umur
##illa
Olimpik
Invest
clean
rout
kerusi
##ources
##bi
##eds
Stan
##yt
Tak
menyerang
dengannya
knew
Rumah
Razak
berper
Mosque
##araf
operations
##oz
Ford
plays
##ingat
starting
##arakan
berikutnya
##istr
speak
agreement
scene
maks
persek
##tik
Penang
Tay
pep
Sul
remember
Ven
kakitangan
Americans
image
##rene
felt
meneruskan
looks
##rick
kecuali
cast
Enc
dif
Gal
faktor
ET
##EW
sains
Joe
Ins
wujud
residents
Russian
strategi
annual
Other
Perkhidmatan
cross
##isher
##enaran
##gunaan
Turkey
##urb
##inding
encour
poor
Prod
Office
Hind
layak
Bul
##arters
award
Seg
Secara
##ASA
##abad
reached
leadership
CNBC
perf
promot
Jawa
families
Marc
immediately
##asih
Mun
##gent
App
mengembangkan
positive
kor
nya
normal
berikutan
##tions
##tiwa
mesin
prison
##icara
61
citiz
cars
mengejutkan
Syed
bayi
##riage
semangat
##ols
bekalan
IN
necess
##urian
voters
pengundi
menyampaikan
markets
pertamanya
knowledge
##aft
inside
bertahan
Jos
penampilan
arahan
##ganasan
ketinggian
Kenn
cinta
pembayaran
##buhan
keempat
Setiap
tweet
pendapat
##ambung
berdiri
##essed
Rem
range
##edahan
Enter
##aught
rules
Tes
organization
##chedul
keganasan
##osing
Hanya
sebilangan
practice
##utch
commercial
##olehan
Bahagian
directed
##elar
Muslims
upon
singer
##pm
darah
quickly
Why
perlumbaan
##itud
akses
akal
Army
##eksi
membangun
##ukis
kandungan
ditubuhkan
Jawatankuasa
pernyataan
dokumen
hutan
Film
rum
Tanjung
Lab
Sanders
##ohanan
membiarkan
Pejabat
##OM
designed
##ongk
##gia
finally
Itulah
##obe
tingkat
##ype
##asm
initial
##light
##antikan
##awang
##ectiv
roll
Penc
600
Deputy
seng
##imen
Wood
##gy
mengekalkan
vac
##aikkan
Zain
##zah
ill
pressure
Head
##embagaan
aku
##obi
cu
pain
Committee
Child
sungai
attacks
learn
Baik
menghentikan
Pengerusi
wawancara
kaedah
Jackson
cities
bilangan
##izab
ow
##erc
Camb
mengalahkan
govern
demi
card
menak
ended
##vens
##rowd
penumpang
species
showed
kerjasama
ditulis
menyumbang
aircraft
owned
science
##zen
##indahkan
mount
lic
##lee
opposition
Ek
uk
kemas
##33
Vi
Java
##11
penggan
##owers
Aff
##istry
returned
green
menutup
RE
##ukisan
62
Harry
cabaran
##alized
NBC
siap
##acara
photos
rambut
keterangan
software
mewujudkan
##hatikan
##agazine
ketidak
Andrew
Ul
sar
maju
bod
menambahkan
##ankan
demonstr
dewan
##verse
gabungan
photograph
SMK
800
prior
Bol
Found
Luc
firma
pusingan
##nd
spend
prestasi
officers
banc
schedul
Leon
nar
PP
majority
Sembilan
Congress
minimum
##olf
Cab
##uktikan
##abur
pertempuran
Dato
Belanda
Ireland
sit
sector
Valley
##onic
trust
whom
Who
Boy
wah
09
dilantik
partners
crisis
##urance
infl
daily
surf
Ten
nomin
giving
##hire
passed
dewasa
ku
1996
Pendidikan
pray
aset
kemudiannya
Hous
universiti
##onik
generasi
disiarkan
systems
Ger
perintah
##resh
NY
page
##ological
achiev
rakaman
mix
##eder
domin
treatment
dram
merasakan
Business
closed
Rod
pembuat
struct
Adam
##val
beriman
##ancy
PB
tump
reject
reka
purata
##TV
Steph
Corp
rank
tick
pengk
##evin
Lew
##rol
##ashion
manager
Democratic
sembilan
##attan
memperl
Kn
emb
message
##ym
Camer
additional
Setiausaha
berpindah
##ersey
entire
harapan
Festival
membincangkan
##osis
tinjauan
catatan
perisian
perkataan
panel
##ique
institusi
cahaya
actor
##anced
Ib
Swit
sasaran
##iers
bersih
Because
spending
Italian
rise
##acam
chance
kepercayaan
touch
Nik
moving
##uke
##ocal
profit
analyst
dadah
enggan
Among
duanya
##iq
motor
defe
fourth
##ground
##atory
menggantikan
KP
1M
Director
Asian
berpusat
operating
cooper
Young
02
gal
##uster
offered
awak
eur
tol
Pemer
bukannya
kaya
##tas
##oni
beroperasi
exact
Fre
ahead
1995
66
computer
nine
##amkan
happy
##unting
##angkakan
YouT
##arily
weak
shares
Pertama
Over
mobile
Beg
Bi
##opping
tunai
Suruh
wish
Data
Wow
##umpai
##iced
##mark
charges
persegi
signed
places
funds
Para
recomm
Hass
films
issued
Berk
property
##iano
ban
##lined
raise
calls
##ques
98
##entangan
imag
mempengaruhi
document
McDonald
Suruhanjaya
adop
penget
Div
transport
Haut
Secretary
sehari
##IK
revealed
krisis
Greg
##oka
Pakistan
kedi
produce
##cl
Zeal
Tre
Kalim
diplom
Ast
barisan
##mit
insur
##ormati
kediaman
Serbia
Organ
esc
##utnya
link
train
##rah
##oes
tom
tungg
##bit
peranti
indah
sihat
Seh
minat
mencat
Memb
menegaskan
Research
##down
battle
##unch
##terinya
##ounds
##leep
menyukai
sudut
budget
##ahat
##reprene
kun
Jangan
Han
perkembangan
parts
Zealand
sejauh
Ariz
Nep
Nob
##irus
introduced
Tinggi
##angguan
website
##no
##come
Kongres
pengasas
pap
partner
##ading
Antara
charge
meman
##oring
gay
consist
candidates
##faat
names
ucapan
189
##ayangan
##emas
##DN
##owi
Bud
effect
##ilaian
menetapkan
##ries
wajah
##emer
##esej
selling
memba
drink
ulang
Laporan
##oles
##arif
kamera
happen
Menj
ancaman
Econom
claimed
##atuhkan
hijau
kebenaran
##agam
Ti
angin
winning
Ottawa
dark
##etak
Virgin
berfikir
##ju
##ayat
Sir
##angkang
##irasi
1994
avoid
bott
du
##bour
capt
##TA
fat
victims
active
Bell
##ajukan
Sony
ditangkap
Ryan
vehicle
##ebaskan
princip
##forc
Jud
malah
eth
##uasai
traff
trip
ones
Web
burung
Agung
journal
##unjungi
##ridge
bot
occur
Dig
Corporation
##ahl
army
voice
tim
##uki
Santa
label
object
##lat
##stitution
heavy
rich
tep
mempertahankan
Adm
ditahan
##lict
##ishing
eyes
Club
##ERS
confirmed
htt
melihatnya
##aba
##ils
owners
Hus
mendedahkan
##TM
Tengk
##wal
Yeah
Pop
langit
fizikal
YouTube
Home
meaning
Keh
terima
certainly
Bet
##orter
writing
##ekatan
##hat
Yunan
##akwaan
hadiah
##gerakan
print
Ash
memikirkan
method
Samsung
ced
memperb
gig
masjid
marriage
charged
didapat
ringkasnya
categ
figure
required
disease
speed
##ukup
fit
sempadan
paper
dihantar
##embir
stories
##ici
Perh
##atusan
minuman
Putih
##igen
04
Your
ringan
undi
wakil
68
crowd
businesses
base
cerem
##ogan
Prince
tells
Awards
Time
##aksanaan
Eg
##rect
##engers
##intas
protest
Western
integr
Eric
##enor
jangk
menyelamatkan
Plan
attend
AFP
##67
##ager
##andakan
dilaksanakan
Vol
ir
mencuba
Switzer
##itab
debate
lar
victory
mencipta
weap
cloth
64
Secondary
##unjung
Yunani
Penj
longt
##board
PD
Manh
prime
kayu
##umbangan
diam
Switzerland
thousands
##elligence
Christian
melaksanakan
Syd
##umer
03
crim
aras
Broad
levels
85
Liberal
save
##arannya
reduce
responsible
Lyn
az
pals
Cat
Follow
fals
##alankan
safe
THE
fokus
gerakan
##ahul
##elling
hakim
##iles
##empatkan
kemalangan
planet
extra
mention
Square
##ador
ord
Hotel
##orary
##put
por
memandu
gets
sale
receive
aksi
Nepal
##ariah
operation
Water
Africa
accused
Scot
jarang
homes
##antic
Spe
experi
eventually
Regency
individuals
Jokowi
##rief
##ipped
##igan
##ijing
##ampionship
tub
##ulatih
completed
Perj
Ha
##ampilkan
reporters
setengah
##ancam
Komun
##oms
##ervatif
lemah
ayat
newsp
Out
majalah
##ahiran
types
FIFA
jump
kredit
kertas
concept
gula
Sydney
coast
Suk
menahan
##opi
claims
##ords
projects
##roid
##endar
sounds
##ews
07
educ
khususnya
##GB
forced
reality
door
restaurant
conditions
peristiwa
##CC
nice
##taranya
olah
tet
wonder
Lev
Jenis
Tesla
1970
gangguan
##kins
location
consumers
persekitaran
tapi
Blue
##arusnya
stream
Show
##ederaan
Kalimantan
##icaraan
##ungkan
recorded
Rub
murder
##western
berulang
Band
khabar
Anth
##jaya
Manhattan
ditetapkan
##angl
ess
baby
##rik
timb
##oki
van
isterinya
improve
path
Beijing
Latin
ladang
Swed
thinking
Carolina
trial
answer
border
##udin
limited
ABC
##ategori
seluas
63
Pot
Those
72
gone
convers
Tengku
##ibution
konf
violence
complete
papan
teratas
Nama
bersalah
suggest
terba
driver
uses
electric
lengk
EC
flight
Mars
negoti
adik
Jur
##ycle
lukisan
kerjaya
politics
##tered
continues
mengec
tangga
fly
##ulus
##epak
jurucakap
complex
sifat
##enting
Another
island
biru
tersedia
bukanlah
danger
blue
##esa
##AF
Carl
Imp
surround
dijalankan
crash
Encik
pengambil
##win
##onn
Portu
cedera
Sed
harm
menandatangani
67
Both
menjelang
Dun
penganalisis
dimiliki
stores
##alys
umat
Women
society
didapati
##riti
##irim
talking
Australian
aliran
Hassan
##faatkan
initi
seksual
kod
kari
memimpin
##azz
##nic
Stephen
##sych
witness
##ano
Pasir
murah
##here
##DB
Mess
Din
##jen
Sports
bila
defense
Joseph
##di
##EAN
southern
##west
mut
occup
##alih
##itif
ISIS
repe
bond
sport
Justice
##cean
berharga
##apped
menurunkan
Award
##agar
founder
petunjuk
bersen
benefit
rom
##mal
diet
##gency
ille
seharusnya
artists
arm
muka
Hakim
Like
offers
Kons
##FC
founded
Kelly
Perkara
##asis
##intangi
##anja
Tah
Che
Blo
##adat
kaf
terper
##iang
dalaman
particularly
Cle
archit
condition
kecederaan
Airlines
angka
advert
fru
Harv
simple
Hasil
##ucu
melarikan
raja
##ugian
cancer
Inf
1993
monitor
bey
kucing
resol
Ts
##inger
spirit
##oe
##edaran
##ancing
tembakan
ship
##ailed
Maka
##iy
suami
benefits
wild
sul
##elih
benda
dirancang
Arizona
tanya
provides
Poland
Hu
menel
##xy
membuktikan
1960
legisl
dogs
KL
dihad
##real
dibenarkan
terang
trend
##andingkan
spesies
berkhidmat
fan
gather
##agang
bancian
##imia
##wakilan
##raj
Jenn
Bir
misalnya
Hungary
beyond
pantas
Kur
goals
1992
##acing
Jersey
vill
Sebenar
##even
palsu
rad
tiket
Barisan
teman
membuang
grad
bayaran
veget
tast
diny
##ean
##well
##erahkan
upd
##ffee
GM
pemul
hujan
lawyer
##lasik
attract
Saf
##ubang
Harris
##forcement
domestic
samb
Food
adil
##pleks
Columb
##eritakan
##hlet
##ked
pemenang
aspek
mengelakkan
mosque
##ipun
pameran
##enture
conflict
##ko
##ypt
77
meat
transform
actions
mempertimbangkan
##ganya
lip
negatif
##iders
equal
activity
transfer
sexual
independent
beautiful
perumahan
Cook
##icken
asalnya
##asang
##rasi
crime
broadcast
##ambang
trag
chem
##emar
Academ
struktur
nature
mission
komers
accomp
neighbor
tanggungjawab
generation
serve
##RM
jurut
Jac
lands
##NA
Kesihatan
##etapa
Mov
##urna
Ont
diharapkan
optim
peralatan
truth
Earth
##orse
instr
Keluar
explained
reflect
exhib
laku
originally
anugerah
pesanan
Exp
pendekatan
seat
challenge
behav
Bek
commit
MS
sumbangan
degree
Four
expand
Argent
teen
suit
myself
directly
NASA
sekumpulan
##tilah
gelap
Mir
##set
choice
Siti
##otensi
##enses
Filip
Bin
Lar
##anyalah
mengag
physical
Wak
mostly
mengajar
mengemukakan
konsep
250
hib
immigr
pu
prosp
penilaian
king
Jr
istilah
##chester
##isters
##anish
Coast
##awapan
Old
lived
Games
##adikan
##cy
##uluskan
religion
mesej
Board
##abungkan
committee
Cameron
Nick
##kini
rule
NH
Reagan
hamb
Kevin
lov
##egah
##uries
objek
ASEAN
##esh
keju
Life
##ping
Daniel
hor
wel
##etengah
install
kept
wide
Spain
perfect
berpotensi
700
Under
sources
##ifth
pemegang
##akannya
Matt
wahai
pengeluar
##ae
cong
##itik
##irikan
Philipp
picture
88
burn
knows
menghid
##asc
housing
medi
fine
perg
terc
##ront
Shar
##ingatan
penjagaan
sungguh
##emy
Sebenarnya
fresh
97
69
BBC
patients
1991
learned
##usahaan
##pon
Mengapa
athlet
JP
##atalkan
Taylor
agree
##ikuti
##isf
vehicles
diss
rang
IT
fully
##ikh
pemeriksaan
##estinya
leaving
emot
SPR
Rog
lab
##athan
Space
Gunung
##ingly
stabil
innov
Victoria
##RT
appears
veteran
Peguam
Hay
Town
Cruz
actress
tadi
##ension
sand
##ampak
74
shock
##anyaan
peserta
insurans
##inder
Must
cli
##oalan
darip
188
gives
audience
##tructure
##II
##iled
perlahan
##alysis
Lembaga
71
Way
##har
driving
##oa
bij
##ously
reput
hukum
menyimpan
namanya
##iny
78
Max
material
##IP
kategori
Est
Power
##emahan
details
bimbang
prefer
alleg
##uruk
Chairman
76
adding
Kew
rakannya
citizens
menangkap
Malaya
##avirus
##mond
kerugian
memperkenalkan
decades
article
email
##orporat
royal
bringing
menekan
labor
kid
negative
seminggu
fakta
##erikan
Brune
kalau
##fit
##etan
tindak
destroy
Low
dat
##ombang
Angg
##eel
##unk
##ipment
Special
memasukkan
##quarters
Papua
mencadangkan
Khan
Tony
diperb
puluh
##bre
parliament
spot
keluarganya
percubaan
Akhir
fashion
##egan
berkesan
##ito
keber
learning
Rasul
Jord
##indahan
politic
owner
misi
Dev
Top
sedia
meant
Penn
proposal
Tour
variety
##alin
kebanyakannya
resign
minute
##rel
##aitkan
Yahudi
##ellow
tunggal
##fol
##ctions
Service
display
##edom
relev
73
weekend
##enis
##onda
Foundation
dalamnya
AL
Sumat
##ification
Selama
Has
##romos
##embalikan
Brunei
sister
1989
Anti
agenda
Pay
secret
miles
dikendalikan
Sea
Kas
mewah
Sistem
mengenal
bangsa
formed
##active
##elda
kolej
##cher
consult
##par
progress
wall
estimated
existing
Dam
cita
primary
##more
Prot
menaikkan
Little
purpose
Egypt
pengetahuan
pembangkang
Where
tend
##cer
SP
mengal
looked
##izabeth
toward
spokesman
##right
##ega
melay
Padang
sin
Bak
direction
banks
ibunya
jurulatih
##aringkan
Gall
##tukaran
menampilkan
##da
meluas
##icted
##upkan
dikenakan
ayam
##uduki
latitude
##unca
##ohan
hanyalah
suspek
##inn
##ormat
street
melanggar
modal
Their
Dutch
concerns
##ican
Security
buildings
##obs
##onavirus
##esarkan
Youth
kab
##itmen
IC
magazine
judge
corporate
aj
animal
Lake
##yarat
##iger
menu
semestinya
Android
jawatankuasa
frequ
lepas
Lu
situasi
##isip
menyerahkan
##impunan
mahal
pesta
##inary
ok
entreprene
Kesatuan
##izing
shared
studies
pembelian
tiap
agencies
kebebasan
Osc
powerful
controvers
Jam
minum
opin
##BER
couldn
bakal
Management
suspect
floor
##oster
Fund
Assembly
Mesir
advant
Force
##indung
teks
piece
Wat
catch
presence
mandi
Iv
##opped
votes
Temp
reasons
##angkapan
Buku
meja
teb
focused
kuda
marg
nuk
cantik
azab
Pantai
liga
mist
magn
##mat
affected
daripadanya
klasik
##jo
counter
##ios
larger
##asikan
Miller
marah
##aph
sempurna
##raw
Sebuah
##ujukan
##MA
##anggarkan
##tery
##uluh
dollar
##ompok
commission
university
Vide
Elizabeth
watching
ditayangkan
tumpuan
file
##nis
berminat
impress
##know
pertanian
##ented
Journal
kemahiran
menyel
tegas
chain
##ulah
##ewat
older
Lang
seolah
##ampau
##itely
peace
##uni
##ova
##reh
##amatkan
teachers
##sik
##bed
willing
matahari
System
Bil
dinamakan
##ebec
arrived
##asib
managed
estate
temper
##istics
##nan
##eries
ded
Sebaliknya
selesa
nak
plus
gunung
aren
purs
##ius
Pacific
harap
fix
##icated
wealth
Tiga
diikuti
atlet
Spanish
ceremony
##elis
planning
attended
##ript
thr
equipment
Game
basis
Anthony
stuff
CBS
mesyuarat
amalan
Beach
##elakangan
symb
aware
berjuang
##aight
##amed
ukuran
diperoleh
sor
stars
gelaran
views
NEW
defend
berbahaya
##utu
##atar
lengkap
Rio
Technology
berlari
pergerakan
Cambridge
flag
##ses
Fire
Have
##tir
bertanding
prop
dipen
AD
MA
Academy
##abet
terbunuh
##asukkan
##rid
east
##elahiran
Avenue
accident
Henry
appar
##enty
strategy
Ohio
##eline
##egangan
prec
nuc
approved
tip
Senate
kualiti
##70
amaz
becoming
antaranya
##een
influence
Had
Color
##ropri
##iput
Lewis
##lix
berbagai
##acu
Cro
tough
Kir
weight
##ono
##sen
Jean
maaf
runcit
parlimen
feature
effective
tokoh
kerap
penal
##esak
kebelakangan
##ebihan
##ormatan
trading
korporat
amal
Korean
##osakan
collection
kimia
##PLE
comfort
adult
proposed
##hluk
diumumkan
pengembangan
Pembangunan
Haute
##rive
simpanan
collabor
Ay
genre
liar
##syen
Slov
##lv
sebulan
Kl
west
Pand
inov
respect
nasihat
##AYA
Social
Berhad
Ep
##ien
permukaan
Institut
##afs
widely
##using
allegedly
##ambatan
artikel
dollars
application
##ao
troops
##truktur
guy
##vis
architect
Fer
Year
ice
pembuatan
##heim
brief
##akam
##aih
pemikiran
Earlier
##ibly
##alize
##ulated
youth
##vensyen
stre
betapa
African
Hold
exchange
runs
karier
function
posted
write
Lt
vice
feed
kotak
conserv
trop
##inate
##rajaya
Teluk
1984
mag
Tokyo
Las
kontrovers
##esuaikan
##arahan
##isiatif
grant
Les
sleep
pertanyaan
Add
samping
concert
##friend
affect
camera
injured
Abb
1986
beralih
memanfaatkan
maybe
Harvard
Kanak
male
register
sikap
acting
units
##umba
##JK
teacher
Barb
assets
Museum
##ohonan
filed
Senat
mengganggu
bath
##alas
berumur
Jordan
forg
Putrajaya
##len
komersial
menjaringkan
##GO
Him
MAC
##rian
Therefore
haram
Wild
##acters
policies
device
##pt
##TS
About
mendalam
##insip
berasaskan
Queen
urusan
movies
Kris
Kek
unik
PEO
coal
Davis
##iasatan
Zah
Children
##atever
##alance
af
Matth
PBB
PEOPLE
perbicaraan
fighting
Taiwan
bought
Kerana
eye
attempt
##eny
menilai
Bersatu
les
##icient
elected
Filipina
persidangan
##akers
squ
Video
82
Brian
##rie
Teknologi
##mon
sejenis
psych
##orial
acknow
##noon
trib
End
consumer
kement
Daily
##adesh
pertukaran
placed
##olic
selected
ministry
Maz
mengawal
umur
pember
Terbaik
Uber
kalah
Domin
rain
difference
kementerian
disediakan
##opter
##etakan
ketent
Lel
adj
unsur
##enomen
Sama
Virginia
user
Aid
##rier
juara
##oma
CA
Work
survey
org
mulanya
kelahiran
drugs
Queens
##nel
traffic
##emasan
Sus
controll
euro
missing
ram
tanaman
Tas
interested
##aneg
Mrs
seemed
Keselamatan
gereja
1987
dinyatakan
tertu
kebimbangan
Guard
Science
Real
##elled
penghantaran
##14
makhluk
carried
bird
##akna
Ky
##edar
puncak
##ahasa
Mend
Pu
menolong
doub
exactly
##agalan
Brooklyn
wouldn
Rp
##road
Windows
eastern
basic
rose
Three
dropped
##me
opportunities
dance
##iber
##ahagi
symp
Fair
##atively
##asion
sust
formula
darjah
grew
awalnya
Fore
ign
96
##ritory
suam
afford
skin
Unit
Electr
##SP
exerc
bertambah
##uci
request
calling
##body
##zi
responsibility
Perub
deliver
fle
##iki
Makan
memukul
mempers
Offic
pup
providing
organized
seeing
muz
Radio
committed
ribu
momen
##ulk
Any
spl
scale
menghalang
Barack
kebakaran
characters
stok
##EP
beach
##going
diminta
Cath
##itors
##IV
flood
##untukan
supported
##inent
##okrasi
completely
##emuka
##ables
succeed
facing
longtitude
Musim
generally
planned
kasar
##argo
aman
pengarang
Partners
lol
##inci
league
resources
presented
Nic
##asily
hundreds
Rad
setuju
Oak
Despite
flow
kebij
Ekonomi
86
robot
egg
##ejut
##flix
##uhu
Sant
1985
liberal
lewat
##alur
Andre
pair
##arts
river
sengaja
Foot
##iapkan
##enangkan
Greek
rahsia
melainkan
##ancar
shooting
Team
protection
dish
weather
Down
shop
holding
note
helping
SU
Felda
memperk
Wilson
Jess
sort
1981
perhaps
cry
Snap
Nar
##aingan
Scotland
##ambat
blok
##una
##uarant
Georgia
illegal
session
straight
1979
##hadiran
##tiraf
towards
afternoon
Kos
fant
Bef
skills
communities
##iqu
Middle
1982
Coun
berjumlah
bersaing
##illing
shown
kerosakan
fuel
giant
Ramadan
items
Malah
##itation
perusahaan
overall
nom
wood
stadium
Pemerintah
scen
musuh
Represent
IBM
marketing
##adel
offering
Services
mantan
kelebihan
##rary
kejohanan
Human
Industri
sampah
dinding
Musa
##IR
pemulihan
Sud
##andon
smaller
bakat
siaran
ketat
membant
records
##mos
pengawal
enforcement
appearance
supporters
latar
Tenggara
Penyel
Romania
##irement
penemuan
pesaing
##ekaan
dikenal
Author
diket
Ball
Jay
extrem
comments
guid
buatan
##where
diberitahu
Night
kemajuan
pengaruh
believes
Zh
Girl
##atuhan
##ockey
Type
conducted
##amalkan
1988
complaint
Sumber
##omberg
##echan
ideas
damage
hearing
melawan
Sweden
Oscar
rew
pelajaran
##anam
Get
bermakna
greater
##rupt
Alp
Before
Toy
Py
##eliling
##unggang
pengangkutan
Luar
lose
thus
##asier
signs
asking
insurance
##alo
##ugar
Hai
menjatuhkan
cold
RM3
Teleg
persp
Nations
earnings
waste
pemberont
Marg
rice
Instead
intelligence
##iktiraf
clearly
tapak
##uatk
mengerikan
images
emph
pembukaan
##alia
Keluarga
hero
##ho
Open
Kewangan
Juga
Pic
healthy
ais
##roit
##amps
decade
easily
lines
Church
186
terkini
Brad
##TC
##alanya
plane
astr
1MDB
dulu
##ele
showing
organizations
terkejut
79
##eness
Bowl
##BN
GOP
younger
Wang
shut
double
semb
tingkah
devices
Famil
##unction
NS
##airan
III
Guan
joint
##unding
memaksa
##atuhi
connect
Baiklah
talks
goods
identified
Lead
##folio
yes
##ajari
Argentina
##aparkan
unique
persoalan
##do
saling
##elang
##ston
##apanya
kl
execut
cultural
kilometer
##roll
pangkalan
usah
merosakkan
Pemain
kalinya
Pur
noted
mengenakan
penerbit
newspaper
Kini
berani
##olis
berdekatan
critical
##tuh
funding
Patrick
pemandangan
Hamid
Kennedy
Ty
expensive
##ifik
##abak
effects
SA
Dasar
##dd
heav
##ajikan
##OH
##resif
##ectively
kak
##emukan
replaced
Po
allows
mir
mengunjungi
peluru
festival
komunikasi
##empadan
criminal
Tamil
measures
FC
kehadiran
infrastructure
Pihak
kopi
##udden
gradu
Sya
##igation
kepem
peringatan
Bangsa
cloud
Election
Golden
tahanan
membuatnya
deputy
##iaan
##onen
Govern
84
disk
houses
coffee
lingk
Amb
sepat
menyemb
experts
##pun
##urusan
channel
Harper
pelancong
Atlanta
menukar
##house
separate
Ath
##ytih
##akia
pengganas
hopes
perbuatan
Miami
western
dipert
subst
rooms
harian
Kristian
##elasan
Buff
suaminya
agricult
Morgan
edisi
##utip
wearing
cred
command
##ampong
menembak
Only
volunt
transl
reco
Ret
##ustak
Labor
permohonan
PC
mengarahkan
Did
declined
expressed
Sains
berbicara
Jose
padang
120
konflik
##cue
tourn
millions
Dit
Priv
kac
documents
psik
advis
Whit
metal
subsidi
CD
emergency
bencana
##posed
crew
##viously
automatik
##ighter
facilities
speaking
slight
Inilah
dijadikan
Bloomberg
##yap
dimainkan
Model
##akuan
observ
Gambar
Hor
mengesan
worldwide
OK
portr
Entertainment
##OO
manfaat
Watch
bersara
terpilih
berturut
Cer
Edward
Arch
jawapan
haven
Care
##umuman
mengendalikan
##reme
##onokkan
FA
Hulu
appeal
##giatan
Netflix
Pertubuhan
majoriti
ketenteraan
kunci
tajuk
##ilty
##aranya
multiple
rasuah
menandakan
pembeli
##asinya
warm
##aco
Doug
dream
##dam
pentas
mengejar
kegiatan
academ
dasarnya
##allas
Apakah
steps
restrict
terkemuka
accounts
teater
##ajak
##inggit
Still
customer
denied
decline
Lihat
table
beat
solid
##eler
##overs
Lin
##edung
evening
mult
Puan
Klang
Roh
ganda
##anas
##17
expert
withd
advantage
otak
memotong
Pelakon
##romosikan
glass
menyeronokkan
Norm
##12
Cre
mengingatkan
corruption
gelombang
##CH
##sa
restaurants
##aire
disokong
merosot
gall
format
Muz
##yang
##iayaan
passengers
suffered
akadem
Wales
##GA
Olympic
##acca
sepert
teori
Montreal
##oba
options
barah
regional
tumbuh
Kawasan
elektronik
Kad
##jana
menguruskan
ayahnya
Omar
sweet
Box
Dell
Saham
formal
scored
##anjikan
saint
penasihat
dibayar
san
Cuba
contain
##ucapkan
##eer
yourself
PADA
menghormati
guard
Sat
provinsi
loved
##iayai
necessary
buying
stopped
##like
sad
##enci
Pi
Pizza
pemasaran
##box
##ebarkan
Live
menduduki
lembut
concerned
Seni
mengund
Detroit
kamp
##15
isyarat
industrial
##adbir
performed
##oen
##oklat
Section
Diraja
fungsi
##isten
Tunku
##otan
hip
videos
waiting
Prem
penyelidik
structure
ID
Robin
jantung
Ba
##town
cuaca
Back
##hy
portfolio
doctor
choose
allegations
##ukum
mengak
Cooper
##antly
FBI
figures
peniaga
rising
##onial
factors
Sav
Pier
Ref
Asli
manis
gug
bertentangan
kegagalan
##CO
Pertahanan
Lelaki
sepatutnya
Project
Amin
apartment
Bumi
Phot
##acity
Mosc
pengadilan
##intahkan
##rooms
Marit
Medic
Raf
disahkan
twitter
kece
tali
Pres
##nergy
##mm
challenges
Sai
mengagumkan
begins
Form
angkasa
Jane
prepared
##ulate
master
Hil
Laur
shopping
menjangkakan
pencalon
brain
referred
lembu
suggested
##ography
dijadual
seeking
kur
##epsi
Bos
konsert
##vement
Cik
dress
jaminan
definitely
Eh
faith
maksud
prinsip
ordered
##erj
##iam
eating
setakat
##eastern
##olitan
listen
Umum
menaiki
feeling
##gas
##isiko
peruntukan
istim
##achi
Associated
nuclear
memandangkan
##utian
throw
zon
##atre
##usn
Trib
tulang
bersi
indeed
weapons
sibuk
kecewa
1978
guilty
memeriksa
##EF
boost
panduan
snow
highly
##iptakan
##ediaan
##pool
##13
##nical
surface
menguasai
Trade
Seattle
exam
ilmu
miskin
naib
Rose
salji
##iakan
##reci
amazing
##aze
##incian
istimewa
sav
NHL
AC
##undingan
##kes
##ocol
##entar
kick
92
persaingan
franc
kompleks
kreat
ketara
Through
sayap
mort
melarang
Jason
kosong
##RS
##phia
bangk
boat
##zed
Berd
Card
Princ
Gaza
Affairs
Kor
##esyen
advice
##ustakaan
##iliti
mol
alternatif
dijumpai
Sehingga
Sah
##endaki
saksi
discovered
##ifer
##angguhkan
##anjir
##emua
Penerb
cuti
mengancam
##ampas
Justin
maintain
##endera
Administr
##akutan
contest
leb
##works
Ren
##nikal
##owa
##elamat
kawan
Siri
##ujur
Jumlah
Whats
87
##enaraikan
##iputi
covered
Fat
jet
profesor
##vin
##egahan
essential
##pp
spoke
premium
Ver
komedi
guess
Philadel
##PP
##asti
##apur
##awas
developing
Aud
##ENG
hamba
Musk
Berikut
abuse
##iasan
##achel
##akiman
memakan
##eces
Anton
Budd
##ubungkan
sites
bahaya
##elit
TM
hat
NBA
inisiatif
assembly
Tar
unf
Seksyen
Kam
##eption
Ltd
##ahaman
pelarian
1983
Udara
cooperation
dad
analysis
tradisi
digambarkan
bakar
Josh
Lagi
section
perwakilan
Philadelphia
dimasukkan
Arm
##lamat
Minggu
discl
##gar
##bert
hang
Atau
##apaian
pertar
soal
##esis
penip
belas
##ea
distribut
##lepas
Quebec
repeated
##olik
Berita
##ranch
chair
##ampasan
##ubuhan
Muda
suhu
Putra
Sher
##thman
pelaksanaan
##ego
##ifest
##adai
require
mechan
##TON
apart
explos
Station
sebaik
broke
##etujuan
##fortun
mengatur
##efully
divided
MAR
Sangat
diselesaikan
pendatang
pinggir
Vers
Finance
Noor
1974
stocks
confidence
Pentadbiran
deleg
hiburan
212
ran
##epasan
infrastruktur
Stat
##rees
spons
seats
##RC
Defense
berjanji
Dallas
professor
easier
gila
##alikota
Greece
89
Mans
Sor
swim
involving
##actions
Agency
plastik
##iner
tas
##UL
##arganeg
RM5
nyawa
BER
##ining
determine
menerbitkan
##isytih
180
##phone
Division
limit
mengharapkan
associated
Key
nanti
##bs
pengeb
plants
##rint
Khalid
gambaran
mencatat
##inals
institutions
##erob
iklim
##amanan
PER
Moscow
Azmin
solution
Tw
interests
Amir
nuklear
bapanya
##onc
1976
##aped
menyus
##16
Foreign
Raj
solo
declared
USA
##oted
rub
background
##orf
parent
visual
jahat
##eball
pengl
##tors
baginda
failure
tow
##umn
Columbia
##ooth
##anjurkan
changing
balance
dakwaan
##isahkan
remained
##lusif
layar
coklat
hers
behavior
paying
creating
Hebat
Pitt
breed
flat
elements
enh
##BO
rumahnya
coronavirus
ros
1950
god
kub
##anjutan
##epakatan
##ramer
dibebaskan
lit
losing
apply
comedy
Pern
recip
church
187
tree
##IF
acknowled
Free
Mukim
##ayasan
Executive
##bucks
occurred
Ta
pengambilan
scheduled
gain
Hist
Stanley
Pict
lakon
tong
Broadway
Network
cas
Amp
Sos
##icious
menghubungi
max
##aklum
##awn
Hid
FOR
ejen
root
climate
komitmen
##erbang
Officer
Haj
musical
finished
writer
##iharaan
bunyi
lampu
##ourney
##lebih
Family
perjuangan
##ulusan
Pekan
##ecast
Yusof
cul
BC
sekadar
length
pelancongan
##pan
sekatan
ditawarkan
Michigan
pembantu
potensi
lebar
Gol
faham
winner
##entuh
##chi
autonom
dimulakan
Loire
puluhan
##va
Thai
bimbit
##yakin
Bali
diperkenalkan
##ongsian
##ombong
dangerous
##icide
landasan
ju
obt
berhati
pelik
##orney
pictures
SH
##umiput
##VID
roti
option
93
Kin
##andal
Digital
wedd
museum
mayat
die
Series
Kaz
##rut
menuduh
##argai
Putin
disappoint
Ontario
potongan
bina
##tie
ultim
twice
Kalau
sudden
900
pelanggaran
Channel
worst
fruit
##ampion
Conserv
task
##awesi
##cing
penerbitan
##oga
Nig
##formation
officially
##klusif
Isu
##ropriate
Vegas
percutian
Sulawesi
Mis
helps
paras
kepad
sesetengah
Ko
##oket
attorney
mendesak
mari
ribut
##isted
populasi
identity
understanding
jiran
koleksi
##ilangkan
Perjanjian
##RL
GE
Malacca
Field
##emat
Class
##olars
##esides
Iskand
ancient
##akaian
struggle
##gers
##intend
Energy
##ewhere
##uasan
1969
Charl
Once
Cross
Bruss
##urer
##aud
##ronicle
##ocr
DUN
analisis
absol
Ron
83
rough
meraih
##ompat
Bird
##ifikasi
BM
##ecahan
moral
berkumpul
rejected
Cost
vision
killing
penut
wis
tepi
worship
Kard
Warner
memasak
Tiada
##xim
##ching
##ares
playoff
##iab
##auc
tubuh
##uses
keduanya
##engkapi
loan
##razy
fifth
grown
##RU
Republicans
receiving
sisa
##rig
Bintang
Ross
Sin
Burung
##bah
##etujui
artif
ringgit
requires
palm
der
forms
mempromosikan
finding
EP
tur
tenang
Colomb
overs
sawit
Kul
Album
increasingly
leaves
Alexander
Dh
##iking
mini
##engarannya
##argaan
LE
##igious
##oks
pencalonan
pengajian
Lagu
Farm
divor
que
##ilion
saintis
assistance
truck
##ajam
Olympics
Football
core
entered
gus
Each
Harga
##iwa
Society
Palace
delivery
##erto
##akinan
##ardy
rapat
sempena
bid
mekan
Hud
sides
keturunan
Supreme
MACC
Ave
Dol
##aming
94
recommend
##irt
connection
##stream
##ebriti
##PT
trak
petani
SPRM
freedom
Hi
mencegah
materials
sebabnya
kafir
##zin
values
Castile
Pad
storm
Kerja
##opher
Perlembagaan
Mid
ditunjukkan
letupan
perundangan
Bant
Slovakia
meyakin
Light
Transport
##igenous
PDRM
##met
##ipping
AI
ta
diagn
kekayaan
solar
Ho
lintas
dicapai
independence
##cel
##amerkan
##akhiri
##rof
dijadualkan
ug
##force
rally
WH
caught
announcement
Hy
Brussels
bom
chicken
Kajian
kan
##ifying
##ancurkan
##kipun
Maybe
pens
motiv
tournament
mik
##In
##aration
sedar
Bey
locations
Clark
Week
migr
##mah
Cop
persetujuan
lawan
memperbaiki
NGO
friendly
menubuhkan
Boleh
Tenaga
melampau
##umiputera
compete
##ss
tangg
ribuan
happens
##kn
Juara
##okal
##endum
ujar
holds
##alonkan
lembaga
plastic
##icon
telur
episode
Franc
kelompok
sharing
menyuk
##erdekaan
subjek
##sylv
##coming
dism
chemical
durian
##UK
internal
spring
##equ
Report
tampil
emosi
terbukti
menump
DI
##ando
whatever
simb
##ORK
##ingu
Du
refug
margin
justice
##anga
##orkan
proud
##atukan
Polit
Championship
##nologies
machine
##thy
Iowa
##rich
##empa
DNA
swe
menamatkan
ketakutan
radi
decisions
bodies
hall
##inum
guys
dialog
spek
certif
setting
kesatuan
ditambah
mengenali
urban
EST
##onia
##eters
hy
wajar
Chap
Vice
##rad
seber
Cher
Talib
pip
##astic
tarian
AAP
serving
headquarters
##enek
skrin
sitting
measure
timbul
Governor
##imbang
golf
shape
1975
Awam
JK
memf
hidupnya
##lebihan
filled
budak
soldiers
Projek
laugh
gor
##emah
1963
##sylvania
bertugas
elections
punish
Liver
faces
largely
1964
beli
185
seconds
##ematik
Alpes
##vel
Chel
Ca
Simon
menyiasat
approval
##uly
ray
Angkatan
Colorado
Constitution
exclus
Christmas
kepemimpinan
##eran
Marsh
distance
medium
opinion
inilah
Major
LGB
##rogen
mand
##utamaan
tema
Starbucks
1945
##resp
##jazah
Chan
deals
recognized
##wise
Contoh
wal
##zo
pelancaran
mentah
mengulas
Indeed
Morris
Astro
##ray
##encing
Mengen
worse
delay
##aklumkan
Jew
elim
dikaitkan
Southern
Dip
fol
##elaskan
correct
berlebihan
painting
bottom
pengikut
scientific
##esome
RM4
herself
surg
Rick
besarnya
mengkaji
pengkritik
##aron
climb
raising
menakutkan
standards
Bekas
nearby
ratus
hidangan
kering
ride
matters
Look
TN
teknikal
iPad
LGBT
bersempadan
##ursus
Israeli
Ni
mengangkat
##ebatan
McG
pattern
environmental
humans
TO
##ungnya
Globe
##nyata
purchase
besaran
enjin
##enam
##ket
##inated
iron
##acks
Lub
##osure
Deb
Pa
startu
Dom
Eb
memul
##awei
dipers
Gregory
listed
Ng
assault
RC
##anggang
holiday
##ression
##ahirkan
perbualan
prosecut
Alor
putting
mempercayai
Hon
Rand
##wi
##rot
Hart
##emahkan
Trust
ri
contains
suppl
taxes
draft
##oir
CH
besi
Wend
##ikes
familiar
muk
tenggara
arrest
Economic
##chat
Arts
relatively
ner
Dana
ster
upacara
##ription
implemented
Democrats
Gala
menderita
drivers
Bola
luck
mencukup
Prim
sew
##lets
banjir
##ales
dituduh
supposed
Tab
Isa
##udul
conj
##linois
##aftaran
amp
advertising
##ouver
honor
##hai
mengucapkan
memuat
Pennsylvania
eksp
taste
Moore
Yet
##inium
terdengar
konservatif
menyiarkan
Iskandar
capacity
Huawei
Goldman
inspired
treated
Industry
##izes
calc
produksi
##uzz
Masalah
causing
larangan
phil
ethnic
##yber
massive
##UM
entertainment
perincian
mencabar
penghormatan
tetamu
##burgh
rare
tomorrow
becomes
##phet
##hal
##veland
Ban
##feld
mencukupi
Curr
Haw
##gium
umumnya
terlebih
prak
OR
##App
##coh
sharp
##embirakan
adanya
worry
1977
jari
sepertinya
represented
Rhin
Nad
Khair
Lor
##aannya
Coll
Ted
penjaga
Hir
hate
##tha
models
bigger
##omun
reaksi
majikan
imej
Berg
Empire
Sarah
huru
subm
promise
DC
##etuskan
Istana
Ant
##uatkuasaan
gender
Maria
accepted
kat
##anmar
penghargaan
division
doubt
currency
rail
1967
sac
tayangan
Manchester
Rang
realiti
BH
edition
determined
Conc
teg
Houston
Menurutnya
Tri
akademik
Jar
Build
##ancouver
Turn
##mann
ketinggalan
franch
##aduan
##abaikan
meyakinkan
##ule
##isma
Illinois
##etulan
Howard
##istol
rapid
menempatkan
kecemasan
pengund
##stone
campuran
Angel
authority
Fak
##eller
recording
##afah
melabur
Jeneral
ticket
Cleveland
##ossible
kebolehan
Myanmar
dyn
Masa
##ukuh
##utar
Garden
atmos
##ulauan
criticism
Muzium
##osen
##agers
1965
bersenjata
mengembalikan
melanda
perempuannya
##ekod
tumbuhan
##aval
cek
Navy
Rest
esok
conversation
patung
commitment
Kate
payment
##load
category
count
Stew
##usion
sekal
dibunuh
farmers
autonomi
Belgium
Agong
audio
Financ
lainnya
##anjutkan
Nich
##thur
Kebanyakan
81
Na
1972
balasan
fesyen
berisiko
Strateg
Hamil
binatang
##yaki
Vancouver
symbol
##urunkan
Oakland
##aktif
breat
lesen
namely
mempel
##yers
##uto
segar
wedding
##afikan
memohon
##ropolitan
lux
alloc
melahirkan
ruled
Kira
##OC
initially
deri
##KA
Tol
Stand
senator
kelima
teknik
pengumuman
##ejarah
carrying
hasn
##LC
Berlin
Ip
nut
##inds
replace
aimed
aid
##emparkan
campur
##uad
clin
Mahm
LA
piano
##auf
##80
explain
patient
berguna
arts
##ibu
Keputusan
participants
establishment
Financial
##asty
mail
mengirim
Kadang
pingat
governments
motorc
ragu
contributed
##atically
penubuhan
heat
ce
telling
referendum
appreci
Mengenai
aduan
1973
basikal
Cara
keyakinan
Anggota
Gor
##iru
##lings
pengec
Allen
quarterback
earned
##emerlang
Akadem
faced
Representatives
##rog
standing
rundingan
Liverpool
##KL
Said
Contr
##usuhan
diing
pelayan
recall
Carter
##elli
Yahoo
##urray
##rence
dilengkapi
techni
Chip
menceritakan
Azizah
theory
##owo
Merah
Gard
bagian
tight
saud
##uja
Matthew
##olakan
rumit
Cas
syn
researchers
##inggalkan
##oln
Shang
thanks
auth
Administration
thank
talent
turns
Dur
##umpah
mengakibatkan
tuk
compos
Disc
polisi
##endirian
Terima
Nev
visitors
exercise
##usted
##upayaan
##omunikasi
mob
roda
##time
Bangunan
menggabungkan
pulih
muzium
memindahkan
inci
logam
##place
rush
##unyikan
analysts
Aku
bright
Hom
lucu
##erald
##phere
pejuang
Call
##erap
dibesarkan
index
Ple
guarant
Ox
Muzik
##ogen
mendaftar
guitar
perman
##elek
##iaw
Der
bos
seniman
Mayor
Siapa
##elayan
##angkut
kebaikan
##ayak
Gord
diubah
fort
##MC
isi
bersikap
intr
diw
aktivis
Hamilton
Aidil
diketuai
YORK
Jal
counc
pesat
##obb
protein
##asaskan
##ext
Gabenor
Ever
##agen
kontroversi
notes
##ajahan
Ly
successfully
Main
shr
destroyed
household
Kata
1971
1968
##aits
##TI
##ibute
WhatsApp
vo
##enalan
intens
Sky
##iller
kebijakan
membaw
fikiran
reportedly
causes
fired
feels
##anah
mematuhi
See
ditanya
tertanya
cart
##ustin
winter
Jamb
##ASH
sambutan
slightly
Ja
Bruce
ski
compon
membersihkan
Badan
##loyment
injury
Guru
upgr
Following
Ra
##night
domestik
wabak
actors
Bharu
komponen
FEL
##asukan
Roy
##otongan
##acon
IM
Metro
Hasan
contemp
Dave
jej
Medical
broken
##bury
Inn
surprise
##eor
Gi
Pengguna
Cu
entrepreneurs
melukis
##embar
kebun
Mobile
##ergasi
payments
Agama
##araja
pieces
kond
mengakhiri
kasut
##usa
##olo
meraikan
perkongsian
##fl
Shaf
menghilangkan
kelayakan
applications
ark
route
selebriti
Charlie
tunjuk
##look
jawab
bear
interp
pengunjung
driven
inovasi
lantai
Snapchat
mit
COVID
transm
Akan
fra
diarahkan
menjej
##fast
##ansion
Boh
pool
stick
##apuskan
unp
Anderson
refused
tarikan
secretary
kesepakatan
##St
pelepasan
Silver
Gil
Pil
Reserve
ditentukan
languages
Darat
PG
Tang
Cos
##ente
classes
berdua
Akhirnya
Penyelidikan
manifest
dipenuhi
lubang
##wich
tahan
intended
##olongan
entr
##ource
##amm
ata
medic
Jes
proced
trig
##udang
degrees
fellow
aggress
Austria
neighborhood
##acle
Treas
DV
pod
##apping
promised
jus
soul
advoc
##ikmat
##known
Assist
##ujah
Hindu
##bourne
Dok
##SA
memerangi
flu
##the
seriously
cos
achieve
Suh
##ocracy
##entr
setia
##ulum
ditolak
menjana
kritikan
darat
mulut
##inter
##ullah
partnership
##onym
Former
Theatre
membah
Nap
##esty
hits
Md
Mohammad
unable
berbahasa
Hop
bound
Meg
mixed
divers
##erminkan
Jl
##AND
reduced
registered
adapt
privacy
distribution
naf
removed
kreatif
##ients
Philippines
visited
##icy
scholars
##ahter
skala
##anna
pregn
ruling
native
Telev
kuliah
Bon
Perdagangan
##etters
Alger
##juran
producer
Berb
##intasi
sought
ongoing
mentioned
##udahkan
awan
menafikan
keeping
pis
pembedahan
disappear
Kun
##writ
kelajuan
##19
belong
Vis
persatuan
##emon
squad
sky
##ouch
gained
##usiaan
##ursa
##osikal
menyangka
##angkau
##adik
exhibition
maut
stress
starts
##imal
Prab
sugar
kesempatan
depend
##ahatan
racial
Kitab
menggembirakan
appointment
alum
buruh
admitted
implementation
Morning
Khas
sebahagiannya
dipindahkan
PRU
streaming
nenek
ambil
injuries
Lip
Jennifer
pecah
barangan
linked
keutamaan
Region
hurt
##beli
##anto
ataupun
Dor
Southeast
Bakar
conclud
Pemimpin
Bry
Linc
dibangun
##entian
Tenn
mengundi
membatalkan
theme
discussion
tambahnya
menyusun
jadual
berpakaian
terdekat
Cramer
##tunya
##isen
Warren
##entures
alcoh
doctors
finance
Putera
Express
##embunyi
##alization
Sosial
memory
##angkitkan
profile
##rd
berasingan
mengira
perayaan
##avia
SS
##inginan
Lima
##enanjung
inspirasi
Ocean
gitar
dibintangi
ramah
##zh
##ARI
##icing
warned
semata
Christopher
##ubs
##irik
bersifat
Stone
penerima
##idents
Cari
neraka
starring
Profess
penipuan
Thus
none
##icarakan
quiet
menekankan
coverage
technical
autonomous
semacam
diturunkan
Arabia
##elfare
MCA
Wong
##astian
##fully
##ermin
reserv
##ayang
ist
##ujuh
remaining
opera
halus
element
Wahai
journey
paru
pencapaian
pembiayaan
liqu
window
sebalik
Perc
menyekat
export
##alunya
memungkin
bangun
emphasi
##erty
##elanjakan
##anyikan
##edur
classic
http
Member
##incang
meliputi
##OW
ditembak
berjuta
conjunction
https
keadilan
retirement
##itchen
Bour
##ebaran
kuning
##zon
Kardash
##hold
##hab
##xi
stated
##sea
20th
Bersama
kaca
obtained
##onna
Nat
##ems
Rome
jualan
logo
##raya
##ahasan
Mach
Cond
##uiti
waktunya
##oration
memec
allowing
Jimmy
##icit
notice
Sadd
##igned
gunakan
lapisan
dies
closer
##oking
##ete
Stock
Salleh
##osoph
Hello
swit
volume
##ukung
menggunakannya
##SS
##oken
passion
##gerakkan
##ardo
greatest
alternative
Naib
connected
desire
##sequ
AB
##olas
Cur
susulan
Hash
Oil
venture
Bagus
##ald
##elihara
Song
tand
##epan
Pasifik
Motor
posisi
##water
##ecution
melintasi
employee
penutupan
##lig
etnik
fields
Gel
##mo
penjelasan
##cha
##roses
Ronald
Perniagaan
Hab
##ukuran
##emari
Nobel
kursus
decide
kebal
masakan
Wendy
nasib
Jonathan
assess
firms
busy
##asonic
proceed
shift
subsc
Run
Bav
dengar
strategic
beauty
bendera
bersiap
McK
Idris
thinks
statements
memuji
Lawrence
##ifatkan
Aaron
union
mencetuskan
sustain
temu
##awasi
Short
Empat
Fall
stations
heads
kolam
split
kaitan
apps
Portugal
Steven
pitch
Kans
Son
Vill
mengisi
membayangkan
pelabuhan
executives
Akademi
##alat
##oca
delivered
mencerminkan
##ihir
fishing
Wi
incred
tamat
Makanan
Mol
ganti
follows
##onjol
borrow
yellow
advanced
adopted
##pur
Masih
coalition
kapas
terperinci
foods
Begitu
Community
##ista
##injam
Berdasarkan
Cabinet
mm
##andang
Patri
walking
184
kekalahan
##ORE
gergasi
closely
diletak
kemarahan
Ayah
##idah
invited
corner
Jamal
Kedengarannya
imagine
Beck
kok
loans
Speaker
satisf
acquis
Menjelang
##idin
ISBN
Mand
Rhone
actual
Lincoln
dry
creative
pemberian
trees
villages
mengan
lots
Stu
Operasi
Roll
tulisan
sekutu
Northern
##ximately
clients
Rash
##ernick
forecast
brings
Tik
insiden
Malam
height
saingan
Atlantic
cooking
privasi
hendaklah
##ilit
##umption
Spring
##emia
##lers
Cult
urged
Holl
appropriate
memerintah
Gib
thousand
##awangan
awarded
pull
##grim
Prophet
Mong
demokrasi
##orage
Independ
importance
PUT
Meny
complic
ideal
arus
evil
membalas
contacted
bow
##izz
dipasang
nob
Right
Kaep
##fortunately
Later
pertolongan
upaya
130
constitu
defeat
Kisah
pembaca
factor
##25
Ju
##aton
##areness
##elson
pemotongan
liputan
Eth
Wid
depos
Pass
punca
belief
jun
rantau
##aser
Chelsea
##agh
surely
memaparkan
##enj
##uruteraan
typically
controlled
##utely
lancar
##otik
Pertuan
##afe
dinner
Beng
discussed
assistant
##rant
##key
##aliti
streets
izin
unt
##sein
tonight
Bengk
melonj
commonly
##omo
menyambut
##alakkan
hab
##erl
informed
testing
warning
dihadapi
##etime
tools
eksklusif
##apuri
identiti
math
turning
teaching
160
Hills
MH
trail
score
halal
sick
cru
possibility
memor
PRK
Ic
lulus
Phoen
Kaepernick
competitive
##okan
Eastern
mine
memperluas
mayor
didorong
##aro
##60
plot
practices
##aharuan
saiz
##usal
impian
##18
jalur
penyerang
recru
Common
Area
##engaruh
##RE
berpangkalan
bail
Stewart
habis
##neo
##verseas
tot
gigi
Alf
##undur
bersem
Conf
daun
kejahatan
Uj
awards
##udeau
evalu
Diego
returns
motosikal
dah
pound
Milan
kekuasaan
arrang
laz
##krip
centers
rug
realize
flav
wow
##utional
voting
Colombia
Ki
tank
forum
##omet
severe
Honda
menghubungkan
peruncit
AK
prove
Turner
susu
hayat
##kh
##uruhjaya
Sof
##iptaan
1966
Philip
Bomb
nelayan
##asana
kuno
##anggan
Ulu
Yayasan
predict
cells
deaths
menguji
achieved
Lomb
Fal
Tapi
##uzik
Fe
reaction
##rible
Bangl
##ologist
##akses
existence
Murray
pasir
Agricult
Dal
Ped
invent
##urities
##ukaran
Master
berasa
perairan
##ejas
tingkap
DB
##EB
Though
kesemua
reward
ts
menyenangkan
Organization
Haz
##orban
##eto
sewa
##aksasa
##emic
Yog
##agihan
##tukar
Bumiputera
##bach
unemp
Aqu
NPS
mustah
berkat
##eva
Trudeau
cemerlang
fot
coc
##iskin
oh
mematikan
pengawasan
kesedaran
Lady
Ing
memungkinkan
##imedia
ratusan
Sid
Modern
tir
Connect
agent
confident
milk
Jobs
relevant
Environment
experienced
Perry
happening
identify
Nash
##impi
Pont
Colin
wheel
ditinggalkan
Log
context
##kandal
Tib
rival
Authority
Imam
manage
Berm
##iddin
titled
peralihan
bertukar
##aksin
drum
oppon
lingkungan
zone
luxury
sebag
jazz
ha
extremely
##odo
pengurangan
##otes
Gri
##erma
Yam
memandang
jut
1962
crazy
##aikat
estimates
Princess
Kath
##eros
ekuiti
mor
viral
janganlah
rid
trouble
mouth
##obby
messages
##itung
menampung
finish
skuad
##edge
Judge
pilot
brothers
Toyota
hyd
Crime
Gates
Point
menyimp
dian
positions
##mart
Row
##illy
bersejarah
munisip
Alan
Pekerja
skor
flo
rural
Tra
##cious
berbentuk
manufacturing
basket
Krismas
Circ
##antara
##isytiharkan
eld
##arganya
capable
menyentuh
je
Alph
Prabowo
Bulan
dihubungi
##embakan
##quir
Communications
##ewaan
Link
resist
Product
Hans
Doc
approximately
initiative
direka
jaringan
klin
bunuh
Larry
comfortable
Tot
##torney
IPO
percentage
Undangan
19th
Sepanjang
korban
Tamp
melengk
Attorney
Gedung
stret
Algeria
##Asia
Jurucakap
Langkah
Bernama
##essions
Hey
##resents
refers
##ulat
##aintif
flights
berbuat
supporting
Dub
Ny
##utus
scientists
collaboration
disertai
tens
munisipaliti
##eholders
penyedia
1940
Nah
champion
acts
menyebarkan
pendedahan
feat
cuts
BE
##eing
dial
Kardashian
Hussein
Tind
diletakkan
Lam
meramalkan
berhak
kampus
##urat
berjudul
##iversary
surrounding
penunjuk
masanya
worried
##umpa
Muhy
Hang
Private
Bahkan
Gill
adds
sentence
menghidupkan
criticized
sebagainya
##DM
##ental
Prix
##itasi
investor
terjejas
momentum
suasana
Fad
panggung
istana
fulf
##eping
kemerdekaan
NPSN
Shanghai
ef
##andum
##endiri
Arthur
siang
sebagaimana
semi
hack
##agues
##antina
##ujian
creation
serb
Rey
##kt
Mitch
rot
utamanya
1959
protected
tool
##endang
Borneo
Bog
Wolf
cards
administrative
pendaftaran
Cape
dibentuk
menyukainya
Bahru
ec
konteks
featured
##elines
Bernie
keamanan
Bert
Friend
##oked
Melbourne
terrorist
nomination
##urga
##epatan
terburuk
Sejarah
combination
dismiss
komik
sayur
handed
##uted
Next
prosedur
membawanya
UE
fees
Local
##lad
##ours
##iksyen
ingatlah
terasa
##po
Civil
Dim
brands
persamaan
##istration
Lisa
1920
hoped
FELDA
##boy
depart
##astera
Panasonic
mask
Kereta
theater
acquired
gram
armed
topeng
jail
keinginan
Perp
managing
TIM
##unda
kacang
##otte
##woman
menangis
##angsapuri
menerangkan
seekor
Holdings
excell
Faiz
ho
##untungkan
perd
myster
electronic
Gordon
advance
Corn
Dib
membakar
recovery
Buruh
Koh
##indaan
matlamat
##inct
explains
Muhyiddin
##oming
represents
Take
historical
keranjang
##ommod
gugur
##hol
##JAYA
diperk
Pertanian
suggests
Nation
##bn
Burn
ijazah
aspects
menyesuaikan
##dang
##ennial
Normand
spark
Phill
pencarian
##esuaian
tests
beradik
##aux
Sandakan
jiwa
Information
mengetuai
operate
##atangan
##emak
Exc
handle
yield
peliharaan
##afar
funny
Dow
askar
Gereja
lawsuit
tukang
1948
hasilnya
induk
ends
kritikal
colors
Kabinet
lakonan
Cam
##acc
##unami
berpel
wage
##otic
opposed
taught
branch
Taliban
##asangan
frustr
##arks
misteri
critics
besides
odd
Pelab
singing
revolution
##rome
Stesen
breaking
pertarungan
dibandingkan
huruf
##eren
unknown
nota
salinan
mengalir
14th
##loyd
peduli
##urers
sayuran
##appy
Queensland
Kamar
Malaysians
sympt
prayer
galeri
loyal
Maur
pengenalan
Amy
Daripada
understood
circum
##kohol
lin
##iscal
Pasaran
medan
francais
##anye
AirAsia
Puteri
unless
ingred
ki
bordering
Rancangan
discip
350
kabel
Rail
diluluskan
Andy
##UNE
Awang
pra
Denmark
surve
cheese
landsc
bersemangat
indic
accommod
##issa
truly
pengemb
council
pengangg
bis
##chang
##LAM
Pack
promote
##deka
retired
Hut
MB
athletes
##aksana
popul
khal
eggs
Zulk
##ugaskan
usul
Bavaria
Maritime
fill
jurang
kebias
strike
teliti
ramalan
stands
sayang
##omi
Tanpa
Portland
Phoenix
GST
malu
##sur
##iza
Singh
Six
Religious
Lamb
differences
falling
attacked
jambatan
##arak
conver
Chronicle
Agensi
considering
simbol
Manusia
OF
Tempat
gab
Haf
boss
mountain
Gary
##untuk
jer
minta
##yorkan
##onne
##empurn
terbitan
tv
kala
Silicon
exposed
Drama
Writ
##fall
menguntungkan
##ENT
politicians
habit
##ganti
corak
fundament
Tap
##iranan
employment
##igar
Pear
##iform
Galaxy
##MM
combined
topik
##owed
sebentar
makmal
Cinta
gh
##ombongan
matematik
kompet
Pengan
abandon
Graham
clothes
bomba
batt
inflation
melonjak
Gian
please
##uruan
audit
usahawan
##mont
awareness
Centre
letters
##akunya
Domino
vacc
surgery
##peror
suci
Fish
kukuh
settlement
Sometimes
Bangladesh
pangkat
accur
##king
disab
berlainan
Russell
encourage
lapor
##ocolate
NAT
Convention
##ersihan
Pendapatan
ORANG
##kota
##outs
kompos
##enna
onto
Hitam
agresif
Boeing
innovation
Laz
melangkah
pemuda
tall
##aras
Heart
Ikuti
experiment
legislation
trav
##lando
Sula
##jil
seker
barunya
##anka
extended
captured
##ikah
##ibadian
otherwise
perhimpunan
interpret
awesome
column
##apatkan
Anne
Premier
Wright
emotional
faster
##ffin
pemuzik
##ashi
##anusiaan
tourists
immediate
Sumatra
vul
##trum
Insp
Pros
Tower
##nesota
entir
Code
dibeli
Calon
performing
regarding
Bit
Wire
losses
Cool
gempa
warisan
pic
##away
guna
pakej
lorong
puak
porn
##ebak
##coin
Plus
##ograp
##viation
##udayaan
Moon
ulasan
beri
Pengangkutan
termasuklah
forest
therefore
conservative
babi
bangga
##itek
sesama
error
Dy
##iable
##ureau
##nold
SJK
Never
kejatuhan
Hat
compens
##cu
apolog
contrast
Such
Step
nomine
weigh
governor
juri
guidance
##ancur
##ographer
Sebab
##atures
dapur
##estyle
tourism
kemasukan
Oxford
##riz
Bridge
Kecil
Dik
icon
reporting
FAM
Thanks
Imm
Fut
##usahakan
##lon
excited
Jewish
Clara
orders
networks
priority
##ingin
disampaikan
Samp
permanent
impossible
Records
##usnahkan
BP
Hampir
##de
pemerh
cup
##KI
##okuskan
dokument
representatives
overseas
atom
Susan
##lock
aneh
Beat
Dog
DVD
FM
##auman
Battle
fiksyen
sepuluh
##issions
Kuch
forth
strategik
Hard
##iskal
Cand
los
ekor
Zainal
##ahului
Kit
wave
secure
SEC
cancel
110
##INGTON
maximum
Hugh
output
##rafik
##bell
##ewakan
##occer
Utama
Iman
keperibadian
inflasi
outbre
numer
##prise
##worth
drone
lawyers
menamakan
melew
abroad
dating
equity
Tindakan
##ugu
Bagh
##dy
##ongg
purpos
##order
##rov
##angkitan
highlight
MC
pek
##ounce
apparently
##raid
##oalkan
kesej
tablet
##stan
##avig
bridge
Osman
alcohol
seberapa
penguatkuasaan
kelemahan
jujur
rantai
sequ
pembek
##erahan
##azah
tern
##abilities
maksimum
Pengurusan
Meet
concentr
Jesus
##book
calendar
gim
sees
campus
Baker
Dil
menghancurkan
##ompson
menari
##antian
Dick
arms
parliamentary
Kot
##makers
tra
coordin
Penerbangan
##erior
diserahkan
mengenainya
0000
sab
Chen
##alihan
neut
##alukan
pemberontak
##fi
wine
meneliti
Maklum
academic
tack
expectations
##oleum
kalendar
trek
waters
suicide
terdahulu
Lut
forget
##mates
##tip
Telegram
Rights
perlukan
elig
controversial
meluluskan
##TO
sabar
keupayaan
zero
Hawai
plenty
1957
kart
Langk
##regon
duty
garden
watched
remove
##ribe
UEFA
Bond
PUTRA
rescue
seized
##ipu
Jin
Thank
menyakit
dilindungi
Federation
pad
terendah
siblings
trigger
##rove
##lusion
southwestern
perkauman
Rahim
vs
##life
##enders
Lah
140
facility
Nazi
##tuhan
##ewas
penempatan
transition
pulled
silver
false
pimpinan
##erjakan
Ipoh
##assin
Venez
Katolik
##ahagikan
Pep
publicly
risks
Arabic
Wars
Syrian
seasons
##fitri
Thompson
Conference
Katakan
Ry
Orlando
instance
ko
mens
likes
##elan
edge
Guardian
map
##irements
vegan
Snow
pounds
Tam
##anned
mendengarnya
engineering
subsid
Brig
Masyarakat
savings
philosoph
mi
attitude
entit
franchise
studied
babak
##owski
patut
##AB
pakai
mengkritik
##aguan
runtuh
birthday
##untukkan
##olved
125
Nord
powers
##PD
##iration
factory
surprised
Albert
ganja
memudahkan
worker
Minnesota
##endam
Romney
Duke
carbon
ending
entering
Stein
paintings
entry
##ternal
setempat
literally
Bent
Rap
##enue
1961
suffering
mengajukan
##elawan
seberang
kejiranan
educational
##xit
##GI
intention
baseball
Peraturan
##rain
183
Term
Five
menyes
Malik
##usteru
lengan
##ugambar
falsafah
Hadi
producing
pangsapuri
Dj
##uting
complaints
peratusan
##umput
Price
Zaman
perlembagaan
temporary
humor
studying
skandal
##pet
vit
melawat
license
vess
##iral
Surat
acknowledged
##igres
continu
##otle
Ferr
Country
psikologi
##iak
##ctive
##erry
##su
illness
Sulaiman
Pasar
brown
##believ
##OV
mengawasi
covers
##itarian
##ampur
script
sedangkan
Orig
ships
##industr
tersebar
jurutera
Shin
menonjol
kinds
##iskinan
elemen
roles
berpeng
3D
Sean
alkohol
Kapal
bersatu
Emer
Aidilfitri
denda
terminal
Pengk
beban
membantah
hur
menara
Ars
konsisten
fiskal
phones
mendek
eksport
package
Pokok
Bang
monthly
pig
Austin
legend
Sever
Banj
disimpan
recover
Turkish
Potter
##ante
##athers
rujukan
pemaju
cream
bertajuk
requirements
##iere
Indiana
Rud
##apis
Selamat
Penins
institution
Pictures
northeast
responded
91
##ikopter
cents
dimaksud
Ramai
membiayai
baju
##uy
##26
##utin
guide
kejuaraan
menunggang
Halim
specifically
instruct
PL
Pengh
topi
Rantau
##ubal
Douglas
fiscal
melanjutkan
Fern
Jas
##lar
konvensyen
wing
unus
pencemaran
##enomena
vast
menya
pertubuhan
Zak
pengusaha
Sebahagian
missed
communication
##igner
krim
##juangkan
Sent
##onsin
perbahasan
PUTRAJAYA
raksasa
Gram
Islands
airs
wake
publish
##embung
1930
##cia
Michelle
tajam
##itra
hockey
##odes
moves
Ow
##roleum
##itis
Bangk
prohib
##wig
detail
##yakarta
##IG
penutup
offices
memerintahkan
expanded
keker
flying
EUR
bulu
##tri
neur
##ejala
Edm
##ungkapkan
resolve
##arganegara
Iron
aired
##alf
##pe
##care
##amping
mainly
##igresen
Fred
##isconsin
clothing
Rid
Dream
##tering
crack
agricultural
investigating
perancangan
##ayanya
punishment
diserang
vert
affairs
Wakil
WASH
tor
protests
membangunkan
##col
##mes
representing
niat
##riminasi
Forest
##illo
Coh
##pen
beer
Taj
asasi
honest
Esp
dicadangkan
closing
ATM
##IB
##onics
entirely
CP
mesra
etc
##mage
penyebaran
sorry
Cow
KDN
sam
akar
secondary
radikal
Mult
hangat
chose
negotiations
peta
constit
Gray
pengganti
Komp
moder
newly
relief
Ill
accord
##alahgunaan
##000
setiausaha
gabenor
Sign
taraf
storage
radar
##roc
imb
Yogyakarta
phase
mencuri
embr
Kepulauan
Christie
Bach
Rakan
ring
pereka
yoga
suspected
Bes
paip
##entak
Bandaraya
association
Oregon
adults
Line
Semenanjung
bijak
lemak
prospek
recognition
objects
##bes
Nigeria
berdepan
##upai
Ent
putus
kegunaan
pelatih
Brand
cheap
lie
Hashim
Bever
merek
##perial
enemy
mencatatkan
kejutan
WASHINGTON
pa
##imatkan
memasang
##jur
disaster
bateri
Dyn
corn
realized
##ells
discrim
SC
jalanan
Walker
strengthen
rar
Forum
relax
regulations
##impa
methods
Fi
CC
dosa
pover
Commissioner
##emban
transaksi
pembelajaran
jangkaan
nationwide
Ri
hors
maker
Penduduk
bukit
##acement
##eriff
Jelas
Zuck
kena
##igus
berkualiti
Senior
Crown
alongside
subsequ
Konservatif
menghargai
hakikat
bull
memetik
##emput
##ehat
dilarang
Harian
Wisconsin
Highway
Sheikh
fisher
##abb
karbon
##antinya
##ualian
increases
JAK
##aysia
sla
Story
##perimen
rosak
maintained
penangkapan
gear
penges
##ione
Kut
##cho
Travel
celebrate
perunding
Assistant
poverty
##ektor
renew
Building
teh
##inga
##BIH
opposite
roof
mengikat
ditempatkan
possibly
selection
##acted
Sekitar
Revolution
Qatar
scandal
investments
Beb
crop
##arma
##enberg
km2
EX
reference
smooth
Maklumat
kegembir
Lov
Siasatan
##aked
IV
integ
Lebuh
gift
##urnal
##rus
##ibatan
pemindahan
Libya
UNIC
Standard
remov
##deg
##ogram
dipimpin
drag
amid
statistik
Empayar
symptoms
mara
neither
intim
expansion
ME
Messenger
ads
pengangguran
menyakitkan
##aters
melamb
1952
Dead
threatened
bonus
bodoh
##rien
dispute
relationships
Kil
Sut
Banten
detained
Bron
berenang
##eher
meetings
hoping
perpustakaan
ternyata
expects
starred
orient
transpar
craft
kilometers
##asmikan
##anglima
Mall
ol
singkat
##erdasan
LEBIH
Lag
dimana
medal
nada
ocean
Swift
##onel
petrol
animasi
Hudson
Ebola
##san
1980s
Peris
Att
suddenly
reformasi
pm
centre
struck
Squ
Winter
Ain
rein
moments
tu
Hish
sets
transit
##auhkan
memalukan
Again
guests
##ivan
seluar
temperature
##rak
narrow
##ampshire
artificial
sekaligus
convention
##ycl
##ihad
Nag
daftar
mandat
passenger
Kejohanan
Kali
puk
Profes
pengundian
menjejaskan
##isir
stronger
Len
MORE
cari
territory
facts
Studios
sarjana
rej
Catholic
medicine
nations
micro
BR
dedicated
hung
hired
dianggarkan
Ehwal
sebesar
ditak
##emaah
bant
##rama
untuknya
##akui
leads
immigration
reputation
##gor
scul
Palm
##ewaskan
##uez
applied
flash
Benn
1958
penggambaran
headed
1990s
##ounded
graph
prominent
withdraw
##elut
shel
frag
terlepas
fab
participate
Hend
##ls
##kap
bersuara
writes
talked
purposes
escape
followers
continuing
shortly
Ga
sty
Simpang
kesejahter
letak
menetap
dimakan
##ographic
Tuanku
##oard
mustahil
##elbagai
##ules
##under
##ujung
Om
alamat
disusun
##ijrah
Kang
hoki
macam
alive
Brun
investigations
scheme
Hampshire
ketawa
##zal
##ahit
History
Lot
##arankan
Adv
Sev
Tro
electricity
computers
##unculan
##industrian
compris
##encan
ministers
cutting
##uncur
premier
mengundurkan
Bengkulu
##exp
confirm
afraid
improved
amend
featuring
sekerja
##agia
##oko
Death
terbabit
Smart
democracy
Gov
moon
architecture
tag
FORT
ultimately
grade
Jag
Kah
helic
visiting
scenes
dozen
menumpukan
championship
airline
digantikan
##empah
lautan
Baginda
Rodrig
hyp
shif
berkel
menyedihkan
refugees
Hand
keraguan
signif
Palestinian
Langkawi
##atasan
Pasangan
biji
hearts
Harun
personnel
##ege
adegan
anniversary
smartphone
disyaki
resort
AFC
Sach
Craig
mendahului
berjumpa
Hitachi
##icut
seronok
Burger
NATO
Cov
Permainan
##can
##ertaan
berpandu
Samb
kemanusiaan
representative
fram
GDP
##atim
##acaan
solutions
##anjutnya
Hitler
Jambi
##asts
mendarat
inher
monitoring
tonton
Exchange
Caesar
tewas
##90
Alas
Hun
##tle
##SE
sid
trillion
Saif
fold
Pierre
##ached
attending
roughly
pekan
Walter
kesejahteraan
skrip
Umno
cable
voted
Brexit
Simpson
argument
Sumatera
sind
perak
startup
menjimatkan
welcom
Teb
##uaskan
Versi
##ections
PAC
menjauhkan
gemar
##eback
argued
lamanya
##kar
Roberts
##OU
Bull
Place
AND
mendirikan
begun
motorcycle
yak
##bol
toler
Chamb
perdebatan
profil
viewers
regions
favour
girlfriend
stim
menyanyi
expenses
magic
Perubatan
sis
##iu
containing
Ale
lifestyle
Kand
berikan
##ardi
pencerob
arena
pembaharuan
Rubio
hunt
hancur
sedih
##ilikan
berhad
residential
CF
stone
Pitts
Denver
##standing
mahupun
graduat
Ster
##vereign
Kend
##alaysia
Euro
Hadiah
##xual
Grant
suspended
##uten
menyalahkan
kemiskinan
360
Forces
Anna
##asters
sending
##alai
terrorism
##LY
##aden
terbakar
walls
enable
##injau
DA
malaikat
Connecticut
pasca
teksi
emerged
rating
northwestern
Hunt
##lak
Bursa
penyalahgunaan
Const
##athon
Zahid
Ard
fraud
nick
Leban
##gage
Rohing
popularity
1955
recognize
mempelajari
jejak
##ehendaki
Barcel
Nurul
Mountain
kru
##dagangkan
ingatan
juruterbang
returning
gallery
Parker
##zens
jangkitan
MY
miliki
##acauan
##opol
profits
mog
chosen
Commer
pointed
dust
##amad
communications
List
mengus
Mok
ganas
kegembiraan
Kid
Maine
Arena
##OTO
Kansas
Nice
mistake
Store
Konvensyen
pets
##adak
Analy
dealing
indeks
segmen
##riers
##intai
Roger
##emikian
Fried
pemberita
mencecah
potentially
Kuantan
fasa
##don
##anjawan
divorce
paparan
mode
Jenner
diabet
memaklumkan
leher
Was
##uls
Perubahan
banking
##aintifik
Sepak
##ungkus
##Image
Ton
##onies
Iz
Sang
Image
##oro
promosi
performances
consequ
Lama
row
regularly
Fran
blow
threats
transportation
##iasi
Fit
pulangan
passing
##unes
##annels
historic
##asha
suspects
1941
fought
##SI
##EMBER
Ibn
Bed
cermin
memantau
keren
menyanyikan
Custom
isol
mengerjakan
Rohingya
extreme
succeeded
liquid
hek
jantina
##itahu
remind
developers
angry
HBO
baki
adjust
WireImage
Sara
kaun
##gender
##igur
sedemikian
##tivity
Karya
iOS
oldest
dipakai
Summer
Carlos
merampas
useful
entitled
portal
##ominium
Atas
discussions
Hope
tickets
controversy
##zing
Buck
abol
##ihatkan
Plat
menyatukan
tertutup
melayani
equival
bread
menggalakkan
sentenced
Jerry
Chev
Fle
cabang
Map
Barcelona
##organ
Adams
dinilai
granted
paun
##iew
Mut
Ub
consists
tes
##imau
##anggih
vulner
Lear
Palat
teras
basketball
Chang
dikur
promp
Bez
kitchen
##krit
Plaza
Primary
Money
anticip
diesel
##ivity
servants
mengecewakan
rh
excess
##engarkan
penyiasat
##elbagaian
bub
compreh
accompan
tsunami
##etin
##ovo
Pelajar
Fa
tort
##jub
Chile
Adalah
lect
NDP
cak
membintangi
Kuasa
motion
earthqu
Senarai
kejuruteraan
##ARA
##endaharaan
conven
bumb
##erberg
Berapa
charity
##timore
dagang
harganya
violent
kong
##zan
welcome
yards
##24
membebaskan
Veri
library
##uin
##CE
Pemuda
chef
roads
defined
genus
##inating
PET
tangk
##awks
destinasi
##orak
kejam
parking
saman
##eberang
Hawaii
##abama
prais
commod
benci
convinc
joining
upper
Khal
polls
##eo
tied
disenaraikan
dimaksudkan
UNICEF
disag
wajib
##eki
saudaranya
gross
Laluan
Resid
Territory
melewati
ketegangan
##iji
menggerakkan
owns
##uela
stake
##KAN
melompat
##iture
##engkel
manifesto
Intel
FORTUNE
usual
Cub
tact
Diper
kekasih
client
batas
Hub
penalty
Lop
Peace
employers
signifikan
Sungguh
##uv
kepadamu
Wartawan
input
counsel
backed
pages
Pelanc
absolutely
##etary
##bank
Online
akhirat
Pelajaran
Bart
##iciency
maya
Armen
##enan
Latitude
investigate
liked
valid
##yukur
##bull
##adinya
managers
combat
Gabungan
Petaling
horse
101
Pyren
Dod
kebajikan
Buat
cats
Electric
reaching
acquisition
##ration
##icking
Does
##face
##iong
stood
##atherine
##Tok
Please
##agne
Pyrenees
kelapa
improving
##km
orbit
drinking
atmosphere
Bandung
wa
occasion
ditugaskan
##urniakan
Bolehkah
gadai
##indari
Latitud
##MS
Sukar
sang
piaw
##iaran
##liver
poet
##ser
##ondok
dapati
weren
warganegara
##iac
##phy
1956
Kub
outs
repeatedly
tamp
baiknya
Lembah
vegetables
junior
##35
##ads
dibangunkan
Normandie
exceed
helikopter
dikehendaki
Persidangan
schedule
selia
Watson
tested
##eku
agents
questioned
Joy
Nether
mengabaikan
Third
bulanan
saintifik
string
berpendapatan
targeted
nominated
##amic
##ensif
digelar
##point
Non
Ketiga
##chen
Balai
Antonio
Mana
rat
##inea
##yu
##ertakan
satell
menanggung
##assador
decre
kuil
terpisah
TIME
jag
##isha
Order
gejala
##leans
peti
Gallery
mukim
tail
tea
Make
gap
##olid
stead
menjanjikan
plain
berlatih
Kum
##pread
sebagian
Longitud
Rhineland
Professor
rumput
shirt
Bernard
Barbara
##orks
depending
diteruskan
instrument
berhadapan
fate
kelulusan
siber
Tribune
Swiss
Hell
exciting
menganggarkan
minoriti
datuk
cin
canggih
Pengurus
sixth
Madison
pahl
kepimpinan
1942
penggabungan
##usalem
merawat
##aharui
Gay
1953
radical
Kampong
Rice
HD
##rest
Pertempuran
lahan
penembakan
Emb
##etti
Nevada
pahlawan
Bass
Suz
vocal
##mur
##atnya
##orb
##eveloper
steel
potret
TikTok
tum
##ubled
##tified
difahami
##antang
Teh
diabetes
##ambu
digit
findings
wides
discount
provinc
remark
melemparkan
pengacara
terkait
##rupted
Herb
kain
##agangan
sukarelawan
mengek
1000
Palatinate
Tate
Tax
camer
spoken
Hamas
sihir
##PA
##empor
pendirian
launching
solve
##engaran
HS
welfare
perbankan
##waktu
puisi
##phones
##imaan
decor
Chipotle
Cour
serves
drawing
frequently
Awal
##isar
bersamaan
##enggelam
Kolej
Ratu
Math
gym
##avan
##48
membel
pistol
##bur
pasta
Bung
seumur
unity
hospitals
SpaceX
##ouri
setinggi
##umbangkan
##ilikinya
menyeluruh
Nok
chocolate
Alliance
Yank
unto
benua
##umpaan
##otted
buyers
Aplikasi
fro
menganjurkan
##ipe
Television
genetik
##oom
enth
mencalonkan
nampak
trained
Salv
Chong
##idae
Hann
##isit
persaraan
pasukannya
komod
immigrants
kebiasaan
fake
jack
##Ex
MTV
Ventures
Melalui
memerhatikan
rarely
rely
##iplin
dibatalkan
pengecualian
raw
grav
segment
Barry
satelit
ungk
bersyukur
acceler
##abilan
dimuat
childhood
typical
Mongol
gard
raid
##ezakan
Kle
##reis
baka
capture
menciptakan
merch
intent
dicipta
Mesyuarat
pilgrim
AG
spin
mad
##ajang
burger
circumst
disukai
colleagues
channels
grass
thin
salary
Seremban
claiming
sewaktu
##encia
judul
celebration
experiences
Memang
AR
##agama
kekacauan
Qa
Alt
neck
pemp
##uangkan
##eley
##egarkan
##astik
terkena
Johnny
properties
Denn
banned
tik
walikota
Secret
struggling
##ulty
discovery
widespread
carian
##sewhere
mendekati
Engine
tangannya
northeastern
Baltimore
sahabat
Yun
nin
##cky
listening
Lock
Othman
Sales
berehat
everybody
##whel
mengesyorkan
rutin
memperhatikan
Target
puts
confront
Studio
picked
dates
involves
goreng
##usc
Kert
yakni
##pi
##unkan
deeply
ranked
Netherlands
superv
burden
##bean
detailed
ingk
suburb
affordable
ganj
Diam
Know
Yan
sastera
##ll
resident
HP
riding
Ish
conqu
terdedah
marked
fiction
von
##etta
##ukuhkan
Start
Which
##likely
##tikal
effectively
dokumentari
##liest
Viv
pendakwa
fasc
Orleans
##idays
musc
sensitive
setara
hujah
Nelson
Seoul
cruc
1954
##asiswa
wins
resolution
submitted
permission
##eritaan
Beh
broker
Marin
auto
##sky
Rain
Mexican
influenced
Gulf
Ward
cigar
obtain
##berry
anywhere
petugas
##ulangi
##angkal
personality
defeated
##reens
Subang
tourist
##TH
melantik
Lynch
universities
tomato
Finland
Agriculture
1949
fikirkan
drawn
damaged
Mahmud
sepasukan
crimes
resolved
DAN
pit
Regional
tangkapan
Motors
Pencegahan
##izi
foundation
Saifuddin
Hamzah
territ
unemployment
##bul
readers
##anyian
Mohammed
journalist
Fun
Yu
MIT
Vo
involvement
shocked
Eli
##itable
Alice
traders
updated
heavily
1970s
tiang
menemukan
Eag
Living
##reams
##lying
##ovic
##EST
hektar
Final
##ugs
dikembangkan
pesan
fixed
MIC
penglihatan
yuran
melatih
Vinc
hormat
##tiviti
McL
lowest
Whether
emerging
Dunkin
pengendali
manip
dijelaskan
##ingkirkan
rayuan
ownership
##respond
miliar
##itary
Brady
Tem
##enson
Campbell
##zlee
unlikely
dibaca
upcoming
Samu
pollution
distributed
Prom
Consumer
protesters
penyertaan
kematiannya
##ahulunya
Levi
thick
##rett
##emet
##jubkan
Madrid
bass
##father
##inity
##arge
pleas
Dian
lag
##uins
menyal
menewaskan
sevent
peac
tersendiri
preserv
avo
Bureau
SD
fee
anger
ah
lies
##laim
##din
##igo
##ateral
Kings
Kart
sempat
traveling
Prize
gathered
purchased
amanah
##37
menerapkan
Akibat
wonderful
SW
rup
##amik
reviews
Komunikasi
sop
arkitek
Mick
rig
knowing
okay
rubber
##awati
sulung
Jama
blind
memecahkan
stable
cawangan
sebut
##loyed
Freder
Buffett
Kash
##asak
depends
Holy
Fah
Rab
strange
Peri
Riz
##bus
##eluk
collected
melampaui
Memp
Unfortunately
mineral
episodes
stro
kedatangan
nominee
##rative
Ern
##argets
eligible
##emporari
menginginkan
Gerakan
##alim
uniform
shots
significantly
##aken
addressed
Contohnya
Full
Kay
deny
rahmat
numerous
guest
celebrated
documentary
keenam
Calg
Cel
##kop
demands
hunting
Sull
padanya
##ilis
dikesan
reducing
Serangan
ugama
Kass
##ogether
kesayangan
supplies
Blu
Neil
BA
caut
##upu
Marne
interior
jurugambar
MEN
##ener
penya
graduate
landscape
rant
synd
Perhaps
behalf
##gment
##unge
titles
transferred
##eton
##trem
disebutkan
Yusuf
##95
cuis
comic
Desa
Katakanlah
Stanford
170
outbreak
##ahabatan
##adanan
shaped
Proton
Mek
RI
Berc
Taw
kecerdasan
Brothers
patri
contemporary
equivalent
##entangkan
registration
Kentu
##ekapan
UC
##ordinary
Koch
RU
##ework
##arto
##oshi
comprom
knock
Menc
luka
Thr
pentingnya
aside
##ighth
terakhirnya
Medan
perspektif
Cry
Fact
dump
covering
Beverly
##rection
##eston
Indeks
Parit
prize
##teria
facilit
perut
##arno
unusual
perkak
necessarily
derived
Vel
##asilan
masak
Azhar
aged
Hyd
pump
##ebody
Rus
sif
hiasan
##ION
Alabama
militan
merokok
demonstrasi
##erie
everywhere
virtual
accompanied
opt
##rete
1946
##22
##apes
mengad
##iapan
staf
##impulan
quoted
automot
peperangan
Kuching
sia
patah
transgender
Dark
kne
##omon
berpuas
rehat
spokeswoman
Bias
terikat
mahir
ECRL
pupils
explan
flowers
Syariah
bonds
Sak
##die
##aryanya
wayar
Housing
rokok
tiny
Alib
encouraged
politician
lebuh
Kok
aims
Kazakh
##asia
##angkiti
sovereign
Small
pushed
cust
##cent
ungg
saved
batang
REUT
Justeru
sauce
merakam
Chick
Kempen
Pow
larian
##adahal
##elisihan
bills
Jacob
Nokia
cabinet
##igi
membelanjakan
pelantikan
Fisher
om
sons
##icu
##entif
Mitchell
na
butter
berlanjutan
referring
Setar
Canadians
loves
getah
sight
fewer
accordance
Qaeda
weekly
Abidin
RM6
Currently
designer
slot
Resp
fi
ditandatangani
resemb
1960s
commerce
Jessica
Case
beraksi
Ther
##ashed
Kamp
Kentucky
Advis
##weight
Merc
speaks
Marine
perspective
sentiment
hosted
berperang
ble
##encian
##quat
##abalu
berhasil
##mers
##embahkan
Industrial
illustr
Further
LP
targets
Universal
wond
literature
Franklin
principles
Verizon
##bro
Siam
prepare
birds
##fiz
##irman
pengajaran
Policy
pencerobohan
hect
Baghd
Kind
Nancy
##anne
exclusive
Bangkok
chat
legenda
financing
khalayak
##zy
Maszlee
bedrooms
Dew
##ainty
ingredients
empty
TV3
kiamat
Pittsburgh
##apers
sensitif
##juana
ANG
Crim
Utusan
##ocratic
berpeluang
appl
sembah
Drive
gamb
##abah
perbandingan
Mediter
perjumpaan
menakjubkan
Multimedia
CS
relevan
Kehakiman
Calgary
dur
vaksin
dikumpulkan
bankrupt
lupa
merebut
dipec
Jet
kepelbagaian
finals
hobi
yard
appe
contribute
Gross
indigenous
penulisan
REUTERS
mechanism
walked
Zuckerberg
races
##ateful
Walt
##ippi
menyebutnya
pemasangan
##impah
ON
ditangguhkan
Shir
parah
weapon
ties
disesuaikan
berpengaruh
marry
argue
##ingguan
technologies
Evans
Vlad
Murphy
Carib
pengik
destination
##apse
Berh
Editor
Tob
memburu
Soft
salt
overwhel
urus
Nampaknya
Distr
formation
diad
pengin
obj
premis
menganggapnya
DJ
trick
clock
JPJ
##rul
sir
careful
##emerl
memfokuskan
##antis
Works
processing
Longitude
vend
##erk
depth
obvious
berperanan
mac
bawang
forests
##ailing
relatives
Flight
##rass
##oria
enjoyed
berlakon
advised
Walmart
rugi
Movie
##iences
pemberi
Abr
segalanya
Autom
restrictions
##tier
Ming
terganggu
Cit
##ihatin
Kerry
Patriots
jury
Jenayah
dishes
forever
Puerto
sesudah
angkatan
basically
##elesetan
battery
judges
borders
##anton
dicat
ingkar
##apang
repair
files
buried
Saddiq
ham
bahu
diperl
##phant
Revolusi
Alaska
Benj
kabinet
Ferg
meg
panc
Pesuruhjaya
Several
##eper
##ombak
menghadap
Highlands
journalists
ranks
##asso
baris
enthusi
pindah
bench
equipped
mengup
mengukur
menjamin
##urahan
##mph
halangan
sacrif
##itol
##venues
revolusi
View
mood
Shel
berlakunya
##ranean
Kinabalu
Cohen
aggressive
terrible
Treasury
##enne
##anggot
domain
mengut
supports
##oping
signal
kompetitif
Panjang
offensive
viewed
loud
bulat
##zes
##uties
phenomen
distingu
khidmat
proven
operator
feelings
##ertainty
menyerupai
keeps
atasnya
Lane
##utical
##ugerahkan
proof
peak
RM10
lirik
##27
Theater
Branch
propag
##KK
directors
Memorial
constantly
landing
PPBM
##iveness
machines
Ian
mic
##TT
Tree
Tiger
meletup
impressive
nyanyian
Age
##inations
penyebab
teleph
Corb
garam
##esting
##ibilities
memperjuangkan
##epikan
pengakuan
pir
##ulations
industries
Kod
##person
Rogers
Joko
Gabri
##empurnakan
terapi
versions
dominated
Roth
resulting
Dean
toll
sampel
Kredit
##afa
proved
##ekolah
Front
##atio
##28
##apolis
breakfast
definition
editorial
Aj
Without
challenging
nad
alert
enak
consumption
smoke
Verm
##ilia
kemunculan
##embara
1947
Jami
alt
Resources
resigned
##amo
memusnahkan
diseases
ranking
tertua
##ilapan
Dragon
##ughters
tasik
Lol
##eimbangan
##iser
Poll
##imir
disiasat
southeast
Delhi
weakness
Alibaba
Nilai
diperhatikan
Library
sectors
padat
McM
Louisiana
cac
##onnya
Formula
##tuduhan
activists
##ogne
dikh
regime
Prior
meal
Pradesh
centuries
respectively
surrounded
Beth
sedap
##gio
Pakar
##uling
##leton
dor
didengar
Room
Irish
Harrison
vegetarian
Lan
MO
contribution
cetak
##ache
1939
arrival
cameras
Robinson
Rashid
exemp
Trad
copy
NSW
Guinea
lunch
Penulis
Corruption
##hips
flex
beragama
contained
Tommy
describe
cycle
dozens
##ressed
compensation
belia
spect
tat
menghapuskan
Orange
pengatur
##rison
Tenness
##abaya
##ellec
1Malaysia
##tin
##ushi
Lives
Wik
selaku
##apus
engaged
##tial
##ersh
Laura
poster
blame
rasanya
paw
Turnbull
makers
promises
MPs
cucu
ditarik
##assy
##LAH
Chung
telinga
formerly
Celeb
##child
Rams
##impangan
finds
roket
jumlahnya
feedback
incent
Alberta
Jeremy
cec
crown
anymore
pesisir
cm
wain
Beaut
penerimaan
survive
circumstances
Kanan
mant
##NS
remote
Jalil
soph
asap
stages
Note
menangguhkan
berunding
##rio
acid
techniques
bual
##iley
1944
Tibet
gains
lens
membicarakan
kontr
##mel
pelaku
dikuasai
ng
Seine
attempts
Nasir
##osl
Ghaz
palace
##sters
vacation
harder
mo
addressing
damai
##ounced
Yahya
Sachs
OS
FR
Come
kg
##isahan
##ulating
beef
##ohong
pembebasan
Samad
furn
##ettes
excellent
##36
therap
butang
reporter
Conservative
Biden
ubatan
melengkapkan
##araj
preparing
Billy
##imah
Hj
kitaran
TE
Od
senyap
affili
##expected
diajukan
elev
Widodo
Maksud
menjumpai
##uffy
##arity
principal
Asked
kebangkitan
writers
dos
keser
Shaw
dihukum
sepenuh
pron
Rena
Until
GA
welcomed
incorpor
##endalian
comprehensive
##umed
mengulangi
Marie
SO
constitution
shoes
opens
Cote
grafik
##jemahkan
anime
Oklah
Emperor
Lalu
belanja
Tennessee
pregnant
Venezuela
##utut
locals
gelanggang
diwak
boom
minority
suk
islands
berdarah
installed
Tabung
pertiga
acted
pace
Finally
keseimbangan
botol
Profesor
sculpt
shops
manner
##cedes
##rose
improv
bumbung
##ulik
Sharif
pinggang
Var
fotografi
Cin
##NC
Shams
solat
Benjamin
Based
karyanya
##manuel
Perumahan
Guy
Mom
##je
##fare
ditangani
Leader
menyerah
meskipun
Ust
kebencian
penggal
Girls
kekerasan
Bund
fur
vokal
Brid
##tenance
Expl
Usaha
tower
##yard
##uarakan
didirikan
Et
##nia
dibahagikan
generated
cuisine
disappointed
mikro
BB
menyifatkan
limits
Hur
Turut
berpengalaman
santai
Galeri
ages
kesilapan
Datin
Norman
efficient
gil
##orbankan
timbalan
blocks
dihormati
Keith
Oklahoma
operates
Article
bawa
exposure
nikmat
##ebelah
Ach
##uw
Budget
hart
##100
menjalin
platforms
Metropolitan
Demokratik
Studies
pemilih
describes
reputasi
fears
##iku
adap
##odi
Champ
select
strict
Diamond
chron
Cir
Horn
##lining
biologi
Cukup
Fitz
legit
KPK
Jel
bran
competing
Artikel
Karl
##enge
Hidup
Muar
bernasib
pock
ikut
##issippi
HIV
pid
prosper
##ulous
kebetulan
kepingan
Keadaan
casual
kapasiti
Tir
pertuduhan
Pengg
##Bay
mengungkapkan
failing
##rasah
diskriminasi
sanctions
Maya
##born
cultiv
insisted
kembar
footballer
primarily
Rachel
riv
##ns
##99
##antauan
Surabaya
commander
450
Ramli
buletin
pautan
expanding
correspond
fallen
Gon
Oliver
concluded
fled
bol
pour
dibantu
Nan
kekec
penjual
carta
val
##orough
pampasan
##rab
menanam
Fel
Rat
##etika
##ecks
Yassin
prihatin
operated
Seberang
pew
##earing
Mediterranean
##adow
convent
personally
update
##pro
##aret
manufacturers
Biro
Carn
##eritah
investigators
Awak
categories
Holland
tut
##ipi
kehendak
swimming
Jong
Rej
daughters
Qur
tanks
##achelor
react
##ighters
menghindari
##asari
menjerit
suffer
comparis
elsewhere
##imi
Caribbean
##ados
campaigns
introduction
developer
membuatkan
##uson
##inisi
crude
strongly
baths
Ci
##enburg
menangg
pembunuh
prayers
983
Daftar
Mujah
Sz
renang
##iraan
Saat
Moses
Missouri
clubs
Ayer
kentang
dikongsi
memenangkan
unve
keset
desper
kartun
Lopez
##etus
mengimb
memperc
photographs
kakak
dece
Pasti
##isbah
jutawan
Hum
twe
Hafiz
trauma
dikurangkan
##DI
exports
tertarik
sambungan
diversity
dilupakan
settled
Abraham
##iker
drinks
Mississippi
Cav
##urawat
teruja
ESP
Sebanyak
##aceutical
retailers
Bulg
Seven
complicated
saving
amnya
asset
Gajah
##lay
default
##idel
FDA
lock
downtown
##eraian
memberitah
##enderungan
##ART
Va
##kov
Produk
TK
##osity
publisher
Lenn
Nix
Rangkaian
kapan
##YA
Hispan
terjun
paus
cekap
Nied
##ucuk
ajaran
Charlotte
berpisah
terperangkap
##mir
menyembunyikan
Kaw
Vari
##55
##oner
MU
Sib
laid
lumba
crucial
##awk
Mengulas
activist
Tuhanmu
dong
mengusahakan
endors
##AMA
Haha
kitab
##iao
pushing
Alphabet
Side
##ogue
investigated
Kazakhstan
Page
tersembunyi
salad
Maharaja
##armaceutical
Mey
anth
Tamb
nurs
penyiasatan
elit
marks
Aq
##orig
Pok
pilih
visi
reloc
syarikatnya
seksa
##aftarkan
##ampton
disemb
consp
valuable
entrepreneur
Sari
selalunya
Valent
cerah
Menara
celebrity
otot
boot
collapse
unclear
Photos
Gas
Nav
gampong
##LS
agriculture
dorongan
Investment
romantic
Rodriguez
Wals
##tur
dihentikan
Pope
mempering
digantung
ditukar
superm
zalim
Belia
publishing
Pir
soccer
racing
Keg
dilakukannya
shareholders
Kak
comed
ular
slowly
KFC
##case
##uriti
Buzz
Sey
##etapan
##ekutu
Maryland
spiritual
Tuj
diasaskan
inch
##iler
totally
dilanda
physic
Sport
##ifah
attractive
Temple
Gur
Things
reign
beroleh
mountains
tebal
Armenia
##edo
##ireless
ruangan
terbentuk
districts
pembekal
Chand
cha
earthquake
Action
fenomena
##import
fishermen
##erly
##ebihnya
obviously
caption
Trav
Utah
Collins
##minton
grab
persahabatan
anggur
bersenam
EM
competitors
Amanah
dramatik
nerv
##mpu
resume
penjen
##tify
Carey
tulisnya
reveal
maupun
Uthman
##isation
178
newslet
##enh
Brooks
##IH
mendatang
pertimbangan
Blake
Baj
Izz
##emi
##afik
signing
Bezos
Jews
disel
ela
##rihat
Knight
sifar
henti
pemberontakan
volunte
Ori
undian
digabungkan
ikatan
##fera
explo
Zakir
Anc
answers
sengit
KU
Veter
##mate
##esy
Future
##acco
##tiff
ketahui
strip
Adib
Komuniti
menipu
focusing
Telegraph
KRI
waves
boyfriend
marijuana
##maker
dipengaruhi
promoting
Control
bicara
cuma
punya
sivil
anggap
contracts
regardless
##pin
Staff
universal
enhance
produces
ADUN
SUV
philosophy
##ebuah
menyewa
pembentukan
shouldn
menyimpulkan
Vincent
haha
fantasi
duit
##dan
allies
employed
Moto
bahagia
##lington
examples
presc
Boys
membahayakan
##andez
##inggung
residence
devast
pisau
Fab
##iph
sekeliling
Biasanya
Walikota
insentif
750
Yaman
lurus
albums
contohnya
padi
citizen
##inh
permit
resulted
mempersoalkan
##wealth
Brazilian
AW
Hubungan
Muara
Tit
dikemas
##ELES
Magn
##21
meneroka
Safety
pawagam
DPR
baca
##illance
Mail
Paus
Superintend
investing
thoughts
visa
mengelak
Everyone
Search
##ktop
Publ
mentor
Winn
##htar
##ikaian
##akitan
kontemporari
##unning
##abot
Due
surr
extraordinary
kesukaran
Syurga
Paling
Panglima
##pass
##ahas
##eknologi
Sullivan
Gran
##GP
spekulasi
kasus
ordinary
Durian
Cheng
sarapan
tolak
untung
mile
##eksual
controls
terkawal
principle
Discord
Adnan
Born
displ
##encil
Terbuka
mobil
mengisytiharkan
##ousin
##tuduh
sukarela
menggel
kontraktor
Saw
protes
##ujudan
##umph
Forbes
##dale
pohon
Mercedes
breach
kerjanya
MD
Yemen
##after
Glass
mainan
Peters
Birds
##etown
doors
Element
Hajj
##anded
1900
Vladimir
plate
penggug
Gua
Exper
explosion
cyber
Sesi
siasat
##quiry
fundamental
telec
Mission
##wick
fert
mengorbankan
tragedi
Marshall
Meskipun
##eville
neutral
Pameran
Baby
survived
Hem
firef
ekar
Sterling
Ferguson
##estic
sentimen
Kepala
berdaftar
##aburkan
custody
##py
mining
myth
diperdagangkan
##eritage
Schw
recommended
wars
##38
teratur
Penggunaan
etika
substanti
##ickson
Hasilnya
AAPL
dek
yen
##ekodkan
Jung
Todd
Gir
Mario
glob
Cip
##ichi
incidents
JPM
##irm
##antungan
dibincangkan
Credit
ease
server
penglibatan
memberitahunya
Hav
Loc
jadikan
Jeffrey
kariernya
slavery
##eted
##ariat
pelukis
properly
##enyum
occupied
##boh
Pengawal
berkuat
berkala
sehingg
dub
oks
pemahaman
serp
highway
keadaannya
associate
relative
Century
##irts
Captain
##elint
beloved
makna
Spot
Gem
menggesa
abandoned
Chem
kenal
Matter
qualified
Heritage
##irin
Penasihat
generate
Shafie
Pus
improvement
tragedy
Think
##rix
integrity
lucky
##rell
merag
##onymous
Sad
##vy
Johan
participation
copies
incredible
tongk
##ailkan
komited
Capitol
Tambahan
southwest
Taip
reh
witnesses
Dapatkan
##ajakan
mengecam
Faizal
Tu
somebody
##Station
memancing
##stal
recession
fighter
##OND
Artis
Foods
authors
##ystem
dikemukakan
occupation
Nixon
Lanka
##ewhat
KK
LOS
bib
gaun
vary
Nasd
Warna
pure
menghal
tersenyum
heading
marit
Woods
Buffalo
niaga
##igration
influential
cakera
Swasta
tender
keluaran
Arms
berlalu
Gener
tren
visible
bertulis
Sudan
burning
ketidakp
Betul
SN
##aware
asid
tonnes
dianjurkan
##umes
Stars
temple
sempit
Epis
rapidly
unexpected
dramatic
bayar
##unduk
Index
mendapatkannya
Acara
surrender
sensor
grounds
lyr
##lane
gotten
mundur
chart
membership
RCMP
##LO
##bie
everyday
PlayStation
##eties
##utaan
miliknya
convicted
liab
intellec
detik
extend
yeah
Baghdad
berkem
##plex
automatically
papers
Rangers
pukulan
Jamie
Pied
Alfred
matang
photography
Lion
Cloud
Sax
ansur
sya
##HS
frame
Demi
revel
##IDS
Bot
producers
##45
berbincang
cow
luaran
##EG
buk
GOO
Jerusalem
revenues
##ishi
Blair
retro
pencegahan
Zam
##opsi
persendirian
empire
publication
Buy
kron
mere
Catatan
Pelabuhan
branches
Walsh
kesimpulan
TMZ
##ungutan
##intis
inti
Anjing
hasrat
intelek
surge
estimate
Kirk
Rendah
ver
penawaran
trends
extent
JOH
YANG
ni
nit
sentuhan
##incin
functions
Paya
##umat
sepasang
Kelas
ubah
staying
Ot
##alais
BO
eBay
kura
##eni
municipal
##ectives
villagers
menghidap
luc
kepalanya
NST
rand
Mahkota
Wells
Laman
disiplin
##alizing
Culture
Juan
hiring
##ifli
pret
kelabu
WHO
outd
generations
Grace
cecair
Kelab
##vensional
##eby
##uctive
175
diraja
Setakat
TER
dirawat
Lebanon
##ogol
pencen
Lie
auction
##ehr
Mack
pelindung
cerd
##writer
sinar
conscious
essentially
##onya
arrive
bersenang
Block
Scient
Saudara
Organisasi
memeluk
##ishop
donations
earliest
Official
collaps
Foster
Ral
##ampungan
calm
##usin
memuaskan
Chi
Kecamatan
manual
##addy
expression
##intendo
Talk
hub
seed
##icia
penolakan
Planet
Buk
conce
fairly
Tujuan
##umian
sekitarnya
##ATU
mengalihkan
##KS
thou
clarif
Near
##eway
BNM
Lebuhraya
tangki
##olen
##ecti
Wayne
Sekurang
stuck
consisting
dijanjikan
##hur
##ekomunikasi
initiatives
assigned
sufficient
##rihatinan
captain
posts
stayed
DO
clash
True
painted
diwakili
cake
pill
tracks
##low
##oven
nafas
pink
Check
intense
Merdeka
consistent
Gat
cited
persepsi
Holmes
hidden
protot
Ui
detect
memperlihatkan
windows
rit
zakat
##rem
alarm
rejim
membesar
jelasnya
brut
introduce
TI
dihid
bike
hamil
##asalah
voc
##othing
Setia
CIA
Lux
memilikinya
allocation
mendukung
recalled
##elintir
hide
##uburan
disambut
dibuang
##tensive
Reporter
##conn
rencana
dikawal
##rys
Opera
vitamin
Sound
##idupan
##tua
##othy
somewhat
1951
mekanisme
Pentagon
Buddh
BEL
Happy
Rot
##vas
Chase
Gamb
biaya
##uits
##erai
exclud
Petron
Mother
Yas
##position
Alexand
pengambilalihan
Qual
buta
oblig
statistics
absence
jew
pujian
##ekanan
##abut
Kehidupan
##ebu
Dani
##inju
lights
preparation
perundingan
pursue
pemilikan
Sox
surprising
Perbendaharaan
KDNK
##iktirafan
keses
hardware
encoun
Delta
Nine
##iva
Indigenous
McCar
##erif
Equ
##uccess
reforms
delegates
derm
pindaan
##gie
##eger
reduction
yaitu
Kedai
Egyptian
Dz
Tambah
diakui
kecantikan
finger
jua
hala
sesebuah
tone
##EA
##ovation
FedEx
ANGELES
##rill
legacy
Bobby
horror
PEN
Uz
##TER
Sheriff
massa
Samuel
penguat
Proses
terlihat
pleased
komoditi
Bros
##nity
phenomenon
##entingkan
pengesahan
vulnerable
5G
lift
2021
propaganda
##urai
##aved
carrier
Politik
Bear
soil
Kemajuan
destruction
rampasan
##abuk
exists
##others
kesakitan
phr
RM7
Istilah
newsletter
Dickson
##ometer
peranannya
Huss
Cox
Timor
kubu
Tawau
Sham
interviews
Wallace
##vo
Bra
Popular
Elli
Integr
Dong
natur
KA
pegangan
mingguan
whe
sulit
external
classified
menemb
Danny
revol
Kenya
Tourism
genius
smoking
capabilities
Fast
Tag
dagangan
selera
layanan
discover
uang
berpaling
heavens
FO
Pam
jaga
Lautan
kesus
Design
dipenj
##athy
UiTM
Mata
Rak
hole
vib
Clay
taat
Ais
Kadar
##bal
##bors
##ortion
operators
traded
Fau
##hop
defisit
skept
testim
Pesawat
hantu
##gian
##unaikan
peman
memecah
counts
skim
condem
portrait
##xiety
##ekul
Dylan
UA
asks
consecutive
lambat
klip
sustainable
Fifth
bercita
footage
baginya
praised
Azman
constant
gent
tox
Iss
dipaksa
Gag
enab
Stev
Warisan
Xbox
cetakan
Rav
terpencil
choices
KO
Buddha
Suci
##rets
##aching
fitnah
Tong
lan
tembak
##aratan
##lek
subur
rapper
discrimination
Presidential
grid
disturb
Banks
membangkitkan
##ellor
transactions
Linda
Newton
harinya
##GM
dijatuhkan
dirujuk
airlines
maintenance
Rescue
roh
##kel
restore
##law
Movement
invasion
courses
ballot
Peninsula
rear
components
berukuran
mementingkan
serantau
##angsar
Suatu
##rate
kemelesetan
insult
organik
ine
berpunca
provision
##enggaraan
Kent
Michel
Faz
##ariff
arang
dipotong
Linked
##ubern
105
GPS
Unlike
consequences
perkakasan
##ungkusan
explanation
diatur
##pay
##emangnya
##lett
Bris
developments
Single
situations
Bercakap
Jawi
selagi
ourselves
defending
youngest
Headquarters
component
Burg
Pek
Very
sumpah
provider
silent
Marcus
bing
tang
announce
gathering
Systems
Giants
penari
Fla
ibn
fatal
Hockey
Kamu
##23
Peru
kecenderungan
Marco
berputar
Enam
defensive
subjects
licens
##erosotan
Creat
##bel
##GE
##ANU
mortgage
seventh
##hum
##isd
##estion
115
Amster
##heimer
breath
drew
outcome
movements
Schles
deliber
Terdahulu
ratio
Syah
Julia
reasonable
OP
bron
Intan
Komunis
graduates
ups
Mind
bands
tambang
##mons
##essa
pemakan
Jaafar
flour
jumped
klinik
unw
click
##quez
sampingan
angkat
kilogram
subsidiary
constituency
Ji
##auer
dijangkakan
Nicholas
##van
##ilin
##irinya
##loaded
ESPN
audi
Shi
##emberg
blast
strategies
memelihara
eksperimen
buahan
Parsi
Securities
algor
legs
forgot
##eriksaan
##agih
guarantee
telephone
Barn
kenangan
Exco
CON
ditanam
Karen
pejabatnya
Luke
##ungs
falls
lazim
tunggu
##giving
menyiapkan
brow
##reement
##ipedia
##ancer
##oux
##fiah
panch
Salam
tidaklah
kecekapan
broader
##rings
imposed
dipegang
Urban
##aufan
tamu
##PTN
Mons
##dal
##arin
Anim
implic
businessman
cel
chap
biot
inches
persiapan
Semeny
##endi
perpecahan
##arinya
kuf
##gate
Teater
premiere
##VER
##andangkan
perceraian
pengaturc
Karang
membimbangkan
Cho
Ark
##ANT
Julian
Semenyih
bangs
##empuh
pandai
Got
Mort
Nova
accommodate
Xi
Penganalisis
Cyber
##isu
Soul
hem
##urni
##idden
hike
pengedaran
Perwakilan
turb
inh
evacu
summit
Sesetengah
diuji
##inery
Rasuah
switch
##encer
novels
Bomba
separat
flower
##alke
menelan
Elementary
berurusan
mengamalkan
konvensional
fighters
JB
##isse
smugg
requests
Led
##front
diram
ink
button
Core
##ingkai
sombong
##ulen
fruits
cawan
##eous
persu
embar
temperatures
Marvel
Deep
innoc
Nashville
Bebas
satellite
tips
##anbul
##oric
beratus
##arten
Garcia
Amsterdam
##sch
prosecution
breast
tembok
Eff
Armed
folk
panchayat
Diana
offense
Technologies
Bun
gif
rantaian
Mujahid
berbakat
achievement
##issance
handling
##trong
Iceland
rupa
Manila
BMW
Duch
grateful
Labuan
masalahnya
Soph
dada
##alion
##angku
informasi
rivals
weird
jin
Valencia
statu
menyetujui
Linds
kemur
carefully
animated
portion
hell
guns
fantasy
Magazine
Rais
programming
Reid
dipertimbangkan
Ampang
Fant
Gore
pertikaian
mengupah
Lok
unlike
Others
Steel
Isaac
relatif
jururawat
maintaining
promoted
Friends
Given
joy
##oso
stability
disiapkan
pelan
ditujukan
musicians
Ukrain
Vienna
Perpustakaan
Dennis
Comment
PTPTN
Istanbul
Champions
penyamp
dipamerkan
Kapten
fleet
Kajang
rivers
perselisihan
Karim
Review
surveillance
Pertunjukan
photographer
##osaur
dibawah
hire
##ikkan
terte
selanjutnya
speaker
galanya
bangkit
caj
Ladang
Patt
##apusan
##baugh
Could
pendakwaan
Johari
courts
##elilingi
##rage
##orious
pengedar
bars
Ivory
hantaran
##bl
##ulitan
##okol
##empur
##ommun
##opia
sijil
Allahyar
memberinya
Kenyataan
tebing
Bapa
Sind
constitutional
##oj
##egar
groc
perpaduan
canceled
diil
##onde
10th
179
mirip
Audit
Kubang
Occ
menyenaraikan
##brid
bermasalah
18th
threatening
Bail
Fol
Sweet
##igma
biar
Junior
##utipan
##ehouse
Melihat
Being
dianugerahkan
Wel
##impanan
Emas
Bronx
Yesterday
scar
promotion
praktikal
lari
Petani
examination
mud
##29
pelac
mendadak
##andatangan
pengeboman
tertekan
##xon
##atia
recre
##eadilan
Castro
Illustr
##omes
Iranian
integrated
Nasdaq
Clear
penolong
dibiayai
harapkan
1938
aspect
Heb
Rib
keluasan
sesak
Blood
guidelines
##eps
merger
Terry
perbatasan
median
cock
adat
indicate
Early
dialogue
Zakar
links
sangg
kepakaran
demanded
Tinjauan
##master
##oco
attracted
kufur
didedahkan
Cut
asa
participating
##acked
##acking
assert
bergaya
lessons
pemerhati
NSTP
##itage
##ewatan
##ustrasi
slogan
segelintir
geomet
tired
##enz
##ecil
##ucap
efektif
anxiety
explore
Bug
cipta
##iani
Alban
quant
##ajibkan
Memandangkan
Margaret
##ksib
elite
ikon
pepper
Grow
treas
##iest
##ulti
memulihkan
gudang
VC
Wur
selaras
classical
hubungannya
Perhimpunan
soda
Menarik
meanwhile
separated
membantunya
accurate
bacter
##atri
didi
pandemic
Hisham
helicopter
matches
Gudang
Ice
penghasilan
replied
##ergian
IMF
AOL
##oal
berdoa
RM8
##AMI
Reform
twin
shell
pastinya
Langu
Mam
##imeter
meriam
desert
seragam
brew
dikembalikan
##engkar
menjangkau
Gand
selam
contributions
authent
sparked
perindustrian
pelayaran
370
Mob
Zul
citing
jurnal
exit
territories
lyrics
horm
##elo
##usikan
dikelilingi
kapten
Aur
Cot
mimpi
Bright
folks
##iyah
##bek
enroll
Wei
funded
Intelligence
VR
Billboard
mengundang
##cons
##elor
mengakses
kerjayanya
Ralph
Keadilan
##urig
penghujung
##entuan
portray
dipecat
##ulung
Jol
Trop
liv
Political
wore
##illah
##estan
articles
deficit
believers
Legisl
##bane
Stephan
hotels
Dak
##imat
pled
##atie
stere
gam
berkunjung
Assad
taxi
memanggilnya
Riau
Sap
thrown
chip
ketujuh
berkempen
benih
hosts
Brent
AIDS
##burn
Shop
ujarnya
wages
Abbas
Criminal
Lind
SAN
##rities
golden
nisbah
Venice
Bohemia
##estr
pengiktirafan
Everything
drown
nutrit
topic
##eja
##ologists
Serge
Moselle
regarded
singers
Pere
gang
abd
rez
Zakaria
Manakala
wings
democratic
secepat
dijangkiti
colour
Obam
filing
overcome
Penyanyi
serentak
sejurus
##unjungan
brill
Penjualan
##hu
berbulan
trucks
berkomunikasi
remarks
mengingat
regulatory
Angka
kidn
Phillips
Piedmont
Tert
Menjadi
memikat
##uantum
pembangun
terhadapnya
##onokan
opponents
##rors
##olan
dapatkan
definisi
Idea
sells
##onjakan
Change
submit
traveled
Treat
##iments
sebeg
potato
Petronas
##erat
##gines
SAR
VII
memberikannya
extension
vessels
Cord
membezakan
provisions
processes
terjual
Fail
JA
Lloyd
Hindi
Kids
Bulgaria
hitting
Meh
Lex
Gaya
Harbaugh
Nintendo
demokrat
Nin
berpegang
Berikutan
tweeted
procedures
Vermont
Fro
Sik
UPS
navig
##bian
Kamal
##isco
mengemas
providers
Ahmed
Quinn
expertise
merasmikan
disertakan
duties
135
formally
Independent
LinkedIn
Seseorang
##pek
Rup
Ug
Jab
MARA
convinced
keag
##onduct
athlete
jemaah
Bagan
resignation
Nicole
departure
pagar
##angers
belongs
kononnya
Iraqi
dismissed
Commonwealth
Pekerjaan
Sac
bacaan
meninjau
attempted
##akwah
jambu
ungu
enorm
diciptakan
##itaine
kelak
ensuring
walks
Level
##reasi
meets
##orship
partly
humanitarian
sisters
##atangkan
keseluruhannya
RUU
kant
##adh
Proper
Kurd
tenggelam
concrete
swing
optimis
horses
sanggup
menawan
pemerolehan
Berkeley
pension
Fur
Tat
bau
##ancellor
harass
rocket
##eare
pemantauan
Brisbane
##yg
##car
sebutan
minus
petroleum
Atlantik
##colm
Schleswig
##resi
visits
landed
Batang
Lay
Challeng
kekunci
tries
Remaja
MRT
Cann
##yright
melayari
##lights
##acles
wash
##alie
16th
Ashley
evolution
obst
Tell
##elakkan
##oppers
tandas
##his
##ikulum
outstanding
Cyr
meluangkan
spac
modest
filming
##ariskan
presentation
objektif
##elim
membekalkan
Support
premises
cheaper
poison
tertumpu
##aver
taktik
Fu
JO
jel
##cott
Really
rebu
bantahan
embarrass
pemula
##avier
volat
Catherine
Zar
reop
Spec
1943
bedroom
Wol
##arawan
Terl
Elon
Rico
Seah
putera
antibi
Edmonton
##enth
Malcolm
telekomunikasi
Test
pras
##eksport
motif
pembal
newspapers
Carson
menyebutkan
##damaian
Lampung
fried
admit
spokesperson
Aquitaine
tikus
participated
lori
Meeting
##ingham
accus
Tyler
Allahyarham
diperbuat
jagung
colonial
Covid
McCarthy
Shakes
gerai
random
Crit
##TP
##adam
##ycles
Abbott
fleksib
Lauren
procedure
##eling
##oyang
pencipta
GOOG
##star
masks
Coal
Banjar
911
CL
##oja
##olahan
Perlu
involve
mengingati
Perlindungan
instrumen
##rent
Grab
extensive
##elaraskan
MSN
BS
Pagi
genetic
respected
##mouth
##agger
melep
chest
menggegarkan
metropolitan
penganjur
exception
Yong
melupakan
artistic
retire
boats
MAT
bedah
##sol
##UB
interven
ledakan
Communist
##original
Bid
Yale
southeastern
diiktiraf
membandingkan
PTS
Would
SHAH
pecahan
kotor
opinions
Athens
Terminal
Sic
tomb
posting
exchang
practiced
Medicare
##imatan
Beatles
Cold
##word
Ustaz
Bilik
##aste
##izinkan
##aborasi
accounting
tie
memo
##ambungan
spaces
workforce
BAC
##estone
perkampungan
replacing
ceramah
Lucas
Doktor
desktop
winners
judgment
creates
perpet
Commander
Geneva
Miz
mall
seiring
trilion
Manager
Luck
respective
infection
detention
ridic
deposit
Kassim
Hijau
puas
##anted
Chad
retailer
ianya
pita
saraf
menyambung
efficiency
somewhere
Dubai
##65
Sebaik
Eddie
paten
Hunter
##chain
fizik
datab
##believers
##bage
Mengikut
occurs
##org
177
21st
##INK
holidays
##mins
overt
berpat
Baden
notable
SDN
##44
penunggang
##asrat
##itzer
##ivic
roots
emphasized
##emetery
ALAM
Taco
takh
kingdom
Dif
Actor
Similar
graduated
entiti
descend
Evan
delayed
##irect
##ajarnya
employer
##kripsi
MAS
ditemukan
Leaders
Pepsi
Origin
iT
##ARTA
##rows
Erd
Kw
chances
dikira
Kont
lake
mainstream
Magic
Budaya
diagnosis
appreciate
seimbang
beribu
upset
Majesty
entrance
constr
instruments
berhasrat
##utt
##acare
##uber
Amar
##ERE
Brother
##ebelahan
Schm
Salahuddin
Vik
fier
laju
tons
dicalonkan
Alm
##ookie
Api
disambung
##uces
resistance
terpenting
bercampur
Madrasah
musician
penalti
sut
##oses
separa
dinaikkan
Addition
Uk
trem
bertengkar
quarters
infected
qualify
Pav
beritahu
belanjawan
berjaga
download
Bantuan
Sekali
##asingkan
geografi
serbuan
stolen
##iche
berhijrah
Labour
hartanah
ritual
membela
menyeru
bukunya
Daim
lebat
diganti
mendaki
upah
KLIA
Medicine
Cola
Laden
PBS
actively
##ongkar
##IX
##angkuk
##leman
##aulatan
urutan
##gis
Kejadian
neighbour
prisoners
Hoff
Tampa
hectares
Kemb
##illon
kebudayaan
Emmy
Direct
bakteria
Pearl
##estabilan
WA
kerangka
teeth
Sejauh
attribut
conducting
kontroversial
prosecutors
Pod
scr
beku
diedarkan
wealthy
Bennett
resolusi
##guese
Solar
cincin
##elir
penduduknya
couples
##du
menyalah
circle
##ahlian
##ambing
tempor
giliran
Ey
gajah
##opoli
##antine
Upper
molekul
##mother
##terior
Portuguese
prompted
Aer
Herm
##underst
petikan
practical
##ilingi
Hua
gua
##sk
penderitaan
Imperial
Related
Mengetahui
Kembali
Oz
Umar
Pelanggan
Grammy
Wy
##chestra
sponsored
tin
Warri
Kompleks
inject
##uatkan
sampul
Nike
kans
kiss
rape
berkurang
packages
praktik
##TR
##ycling
AU
glam
memisahkan
tertuduh
sejam
##ederakan
Much
yuan
##achsen
glad
professionals
painful
Members
melepasi
SER
proposals
robb
encouraging
##epadu
heroin
belakangnya
Mandar
resc
memaks
##urangi
perniagaannya
engineer
Ottoman
fos
##roe
speakers
Reb
regulators
comparison
##onan
diverse
##ivia
penyus
penyelamat
Malangnya
Tunis
##agnosis
diramalkan
jajahan
barrel
berbual
scoring
dressed
ideologi
Armstrong
penyimpanan
pleaded
doa
longtime
Dance
##itious
Charente
##agat
Mits
##thetic
dibangkitkan
fer
##akamkan
##emble
##ESS
neighbors
keberanian
greet
manga
##roup
parad
mahasiswa
Summit
Shakesp
##lements
kemerosotan
bertaq
##omputer
Freedom
apparent
dielakkan
##isim
mengaitkan
threw
##ifications
dug
patterns
tuhan
seeds
dancing
tropika
Bible
dens
privil
Natural
##ogo
DBKL
##ahamkan
answered
Lap
Mara
RA
UP
##fect
##ipat
kosm
Tonight
##limat
Corps
memulai
Pember
dialami
skill
annually
Auto
vaccine
Cib
##pers
##once
##osystem
##onnell
kag
##udakan
Britt
Perjalanan
baw
senario
##ARY
##asihati
noticed
Crimea
Kyle
designs
Mitt
Rivers
##atisf
##itinya
stressed
buff
molec
forens
romantis
Bella
Nun
Send
##fire
##miah
homeless
ungkapan
##amy
##otics
##imbing
shoulder
organic
drove
sememangnya
amounts
utiliti
Azmi
Serie
Reed
surviv
keprihatinan
horiz
Yankees
dewa
##sj
senapang
requested
Straits
menunaikan
heritage
intervention
Neb
handful
uncertainty
##ubernur
Wings
##rand
##imanya
selari
technique
Sinar
Penal
bersebelahan
resipi
teenager
berapi
Complex
Emir
Revenue
##egaran
garisan
Mansor
Bogor
##fe
orange
Abang
Semuanya
conversations
ax
##ahn
mempamerkan
engagement
panik
Previously
shelter
admits
Productions
Obamacare
##ilu
engines
Speaking
KE
bersekolah
##ompet
Minyak
darurat
temporarily
tersisa
engage
Round
mutual
Tasik
Hutan
RO
sized
wise
##dorf
perawatan
Als
Latihan
Citiz
Tet
kutipan
romp
##DS
merent
Inside
rasul
pelanggannya
##laq
forb
longest
celebrities
CB
lists
##ampiri
##elisahan
Restaur
##owong
stem
aka
108
runner
##onian
powered
recommendations
takhta
SRC
Trip
##iw
perabot
pengumpulan
Ghost
tergolong
kongres
##ige
Persian
congress
transaction
##iyyah
Ingat
penambahan
scores
##ominasi
1937
tanggal
tanggapan
tackle
RTM
Tud
Rd
menghina
Brandon
Hear
128
kapital
bercerai
bererti
mathemat
gre
carries
ISO
tracking
Kasich
Winnip
pengerusi
##ehatan
dipukul
dimin
bergegas
fabric
shipping
allerg
Sha
Permatang
Caesars
##ovice
Soon
##madi
menimpa
heir
Volks
##essing
keterl
compan
gradually
Hok
berangkat
sekian
Moz
veterans
##eem
##uched
berbeda
Maaf
##rifkan
bold
##etto
assessment
subscrib
Zulkifli
978
mempercepat
kemuncak
konkrit
smartphones
tennis
McN
Hilton
Puch
menyuarakan
jeans
Gong
Panas
collecting
Seter
##osistem
USD
Holstein
JAKARTA
joke
suram
##EMB
alliance
Nothing
##ingkap
throne
##eliminary
##lanan
##ply
Comte
affair
Hughes
Doll
pelawak
Penolong
mengurus
inspiration
frequent
##arganegaraan
iTunes
tarif
##romi
menyingkirkan
terrorists
besbol
Winnipeg
gray
missile
McCain
meantime
##uahkan
inters
Prob
Laks
jihad
anch
load
mogok
Daw
##ansur
Protection
transmission
Gw
Ran
depression
burned
Cardinals
mystery
testimony
Yellow
Drag
arrives
Pengkalan
Commerce
dius
kelewatan
appearances
deadly
lapang
haji
##eno
##odam
penyelenggaraan
Student
ranging
delivering
##ennials
##lass
mengadu
Analisis
governmental
##urric
profession
Fuz
MI
layer
prest
suar
penekanan
dikurniakan
Cambod
Sg
##orous
##andan
##empas
empower
lonjakan
terbar
hardly
tropical
##ugikan
penanda
##bow
funeral
Lombardy
united
##osc
##ungkap
behavi
hidung
meletus
literary
Mukh
Bieber
##owitz
mendust
##acht
county
Total
IR
##eti
punk
riot
diwujudkan
tar
quit
##lasifikasi
Muf
earning
hanging
Boul
Hamb
Lum
sessions
argues
kabupaten
Helen
touchdown
duo
melemahkan
menghar
penjawat
kegelisahan
Operations
Immigration
mabuk
##eke
hadapi
##azar
Serikat
jurisd
cooked
Investigation
Munich
emotion
##ede
17th
Ellen
absolute
sle
##ecraft
##este
reun
imprison
Comcast
prev
Noah
meletakkannya
penahanan
Bash
invested
kewujudan
Yum
periuk
NFC
ciptaan
##yb
##orti
beza
Shakespeare
dipaparkan
submar
smile
sewajarnya
Akibatnya
##elia
##upaya
##ujang
##ollo
Kesan
Hero
mistakes
disappeared
SB
Ditanya
nasi
##onut
##omach
berman
##ecuali
merta
Athlet
hadn
Joshua
Fan
hi
lobby
tempur
Pelabur
Plant
##akonkan
MT
Tulis
cubaan
Click
##igrasi
mandate
Seahawks
pow
##rance
##orer
Palmer
Corona
kolektif
brilliant
lets
melambung
latter
konsol
GP
Kamil
Tumb
lindung
riba
menasihati
Chrys
Julie
websites
peg
stretch
B40
Jake
dendam
##angkit
impak
replacement
Limited
diplomatik
beransur
mengembara
invented
Angkasa
##nut
Jho
##igala
engineers
piawaian
##ribumi
pengguguran
Rous
regulation
lean
Nus
tears
##immer
assisted
grandfather
Annual
##iculum
Angela
Pari
draf
##ikirkannya
Creek
bersaiz
foreigners
touched
clip
CR
Curt
nose
perception
Ez
Nest
wounded
recalls
Investig
volunteer
Tempatan
YB
sink
verif
##63
milen
bags
descent
Bald
keseronokan
Duffy
##asas
checks
spreading
difikirkan
toil
Stef
Usually
Cant
##ingers
##stage
DE
theaters
noise
productivity
##xygen
##edikasi
##ulai
Kud
##opes
bersungguh
akta
##rani
Ich
##ERD
Nieders
##DAK
dihadiri
impression
Ujian
soci
##ighty
berpecah
disclosed
furniture
JU
##ellen
Engkau
Leonard
Berkaitan
Picasso
iman
##ido
##oskan
diduga
Segala
advertis
prosecutor
Luk
##49
terbalik
Berks
1918
Hod
deeds
parks
Bunga
comply
purchases
Ferrari
berucap
##illes
manufacturer
##ONDON
memories
##abe
stereot
berkil
dicari
mengejek
approached
strengthening
Cass
kestabilan
##zuan
Butter
Films
##instein
##gunungan
pembayar
##ubles
1800
nobody
mart
##list
memajukan
ulama
Admiral
penjenayah
Pays
##asmian
Kutai
##minya
dict
Disco
Tuhanku
diplomatic
Mik
trains
Advent
Emma
BERS
LONDON
Sew
##ylum
##gresif
serpihan
lying
##pace
shout
serangkaian
tongkat
##obia
Berj
vig
menenangkan
##irah
13th
Joan
pedagang
berupaya
Seterusnya
menyarankan
##intanya
fulfill
Verd
mengin
multin
memorandum
lutut
spots
Azlan
economist
kubur
assume
divid
##OTA
hook
##idan
Tep
zarah
perarakan
ekstrem
Penyakit
rentan
TD
##ajui
bergelut
220
Gardens
membesarkan
chains
penjimatan
evolusi
1936
searching
Jambatan
sake
Pernah
##ILL
##wagen
##tic
screens
sendirian
diperbaharui
##omer
reprod
##isticated
##arti
Woman
##ehow
107
Kanun
mengelilingi
normally
KD
##ulator
stepped
ump
106
overnight
gaming
bankruptcy
Niedersachsen
##ierra
bombing
racist
opponent
Miri
heaven
pemburu
penyesuaian
Reynold
Aub
Hern
pose
##rosesan
SPM
VA
berinter
11th
Saone
##eksa
neighboring
Aks
Grey
Columbus
unfair
Having
##ding
biarkan
Brands
15th
priced
qualifying
counterp
Cosby
Naik
##ums
merely
##anjangan
##elamatkan
crashed
CM
##tract
240
##osexual
Musang
talented
##alikkan
peneroka
Helo
Naj
##elles
##eksaan
##aug
##etz
beruang
stomach
deserv
tenis
Andrea
OC
Word
sample
frozen
##Ku
##oween
##ovasi
kedaulatan
adopt
peaceful
Costa
Goth
headline
Puchong
membeb
serba
mencederakan
pengembaraan
Powell
##olph
##sts
Ikan
##370
##amana
menentu
demanding
Coca
thee
sopan
bermanfaat
##kind
Semalam
solely
disabled
verb
##ationally
2030
minim
dirakam
Pendakwa
Fashion
barely
bayangkan
mothers
wireless
Transit
Distribut
nervous
Cul
LT
##VE
##enter
##ebus
straw
memperuntukkan
Looking
PAT
lalai
tawar
##backs
reflects
Gibson
##sie
Should
Books
peperiksaan
##qually
Stap
imigresen
keputusannya
inovatif
LLC
Tian
##iadaan
##hamkan
Sunni
Upd
tasks
tape
##track
cheer
Pontian
Gombak
##reck
trapped
bertarikh
harv
Parad
economics
balai
Between
BAH
dated
diakses
legally
sara
pendaratan
commissioner
Salvador
##emies
##aping
##ebun
CDC
intellectual
berinteraksi
Warga
cod
##airy
anybody
speculation
Kadir
habitat
Zamb
##via
interc
routine
ignored
Bahan
##gs
##ulit
dikritik
passes
pengantin
armada
Wikipedia
inev
protecting
Gang
Nature
berpatutan
Eug
commodity
1933
civilians
supermarket
kabar
##itr
mulia
loji
fastest
Mang
Suara
GR
membatasi
conventional
##urau
pelawat
undert
Christians
diterjemahkan
hill
orph
Companies
menganalisis
##aiban
##lander
soldier
cleaning
Bitcoin
##bles
overlook
billions
recruit
Dung
versus
Use
disorder
focuses
Semp
Sens
Wonder
mega
##HA
camps
Eure
Pra
Wyn
##ipan
indicated
pisang
Lower
beating
##stad
##ejar
Bosnia
MENG
ly
Dinasti
##KN
menikah
##ikam
##iknya
selebihnya
kelurahan
interaksi
responden
establishing
Latif
##days
anyway
Bradley
Prosecut
PN
mengukuhkan
ecosystem
##orders
keluli
departments
kedudukannya
rebels
Luis
dingin
##ouses
RM100
Philippine
Bij
berbilang
##gence
locked
underm
emails
kilat
difficulty
updates
Reynolds
##aaf
##atah
harfiah
penghapusan
Paper
##liers
Glenn
universe
menyesal
##inggal
preliminary
Along
bersumpah
planes
toxic
Bait
bone
Hein
depict
coinc
eager
##wel
collapsed
jewel
TW
bantu
##enangi
##tera
Chuck
Marathon
viewing
diplomat
perdamaian
praise
##borne
Lynas
converted
Liz
##enza
##obatkan
produktif
reflected
yatim
##1M
Carr
devoted
electrical
Remb
168
affecting
MRS
WW
Zura
##adilah
##imu
integriti
terbarunya
lady
##KM
##antangan
##insky
McA
1950s
rumors
Waktu
restored
Singer
Perbadanan
subsequently
Jaze
wsj
guided
angle
##47
bercuti
throwing
sear
Coach
fault
Eisen
bertempur
ilmiah
innovative
Moss
dreams
subsidies
litar
##ANI
nowiki
emissions
Lucy
Cad
keahlian
Selat
sesaham
delicious
Bentuk
Pist
menyasarkan
meals
##lemen
Batt
##orth
dibakar
arriving
Remember
Jesse
blues
defended
sandwich
Leh
jual
##emor
agung
pencari
militants
SME
Rosmah
predicted
remarkable
##urger
##tible
Harvey
voices
Jazeera
Brien
betina
155
hedge
bersendirian
pendengaran
scrut
12th
technolog
keagamaan
Mandarin
##thm
Uni
Terut
Grande
Municip
enormous
Tanj
diisi
##orted
perlombongan
Sciences
penciptaan
Pemilihan
Matahari
citizenship
Habib
pemanasan
Fame
MV
##mari
Pener
breaks
curb
Cair
pud
attached
demokratik
Nathan
Pink
Suff
opp
Relations
hometown
vital
##edak
##izer
winds
Golf
Rasa
Dakota
nip
Semakin
Pertumbuhan
Beyond
Esc
Pix
fon
##asp
mercy
##amboo
restruct
Isteri
defence
##rofil
Hannah
Ukrainian
mendengarkan
Benz
##htag
consulting
upgrade
duk
gaining
spir
menghampiri
103
Abe
Kedudukan
cartoon
##elm
dilep
Pemilik
Scottish
iconic
##esaran
berisi
expense
putaran
boxes
mutlak
cub
##anca
continent
##aimi
Mustafa
flee
rusuhan
##arung
ML
hashtag
dividen
adviser
Independence
Mini
##igu
Pemenang
kanser
Brew
Zone
##ucian
Season
Foxconn
scared
dihiasi
Mokhtar
##urricane
ion
Appl
podium
noting
blamed
contrary
martial
Language
strikes
courage
rolling
jantan
##ski
Airbus
sophisticated
Sidang
terrif
##riev
penderma
scary
struggled
Raymond
Kg
underground
##uriosity
Dw
Terj
Playing
##tics
reserve
##ieu
NGOs
A3
Cros
theft
Saluran
towns
Pokemon
kurun
##oples
serangga
##uasakan
Kerj
Konf
Batman
##artz
menyinggung
kekej
greatly
bronze
cend
##ukus
Seluruh
founding
crush
Compet
kempennya
Croatia
rushed
Wisma
colored
Ghazali
Datu
Solomon
recovered
Entreprene
repay
Higher
Publications
narrative
adiknya
Seng
lod
##elapan
consideration
Dome
rawak
memanj
seharian
165
mengkh
bent
##yek
##print
##name
##ostal
pembersihan
rasminya
farmasi
analog
##ITY
Wu
##atal
pastikan
komunis
##LAT
pura
spotted
Indah
##umble
##rane
kehakiman
kesannya
stored
menyuruh
Petra
routes
facilitate
jak
cultures
households
##rina
##egal
mengandung
torn
perintis
##oter
perbudakan
Spears
##astam
##oha
butiran
Disebabkan
magnet
Francois
klik
rif
Panama
##KP
##inah
##urah
perolehan
charm
risau
bayangan
##ttemberg
automatic
MBA
Voice
##eholder
##urse
Perg
teens
##utenant
Wurttemberg
kambing
##Co
suria
Daud
##ITA
concerts
challenged
korup
Loke
insist
Polish
DKI
Yuk
Klein
cacat
sehinggalah
WE
sultan
##engahkan
seram
mendatangkan
educated
instructions
gala
atasan
Indians
perhatikan
PS1
Students
inquiry
biological
Siang
settle
racun
escal
Volkswagen
Coy
TR
##edihan
102
##roph
netiz
Loir
Ric
Suka
##elin
Roz
Deuts
assemblyman
sits
berambut
memoir
Martha
emos
Madonna
arguments
dining
consultant
fortune
MH370
Liter
terselamat
scream
volunteers
kemurungan
Berkshire
Sounds
##tz
##odies
composed
supers
preced
backs
##ergarten
ratings
pengaturcaraan
650
Path
lapt
healthcare
jurusan
Joel
dynamic
Franche
Daya
Fem
Tugas
surau
Monica
MotoGP
oxygen
membenci
pembesar
epid
Bermula
Agreement
##usnahan
improvements
colleges
variasi
Consult
SI
Saman
Initial
mencintai
consolid
ekosistem
Ellis
##minster
eaten
terancam
ketagihan
barb
bela
jentera
mengumpul
##ctic
kewarganegaraan
komposer
phrase
3rd
Niz
##aduate
Commenting
Mate
Wait
penghinaan
kekecewaan
##eliti
##uro
##acular
mengatakannya
confused
populariti
Liberty
sections
Letter
Gaz
pub
sung
aver
proport
tipis
##ekuensi
Duta
berkait
Mangsa
diperintahkan
##rehensif
##enjak
menanggapi
Stern
##akinya
Apollo
taxpay
Lands
peribadinya
wisdom
memikirkannya
Zika
##arable
##ugged
pemakanan
dilepaskan
NAS
pec
rab
##eim
##GH
##ajaiban
dimensi
obes
Imag
description
Emily
terbatas
existed
bisnis
honey
sne
merob
##angguhan
Rolling
Pemandu
##ommunications
Nadu
mendidik
Face
##sey
##ommer
##avi
restr
Jackie
Liu
Wahid
Viol
Ivan
ca
##fish
##anselor
Roos
##undingkan
sovereignty
Mats
cargo
Stop
Shep
raises
deadline
elderly
Gob
##etulkan
Subway
Diplom
lisan
memin
suspension
Olya
minds
Connor
Ring
acres
Martine
KPDN
Kulim
kesetiaan
EV
##wic
marine
penginapan
Gabriel
memihak
enterprise
hosting
Begin
Broadcast
conspir
Pang
Giul
tontonan
##kom
Syn
Sejuk
bacteria
Late
pengubah
Speed
##uns
memorial
##ANA
dominan
##46
bitcoin
1929
Calais
Lud
Via
eighth
samar
##aif
semesta
##ardin
lawmakers
Thomson
NC
##elanja
lesbian
Mine
Wis
Haram
Demikian
defeating
Noble
Bachelor
Dash
Font
rocks
401
##lusive
Sierra
disatukan
Gilbert
knee
Chrysler
Arg
reluct
118
badminton
Industries
Swedish
memperkuat
Sans
Arnold
blank
declining
RM50
diagnosed
malang
##pirasi
Sask
##ikatan
kesal
Edwards
Mukhriz
overd
muf
Greater
Cyrus
##atis
inner
persediaan
##loe
1935
teenagers
HR
IRS
##vet
##ahuinya
##xture
hidupan
apartmen
FEB
kunjungan
vent
kees
##ajur
Nasib
costum
Bani
##amuk
Trent
ketidakpastian
Pew
suggesting
optimistic
overwhelming
Mufti
Together
baj
ej
gedung
diselamatkan
conclusion
Guang
penyumbang
packed
Tahunan
Amanda
##uctions
menggali
##uver
##dog
bangsawan
##zam
dilatih
kenalan
meteor
pekerjaannya
Past
##orable
sheet
Zon
Construction
circuit
eliminated
Kre
Kup
Vern
##ubat
kesenangan
Puteh
Employ
##pert
jeneral
selfie
Napole
Frederick
##enko
##uruskan
##osankan
##owing
polling
pembawa
1934
tensions
bunch
cip
##ekalan
##trom
structures
memperlakukan
Cash
Fira
equally
##ellation
Shell
dilalui
diperiksa
demol
dimaklumkan
Dynasty
Drew
VI
##idt
Spirit
survival
Cole
Mash
##eram
##ergi
persimpangan
bottle
##umikan
##upuk
enemies
ditambahkan
rekreasi
wooden
duta
rhy
##abul
abang
outlook
Scar
refugee
Kill
bog
##ulangan
##iviti
dinobatkan
Bukankah
Derek
FOX
Dih
Days
Tarikh
##ourg
promising
successor
lifetime
2nd
Hog
Zur
Portugis
diinginkan
Stuart
##usk
assign
LeB
Herz
dissatisf
##usuk
##arki
Walk
Engineering
bata
##sas
stance
##esse
Pray
kalori
detected
Salman
Kertas
chapter
##icates
##acts
audiences
Fars
Hew
Herman
diputuskan
Bryan
AH
tampak
mengiktiraf
lasted
FL
resource
dirampas
lesson
##hill
##oline
bergurau
1906
MAH
spo
##engka
pedalaman
wajahnya
Tahap
Bourg
Somm
dominant
Garis
Almost
UNT
eliminate
Sofla
Sure
lum
Adrian
Production
##angle
alukan
indie
Reich
eh
##lash
30pm
sexually
electronics
physically
Ax
PW
penguasaan
Training
petua
pakatan
enjoying
Elections
Arif
mengetuk
disabitkan
penyemb
lelakinya
terawal
berganda
agreements
susunan
sembahyang
asc
dikaji
menghukum
lemon
Insider
##syat
Luther
plug
##angganan
purple
romance
khay
babies
##atr
Clo
ghost
Cuban
4th
##ikot
membac
consent
skema
painter
ultimate
Watt
pride
TNB
unveiled
Naim
kakinya
##kinson
##igny
reviewed
pursuing
scenario
Return
clinical
MRSM
##kala
ther
buses
announcing
Byz
1st
beramai
minis
ikonik
Keep
Penyelamat
ICERD
menyembah
Bailey
Kangsar
tatt
##gets
carriers
Janeiro
aviation
fool
urging
##shore
violation
klinikal
pidato
Mason
mengasaskan
penaja
##ovich
##urring
##esia
Spencer
moderate
acquire
BELLA
buck
merugikan
celebrating
loving
Zuraida
Lav
cousin
UTC
rint
sekalian
##ansara
##akaunan
refle
Burke
interviewed
accessible
##iringi
RM500
Rush
dibiarkan
Teacher
darab
Tig
rapi
thir
terbanyak
berbunyi
Less
hij
##pid
##akis
##eca
tekst
muzikal
donated
Dah
dying
##omy
dicuri
installation
Griffin
mengurangi
beta
terlambat
snap
grocery
Sij
kit
##nell
##39
##alla
penyatuan
farms
tribute
membelinya
Lem
dirasakan
petition
warrant
escaped
translated
Martinez
considers
settlers
ucapannya
Jets
##ibur
notion
berjam
Manning
Ruth
lun
perek
##untingan
menurutnya
Feder
perisai
naturally
demam
##annon
frequency
Bengal
Hyde
therapy
Niss
sinc
##aky
memesan
pemacu
##asihatkan
Asas
persekolahan
soleh
##ausen
musnah
Jamaica
Tweet
minimal
responsibilities
memuatkan
gambling
LRT
workplace
dipul
graduan
Dzulk
bip
transformation
incredibly
Emanuel
Sr
convey
notis
##aisuri
Enterprise
trafficking
pertaruhan
kaunter
Erdogan
Tick
Pete
Pangkalan
lombong
appearing
Bahar
dynasty
Egg
##azi
closest
Base
cam
oksigen
AA
N5
Wag
##amics
beaten
penarikan
attends
rancangannya
Damansara
Fakta
##rac
##andai
airports
Military
Lef
Muhamad
blocked
Rasulullah
##ebra
pengendalian
bertanggung
deployed
Karena
Richmond
Cukai
Resort
Perhubungan
##suaian
Ramb
USS
menaik
##adies
##acker
##igit
ditanggung
impl
Sao
##archy
divorced
mitos
Dadah
FB
Peg
##200
##endahkan
membosankan
Chancellor
dipel
subt
Pukul
Ru
shadow
1932
bimbingan
trips
penambah
Estate
substance
pemprosesan
Terutama
Baling
##taraf
tentunya
targeting
##obbies
##Ch
Novel
##borough
Idol
preferred
startups
teguh
Dear
Father
terkand
adapted
##ifies
kedalaman
Cerita
Dial
Floyd
Jus
Save
gem
Pengajian
dicetak
tentulah
##yrik
gemari
##egel
Alz
merangkul
Porter
IA
##ilo
Kematian
printed
##lenburg
LED
bengkel
perhubungan
Mazlan
##SM
meniru
##ulin
##ubarkan
##afasan
##urnia
##oku
Distributors
tiss
nights
mengusir
Alep
##amus
##assar
buzz
3000
grandmother
Kawalan
semakan
Peringkat
##ensen
mengambilnya
femin
outdoor
Fidel
Ruk
Temb
gantinya
choosing
pengebumian
rangka
comel
commenting
compliance
Nurh
transformasi
tisu
Johann
composer
##inson
pricing
RM20
drives
Somalia
Break
Find
##dess
berbelanja
pipeline
Vic
##orne
stab
dikutip
##INA
##ecklenburg
penggantian
midnight
ganjaran
lok
##onso
##ucci
dipasarkan
Blues
pandang
superher
##anggotai
Bila
mock
padahal
slam
##anaman
factories
BlackB
nurse
abortion
republic
Train
##ryp
pemeran
seribu
Coffee
urge
Silva
##engerusikan
wildlife
acre
berbilion
console
117
beliefs
Jazz
Kamis
Cla
1914
Whitney
foster
penembak
dispos
sesat
database
fame
##idas
presents
Nak
fitness
##aws
maksudnya
bangku
##oting
##oseksual
epic
podcast
Bee
Pahat
reminded
##ortium
Balik
Source
rod
##ucon
Murd
Aleppo
##attered
Thuring
imports
Half
Makkah
pays
##inction
triggered
##core
##bat
membing
berkom
batasan
Langat
Laun
chamb
pemand
##gaul
145
reader
tables
meminjam
taklimat
somehow
ANDA
##ikul
Arsenal
CV
Gav
##anaan
Airways
badly
##ALL
1910
1917
connections
Cod
Moor
##mans
##34
thumb
mengutip
pasang
Firaun
EN
disajikan
prospect
uji
##ancong
Alk
210
Morrison
laser
##hari
##baikan
##oning
##esc
##ogh
Anuar
fires
##orium
rezeki
Qesh
Southwest
menjelajah
epal
##jad
pengawas
Baharu
Franco
Gate
haz
sila
berlepas
##ukir
merebak
##auss
230
2022
Kemboja
kargo
##wear
##igue
accidents
##otto
bailout
transparent
intelektual
bingung
104
measured
declaration
accomplish
sleeping
Ethi
publishers
chronic
Klik
cro
##bone
worn
2025
ramp
Majalah
pocket
##olok
meletak
tugasnya
coaches
Sesiapa
asrama
menyumbangkan
displayed
melambangkan
##ziah
##jud
pembaikan
landskap
dahsyat
Thous
sail
berbohong
wanting
obl
Excell
perce
keindahan
merc
Arkan
mainland
mengetahuinya
##afsiran
Dataran
communicate
messaging
machinery
Jauh
bic
bingkai
fo
##upe
##66
perhiasan
UNTUK
didalam
Peningkatan
kasihan
SMS
originated
##eus
##ucc
##amilan
Imigresen
Pelan
##quality
617
FEBRU
Fis
Jawapan
109
Mayer
Westminster
Certif
Typ
Tujuh
valued
##elligent
briefly
seaf
Chat
musyrik
parall
seny
berdaya
mengimbangi
kebersihan
Senin
Makmur
traditionally
substantial
champions
kemeja
evolved
##MPAS
suitable
Fly
Mull
pork
##mith
##JA
publik
expecting
Investors
mamm
##32
berkep
monument
Saleh
##uktamad
Bain
mars
criteria
Iklan
Innovation
Alat
##idding
renamed
##eknik
tempahan
Marx
obey
achievements
criminals
diperbaiki
loyalty
GO
Gam
SF
wider
##eath
##UC
##etch
poetry
Ciri
murni
Pertandingan
kriteria
##rels
##gom
forcing
##ographical
equality
##elitian
##olitik
Garonne
ramuan
##ontalo
Arn
kerjakan
##ITAN
illeg
authentic
juru
##throp
Pergerakan
Shuk
politically
diingini
styles
Kangar
compound
Kashmir
memicu
Pengasas
mendustakan
Zaid
julat
diukur
unions
kerabat
Stre
Param
Perkataan
Gorontalo
hidayah
temui
tembaga
Ultim
transparency
##tons
##ianya
berbayar
Janet
lover
Saiful
compromise
Kerjasama
KAMI
Rut
ven
diabaikan
saing
rememb
Melissa
signature
exploration
amendment
TIDAK
Gerald
Kiss
Tanda
##acatan
Partai
dijemput
ECB
Cinc
anjuran
##usu
##igran
bersekutu
Campaign
Biar
##opa
Kebudayaan
Ishak
imun
dijaga
##mingham
spesifik
mounted
Fourth
ajaib
##emerlangan
Qeshlaq
Cob
Nom
Tump
Reka
diikat
penderaan
Leo
metro
sacred
##zhou
Kara
festiv
Kenneth
BlackBerry
Karn
lanjutan
Clar
##children
Method
Nusa
menjayakan
ketiadaan
kesulitan
Falcon
membingungkan
Rac
Vale
ba
chips
Surah
##prises
##agazines
bosan
kondisi
CCTV
##ebumikan
##evo
berket
corporations
##aktu
daratan
uncertain
subsequent
gardens
Eagle
##alagi
transc
reads
Moreover
dramatically
spektrum
framework
Hag
RS
sarang
headlines
Sanch
certificate
##ilem
Asy
##angsang
##tively
leaf
Harold
skilled
Account
airp
breeding
Bib
thy
##agiaan
boards
lautnya
Too
Yaz
dikalahkan
virtually
adaptation
Arkansas
Ign
##erinya
##uming
terowong
Terk
Computer
contributing
mengajak
computing
pernafasan
Bis
diamond
khayalan
Mulia
conflicts
cute
Perth
openly
Peminat
Sabu
Register
Silat
Palestine
vendor
##user
Clin
scientist
Dunc
##fers
##ekar
menggoda
Pembinaan
Cadangan
##tan
aboard
berkh
Sylv
Tanjong
Kanye
Wes
bang
tob
Eropa
reserves
ga
##illi
##ergasan
rebel
transformed
Joyce
thorough
breeds
simultan
UKM
##asket
Infras
comedian
mencetak
berfirman
terhebat
Strategi
commemor
##ussalam
religions
perfectly
Diane
##imba
subway
JBPM
Javan
Vall
Princip
Seung
internationally
Robb
collective
Sebelumnya
Crist
Pag
berkulit
syiling
Drug
Belgian
interact
tear
##weg
##err
##antarkan
ambassador
SAW
Logan
Seth
jemp
##LP
oren
##ogy
suruh
delight
##leg
Chow
Berp
bawahnya
Rhine
steady
desperate
Eve
Nu
Sit
lada
beredar
##imumkan
kesedihan
Berl
Telefon
dealers
electoral
complained
Fleet
striking
##apak
ditonton
helpful
direkodkan
Birmingham
Transportation
Perez
Pick
RT
madu
##sons
##ader
##ocoran
exclusively
cruel
flavor
Hati
YOU
lending
##hah
##arangan
##ARU
unggul
##aliza
explaining
performs
periods
discipline
lulusan
##ilm
##upusan
revers
##umbai
##85
Pengel
Invision
Lions
##iswa
Boris
Koman
Yi
##alar
112
Christine
BERSATU
Bangg
Jumat
##enk
bersembunyi
Beau
remembered
automotif
Brittany
PPR
barg
##veness
fundra
feared
governance
astronom
Mickey
Pence
Tub
##ovy
dibentangkan
limb
ra
stops
berprofil
berhutang
spectrum
puasa
receives
laund
Kenapa
hairan
kafe
Hana
##pat
##atap
##endung
ambitious
bure
serigala
creatures
pregnancy
##endous
##eves
##ourse
##ensions
puteri
##usahawanan
juice
katil
jagaan
turt
##cal
suite
Blok
komprehensif
COM
nickname
Want
hint
toy
await
bitter
rounds
tactics
Bilangan
##emik
memus
##ateur
Cafe
Tuntutan
topics
Sarjana
Bard
Hob
##wah
destro
Workers
gest
mang
##suai
##arre
terangan
negaranya
Syiah
presidency
Akhbar
Kecuali
rated
harsh
1928
legislative
suaranya
SR
nod
##loid
logik
friendship
profitable
stroke
cerdas
Ferd
##pit
##eding
aturan
Ald
##incir
pentadbir
legitimate
##anggakan
berpusing
##ahagiaan
##teries
##embal
stir
##astro
Persembahan
Ternyata
dimasak
confusion
Pelbagai
##inental
Bishop
jisim
bergaul
Elektr
settlements
prospects
Syaitan
Masalahnya
nahas
diseng
Brooke
prevented
Sharon
Fallon
KBS
produktiviti
Hamidi
Era
Fight
Kurt
zip
##lest
##wara
##herd
Whatever
muscle
dear
##enian
Arc
Agro
Clooney
Jays
MM
pondok
alph
menjemput
civilian
Vietnamese
bertaqwa
cave
pungg
shortage
PHOTO
Kejayaan
Rayuan
Cultural
crops
menyor
Serdang
deeper
Bac
None
Legal
Dest
KPM
gesa
##68
discussing
Ilustrasi
Naruto
ceiling
Meri
vint
##elong
##ento
Cha
careers
divisions
missiles
scholar
##azanah
picking
##amalia
screening
bathroom
Bada
##osongan
##efly
terlaris
Leafs
Magh
##ommern
Bonn
sip
menged
1925
implementing
kabur
Kane
Environmental
Slam
##found
##77
Harbor
##eliruan
Bath
##ups
menyempurnakan
Gad
berupa
##abol
bilateral
##teriak
##bridge
Inggris
1927
Hei
bersamanya
insists
misunderst
reveals
Spotify
Belum
SAYA
jokes
kencing
pah
##aia
memproses
elabor
kostum
FOTO
Tory
rag
brush
Thrones
mph
sole
bullet
Siv
##akluk
Finn
uncle
Telah
##rang
sekuriti
Ask
Penget
thirds
cannon
rentetan
Kus
Lik
alami
priest
Beyonce
clinic
jaket
Sanchez
Ling
NO
paksa
Macy
Kesalahan
larut
##profit
##aduhan
##lames
adventure
Patric
emosional
berkisar
assass
salaries
##ARD
Actr
Dame
HA
##oons
menghapus
##EY
uncon
Paduka
Besut
deceased
verd
Ong
suggestions
harmony
##aci
resmi
Actress
teringat
republik
Solo
Renaissance
Marikh
Touch
tutup
exped
fever
creator
satisfied
tembakau
Albania
Lain
lob
##atin
melancong
signals
killer
Pembuat
Castle
racism
Hoki
outlets
dipas
pejalan
##bnb
Fitzg
mengangkut
##ublin
responding
angels
Paradise
##ulikan
disetujui
patrol
kuant
##enos
penet
Danish
menyelesaikannya
mysterious
venue
operational
##alisasikan
Traff
diangkat
Heights
##evelt
webnya
Rosen
approaches
Ranch
365
lebihan
colony
infan
Sheet
metrik
Penyokong
arrests
unh
##undang
Need
lemas
Leonardo
Haiti
firefighters
Venture
outrage
brid
violations
Authorities
Rip
fib
##UD
149
##orius
##iliun
pergel
observed
anticipated
BI
dll
pending
Starting
##Feed
confid
##niah
repeat
emphasis
trailer
Duncan
haba
ultra
INI
proceedings
convenience
udang
menunjuk
kekejaman
Hath
##atalan
##itter
knife
##asse
copyright
glasses
##tiadat
internasional
SEA
penampilannya
jualah
kagum
ox
relation
Insurance
sandwic
pleasure
Cil
penerangan
neglect
##formasi
Kemas
Sejumlah
dropping
tepung
Doctor
Vision
tarik
tunduk
berhubungan
billionaire
humanity
Uthmaniyyah
KM
##ohn
Semula
immun
Hayes
##adil
##omez
hybrid
Ai
berteriak
##okument
slip
##orpommern
balanced
samples
Domestic
serbuk
pengiklanan
innocent
ADA
##endra
reliable
##ulingkan
lump
##jin
pembakaran
indirect
scope
Abram
Depot
Salim
ultr
emotions
diarah
desp
desk
Within
chaos
inhabit
Javanese
Host
Sila
sushi
##pc
thro
neat
Sehubungan
Faith
provincial
Griff
Corbyn
Yee
seump
##ulties
##olk
##aini
##orton
exha
Comedy
makeup
tale
panggang
Komen
muat
kasino
ibadat
1919
diilhamkan
vin
##ilaan
Juni
Gadis
Kesemua
Gra
##eon
##uil
Airbnb
arguing
Roosevelt
Katie
Calv
Obs
cruise
Cyp
##inasakan
##asawan
##encatan
accum
economies
rekaan
Municipal
tobacco
Dre
Xavier
##asian
Pesta
pembuangan
virtu
NYSE
Vorpommern
magazines
bertekad
penjahat
Moravia
##geseran
nafkah
Fais
Misi
NCA
Surely
destinations
cigarettes
Dion
##olly
Shore
Perbandaran
kesesakan
##rated
masukkan
passionate
fierce
Komanwel
Coc
tulen
pasport
restructuring
Titan
##ukarkan
Fen
biz
tooth
scan
consensus
IPD
penyair
Nordin
Timb
entah
pledged
Panc
Symph
dimulai
donation
soundtrack
mengubahnya
Restaurant
##eval
pemohon
empayar
payung
Sedunia
removal
##icked
Barnes
Amend
Zi
deng
##mun
Yaak
##piece
erat
##edari
##oves
invite
dipisahkan
telus
telanjang
singles
hatinya
Gan
Ground
Rural
hailing
agg
Pride
Double
dinamik
trio
Buloh
coastal
provinces
JPMorgan
disal
dikunjungi
affects
psychological
Fri
Kop
Mudah
Mecklenburg
gemuk
alien
kecacatan
nonprofit
##eddy
geng
##jikan
penyewa
pemerhatian
Gomez
dw
hobby
##ongkan
topped
penganut
pembelaan
Napoleon
##oji
##FF
##urement
kelapan
Diet
postpon
##riptions
pengasingan
banci
Maritim
##kesanan
Kamaruddin
Elliott
PE
inning
ego
menghendaki
##untung
sebegini
gov
Edin
imported
##ripts
menyalurkan
corp
gangsa
menggantung
safely
Originally
tingkatan
selamanya
119
Manufact
Operation
850
##ruddin
##akm
##ioneer
recons
Bing
Ec
meth
shield
util
Keseksaan
jangkauan
conspiracy
sf
##pres
Juli
grows
Jefferson
objective
Fitzgerald
##buster
##amine
confer
Oracle
silence
aksara
Number
blessed
Manuel
Economics
chemicals
Khairy
tweets
rempah
sulf
Sicily
cakap
##edral
##otanya
berpose
leather
keberatan
connecting
Henderson
##angkatan
whoever
sued
param
##regation
KOMPAS
Years
Chicken
kicked
Nissan
bik
##utuhan
##endan
##istent
##itudes
consistently
127
dirag
rental
Kuwa
mosques
advocates
las
langganan
##FT
##orus
##urd
medals
penggubal
Matlamat
XL
env
construct
##lessly
Representative
Archit
penambahbaikan
Pauh
Yosh
##WA
meren
##ohkan
##angkala
##ihani
modified
retreat
cooperate
wishes
lobi
##inos
##amaian
immune
Tul
lamb
tariff
projected
disclose
##ayangi
kecergasan
##ribed
Craw
Sag
Teen
##istret
crossed
odds
114
imam
guards
violated
addresses
printing
ignore
Audi
aer
##asted
##ultz
129
kenapa
ambul
Ambassador
celah
letting
pione
insan
Elephant
radiation
Taur
bungkusan
wives
##bc
diman
kenyataannya
menyajikan
bones
hobbies
limpah
squar
charging
gonna
##ictions
Command
seemingly
Lis
Pindaan
##aints
Sharp
incentives
pengubahsuaian
utility
badannya
##iffe
occasionally
Bair
Dors
Jill
##quin
harimau
shake
mencub
##afas
pergolakan
Somme
seawal
Share
Glas
importantly
##IGH
Eight
Jalur
pac
berlumba
Marina
complain
Keju
lapar
##wald
flew
Mills
SOP
##ektur
Chef
disewa
subd
intimid
forgotten
##var
##elusan
mendiang
111
Obviously
timing
bubble
sacrifice
peminjam
Hernandez
Staples
##usive
penangguhan
pelari
lelucon
Osaka
Solid
blockchain
Condominium
jas
##teen
Jasin
Cancer
Yug
Ghani
merekrut
RAF
##wang
##agic
mengep
##usters
noon
Timothy
tribe
lokal
##SB
diisytiharkan
##rec
founders
iPod
ov
##emed
teroka
penyiaran
Kaum
spotlight
hath
wet
##erning
sebatian
Panel
absor
Halloween
##claim
accompany
mirror
##oncos
GC
Jamil
Jualan
##enia
reck
terjebak
sulungnya
teenage
favourite
Vit
rasional
sque
prosiding
##omputeran
Cambodia
dahulunya
securities
##ahi
##estock
Drake
dihargai
possession
nes
menyerap
questioning
tergantung
SY
erect
##elve
##imer
reactions
Rasanya
royalti
##urred
Aboriginal
panic
Richards
accepting
shocking
beaches
Rafizi
gods
gifts
Kiev
economists
globally
pengaturan
monetary
backing
curriculum
Pelancongan
Terlalu
Tunisia
disasarkan
tempatnya
salmon
beneath
##kestra
5th
##rud
##kers
mered
Schne
##marin
astrona
Bourgogne
Alzheimer
Bears
Pis
PAR
Ves
lambang
##eously
##olin
kesehatan
diperuntukkan
Canselor
##ifty
Brah
anggapan
integration
coconut
kronik
##eramah
monet
umbi
Laos
##esterol
##arium
##integr
Screen
kehamilan
candy
Bou
petisyen
Valu
hil
shame
Sandy
fluid
aster
tahunnya
dikebumikan
Trek
desakan
steak
Taib
penyediaan
konspirasi
pilgrimage
##arus
span
berpr
cattle
mau
vok
##anim
##eranya
menep
##ekali
sepadan
penyampaian
penyerahan
finishing
berniat
##ELL
ketidaks
motivasi
isolated
Vil
##asai
##ffe
explicit
EXCO
distinguish
Taiping
Aviation
Suf
pam
##acre
replic
shy
##ovan
handled
misle
technological
Celt
bump
keajaiban
membalikkan
underway
obsc
keyboard
asasnya
honour
Perbezaan
READ
allocated
Circle
accusations
Rum
rookie
dirty
kegelapan
280
Hingga
cord
grip
didaftarkan
penggemar
Ide
conservation
Working
KOTA
seminar
##ulance
1912
tular
intimate
Phys
Mumbai
##just
meluncur
##owners
225
Kaedah
katakanlah
Mulai
alumni
rintangan
ART
bagai
##isik
penanaman
##intar
##indas
##izat
kekeliruan
organizing
Bryant
Emergency
##GV
##itulah
chees
bertarung
terma
flows
Using
##castle
Cheras
Maple
Cay
##cano
trials
Bacon
Joint
pale
ward
Nass
jan
##UP
##etas
##oded
pemberit
missions
Pelaburan
##isive
Universe
mengetepikan
Crosby
theor
misc
crowded
negotiate
jurisdiction
powder
Vas
##ilation
unn
##uds
Broncos
116
quarterly
travelers
##zzo
Byzantine
##okumentasikan
##400
ambang
pinggan
Biru
minda
parade
pointing
260
supporter
Against
rebuild
NA
mamalia
##icism
##keologi
Tertinggi
kual
kerum
suspic
suspicious
restricted
Hilir
Yunus
Lennon
Around
##ehan
Associates
Hopkins
Rout
nostal
##asabah
pembahagian
komb
##assion
berterima
Thanksgiving
Ecu
matanya
##esona
perakaunan
soap
divide
Cart
berker
whenever
bandaraya
lately
penalties
Khairul
Made
Nut
##ewengan
dibelanjakan
Imej
Randy
pemberitahuan
Bany
Quarter
foss
##cht
proyek
peer
##elesaan
Consider
Uttar
impressed
translation
GN
menjauh
Shen
specialist
governing
##uksi
##ampunan
spare
sejarawan
##taruhkan
communist
1922
Izzah
muatan
Teresa
Legend
semoga
dituntut
terhempas
kebijaksanaan
##atter
merdeka
##anson
bersepadu
Sex
Lynn
witnessed
Restoran
premiered
Lun
tampaknya
##iburkan
superior
##orient
Angola
berniaga
1931
preventing
Deli
Mood
Vin
mangkuk
menerimanya
attraction
Beautiful
brutal
Tai
siling
Self
##eptions
inaug
##abs
proc
##acey
Horiz
jewelry
GD
Qing
Chah
bermot
157
kehormatan
attacking
boarding
Palestinians
Uzbek
cair
lane
##PG
Cannes
patent
Bruno
Sau
treler
substit
RM9
1926
mentega
Verily
embrace
GT
Mets
hiking
##yyah
Ans
setanding
##quet
drain
offici
Grim
seeks
ate
currencies
Jaminan
ternakan
vessel
Easter
li
##hsan
##aram
##asio
binaan
##hibition
##42
##tul
berkes
##ishna
addiction
Kemenangan
Cy
taco
##aren
148
USB
Jacobs
tebusan
nipis
Pandangan
Vys
oral
##ogi
##ultanan
ash
Parks
##omba
dijamin
pilots
sharply
Lost
berarti
##ingkali
Andrews
mempersiapkan
Platform
Valentine
SAM
Frances
Soalan
Upon
1923
dataran
Terp
teki
infections
slave
lifted
pronounced
Laksamana
Rather
##zman
##otion
##forced
launches
1924
dependent
Sig
##ugo
pelajari
makalah
##sex
Sepang
Salt
Yea
Kyoto
##rawal
dikirim
##erbangkan
retain
cleared
catalog
snake
fas
##wazah
##anjiri
realistik
buyer
Edinburgh
##lia
storey
Jolie
intends
sahamnya
80s
##royeksi
nominations
OPEC
sper
rover
Keempat
##named
Richardson
rentak
DIS
cris
##net
loose
introducing
arranged
##odel
concess
##ingkir
contractors
##yapu
Jamaluddin
HE
Hogan
Uc
##osok
##aban
Norweg
Mulc
Thuringen
##unangan
##isipasi
adjusted
mengutamakan
naval
##umsi
arbit
happiness
Modi
Deh
Pondok
hier
lompat
rama
##tij
progresif
##ovac
##ANY
Permintaan
nescaya
##ME
##amina
##reced
northwest
spacecraft
##cock
abu
ditingkatkan
Ship
organizers
NYC
meaningful
##quis
Warriors
Ecuador
LG
Villa
##istim
Superintendent
implications
KW
Peringatan
##ellers
impose
righteous
Montgom
legendary
Kuwait
Cort
Dut
hes
navy
penyiar
Panthers
treaty
Lembaran
Bowie
Prevention
aluminium
##recedented
Prison
imperial
Montana
Recently
floods
Murdoch
Fior
##irakan
Barcl
filmed
purba
Casey
Faisal
Dob
bust
##athe
##gins
gelembung
Lai
poket
leap
Elvis
Sedangkan
##oksida
sekalipun
habits
keesokan
Nurhaliza
##SO
imigrasi
##erville
colleague
requirement
superhero
Yellen
Zoo
provoc
ears
forming
globe
markas
membiarkannya
Chee
kebahagiaan
Bristol
##apple
bergelar
frasa
##plant
##ESCO
Siew
curious
cinema
Certificate
bureauc
Certain
##asya
##otta
##anduk
##oped
Storm
ekspl
dealer
Rossi
pengetua
mixture
fu
fren
##ubahan
penentangan
berkali
berpura
poses
Carrie
fertil
Baldwin
NCAA
##ebr
scrat
Carly
songwriter
Reading
respondents
##mus
contested
##ijaya
Anggaran
lest
memuncak
##indu
abund
boundaries
membebankan
Oise
##udh
keselesaan
incumb
##umbu
contents
didasarkan
270
magnitude
Crystal
enabled
Sug
omb
##amoto
suits
Harimau
releases
composition
##leen
Peranan
Mancha
closure
ETF
continuous
caution
Lil
Rekod
menerus
Telok
##shine
Tomorrow
eldest
telecommunications
Besides
Huff
Altern
##luaskan
euros
Zero
##rar
##ustain
kesembilan
deciding
Ort
leak
##atsu
Makassar
naratif
Better
hyper
unprecedented
Kro
Xia
Zimmer
##arkah
Semoga
reviewing
2024
evaluate
Owen
density
Riv
naga
evident
Linux
Bangka
lingu
##uen
##through
Merkel
approve
Peterson
pemiliknya
excessive
##vor
##apung
caps
Flash
naked
Gust
##TAR
grave
Marketing
Sayangnya
guaranteed
apologize
bibir
Pun
Barr
##incikan
payudara
Medicaid
berkomitmen
Yak
puzz
tatu
engaging
credits
Dipertua
Cincinn
Bapt
Haiwan
Mic
##He
##antin
usage
sends
Canber
##ATE
strengthened
robbery
Pab
pembiakan
senaman
basah
entert
mechanical
Gul
shoppers
Antaranya
159
wrongdo
holy
briefing
yields
retrosp
pants
##elman
convert
examin
##sium
frekuensi
penghuni
menyoroti
Nab
Ruang
nil
##edes
Status
dikekalkan
Fraser
dipandang
##atty
Florence
McConnell
keberkesanan
floating
pajak
beans
chick
Edge
Fargo
Gut
wira
##oft
##uding
reverse
usus
spont
bertaruh
Schwar
penyelewengan
Minne
networking
testified
Million
##Pal
##SON
##ondo
offenses
perlakuan
Urusan
sarung
sporting
Leslie
Sorry
Lightning
Psych
buka
##otting
Kemungkinan
terjemahan
Mig
Raff
Ralat
##Sports
execution
firing
Petroleum
Histor
budd
seruan
deserve
evol
EPA
gate
mest
devastating
##KO
agrees
convince
##EWS
rhet
bell
##31
stamp
##asteraan
checked
kuku
leverage
concerning
sampaikan
Flag
kisahnya
menjualnya
wrapped
gerak
Minneapolis
sembang
Kepada
offerings
GAAP
Tiong
patch
##erial
campaig
voter
APR
troubled
Rhode
mandatory
Dungun
Montgomery
dorm
luncur
##aa
##inambungan
##angel
##udup
##lete
Jeb
Jurut
##ansi
##aparan
alik
##sted
Pembantu
suppliers
pergaduhan
avoided
mons
tabi
Perai
Sebastian
mekanik
verdict
Nombor
dihapuskan
architectural
sindiket
Customs
550
teka
##elps
##osit
Shan
##angsangan
rolled
psychiat
Cincinnati
Teng
Strong
credibility
JOHOR
Alsace
##etanya
manages
158
perisik
duet
Lindsay
Gubernur
echo
##gow
##Mu
bears
insert
##eze
susah
Deutsche
koperasi
##kup
alter
Saxony
Hoffman
##arau
disifatkan
Onn
Record
Kendall
didiagnosis
Falls
Raw
TU
##ipel
##ancuran
Electronics
astronomi
Tradition
Travis
Mead
##unuhnya
semak
##inking
##LAC
Saad
logistik
twenty
Miranda
Champagne
Canberra
File
Tonton
unjuran
##artawanan
spouse
Truth
regret
##rano
dimenangi
Fate
Midd
Zach
kebocoran
pulling
reaches
bombs
Segamat
recipe
Software
##redib
bentuknya
Bahrain
distinct
steep
bully
##aments
##eboard
arkib
##holm
sculpture
Yuan
pai
civilization
catching
##moil
##tail
pergunungan
Schools
township
perisikan
judicial
Bark
Benar
Hwa
PAN
kenc
wound
Opposition
Magistr
berundur
##opor
smell
receiver
diameter
mempersembahkan
Citizens
ru
firear
berlian
##itters
##ediat
##royeksikan
Banc
Nuh
##aleh
spray
dihar
Victorian
manufactured
Appar
kombinasi
gran
##pal
##zim
Fresh
##ashing
Markets
kampanye
pilgrims
Sijil
Dri
Mec
##cut
##300
##asalahan
##itement
memutar
##EOR
lineup
Interesting
##boys
suburbs
memperingati
jemputan
Yugosl
tension
##onim
##adab
##alled
adminis
mengirimkan
torment
assumed
Vanessa
lensa
statue
singkatan
##idor
memupuk
Ner
Tut
Prima
##tenan
ancest
##pedisi
BuzzFeed
scrutiny
Tin
dina
##leus
##occo
Heaven
overth
conviction
dipersetujui
Same
fingers
Thorn
reass
Perintah
decides
instant
binti
Farid
##IVE
Tyson
Hin
carn
sangk
memburuk
keliru
difficulties
Cruise
##club
##doors
Oc
sap
tends
settings
ditimbulkan
##atorium
boneka
TC
tayar
wire
##eau
Shield
invitation
preserve
nutrition
Bai
Lac
Lanc
Tid
au
Individ
Neill
prevention
Bott
Dusun
kegilaan
verses
Picardy
appeals
167
##engkaran
Provence
harassment
Emirates
Pard
cet
lidah
##uard
pencuci
Commons
Pedro
tremendous
##enaga
##illery
notably
Tangerang
frustration
prosperity
Nearly
Wing
##iklan
##acent
teror
##avo
Annie
lingkaran
##OOD
Liputan
##ilasi
hopeful
##uatkuasakan
Princeton
pergelangan
Mog
##AI
##SJ
##omed
menghiburkan
interim
shareholder
Schmidt
pemanduan
##elet
abused
colon
Samar
Cable
MOH
VP
amer
bug
mankind
weekends
exploring
Schultz
Joey
damages
crossing
ROS
kend
alias
secured
##umbled
mature
jutaan
subscribers
##oos
highlights
benchmark
Rebec
##urches
politiknya
Artist
cautious
mestilah
Give
##lif
##etres
assemb
##iatri
determination
Weekly
rescued
Yin
baja
menem
sofa
investasi
Syaf
seberat
##kal
##kward
##64
doubled
sejati
dignity
##iciary
Clarke
upgraded
arrangement
Luxemb
Lod
dairy
agen
uploaded
Parade
mahkota
1911
usahanya
turmoil
Fadz
lilin
##vant
##HC
merayakan
##umpuhkan
NOV
kut
oath
march
konsesi
1916
Bod
Penemuan
designers
##gesa
physics
congrat
gimn
kaunsel
Horm
Halaman
assured
hidrogen
teachings
geran
tetingkap
hakikatnya
varia
##SC
##isely
keretanya
ketelusan
pemisahan
expend
contrad
demonstration
queen
Dublin
Lukisan
##ithm
compare
peers
particles
milenium
##Cr
##eru
thats
Christina
bottles
Hig
NOT
rall
persons
Month
Penjara
removing
Patricia
Coke
Io
fict
##raga
##furt
##alaya
##abria
jenaka
sensit
Symphony
disad
charts
##usta
bersinar
capit
fosil
Claude
debat
##eres
kepulauan
Progress
dihubungkan
completing
Buch
sangka
##RO
##inkannya
##ugasan
Pharmaceutical
cataly
1915
##aafkan
Welfare
gencatan
##iston
akun
Pengalaman
severely
requiring
hydrogen
beings
Stories
sepupu
dinasti
##asyh
homosexual
parallel
kaji
riders
##fly
keen
##iganya
Berry
##ONG
Burma
menegakkan
##ahuluan
pursuit
jung
sorts
Darwin
murdered
sustained
Heath
Urugu
survivors
Santi
wrest
tribes
sod
diver
khemah
observers
abolished
Mub
##embungan
Chun
pendahuluan
Penyelesaian
bulk
holes
irresp
recipients
climbing
##holders
##zalez
Hour
Heavy
oppose
pharm
5000
disebutnya
checking
Baba
memfailkan
Issues
Rata
bun
##long
pemergian
##afi
Personal
kekosongan
##elsen
Deal
migrants
lazimnya
heroes
##comfort
BERN
Poor
akibatnya
disputes
graphic
verily
dipulihkan
mencubanya
##ipelago
##fs
##abisan
Champion
compelling
outlet
##former
muziknya
Darussalam
enhanced
padu
##itma
intelligent
pesuruhjaya
Mann
##oxide
Pencarian
Especially
Rebecca
Fav
UNESCO
Gene
##ajiban
fortun
Squad
unic
pengulas
keboleh
Erics
Iq
gandum
feminis
oversee
Gonzalez
##esies
##itty
differently
Sepert
pedang
tunnel
fantastic
##kos
shirts
dilemparkan
sedan
Rover
Seramai
absorb
pahala
une
stak
disrup
Phelps
penjajahan
Okay
aspir
##rolet
##IKA
kakaknya
superstar
Situ
##fan
pembatalan
##owned
lalui
angkasawan
selesema
describing
playoffs
PJK
yayasan
##ampar
##undangan
138
Angels
Holly
trophy
Penerbit
Mulcair
Kob
##allah
poly
Amal
acceptance
##fortunate
Conservatives
Dawn
Pon
sebatang
##tib
Earl
predecess
Sherman
interpretation
7th
##enyap
##emont
reception
Wheel
Ramlee
commissioned
deliberately
Stage
##achers
perlunya
tentangnya
surprisingly
Picard
disclosure
Ericsson
Luna
cit
##atat
traditions
Sandra
CT
PDT
Tentu
pola
therein
Enforcement
demo
gagasan
Bilakah
flooding
Titi
mulakan
tumor
Pomp
filling
##zel
##arag
##arisi
atur
Adela
Regiment
DBP
perancang
##erbu
surpass
30am
carpet
progressive
walau
Schneider
Lith
Pool
implikasi
blu
Springs
fascinating
WN
gad
##iriman
melekat
##ehad
ketenangan
ditaja
bertenaga
##riving
Saud
classroom
Regard
Baseball
Herald
Nya
##nie
##CI
Shim
dilukis
1500
Canadi
Sung
Anat
trim
deck
pengkomputeran
Freud
Hib
##medi
Perundangan
offshore
delays
container
municipalities
##erse
menggug
THAT
commentary
tragis
sinilah
Classic
pengikutnya
kekasihnya
nabi
##rito
Tidakkah
Generation
Kakitangan
heter
##emes
##illac
grants
processed
##getown
Suspek
##engkelkan
Kastam
hubungi
plas
comparable
hadith
##isms
profound
tragic
lineback
penyusunan
Kuba
uncomfort
stik
Indo
tertakluk
Paulo
broadcasting
Rizal
nagar
prol
##evard
hiding
##ennium
Palembang
Activ
withdrawal
motivated
indicates
Fisheries
Chamber
dual
diuruskan
tergesa
##ondaan
Shu
themed
erad
flavors
bra
##wall
##zaman
quietly
ISBN10
mawar
pengumpul
Henri
pengebom
Officials
Cisco
Peta
jangg
##43
##61
##itate
##etes
Hock
Cameroon
Konsep
chaired
Herbert
##JO
exec
kelemb
berdebat
##ATA
Louise
kuota
tadbir
##nu
Inovasi
Heather
##lanti
Jepang
Clean
Dokumen
maritime
RSS
##zu
##etics
perahu
themes
Keseluruhan
classrooms
productive
Kolonel
toilet
##akti
ketahanan
memerlukannya
penggodam
Meteor
Dad
cant
##uine
keusahawanan
##ersi
Whole
terbiasa
kompl
##ermo
Glen
cosm
BL
Rek
Suri
##walk
ninth
Semb
##ompak
dipenjara
rhythm
crews
##IFE
render
##emony
##ekukan
##ehkan
##erhaka
##uffle
menelefon
GMT
floors
battles
encounter
##ajin
Antar
designated
Lokasi
Stam
Terror
teleg
password
Yesus
blogger
Griffith
Kimb
Krisis
Punj
Visa
##inggalan
appet
partai
PS5
kepadaku
Episode
dont
pahit
##iawan
##cover
Roma
Photograph
##PO
pergeseran
Maluku
Harus
menghalangi
UI
naut
##FM
##ecurity
uphold
Pendapat
declare
lebah
Bakh
cops
##anggaran
indication
137
Coch
##333
Import
withdrew
##emark
##eport
stunning
posed
##lasifikasikan
bacon
##orge
##ortive
princ
ditimpa
Senang
Faculty
gambarnya
##zzi
Statistics
mantap
Aish
nafs
##arians
belt
Conan
speeds
generous
Phillip
seafood
grace
##erhentikan
Pandan
Cuomo
##amas
bertaraf
##opters
##tenham
##asihi
Meyer
kencang
Rent
quad
##onggaran
prohibited
penentuan
Majistret
mengekang
automotive
Bub
##nas
clan
Merrill
##atched
elektron
berakhirnya
Metal
Babyl
Suharto
Edmund
Stevens
Sinc
terkaya
Ops
Subsc
copper
recipient
Circuit
Imagine
Wool
##ahal
##etically
unfortunately
unanim
membiak
keping
Examp
warehouse
##berger
sfch
Bala
DM
mild
##Sh
stopping
lasting
##eliaran
Maid
Rama
##umar
shower
berskala
peoples
tujuannya
atmosfera
advocate
Ferdin
Lau
doping
rational
menjengkelkan
##sius
towers
Canadiens
treatments
Lubnan
livestock
Maghrib
awkward
bolehkah
Neither
pengasuh
struggles
Bugis
toys
tinggalkan
Parliamentary
museums
Civic
##itus
memacu
##quest
pencetak
dipersembahkan
##akmuran
menawar
diberhentikan
syurga
mendorongnya
RM300
Dang
Koz
##orik
Mosul
Razali
Players
Jacques
##rotes
disagree
##ematic
orb
##indasan
seksi
Asasi
Atlanti
bernafas
##ippers
emergence
##azaar
mensasarkan
dikhaskan
##tel
##hami
arc
aggreg
Gin
menyala
##onsible
pesara
courtesy
researcher
encryp
sambilan
##arafan
Tempoh
Kumar
Gers
##alinan
yours
kadangkala
protokol
Suami
dubbed
Zurich
Name
fiber
##utur
##charg
pledge
bersantai
Depp
Interactive
experiencing
deriv
Illustrations
suruhanjaya
sfchronicle
Crew
HAR
Marang
roster
wrap
menguatkan
ekoran
debu
lembah
gasoline
Greenwich
PayPal
##istimewaan
Tani
arkeologi
faculty
renov
komposisi
Sold
trafik
##obos
soup
brick
Blog
releasing
consisted
GB
LC
Racing
cafe
##pura
##drop
menyamar
offset
jenazah
crying
Rapid
##bag
##asikal
Astr
quo
Rahsia
characteristics
bulatan
Amendment
autobi
arom
detektif
Kabul
Medina
smuggling
Leadership
Fay
Fine
IB
KH
Native
Tuah
memasarkan
123
Westph
simpan
finances
Malayan
mengesyaki
##elihood
submarine
Broadcasting
seketika
permasalahan
interf
##isioner
Kenaikan
warnings
Shares
delegation
##isytiharan
merayu
berkeliaran
kebutuhan
Advert
biografi
dipertik
anggotanya
##UNG
Movies
folder
plaintiff
Deg
Uigh
Claire
Jonas
precisely
##asant
penguasa
##ipulasi
Rouge
##yme
Bloom
Baitul
Luxembourg
320
Tetap
##urans
pengajar
##rator
panels
thriller
crypt
Fernando
ditakrifkan
sejajar
Butler
Persoalan
##inski
detain
kaumnya
vegetable
Gus
Jub
##sor
##Book
##onf
dikarang
Penerangan
longgar
lawati
Yok
##marhum
frustrated
Stephanie
Rug
overh
##ejal
113
rebell
Catalon
Santos
fleksibel
Cave
Flem
Sibu
Brain
##ushima
ordering
wreck
##estive
unite
##endek
refuse
Ess
Fields
hosp
##gat
bersambung
completion
Papar
climbed
railway
Petersburg
lt
##avit
kesaks
Unc
perjalanannya
Keper
Lieutenant
wheels
tissue
Range
Riy
tune
##isiti
##ajadi
penukaran
makin
Belle
Johns
Superman
competitions
Wildlife
Basket
TS
mengangg
##udu
Georgetown
Nobody
Hispanik
berprestasi
Ris
Tiket
jaring
marketplace
drawings
pengunduran
keterlaluan
Alkitab
Dilah
ED
baking
facto
McCart
Shortly
Kick
Wa
tukar
##tab
##eworks
spy
reminder
##ategor
penggalangan
Kylie
bangkai
berketurunan
dibuktikan
kehebatan
stupid
Zainuddin
NEWS
jawapannya
Goh
tengk
memakannya
##essert
counting
triple
emerge
controlling
concentrated
kosmetik
merentasi
Echo
sint
mendi
suapan
##injiang
kemampuannya
terkandung
Lif
Vand
rangsangan
##rag
proclaim
complement
diproses
define
139
entity
Usah
Charleston
Chevrolet
Hide
Moy
##pasti
##itungan
##unal
Weather
info
poem
Liberals
Curiosity
semul
seringkali
idol
shrimp
Eugene
##41
##akapan
toks
merundingkan
outdoors
terbahagi
joins
Rocky
roller
NBCU
breathing
menjulang
fined
demografi
RM30
Brighton
SL
Ters
decent
Mengh
kolaborasi
militer
grams
sipil
##asyhuran
Dilahirkan
##uatu
Laf
Merb
melakonkan
strain
menggandakan
khat
Halal
honored
diskaun
decrease
Cemetery
Fath
Pilih
pine
zoo
##isian
pensy
##iste
terputus
excitement
Sainte
##ordinasi
humili
Dollar
bother
lung
tiger
anal
disruption
soy
lease
JPN
disappointing
Packers
Similarly
Bendera
Choice
Brett
239
##beat
Dulu
Kurang
Sob
borang
banding
gred
nas
##mare
Analysis
##indo
memecat
mengeksp
Glasgow
##Crunch
Left
Ariff
##ordinator
kurikulum
Growth
ambulans
##nal
##Magic
##odox
terpakai
verse
wataknya
Sukarno
##eorangan
Habs
Peninsular
rehabil
jets
mate
tantangan
##oop
contamin
robots
Bans
JDT
Masters
Umb
##fikan
##lamm
Reds
applying
Tapak
APRIL
Gig
bout
berbangsa
##ucker
worthy
Wahab
Coyotes
##opedia
menyebar
Meur
tenure
risen
perhentian
Nicolas
Fatimah
Statistik
Ria
Tepat
##gak
##IO
diatasi
##otret
Marz
Sheila
mewajibkan
tertawa
grandchildren
Ultra
Job
pant
##ujan
outp
##oodles
percintaan
midst
rebound
tastes
Bundes
dukungan
##ebatkan
Pergi
forgiveness
undermine
Crawford
aes
##hard
##isnya
outer
undergo
Pemul
Delaware
pesaingnya
Mongolia
pensyarah
UT
laki
considerable
dealt
menegak
corporation
berkatalah
Various
##uccessful
Adelaide
Catalonia
Gop
ratif
##orns
contractor
steam
supplement
steal
##efa
singa
##plus
TechCrunch
Nickel
absorbed
Ferdinand
##frey
banyaknya
elephant
Palin
customs
disputed
bint
##Cap
##arp
##uktor
biola
Sochi
marketed
tiub
1921
Planning
Own
kurnia
diajar
elegan
Byr
Rosli
melengkung
Railway
gerbang
disalah
Boon
pandangannya
Protest
Panduan
recommendation
Occup
Coalition
kelaparan
sesekali
Notre
millennials
Hindia
flexible
##storm
Edison
##unyian
irama
bijaksana
membahas
disappearance
Draft
bum
seratus
competitor
platinum
pengkh
chemistry
katalog
##ectiveness
Ethiopia
dinafikan
Mali
Soh
Asri
Mahal
slaves
menyusut
##brook
uncomfortable
Drop
Lep
Saga
##wis
##eur
keys
kesep
surah
monkey
60s
crowds
valley
Buddhist
Curtis
Zen
ditandai
API
treating
elaborate
Kasih
Maju
dent
kepadaNya
ketepatan
Dij
147
FilmMagic
dugaan
Honey
Hukum
fence
##adalah
##ogg
Pengumuman
Janganlah
FRAN
cure
##icating
##usting
tersekat
perpindahan
texts
pitcher
simultaneously
JANU
LIFE
Sett
Swe
##nn
##hlas
##aharu
##verages
safer
penyunting
depannya
Retail
Bermain
cigarette
##LATED
Xinjiang
taufan
##asihani
enables
126
combine
diperolehi
Juvent
almari
Selalunya
calories
AFF
Caroline
Fig
vel
Surau
mengeluh
adaptasi
##ampang
flor
Atlet
Simmons
Kais
ruf
threaten
coaching
1908
Interest
championships
prestigious
Westphalia
cemas
##araoh
pembetulan
121
donors
ekonom
Greens
letih
entertain
##shot
2026
##los
##artet
1913
Cabaran
membacanya
intu
##ulia
##izers
##aires
memperm
interface
Ayub
tongue
licensed
Baird
##urrection
penelitian
##quer
strongest
inherited
inequality
Jared
Sku
Yos
##apnya
Austrian
Pengkritik
descendants
illegally
dried
dilanggar
Permaisuri
Yusoff
calculated
Televisyen
hungry
Juventus
SST
Iaitu
probe
passport
comprising
teruskan
mencamp
flip
specialty
py
budi
categor
6th
##cers
##leck
##ucutkan
Harlem
kehabisan
##enggam
Firef
RELATED
journalism
Betty
Tanya
##aley
##etihan
##theless
mencabut
Spider
booth
##atchewan
supportive
DR
HMS
seakan
Chop
locally
Bened
##ITH
ISBN13
Saiz
Ting
Yel
veto
##ilid
##ikin
voiced
commodities
diragukan
cycl
Kerjaya
privately
Access
acknowledge
Duchess
od
##bin
##oned
PhD
dirasmikan
organize
historian
tubuhnya
Matthews
Maurice
Jing
##elly
situlah
##abbing
appealing
Sop
##irukan
Than
berbaring
132
Kebebasan
suntikan
separation
tipu
Throughout
highlighted
obstacles
disarankan
##ovce
kelmarin
menerajui
tercemar
Saskatchewan
Khir
TA
##held
##arations
##edonia
##ukee
terbenam
Orchestra
slide
##ennes
munasabah
paket
constituencies
Aus
Mys
##lair
153
representation
slowing
Anyone
Lambert
ganjil
Buah
enl
undergoing
##KAITAN
moyang
picks
tahfiz
diduduki
overl
##INI
lovers
BERKAITAN
menyusahkan
Mitsub
Kraft
Sears
Wimb
bersiri
robust
Zhang
JAKIM
Kupang
kurus
kredib
rondaan
yog
##neum
Climate
Technical
Medi
Titik
pengiraan
renowned
##ingankan
Croc
dialek
memperingatkan
syaitan
Tarn
Vatic
##aat
##donald
##state
Pred
Menerusi
##spirasi
triumph
wondering
spectacular
Padahal
bend
lev
pav
till
##onely
##adamkan
prince
menceb
bio
servers
lega
advances
periode
Rahmat
ibadah
##ENGG
##eroboh
displays
Besi
boring
##ebo
##ifi
barriers
##oshima
poin
sympath
Suzuki
kesusahan
Lund
gt
##lation
##rics
stating
syariah
apple
worlds
donate
extends
Fird
##News
showcase
##ehadkan
VM
fathers
##ders
##alt
unacc
unfortunate
alike
semenjak
Colonial
kewartawanan
Medal
Zimb
fasil
##rock
##oker
compounds
credited
warming
NT
ty
##kir
##adband
Pulai
homoseksual
Erin
purchasing
MSNBC
Skuad
Lapan
##jak
Exxon
Monte
attempting
terhormat
Burns
behaviour
Mert
Mega
inapp
perjudian
Minor
suggestion
Pengeluaran
NR
tegang
hopefully
associations
Nasution
Corporate
potatoes
Competition
chamber
Wer
Perempuan
memprotes
trofi
jumping
applies
Pistorius
Nina
menatap
##acakan
membimbing
##atedral
Britney
lembap
pasangannya
##world
negotiating
congestion
recovering
Kurdish
Vernon
Barclays
##elai
##acun
penindasan
advisor
explosive
excellence
Vatican
Pit
Pall
Sleep
jersey
ast
shorter
barrels
optik
feathers
examined
Bendah
Fatt
Lh
Mers
Wir
bergambar
Garner
Memphis
disalurkan
drought
merakamkan
pertengkaran
Diaz
Meski
Mountains
berkemungkinan
Masukkan
Rita
suai
##ilanthrop
##elix
Manit
equation
Monroe
Rowling
bursa
keretapi
dibayangkan
deemed
invalid
hidro
maharaja
70s
Multi
ignor
menyesatkan
orphan
EMC
##log
merit
mencium
Khazanah
banduan
portraits
Rafael
tiruan
PLUS
imbas
sidew
dipelajari
fries
mengisahkan
shed
reptil
insurg
topping
priorities
Yamaha
supervis
Cait
Tb
memori
organis
##ieres
##affe
mengikutinya
Guide
layers
lighting
Ilmu
Kluang
8th
Fuk
punc
##qi
programme
skating
directions
IPOH
architects
Mitsubishi
cengk
breakthrough
patience
adoption
lovely
oriented
Paramount
Pors
Sala
Wade
##enderal
align
passage
Muhammadi
debris
ISIL
drowned
ministries
misconduct
KS
nic
Ingin
disebarkan
##erby
biasiswa
perguruan
Havana
Dzulkefly
##zar
##olia
unders
##space
segments
Provinc
garbage
##yeong
Rodgers
attendance
Lazio
patriot
Ler
##rons
##orrect
bertembung
122
##yakini
revealing
Denis
hatred
Eagles
confidential
Mesej
##oya
insight
Akh
ehwal
##ims
##ateau
edited
Calvin
Kemudahan
Kemuncak
##ATION
330
Mint
Won
Yen
Ze
##97
burst
Petro
labeled
apartments
Initially
triliun
pertunangan
manusc
annoy
karangan
Strip
BACA
Marian
Pangg
rizab
dihancurkan
teammates
##ALING
advisory
avoiding
fare
pie
theories
amatur
filemnya
datangnya
berpendidikan
Eventually
shifted
Fitri
Bint
Bord
Hik
##arious
penjajah
##anny
penstr
Fuzi
listing
Indianapolis
FILE
incumbent
##88
peneg
drunk
Peluang
##raska
menontonnya
Current
emphasize
RON
Sugar
Tent
intend
educate
diingat
##stand
disorders
Edisi
##engkapan
##IST
Nichol
KR
##ahihan
Style
utusan
Contin
blocking
weaknesses
Genting
PGA
Satan
##uler
##abau
apost
plung
Weiss
invaded
kecilnya
yea
Electronic
sequence
Hishamm
Uruguay
Rizab
Tawaran
##uap
##apisan
mengasingkan
stigma
churches
sehat
##ekerjanya
minded
Miles
elementary
suburban
campaigning
##ularan
Shari
Marquez
Penilaian
##rise
urgent
Schwartz
Lic
Wen
diizinkan
beverage
##giat
imper
landmark
BTS
Ianya
PU
gian
##panjang
Adapun
##unted
Survey
blockbuster
Penting
renewed
accelerate
Beauty
Gent
Pens
##than
##unduran
##ansuhkan
Belanjawan
Tuhannya
trusted
Savo
Twenty
laughing
UAE
Huang
KB
Nib
hills
##enzo
##estry
pengaw
Perkembangan
homeland
##lynn
tendency
bowl
experimental
Ernst
BAHRU
cuc
mencuci
farmer
licin
horrif
Squawk
BLAC
Kens
KTM
daku
##oub
effectiveness
Willis
Warhol
bayang
##ocaust
slander
##adaran
pengangkut
Chal
kelainan
Tasman
ninja
Calvados
Dum
menger
apatah
Shr
Amat
Bahawa
Desc
sponsor
Creative
mathematics
Eye
coh
cakes
wholes
##ewater
##ivasi
Alias
jawatannya
Everybody
Trail
taxpayers
Jura
Pain
grey
##anor
##acita
abbre
refusing
diploma
tonggak
Professional
revelations
disadvant
Pribumi
##comm
##uluki
berib
memasukkannya
revenge
Rockef
Krem
Ceremony
Dise
Kenderaan
Ost
bamboo
##aho
paramed
fails
collections
symbols
relocated
Treaty
tube
##dar
##inging
mengehadkan
##antasan
repeal
Sprint
bush
epik
RM15
Firma
##IMA
Infan
Saddam
Pearson
inevitable
Picardie
aging
buang
degC
rewards
##TOBER
Noh
mater
##enstein
Jenkins
advantages
forgive
RCI
Property
Budi
MET
fond
##dit
##Bank
Penguatkuasaan
Flat
Neal
bertuah
psikiatri
Wagner
BY
##isible
##ellar
berteknologi
Brendan
##etheless
##ATAN
Kurdi
Bawah
Bambang
##amination
recount
Kesultanan
strategist
animation
1930s
Donna
plantation
Jurulatih
appreciation
ngeri
privileg
##lace
Perkins
##aitun
##ospel
Tea
Penyiasat
Saturn
Analysts
intersection
Leftenan
Observ
postponed
Sis
##ewahan
##anyahu
Tracy
prejud
Donuts
Moden
Pilgrim
MH17
apologized
korupsi
Crazy
Gund
##oots
Mariam
tergel
Overall
botan
relaxing
Ancient
Sgt
Boulevard
fictional
Body
##GU
##uded
dibers
Something
Pepper
tabiat
Kayu
##iances
##ultur
betray
prosesnya
Robertson
creativity
Getting
cot
dessert
lined
##hand
##amen
abangnya
secrets
Boeh
logistics
diterapkan
references
Ariffin
advisers
Mecca
Barang
perangkap
awful
Newcastle
crust
Perkahwinan
imagination
ethics
labah
attributed
awaiting
Ov
vowed
##pg
##sula
##stock
trash
Senjata
Netanyahu
fasting
dissolved
mukj
concentration
NOVEMBER
##agna
##artisan
##empar
plum
kehancuran
origins
Player
certification
diadili
JAYA
Kai
Vert
Stones
##limited
ambulance
##ADI
justif
sustainability
##math
##amaran
berorient
mengahw
##occ
##ifa
seller
mush
ensemble
pinggiran
planted
sudu
Sayang
mengagumi
Strategic
reflection
CITY
MK
Mia
pekerjanya
##tator
##initely
##akiti
Ala
keletihan
ideology
MoU
flags
Letterman
dipertikaikan
pond
memintanya
sayangi
##aptasi
waited
remembers
Jup
##itative
##DAY
Benarkah
farming
piawai
Cyn
Ging
kup
panggil
Thir
reiter
sekel
##eryl
##lesh
terpengaruh
kompromi
Picture
Chemical
meredakan
rhetoric
apology
selusin
compact
kecemerlangan
Managing
##tein
Penjagaan
Advisory
Nebraska
Moody
Hishammuddin
toss
##agle
membunuhnya
olehnya
Aliran
nowhere
Plzen
Kristen
Rockefeller
haul
ling
sizes
##DR
##ocio
Pemegang
contacts
certified
SARS
Citi
Kant
hun
prib
pairs
##nically
##isement
##ecatan
##ordination
Beli
Canal
consumed
##eliharaan
kidney
rohani
HK
HARI
Wise
Theod
Performance
terbuat
availability
stakeholders
ports
Pengarang
Katy
ceremonies
tertulis
Reh
hug
##erate
berkurangan
Amber
serial
Geoff
swift
warni
flowing
Laurent
Farmers
Perisian
##orbanan
##enhagen
Mud
menyapu
unre
penyata
maraton
connects
Match
hantar
##ingkiran
donat
diculik
##opsy
antik
willingness
inhabitants
Lamar
Making
gur
##ilkan
##andro
chic
reson
##adankan
Hautes
NSA
Sustain
##egara
Mao
archive
harmful
Ernest
maritim
Uzbekistan
DP
fancy
neph
##City
##uturkan
##ususkan
filter
berbau
kepuasan
Convent
Mayat
##swick
Skim
Snowden
Ridzuan
cultivation
Happ
Matang
##lot
unaware
Kemerdekaan
mengelirukan
margins
Faktor
condemned
laptop
Beri
Cak
Raid
Initi
##aleigh
diceritakan
loaded
practition
embraced
Rakaman
Suffolk
Hos
dawn
##62
##emo
dilanjutkan
komisen
##itte
Pendekatan
cabin
touching
RasulNya
##ustru
##sworth
embassy
sorotan
Mazra
nitrogen
Papa
##uaan
grain
specialized
Actually
twins
Bakr
migration
Hack
therm
##ianto
Inisiatif
pelopor
highways
spirits
Almarhum
Newark
##aniel
Kemaman
##EX
##etooth
terapung
ally
##anggaan
terkesan
solek
##bye
Race
pik
rans
##watch
##gl
##amel
124
acceptable
Cooperation
Bone
Das
Km
##ebon
##ubling
glory
frank
distribute
Study
banana
Bandara
Lubuk
MVP
brib
##arnya
##asut
peril
##acious
##awawi
Wee
##itten
preview
##season
Semarang
historically
licenses
Soccer
zones
##ract
##ontier
menemu
##ebalan
sejagat
cannabis
Ghana
fortunate
Bast
Lanjut
WAR
fiance
##quarter
##amak
##teras
##phants
pressed
revised
1890
ekspor
subscription
dicatatkan
penguatkuasa
senyuman
4K
Crow
HM
array
Patut
Bayern
##eddie
Advanced
distinguished
bund
Isl
Sultanate
futures
Kapoor
labels
Agricultural
Critics
Kamera
##emuanya
##imo
heated
##oyle
##ebutan
drones
Reef
Komisioner
figured
Collection
garage
anchor
Wuhan
hollow
##arie
##stop
watches
boycott
PAGI
exchanges
Mati
##warts
menempah
enact
Shariah
bajet
mukjizat
Tina
hos
wan
##EE
kekangan
pengalamannya
aksesori
vertical
DS
Klin
Lamp
ferry
pemangsa
berpandangan
admission
tablets
kotoran
Birth
Armor
90s
Dale
Fuj
cogn
anx
antar
##ocor
worries
surplus
colonies
punch
casino
Cornell
mengutuk
disengajakan
FT
Pretty
Belitung
Pendang
financially
Chapter
Tottenham
dikehendakiNya
stabbed
Cawangan
PO
##yet
##VI
kemarau
berbasikal
genuine
Frankfurt
weighing
dompet
##ZA
menumb
chairs
Colonel
simpl
Pertengahan
CEOs
obesity
nostalgia
Focus
Hood
Saksi
Vick
##75
memikul
servant
##paid
rasis
penganjuran
laboratory
rainfall
neighborhoods
Cinema
Uighur
Kitchen
keuangan
Agus
Solutions
Embassy
Bata
##FI
##imut
Parent
corrupt
Pulse
supplied
pedestr
##olisian
penipu
caf
paran
mengalu
sebaya
beverages
dikej
pharmaceutical
Harm
libr
horrible
Presov
##aucus
Concord
Prosecutor
festivals
Midi
Niger
Reza
rides
sadd
##ingen
menyemak
sekeping
spends
Arctic
protagon
Minangk
batteries
Congo
proportion
Jadual
##ii
##ertian
memperincikan
tetapan
believing
cookies
melayang
unfold
Brunswick
inherit
Chambers
Residents
Dord
sukai
militant
##laimed
Earn
Sulu
lans
Nora
respir
Majid
dominate
diamalkan
jasa
mengatas
Prague
Aduh
emperor
twist
Help
preserved
Methodist
memusatkan
McCartney
##MAN
Perindustrian
Colbert
selesaikan
Motion
ekspresi
UCLA
Ud
pendengar
berbaris
##baum
##iciently
athletic
Sanskrit
Kejuaraan
Santiago
Die
ja
##akainya
##riages
intensive
mencurig
penyelamatan
terpanjang
Iklim
Paula
pornografi
merchand
Mai
##Space
##alisi
##ahayaan
monopol
Running
fet
##idavit
buaya
Bruins
##ggak
utter
Sabri
richest
unemployed
Giuliani
Mazraeh
Kandi
dy
gut
karang
nest
wap
zat
dancers
facebook
mewarisi
volumes
hackers
Cyprus
liver
tad
##kg
##arf
##ovsky
##olla
Kebajikan
diving
Sunda
nursing
Hebrew
Fidelity
Pty
dampak
merind
##ifax
kerah
pria
##utiara
maxim
helicopters
##ectious
Papan
Tool
##ungut
##ussion
advise
fights
##LEH
Pemeriksaan
railroad
borrowers
MFL
Sv
Sessions
laris
##isch
##usak
Unity
##waukee
Benin
Misalnya
inventori
Farah
Temerl
ralat
##idrat
##uger
##okkan
percakapan
Quest
inspire
Ident
matching
terhenti
Gandhi
nafsu
Pill
serat
##orna
Clint
##inctive
terpesona
medication
Monaco
Puy
Aja
Border
FGV
RAM
rogol
##eco
##ukota
blown
##ledon
approaching
Tahir
attractions
Boss
rusa
##Tr
##arted
mendominasi
kesinambungan
ditekan
flown
Northeast
ikuti
Appeal
menakluk
sponsors
reluctant
##Caprio
Hij
Ijazah
Ridge
haraf
lighter
##pak
##enheim
##emian
##odile
advent
##aido
Davidson
##ulsion
Ucapan
Firdaus
Einstein
pediat
##oly
##andra
membongkar
##sten
Chair
##mented
Additionally
Hurricane
PPS
WR
##rir
##inge
Madinah
concepts
Sinai
crowned
Leste
##raman
anonymous
##agara
bersorak
pesalah
kandang
flexibility
imprisonment
dividend
Female
Robbins
tinju
manakah
munafik
publisiti
Costco
Jah
XX
kings
##church
Peranti
pembuka
kedutaan
Khloe
Makmal
Milwaukee
Economy
Scotia
partnerships
Kathleen
##igurasi
disagre
suspicion
ore
oven
##ukkan
kesediaan
Belgia
##itania
Pembel
valuation
Kenny
separately
seiz
##upi
trump
Try
permusuhan
partially
understands
mentadbir
EB
Hundred
token
Yorker
##andingi
sword
##nyder
Irving
##fielder
keberadaan
Partnership
Norwegian
Byrne
Temerloh
GEOR
ecl
coat
Flint
authorized
##apeut
Gardner
Lombok
diperluas
##hati
##igs
berkawan
DiCaprio
sellers
peguamnya
maintains
defendan
Lorr
penyayang
menembusi
NV
Sime
##69
##omagn
##idaknya
underlying
directing
##ospace
Osama
psychology
sequel
punggung
Ayat
LK
til
##igroup
##ajarkan
SEM
pickup
dihidupkan
Ble
Liv
interaction
sayangnya
whereas
dipersoalkan
Commercial
Subscribe
Gap
Shawn
##injamkan
acquisitions
Komputer
Rembau
linebacker
Perusahaan
kemewahan
overtime
helium
dinikmati
prompt
Madh
Tajik
Difahamkan
harafiah
Rank
##ussia
Pablo
Duck
Hersh
dot
membetulkan
membanggakan
saus
incorrect
dijawab
pencurian
Brock
Holocaust
Desert
Cowboys
biotech
ridiculous
companion
Troy
cyb
mc
diguna
##uhr
Engk
achieving
Bachok
Sepertinya
##quartered
##lav
dancer
pelumba
outlined
dipuji
monitored
pemuliharaan
Haziq
syndrome
Fals
perih
##ibaan
dihoskan
realistic
Jln
browser
Wimbledon
##fo
penarafan
placing
keledar
publicity
baked
Perlawanan
Nielsen
##akter
amateur
leaked
tenusu
volcan
CFO
Iban
Kala
Zion
kr
padd
rombongan
##tes
##agalkan
membentangkan
kewajiban
dibersihkan
Rai
Tambang
##edaan
goalke
##rite
depressed
Phone
skat
kolum
meletupkan
identification
favorites
Koleksi
Veteran
Bakhti
Vent
cyl
##kara
##ampun
disbel
##ovina
fract
Ibunya
lipat
medieval
PIB
Radi
##WOOD
diusahakan
Write
Celebr
Gobind
##dul
thread
##thia
pertembungan
editors
Mengasihani
menyokongnya
Judy
Piai
mengadopsi
Mard
##emakan
dough
Shap
Freddie
artistik
salib
facial
stepping
##awiyah
viruses
irresponsible
F1
Ride
Til
garaj
jersi
luruh
##pot
##atahkan
##olves
subsp
protective
varieties
entities
fakulti
aspirasi
Levy
amendments
Rol
##GR
##uhar
Alto
keluhan
Adolf
Going
##yaratkan
Akbar
sensasi
Sudirman
Fakulti
Mobil
Kremlin
Bukti
Kell
UPM
Allied
fright
refin
smallest
Valeant
Minangkabau
Bidang
Sokongan
cath
krist
tandatangan
##anol
orkestra
semester
Shak
Savoie
Hook
Sip
Edition
##rieve
forecasts
recreational
Fo
Guj
Lars
Oman
##uer
##forming
##INE
alternatives
Purple
giants
##eret
penawar
##anggapan
##antui
slowdown
Damon
flagship
Falcons
isolation
Fantasy
##munition
9th
ER
Hast
Sue
##700
##RON
Asisten
slipped
logging
Oprah
teaches
recommends
hibrid
tanduk
MLB
Kucing
Koperasi
brave
warfare
distant
volatile
rifle
gangs
tafsiran
##86
##etri
peran
Sheen
pencuri
Permulaan
demonstrate
accidentally
synth
graviti
Respons
##bohidrat
JOJO
##akr
anat
##iha
##opard
##angkin
menggariskan
tuju
delivers
meninggalkannya
Mesin
Teknik
ARM
RB
ceritakan
##asions
sheriff
sekut
Absol
##marks
lowered
mengahwini
967
GS
##ysi
##nesty
keistimewaan
##alsa
Windsor
kediamannya
Refer
recipes
linear
AV
QB
disempurnakan
addict
Imran
experiments
Memper
nyamuk
Goodman
Bollywood
##ikmatinya
Naples
Uganda
Entrepreneur
Bong
Bio
##jong
##abwe
refuses
freed
arrangements
pengembalian
Tuduhan
aspirations
##yor
##oller
kecepatan
##alisasi
Membuat
siswazah
Lily
Songs
Ching
secular
mines
Adele
rises
berasas
photographers
Lahad
Dic
##ihar
Khus
precious
Basse
decorated
Maul
pneum
##acion
mercu
busuk
Ahok
debit
##AMB
inspection
Bowman
kabin
yogurt
Lathe
VW
##dir
##Bl
##urnya
##tuary
unrel
##stead
##rium
##iped
retorik
safegu
Lit
##asah
bearing
##ontak
tentangan
##untan
refund
incentive
wheat
Cairo
Clinic
asteroid
Aiman
Tiff
lantang
##adays
setem
kemasyhuran
##otherap
komersil
Miguel
cater
perasmian
##ajat
scrap
Boat
landl
speeches
aunt
kara
##esaan
sebulat
cliff
Direktur
Institusi
1909
Ronaldo
shifts
jacket
pewaris
Aishah
Cipta
Jengka
zomb
penins
bermimpi
PS2
tolong
integrasi
Christianity
Armada
memorable
ombak
Zimbabwe
Gaga
koki
nark
##ontr
##ulates
##ocina
Shab
emoji
Burton
surviving
atletik
incorporated
prototaip
Dorsey
Felix
IK
##The
inmates
##aby
##ifford
Carroll
refr
catast
Apparently
Kond
jah
##HEP
mengab
sendirinya
Willie
belonging
Natalie
Sambutan
TPP
menemp
##into
##impunkan
##ilda
sentuh
direk
poems
Safe
Devils
##ektori
Hmm
##adia
##anyon
Ana
performers
Latino
determining
magnetic
Officers
mekanikal
Packard
perceived
##hh
pengep
Stay
caring
kekh
Pembunuhan
Nusantara
Ara
Langgan
lumpur
##DC
##izable
indict
##etsk
Extra
solving
Olivia
battlefield
kurator
Concert
##edikasikan
Route
BU
Taufan
ratu
yg
##iya
menikmatinya
retali
digemari
mogul
mengusulkan
Learning
torture
tergelincir
cens
##akian
pengorbanan
##avid
##afia
144
penceramah
Wald
##breaking
Kampus
Cirebon
Hathaway
misleading
Manitoba
Hiz
pile
152
##anni
Westchester
responses
identifying
##argetkan
regulated
menyalakan
antibiotik
Snyder
Thor
comics
berlar
##ERI
Greene
Jenama
##kei
Hatta
lecturer
##oterapi
nu
Select
senators
runway
specified
kilometres
wahyu
mistaken
inventory
Pey
##arasan
##antul
sistematik
PS4
stealing
pengiklan
Taurat
disedari
Animal
endang
Guild
##ederhan
hamburger
streak
semulajadi
inappropriate
Guat
Large
##eson
mengungg
disgr
ditadbir
##atha
violin
SEPT
circles
Ashraf
immigrant
precaut
Kekurangan
examine
transmitted
fossil
menempuh
mengis
##osongkan
meringankan
comeback
eleg
##auna
Hopefully
Dawson
pensi
Exhibition
PSM
Impact
doubts
##OWN
mengatasinya
BT
##atani
disemak
Amran
Coleman
executed
clouds
bioteknologi
Ying
dock
##ride
##roots
Sektor
##ANAH
Sena
grandson
Barbie
cocaine
Factory
Citigroup
##eav
pemod
##ernak
organisma
Idaho
Freeman
Latheefa
sinis
##feed
##ebang
abadi
sert
kelawar
##lien
Newman
Baron
Leave
deterior
workshop
Winston
accomplished
Holding
Icahn
algoritma
Iw
mamp
##itaan
terbit
Sultanah
Konsert
Motorola
populations
VIII
Nicholson
Hed
OH
adoles
Prosp
varies
Darjah
RM200
menonjolkan
conquered
insects
Emilia
sexy
errors
propri
menyukarkan
Bj
Fear
##mund
##aders
disgu
gelar
292
collision
instrumental
AAD
KER
bumiputera
##ilas
stap
Heat
Arabs
membayarnya
consuming
menginginkannya
Politics
merchants
Ingatlah
E0
##essen
sheets
boxing
Jacqu
bridges
Slim
Yap
lav
disangka
##ivot
compiled
Orth
Polisi
Aires
EL
Houth
Mit
nan
pier
Trend
berlel
##seud
marathon
Fortun
sitcom
ethical
Rubin
testify
enthusiasm
##pinion
AWANI
erected
Fans
Jej
##aganya
##odua
Semit
Bayangkan
Pintu
garlic
surfing
Sharifah
Baz
Cic
##kreis
Thunder
Allan
undangan
Asal
panah
##antasia
galleries
Pelancaran
hormon
mammals
BART
Duc
kupu
##Care
##KY
##asu
##uks
Injil
kemusnahan
##ikanan
panjangnya
housed
Hair
Yew
##ingent
Cham
Clement
Khaled
##armonian
simpati
penggunaannya
Chapman
KPKT
Hussain
dipenjarakan
Ichigo
hospit
Rig
Toh
Tolong
wolf
Apart
ASU
exploded
Amirudin
Khalil
pemproses
Bluetooth
vendors
Pingat
feri
##hin
##Sc
##enthal
##ustaka
##ICE
Statut
wisata
Jupiter
Cec
Naval
dwell
sambung
##tom
menendang
perempat
adequ
##steps
masin
takeover
sometime
Pluto
swall
Supply
practicing
Lubok
Mula
membas
Malang
##ermat
Europa
Eva
Perbicaraan
tercatat
fashioned
interfere
420
Beta
Fiat
metap
##ng
##caster
ammunition
komander
guides
Awesome
Saints
erti
essence
Dewi
Rach
##UI
Anto
##ingkasan
aftermath
Mahf
bases
nightclub
Quick
sabot
diperlakukan
MAHB
Nir
##pent
##arr
digerakkan
antim
bersabar
Anders
partisan
menggigit
sensors
colorful
proceeds
efisi
Kindergarten
kesusasteraan
Employees
chickens
Nay
##losed
##eglang
menghitung
mencarinya
Selanjutnya
menggelar
identical
Suria
peneraju
kreativiti
kokain
Alpha
##nab
##hm
Pharaoh
patron
shootings
lawsuits
##iklankan
perikanan
barrier
Asm
permits
##althy
pressures
denies
Alexa
debuted
Lorraine
Gaw
Warn
waran
##aines
##chan
stones
apalagi
trap
dipetik
Grill
Keamanan
Incre
Rhodes
travelling
confirmation
##KPINK
Porsche
Ches
thereafter
buangan
flaw
##atori
inginkan
Strait
[...]
