<unk>	0
<s>	0
</s>	0
<cls>	0
<sep>	0
<pad>	0
<mask>	0
<eod>	0
<eop>	0
.	0
(	0
)	0
"	0
-	0
–	0
£	0
€	0
#	0
'	0
▁	-1.44926
,	-4.11123
▁di	-4.75927
▁dan	-4.78551
▁yang	-4.79748
▁,	-4.80223
nya	-5.43522
an	-5.50356
s	-5.62168
▁?	-5.71303
2	-5.72071
▁:	-5.7266
▁ini	-5.74766
▁untuk	-5.78518
▁dengan	-5.81981
▁ke	-5.82675
kan	-5.85274
▁!	-5.87726
▁dalam	-5.99226
a	-6.03854
i	-6.05091
▁aku	-6.08932
▁itu	-6.1421
▁ni	-6.20804
▁pada	-6.2131
▁dari	-6.23527
▁ada	-6.25716
▁yg	-6.31971
▁tak	-6.39665
▁tidak	-6.43837
k	-6.43968
▁nak	-6.47866
▁akan	-6.52915
▁/	-6.5415
in	-6.55982
m	-6.59008
e	-6.59576
▁juga	-6.59768
▁dia	-6.69646
▁kepada	-6.70219
▁tu	-6.70669
▁kita	-6.71205
▁tahun	-6.71736
▁lagi	-6.71776
▁orang	-6.71911
▁adalah	-6.72502
▁atau	-6.78666
t	-6.79186
▁1	-6.80612
▁oleh	-6.84899
:	-6.85841
▁boleh	-6.8657
▁bagi	-6.88632
▁dah	-6.90152
▁telah	-6.91152
▁lebih	-6.91351
▁Malaysia	-6.92122
h	-6.93473
n	-6.93516
d	-6.95603
▁hari	-6.96219
▁merupakan	-6.97425
ku	-6.98229
▁sebagai	-6.99884
▁buat	-7.00929
▁sebuah	-7.01714
▁mereka	-7.05293
lah	-7.0691
murah	-7.07658
▁&	-7.09128
▁la	-7.09259
▁apa	-7.10132
▁je	-7.10322
▁satu	-7.10891
▁sama	-7.11067
u	-7.12145
▁bisa	-7.14203
▁I	-7.14313
▁ya	-7.14845
▁saya	-7.17051
▁semua	-7.1718
▁pun	-7.17612
o	-7.17642
▁negara	-7.25549
y	-7.25592
▁3	-7.26592
▁tapi	-7.26991
▁the	-7.30388
▁ber	-7.31117
▁dapat	-7.31234
▁daripada	-7.31446
▁Di	-7.31717
▁menjadi	-7.31865
g	-7.32028
▁rumah	-7.3262
▁lain	-7.32658
▁jadi	-7.32738
▁A	-7.33224
▁RM	-7.34728
▁in	-7.36452
▁banyak	-7.36598
al	-7.38574
▁baru	-7.38812
1	-7.40707
mu	-7.41106
▁makan	-7.41957
ing	-7.42209
A	-7.42729
▁seperti	-7.43461
▁kami	-7.45527
ah	-7.4572
indonesia	-7.45761
S	-7.45907
▁terletak	-7.46671
▁bukan	-7.47192
▁Aku	-7.47444
▁S	-7.47969
r	-7.48336
▁kalau	-7.48518
▁sudah	-7.48635
▁mana	-7.51389
na	-7.53181
▁*	-7.54074
▁anak	-7.54357
l	-7.55418
3	-7.55758
▁aja	-7.56577
▁masih	-7.56819
▁ga	-7.57697
▁Indonesia	-7.57847
er	-7.58501
▁masa	-7.58647
▁kau	-7.58937
p	-7.60728
▁mau	-7.61439
▁to	-7.62274
la	-7.62397
b	-7.62623
▁kanan	-7.62869
ta	-7.63306
K	-7.63843
di	-7.64715
▁hanya	-7.66062
▁2019	-7.66563
4	-7.67417
▁4	-7.67651
▁and	-7.67937
;	-7.70105
▁baik	-7.70145
▁atas	-7.70211
malaysia	-7.70427
▁kat	-7.70615
si	-7.71763
▁terus	-7.71766
▁berkata	-7.72344
▁tersebut	-7.72748
▁Yang	-7.73266
▁serta	-7.73945
▁secara	-7.74013
▁air	-7.74289
▁5	-7.74289
▁ialah	-7.74325
▁kawasan	-7.74971
▁raya	-7.75235
▁Menteri	-7.76186
▁Ke	-7.78339
5	-7.79149
▁sampai	-7.79262
▁sangat	-7.79535
▁beli	-7.80068
▁Pada	-7.8101
at	-7.81655
▁katanya	-7.82203
c	-7.82481
▁perlu	-7.83125
amp	-7.8323
▁kena	-7.83255
B	-7.83544
▁baju	-7.83668
se	-7.83873
▁sendiri	-7.84041
▁kerana	-7.84201
M	-7.84261
▁kamu	-7.85166
▁rasa	-7.85222
▁of	-7.86427
2019	-7.8651
x	-7.86721
▁beliau	-7.87265
T	-7.87305
ed	-7.87695
▁dulu	-7.88119
▁kerajaan	-7.88311
▁macam	-7.89224
▁;	-7.89445
▁bersama	-7.89804
▁tau	-7.8993
ke	-7.90096
▁lah	-7.90714
000	-7.90932
▁kerja	-7.91045
▁10	-7.91171
▁anda	-7.9143
C	-7.91463
▁se	-7.91483
le	-7.9183
te	-7.92113
sa	-7.92118
▁salah	-7.9238
f	-7.93693
▁dgn	-7.93894
▁kali	-7.94049
▁Tak	-7.94119
▁pernah	-7.94193
▁ia	-7.94385
▁Kuala	-7.94392
es	-7.94405
▁dua	-7.94509
▁kulit	-7.94686
▁B	-7.94884
▁negeri	-7.9566
▁balik	-7.96335
▁ter	-7.96612
▁bawah	-7.97072
is	-7.97177
▁sebelum	-7.9753
▁kata	-7.97564
▁gak	-7.978
▁pakai	-7.97907
ar	-7.99385
_	-7.99769
▁masuk	-8.00209
▁suka	-8.0046
▁besar	-8.00772
da	-8.01025
▁jalan	-8.0121
D	-8.02178
on	-8.02192
▁bulan	-8.02203
▁Se	-8.02478
▁M	-8.02978
▁Allah	-8.02992
en	-8.03251
▁rakyat	-8.03491
▁mempunyai	-8.03903
ra	-8.04218
▁antara	-8.04362
▁seorang	-8.04525
▁ketika	-8.04542
▁Kerajaan	-8.04869
▁at	-8.05275
▁harga	-8.05284
▁Ber	-8.05548
▁Al	-8.05762
w	-8.06205
ma	-8.06207
▁Islam	-8.06298
ya	-8.06621
▁lalu	-8.06722
▁jual	-8.06828
▁kalo	-8.06884
ka	-8.06992
to	-8.07081
▁Kalau	-8.07119
▁P	-8.07153
ter	-8.07631
▁beberapa	-8.07749
▁punya	-8.08253
▁sekolah	-8.087
de	-8.09546
man	-8.0955
▁Ada	-8.09876
▁jangan	-8.09889
▁Dr	-8.10076
▁sekarang	-8.10207
▁karena	-8.10346
▁lama	-8.10605
▁me	-8.10835
G	-8.10911
▁bila	-8.11479
▁Ini	-8.11602
▁jam	-8.11643
▁setiap	-8.12128
H	-8.12298
I	-8.12599
▁sehingga	-8.12735
▁hingga	-8.12998
▁org	-8.13159
▁sebab	-8.13922
▁nk	-8.14108
▁paling	-8.14177
ng	-8.14199
▁Untuk	-8.14217
▁isu	-8.14553
▁6	-8.14869
▁[	-8.14911
▁E	-8.15115
▁pihak	-8.15242
re	-8.15295
▁tempat	-8.15441
▁sini	-8.15503
me	-8.15553
▁selepas	-8.15636
▁pertama	-8.15863
▁dunia	-8.15866
▁buah	-8.16104
▁Dalam	-8.16575
@	-8.16893
pe	-8.17088
ne	-8.17386
▁x	-8.17597
▁hati	-8.17892
▁malam	-8.18003
▁=	-8.18124
▁makanan	-8.18686
▁kiri	-8.18729
▁masalah	-8.19034
▁mcm	-8.19047
▁pake	-8.19462
▁melalui	-8.19645
▁membuat	-8.19681
▁J	-8.19949
▁tidur	-8.20681
ber	-8.20774
▁hidup	-8.21167
li	-8.21255
▁diri	-8.21279
ni	-8.21416
▁nasi	-8.21435
▁termasuk	-8.21647
▁Tapi	-8.21884
▁Lumpur	-8.21972
▁tahu	-8.22037
ri	-8.22189
7	-8.22595
▁per	-8.22864
▁Datuk	-8.22867
▁sekali	-8.22968
▁pagi	-8.23196
▁WA	-8.23263
▁nama	-8.23563
E	-8.23577
P	-8.24439
▁memiliki	-8.24844
/	-8.24973
or	-8.25238
▁terhadap	-8.2566
un	-8.25847
▁tinggi	-8.25888
▁Sekolah	-8.26074
▁udah	-8.26084
z	-8.26169
▁juta	-8.27009
▁harus	-8.27171
▁iaitu	-8.27219
▁digunakan	-8.27548
no	-8.27762
▁Selangor	-8.278
6	-8.27801
▁+	-8.27839
▁tanpa	-8.27888
▁bahawa	-8.28168
us	-8.28435
▁Beliau	-8.28583
▁tetapi	-8.28668
▁belum	-8.28912
▁Jangan	-8.28938
▁depan	-8.28982
▁saja	-8.29243
▁Ia	-8.29574
am	-8.29786
▁Dan	-8.29961
▁Harga	-8.31123
▁utk	-8.31379
ak	-8.31602
▁nanti	-8.31907
▁jika	-8.32317
▁produk	-8.32472
ga	-8.32533
▁dekat	-8.32596
▁saat	-8.32931
▁7	-8.32933
▁langsung	-8.33517
j	-8.33622
tu	-8.33787
▁Nak	-8.3391
v	-8.3405
▁Negeri	-8.3406
▁lelaki	-8.34079
ti	-8.34085
▁%	-8.34117
▁badan	-8.34149
▁menggunakan	-8.34237
ly	-8.34437
ce	-8.34716
?	-8.34873
▁memang	-8.34933
anak	-8.35313
ge	-8.35647
mi	-8.35824
▁C	-8.35934
N	-8.36677
▁Me	-8.36869
▁Saya	-8.37219
▁Hari	-8.37288
▁U	-8.37395
▁masyarakat	-8.37615
▁Rp	-8.37661
▁daerah	-8.38126
L	-8.38354
▁selalu	-8.3837
▁Selamat	-8.38794
▁buku	-8.38866
▁si	-8.39971
▁minyak	-8.40183
▁memberi	-8.40248
▁Ya	-8.40876
▁Dia	-8.41112
▁be	-8.41177
8	-8.41311
AN	-8.4158
ang	-8.41959
▁kasih	-8.41976
▁luar	-8.42261
▁duit	-8.42554
▁waktu	-8.4349
▁Kementerian	-8.43731
▁lagu	-8.43918
▁mata	-8.43998
▁K	-8.44798
ha	-8.4482
F	-8.44914
lu	-8.45278
▁para	-8.45611
ba	-8.45893
▁sebanyak	-8.46109
pa	-8.46159
▁T	-8.46756
▁wanita	-8.4702
00	-8.47329
▁jumlah	-8.47518
9	-8.47652
▁tanah	-8.4774
▁meng	-8.47875
▁Pe	-8.48576
▁datang	-8.48658
▁kedua	-8.48849
▁membantu	-8.48901
▁ibu	-8.48925
▁turut	-8.4905
▁main	-8.49396
▁ramai	-8.49608
▁pula	-8.49704
▁program	-8.49888
▁lupa	-8.49909
0	-8.49965
▁tengok	-8.50187
▁Anda	-8.50256
▁keluar	-8.50312
▁betul	-8.5049
▁kereta	-8.50508
▁ekonomi	-8.50687
go	-8.50706
▁bandar	-8.50764
▁banget	-8.50822
▁tadi	-8.50929
▁sih	-8.50945
▁for	-8.50955
▁Negara	-8.51147
O	-8.51517
▁media	-8.51904
ro	-8.51931
▁Melayu	-8.52178
▁biasa	-8.52184
▁kampung	-8.52229
▁awal	-8.52406
lo	-8.52674
▁penting	-8.52848
▁Apa	-8.53486
10	-8.53487
per	-8.53507
▁Raya	-8.53612
men	-8.53833
▁info	-8.54061
▁pas	-8.54178
▁8	-8.54199
▁naik	-8.54723
▁bahan	-8.54742
▁Seri	-8.54762
30	-8.55013
▁mampu	-8.55021
▁tp	-8.55089
▁kecil	-8.55442
▁lepas	-8.55567
wa	-8.55629
▁pergi	-8.55792
▁agama	-8.56143
▁pulak	-8.56447
ca	-8.56983
▁utama	-8.57285
▁gue	-8.57364
▁selama	-8.5784
▁No	-8.58154
▁mungkin	-8.58236
co	-8.58274
▁pe	-8.58372
▁]	-8.58492
et	-8.58808
R	-8.59271
▁mengenai	-8.59296
▁20	-8.59526
▁order	-8.59592
▁pelajar	-8.59634
it	-8.59926
W	-8.59991
▁The	-8.60154
▁|	-8.60168
▁mudah	-8.60384
▁DI	-8.6042
▁Ketua	-8.60544
▁cara	-8.60559
▁berkenaan	-8.61127
▁Kampung	-8.61166
id	-8.61181
▁puasa	-8.61846
ki	-8.62426
▁apabila	-8.62455
bi	-8.62706
▁kembali	-8.62734
as	-8.62918
▁sakit	-8.62978
▁Baru	-8.63343
▁cari	-8.63352
▁politik	-8.63381
▁So	-8.63382
▁Kebangsaan	-8.63575
▁keluarga	-8.63706
U	-8.6377
▁nih	-8.63796
▁hal	-8.64104
▁seluruh	-8.64272
▁100	-8.64294
▁pasti	-8.64525
▁minum	-8.64619
▁sedang	-8.64803
▁hasil	-8.64901
cantik	-8.65263
▁12	-8.6528
▁Perdana	-8.65584
ok	-8.65719
▁agar	-8.65803
▁sejak	-8.65818
▁N	-8.65922
▁tentang	-8.6593
▁ikan	-8.66098
▁kini	-8.66117
▁kenapa	-8.66406
▁wilayah	-8.66419
ji	-8.66613
▁ayam	-8.66877
19	-8.67144
q	-8.67231
du	-8.67243
▁Dah	-8.67427
▁so	-8.67642
el	-8.67672
ko	-8.67828
▁H	-8.67995
▁ingin	-8.68272
▁syarikat	-8.68359
▁mengambil	-8.68461
▁cuma	-8.68521
▁Wa	-8.69017
▁video	-8.69237
▁manusia	-8.69271
th	-8.69291
▁muka	-8.69323
V	-8.69526
▁warna	-8.69625
st	-8.69729
▁G	-8.70019
▁Jalan	-8.70223
ny	-8.70297
▁berat	-8.70543
▁9	-8.70556
▁tiga	-8.70632
▁kurang	-8.70678
ik	-8.70683
▁Kita	-8.70701
▁rambut	-8.70703
▁jenis	-8.70836
▁D	-8.71184
▁berlaku	-8.71294
▁Jadi	-8.71421
▁siap	-8.71714
▁tetap	-8.71764
▁tangan	-8.71821
▁semula	-8.71851
tan	-8.71855
▁Johor	-8.71994
▁sistem	-8.72024
▁siapa	-8.72226
▁La	-8.72279
▁pendidikan	-8.72576
fa	-8.72665
▁tengah	-8.72761
▁barang	-8.72887
▁perempuan	-8.73174
▁O	-8.73412
▁pelbagai	-8.7342
▁sosial	-8.73445
▁Ter	-8.73561
▁Per	-8.73883
▁like	-8.73919
mo	-8.73933
▁Ga	-8.73966
gi	-8.73974
▁is	-8.73997
kah	-8.7419
▁masak	-8.74273
ek	-8.74332
▁15	-8.74736
▁kalian	-8.74852
▁sahaja	-8.75036
▁Kota	-8.75402
dan	-8.7558
▁L	-8.75683
▁usaha	-8.75863
▁melakukan	-8.76191
▁setelah	-8.76551
▁Ni	-8.76562
▁ahli	-8.7691
▁Kami	-8.77103
▁gitu	-8.77149
▁18	-8.77207
▁Jabatan	-8.77461
▁Presiden	-8.77509
▁mendapat	-8.77521
▁habis	-8.77778
▁Tuan	-8.77829
▁Alhamdulillah	-8.77988
▁Semoga	-8.78294
Y	-8.78485
com	-8.78517
do	-8.78551
▁dh	-8.78647
▁menerima	-8.78653
bu	-8.78911
ci	-8.79166
cm	-8.79303
raya	-8.79434
▁time	-8.79546
ja	-8.7961
bo	-8.79712
▁cepat	-8.79759
up	-8.79957
▁Re	-8.80027
J	-8.80069
online	-8.8017
yo	-8.8022
▁April	-8.80335
▁cantik	-8.80517
▁kes	-8.80613
▁Dengan	-8.8079
▁Si	-8.80813
▁Orang	-8.80824
▁memberikan	-8.80921
▁30	-8.80964
15	-8.81104
▁bahasa	-8.81187
▁mak	-8.81195
▁kopi	-8.81256
ia	-8.81283
▁nge	-8.81439
▁cukup	-8.82015
▁minta	-8.82072
▁de	-8.82226
▁cakap	-8.82323
▁Tidak	-8.82599
um	-8.82664
za	-8.82677
▁komun	-8.82714
▁ka	-8.82728
▁gambar	-8.82852
▁sekitar	-8.82855
▁ko	-8.82864
*	-8.82933
il	-8.83084
jakarta	-8.83626
pi	-8.8374
▁terbaik	-8.83855
▁dilakukan	-8.8396
▁pilihan	-8.84044
undang	-8.84298
jo	-8.84615
▁Shah	-8.84682
▁belajar	-8.84839
▁Pulau	-8.84956
▁Amerika	-8.84975
▁Perancis	-8.8546
▁men	-8.85797
▁no	-8.85944
▁Mei	-8.86136
▁mati	-8.86158
▁Jakarta	-8.86282
▁F	-8.86349
▁maka	-8.86404
▁kak	-8.8643
KAN	-8.86586
▁biar	-8.86601
▁sesuai	-8.86646
▁wa	-8.86968
ul	-8.8706
14	-8.87139
▁buka	-8.8715
▁eh	-8.87178
▁jauh	-8.8739
bar	-8.87449
▁supaya	-8.87557
▁kaki	-8.87702
ss	-8.87755
20	-8.87838
▁pon	-8.87875
▁dr	-8.87898
▁Dari	-8.88132
▁Bagi	-8.88283
ap	-8.88485
▁11	-8.88501
▁berada	-8.8853
▁lg	-8.8885
ur	-8.88968
▁bikin	-8.89129
▁terdapat	-8.89379
▁mulai	-8.89642
▁kedai	-8.89657
▁Selain	-8.89736
food	-8.89927
▁b	-8.89931
▁sbb	-8.89973
mana	-8.90551
▁Abdul	-8.90584
▁jabatan	-8.90604
▁kucing	-8.9061
&	-8.90713
▁you	-8.90741
▁hahaha	-8.90769
▁Mau	-8.9082
▁In	-8.90973
be	-8.90996
▁on	-8.91113
▁kaya	-8.91184
▁parti	-8.91279
▁namun	-8.91389
ch	-8.91418
▁India	-8.91588
▁De	-8.91743
ir	-8.9237
▁panjang	-8.92372
orang	-8.92385
▁proses	-8.92486
▁projek	-8.92487
▁jugak	-8.92682
▁pen	-8.92741
▁seramai	-8.9276
▁guna	-8.9283
▁dlm	-8.92848
wan	-8.93075
▁sikit	-8.93081
▁kemudian	-8.93151
wi	-8.93374
▁malah	-8.93382
▁semasa	-8.93588
▁link	-8.93648
ut	-8.93751
▁Majlis	-8.93896
▁tindakan	-8.93951
▁semakin	-8.94349
▁tanya	-8.9448
my	-8.94573
▁penduduk	-8.94662
dua	-8.94727
▁mendapatkan	-8.94868
▁p	-8.95038
▁menyatakan	-8.95218
▁meningkatkan	-8.95223
▁Jika	-8.95568
▁putih	-8.95723
▁Boleh	-8.95937
pan	-8.95989
▁China	-8.96069
▁Selatan	-8.9607
▁bahwa	-8.96088
ung	-8.96322
▁pasukan	-8.9637
▁kok	-8.96568
▁Ahmad	-8.96576
▁benda	-8.96753
▁Bukan	-8.96939
▁filem	-8.97022
▁melihat	-8.97039
▁goreng	-8.97394
mer	-8.9748
▁Be	-8.97491
▁susu	-8.97523
▁bgt	-8.97625
▁Lapangan	-8.97632
▁R	-8.97789
▁tinggal	-8.97988
▁industri	-8.98013
▁bilion	-8.98029
▁Barat	-8.98137
kira	-8.98163
▁warga	-8.9829
▁kira	-8.98327
▁sering	-8.98348
▁Terbang	-8.98624
▁gua	-8.98864
▁kawan	-8.99032
▁pembangunan	-8.9906
aa	-8.99089
▁Sungai	-8.99248
eh	-8.99283
bandung	-8.99284
▁desa	-8.99527
▁penuh	-8.99551
▁Sultan	-8.99643
lan	-8.99686
▁Tun	-8.99776
▁turun	-8.99953
▁Mohd	-9.00017
▁~	-9.00097
▁berjaya	-9.00145
50	-9.00163
▁PERTANYAAN	-9.00202
▁perkara	-9.00471
▁panas	-9.0058
▁cerita	-9.00597
▁belakang	-9.0063
ih	-9.00642
▁tiada	-9.00777
▁sayang	-9.00834
▁Bila	-9.00854
su	-9.00877
▁Sabah	-9.00984
baru	-9.0117
fi	-9.01215
han	-9.01293
▁kota	-9.01363
▁baca	-9.01404
▁muda	-9.01442
▁peratus	-9.01471
▁Mahathir	-9.01556
▁Hi	-9.01702
ai	-9.01703
▁kaum	-9.01809
▁membawa	-9.01882
▁Alam	-9.02042
asi	-9.02085
▁Perak	-9.02188
▁Ku	-9.02204
IN	-9.02228
▁berita	-9.02283
▁Sri	-9.02329
▁KE	-9.0241
▁DAN	-9.0247
▁2018	-9.0254
ru	-9.02687
▁kt	-9.02864
▁with	-9.03215
▁Ka	-9.03259
▁nampak	-9.03269
▁Rakyat	-9.03313
▁selamat	-9.03338
ong	-9.03857
▁tempoh	-9.03926
▁takde	-9.04181
▁dong	-9.04192
yang	-9.04208
▁ye	-9.04375
▁foto	-9.04624
▁dibuat	-9.04688
▁perkhidmatan	-9.047
▁anggota	-9.04727
▁awam	-9.04849
▁mesti	-9.05002
▁haha	-9.05027
▁kuat	-9.05122
▁teman	-9.05145
▁minggu	-9.05222
▁Timur	-9.05233
▁sedap	-9.05299
▁W	-9.05416
▁that	-9.05452
hari	-9.05473
po	-9.05526
▁kuasa	-9.05547
uk	-9.05779
▁anjing	-9.05885
▁penyakit	-9.0596
▁Terima	-9.05989
▁my	-9.06048
▁bio	-9.0606
▁Persekutuan	-9.06204
▁korang	-9.06212
au	-9.06264
▁esok	-9.06304
▁ja	-9.06393
▁menarik	-9.06409
▁kecamatan	-9.06622
▁Men	-9.06663
▁mula	-9.06853
NYA	-9.06958
▁19	-9.07292
▁enak	-9.07383
surabaya	-9.07416
Se	-9.0755
▁Parlimen	-9.07672
11	-9.07713
rb	-9.07833
▁bermula	-9.07907
tak	-9.08046
je	-9.08164
▁takut	-9.08277
▁Masjid	-9.08466
ck	-9.08493
▁tuh	-9.08555
▁tiba	-9.08603
▁Kenapa	-9.08658
▁kadar	-9.08694
▁Dewan	-9.08712
▁guru	-9.08846
▁pintu	-9.09048
▁bahagian	-9.09091
▁susah	-9.09114
▁akhir	-9.09134
▁bayi	-9.09364
sh	-9.09499
▁Bisa	-9.09665
▁bentuk	-9.09741
▁UMNO	-9.09784
▁Bandar	-9.09877
▁bunga	-9.09942
▁Menurut	-9.102
gt	-9.10298
▁kehidupan	-9.1031
▁makin	-9.10479
▁best	-9.10517
▁from	-9.10654
▁17	-9.10668
▁Taman	-9.10865
▁berkaitan	-9.11049
▁Program	-9.11176
▁16	-9.11218
▁memastikan	-9.1125
▁selain	-9.11385
▁Besar	-9.11415
▁begitu	-9.11461
jogja	-9.11573
▁kelas	-9.11593
▁Hahaha	-9.11708
set	-9.1173
+	-9.11812
▁gila	-9.11892
▁kepala	-9.12157
▁mahu	-9.12282
ry	-9.12311
▁Namun	-9.12337
▁pemain	-9.12464
▁bola	-9.12532
▁menyebabkan	-9.12604
Ke	-9.12612
▁alam	-9.12798
rumah	-9.12835
▁Mereka	-9.12963
▁Air	-9.12971
▁Mac	-9.13061
san	-9.13169
▁bakal	-9.13286
▁kumpulan	-9.1334
▁Tu	-9.13433
▁Jaya	-9.13468
▁sis	-9.13501
▁keadaan	-9.13669
▁laut	-9.13674
▁alat	-9.13721
▁50	-9.1384
▁jd	-9.13842
▁wajah	-9.14057
▁ikut	-9.14109
▁by	-9.14119
sama	-9.14129
▁polis	-9.14296
▁Ahli	-9.14392
lang	-9.14398
pun	-9.14411
▁bisnis	-9.14417
▁Syarikat	-9.14503
▁emas	-9.14562
▁Sa	-9.14609
so	-9.14619
▁lampu	-9.14621
▁mandi	-9.14657
]	-9.1471
▁mmg	-9.14771
▁teknologi	-9.14786
▁Bahan	-9.14815
▁Le	-9.14819
ho	-9.14918
▁Su	-9.14966
▁24	-9.14981
▁walaupun	-9.15147
▁Semua	-9.15188
▁umur	-9.15263
kanak	-9.15348
▁cinta	-9.1537
eng	-9.15399
▁Jom	-9.15433
oh	-9.15478
▁asal	-9.15679
▁Yg	-9.15791
▁Kedah	-9.15995
▁batik	-9.16113
12	-9.16405
▁bilik	-9.16422
hi	-9.16433
▁kos	-9.16467
ran	-9.16503
▁sebelah	-9.16571
▁keputusan	-9.16636
40	-9.17221
▁Utara	-9.17393
▁sambil	-9.17437
▁tk	-9.17438
▁masjid	-9.17439
▁Sarawak	-9.17474
ton	-9.17478
▁peringkat	-9.1774
▁bekas	-9.17754
gen	-9.17765
▁Kalo	-9.17824
gan	-9.18244
▁was	-9.18342
▁lanjut	-9.18421
▁13	-9.18486
▁pusat	-9.18571
▁RT	-9.18594
▁dikenali	-9.18619
▁dpt	-9.18926
▁Pendidikan	-9.18958
▁segala	-9.18966
▁25	-9.18972
▁bidang	-9.19138
▁ringgit	-9.19161
tar	-9.1925
▁Follow	-9.19334
ad	-9.19379
▁mas	-9.1938
ting	-9.1952
▁ingat	-9.19583
▁merah	-9.1964
im	-9.19695
▁asli	-9.19711
kar	-9.19765
▁nilai	-9.1981
▁terima	-9.19927
▁baharu	-9.19945
hits	-9.20025
▁Yuk	-9.20104
▁bagus	-9.20422
▁Jokowi	-9.20442
▁Raja	-9.20526
▁kot	-9.20564
▁tunggu	-9.20568
▁Ra	-9.20679
▁as	-9.20722
kk	-9.20756
▁manis	-9.21006
▁Asia	-9.21028
▁sana	-9.21042
▁cuba	-9.21288
▁your	-9.21349
▁teh	-9.21488
▁Rumah	-9.21551
hh	-9.21592
▁Kabupaten	-9.21644
▁sampe	-9.21655
▁bantuan	-9.21797
▁mengikut	-9.21805
▁bekerja	-9.2186
▁roti	-9.21915
▁jumpa	-9.22081
▁Pas	-9.22137
ve	-9.22264
▁Dunia	-9.22276
ers	-9.2239
apa	-9.224
▁suara	-9.22434
▁X	-9.22437
▁Ramadhan	-9.22553
▁tubuh	-9.22789
▁isi	-9.22794
▁budak	-9.23053
▁Pen	-9.23088
▁pasal	-9.23115
▁duduk	-9.23181
▁follow	-9.23204
avascript	-9.2327
▁hilang	-9.23286
▁menteri	-9.23347
▁Pa	-9.23411
▁Tahun	-9.23442
▁segera	-9.23468
▁Kau	-9.23527
▁he	-9.23602
▁Ar	-9.23692
sel	-9.23709
▁sepanjang	-9.23734
ada	-9.23869
▁Terengganu	-9.24035
▁musim	-9.24053
▁kuliner	-9.24101
▁kenyataan	-9.24434
▁amat	-9.24498
kg	-9.24685
▁Na	-9.24717
▁pak	-9.24752
▁gw	-9.24817
▁Bukit	-9.249
▁bawa	-9.24984
X	-9.25051
yu	-9.25091
gu	-9.25231
▁gini	-9.25379
▁tgk	-9.25435
▁peluang	-9.25619
ker	-9.25678
vi	-9.25689
by	-9.25719
▁Itu	-9.25819
pu	-9.25877
▁mencari	-9.2598
Ma	-9.25993
▁Ba	-9.26055
▁rendah	-9.26065
▁batu	-9.26252
ling	-9.26291
▁Jun	-9.26388
ban	-9.26462
▁lu	-9.26832
bah	-9.26961
▁kl	-9.26987
▁Nasi	-9.27012
▁jgn	-9.27046
▁14	-9.27089
▁diberikan	-9.27106
18	-9.27129
▁liat	-9.27155
▁re	-9.27175
▁sedikit	-9.27195
▁Tan	-9.27246
ii	-9.27289
▁semalam	-9.27325
17	-9.27329
▁Go	-9.27647
▁menang	-9.27935
▁Info	-9.28188
dah	-9.28253
▁arah	-9.28301
▁langkah	-9.28345
▁menjadikan	-9.28485
▁Pusat	-9.2856
hhh	-9.28594
▁terlalu	-9.28705
▁PH	-9.28736
▁pukul	-9.28788
▁keseluruhan	-9.28838
▁Kelantan	-9.29124
▁semoga	-9.2915
▁hadir	-9.29153
Z	-9.29201
pen	-9.29314
▁Buat	-9.29342
▁Nasional	-9.29634
we	-9.29777
▁hampir	-9.29802
▁pemimpin	-9.29808
▁kek	-9.30119
▁semangat	-9.30179
sehat	-9.30214
▁Mohamad	-9.30321
rah	-9.304
kat	-9.3042
Malaysia	-9.30444
▁Cina	-9.30467
▁Ha	-9.30484
▁khas	-9.30535
▁zaman	-9.30543
▁asing	-9.30586
▁kacang	-9.30612
day	-9.30695
▁jelas	-9.30811
sen	-9.30862
▁Anak	-9.30875
bali	-9.31038
▁peng	-9.31082
masing	-9.31097
hati	-9.31173
▁MENTERI	-9.31175
▁team	-9.31266
▁berbanding	-9.31272
▁adik	-9.31368
▁empat	-9.3137
▁dasar	-9.31459
▁klik	-9.3147
pak	-9.31531
der	-9.31582
▁akhirnya	-9.31782
kn	-9.31862
▁Ma	-9.32185
▁kesihatan	-9.32203
▁kapal	-9.32417
▁bebas	-9.32423
tor	-9.32483
▁YB	-9.32806
▁maaf	-9.32836
▁suatu	-9.33015
▁tolong	-9.33033
▁Hal	-9.33055
▁menunjukkan	-9.33183
▁tempatan	-9.33401
negara	-9.33509
▁laa	-9.33561
24	-9.33658
▁benar	-9.33753
▁mem	-9.33773
▁Ta	-9.33858
▁coklat	-9.33947
tas	-9.33985
▁tangga	-9.34029
▁sayur	-9.34052
▁bangun	-9.34083
ty	-9.34239
▁NO	-9.34242
ee	-9.34261
▁Ko	-9.34278
▁sumber	-9.34315
▁BER	-9.34372
▁awak	-9.34436
ment	-9.34461
▁ruang	-9.34547
▁Ibu	-9.34617
▁Lu	-9.34775
▁laporan	-9.34796
ten	-9.34965
▁tukang	-9.35046
▁Banyak	-9.35076
▁perbandaran	-9.3508
▁pengen	-9.35101
▁terjadi	-9.35295
▁percaya	-9.35308
mah	-9.35326
▁Pak	-9.35535
▁lima	-9.35606
▁Salam	-9.35608
▁Ali	-9.35635
▁An	-9.35715
▁SOALAN	-9.35737
▁Jerman	-9.35746
▁sesuatu	-9.35842
TI	-9.35845
▁Batu	-9.35931
▁pi	-9.3601
▁tentera	-9.36022
▁bin	-9.36109
▁deh	-9.36112
▁hitam	-9.36258
▁21	-9.36264
▁w	-9.36306
▁sepak	-9.36321
▁milik	-9.36589
▁Ci	-9.36621
ger	-9.3667
▁sejarah	-9.36683
jam	-9.3673
▁terbang	-9.36741
▁Wilayah	-9.36774
▁pulang	-9.36782
▁diberi	-9.36795
▁Sebab	-9.36811
va	-9.36994
▁Nama	-9.37018
▁lemak	-9.37026
▁wkwk	-9.37243
▁pastu	-9.37316
▁ilmu	-9.3734
13	-9.37364
▁hutan	-9.37396
▁sy	-9.37465
▁melayu	-9.37565
▁dilaksanakan	-9.37565
▁Siapa	-9.3785
den	-9.379
▁swasta	-9.37943
▁kedudukan	-9.37967
▁golongan	-9.38113
▁sebenarnya	-9.38181
▁Hai	-9.38249
▁Jawa	-9.38279
▁Jepun	-9.3829
▁Muhammad	-9.38347
▁da	-9.38373
▁berapa	-9.38394
▁Universiti	-9.38449
▁jaga	-9.38468
▁Order	-9.38476
▁Karena	-9.3848
tik	-9.38676
▁2017	-9.38738
▁tua	-9.38792
▁up	-9.38855
▁Iran	-9.38869
▁To	-9.38881
▁dapur	-9.38883
▁terakhir	-9.39003
▁lainnya	-9.39027
▁AS	-9.39276
ye	-9.39314
▁via	-9.3935
wanita	-9.39409
▁minuman	-9.39415
▁ambil	-9.39484
▁sgt	-9.39536
AL	-9.39574
100	-9.39608
mas	-9.39663
ser	-9.39902
▁motor	-9.39991
▁pekerja	-9.4008
▁menyediakan	-9.40086
▁Katanya	-9.40285
▁Pinang	-9.40369
!	-9.40515
▁gaji	-9.40515
▁Polis	-9.40525
▁Satu	-9.40555
▁Te	-9.40604
▁yaa	-9.40607
▁do	-9.41025
▁calon	-9.41051
90	-9.41086
▁utara	-9.41086
▁pisang	-9.41091
son	-9.41358
21	-9.41361
aaa	-9.41404
▁hak	-9.4146
▁islam	-9.41474
▁YANG	-9.41475
▁keselamatan	-9.41524
▁Meng	-9.4153
▁biasanya	-9.41573
▁pengguna	-9.41718
▁set	-9.41757
▁Melaka	-9.41838
25	-9.41875
▁Bank	-9.4197
▁Tanah	-9.42004
▁kewangan	-9.42011
▁bayar	-9.4209
▁akibat	-9.42186
▁Sementara	-9.42276
▁baby	-9.42312
▁Daerah	-9.4236
16	-9.4242
▁Kan	-9.42434
batik	-9.42482
▁Tengah	-9.42485
▁cm	-9.42505
▁sebarang	-9.42511
▁beras	-9.42601
min	-9.42649
▁aktiviti	-9.42665
▁jatuh	-9.42673
▁pendapatan	-9.42716
les	-9.42816
▁sentiasa	-9.42983
▁senang	-9.43018
▁demi	-9.43049
bel	-9.43069
▁Timbalan	-9.4312
▁berbagai	-9.43294
▁penggunaan	-9.43385
▁ma	-9.43414
hal	-9.43471
▁manakala	-9.43482
▁mencapai	-9.43565
▁kalangan	-9.43657
▁or	-9.43791
▁2014	-9.43793
▁Najib	-9.43956
▁sedih	-9.43997
▁berdasarkan	-9.44071
▁data	-9.44072
▁22	-9.44132
▁darah	-9.4419
▁lewat	-9.44244
▁Januari	-9.44267
▁melaksanakan	-9.44302
▁pa	-9.44412
▁Da	-9.44568
bak	-9.44601
▁mengatakan	-9.4494
▁2016	-9.45061
▁pilih	-9.45079
mm	-9.45082
▁Terdapat	-9.45358
▁barat	-9.4552
▁ade	-9.45621
▁sehat	-9.45666
▁Bu	-9.45668
ram	-9.45716
dar	-9.45767
▁He	-9.45777
▁sektor	-9.45842
nas	-9.46151
▁jerawat	-9.46184
▁kain	-9.46213
land	-9.46335
▁saham	-9.46359
▁pem	-9.46401
viral	-9.46452
▁drama	-9.46555
▁temen	-9.46584
▁kelapa	-9.46608
▁perniagaan	-9.46621
nda	-9.46703
▁2015	-9.46766
▁Peng	-9.46826
▁skrg	-9.46968
▁Tinggi	-9.47018
▁wang	-9.4703
uh	-9.47082
▁V	-9.47131
Saya	-9.47194
▁okay	-9.4723
har	-9.47243
▁masing	-9.47297
▁kesehatan	-9.47329
▁this	-9.47411
▁melibatkan	-9.47586
▁diambil	-9.47741
▁kesan	-9.47812
▁menerusi	-9.48071
TA	-9.48085
▁As	-9.48102
lak	-9.48111
▁sm	-9.48166
▁New	-9.4819
▁insta	-9.48241
▁promo	-9.48247
▁anti	-9.48313
▁toko	-9.48318
ori	-9.48502
▁nikah	-9.48517
▁tujuan	-9.48548
▁Sudah	-9.48619
▁0	-9.4873
▁Aceh	-9.49081
▁tahan	-9.49186
▁pegawai	-9.49187
▁rindu	-9.49224
▁mengalami	-9.49298
em	-9.49357
▁jom	-9.4936
▁Mas	-9.49372
▁Haha	-9.49558
MA	-9.49628
▁viral	-9.49681
kerja	-9.49722
▁Setelah	-9.49746
▁Muslim	-9.49854
▁Y	-9.49902
▁Ja	-9.49978
▁kejadian	-9.50067
▁rendang	-9.50126
ring	-9.50175
ol	-9.50238
▁bilang	-9.50276
▁kipas	-9.50287
▁member	-9.5032
gram	-9.50381
▁kurus	-9.50406
▁durian	-9.50456
▁api	-9.5051
▁lokasi	-9.50678
kata	-9.50759
▁23	-9.50766
▁kerjasama	-9.50865
islam	-9.50892
▁menu	-9.50942
▁hp	-9.5096
kal	-9.50993
sal	-9.51
▁abis	-9.51219
▁acara	-9.51254
▁kuota	-9.51267
▁ig	-9.51307
ren	-9.51373
Ba	-9.51374
▁majlis	-9.51439
▁Wan	-9.5144
▁perut	-9.51595
▁jawatan	-9.51717
▁tenaga	-9.51786
ion	-9.51833
▁DM	-9.51939
mat	-9.51979
▁bang	-9.52025
zi	-9.52068
▁modal	-9.5207
45	-9.52099
tok	-9.52189
▁free	-9.52258
ding	-9.52271
95	-9.52435
ot	-9.52449
gar	-9.52461
▁marah	-9.52491
▁Salah	-9.5257
▁bantal	-9.5276
▁suami	-9.5277
way	-9.53035
▁love	-9.53036
▁Man	-9.53148
▁alias	-9.53188
ab	-9.53199
makan	-9.53309
▁tudung	-9.53339
▁SE	-9.53341
▁suruh	-9.5345
dak	-9.53539
▁maklumat	-9.53609
mar	-9.53619
pas	-9.53662
▁jg	-9.53681
▁Hanya	-9.53708
cu	-9.53888
▁bagian	-9.53918
▁Ri	-9.54033
▁pasaran	-9.54046
ari	-9.5405
tek	-9.54181
▁terutama	-9.54196
▁Harapan	-9.54222
sia	-9.5423
▁hubungan	-9.54383
▁lengkap	-9.5439
▁operasi	-9.54437
▁tahap	-9.54447
▁terbabit	-9.54475
▁hujan	-9.54545
▁km	-9.54631
one	-9.5474
▁food	-9.5491
rat	-9.54923
▁Eh	-9.54927
▁Lebih	-9.54968
▁PAS	-9.5499
▁individu	-9.55122
baik	-9.55161
▁janji	-9.55322
▁uang	-9.55433
▁emang	-9.55482
▁RAKYAT	-9.55582
▁model	-9.55655
▁murid	-9.55658
▁lo	-9.55666
▁kajian	-9.55699
▁bodoh	-9.55895
▁Masih	-9.55992
dia	-9.56175
▁sementara	-9.56197
▁Mo	-9.56283
▁Akta	-9.56429
▁pokok	-9.56553
▁Piala	-9.56602
Q	-9.56639
medan	-9.56796
▁umum	-9.56809
▁memilih	-9.56828
▁sahabat	-9.56881
▁timur	-9.57043
bayi	-9.57271
▁Filem	-9.57324
▁last	-9.57422
chi	-9.57455
▁kebangsaan	-9.57458
solo	-9.57503
▁mangsa	-9.57512
▁tambah	-9.5754
lin	-9.57544
▁membaca	-9.57559
original	-9.57747
▁harapan	-9.57794
▁mahal	-9.5784
▁petang	-9.5789
▁Pahang	-9.57897
ana	-9.57991
▁bank	-9.57994
▁berhubung	-9.58004
▁Haji	-9.58052
▁bangsa	-9.58127
▁ramadhan	-9.58141
▁Ki	-9.58148
▁Mana	-9.58393
▁bapak	-9.58418
tt	-9.5843
indo	-9.58435
▁soal	-9.58466
tra	-9.5849
▁ha	-9.58616
▁mah	-9.58627
▁dimana	-9.58665
nan	-9.58722
▁agak	-9.58819
▁Lo	-9.58841
▁Jl	-9.58896
▁coba	-9.59004
▁terdiri	-9.5903
▁not	-9.59086
▁ternyata	-9.59091
▁Kerja	-9.59127
▁bau	-9.59135
tin	-9.5921
▁bermain	-9.5922
▁Lagi	-9.59287
▁Mi	-9.59346
▁berikut	-9.59496
life	-9.59543
▁kayak	-9.59556
▁demikian	-9.59578
▁Pilihan	-9.59749
▁tiap	-9.5982
bat	-9.59874
kl	-9.59891
baju	-9.59893
▁Mu	-9.59902
▁sabar	-9.60008
▁berusia	-9.60008
▁unit	-9.6008
▁rezeki	-9.60122
▁menjaga	-9.60194
nye	-9.60208
▁Arab	-9.60282
ju	-9.60295
▁jualan	-9.60304
▁keperluan	-9.60347
▁berbuka	-9.60396
▁Beli	-9.60397
▁terkenal	-9.60409
▁klo	-9.60424
▁bangunan	-9.60463
▁Sebagai	-9.60603
▁harini	-9.60635
▁weh	-9.60637
▁JAWAPAN	-9.6077
▁otak	-9.60868
▁bagaimana	-9.60885
IT	-9.60907
▁terbesar	-9.6101
▁but	-9.61065
▁Pengarah	-9.61191
▁bro	-9.61191
▁udh	-9.61239
▁Sebelum	-9.6146
▁Whatsapp	-9.61468
dy	-9.61475
▁instagram	-9.61523
▁sebahagian	-9.61547
▁muncul	-9.61627
▁dilihat	-9.61741
rang	-9.61754
▁dadah	-9.61798
▁pasar	-9.61831
▁pertanian	-9.61862
▁Oleh	-9.62035
▁meningkat	-9.62092
▁min	-9.62139
▁Cara	-9.62246
27	-9.62253
▁peruntukan	-9.6233
▁pro	-9.62343
▁hubungi	-9.62477
▁sorang	-9.62502
35	-9.62507
▁Singapura	-9.62545
▁Baju	-9.62566
▁browser	-9.62568
▁teruk	-9.62657
shop	-9.62712
▁September	-9.62763
▁40	-9.62775
▁gagal	-9.62903
▁twitter	-9.62953
let	-9.62959
sta	-9.62964
▁gula	-9.63032
▁khusus	-9.6306
emas	-9.63083
▁pekerjaan	-9.6311
che	-9.63127
the	-9.63161
SI	-9.63237
ron	-9.63413
semarang	-9.63457
▁Fa	-9.63481
▁abang	-9.63526
long	-9.63541
of	-9.63577
▁pemerintah	-9.63638
ikan	-9.63733
▁guys	-9.6379
▁hutang	-9.63822
mon	-9.63837
▁Ketika	-9.63846
ler	-9.63942
▁kurung	-9.64028
▁seseorang	-9.64115
▁26	-9.64121
vo	-9.64167
▁KUALA	-9.64208
▁bawak	-9.64239
▁TV	-9.64252
▁it	-9.64287
▁Kamu	-9.643
▁sate	-9.64303
▁Atau	-9.64395
▁diet	-9.64409
▁Buku	-9.64424
▁Makan	-9.64471
▁Dato	-9.64511
▁lepak	-9.64559
art	-9.64599
01	-9.64617
▁sehari	-9.64645
▁sawit	-9.64672
▁ayah	-9.64821
▁letak	-9.64851
▁Tentera	-9.64865
▁agensi	-9.64909
▁fitnah	-9.64988
pp	-9.64998
▁siang	-9.65091
▁dll	-9.65115
ie	-9.65142
ster	-9.65428
▁Pembangunan	-9.65446
▁Repost	-9.65448
▁Je	-9.6545
▁Kanan	-9.65476
▁budaya	-9.65495
▁ajak	-9.65552
ze	-9.65563
cinta	-9.65566
▁hm	-9.6563
▁miskin	-9.65643
peng	-9.65647
enak	-9.65736
he	-9.65757
▁gamis	-9.65849
▁gaya	-9.65912
▁sedia	-9.66042
sing	-9.6609
▁tas	-9.66206
▁tambahan	-9.66227
car	-9.66234
os	-9.66247
▁menjalankan	-9.6627
▁daging	-9.66328
▁seng	-9.66349
buku	-9.66493
▁try	-9.66494
cha	-9.66536
▁disebabkan	-9.66539
▁ba	-9.66555
▁terlibat	-9.66591
▁kementerian	-9.66595
ala	-9.66672
▁kuih	-9.66677
▁Li	-9.6668
▁Sama	-9.6674
▁Rasa	-9.66771
Kita	-9.66861
hu	-9.66957
▁DEWAN	-9.67038
▁28	-9.67112
▁membabitkan	-9.67124
▁lari	-9.67282
▁dkt	-9.67366
sur	-9.67395
cer	-9.6743
▁Wanita	-9.67438
▁cuti	-9.67628
▁kekal	-9.67658
▁menghasilkan	-9.67855
▁skincare	-9.67877
len	-9.67942
air	-9.67951
▁dahulu	-9.67978
500	-9.67997
▁Setiap	-9.68
▁diadakan	-9.68083
▁meter	-9.68173
mata	-9.68177
▁tiket	-9.6833
sha	-9.68433
▁Masa	-9.68433
▁kebaya	-9.68452
▁cek	-9.68546
▁ketiga	-9.68629
▁hehe	-9.68776
▁bersih	-9.6881
The	-9.68871
▁Korea	-9.68942
malang	-9.68961
▁mahasiswa	-9.69019
▁pesawat	-9.69257
anda	-9.69259
▁perubahan	-9.69286
▁apakah	-9.69334
▁Antara	-9.69373
▁yuk	-9.69397
Di	-9.69434
▁bahkan	-9.6946
▁pembinaan	-9.69739
▁faham	-9.69754
▁LISAN	-9.69782
▁selesai	-9.69827
▁IG	-9.69879
lek	-9.699
ll	-9.69963
▁Pengerusi	-9.69974
▁DARIPADA	-9.70052
pro	-9.70081
ID	-9.70137
▁Ge	-9.70273
▁antarabangsa	-9.70274
▁gojek	-9.70459
▁said	-9.70596
▁are	-9.70626
▁sempat	-9.70664
yan	-9.70688
▁Do	-9.70691
▁Tuhan	-9.70749
▁meminta	-9.70792
▁gimana	-9.70842
▁jakarta	-9.70851
▁muslim	-9.70893
▁ape	-9.70924
▁Co	-9.7094
▁kalah	-9.71139
▁samping	-9.71294
▁My	-9.71353
60	-9.71394
▁kering	-9.71453
▁siasatan	-9.71473
▁berubah	-9.71522
▁Ismail	-9.71541
▁Dua	-9.71672
▁tol	-9.71689
23	-9.71695
▁tukar	-9.71704
like	-9.71727
▁lihat	-9.71738
▁bantu	-9.71827
lon	-9.71907
kon	-9.71939
▁27	-9.71954
ning	-9.71959
▁padahal	-9.72015
▁kenal	-9.72026
▁had	-9.72048
▁hahahaha	-9.72075
lucu	-9.72075
▁yakin	-9.72209
▁perjalanan	-9.72223
▁tweet	-9.72231
▁happy	-9.72321
▁Ekonomi	-9.72324
▁Industri	-9.72326
▁mama	-9.72378
▁rm	-9.72416
▁perang	-9.72427
▁Mak	-9.72478
▁Julai	-9.72486
Pertua	-9.72497
iii	-9.72545
aman	-9.7255
▁game	-9.72557
▁aman	-9.72599
▁Produk	-9.72613
▁60	-9.72677
sari	-9.72724
▁padi	-9.72891
▁malas	-9.72915
tis	-9.72967
▁bener	-9.73028
om	-9.73079
▁tutup	-9.73134
▁presiden	-9.73135
tv	-9.7319
▁dok	-9.7328
▁cermin	-9.73366
▁Sekarang	-9.73466
▁tertentu	-9.7353
▁sihat	-9.73542
▁undang	-9.73725
▁pinjaman	-9.73841
ps	-9.73859
▁area	-9.73879
▁uitm	-9.73976
▁DAP	-9.74003
don	-9.74088
▁Dulu	-9.74095
▁usia	-9.74112
▁kebun	-9.74114
▁Abu	-9.74417
▁dikeluarkan	-9.74426
▁share	-9.74429
AT	-9.74454
nu	-9.74464
ner	-9.74496
▁Bahasa	-9.74537
▁surat	-9.74632
▁LUMPUR	-9.74679
shi	-9.74704
▁hadiah	-9.74734
▁Minyak	-9.74777
ris	-9.74793
pur	-9.74865
▁rasmi	-9.74892
▁bg	-9.74907
▁manfaat	-9.74914
▁AKU	-9.74915
▁mengurangkan	-9.74916
lain	-9.74921
29	-9.74965
▁dapatkan	-9.75042
▁belanja	-9.75057
▁Oktober	-9.7507
▁merasa	-9.75076
▁start	-9.75087
▁bahagia	-9.75128
IS	-9.7517
▁Mari	-9.75209
▁whatsapp	-9.75211
▁keras	-9.75256
▁serius	-9.75339
▁Warna	-9.75388
▁membentuk	-9.75426
▁jawab	-9.75465
▁Provinsi	-9.7548
▁Ibrahim	-9.75579
▁membeli	-9.75613
▁daya	-9.75706
▁dianggap	-9.7577
▁terbuka	-9.75772
▁kakak	-9.75808
▁Disember	-9.75835
▁Nur	-9.75854
▁Bo	-9.75907
▁call	-9.76013
▁aplikasi	-9.76031
▁We	-9.76042
▁cukai	-9.76082
▁Tol	-9.76116
▁Walaupun	-9.7617
▁tepat	-9.76174
▁doa	-9.7619
▁Mahkamah	-9.76232
jaya	-9.76322
AR	-9.76328
kali	-9.76395
22	-9.76401
ts	-9.76513
▁dengar	-9.76542
▁Ti	-9.76632
hijab	-9.76661
La	-9.76715
▁nonton	-9.76737
▁cincin	-9.76742
▁rasanya	-9.76773
▁jubah	-9.7688
▁Pakatan	-9.76926
▁angin	-9.76959
▁Sumber	-9.77155
▁menurut	-9.77174
▁still	-9.77337
▁pasangan	-9.77358
▁Foto	-9.7737
28	-9.77388
▁kegiatan	-9.77463
▁Bhd	-9.77484
▁all	-9.77497
▁laki	-9.77541
▁urusan	-9.77586
▁obat	-9.77594
▁lapangan	-9.77651
▁Ca	-9.77651
70	-9.77667
▁kebanyakan	-9.77735
▁Kedua	-9.77738
AH	-9.77756
out	-9.77813
▁01	-9.77834
▁sidang	-9.77835
▁Nah	-9.7788
▁urut	-9.7795
▁tips	-9.78099
▁tugas	-9.78152
▁we	-9.78158
▁tanaman	-9.78163
tur	-9.78249
▁Jam	-9.78297
▁dibawa	-9.78319
▁maju	-9.78472
Pe	-9.78472
▁Sukan	-9.78498
▁khususnya	-9.78523
▁Po	-9.7857
ham	-9.78694
▁bas	-9.78812
▁penat	-9.78827
▁pertumbuhan	-9.78907
▁berbeza	-9.78942
TE	-9.79005
▁alasan	-9.79081
▁penjara	-9.79084
bang	-9.79089
▁ckp	-9.79148
▁Selepas	-9.79186
▁ki	-9.79357
daerah	-9.79386
▁Kak	-9.79416
jang	-9.79558
kin	-9.79593
and	-9.79595
▁kesalahan	-9.79621
ver	-9.79638
▁dijangka	-9.79649
▁infrastruktur	-9.79773
jual	-9.79807
▁sahur	-9.79836
▁Iya	-9.79838
rak	-9.79862
▁Februari	-9.79895
▁kisah	-9.79928
▁pentadbiran	-9.79945
▁KL	-9.79952
▁sejuk	-9.79977
▁lembut	-9.8
▁make	-9.80052
▁pelaksanaan	-9.80085
▁Ok	-9.80194
▁mesin	-9.80232
sihat	-9.80309
▁memerlukan	-9.80342
▁album	-9.80344
▁layak	-9.80354
▁Ogos	-9.80364
▁yaitu	-9.80407
▁nggak	-9.80452
▁namanya	-9.80462
▁loh	-9.80488
▁November	-9.80575
200	-9.80583
▁PER	-9.80586
▁Macam	-9.80612
▁Udah	-9.8068
▁Pro	-9.8072
▁Ye	-9.80727
▁kene	-9.80787
▁memper	-9.80861
▁Aman	-9.80907
con	-9.80917
aq	-9.81054
▁Poskod	-9.81066
ation	-9.81081
RI	-9.81125
mp	-9.81189
▁Ne	-9.81255
ina	-9.81288
lam	-9.81301
▁Panjang	-9.81306
▁Anwar	-9.81308
▁tim	-9.81354
af	-9.81356
▁berjalan	-9.8138
▁sebulan	-9.81389
▁bu	-9.81409
▁pelaburan	-9.81565
▁ganti	-9.81625
▁Asli	-9.81687
▁beri	-9.81735
if	-9.81754
▁bernama	-9.81764
▁HARGA	-9.81805
▁Badan	-9.81869
▁sambal	-9.81937
mal	-9.82001
▁umat	-9.82096
par	-9.82102
▁babi	-9.82107
annya	-9.82114
LAH	-9.82213
▁enam	-9.82261
▁Putrajaya	-9.82289
UM	-9.82304
MI	-9.82331
lot	-9.82344
▁31	-9.82427
▁diterima	-9.82434
▁Bi	-9.82528
nd	-9.82537
ine	-9.82542
▁disini	-9.82555
▁perlawanan	-9.82584
▁nangis	-9.82681
▁Para	-9.82691
kit	-9.82772
▁kadang	-9.82828
isi	-9.8283
▁Suka	-9.82944
ani	-9.82954
▁mo	-9.8296
sin	-9.83066
Per	-9.83069
▁Jenis	-9.83162
▁Ukuran	-9.83164
▁Tp	-9.83177
jah	-9.83201
bal	-9.83251
▁jarang	-9.83267
▁latihan	-9.83308
tel	-9.83354
▁lengan	-9.83383
▁go	-9.83397
▁nie	-9.83411
gel	-9.83429
baby	-9.8347
▁cadangan	-9.83492
▁pos	-9.8355
▁Am	-9.8364
▁berharap	-9.83666
▁Thailand	-9.83718
line	-9.83727
▁karna	-9.83755
▁terpaksa	-9.83812
AS	-9.83829
▁nasib	-9.83831
Indonesia	-9.83839
DA	-9.83843
▁Parti	-9.83926
▁Liga	-9.83958
▁pejabat	-9.83976
▁terutamanya	-9.8398
▁minit	-9.83992
▁For	-9.83996
▁mengeluarkan	-9.83999
cat	-9.84029
▁Maaf	-9.84206
tri	-9.84243
▁sel	-9.8431
jak	-9.8434
▁hukum	-9.84346
▁chat	-9.84349
▁doang	-9.84365
▁join	-9.84376
▁meninggal	-9.84383
▁Inggeris	-9.8451
▁kepentingan	-9.8455
▁digital	-9.84559
▁Dapatkan	-9.84722
▁Australia	-9.84738
▁Sha	-9.84755
▁udara	-9.84819
▁menyertai	-9.84841
▁sokongan	-9.8485
▁halal	-9.84884
▁segi	-9.84921
sy	-9.84936
SE	-9.8494
▁Menengah	-9.84982
▁pengurusan	-9.85101
rt	-9.85103
▁Hahahaha	-9.85129
▁hadapan	-9.85138
▁ok	-9.8529
muda	-9.85343
▁Dipertua	-9.85404
▁Penang	-9.85479
▁solat	-9.85608
jar	-9.85642
rin	-9.85733
▁menjual	-9.85742
LI	-9.85748
▁Republik	-9.85786
▁Pi	-9.85797
▁status	-9.85829
for	-9.86068
▁malu	-9.8613
▁ukuran	-9.86154
▁sepatu	-9.86215
▁Pertama	-9.86285
▁dibuka	-9.86427
▁pantai	-9.86429
▁mengadakan	-9.86456
▁Laut	-9.86476
mak	-9.86524
▁universiti	-9.86565
SA	-9.8657
▁situ	-9.86695
▁Maka	-9.86721
▁bekalan	-9.86752
▁kematian	-9.86754
▁wajib	-9.86848
▁Malam	-9.86878
48	-9.86903
▁diper	-9.86949
▁Ro	-9.87055
jan	-9.87087
pm	-9.87091
55	-9.87165
▁perkembangan	-9.87176
26	-9.87186
fu	-9.87193
97	-9.87219
▁super	-9.87281
▁Prabowo	-9.87351
▁sumpah	-9.87365
▁Agama	-9.87406
▁perhatian	-9.87412
▁bukti	-9.87441
▁nga	-9.87444
▁UNTUK	-9.87495
▁aktif	-9.87672
▁tido	-9.87726
▁harap	-9.87751
tion	-9.87826
cc	-9.8783
Mu	-9.87846
▁setahun	-9.87856
▁29	-9.87937
▁Perang	-9.8797
Sa	-9.88015
▁iya	-9.88018
wo	-9.88027
▁taman	-9.88063
03	-9.88094
04	-9.88143
lia	-9.88171
▁selatan	-9.88182
▁Kesihatan	-9.88184
▁peranan	-9.88224
▁contoh	-9.88226
▁Lepas	-9.88369
▁Kulit	-9.88419
80	-9.88576
▁WP	-9.88618
▁grab	-9.88679
▁Pan	-9.88686
▁Abdullah	-9.88743
lar	-9.88745
▁tanda	-9.88757
08	-9.88805
Nya	-9.88823
▁kenderaan	-9.88833
▁trus	-9.88858
▁ak	-9.88874
age	-9.88907
▁Mungkin	-9.88931
▁dipakai	-9.88933
king	-9.89082
▁just	-9.89168
ben	-9.89231
▁Pagi	-9.89283
▁Bersama	-9.89353
ING	-9.89365
▁bakar	-9.89405
que	-9.89456
▁pembelian	-9.89457
bra	-9.89527
▁perasaan	-9.89617
▁then	-9.89618
▁PT	-9.89649
▁positif	-9.89688
rap	-9.89776
▁pu	-9.89784
▁Antarabangsa	-9.89792
▁informasi	-9.89804
▁Ho	-9.89821
kes	-9.89889
▁Dasar	-9.8989
▁Ayo	-9.89941
▁Saat	-9.89945
jalan	-9.89973
mis	-9.90004
▁Hidup	-9.90025
▁NAK	-9.90099
ay	-9.90139
ist	-9.90151
ian	-9.90232
ita	-9.90413
gas	-9.90438
▁Ayam	-9.90581
isme	-9.90732
▁peningkatan	-9.90819
uu	-9.90842
▁Memang	-9.90863
rs	-9.90903
▁Oh	-9.91065
▁butuh	-9.9108
dress	-9.91163
▁Masyarakat	-9.91167
lip	-9.91193
▁berusaha	-9.91225
▁Baca	-9.91279
import	-9.91351
▁cocok	-9.91412
31	-9.91477
▁family	-9.91483
▁BN	-9.91501
KU	-9.91504
tau	-9.91612
▁travel	-9.91652
▁here	-9.91695
▁berasal	-9.91732
▁seni	-9.91751
▁Sdn	-9.91817
pin	-9.91877
▁Min	-9.91905
▁02	-9.91916
▁sukses	-9.91953
▁rakan	-9.91977
▁fashion	-9.92106
▁2013	-9.92196
▁fikir	-9.92203
▁Mat	-9.92222
▁Nanti	-9.92236
▁sampah	-9.92326
sir	-9.92347
▁Itali	-9.92347
gh	-9.92392
▁Facebook	-9.92435
▁buang	-9.92447
▁2010	-9.92528
▁makeup	-9.92542
▁Hasil	-9.92604
▁menambah	-9.92621
unik	-9.92644
▁kemudahan	-9.92717
▁can	-9.92726
▁besi	-9.92738
▁Bulan	-9.92849
▁hijab	-9.92898
▁telur	-9.92912
▁Ru	-9.92919
▁PKR	-9.92931
▁first	-9.93002
▁kamar	-9.93008
59	-9.93009
▁bagaimanapun	-9.93015
ras	-9.93063
▁serangan	-9.93074
put	-9.93123
▁run	-9.93159
▁isteri	-9.93184
▁ORDER	-9.93213
▁menuju	-9.93222
▁bohong	-9.93252
▁Pejabat	-9.93281
▁dibina	-9.9332
▁lahir	-9.93362
▁faktor	-9.93365
78	-9.93419
▁Ce	-9.9348
▁perusahaan	-9.9357
tahun	-9.93584
ic	-9.93635
▁Kewangan	-9.93637
▁have	-9.93664
▁sukan	-9.93764
▁paket	-9.93812
▁FREE	-9.93918
▁hang	-9.93929
▁salam	-9.93958
▁Instagram	-9.93993
ac	-9.94014
▁Sampai	-9.94052
muslimah	-9.94155
ud	-9.94173
▁ketua	-9.94241
▁Tanpa	-9.94319
▁layan	-9.94342
▁sik	-9.94537
▁Mar	-9.9455
bahan	-9.94589
▁Bin	-9.94607
99	-9.94821
pet	-9.94852
▁Pem	-9.94885
▁INI	-9.94924
▁membuka	-9.94958
▁Nabi	-9.95036
▁daun	-9.95105
Ber	-9.95184
▁Ramadan	-9.95206
ria	-9.95209
▁kaos	-9.95209
▁El	-9.95228
▁kecantikan	-9.9525
▁open	-9.95338
▁menunggu	-9.9542
▁PM	-9.95455
06	-9.9547
▁bumi	-9.95484
▁pengalaman	-9.95496
gg	-9.95533
itas	-9.95534
▁Ikan	-9.95673
▁PEMBERITAHUAN	-9.95682
aku	-9.95716
▁Material	-9.95849
▁dijalankan	-9.95872
▁Teknologi	-9.95873
RM	-9.95889
yah	-9.95949
▁masker	-9.96061
tif	-9.96087
▁Terus	-9.9609
ip	-9.96119
▁dtg	-9.96229
kap	-9.96311
▁Seksyen	-9.9636
kota	-9.96378
▁Apakah	-9.9638
▁wujud	-9.96401
kuliner	-9.96413
▁tdk	-9.965
▁pulau	-9.9652
▁post	-9.96526
Ka	-9.96541
▁pandangan	-9.96682
▁Luar	-9.96747
▁International	-9.96766
▁serum	-9.96777
▁Assalamualaikum	-9.96812
▁dress	-9.96858
IK	-9.96871
ish	-9.96872
▁design	-9.96875
ken	-9.96879
▁haram	-9.96954
▁mobil	-9.96985
▁full	-9.97063
▁olshop	-9.97065
▁sayajual	-9.97102
muslim	-9.97188
▁campur	-9.97223
▁Turki	-9.97226
▁bilangan	-9.97235
bola	-9.97299
▁ADA	-9.97358
▁ribu	-9.97362
▁taknak	-9.97367
kita	-9.97461
tah	-9.97481
▁WIB	-9.97483
▁TAK	-9.975
▁Pu	-9.97569
▁menge	-9.97571
▁Gak	-9.97645
▁buruk	-9.97667
▁ngan	-9.97717
▁klinik	-9.97755
▁seterusnya	-9.97791
▁Otak	-9.978
▁Aidilfitri	-9.97816
▁Tanjung	-9.97838
▁Suruhanjaya	-9.97888
▁jokowi	-9.97904
▁tv	-9.98032
▁BIN	-9.98039
rr	-9.98078
tang	-9.98088
▁pihaknya	-9.98139
▁sekiranya	-9.98215
▁Sembilan	-9.98229
▁Dapat	-9.9823
sis	-9.98245
▁pelakon	-9.98325
besar	-9.98369
▁United	-9.98371
bag	-9.98371
▁berani	-9.98375
ayam	-9.98428
▁berkuasa	-9.98483
awan	-9.98504
▁kayu	-9.98531
▁Gi	-9.98583
kurus	-9.98593
▁And	-9.98596
▁new	-9.98604
pt	-9.98622
▁pandai	-9.98647
▁su	-9.98659
time	-9.98667
▁dagang	-9.98679
▁pecah	-9.98698
▁Eropah	-9.98706
▁petani	-9.98735
▁one	-9.9876
▁siri	-9.98775
masak	-9.98781
▁berlangsung	-9.98873
▁paytren	-9.98906
▁ataupun	-9.98909
▁nombor	-9.98928
▁II	-9.98972
▁TARIKH	-9.99011
▁hospital	-9.99014
iti	-9.99071
Re	-9.99083
▁sungai	-9.99094
▁nyaman	-9.99106
▁Bersatu	-9.99157
▁jasa	-9.99213
▁Razak	-9.99214
▁pemesanan	-9.99221
▁Sabtu	-9.99236
▁HARI	-9.99267
lt	-9.99326
▁mulut	-9.99332
pria	-9.9936
sar	-9.99665
▁pembangkang	-9.99665
▁beda	-9.99707
▁minat	-9.99727
kas	-9.99756
▁ex	-9.99796
▁MALAYSIA	-9.99833
UN	-9.99903
az	-9.99919
Me	-9.9993
dam	-9.99931
bul	-9.99979
▁bukak	-9.99991
ley	-9.99997
▁Kumpulan	-10.0002
▁YA	-10.0003
In	-10.0006
▁fokus	-10.0009
02	-10.001
▁dana	-10.0014
▁membolehkan	-10.0016
▁bapa	-10.0017
ste	-10.0023
▁sebaliknya	-10.0031
▁asas	-10.0044
▁Size	-10.0046
▁menangani	-10.0047
▁akun	-10.0048
2018	-10.0056
tiba	-10.0056
▁Kali	-10.0057
kh	-10.006
kam	-10.006
Ha	-10.0068
▁amanah	-10.0074
▁patut	-10.0075
▁sewa	-10.0075
▁apalagi	-10.0076
diet	-10.0084
▁admin	-10.0087
▁plastik	-10.0095
dong	-10.0098
▁ditemui	-10.0117
05	-10.0118
BN	-10.0118
▁wakil	-10.0121
▁melebihi	-10.0122
des	-10.0123
▁rasuah	-10.0129
▁tentu	-10.0129
▁Berat	-10.013
▁Amin	-10.0131
▁Siap	-10.0137
▁ngga	-10.0137
kom	-10.0141
US	-10.0145
▁Jawatankuasa	-10.0147
Ra	-10.0148
aaaa	-10.0151
▁menit	-10.0152
official	-10.0155
▁sebelumnya	-10.0158
▁perak	-10.0159
▁bodo	-10.0161
qa	-10.0166
▁Desa	-10.0167
ent	-10.0169
▁TER	-10.0173
▁aset	-10.0178
▁dilantik	-10.0182
▁maupun	-10.0182
lovers	-10.0187
▁harta	-10.0189
▁Pra	-10.019
▁St	-10.0191
▁dijadikan	-10.0194
can	-10.0197
▁Bar	-10.0198
tam	-10.0204
▁Super	-10.0214
but	-10.0218
▁sisi	-10.0225
anti	-10.0226
▁institusi	-10.0233
▁Seperti	-10.0242
▁gol	-10.0245
▁Lembaga	-10.0248
▁mimpi	-10.0253
▁En	-10.0253
▁pertanyaan	-10.0254
▁At	-10.0268
▁Petaling	-10.0269
▁sibuk	-10.0269
abad	-10.0269
keren	-10.0276
▁ayo	-10.0287
▁Lama	-10.0288
iya	-10.0289
▁luas	-10.0291
▁byk	-10.03
▁getah	-10.0308
▁nutrisi	-10.0311
tes	-10.0314
uuu	-10.0315
▁karpet	-10.0316
res	-10.0326
bur	-10.0329
▁semuanya	-10.0339
hijrah	-10.0343
▁Free	-10.0345
▁halus	-10.0345
▁Mem	-10.035
nt	-10.035
▁Media	-10.0353
▁gk	-10.0354
▁single	-10.0357
▁sebenar	-10.0358
itu	-10.036
dang	-10.036
▁Subang	-10.0363
▁bertemu	-10.0369
▁Vi	-10.0369
▁hijau	-10.037
▁sesi	-10.0373
cepat	-10.0379
love	-10.038
▁besok	-10.0381
▁Maha	-10.0381
▁geng	-10.0382
▁perdagangan	-10.0384
33	-10.0385
ey	-10.0385
▁karya	-10.0389
▁ulang	-10.0403
▁dibawah	-10.0404
▁Ingat	-10.0409
▁elok	-10.042
kulit	-10.0429
▁Klik	-10.0431
▁syarat	-10.0431
39	-10.0434
▁disediakan	-10.0439
▁kandungan	-10.0442
88	-10.0445
▁Umum	-10.0445
mil	-10.0446
63	-10.0457
▁Happy	-10.0459
34	-10.0461
kopi	-10.0465
tal	-10.0468
sekolah	-10.0475
▁kanak	-10.0476
▁bersatu	-10.048
▁bawang	-10.048
war	-10.048
▁0812	-10.0488
kekinian	-10.0489
mel	-10.0491
▁shopee	-10.0492
▁cuci	-10.0496
cap	-10.0499
▁kilang	-10.0499
▁Mohon	-10.0503
▁cod	-10.0507
▁tepi	-10.0512
▁kemenangan	-10.0513
▁pemerintahan	-10.0514
▁kirim	-10.0517
▁Pegawai	-10.0525
▁dg	-10.0528
▁tingkat	-10.0536
buk	-10.0542
▁populasi	-10.055
▁permohonan	-10.055
▁dirinya	-10.0552
▁Hu	-10.0556
▁puas	-10.0562
op	-10.0564
▁memenuhi	-10.0567
▁botol	-10.0574
▁dapet	-10.0577
bulan	-10.0579
▁kuliah	-10.0583
▁meninggalkan	-10.0587
▁kang	-10.0588
KA	-10.0591
▁pendek	-10.0595
▁Jo	-10.0597
▁mamak	-10.06
rambut	-10.06
▁diterbitkan	-10.0602
ini	-10.0606
▁lebaran	-10.0613
dok	-10.0617
▁dikatakan	-10.0618
▁HP	-10.0621
pot	-10.0623
▁WhatsApp	-10.0626
PH	-10.063
dik	-10.0632
ff	-10.0633
▁tanggal	-10.0633
▁kon	-10.0635
▁masakan	-10.0635
▁silahkan	-10.0638
▁terasa	-10.0643
raja	-10.0645
▁palsu	-10.0645
ex	-10.0654
▁film	-10.0655
▁Syed	-10.0657
SK	-10.0658
▁mengandungi	-10.066
▁muzik	-10.066
▁his	-10.0663
▁polisi	-10.0668
▁Persatuan	-10.067
▁terbaru	-10.0676
▁YG	-10.0676
zo	-10.0678
▁City	-10.0678
kkk	-10.0679
▁200	-10.068
▁hmm	-10.0685
net	-10.0686
▁vitamin	-10.0693
daya	-10.0697
rasa	-10.0699
las	-10.0701
▁jangka	-10.0703
▁2020	-10.0703
▁disebut	-10.0705
▁online	-10.0706
▁Shopee	-10.0716
▁saudara	-10.0718
▁KM	-10.072
red	-10.0721
kai	-10.0729
KI	-10.0746
pang	-10.0746
bin	-10.0748
style	-10.0748
▁menye	-10.0748
▁kualitas	-10.0756
▁Perlis	-10.0757
untuk	-10.0758
▁berhenti	-10.077
▁out	-10.0771
▁laptop	-10.0771
▁krn	-10.0773
▁duk	-10.0777
ibu	-10.0787
▁mengikuti	-10.0787
▁pengeluaran	-10.079
▁sedar	-10.0792
▁Lim	-10.0795
jen	-10.0796
▁ad	-10.0796
▁Sejak	-10.0801
mba	-10.0801
36	-10.0803
▁gitar	-10.0803
▁sisa	-10.0804
▁sejumlah	-10.0808
benar	-10.0808
De	-10.0811
▁bergerak	-10.0814
▁ketupat	-10.0818
sak	-10.0822
▁sem	-10.0827
▁menyokong	-10.0827
▁mkn	-10.0827
▁pakaian	-10.0828
LA	-10.0833
▁bayaran	-10.0839
▁Kim	-10.084
▁San	-10.0845
ig	-10.0849
laut	-10.0849
▁perumahan	-10.085
▁tertinggi	-10.0862
lit	-10.0868
▁cendol	-10.0869
▁Con	-10.087
▁allah	-10.0871
▁Berhormat	-10.0873
▁mengatasi	-10.0875
photography	-10.088
tangan	-10.0883
MU	-10.089
▁cam	-10.089
▁nye	-10.0896
Quran	-10.0899
▁peserta	-10.0903
▁saling	-10.0905
▁pegi	-10.0907
▁padang	-10.091
▁Es	-10.0911
nn	-10.0917
▁Aziz	-10.0917
▁Hospital	-10.0922
▁more	-10.0929
▁sempena	-10.0934
▁2012	-10.0938
oi	-10.0938
▁kahwin	-10.0942
duk	-10.0943
malam	-10.0943
▁menentang	-10.0946
▁lapar	-10.0947
wajah	-10.0948
▁Muda	-10.0954
▁sepenuhnya	-10.0955
=	-10.0968
▁Za	-10.0968
▁mewujudkan	-10.0968
▁Cepat	-10.0973
▁Kata	-10.0981
▁grosir	-10.0986
hhhh	-10.0987
▁Minggu	-10.0988
▁Eng	-10.0989
nah	-10.1002
▁RAYA	-10.1009
▁Bas	-10.1015
▁Che	-10.1017
org	-10.1021
▁Line	-10.1026
ara	-10.103
▁sang	-10.1045
▁kosong	-10.1046
▁dm	-10.1046
▁komuniti	-10.1048
▁kertas	-10.1048
▁menghadapi	-10.1049
▁artis	-10.1051
▁biji	-10.1052
07	-10.1058
ple	-10.1061
▁Pasir	-10.1064
▁undi	-10.1066
fe	-10.107
▁alhamdulillah	-10.107
kul	-10.1072
▁Padang	-10.1075
▁bajuraya	-10.1077
▁hebat	-10.1079
▁kebutuhan	-10.1079
▁Rabu	-10.1079
bunga	-10.108
▁tulis	-10.1087
▁akaun	-10.1088
▁Terbaik	-10.1091
▁event	-10.1094
▁pesan	-10.1095
▁sah	-10.1102
▁mohon	-10.1106
pol	-10.1106
▁Saint	-10.1107
log	-10.1114
▁tgh	-10.1118
gr	-10.1122
65	-10.1124
▁MEN	-10.1126
city	-10.1126
▁Pertanian	-10.1128
▁berkembang	-10.1134
▁gigi	-10.1135
bung	-10.1137
▁dilaporkan	-10.1139
JA	-10.1142
▁kerusi	-10.1147
▁membina	-10.1148
▁jer	-10.115
▁meja	-10.1154
▁generasi	-10.1155
tong	-10.1166
▁Kena	-10.1167
▁aq	-10.1168
bogor	-10.1168
▁jahit	-10.1169
bank	-10.1175
bai	-10.1176
BA	-10.1177
herbal	-10.1181
▁Diraja	-10.1183
buru	-10.1195
▁Click	-10.1195
▁Mudah	-10.1195
▁pre	-10.1199
▁Padahal	-10.1203
ikat	-10.1204
▁Bandung	-10.1208
ali	-10.1209
tro	-10.1219
get	-10.1222
km	-10.1225
32	-10.1234
▁korban	-10.1236
▁pd	-10.1239
▁Twitter	-10.1239
rit	-10.1245
▁gi	-10.1249
sya	-10.1257
▁mahkamah	-10.1257
ora	-10.126
▁selesa	-10.1264
▁Lagu	-10.1269
▁will	-10.127
ag	-10.1271
▁apapun	-10.1275
tengah	-10.1277
lahir	-10.1278
sah	-10.1283
▁TIDAK	-10.1286
▁td	-10.1288
▁rawatan	-10.1293
alam	-10.1294
▁loker	-10.13
fashion	-10.1302
dis	-10.1302
▁angkat	-10.1302
▁Rahman	-10.1302
▁internet	-10.1305
▁menolak	-10.1306
69	-10.1309
300	-10.1314
▁pedas	-10.1314
▁bawal	-10.132
73	-10.1328
mini	-10.1329
▁dijual	-10.1331
▁Darul	-10.1345
▁inisiatif	-10.135
▁Ah	-10.1351
▁Sepanyol	-10.1357
▁Ramai	-10.1358
▁Kat	-10.1365
era	-10.137
ance	-10.1371
▁SO	-10.1374
▁ditahan	-10.1376
▁laju	-10.1379
▁menawarkan	-10.1381
▁2011	-10.1394
▁lilin	-10.1395
▁yah	-10.1398
▁Hati	-10.1399
media	-10.14
▁cikgu	-10.14
▁komen	-10.14
49	-10.1408
▁Ben	-10.141
▁aspek	-10.1413
run	-10.1414
hat	-10.1419
▁kecik	-10.1423
pat	-10.1424
alami	-10.1424
▁Guru	-10.1426
▁Apabila	-10.1427
▁kontrak	-10.1429
▁British	-10.1429
▁NI	-10.143
▁alami	-10.1432
isu	-10.1433
▁balas	-10.1434
eee	-10.1435
ks	-10.1435
▁lambat	-10.1439
▁Masuk	-10.144
▁Khas	-10.1443
▁mendapati	-10.1444
▁menjelaskan	-10.1445
▁has	-10.1447
▁Z	-10.1447
▁Barang	-10.1453
▁jenayah	-10.1455
▁Balik	-10.1456
▁kebaikan	-10.1458
▁Seorang	-10.1463
▁ditetapkan	-10.1464
▁Bagaimanapun	-10.1466
ket	-10.1468
▁laman	-10.147
iri	-10.1471
box	-10.1482
MDB	-10.1483
▁lakukan	-10.1485
▁Tenggara	-10.1487
bet	-10.1496
▁tapak	-10.1498
ER	-10.1505
▁makluman	-10.1508
▁ujian	-10.1509
▁mengumumkan	-10.1514
▁wkwkwk	-10.1514
▁celana	-10.1517
bekasi	-10.1518
▁arahan	-10.1534
▁ketiak	-10.1534
▁bertindak	-10.1535
▁hiasan	-10.1538
▁niat	-10.1543
▁Isu	-10.1551
sedap	-10.1553
▁global	-10.156
▁Perkhidmatan	-10.1567
▁Bang	-10.1569
▁kasi	-10.1572
beauty	-10.1574
▁Gunung	-10.1574
▁home	-10.1575
▁dipanggil	-10.1576
aka	-10.1577
▁resep	-10.1579
nama	-10.1584
▁stok	-10.1585
Ta	-10.1587
▁bertujuan	-10.1589
▁Setiausaha	-10.1592
ity	-10.1594
pon	-10.1596
▁ayat	-10.1596
▁huhu	-10.16
ONG	-10.1602
▁Kain	-10.1604
ensi	-10.1614
cream	-10.1617
▁Walau	-10.1621
▁memenangi	-10.1621
▁trs	-10.1632
▁Du	-10.1639
halal	-10.1641
▁Jgn	-10.1648
able	-10.166
▁ubat	-10.1662
▁keje	-10.167
▁nomor	-10.1674
skincare	-10.1674
▁pelanggan	-10.1677
DI	-10.1679
▁Baik	-10.1681
▁laluan	-10.1682
▁Pantai	-10.1686
ow	-10.1686
▁Wi	-10.1688
46	-10.1691
▁Berita	-10.1698
▁hotel	-10.1701
▁ditubuhkan	-10.1701
hel	-10.1701
van	-10.1707
▁diam	-10.171
ep	-10.1714
42	-10.1722
▁permainan	-10.1733
tip	-10.1735
▁Kon	-10.1736
▁Jumaat	-10.1739
buah	-10.1741
gun	-10.1743
▁kehilangan	-10.1747
75	-10.1748
▁Mohamed	-10.1753
oo	-10.1755
▁Betul	-10.1761
▁Belum	-10.1762
follow	-10.1762
▁seminggu	-10.1763
putih	-10.1765
▁suku	-10.1775
▁indah	-10.1775
akan	-10.1776
ds	-10.178
kri	-10.1783
bit	-10.1788
▁motivasi	-10.1789
ib	-10.1789
▁desain	-10.179
94	-10.1798
nak	-10.1799
▁GA	-10.1799
▁lucu	-10.1804
▁Bismillah	-10.1811
▁bajukurung	-10.1823
▁biaya	-10.1831
rai	-10.1835
▁Tiada	-10.1837
lee	-10.1851
▁Okay	-10.1854
din	-10.1855
▁tumbuh	-10.1857
▁terlihat	-10.1859
▁jantung	-10.1874
SS	-10.1879
dunia	-10.1886
zu	-10.1888
▁sabun	-10.1896
▁BTS	-10.1898
▁berikutan	-10.1899
▁Car	-10.19
▁Anugerah	-10.19
▁potong	-10.19
▁Sistem	-10.1905
▁jiwa	-10.191
rem	-10.1918
▁Biar	-10.192
cut	-10.1921
▁Pasar	-10.1924
▁jari	-10.1925
43	-10.1932
▁dipilih	-10.1932
yuk	-10.1934
▁bole	-10.1939
▁promosi	-10.194
▁2009,	-10.1942
bertanggungjawab	-10.1945
▁bela	-10.1946
▁watak	-10.1951
▁dakwah	-10.1953
▁fungsi	-10.1955
▁kondisi	-10.1959
rum	-10.1963
NA	-10.1967
pagi	-10.1968
▁soalnya	-10.197
rus	-10.1974
▁Kar	-10.1976
dalam	-10.1985
▁Tri	-10.199
▁dada	-10.199
ANG	-10.1993
iah	-10.1993
lem	-10.1999
IM	-10.2006
ME	-10.2015
iz	-10.2015
38	-10.2016
lai	-10.2017
▁laksa	-10.2019
▁pasang	-10.2019
▁menyelesaikan	-10.2021
▁mintak	-10.2021
ml	-10.2022
▁Esok	-10.2024
▁Bali	-10.2025
47	-10.2032
▁Ji	-10.2033
▁sub	-10.2038
▁Video	-10.2039
71	-10.2043
▁cat	-10.2044
▁menikmati	-10.2044
▁tamu	-10.2047
pel	-10.205
▁Alamat	-10.2051
▁mengandung	-10.2052
TER	-10.2052
PS	-10.206
info	-10.2065
▁Tabung	-10.2069
▁Buka	-10.2073
store	-10.2077
▁aksi	-10.2079
nder	-10.2085
panjang	-10.2087
▁gelap	-10.2091
▁Anti	-10.2092
▁elektrik	-10.2092
suka	-10.2103
▁inspirasi	-10.2103
▁remaja	-10.2104
tinggi	-10.2105
▁Ju	-10.2108
▁Kiri	-10.2128
iyah	-10.213
▁daftar	-10.2131
▁tenang	-10.2135
▁fakta	-10.2136
yak	-10.2138
▁perjuangan	-10.2139
▁Akan	-10.214
▁lancar	-10.2142
54	-10.2148
▁saiz	-10.2148
▁didakwa	-10.2151
uddin	-10.2153
▁kejayaan	-10.2154
▁Lokasi	-10.2155
LE	-10.2159
▁paham	-10.2163
▁cina	-10.2166
▁80	-10.2167
OR	-10.2168
▁mari	-10.217
▁Waktu	-10.2171
▁Klang	-10.2174
skin	-10.2175
▁Lee	-10.2179
▁2009	-10.2182
▁berakhir	-10.2183
▁beroperasi	-10.2185
▁lawa	-10.219
ologi	-10.2194
bas	-10.2196
▁ketinggian	-10.2203
▁berhasil	-10.2205
67	-10.2207
▁Set	-10.2208
▁wasap	-10.2213
▁lawan	-10.2214
▁kotak	-10.2214
79	-10.2215
▁hijrah	-10.2223
▁investasi	-10.2224
▁case	-10.2225
▁Bahagian	-10.2227
▁Coba	-10.2232
▁what	-10.2233
▁kaedah	-10.2235
ven	-10.2238
▁now	-10.224
ft	-10.224
Kami	-10.2242
58	-10.2245
▁bergantung	-10.225
AP	-10.2252
▁berjumlah	-10.2254
▁panggil	-10.2256
nusantara	-10.2257
▁dosa	-10.2262
▁Han	-10.2262
▁Tau	-10.2262
▁segar	-10.227
▁body	-10.2272
▁penerbangan	-10.2273
jin	-10.2274
bisnis	-10.2276
AM	-10.2277
pal	-10.2287
▁SPRM	-10.2292
▁Tag	-10.2294
▁ama	-10.2296
▁sial	-10.2298
▁kue	-10.23
ret	-10.2304
teng	-10.2313
motor	-10.2313
▁Awam	-10.2314
▁Pos	-10.2316
▁sapa	-10.2317
▁bernilai	-10.2318
▁mengetahui	-10.2319
41	-10.2319
▁agen	-10.2324
▁kelab	-10.233
▁Cinta	-10.2333
▁mai	-10.2339
▁dipercayai	-10.234
76	-10.2344
▁nur	-10.235
top	-10.2364
▁Yu	-10.2365
▁tujuh	-10.2369
▁ibadah	-10.2374
ngan	-10.2377
angan	-10.2377
▁good	-10.238
▁pemilik	-10.2389
care	-10.2391
▁gudang	-10.2393
▁haiwan	-10.2394
37	-10.2402
pura	-10.2411
▁Kopi	-10.2411
▁terkini	-10.242
kha	-10.2423
▁sarjana	-10.2423
▁kapan	-10.2423
▁konsep	-10.2424
98	-10.2425
sk	-10.2428
CE	-10.2429
▁SM	-10.2429
▁tulisan	-10.2434
UT	-10.2439
ros	-10.2439
mudah	-10.2443
▁Belanda	-10.2447
▁Agung	-10.2448
ky	-10.2449
jer	-10.245
▁asam	-10.245
CO	-10.2452
dal	-10.2462
io	-10.247
▁hukuman	-10.2476
▁berbeda	-10.2485
▁kasut	-10.2485
atan	-10.2486
qu	-10.2488
Pa	-10.249
lat	-10.249
▁ringan	-10.2491
▁setakat	-10.2493
▁Utama	-10.2493
▁0813	-10.2498
▁Beberapa	-10.2503
▁payah	-10.2507
▁Projek	-10.2509
less	-10.2511
▁Shi	-10.2513
▁ijazah	-10.2514
▁bermanfaat	-10.2516
ive	-10.252
JU	-10.2523
▁Look	-10.2529
▁Gue	-10.2532
▁sdh	-10.2535
▁permintaan	-10.254
▁kemudiannya	-10.2542
jadi	-10.2542
▁Keluarga	-10.2545
▁support	-10.2545
▁menulis	-10.2548
lim	-10.2552
▁terlebih	-10.2558
▁begini	-10.256
bus	-10.2565
lama	-10.2567
▁kesempatan	-10.2571
▁bunyi	-10.2572
▁Tempat	-10.2573
▁pemandu	-10.2577
▁Bola	-10.2577
▁BUKAN	-10.2577
▁menjelang	-10.258
▁Ready	-10.2582
▁Pasukan	-10.2585
olshop	-10.2586
▁risau	-10.259
nar	-10.2597
▁story	-10.26
langkah	-10.2606
cara	-10.2607
▁stress	-10.2608
bahasa	-10.261
▁Or	-10.261
▁Perlembagaan	-10.2616
KL	-10.2616
sm	-10.2622
die	-10.2622
bes	-10.2626
▁kemarin	-10.2627
ies	-10.2635
Na	-10.264
ice	-10.2646
▁bulu	-10.2654
▁berarti	-10.2657
rul	-10.2659
44	-10.266
aw	-10.2663
▁2008	-10.2669
▁kuah	-10.2674
▁Kecil	-10.2675
▁berasa	-10.2677
▁kemeja	-10.2684
▁kekuatan	-10.2687
▁biskut	-10.2689
▁rancangan	-10.2692
▁Malaysiakini	-10.2695
▁soalan	-10.2697
tim	-10.2701
CA	-10.271
SM	-10.2713
ary	-10.2718
▁tok	-10.272
▁dikenakan	-10.2724
▁Paling	-10.2725
▁novel	-10.2726
▁Selasa	-10.273
ati	-10.2743
▁Tetapi	-10.2747
▁Azmin	-10.2749
▁ringkasnya	-10.2749
cal	-10.2752
lebaran	-10.2754
▁Buah	-10.2754
▁mendakwa	-10.2755
Ku	-10.2757
▁PayTren	-10.276
cho	-10.2764
asli	-10.2767
▁Bakar	-10.277
▁adanya	-10.277
oleh	-10.2771
▁mewakili	-10.2771
▁stock	-10.2773
▁size	-10.2783
▁pemilu	-10.2784
▁menga	-10.2785
▁Sun	-10.2786
▁antaranya	-10.2788
gang	-10.2788
▁Kok	-10.279
dapur	-10.2794
▁smpai	-10.28
pic	-10.2801
>	-10.2802
▁Pernah	-10.2807
▁asyik	-10.2809
▁Nor	-10.2817
▁pindah	-10.2819
▁Berhad	-10.2825
nasi	-10.2827
ther	-10.2828
gra	-10.2832
▁ootd	-10.2832
▁ANDA	-10.2834
▁melindungi	-10.2837
▁cadar	-10.2845
ob	-10.2847
port	-10.2857
minimalis	-10.2862
▁perjanjian	-10.2865
HA	-10.2868
▁Nasib	-10.2869
low	-10.2871
▁nelayan	-10.2872
▁diatas	-10.2873
▁memulakan	-10.2873
▁lingkungan	-10.2878
▁tabung	-10.2882
▁Chi	-10.2883
▁70	-10.2885
▁doh	-10.2886
▁ambik	-10.2887
▁check	-10.2891
▁Tolong	-10.2896
bb	-10.2898
dari	-10.29
uri	-10.2901
▁bertambah	-10.2904
▁kecuali	-10.2906
▁cream	-10.2906
▁Kini	-10.2909
▁kelompok	-10.2911
▁phone	-10.2918
meng	-10.2918
est	-10.292
▁barangan	-10.292
▁Tim	-10.2923
▁Gua	-10.2923
lap	-10.2926
▁Sy	-10.2927
▁Kemudian	-10.2927
▁Unit	-10.2929
uan	-10.293
PA	-10.293
84	-10.2936
▁ketemu	-10.2937
mb	-10.2937
tera	-10.2941
▁KAMI	-10.2943
▁banjir	-10.2943
▁Bumiputera	-10.2943
▁nu	-10.2951
▁amalan	-10.2951
▁cik	-10.2955
▁simpan	-10.2955
▁Gu	-10.2959
▁line	-10.2962
▁Barisan	-10.2964
won	-10.297
▁Asal	-10.2973
met	-10.2979
pad	-10.2979
light	-10.298
boy	-10.2981
▁XL	-10.2983
▁customer	-10.2985
▁kampus	-10.2985
▁normal	-10.2985
▁bingung	-10.2989
▁Sakit	-10.2995
▁Sangat	-10.2999
Su	-10.2999
▁sekaligus	-10.3001
▁Putih	-10.3003
tun	-10.3005
foto	-10.3007
muka	-10.3008
61	-10.3011
tem	-10.3011
ST	-10.3016
back	-10.3017
▁>	-10.3021
▁membayar	-10.3026
▁Fi	-10.3028
▁Sehingga	-10.3029
▁malem	-10.3033
▁mood	-10.3034
▁lfl	-10.3036
por	-10.3038
▁diketahui	-10.3038
▁hujung	-10.3038
▁kemalangan	-10.304
▁nnti	-10.3043
▁persen	-10.3045
▁mengaku	-10.3046
▁Emas	-10.3054
isasi	-10.3058
modern	-10.3059
▁membangun	-10.3062
▁Promo	-10.3064
▁Bapak	-10.3065
bil	-10.3066
GI	-10.3066
rata	-10.3066
▁posisi	-10.3068
▁raja	-10.3069
ping	-10.3072
▁bareng	-10.3075
kucing	-10.3078
▁Bio	-10.3078
▁ws	-10.3079
gamis	-10.308
▁memasuki	-10.308
book	-10.3082
▁penumpang	-10.3082
BI	-10.3083
fan	-10.3084
▁meme	-10.3089
▁berminat	-10.31
▁tanggungjawab	-10.3108
▁kuning	-10.3113
▁Rindu	-10.3115
▁Cuma	-10.3115
▁Sains	-10.3117
▁sore	-10.3118
▁Im	-10.3119
93	-10.3121
▁Kasih	-10.3127
▁tuan	-10.3127
81	-10.3128
▁dihasilkan	-10.3129
ena	-10.3132
rok	-10.3137
pl	-10.3141
▁sumbangan	-10.3142
▁tekanan	-10.3142
▁enable	-10.3144
▁Israel	-10.315
▁Pertahanan	-10.3156
▁DENGAN	-10.3163
▁plak	-10.3169
▁mesyuarat	-10.3172
▁rapat	-10.3173
korea	-10.3174
▁perangai	-10.3175
▁35	-10.3175
▁90	-10.3175
▁sandal	-10.3176
▁normally	-10.3179
▁requires	-10.3181
▁study	-10.3192
▁takda	-10.3193
▁pakar	-10.3196
▁Siti	-10.3198
▁Jumlah	-10.3198
▁nasional	-10.32
▁Rm	-10.3205
▁pra	-10.3205
▁Kepala	-10.3209
▁kurta	-10.3214
hitam	-10.3214
▁who	-10.3216
cing	-10.3217
▁kantor	-10.3217
▁Team	-10.3219
▁separuh	-10.3219
▁cahaya	-10.322
mun	-10.3222
home	-10.3224
▁Membantu	-10.3227
▁DARI	-10.3227
▁kemiskinan	-10.3231
52	-10.3232
tai	-10.3233
150	-10.3236
▁ASEAN	-10.3236
▁keuntungan	-10.3237
wal	-10.324
▁aras	-10.3241
▁pengajian	-10.3243
serum	-10.3248
▁peralatan	-10.3251
▁lemah	-10.3258
▁Perumahan	-10.3261
▁Putra	-10.3269
▁disabled	-10.327
▁IDR	-10.3273
ez	-10.3278
video	-10.3282
▁diperlukan	-10.3285
PI	-10.3289
▁biru	-10.3293
▁hai	-10.3293
▁sederhana	-10.33
▁pembayaran	-10.3303
lis	-10.3304
▁merujuk	-10.3305
case	-10.3309
▁mbak	-10.331
ika	-10.3313
▁dewasa	-10.3319
▁iklan	-10.3322
▁mulu	-10.3323
▁MA	-10.3323
▁Sam	-10.3324
cewek	-10.3327
▁meneruskan	-10.3327
kuat	-10.3329
aan	-10.3333
▁vs	-10.3343
▁punca	-10.3344
▁bersetuju	-10.3347
dung	-10.3347
hp	-10.335
batu	-10.3352
▁500	-10.3354
▁Secara	-10.3355
▁matahari	-10.3358
bon	-10.3359
▁versi	-10.3361
85	-10.3364
▁PO	-10.3365
bek	-10.3371
melaka	-10.3378
val	-10.3381
ted	-10.3381
▁kimia	-10.3382
▁menyampaikan	-10.3383
▁lho	-10.3384
▁May	-10.3387
nes	-10.3394
▁coffee	-10.3394
▁Selalu	-10.3397
hy	-10.3398
gara	-10.3402
▁perkahwinan	-10.3406
▁perabot	-10.3411
hid	-10.3412
▁kempen	-10.3417
▁[[	-10.3419
ate	-10.342
MP	-10.3422
tani	-10.3426
96	-10.3426
team	-10.3426
▁komunis	-10.3428
dakwah	-10.3428
▁memakai	-10.3428
▁final	-10.3431
▁hamil	-10.3432
nis	-10.3436
▁ala	-10.3436
▁KA	-10.3438
ub	-10.3447
▁solusi	-10.3455
sat	-10.3456
▁stesen	-10.3456
▁jarak	-10.3456
PP	-10.346
▁menggalakkan	-10.3462
▁Tadi	-10.3463
indah	-10.3463
▁pendaftaran	-10.3463
▁kategori	-10.3466
▁Sekali	-10.3471
▁popular	-10.3472
sum	-10.3477
NI	-10.3483
▁pakej	-10.3486
▁auto	-10.3486
▁Manusia	-10.3486
OK	-10.3487
51	-10.349
yy	-10.3491
▁Pakai	-10.3494
▁Mata	-10.3496
▁Prof	-10.3497
▁untung	-10.3497
▁But	-10.3501
mad	-10.3501
jun	-10.3509
jerawat	-10.3512
89	-10.3513
▁Open	-10.3513
▁sikap	-10.3514
▁Guan	-10.3515
▁sejenis	-10.3519
▁wisata	-10.352
ET	-10.3523
▁profesional	-10.3523
GB	-10.3524
▁Tok	-10.3524
zz	-10.3532
bor	-10.3533
tum	-10.3533
amin	-10.3537
▁madu	-10.3539
cy	-10.3541
▁Best	-10.3543
▁Rasulullah	-10.3546
▁COD	-10.3549
57	-10.355
▁Bro	-10.3553
▁ulama	-10.3556
lover	-10.3557
▁Hubungi	-10.3558
▁abad	-10.3563
▁bintang	-10.3563
▁Makanan	-10.3564
▁pertemuan	-10.3567
▁tulang	-10.3567
allah	-10.3573
▁Lalu	-10.3573
▁sedangkan	-10.3574
▁sepatutnya	-10.3574
Te	-10.3576
▁didapati	-10.3582
moden	-10.3582
800	-10.36
IR	-10.3602
▁perubatan	-10.3603
MAN	-10.3605
▁LAGI	-10.3605
▁Az	-10.3606
bagi	-10.3607
▁Bunga	-10.3607
fit	-10.3608
uni	-10.3608
▁kasus	-10.3623
▁prestasi	-10.363
▁risiko	-10.3631
▁Nga	-10.3633
cam	-10.3647
▁kelantan	-10.3647
▁garam	-10.3648
▁LA	-10.366
▁Pengen	-10.3661
tic	-10.3661
▁senjata	-10.3664
▁Istana	-10.3666
XL	-10.367
74	-10.367
▁saluran	-10.3672
▁rata	-10.3672
▁purata	-10.3674
kel	-10.3675
▁berkesan	-10.3682
▁Malah	-10.3685
▁jap	-10.3686
beli	-10.3686
teman	-10.3687
▁Cari	-10.3687
▁TUAN	-10.3687
▁John	-10.3688
TV	-10.3689
▁1440	-10.3689
$	-10.3703
design	-10.3708
▁garis	-10.3713
ms	-10.3714
53	-10.3714
ES	-10.3714
KAR	-10.3717
▁plan	-10.3718
▁tarikh	-10.3731
|	-10.3732
▁day	-10.3733
IA	-10.3734
▁Pemuda	-10.3736
▁All	-10.3738
▁abg	-10.3739
▁kemungkinan	-10.3745
▁muslimah	-10.3745
od	-10.3748
▁sanggup	-10.3749
▁lulus	-10.375
kir	-10.3753
mus	-10.3753
kala	-10.3754
AD	-10.3756
ira	-10.3756
▁gus	-10.3757
Si	-10.376
▁tag	-10.3761
82	-10.3762
▁Naik	-10.3769
▁Park	-10.3769
▁pertandingan	-10.3772
syari	-10.3776
▁Kawasan	-10.3779
wu	-10.379
▁sia	-10.3791
▁menjalani	-10.3794
▁part	-10.3797
▁berterusan	-10.3798
sih	-10.38
▁gangguan	-10.3803
▁br	-10.3804
▁kabar	-10.3811
▁bancian	-10.3811
▁over	-10.3811
nga	-10.3811
diri	-10.3812
▁hi	-10.3812
▁Fe	-10.3814
▁kawalan	-10.3818
▁kebenaran	-10.3819
▁APA	-10.3823
kong	-10.3824
▁ready	-10.3826
▁kualiti	-10.3832
▁dlu	-10.3835
house	-10.3835
▁Airport	-10.384
▁bersyukur	-10.3844
news	-10.3847
▁menyaksikan	-10.3847
hias	-10.3851
▁berhampiran	-10.3853
▁juara	-10.3854
▁bukannya	-10.3859
kor	-10.3864
▁Ram	-10.3868
Ini	-10.3874
▁rupanya	-10.3877
▁perawatan	-10.3882
▁terkait	-10.3883
▁dokter	-10.3884
▁kerugian	-10.3886
▁taraf	-10.3887
▁Sesuai	-10.3889
▁explore	-10.389
rel	-10.389
sek	-10.3891
▁power	-10.3893
▁semata	-10.3893
▁elektronik	-10.3898
▁RI	-10.3899
▁penyanyi	-10.3899
IL	-10.3902
▁sesiapa	-10.3906
▁demokrasi	-10.3907
▁PROMO	-10.3911
▁FB	-10.3911
▁kekurangan	-10.3914
CC	-10.3914
▁mencegah	-10.3916
sss	-10.3916
▁Merah	-10.3919
▁gratis	-10.392
▁Pihak	-10.392
▁Tahniah	-10.3928
▁amik	-10.3928
▁Pokok	-10.3928
▁tradisi	-10.393
▁blm	-10.394
▁kemana	-10.3945
▁Pre	-10.3947
▁Bahru	-10.3951
▁2001	-10.3952
▁mendengar	-10.3954
TAR	-10.3958
sara	-10.396
▁0857	-10.396
▁anaknya	-10.3963
pada	-10.3964
win	-10.3967
▁Saudi	-10.3975
▁update	-10.3975
86	-10.3979
▁demam	-10.398
▁Mcm	-10.3981
▁tea	-10.3984
▁sifat	-10.3984
▁kad	-10.3987
▁bumbu	-10.3988
▁ustadz	-10.3988
▁ditambah	-10.3989
wat	-10.3991
▁Agong	-10.3992
▁Medan	-10.3993
pcs	-10.3993
goreng	-10.3995
▁Pertubuhan	-10.4003
▁jodoh	-10.4004
TAN	-10.4005
▁perkataan	-10.4007
Mo	-10.4012
lok	-10.4015
▁please	-10.4015
▁group	-10.4017
▁PE	-10.402
aran	-10.4028
▁pn	-10.4029
▁iphone	-10.4029
▁hantar	-10.403
▁45	-10.4031
BU	-10.4031
▁Bagaimana	-10.4032
▁medan	-10.4033
lor	-10.4034
▁memegang	-10.4037
▁Har	-10.4037
▁menentukan	-10.4038
mati	-10.4039
▁Cantik	-10.4043
atur	-10.4049
room	-10.4054
anjing	-10.4056
▁Selama	-10.4063
▁comel	-10.4064
jur	-10.4064
yer	-10.407
buat	-10.4072
UK	-10.4079
▁gerakan	-10.4081
▁pelan	-10.4082
hidup	-10.4082
amat	-10.4084
fat	-10.4091
▁MRT	-10.4095
dek	-10.4103
▁tepung	-10.4103
jt	-10.4103
▁menjawab	-10.4105
▁melancarkan	-10.4105
▁mental	-10.411
▁bunda	-10.411
▁ho	-10.4114
▁gunung	-10.4116
tasi	-10.4116
▁Menurutnya	-10.4119
▁peraturan	-10.412
sang	-10.412
▁Ak	-10.4123
▁kenaikan	-10.4124
▁jahat	-10.4125
▁Yo	-10.413
▁Un	-10.4132
▁bali	-10.4133
▁sila	-10.4133
Ter	-10.4135
▁memutuskan	-10.4136
KE	-10.4141
▁$	-10.4144
▁after	-10.4145
▁Sal	-10.4146
nting	-10.415
WA	-10.4154
▁Benda	-10.4155
▁Muka	-10.4158
dr	-10.416
sem	-10.416
mobil	-10.4162
Be	-10.4172
rd	-10.4173
wah	-10.4174
▁Cha	-10.4174
▁sebesar	-10.4175
bs	-10.4181
▁setia	-10.4184
▁Akhirnya	-10.4184
▁non	-10.4187
▁Mulai	-10.4189
▁perbelanjaan	-10.4197
700	-10.4198
▁beg	-10.4201
▁Pemerintah	-10.4206
▁pikir	-10.4206
▁Kalimantan	-10.4206
ses	-10.4206
▁hendak	-10.4207
teh	-10.4207
▁alih	-10.4209
▁terang	-10.421
alat	-10.4213
nik	-10.4218
▁perlindungan	-10.4221
▁nyanyi	-10.4228
▁kafir	-10.4231
hara	-10.4233
▁Real	-10.4234
▁reply	-10.4236
09	-10.4237
manis	-10.4239
▁takkan	-10.4244
▁aircond	-10.4245
▁blouse	-10.425
▁gas	-10.4251
CI	-10.4252
ue	-10.4252
▁pinggang	-10.4257
bakar	-10.4259
ayu	-10.4261
▁timbul	-10.4262
▁ditutup	-10.4264
▁Hotel	-10.4264
▁kemas	-10.4265
max	-10.427
cik	-10.4275
▁pengundi	-10.4278
UL	-10.4279
▁Korang	-10.4279
▁memudahkan	-10.428
nilai	-10.4282
▁gunakan	-10.4283
▁Wah	-10.4285
stra	-10.4292
▁reti	-10.4292
]]	-10.4294
▁senyum	-10.4299
sap	-10.4302
sam	-10.4304
▁Pekan	-10.4305
hor	-10.4308
▁kualalumpur	-10.431
▁Her	-10.4313
▁rangkaian	-10.4313
77	-10.4314
▁PEN	-10.4314
▁transaksi	-10.4319
▁tegas	-10.4322
87	-10.4323
Ro	-10.433
▁mending	-10.4334
▁toner	-10.4339
▁You	-10.4342
▁DATO	-10.4342
aya	-10.4344
▁kelihatan	-10.4348
ramadhan	-10.435
▁liga	-10.4355
▁office	-10.4356
▁level	-10.4356
▁putus	-10.4359
leh	-10.4359
▁Tiga	-10.4361
dai	-10.4362
▁Harap	-10.4367
▁penulis	-10.4368
▁Ingin	-10.4369
▁seri	-10.4372
:00	-10.4375
tap	-10.4377
Le	-10.4378
▁Qu	-10.4379
motif	-10.4381
▁Hmm	-10.4382
▁Kabinet	-10.4384
cur	-10.4385
▁curi	-10.4387
satu	-10.4391
badan	-10.4393
▁transfer	-10.4401
▁Pemesanan	-10.4405
selangor	-10.4405
▁meletakkan	-10.4412
▁memohon	-10.4419
▁Kadang	-10.4428
▁keterangan	-10.4428
▁Main	-10.4429
▁Silahkan	-10.4434
▁akak	-10.4434
▁pekan	-10.4434
▁merangkumi	-10.4439
▁web	-10.4442
▁Cho	-10.4443
▁pengarah	-10.4449
pit	-10.445
▁belah	-10.445
TU	-10.4451
melayu	-10.4456
kahwin	-10.4462
susu	-10.4463
▁nikmat	-10.447
92	-10.4472
sor	-10.4477
fc	-10.448
▁efek	-10.4483
custom	-10.4485
▁mobile	-10.4488
ov	-10.4493
▁Sahabat	-10.4494
dh	-10.4495
RA	-10.45
▁Sebuah	-10.4505
lik	-10.4506
ila	-10.4508
RO	-10.4516
ura	-10.4516
▁dri	-10.4516
▁usah	-10.4517
▁percuma	-10.4517
▁Panas	-10.4519
▁mengubah	-10.452
▁ajar	-10.4521
▁car	-10.4523
▁burung	-10.4523
urut	-10.4526
pem	-10.4526
▁Sen	-10.4528
▁Kereta	-10.4531
luk	-10.4532
▁dokumen	-10.4533
▁memahami	-10.4533
cak	-10.454
adi	-10.4541
▁pengusaha	-10.4542
hir	-10.4543
▁Rom	-10.4545
ever	-10.4549
▁menggantikan	-10.455
▁MAU	-10.455
▁sebut	-10.4553
▁kari	-10.4558
▁situasi	-10.4558
▁con	-10.4558
bis	-10.4561
▁musik	-10.4562
ous	-10.4563
lagu	-10.4564
▁mengawal	-10.4564
▁Tengku	-10.4569
kis	-10.4573
▁aliran	-10.4576
▁32	-10.4591
▁Jual	-10.4591
▁terbukti	-10.4593
▁Tidur	-10.4594
▁get	-10.4597
▁Wow	-10.4597
ard	-10.4599
▁mat	-10.46
merah	-10.4604
~	-10.4607
▁only	-10.4607
▁Restoran	-10.4608
▁wedding	-10.461
▁sasaran	-10.4613
▁usahawan	-10.4615
ngga	-10.4617
ASI	-10.4617
▁likeforlikes	-10.4618
▁pengangkutan	-10.4619
▁rosak	-10.462
▁berfungsi	-10.462
72	-10.4624
nie	-10.4625
▁Hakim	-10.4625
▁Felda	-10.4626
▁xde	-10.4633
▁Ser	-10.4634
▁yakni	-10.4638
▁tebal	-10.4639
tol	-10.4641
▁bandung	-10.4643
▁pelajaran	-10.465
olah	-10.465
▁sengaja	-10.4652
▁Afrika	-10.4659
▁jaringan	-10.4659
▁bukanlah	-10.4662
makanan	-10.4663
bri	-10.4665
Allah	-10.4665
sp	-10.4669
▁next	-10.467
▁Lelaki	-10.4671
banyak	-10.4672
PER	-10.4674
gn	-10.4678
lagi	-10.4679
▁kosmetik	-10.468
bun	-10.4684
▁istilah	-10.4686
kecil	-10.4691
▁melaporkan	-10.4692
▁they	-10.4694
▁era	-10.4697
▁Stadium	-10.4702
CH	-10.4703
AK	-10.4706
▁even	-10.4711
▁kursus	-10.4712
▁setengah	-10.4714
▁MU	-10.4714
▁ngomong	-10.4714
tir	-10.4717
▁PRU	-10.4724
▁pesanan	-10.473
dap	-10.4731
▁abah	-10.4731
▁down	-10.4735
puk	-10.474
▁dikenal	-10.4742
▁menimbulkan	-10.4743
hab	-10.4752
▁lawak	-10.4752
tuk	-10.4753
▁nasihat	-10.4756
▁sempurna	-10.4756
▁FA	-10.4757
▁darurat	-10.4758
▁Au	-10.4765
▁mela	-10.4766
▁ucapan	-10.4767
ullah	-10.4768
gy	-10.4772
▁Puasa	-10.4775
▁Hitam	-10.4777
▁Sepak	-10.4777
laku	-10.4778
▁perdana	-10.4782
▁mantan	-10.4783
▁Juni	-10.4789
▁also	-10.4791
Bu	-10.4792
▁kambing	-10.4797
▁senarai	-10.48
▁Filipina	-10.4801
▁Abang	-10.4802
▁Warga	-10.481
▁membenarkan	-10.4812
▁pelik	-10.4814
▁mengekalkan	-10.4817
shahalam	-10.4819
▁mene	-10.4826
grosir	-10.4826
▁rajin	-10.4831
bagus	-10.4832
▁black	-10.4843
64	-10.4843
kak	-10.4844
▁meraih	-10.4846
mau	-10.4848
▁berdiri	-10.485
▁tetep	-10.4857
▁pengetahuan	-10.4862
ida	-10.4864
▁Atas	-10.4864
▁Langsung	-10.4864
▁pelaku	-10.4865
▁laaa	-10.4866
▁ais	-10.4868
▁their	-10.487
pati	-10.4873
▁Institut	-10.4875
▁menegaskan	-10.4879
tua	-10.4879
▁Syariah	-10.488
▁Kepada	-10.4883
Al	-10.4885
▁Maret	-10.4897
▁bibir	-10.49
▁were	-10.4905
hai	-10.4906
▁kerap	-10.4907
▁tekan	-10.491
fer	-10.491
pri	-10.4914
barang	-10.4916
til	-10.4917
▁gerak	-10.4919
tiga	-10.492
ore	-10.4921
▁koleksi	-10.4922
pah	-10.4922
▁011	-10.4922
our	-10.4923
▁parah	-10.4924
▁lesen	-10.4925
ming	-10.4926
83	-10.4926
▁tema	-10.4929
kayu	-10.4934
MB	-10.4945
▁peribadi	-10.4946
yi	-10.4947
91	-10.495
▁nyari	-10.495
▁its	-10.4953
sai	-10.4959
▁sambutan	-10.4962
▁sukar	-10.4973
▁Er	-10.4976
rek	-10.4976
IC	-10.4986
So	-10.499
▁tunjuk	-10.4991
▁pendapat	-10.4993
▁Cu	-10.4994
▁organisasi	-10.4996
▁her	-10.4997
▁cabaran	-10.4999
▁0821	-10.5002
▁Cek	-10.5006
▁basuh	-10.5008
▁tradisional	-10.5012
▁merawat	-10.5012
▁Rantau	-10.5013
▁Senin	-10.5014
▁JANGAN	-10.5015
▁bekerjasama	-10.5019
ns	-10.502
▁izin	-10.5021
▁tgok	-10.5023
▁off	-10.5023
▁high	-10.5024
ON	-10.5025
ED	-10.5025
▁Link	-10.503
▁Bangsa	-10.5036
▁subsidi	-10.5039
▁Kuantan	-10.5041
▁Ban	-10.5041
▁tpi	-10.5042
▁Teluk	-10.5042
▁Rusia	-10.5043
duh	-10.5045
▁titik	-10.5045
gal	-10.5045
▁ukm	-10.5045
400	-10.5048
pek	-10.5049
promo	-10.5049
wang	-10.5049
▁mirip	-10.5049
hak	-10.505
boleh	-10.5051
▁Susu	-10.5052
jal	-10.5052
makeup	-10.5054
▁membunuh	-10.5057
▁menghadiri	-10.5058
▁reformasi	-10.5064
UNG	-10.5065
▁Hassan	-10.5065
▁World	-10.5066
▁penang	-10.5066
▁ongkir	-10.5067
UR	-10.507
▁sadar	-10.5076
▁melahirkan	-10.5079
putra	-10.5081
▁say	-10.5082
ilah	-10.5083
mbo	-10.5084
kurangnya	-10.5085
▁kg	-10.5089
▁mengenal	-10.5091
▁quotes	-10.5095
▁memperoleh	-10.5095
56	-10.5098
▁DR	-10.5099
pos	-10.5103
▁lepastu	-10.5104
▁berwarna	-10.5104
mara	-10.5105
▁setuju	-10.5111
▁Sis	-10.5119
satunya	-10.5121
sim	-10.5122
premium	-10.5125
▁DALAM	-10.5126
▁mie	-10.5126
▁dingin	-10.5128
ful	-10.5132
▁seluar	-10.5134
▁stop	-10.5137
Bo	-10.514
▁penyelesaian	-10.5141
▁GST	-10.5145
▁Mon	-10.5147
zan	-10.5147
▁akses	-10.5148
▁Pemilu	-10.5149
▁jaman	-10.515
▁live	-10.5152
▁sekalian	-10.5153
▁Ternyata	-10.5161
▁Pastu	-10.5161
▁Digital	-10.5164
▁Q	-10.5166
gam	-10.5168
▁segini	-10.517
▁?!	-10.5172
▁Bisnis	-10.5172
▁Juga	-10.5173
▁Gudang	-10.5174
▁adil	-10.5184
▁dewan	-10.5195
▁Proses	-10.5195
▁Amanah	-10.5196
cil	-10.5198
▁idea	-10.5201
qui	-10.5202
▁jalur	-10.5205
▁Sumatera	-10.5205
▁lebar	-10.521
mur	-10.5212
▁maklum	-10.5212
ward	-10.5217
▁tr	-10.5217
lebih	-10.5218
▁kemampuan	-10.5218
bekas	-10.5222
▁sek	-10.5222
▁Pengangkutan	-10.5223
HO	-10.5223
▁Can	-10.5227
▁On	-10.5229
sus	-10.523
▁puisi	-10.5232
▁berkhidmat	-10.5235
▁Beras	-10.5236
▁onlineshop	-10.5239
▁Surabaya	-10.5247
▁mar	-10.5251
▁total	-10.5254
▁kredit	-10.526
GA	-10.526
▁haji	-10.5261
dut	-10.5261
ciri	-10.5262
▁bertanding	-10.5264
▁Fu	-10.5264
▁item	-10.5265
sik	-10.5265
▁Lah	-10.5265
▁2007	-10.5267
▁Kong	-10.5269
▁It	-10.527
▁furniture	-10.5271
oc	-10.5271
▁Ade	-10.5278
FA	-10.5279
▁Abd	-10.5282
▁kepercayaan	-10.5284
end	-10.5285
all	-10.5286
▁Punya	-10.529
▁photo	-10.5291
▁Semenanjung	-10.5294
▁mengu	-10.5299
▁talian	-10.5301
▁baginda	-10.5301
▁Ipoh	-10.5305
SB	-10.5305
▁rokok	-10.5306
aga	-10.5307
balik	-10.5308
▁langsir	-10.5309
▁Kanak	-10.5313
cita	-10.5316
▁mendukung	-10.5316
ooo	-10.5317
▁melawan	-10.5318
gue	-10.5325
had	-10.5326
▁Roti	-10.5328
ami	-10.5331
▁Papua	-10.5333
▁instagood	-10.5335
▁Nu	-10.5336
guna	-10.5337
MAT	-10.534
OS	-10.5343
▁itulah	-10.5346
▁Sosial	-10.5349
▁Vietnam	-10.5354
pis	-10.5356
▁BAGI	-10.5358
warna	-10.5365
▁memperkenalkan	-10.537
▁luka	-10.5372
▁mele	-10.5375
▁negatif	-10.5377
▁diskon	-10.5378
off	-10.5379
mask	-10.5382
▁sarapan	-10.5382
use	-10.5384
bisa	-10.5386
▁berbagi	-10.539
nikah	-10.5391
▁150	-10.5395
▁kite	-10.5396
▁songkok	-10.5396
▁melaka	-10.5397
▁klu	-10.5398
▁po	-10.5409
▁bukit	-10.5411
▁kado	-10.5412
▁Mer	-10.5412
produk	-10.5412
▁Tunggu	-10.5412
gur	-10.5417
▁Astro	-10.5419
▁paip	-10.5423
▁Keselamatan	-10.5423
sti	-10.5424
Bi	-10.5425
tawa	-10.5427
▁berasaskan	-10.5428
stan	-10.543
▁rekod	-10.5431
▁0822	-10.5437
deng	-10.5438
▁jela	-10.5439
▁Alor	-10.5441
▁produksi	-10.5444
ence	-10.5446
▁Komunikasi	-10.5449
OL	-10.5452
62	-10.5456
▁yaaa	-10.5458
▁ngantuk	-10.5459
tea	-10.546
▁menyebut	-10.5461
▁kamera	-10.5467
▁kpd	-10.547
▁mikir	-10.5471
mit	-10.5473
▁Budak	-10.5474
▁halaman	-10.5476
▁Online	-10.5483
park	-10.5486
▁hot	-10.5488
▁gadis	-10.549
▁takleh	-10.5492
▁Samsung	-10.5496
▁berjuang	-10.5499
▁bahaya	-10.5504
▁kerabat	-10.5504
▁bertanya	-10.5505
▁Bahkan	-10.5508
▁Eksekutif	-10.5508
rm	-10.5508
▁sempadan	-10.551
▁kesian	-10.5511
▁Ahad	-10.5512
▁sains	-10.5514
▁cerah	-10.5515
▁Semalam	-10.5519
akhir	-10.5522
pus	-10.5527
▁benci	-10.5527
▁atu	-10.553
▁SMK	-10.5531
▁potensi	-10.5532
▁Imam	-10.5534
▁pemeriksaan	-10.5538
kut	-10.554
▁Sbb	-10.5541
▁Berdasarkan	-10.5543
▁pelancongan	-10.5543
▁menurunkan	-10.5546
tahu	-10.5546
▁Berminat	-10.5547
▁Mall	-10.5551
Li	-10.5554
▁ciri	-10.5556
▁perbincangan	-10.5557
ama	-10.5558
▁mempertahankan	-10.5561
▁Ger	-10.5561
▁Indah	-10.5562
KON	-10.5562
sun	-10.5562
tha	-10.5564
▁dakwaan	-10.5569
▁hu	-10.5569
ray	-10.5569
▁kencing	-10.557
raf	-10.557
mor	-10.5572
▁tokoh	-10.5575
syariah	-10.5577
▁pemilihan	-10.5583
ampang	-10.5585
sport	-10.5589
▁lol	-10.559
▁bosan	-10.5591
roh	-10.5595
▁perbuatan	-10.5598
▁sedekah	-10.5601
TP	-10.5602
kurung	-10.5603
▁back	-10.5605
▁beauty	-10.5605
ight	-10.5605
aja	-10.5606
▁Manfaat	-10.5607
hen	-10.561
▁tampil	-10.561
▁week	-10.5611
▁One	-10.5623
▁ngn	-10.5623
▁top	-10.5634
▁krim	-10.5637
▁gara	-10.5644
bok	-10.5644
hun	-10.5646
▁lemang	-10.565
rong	-10.565
LAN	-10.5656
Po	-10.5658
BO	-10.5661
▁komputer	-10.5666
▁Black	-10.5667
▁Ad	-10.5669
MS	-10.567
▁Sang	-10.5671
▁Undangan	-10.5672
▁War	-10.5673
▁real	-10.5674
▁Time	-10.5676
cah	-10.5681
dir	-10.5683
▁PERDANA	-10.5689
Ja	-10.569
▁bersedia	-10.569
▁pemuda	-10.569
▁tarik	-10.5692
▁jak	-10.5698
AU	-10.57
▁Kecamatan	-10.5709
▁restoran	-10.5709
▁misi	-10.5715
FI	-10.5717
nang	-10.5719
▁bos	-10.5722
aaaaa	-10.5723
mbung	-10.5724
▁shopping	-10.5729
ble	-10.5729
▁Hahahahaha	-10.573
5%	-10.5731
▁Terimakasih	-10.574
▁Sekitar	-10.574
▁Cuba	-10.574
▁Pengiriman	-10.5741
▁pandang	-10.5742
▁spesies	-10.5742
dio	-10.5742
AI	-10.5753
utan	-10.5757
▁agenda	-10.5759
▁rugi	-10.576
cover	-10.5764
▁Bebas	-10.5765
▁bajumelayu	-10.5768
▁PDRM	-10.5769
▁pasir	-10.5771
▁Dar	-10.5778
bab	-10.5779
▁slow	-10.5783
▁susulan	-10.5783
▁sudut	-10.5785
atau	-10.5785
▁service	-10.5786
jumbo	-10.5787
▁moden	-10.5789
aksi	-10.5791
▁Udara	-10.5792
cus	-10.5793
▁Ken	-10.5794
▁year	-10.5795
plus	-10.5795
git	-10.5797
▁Design	-10.5797
couple	-10.5799
road	-10.5807
▁boss	-10.5808
▁KKM	-10.5808
▁jaminan	-10.5809
▁termasuklah	-10.581
▁terdekat	-10.5816
pok	-10.5818
▁radio	-10.5818
▁pohon	-10.5825
asa	-10.5826
▁bertahan	-10.5833
▁menyumbang	-10.5833
pik	-10.5834
▁gelak	-10.5835
▁about	-10.5836
bir	-10.5837
▁BAJU	-10.5843
▁hg	-10.5845
▁Tangan	-10.5846
▁wangi	-10.5852
▁anugerah	-10.5856
▁sarung	-10.5856
▁walau	-10.586
reng	-10.5861
mari	-10.5867
▁teringat	-10.5868
▁resmi	-10.5871
▁menghilangkan	-10.5878
▁Model	-10.588
gon	-10.5881
▁im	-10.5883
▁kunci	-10.5884
▁strategi	-10.5884
juta	-10.5884
▁seru	-10.5887
▁mengapa	-10.5888
work	-10.589
▁pegang	-10.5891
sung	-10.5892
app	-10.5903
▁Ab	-10.5904
▁nanya	-10.5904
▁suspek	-10.5908
▁Gen	-10.591
MIN	-10.5911
tangerang	-10.5915
watch	-10.5918
padang	-10.5922
ure	-10.5922
Men	-10.5926
▁Port	-10.5926
▁Bumi	-10.5933
ship	-10.5933
▁2000	-10.5934
▁menyambut	-10.5936
▁Biasa	-10.5937
sunnah	-10.5939
▁KPU	-10.594
▁harian	-10.5942
▁Menu	-10.5942
▁terpilih	-10.5946
nam	-10.5947
▁pemenang	-10.5949
▁Azizah	-10.5949
▁tetiba	-10.5955
▁BISA	-10.5955
▁selera	-10.5956
ribu	-10.5957
▁berikan	-10.5962
▁Burung	-10.5964
▁pesakit	-10.5965
curi	-10.5967
rindu	-10.597
star	-10.5971
▁ditulis	-10.5973
kini	-10.5973
▁nyata	-10.5977
▁istri	-10.5979
▁nder	-10.5983
TM	-10.5986
▁PRK	-10.5986
▁London	-10.5988
▁kejap	-10.599
▁300	-10.5994
▁pimpinan	-10.5997
abu	-10.5998
▁Rambut	-10.6
▁sape	-10.6001
▁merasakan	-10.6003
bangun	-10.6006
▁akhbar	-10.6007
una	-10.6009
▁memainkan	-10.6009
▁sambung	-10.6009
▁sulit	-10.6009
▁mcd	-10.6013
henti	-10.6013
▁Cukup	-10.6016
her	-10.6018
▁selangor	-10.6019
▁Hasan	-10.6027
▁kakitangan	-10.6027
hebat	-10.6029
▁kehadiran	-10.6031
kadang	-10.6035
▁testimoni	-10.6035
johor	-10.6036
ec	-10.6036
▁knp	-10.6037
far	-10.6041
▁maksud	-10.6044
▁mba	-10.6045
▁Lain	-10.6046
▁beban	-10.6047
▁Operasi	-10.6052
▁belom	-10.6057
sukan	-10.6063
▁cover	-10.6066
tul	-10.6068
▁TNI	-10.6071
▁peminat	-10.6072
▁Pengurusan	-10.6073
▁bs	-10.6074
▁sesama	-10.6074
▁Kedai	-10.6081
▁makcik	-10.6082
▁material	-10.6082
▁seks	-10.6084
udin	-10.6088
▁Bantuan	-10.6089
▁ditanya	-10.609
▁peduli	-10.6091
▁Sedap	-10.6094
▁pejuang	-10.6096
▁Masalah	-10.6098
likes	-10.6101
▁Harian	-10.6101
▁Jumat	-10.6102
EN	-10.6103
▁platform	-10.6103
coklat	-10.6103
▁gampang	-10.6107
▁pertahanan	-10.6112
club	-10.6113
nk	-10.6115
▁bkn	-10.6115
cre	-10.6116
▁Sila	-10.6118
palembang	-10.6118
post	-10.6119
ade	-10.6119
▁Kg	-10.612
▁sorry	-10.6123
▁FELDA	-10.6124
▁dinamakan	-10.6124
▁017	-10.6128
main	-10.613
▁Daripada	-10.6132
▁Juli	-10.6132
kebaya	-10.6132
ua	-10.6134
▁payudara	-10.6134
▁sesetengah	-10.6135
▁save	-10.6135
▁kemahiran	-10.6137
▁lawatan	-10.6141
oil	-10.6145
▁Azerbaijan	-10.6146
thing	-10.6148
ture	-10.6149
▁Like	-10.6152
▁suasana	-10.6152
▁sewaktu	-10.6153
▁Sepang	-10.6155
▁sungguh	-10.6158
hah	-10.6159
▁mengucapkan	-10.6162
▁membuktikan	-10.6163
▁tempahan	-10.6164
▁Centre	-10.6171
▁jajanan	-10.6172
▁Laporan	-10.6175
dha	-10.6177
travel	-10.6178
▁takpe	-10.6179
▁tahanan	-10.6181
▁019	-10.6183
NG	-10.6186
Pen	-10.6199
▁38	-10.6204
▁wajar	-10.6207
SH	-10.6212
▁jaket	-10.6213
▁pengiriman	-10.6213
Da	-10.6213
▁telefon	-10.6215
▁Isi	-10.6217
▁people	-10.6218
tom	-10.6219
atif	-10.6228
baca	-10.6229
▁beb	-10.6229
▁sebagainya	-10.6231
▁Bal	-10.6232
▁Minum	-10.6235
▁36	-10.6235
▁Mesyuarat	-10.6238
▁pacar	-10.6248
Co	-10.6249
▁BA	-10.6252
▁hiburan	-10.6252
▁potongan	-10.6253
bol	-10.6255
▁under	-10.6256
▁johor	-10.6256
▁nenek	-10.6257
▁Brunei	-10.6257
▁kasar	-10.6257
▁University	-10.6258
ola	-10.6261
▁lauk	-10.6263
▁Baby	-10.6267
▁maut	-10.627
▁bazar	-10.627
▁pendekatan	-10.6278
kampung	-10.6279
belah	-10.6285
▁tumpuan	-10.6287
▁kesemua	-10.6288
▁Semangat	-10.6289
▁Belia	-10.6289
SER	-10.6291
repost	-10.6292
▁Perkara	-10.6293
▁sunnah	-10.6294
▁Red	-10.6294
▁hahahahaha	-10.6303
SP	-10.6305
▁Cik	-10.6306
ct	-10.6306
▁dikasih	-10.6309
▁suhu	-10.6313
▁sekadar	-10.6318
▁diumumkan	-10.6319
▁Berikut	-10.6319
▁perasan	-10.6319
▁Meningkatkan	-10.632
▁menubuhkan	-10.632
obat	-10.6321
▁Ros	-10.6324
▁Sumpah	-10.6328
band	-10.6328
rakyat	-10.6334
▁Dekat	-10.6335
ui	-10.6335
▁play	-10.634
▁which	-10.634
▁Paket	-10.6341
▁Adam	-10.6342
▁Daftar	-10.6343
▁keturunan	-10.6343
▁keren	-10.6343
▁Food	-10.6352
▁mera	-10.6352
▁Isnin	-10.6354
LO	-10.6355
▁Sel	-10.6357
▁penampilan	-10.6362
jahit	-10.6363
▁Last	-10.6364
act	-10.6365
uran	-10.6366
▁cemilan	-10.6367
▁berpuasa	-10.6367
▁tebu	-10.6368
▁membangunkan	-10.6369
ngi	-10.6371
jat	-10.6376
▁kecewa	-10.6376
▁menengah	-10.6376
Raya	-10.6378
▁kelulusan	-10.638
▁Group	-10.6383
▁pembiayaan	-10.6383
▁mengurangi	-10.6387
▁prinsip	-10.6388
▁belia	-10.639
▁bangga	-10.639
▁Com	-10.6391
▁kenyang	-10.6392
▁birthday	-10.6393
▁Inilah	-10.6394
alis	-10.6394
hilang	-10.6395
oto	-10.6395
deg	-10.6397
▁menya	-10.64
rasi	-10.64
▁Zaman	-10.6401
▁Org	-10.6406
body	-10.6406
▁Bharu	-10.6407
▁Malaya	-10.6408
▁kediaman	-10.6409
▁Gambar	-10.6414
hana	-10.6415
▁hangat	-10.6416
▁hahahah	-10.6417
sangat	-10.6417
tr	-10.6417
sab	-10.6422
▁Tenaga	-10.6427
▁partai	-10.6429
qi	-10.6431
ayah	-10.6432
mula	-10.6433
▁Tetap	-10.6436
▁Angkatan	-10.6439
▁Liverpool	-10.6442
▁pcs	-10.6448
PU	-10.6451
▁Mukim	-10.646
▁Kor	-10.6462
MC	-10.6463
keluarga	-10.6464
iran	-10.6466
900	-10.6468
▁angka	-10.6468
ruh	-10.6469
▁keamanan	-10.6472
▁dek	-10.6473
▁komitmen	-10.6479
wear	-10.6479
▁fb	-10.648
▁Grand	-10.648
fo	-10.648
▁langit	-10.6484
▁Habis	-10.649
▁foodporn	-10.6496
▁dilahirkan	-10.6497
▁dikit	-10.6498
bau	-10.6499
▁menangis	-10.6501
▁ladang	-10.6504
▁ben	-10.6505
▁mn	-10.6506
▁before	-10.6507
Wa	-10.6509
cotton	-10.6509
ahli	-10.651
▁SA	-10.651
▁entah	-10.6511
▁marykay	-10.6513
▁TH	-10.6514
▁simple	-10.6515
▁padu	-10.6516
▁FC	-10.6518
▁when	-10.6518
▁komunitas	-10.6525
▁2006	-10.6527
▁pipi	-10.6528
SU	-10.6532
▁seharusnya	-10.6537
filem	-10.6539
▁Anjing	-10.6539
▁penerima	-10.6543
▁anjir	-10.6544
▁beraya	-10.6545
PM	-10.6547
▁she	-10.6554
pes	-10.6555
▁penge	-10.6557
▁Good	-10.6565
▁Hong	-10.6566
ntang	-10.6567
▁selanjutnya	-10.6567
▁perlahan	-10.6568
▁berke	-10.6569
▁bermakna	-10.6574
dor	-10.6575
▁Tuanku	-10.6575
▁DE	-10.6578
ant	-10.6578
▁meskipun	-10.6583
▁been	-10.6585
▁Pasti	-10.6589
batam	-10.6589
▁Bad	-10.6591
▁kedah	-10.6591
dul	-10.6593
▁Tengok	-10.6594
▁Teh	-10.6595
ase	-10.6597
▁depa	-10.6604
▁Adakah	-10.6606
▁Jan	-10.6607
▁tamat	-10.6607
▁adakah	-10.6608
▁souvenir	-10.661
▁SMA	-10.6611
ral	-10.6612
▁kelak	-10.6617
▁haritu	-10.6617
▁mini	-10.6618
▁majoriti	-10.6619
▁lemas	-10.662
guru	-10.662
▁terhad	-10.6624
▁ancaman	-10.6626
▁lowongankerja	-10.6633
tech	-10.6637
uang	-10.6641
RU	-10.6642
▁Ham	-10.6645
▁televisyen	-10.6645
mart	-10.6646
▁emg	-10.6648
▁diluluskan	-10.6649
▁Undang	-10.6651
▁mahupun	-10.6653
▁Ala	-10.6653
▁gabisa	-10.6654
▁Penat	-10.6655
▁memandangkan	-10.6657
key	-10.6658
mos	-10.6664
▁perancangan	-10.6665
bandar	-10.6667
▁skin	-10.6669
kaya	-10.6676
LU	-10.6676
▁Perdagangan	-10.668
ono	-10.6684
nal	-10.6685
▁mengakui	-10.6685
▁puncak	-10.669
mbah	-10.6693
▁Polisi	-10.6696
▁kod	-10.67
▁Kirim	-10.6702
▁jawa	-10.6707
▁tuu	-10.6709
▁btw	-10.6709
ENG	-10.6711
▁diperkenalkan	-10.6715
▁unik	-10.6715
▁natural	-10.6717
▁cuman	-10.6718
▁kelebihan	-10.6719
▁bla	-10.6719
▁MB	-10.6721
▁sya	-10.6722
lh	-10.6724
tab	-10.6725
sip	-10.6725
▁menghantar	-10.6725
kece	-10.6728
▁SEMUA	-10.6729
▁Lan	-10.673
▁READY	-10.6732
kering	-10.6733
EH	-10.6734
▁olahraga	-10.6735
led	-10.6739
▁work	-10.6741
negeri	-10.6742
ulang	-10.6747
▁provinsi	-10.6749
bong	-10.6752
▁hehehe	-10.6753
▁Sayang	-10.6753
Je	-10.6754
jeng	-10.6755
▁Nik	-10.6755
▁Admin	-10.6756
▁tolak	-10.6756
66	-10.6759
▁sma	-10.6768
SEL	-10.6771
kot	-10.6771
▁gelaran	-10.6773
hair	-10.678
▁mlm	-10.6782
68	-10.6782
▁know	-10.6784
▁Top	-10.6789
bby	-10.6791
mate	-10.6793
▁Kes	-10.6797
▁meh	-10.68
▁diikuti	-10.6805
▁MO	-10.6814
▁Segera	-10.6815
sul	-10.6816
cari	-10.6816
▁Nilai	-10.6818
▁pusing	-10.6819
▁see	-10.682
▁stabil	-10.682
▁cute	-10.6824
▁Tindakan	-10.6825
▁seharga	-10.6827
▁meliputi	-10.6827
▁Lebuhraya	-10.6828
▁kartu	-10.6832
▁menuntut	-10.6835
▁pr	-10.6837
▁kerabu	-10.6842
▁bersifat	-10.6843
▁setempat	-10.6844
▁kawin	-10.6844
▁dise	-10.6847
▁buatan	-10.6847
▁sebagian	-10.685
TH	-10.685
▁awek	-10.6852
▁Trump	-10.6854
▁trans	-10.6857
▁rok	-10.6858
▁gabungan	-10.6858
▁Makin	-10.6865
▁DAH	-10.6865
▁Gra	-10.6865
▁emosi	-10.6866
▁tali	-10.6867
▁lantai	-10.6867
▁Ayah	-10.687
▁pembuatan	-10.6873
▁DIA	-10.6875
▁Kurang	-10.6876
ump	-10.6882
via	-10.6882
▁Kebanyakan	-10.6884
uz	-10.6889
dol	-10.6891
▁dibenarkan	-10.6899
MO	-10.69
tanah	-10.6902
▁Reposted	-10.6904
▁Batik	-10.6907
▁Ai	-10.6908
▁Hulu	-10.6909
▁Lingkar	-10.6909
▁diorang	-10.6914
To	-10.6914
opo	-10.6917
▁Hadi	-10.6917
hn	-10.6917
250	-10.6918
empat	-10.692
mili	-10.6923
▁mengundi	-10.6925
▁berdua	-10.6925
lawan	-10.6925
▁penyelidikan	-10.6927
tapi	-10.6929
▁kutipan	-10.6929
▁berdepan	-10.693
spa	-10.6934
▁menyerang	-10.6934
▁ujar	-10.6938
▁bijak	-10.6939
▁prabowo	-10.6942
▁TU	-10.6944
yun	-10.6946
▁MK	-10.6946
perak	-10.6947
cin	-10.695
▁jamtangan	-10.695
▁berkahwin	-10.6952
▁012	-10.6953
▁kelayakan	-10.6959
▁Kem	-10.6962
▁Untung	-10.6962
▁tersedia	-10.6965
▁bersempadan	-10.6969
iq	-10.6973
mem	-10.6974
▁bersalah	-10.6974
▁dimiliki	-10.6977
▁penjelasan	-10.6978
▁mencadangkan	-10.698
▁chatime	-10.6989
▁menahan	-10.6992
▁Bagus	-10.6998
▁miss	-10.6999
▁permukaan	-10.7
tidak	-10.7001
BANG	-10.7003
pedas	-10.7003
▁subuh	-10.7005
▁pulut	-10.7008
over	-10.7009
tika	-10.7011
hb	-10.7011
▁ALLAH	-10.7012
saham	-10.7015
BM	-10.7015
▁nnt	-10.7015
bangi	-10.7016
▁Bangunan	-10.7018
▁pengaruh	-10.7018
ph	-10.7019
▁tah	-10.702
▁Rais	-10.7022
eksi	-10.7023
woo	-10.7028
PL	-10.7028
▁penghasilan	-10.7033
▁hahah	-10.7036
▁Puan	-10.7036
▁Minat	-10.7038
▁any	-10.7042
▁KETIGA	-10.7044
▁struktur	-10.7046
yong	-10.7047
zy	-10.7052
▁Peguam	-10.7054
▁tenggara	-10.7054
rik	-10.7063
ness	-10.7064
▁tarif	-10.7074
▁student	-10.7074
▁haih	-10.7075
▁house	-10.708
▁fun	-10.7083
free	-10.7086
▁samsung	-10.7088
terbaik	-10.7092
▁MENG	-10.7095
▁hmmm	-10.7096
eu	-10.71
ZA	-10.7103
▁cuaca	-10.7107
▁Setia	-10.7108
▁inget	-10.7109
▁Dh	-10.7109
▁persembahan	-10.711
bawa	-10.7113
▁UiTM	-10.7114
hil	-10.7116
▁memberitahu	-10.7116
▁telinga	-10.7117
▁Dadah	-10.7119
▁kolej	-10.712
▁pilpres	-10.7121
▁istana	-10.7123
▁Perempuan	-10.7123
ville	-10.7126
EL	-10.7129
▁JE	-10.7129
bro	-10.7129
▁kebakaran	-10.7131
▁Ren	-10.7138
▁slot	-10.7138
▁Dis	-10.7139
▁sekurang	-10.714
quotes	-10.7149
▁Semasa	-10.7149
▁Btw	-10.7151
▁penye	-10.7155
gah	-10.7159
▁Surat	-10.7159
▁tipu	-10.716
▁khidmat	-10.716
▁pola	-10.7161
▁Manakala	-10.7162
▁Wang	-10.7166
▁Star	-10.7166
▁Tinggal	-10.7167
▁pria	-10.7169
wali	-10.717
▁dorang	-10.7171
No	-10.7176
▁males	-10.7176
▁menetapkan	-10.7179
▁Kira	-10.7179
▁urus	-10.718
gil	-10.718
DE	-10.7184
▁jus	-10.7186
▁bot	-10.7187
▁kursi	-10.7189
mang	-10.719
▁singgah	-10.7193
▁Solo	-10.7193
▁dimsum	-10.7195
▁Yogyakarta	-10.7196
▁Hak	-10.72
lur	-10.7201
▁papa	-10.7204
budak	-10.7207
dra	-10.7207
BER	-10.7208
▁oppo	-10.7209
▁menilai	-10.7213
nun	-10.7213
▁gaduh	-10.7213
lum	-10.7214
▁tunai	-10.7219
▁Noor	-10.7223
▁tiktok	-10.7228
siap	-10.723
▁Masak	-10.7231
▁sun	-10.7232
▁peristiwa	-10.7236
tre	-10.7237
▁bonus	-10.7238
ei	-10.724
▁ditayangkan	-10.7241
▁Nk	-10.7241
▁Val	-10.7245
nyaaa	-10.7247
▁pantas	-10.7249
▁Sar	-10.725
▁teknik	-10.7253
dd	-10.7255
▁settle	-10.7256
▁rutin	-10.7257
fans	-10.7257
▁By	-10.7258
▁saksi	-10.7259
▁shawl	-10.7263
▁Bogor	-10.7264
▁sha	-10.7266
▁artikel	-10.7266
med	-10.7268
▁Love	-10.7273
ium	-10.7275
▁perbezaan	-10.7279
▁penubuhan	-10.7279
▁berse	-10.7281
▁bf	-10.7284
▁bermaksud	-10.7286
rrr	-10.7287
▁Has	-10.7291
TN	-10.7292
▁ae	-10.7292
▁Melalui	-10.7295
lau	-10.7296
kawan	-10.7296
nai	-10.7298
▁dilancarkan	-10.7298
Kuala	-10.7299
wangi	-10.7299
▁peniaga	-10.73
nti	-10.7301
▁ctdk	-10.7301
▁persatuan	-10.7302
▁berkualiti	-10.7304
▁kebajikan	-10.7305
▁jersi	-10.7308
▁Cerita	-10.7308
▁PU	-10.7309
UP	-10.731
▁Yayasan	-10.731
kebolehan	-10.731
TRA	-10.7314
mes	-10.7314
▁Perlu	-10.7314
▁darjah	-10.7316
▁canai	-10.7317
▁SS	-10.7319
▁US	-10.7321
▁ustaz	-10.7321
▁layanan	-10.7322
▁istimewa	-10.7323
▁pelancong	-10.7324
rut	-10.7327
▁Usaha	-10.7328
▁sultan	-10.7329
▁berkongsi	-10.7332
▁menemukan	-10.7335
▁Mesti	-10.734
ite	-10.7341
▁Tar	-10.7342
▁Balai	-10.7344
▁LINE	-10.7346
Islam	-10.7349
▁penjawat	-10.7349
chu	-10.7351
▁dibayar	-10.7351
▁matang	-10.7353
UH	-10.7354
▁Malang	-10.7356
▁RE	-10.7357
▁DUN	-10.7357
PE	-10.7358
▁hair	-10.7361
▁Iskandar	-10.7361
▁Emang	-10.7361
▁Akhir	-10.7367
▁Ex	-10.7368
dur	-10.737
▁diminta	-10.7375
▁Kanada	-10.7376
▁Grab	-10.738
MM	-10.7381
laki	-10.7382
▁motif	-10.7383
600	-10.7384
zam	-10.7385
bid	-10.7386
▁mere	-10.7387
▁55	-10.7389
▁episod	-10.7389
▁penurunan	-10.739
▁nyawa	-10.739
▁berkualitas	-10.7391
lut	-10.7392
▁SERI	-10.7395
▁kacau	-10.7399
▁Day	-10.74
kek	-10.7401
Fa	-10.7402
▁Durian	-10.7402
▁sebaik	-10.7403
RT	-10.7404
▁parut	-10.7405
▁likeforfollow	-10.7408
▁legend	-10.7415
▁fit	-10.7417
▁if	-10.7417
FC	-10.7418
▁hektar	-10.7419
▁Hehe	-10.742
▁smart	-10.7421
▁bergabung	-10.7422
coffee	-10.7423
▁bru	-10.7423
▁Mesir	-10.7424
▁dilengkapi	-10.7424
▁suci	-10.7425
▁alamat	-10.743
▁gelang	-10.7431
▁kontak	-10.7432
▁hasilnya	-10.7432
▁Alat	-10.7433
▁lembaga	-10.7438
cia	-10.7442
▁Harus	-10.7443
▁berbentuk	-10.7448
▁kapitalis	-10.745
▁sembang	-10.745
▁pribadi	-10.7451
ubah	-10.7451
▁berupa	-10.7452
▁parlimen	-10.7452
▁kangen	-10.7455
▁Ehwal	-10.7455
rn	-10.7457
umi	-10.7458
▁ganja	-10.7458
▁Kab	-10.7461
▁lgi	-10.7462
▁jawatankuasa	-10.7465
gro	-10.7467
▁Weh	-10.7469
WE	-10.7473
▁ketinggalan	-10.7475
▁0852	-10.7476
▁Meh	-10.748
▁UKM	-10.7481
▁why	-10.7483
ction	-10.7483
▁Minta	-10.7485
gigi	-10.7485
▁kurma	-10.7488
▁HA	-10.7488
▁ekor	-10.7489
▁detail	-10.749
▁Coach	-10.7498
tari	-10.7502
▁ANAK	-10.7503
▁ngu	-10.7504
▁BIO	-10.7507
▁mantap	-10.7508
GU	-10.751
▁Sekian	-10.7513
▁Seremban	-10.7514
▁thread	-10.7517
▁gatau	-10.7518
▁aj	-10.752
▁engkau	-10.7521
▁laku	-10.7523
▁kesejahteraan	-10.7524
▁amal	-10.7526
▁hamba	-10.7529
▁pop	-10.7532
ona	-10.7534
▁Klo	-10.7536
EC	-10.7536
▁Nge	-10.7537
▁fresh	-10.7538
suri	-10.7539
▁Festival	-10.754
▁sembilan	-10.754
▁blh	-10.7541
mic	-10.7541
chan	-10.7544
kt	-10.7545
karya	-10.7545
NE	-10.7547
kantor	-10.7549
▁Takde	-10.755
▁Kelapa	-10.7552
▁250	-10.7552
makassar	-10.7552
pam	-10.7554
▁BOLEH	-10.7554
▁resepi	-10.7556
▁menjejaskan	-10.7556
▁Mama	-10.7556
gak	-10.7561
▁udang	-10.7561
▁batang	-10.7563
dengan	-10.7565
▁pemberita	-10.7567
▁sup	-10.7569
ramai	-10.757
▁cita	-10.7571
wel	-10.7572
▁stay	-10.7574
▁emak	-10.7576
awal	-10.7579
▁Politik	-10.7581
▁LRT	-10.7583
pku	-10.7585
Pertuan	-10.7587
iki	-10.759
▁barisan	-10.7592
peri	-10.7592
▁bazarpaknil	-10.7593
lelaki	-10.7594
▁Tani	-10.7596
HI	-10.7599
▁burger	-10.7608
tung	-10.761
ayat	-10.7613
▁would	-10.7613
▁santri	-10.7614
▁gede	-10.7615
▁Tunku	-10.7618
▁Far	-10.7622
jek	-10.7623
insta	-10.7623
▁King	-10.7625
cowok	-10.7626
▁013	-10.7627
▁Joko	-10.7633
▁jentera	-10.7633
mbang	-10.7633
▁SU	-10.7634
▁Intan	-10.7638
▁pink	-10.7639
▁Hutan	-10.7644
▁HR	-10.7644
▁Bak	-10.7646
awi	-10.7647
bukan	-10.7647
Tu	-10.7649
▁penjualan	-10.765
▁custom	-10.7654
tempat	-10.7654
▁Pilih	-10.7654
▁mengangkat	-10.7654
▁Bintang	-10.7654
▁amin	-10.7654
▁kilometer	-10.7656
▁premium	-10.7656
▁Mr	-10.7656
▁BARU	-10.7657
del	-10.7661
▁Ang	-10.7663
▁kejohanan	-10.7663
▁jujur	-10.7664
mai	-10.7666
▁keinginan	-10.7667
▁selaku	-10.7667
▁gais	-10.7668
▁mencoba	-10.7669
▁Ver	-10.7669
▁visit	-10.767
▁2010,	-10.767
DU	-10.7674
▁lapan	-10.7676
▁contact	-10.7683
▁there	-10.7683
kiri	-10.7683
▁rela	-10.7683
▁Hello	-10.7683
▁ju	-10.7688
▁Par	-10.7692
▁Long	-10.7695
▁jgk	-10.7696
fak	-10.7697
▁Malaysian	-10.77
▁kuda	-10.7701
sale	-10.7702
▁Naib	-10.7704
usaha	-10.7705
▁cewe	-10.7707
▁Em	-10.7708
bia	-10.7714
gol	-10.7715
nom	-10.7717
▁Saham	-10.7717
bersama	-10.7718
▁grup	-10.7719
▁Call	-10.7719
▁Apalagi	-10.772
135	-10.772
list	-10.7722
▁Kolej	-10.7728
▁KITA	-10.7728
ruf	-10.7731
▁Qa	-10.7732
▁Ketiga	-10.7732
▁diperuntukkan	-10.7734
▁2004	-10.7735
▁berbuat	-10.7735
cen	-10.7735
▁keyakinan	-10.7737
▁Turut	-10.7741
BAR	-10.7742
▁memperbaiki	-10.7744
▁pergerakan	-10.7745
▁kemajuan	-10.7746
▁peti	-10.7749
▁jajan	-10.7751
▁SEKARANG	-10.7752
▁Baginda	-10.7753
▁batin	-10.7757
tanpa	-10.7758
▁Kos	-10.776
hol	-10.776
▁akal	-10.7761
▁Suara	-10.7762
▁bencana	-10.7771
▁Seni	-10.7774
▁ikutan	-10.7776
bay	-10.7778
▁servis	-10.7783
hur	-10.7784
▁Kinabalu	-10.7785
▁penyokong	-10.7785
▁Jaga	-10.7789
▁rencana	-10.7789
▁mengesahkan	-10.7791
▁GRATIS	-10.7792
▁majikan	-10.7792
▁other	-10.7792
ins	-10.7793
▁edisi	-10.7795
▁om	-10.7796
▁lunch	-10.7796
kil	-10.7796
▁woi	-10.7797
ou	-10.7797
▁how	-10.7798
sho	-10.7806
tus	-10.7808
ls	-10.7808
▁listrik	-10.7811
▁patah	-10.7813
▁Up	-10.7818
▁musuh	-10.7818
▁menganggap	-10.7821
▁seputar	-10.7823
▁dijamin	-10.7827
▁Darat	-10.7833
▁report	-10.7836
▁minimal	-10.7836
▁blok	-10.784
Ca	-10.7841
▁Hang	-10.7843
labuh	-10.7847
ndang	-10.7848
▁minimum	-10.7848
Ada	-10.785
▁sara	-10.7852
kesehatan	-10.7852
yg	-10.7855
seri	-10.7857
mpa	-10.7858
sion	-10.7858
ela	-10.7859
col	-10.786
▁Sehat	-10.786
▁Gerakan	-10.7862
kup	-10.7863
▁Juara	-10.7864
das	-10.7864
▁acc	-10.7869
▁bercakap	-10.7874
▁Senang	-10.7876
pendidikan	-10.7879
terkini	-10.7882
▁rangka	-10.7882
▁dompet	-10.7884
▁done	-10.7885
ino	-10.789
▁SWT	-10.789
▁Sya	-10.7891
▁Ng	-10.7892
▁BELI	-10.7896
gor	-10.7898
rakan	-10.7899
▁Bangun	-10.7899
▁Musim	-10.79
tanda	-10.7901
▁liburan	-10.7902
▁Norway	-10.7902
▁POS	-10.7903
▁insiden	-10.7904
masa	-10.7907
▁Uni	-10.7913
▁tuntutan	-10.7915
PR	-10.7916
▁ceramah	-10.7917
▁Khalid	-10.7918
▁Google	-10.7918
▁mewah	-10.7918
▁ntar	-10.7919
▁pintar	-10.792
▁Depan	-10.7921
▁Klinik	-10.7921
▁berumur	-10.7922
▁She	-10.7925
tuh	-10.7925
▁Demi	-10.7926
card	-10.7927
▁menutup	-10.7927
▁regrann	-10.7927
▁wow	-10.7928
▁paras	-10.7929
▁unsur	-10.7929
cek	-10.793
ular	-10.7932
▁doktor	-10.7932
▁penguatkuasaan	-10.7934
▁bagai	-10.7939
ANGAN	-10.7941
asia	-10.7942
▁bulanan	-10.7944
▁Goreng	-10.7945
▁Thanks	-10.7946
arah	-10.7947
song	-10.7951
▁Vo	-10.7952
eo	-10.7956
▁Sedih	-10.7958
lina	-10.7958
▁serupa	-10.7961
ceng	-10.7961
pul	-10.7962
▁{	-10.7963
;&	-10.7965
▁Nas	-10.7965
▁basah	-10.7966
▁Nampak	-10.7966
coco	-10.7968
▁Dana	-10.797
white	-10.797
▁gembira	-10.797
▁1998	-10.7971
▁kopiah	-10.7971
▁show	-10.7971
▁lokal	-10.7971
▁Belajar	-10.7972
▁Char	-10.7972
dera	-10.7974
▁sapu	-10.7974
▁kesedaran	-10.7975
▁This	-10.7975
LL	-10.7977
▁Ustaz	-10.7978
▁bubur	-10.7981
▁diteruskan	-10.7981
▁Halal	-10.7982
gb	-10.7985
▁band	-10.7985
▁aneh	-10.7987
▁Palestin	-10.799
▁cepet	-10.7992
▁Susah	-10.7994
wk	-10.7995
DP	-10.7996
▁berikutnya	-10.7998
▁keempat	-10.8005
▁Petani	-10.8006
▁bahu	-10.8006
gus	-10.8009
▁dibeli	-10.8011
▁tampak	-10.8012
▁tealive	-10.8013
▁59	-10.8013
KAT	-10.8016
▁silap	-10.8017
zim	-10.8018
▁plus	-10.802
pres	-10.8023
▁JAWAB	-10.8028
▁hala	-10.8028
▁Hamid	-10.8031
▁person	-10.8032
kop	-10.8033
▁Kalian	-10.8034
story	-10.8039
rama	-10.8039
▁Tas	-10.8039
▁pemberian	-10.804
▁facial	-10.804
AA	-10.8041
own	-10.8041
▁Is	-10.8047
jati	-10.805
MY	-10.8054
islami	-10.8054
ves	-10.8059
fm	-10.806
▁Puteri	-10.806
▁deket	-10.8062
▁First	-10.8062
▁klau	-10.8064
▁haa	-10.8067
ach	-10.8069
▁Pencegahan	-10.8069
kereta	-10.8073
▁Anggota	-10.8073
▁Tanya	-10.8074
▁PA	-10.8075
spek	-10.8075
▁ditawarkan	-10.8076
▁poslaju	-10.8078
▁tuduhan	-10.8078
▁ikhlas	-10.8079
dina	-10.808
kanlah	-10.8082
nasional	-10.8085
▁Aamiin	-10.8085
ide	-10.8089
wati	-10.8094
▁Kajian	-10.8095
▁Mun	-10.8096
▁mua	-10.8096
Pro	-10.8099
▁Ph	-10.8103
▁long	-10.8106
PAK	-10.8108
kutu	-10.8109
▁Hukum	-10.811
jangan	-10.8113
▁bomba	-10.8114
▁Inter	-10.8115
▁Czech	-10.812
▁komoditi	-10.812
padu	-10.8122
▁mudik	-10.8123
pre	-10.8123
▁menyimpan	-10.8124
▁misalnya	-10.8127
sabah	-10.813
nger	-10.8131
▁Skim	-10.8131
▁bincang	-10.8134
kasih	-10.8135
▁agent	-10.8136
▁bab	-10.8138
▁1990	-10.8139
▁nunggu	-10.8139
▁Hp	-10.8141
▁62	-10.8141
▁today	-10.8142
▁memaklumkan	-10.8143
▁Tersedia	-10.8145
▁jumaat	-10.8148
jawa	-10.8151
▁jilbab	-10.8153
▁warung	-10.8154
▁Sesungguhnya	-10.8154
▁bicara	-10.8156
CM	-10.8157
▁Sorry	-10.816
▁0896	-10.8162
bulu	-10.8162
▁pulih	-10.8163
▁shah	-10.8164
alah	-10.8165
▁coach	-10.8166
Ga	-10.8167
▁dropship	-10.8167
macam	-10.8167
▁menyerahkan	-10.8169
▁kuil	-10.8171
betul	-10.8171
visi	-10.8171
▁pemakaian	-10.8172
OT	-10.8172
sep	-10.8174
▁pengambilan	-10.8176
nyi	-10.8178
asan	-10.8179
▁SI	-10.8181
▁dihantar	-10.8181
▁Kajang	-10.8183
AMAN	-10.8185
▁mulia	-10.8186
▁problem	-10.8187
▁terkena	-10.8187
▁Bekasi	-10.8189
▁Swasta	-10.8189
▁subang	-10.8192
▁0878	-10.8193
sosial	-10.8195
▁75	-10.8195
▁menghalang	-10.8196
quran	-10.8197
wing	-10.8198
▁Kesian	-10.8198
▁BE	-10.8199
▁kebebasan	-10.8202
OH	-10.8204
▁Motor	-10.8205
kura	-10.8206
▁binatang	-10.8207
An	-10.8211
eeee	-10.8211
▁Sin	-10.8214
▁42	-10.8217
▁Mati	-10.8218
SC	-10.8223
▁iman	-10.8227
▁High	-10.8228
agi	-10.823
pekanbaru	-10.8231
▁gemuk	-10.8233
▁pertengahan	-10.8241
▁Awal	-10.8241
ARI	-10.8243
▁pemikiran	-10.8243
▁kaca	-10.8243
▁berdaftar	-10.8246
▁Kamis	-10.8249
▁instafood	-10.8251
nia	-10.8251
▁berulang	-10.8252
▁Toko	-10.8253
▁Halo	-10.8256
purwokerto	-10.8259
mania	-10.8262
ace	-10.8264
▁INFO	-10.8266
▁disiarkan	-10.8267
▁KURUNG	-10.8268
▁Fo	-10.8269
▁sabah	-10.8269
dom	-10.827
lla	-10.8273
▁kr	-10.8273
▁Mai	-10.8276
▁SAYA	-10.8276
cake	-10.8278
mpul	-10.8278
▁inilah	-10.8279
▁face	-10.828
▁hand	-10.8285
shoot	-10.8286
idah	-10.8287
▁weekend	-10.8288
▁Sebenarnya	-10.8288
▁bertugas	-10.8297
putrajaya	-10.83
▁Gw	-10.8301
▁TAPI	-10.8304
▁konsultasi	-10.8304
▁asalnya	-10.8304
▁motosikal	-10.8306
▁seolah	-10.8306
dus	-10.8312
tara	-10.8317
▁Enak	-10.8319
uuuu	-10.8322
▁sweet	-10.8322
▁Kl	-10.8324
ula	-10.8324
ef	-10.8326
▁need	-10.8326
▁koi	-10.8329
▁komunikasi	-10.8331
▁kelahiran	-10.8335
▁test	-10.8339
▁kltu	-10.8341
judi	-10.8344
▁Vitamin	-10.8344
▁Sandakan	-10.8345
▁bini	-10.8345
press	-10.8347
▁mencukupi	-10.8348
▁belok	-10.8351
▁sebentar	-10.8351
▁setan	-10.8351
▁Bikin	-10.8354
vin	-10.8363
▁kenangan	-10.8364
gin	-10.8365
Untuk	-10.8366
▁hakim	-10.8367
▁Ulu	-10.8368
agung	-10.8368
harga	-10.8369
WI	-10.8371
▁than	-10.8372
▁Zi	-10.8372
▁Begitu	-10.8375
▁syukur	-10.8375
▁simpanan	-10.8379
▁Kaya	-10.8381
▁Informasi	-10.8381
▁perintah	-10.8382
▁lapisan	-10.8383
LP	-10.8386
iv	-10.8386
Peng	-10.8388
▁pembeli	-10.8389
▁Mini	-10.839
▁konsisten	-10.839
wedding	-10.8393
teri	-10.8395
PO	-10.8397
▁Menghilangkan	-10.8397
▁upaya	-10.8402
▁sarawak	-10.8402
nic	-10.8403
▁penjuru	-10.8406
rup	-10.8408
power	-10.8411
▁leher	-10.8412
▁Kode	-10.8413
▁EXO	-10.8413
fish	-10.8415
mik	-10.8416
▁Kelas	-10.8418
▁Partai	-10.842
gantung	-10.842
▁2018,	-10.8422
▁niaga	-10.8422
▁ME	-10.8422
▁Harini	-10.8423
▁pastikan	-10.8423
▁Maju	-10.8424
bt	-10.8426
IH	-10.8429
▁tunggal	-10.843
NS	-10.8432
depok	-10.8432
xi	-10.8433
▁Pat	-10.8433
▁memanfaatkan	-10.8433
▁mengakibatkan	-10.8433
▁TO	-10.8439
ug	-10.8441
▁dimakan	-10.8443
riz	-10.8448
form	-10.8453
▁mengulas	-10.8454
▁bnyk	-10.8455
▁Tra	-10.8456
▁mengelakkan	-10.8456
PK	-10.8459
lihat	-10.8461
▁justru	-10.8462
tos	-10.8465
kep	-10.8466
mmm	-10.8467
▁terkejut	-10.8468
▁ketat	-10.847
▁sembuh	-10.8473
é	-10.8475
Jokowi	-10.8476
▁dipake	-10.8478
▁earphone	-10.8483
gala	-10.8483
▁Chat	-10.8484
▁komponen	-10.8486
▁Murah	-10.8487
ella	-10.8488
▁pening	-10.8488
▁berpindah	-10.8489
▁Full	-10.8489
yar	-10.849
Mi	-10.8491
▁Jen	-10.8491
▁Pakistan	-10.8491
▁aduan	-10.8493
▁Jepang	-10.8494
▁proyek	-10.8496
115	-10.8498
▁pengeluar	-10.85
MAR	-10.85
fre	-10.8501
▁rapi	-10.8502
urat	-10.8503
▁Mal	-10.8503
lay	-10.8504
▁Tur	-10.8507
▁Pergi	-10.8509
▁Takut	-10.851
▁BUAT	-10.851
▁Nasir	-10.8511
▁Konsultasi	-10.8512
nor	-10.8512
▁BI	-10.8514
▁rt	-10.8515
mall	-10.8516
fla	-10.8516
▁Pendaftaran	-10.852
pia	-10.852
▁2005	-10.8521
drama	-10.8522
KO	-10.8523
▁herbal	-10.8524
▁Bangi	-10.8525
ifikasi	-10.8526
▁bateri	-10.8529
▁memperuntukkan	-10.853
▁umumnya	-10.853
▁Lebaran	-10.8531
▁pencapaian	-10.8532
▁Sabar	-10.8533
ima	-10.8534
kamar	-10.8536
▁Internet	-10.8536
▁KU	-10.8537
masjid	-10.854
garden	-10.8541
reg	-10.8541
▁sebagaimana	-10.8542
late	-10.8544
▁kehamilan	-10.8549
aceh	-10.855
JK	-10.8551
ust	-10.8551
▁Sho	-10.8553
photo	-10.8553
▁konflik	-10.8554
▁teori	-10.8554
▁RTM	-10.8557
▁rusak	-10.8559
▁ditangkap	-10.8559
▁Hadir	-10.8559
lampung	-10.8561
yn	-10.8564
YA	-10.8565
▁exam	-10.8568
▁Sem	-10.8569
▁2015,	-10.8571
bila	-10.8571
mg	-10.8571
▁Modal	-10.8572
▁Rasuah	-10.8572
zer	-10.8576
▁Pelan	-10.8577
▁jiran	-10.8577
▁pencemaran	-10.8577
▁confirm	-10.8581
▁target	-10.8581
▁KANAN	-10.8582
luh	-10.8585
ual	-10.8586
▁mendorong	-10.859
nggu	-10.8592
kaki	-10.8593
▁rempit	-10.8597
▁geram	-10.8598
▁kontraktor	-10.8599
▁Wakil	-10.86
▁ofis	-10.86
▁cowo	-10.8601
▁PAN	-10.8601
unt	-10.8602
▁Siang	-10.8602
emp	-10.8603
▁sen	-10.861
▁persoalan	-10.8612
▁piala	-10.8612
kids	-10.8618
▁layar	-10.8618
▁bungkus	-10.8621
▁hobi	-10.8622
dekat	-10.8623
GO	-10.8623
gong	-10.8632
▁pls	-10.8636
sit	-10.8637
▁efektif	-10.864
▁berbahaya	-10.8642
▁Labuh	-10.8645
▁Auto	-10.8646
langgar	-10.8648
▁Bursa	-10.8648
5,000	-10.8654
▁Yusof	-10.8655
▁JADI	-10.8656
iiii	-10.8657
▁Khusus	-10.8658
▁Bonus	-10.8658
giat	-10.8661
OM	-10.8664
▁Brazil	-10.867
vy	-10.8671
▁Fitri	-10.8672
order	-10.8673
▁dihadapi	-10.8673
125	-10.8673
barat	-10.8674
lapis	-10.8675
vid	-10.8676
▁Justeru	-10.8676
shu	-10.8677
▁Baharu	-10.8678
tag	-10.8679
Bel	-10.8679
▁ngakak	-10.8681
▁panggilan	-10.8682
▁2002	-10.8685
lm	-10.8686
▁cucu	-10.8689
▁skandal	-10.869
▁Pake	-10.8691
▁sbg	-10.8692
tubuh	-10.8693
▁peguam	-10.8695
101	-10.8697
▁ianya	-10.8699
▁wei	-10.8702
▁maggi	-10.8702
▁kepimpinan	-10.8704
banget	-10.8709
▁kem	-10.871
▁berdekatan	-10.8712
ball	-10.8712
▁komp	-10.8713
▁Contoh	-10.8714
▁2001,	-10.8716
▁saman	-10.8721
▁seneng	-10.8721
gambar	-10.8723
▁Perjanjian	-10.8726
▁every	-10.8726
▁tuhan	-10.8732
▁cedera	-10.8733
▁Allahu	-10.8733
▁akademik	-10.8737
api	-10.8738
ator	-10.874
▁Km	-10.8742
▁pusingan	-10.8742
▁Cer	-10.8746
▁Sari	-10.8747
lalu	-10.8749
bersih	-10.8751
▁Cocok	-10.8751
▁menyeluruh	-10.8754
▁maksimal	-10.8757
▁mesra	-10.8757
▁2014,	-10.876
▁Thank	-10.8761
▁mena	-10.8762
polos	-10.8762
▁sekian	-10.8763
▁cr	-10.8767
▁panduan	-10.8767
▁berpendapatan	-10.8768
leng	-10.877
▁Gula	-10.877
illa	-10.8771
▁perairan	-10.8771
▁pinklady	-10.8772
ndi	-10.8773
▁jelah	-10.8775
▁crush	-10.8777
▁Hm	-10.8779
▁2016,	-10.8781
▁ambulan	-10.8781
kw	-10.8782
▁hanyalah	-10.8785
eri	-10.8787
▁beneran	-10.8787
▁Kuching	-10.8789
▁Yes	-10.8791
trip	-10.8792
120	-10.8793
▁better	-10.8795
▁pembelajaran	-10.8795
▁Sate	-10.8796
▁Tiba	-10.8797
▁berkah	-10.8798
▁kebiasaan	-10.8799
▁More	-10.8799
kedah	-10.8801
▁gmn	-10.8802
▁Ir	-10.8805
▁sepi	-10.8805
Mar	-10.8805
jaga	-10.8805
▁sensitif	-10.8807
eja	-10.8807
mbuh	-10.8808
▁ORANG	-10.8809
▁digelar	-10.8811
▁spa	-10.8812
pra	-10.8815
▁selagi	-10.8815
▁alternatif	-10.8817
▁Aduh	-10.8819
▁kurungmoden	-10.8822
pelajar	-10.8823
ksa	-10.8823
▁memandang	-10.8825
▁dekorasi	-10.8825
▁keupayaan	-10.8826
▁Duit	-10.8829
▁hidung	-10.8829
▁Teman	-10.883
▁Bekas	-10.8831
▁Pelajar	-10.8832
▁melayani	-10.8834
▁water	-10.8837
ttt	-10.8839
▁berisi	-10.884
▁zakat	-10.884
▁Power	-10.8844
cerita	-10.8844
▁menghubungi	-10.8845
▁kerjaya	-10.8846
▁Ampang	-10.885
▁terdahulu	-10.885
▁doakan	-10.8851
▁sayap	-10.8852
▁hoax	-10.8853
VI	-10.8856
▁pikiran	-10.8857
ele	-10.8857
▁strategik	-10.8858
ney	-10.8859
suk	-10.8859
2%	-10.886
▁premis	-10.8862
nnn	-10.8864
ise	-10.8867
▁Gajah	-10.8869
▁FIFA	-10.8872
▁bom	-10.8873
▁Jln	-10.8875
lion	-10.8877
▁jdi	-10.8878
▁santai	-10.888
isti	-10.8881
▁Lin	-10.8891
▁solo	-10.8893
▁Trans	-10.8894
▁Tips	-10.8897
▁permulaan	-10.8898
▁keutamaan	-10.8898
▁03	-10.8899
▁petugas	-10.8901
NO	-10.8904
qua	-10.8905
▁xiaomi	-10.8907
mama	-10.8908
▁Sawit	-10.8909
▁JAM	-10.891
▁sholat	-10.891
▁Adik	-10.891
▁hidangan	-10.8911
▁Yahya	-10.8912
▁ITU	-10.8912
Ar	-10.8914
▁smua	-10.8914
▁business	-10.8914
▁Den	-10.8917
antar	-10.8918
▁melanjutkan	-10.8919
ungan	-10.8919
▁tetangga	-10.8919
berg	-10.8921
br	-10.8921
▁Seberang	-10.8923
Lo	-10.8926
Day	-10.8926
▁pala	-10.8927
RE	-10.8929
▁mentah	-10.8932
og	-10.8935
▁life	-10.8936
SO	-10.8937
▁Akademi	-10.8938
▁fizikal	-10.8942
▁ampun	-10.8943
▁Drama	-10.8943
▁Smart	-10.8945
ingin	-10.8947
▁Tq	-10.8948
▁uda	-10.8949
▁Polsek	-10.895
cuba	-10.8951
▁cabul	-10.8952
pertanian	-10.8953
nombor	-10.8953
tch	-10.8953
▁seksual	-10.8954
▁akar	-10.8958
▁majalah	-10.8961
▁Um	-10.8966
▁iron	-10.8971
▁pm	-10.8972
onlineshop	-10.8973
▁Inggris	-10.8976
▁em	-10.8976
AZ	-10.8984
▁dinding	-10.8985
▁teringin	-10.8986
▁Khamis	-10.8986
▁What	-10.8986
▁persekitaran	-10.8987
▁Sejarah	-10.8987
seng	-10.899
iphone	-10.8992
▁cafe	-10.8992
mina	-10.8993
▁peci	-10.8995
pn	-10.8996
▁pori	-10.9001
▁mengkaji	-10.9002
▁Mah	-10.9002
nur	-10.9003
▁tunik	-10.9008
▁Kemajuan	-10.9009
vel	-10.901
town	-10.9011
▁Sara	-10.9011
hotel	-10.9011
sukses	-10.9016
▁impian	-10.9016
corn	-10.9021
▁rambutan	-10.9021
▁move	-10.9022
▁made	-10.9023
▁Kawan	-10.9023
▁pulsa	-10.9024
▁Ilmu	-10.9028
▁Zon	-10.9029
▁skim	-10.903
▁INDONESIA	-10.903
▁Op	-10.9034
denpasar	-10.9034
▁selaras	-10.9041
▁respon	-10.9042
▁stroller	-10.9043
▁indo	-10.9043
tradisional	-10.9044
▁Ker	-10.9047
▁seharian	-10.9052
rawat	-10.9056
fly	-10.9057
▁pelabuhan	-10.9058
jkt	-10.9061
pendek	-10.9062
▁harganya	-10.9064
▁kegunaan	-10.9065
TO	-10.9067
▁penempatan	-10.9069
▁membutuhkan	-10.907
▁Sat	-10.9071
▁Sedangkan	-10.9071
▁menyesal	-10.9073
▁reseller	-10.9073
uma	-10.9074
▁Zealand	-10.9074
▁Widodo	-10.9074
▁bag	-10.9076
lepas	-10.9078
▁pelantikan	-10.9079
JO	-10.908
now	-10.908
▁trending	-10.908
▁Note	-10.9083
tiens	-10.9087
▁South	-10.9093
▁youtube	-10.9094
▁didalam	-10.9095
sidoarjo	-10.9095
imbang	-10.9098
▁diselesaikan	-10.91
IP	-10.9101
▁cap	-10.9103
▁jee	-10.9107
▁pertubuhan	-10.9109
▁Langkah	-10.911
▁campuran	-10.9111
tidur	-10.9114
▁nafsu	-10.9114
lipat	-10.9119
▁pubg	-10.9121
zar	-10.9122
▁bulat	-10.9123
▁dikirim	-10.9124
digital	-10.9127
▁bunuh	-10.9127
night	-10.9128
▁York	-10.9131
▁tegur	-10.9137
▁arus	-10.9139
▁Nurul	-10.9142
EM	-10.9143
▁kebal	-10.9145
▁Mang	-10.9148
▁Kembali	-10.9148
fon	-10.9148
▁Doa	-10.9152
▁formula	-10.9152
▁persekutuan	-10.9153
▁big	-10.9154
▁PKS	-10.9157
gs	-10.9158
HU	-10.9158
mir	-10.916
▁Green	-10.9162
▁dibandingkan	-10.9163
▁penonton	-10.9164
with	-10.9165
▁him	-10.9165
▁perpaduan	-10.9166
mbar	-10.917
▁Bawa	-10.9173
agama	-10.9173
▁menampung	-10.9175
▁SD	-10.9177
▁Moga	-10.9178
syah	-10.9179
▁bisnisonline	-10.9181
▁logo	-10.9182
▁SAMA	-10.9187
▁Kingdom	-10.9187
▁Calon	-10.9189
▁Kapal	-10.919
ikh	-10.919
▁STOCK	-10.9191
▁England	-10.9196
▁gejala	-10.9199
awat	-10.9199
▁Latihan	-10.9199
▁YAB	-10.9203
▁likeforlike	-10.9204
▁smp	-10.9204
▁kesayangan	-10.9204
110	-10.9204
▁DATUK	-10.9207
sol	-10.9207
▁aksesoris	-10.9215
lus	-10.922
Undang	-10.922
We	-10.9226
cip	-10.9227
▁0838	-10.9228
kaos	-10.9228
deh	-10.9228
come	-10.923
▁Mor	-10.9231
AYA	-10.9231
▁mengajar	-10.9241
kau	-10.9241
family	-10.9241
▁Halim	-10.9246
uli	-10.9248
OP	-10.9248
dewasa	-10.925
▁kreatif	-10.9251
▁Don	-10.9251
▁menguasai	-10.9251
▁Ac	-10.9255
▁Kec	-10.9255
meter	-10.9262
▁pastinya	-10.9262
▁drpd	-10.9266
II	-10.9268
▁melawat	-10.9269
▁Penye	-10.9269
▁Seng	-10.9269
lie	-10.9271
▁Langkawi	-10.9274
pr	-10.9279
▁Kel	-10.9279
▁TANPA	-10.9282
▁acah	-10.9282
▁terlepas	-10.9282
LIS	-10.9284
▁Tempatan	-10.9284
VA	-10.9284
▁Ed	-10.9285
aha	-10.9288
collection	-10.9288
▁Manchester	-10.9291
▁Bah	-10.9294
▁awalnya	-10.9295
▁lakonan	-10.9296
▁berharga	-10.9297
▁bertukar	-10.9299
▁rupa	-10.9302
arak	-10.9302
▁ganteng	-10.9304
▁photooftheday	-10.9307
▁Serbia	-10.9308
▁insan	-10.9308
▁Mahasiswa	-10.931
FM	-10.9311
▁Sulawesi	-10.9312
▁joging	-10.9314
▁08	-10.9317
▁postage	-10.9317
▁Data	-10.9318
field	-10.9318
▁Musa	-10.9318
ius	-10.9321
▁hartanah	-10.9324
bawal	-10.9325
▁standard	-10.9327
kun	-10.9329
▁Bela	-10.9329
SAM	-10.933
▁Kang	-10.9334
▁SELAMAT	-10.9337
▁120	-10.9339
aktif	-10.9339
▁our	-10.9339
angin	-10.9339
▁Pinggang	-10.934
▁Kit	-10.934
▁bad	-10.9341
▁menemui	-10.9343
▁end	-10.9343
super	-10.9343
▁pelabur	-10.9344
▁tanggung	-10.9348
▁anggaran	-10.9348
▁baki	-10.9349
▁Umno	-10.9351
pontianak	-10.9352
rom	-10.9354
▁request	-10.9357
penang	-10.9359
▁Format	-10.9362
▁Multimedia	-10.9363
▁skali	-10.9363
wood	-10.9363
ix	-10.9364
dk	-10.9366
ska	-10.9366
▁HANYA	-10.9366
trik	-10.937
AG	-10.9371
▁paper	-10.9377
▁multi	-10.9377
▁Bunda	-10.9378
▁format	-10.9379
▁Wo	-10.938
▁Agensi	-10.938
▁singkat	-10.9382
▁kukuh	-10.9383
JI	-10.9385
▁inovasi	-10.9386
▁2017,	-10.939
▁Kom	-10.9393
▁LEBIH	-10.9393
▁Kucing	-10.9397
haji	-10.9399
▁jeragat	-10.9399
▁Idris	-10.9402
BB	-10.9404
▁ramadan	-10.9404
wai	-10.9409
▁isinya	-10.941
hijau	-10.941
▁terse	-10.9417
▁sat	-10.9419
kacang	-10.9419
punya	-10.942
▁disampaikan	-10.9422
▁mendedahkan	-10.9424
▁terjejas	-10.9424
buka	-10.9426
▁aje	-10.9427
▁kemaren	-10.9428
BP	-10.9429
▁mention	-10.9431
▁doi	-10.9432
nge	-10.9433
zr	-10.9434
pap	-10.9436
▁Omar	-10.9436
▁seragam	-10.9437
poli	-10.9438
bala	-10.9439
▁arab	-10.9442
ukur	-10.9443
▁menyelamatkan	-10.9444
▁smartphone	-10.9447
yana	-10.9448
▁DO	-10.9449
▁neelofa	-10.945
▁drive	-10.9452
oli	-10.9452
▁jua	-10.9453
▁membersihkan	-10.9453
▁Kesatuan	-10.9453
tanya	-10.9455
▁melanggar	-10.9459
▁Sinar	-10.946
▁job	-10.9462
▁Iman	-10.9464
▁Tel	-10.9465
▁serba	-10.9469
▁buruh	-10.9472
▁Jin	-10.9472
▁skuad	-10.9473
▁disertai	-10.9475
CK	-10.9477
▁Penulis	-10.9479
▁ruangan	-10.948
170	-10.9483
▁pendukung	-10.9483
musik	-10.9483
▁elemen	-10.9484
▁Mus	-10.9487
gat	-10.9488
cor	-10.9488
▁Nepal	-10.9491
sepatu	-10.9492
bina	-10.9493
▁Lupa	-10.9497
▁kumpul	-10.9498
▁maki	-10.9508
wax	-10.951
▁busy	-10.951
▁Menjadi	-10.9517
▁Va	-10.952
grafi	-10.952
terengganu	-10.9521
▁Tambah	-10.9521
▁wkwkw	-10.9522
▁Original	-10.9524
kemas	-10.9525
BS	-10.9527
▁Penyakit	-10.9532
▁tangkap	-10.9534
▁Eropa	-10.9535
▁membe	-10.9535
▁nok	-10.9536
▁fo	-10.9539
▁berlebihan	-10.9539
bl	-10.9545
▁tanam	-10.9545
cang	-10.9545
gold	-10.9545
▁kyk	-10.9546
enda	-10.9547
▁Jum	-10.9548
▁kanker	-10.9551
▁ehh	-10.9552
TS	-10.9552
wash	-10.9561
▁Zu	-10.9561
Go	-10.9561
ww	-10.9562
bike	-10.9563
ware	-10.9565
Hari	-10.9567
▁Riau	-10.9569
▁ujung	-10.9571
cra	-10.9572
girl	-10.9572
▁sinar	-10.9575
old	-10.9575
▁dgr	-10.958
▁import	-10.9583
▁dirumah	-10.9584
▁kampanye	-10.9585
bahagian	-10.9586
TAS	-10.9589
ungu	-10.9592
ata	-10.9592
luar	-10.9592
▁dagelan	-10.9594
▁curang	-10.9596
KP	-10.9596
▁Sir	-10.9596
▁Jauh	-10.9599
sky	-10.9601
onal	-10.9601
uhan	-10.9601
fiq	-10.9604
▁Tahu	-10.9605
aj	-10.9607
daily	-10.9608
▁fast	-10.961
▁Stok	-10.9611
▁Kompleks	-10.9612
▁memantau	-10.9615
mani	-10.9616
tg	-10.9616
▁Gold	-10.9618
▁music	-10.9618
▁Kal	-10.9619
salam	-10.962
salah	-10.9622
▁lori	-10.9623
ubi	-10.9625
instagram	-10.9625
▁Babi	-10.9625
▁sok	-10.9631
▁Tang	-10.9631
▁Lihat	-10.9633
▁fisik	-10.9635
▁pemegang	-10.9636
stro	-10.9636
▁Wal	-10.9641
▁mengingatkan	-10.9643
▁keadilan	-10.9644
▁Salleh	-10.9645
▁33	-10.9646
▁kebahagiaan	-10.9647
▁Haa	-10.9651
▁ketawa	-10.9652
MD	-10.9653
DO	-10.9653
▁adek	-10.9653
▁Wong	-10.9654
▁AIR	-10.9657
▁oke	-10.9658
▁PENG	-10.9661
▁sesungguhnya	-10.9663
▁mom	-10.9665
▁kekayaan	-10.9665
durian	-10.9666
▁wartawan	-10.9667
▁hensem	-10.9667
ingat	-10.9669
zon	-10.9672
rawang	-10.9674
▁kebijakan	-10.9675
▁Terbuka	-10.9675
▁Af	-10.9675
DM	-10.9675
▁etnik	-10.9677
▁bajumurah	-10.9677
▁kotor	-10.9677
▁Saiz	-10.9682
▁Yahudi	-10.9684
▁gadget	-10.9688
jana	-10.9689
▁mema	-10.9692
▁Bajet	-10.9692
▁dibangunkan	-10.9693
▁enjin	-10.9693
▁KO	-10.9697
▁wawa	-10.97
▁ATM	-10.9701
▁enggan	-10.9703
kok	-10.9704
haru	-10.9705
▁Bra	-10.9705
Ho	-10.9708
▁Karang	-10.971
▁Dagang	-10.9712
▁1999	-10.9713
ojo	-10.9714
sco	-10.9715
▁kesulitan	-10.9717
printing	-10.9719
down	-10.972
▁membincangkan	-10.9721
▁peneroka	-10.9721
▁gay	-10.9721
juk	-10.9721
safe	-10.9724
ire	-10.9724
▁Low	-10.9725
▁graduan	-10.9725
bumi	-10.9725
kena	-10.9726
court	-10.9726
▁Khan	-10.9726
▁sendu	-10.9728
gunung	-10.9728
▁Gila	-10.9729
▁two	-10.973
wira	-10.973
PC	-10.9731
drink	-10.9732
▁buta	-10.9734
▁Hmmm	-10.9737
▁Lip	-10.9741
▁Royal	-10.9743
DD	-10.9743
angkat	-10.9745
▁**	-10.9747
▁1000	-10.9748
▁Budaya	-10.9748
▁Setar	-10.9749
pers	-10.9749
▁tawaran	-10.9751
▁Les	-10.9752
▁bina	-10.9754
▁kpop	-10.9755
▁benih	-10.9756
Man	-10.9756
▁Universitas	-10.9761
▁Awak	-10.9762
▁kusam	-10.977
zah	-10.9771
try	-10.9772
▁terbuat	-10.9774
▁Pol	-10.9775
▁dak	-10.9778
▁PEM	-10.9788
▁cheese	-10.9788
▁KH	-10.9789
▁dihubungi	-10.9792
ill	-10.9793
▁Lengkap	-10.9795
hot	-10.9798
yok	-10.98
hem	-10.9801
▁memasak	-10.9803
▁MAS	-10.9804
▁Film	-10.9806
▁Paytren	-10.981
▁Aq	-10.9813
Sandi	-10.9814
KAH	-10.9817
▁energi	-10.982
SAN	-10.9821
EX	-10.9821
▁Rendang	-10.9825
▁pk	-10.9826
▁pinggir	-10.9826
▁Mmg	-10.983
▁Pintu	-10.983
▁mengajak	-10.9835
kkkk	-10.9837
mala	-10.9838
▁LE	-10.9839
▁Biasanya	-10.9842
▁world	-10.9843
▁intan	-10.9845
▁berdoa	-10.9845
For	-10.9847
▁CEPAT	-10.9849
1,000	-10.9849
▁SK	-10.9853
▁surau	-10.9854
cirebon	-10.9855
▁jawapan	-10.9859
▁jeruk	-10.986
▁demo	-10.9862
wit	-10.9866
▁tersendiri	-10.9867
aki	-10.9868
dil	-10.9872
▁website	-10.9874
laga	-10.9874
▁Tangerang	-10.9876
bre	-10.9877
▁menunaikan	-10.9878
jas	-10.9878
data	-10.988
▁Muhyiddin	-10.9882
▁terbatas	-10.9884
mr	-10.9886
has	-10.9886
STA	-10.9891
▁john	-10.9892
world	-10.9892
ox	-10.9892
▁jenama	-10.9895
▁Pri	-10.9896
oka	-10.9897
▁menandatangani	-10.9899
baya	-10.99
▁malang	-10.99
▁Ambil	-10.99
▁aktivitas	-10.9901
laptop	-10.9901
▁PTPTN	-10.9903
you	-10.9905
laa	-10.9906
▁hasrat	-10.9906
eb	-10.9913
▁senior	-10.9914
▁pahala	-10.9917
▁kemerdekaan	-10.9918
▁pecinta	-10.9918
bara	-10.9919
▁perkauman	-10.992
▁KOTA	-10.9924
▁msh	-10.9924
▁BBM	-10.9925
▁Tes	-10.9928
kay	-10.9928
Ju	-10.9928
PAS	-10.9931
abi	-10.9932
▁perhiasan	-10.9933
non	-10.9933
KOK	-10.9934
dit	-10.9936
▁Global	-10.9936
▁GO	-10.9939
▁snack	-10.994
▁Kurung	-10.9942
▁Zul	-10.9943
▁quote	-10.9945
▁tewas	-10.9946
▁berta	-10.9949
minyak	-10.9949
▁lumayan	-10.995
▁uia	-10.995
▁must	-10.9951
▁bun	-10.9953
▁pena	-10.9954
▁personal	-10.9955
▁sb	-10.9958
▁mengamalkan	-10.9958
▁bertajuk	-10.9958
▁NU	-10.9958
▁pendirian	-10.9963
▁undangan	-10.9963
row	-10.9965
▁Haute	-10.9965
▁menjamin	-10.9965
utama	-10.9966
sok	-10.9967
▁Indo	-10.9968
ell	-10.9969
rung	-10.9973
▁fasa	-10.9975
duanya	-10.9975
▁SMS	-10.9976
▁edit	-10.9977
AF	-10.9977
▁rahsia	-10.9978
▁lip	-10.9988
phone	-10.9992
thi	-10.9993
▁shaklee	-10.9997
oy	-10.9998
▁akhirat	-10.9998
▁Pisang	-10.9998
▁interior	-11.0006
▁pri	-11.0007
▁huruf	-11.0008
▁InsyaAllah	-11.0008
syarikat	-11.0009
ski	-11.0011
dapat	-11.0011
Pu	-11.0012
▁rantau	-11.0013
▁kegagalan	-11.0014
▁sp	-11.0014
▁Hadiah	-11.0014
▁disana	-11.0015
▁dibahagikan	-11.0017
hyun	-11.0018
▁kolam	-11.0019
▁seram	-11.0021
▁Tre	-11.0022
▁Detail	-11.0022
▁Keputusan	-11.0024
blo	-11.0024
▁Terminal	-11.0024
ikut	-11.0025
▁protein	-11.0026
▁debat	-11.0026
▁mengembangkan	-11.0029
▁bazaarpaknil	-11.0029
hit	-11.0031
▁mende	-11.0035
▁Entah	-11.0036
▁tata	-11.0037
▁Mengulas	-11.0038
Ri	-11.0041
▁Bor	-11.0045
▁menyi	-11.0045
market	-11.0048
INA	-11.005
toko	-11.0052
ea	-11.0055
dagang	-11.0061
▁satay	-11.0062
▁email	-11.0062
▁some	-11.0063
▁komentar	-11.0063
▁65	-11.0067
▁mainan	-11.0068
▁mineral	-11.0069
▁sabtu	-11.0071
▁sosiologi	-11.0073
▁casing	-11.0074
GG	-11.0075
▁krisis	-11.0076
▁hihi	-11.0077
▁point	-11.0078
▁Kejohanan	-11.0078
▁hormat	-11.0078
▁Saddiq	-11.0082
saya	-11.0082
▁Bur	-11.0084
▁faedah	-11.0086
▁sorg	-11.0095
rest	-11.0096
▁berangkat	-11.0097
▁season	-11.0098
nggung	-11.0098
▁Sim	-11.0099
jok	-11.0099
ener	-11.01
▁news	-11.0102
▁Lampung	-11.0104
▁mengenakan	-11.0105
▁Umur	-11.0105
▁Ape	-11.0105
▁Panglima	-11.0107
▁masukkan	-11.0108
BE	-11.0108
2017	-11.011
gula	-11.011
▁driver	-11.0112
▁movie	-11.0115
▁domestik	-11.0115
zen	-11.0116
rani	-11.0116
▁jemput	-11.0117
▁nature	-11.0118
▁syg	-11.0118
logi	-11.0119
▁AC	-11.0121
FF	-11.0124
DAY	-11.0128
▁09	-11.013
▁Yusuf	-11.0132
▁Gratis	-11.0135
exclusive	-11.0136
KER	-11.0137
628	-11.0138
▁Just	-11.014
▁Hujan	-11.014
▁lelah	-11.0142
▁Simpang	-11.0143
▁Turun	-11.0144
▁Lampu	-11.0144
▁judul	-11.0147
▁PRODUK	-11.0148
terbaru	-11.0148
▁dn	-11.0152
syarat	-11.0152
▁Album	-11.0154
▁bangkit	-11.0154
▁Hj	-11.0155
antik	-11.0156
ahhh	-11.0156
lari	-11.0158
▁Zahid	-11.016
keras	-11.0161
sejati	-11.0164
▁denger	-11.0164
▁tergantung	-11.0164
▁Datang	-11.0167
yat	-11.0167
▁merancang	-11.0168
▁cabang	-11.0168
Jika	-11.0168
ism	-11.0169
yung	-11.0169
skripsi	-11.0169
▁engga	-11.017
▁nah	-11.0172
▁menampilkan	-11.0175
▁property	-11.0176
▁Bus	-11.0176
▁buruan	-11.0181
▁ditemukan	-11.0183
▁Ag	-11.0184
▁hantu	-11.0184
▁kabupaten	-11.0184
▁seluas	-11.0186
▁Bomba	-11.0188
LY	-11.0189
ated	-11.0193
▁Syawal	-11.0194
▁Done	-11.0194
foodies	-11.0195
▁caranya	-11.0197
▁may	-11.0201
are	-11.0205
lil	-11.0206
▁NEGERI	-11.0207
▁makhluk	-11.0209
▁maen	-11.0211
▁Pelabuhan	-11.0214
vis	-11.0215
▁rundingan	-11.0216
▁cenderung	-11.0218
▁double	-11.0219
▁scrub	-11.0219
▁Patut	-11.0221
▁Jenayah	-11.0221
▁Sek	-11.0224
▁41	-11.0228
▁menggambarkan	-11.0228
cs	-11.0229
lima	-11.0231
▁same	-11.0231
▁keja	-11.0231
▁37	-11.0233
kara	-11.0233
stor	-11.0237
▁melainkan	-11.0238
rumahtangga	-11.024
▁kanser	-11.0241
BAN	-11.0244
program	-11.0245
▁sale	-11.0246
aji	-11.0246
jet	-11.0249
▁Cap	-11.0249
bangsa	-11.025
▁Tukang	-11.0254
▁gr	-11.0255
Raja	-11.0256
105	-11.0258
fl	-11.026
▁tri	-11.026
▁Premium	-11.026
▁meluas	-11.0262
bli	-11.0266
▁Stesen	-11.0266
▁lumba	-11.0268
▁perform	-11.0275
▁pangkat	-11.0278
alih	-11.0279
PRU	-11.0279
ADA	-11.028
print	-11.0282
▁Md	-11.0284
nggang	-11.0284
▁imam	-11.0285
▁melepaskan	-11.0287
▁MH	-11.029
tsu	-11.029
▁pagar	-11.0292
▁menduduki	-11.0295
Ti	-11.0296
▁Blok	-11.0296
▁Manis	-11.0298
▁selfie	-11.0298
urus	-11.0301
▁camni	-11.0302
▁LO	-11.0302
▁Kacang	-11.0303
▁MESYUARAT	-11.0303
▁Wei	-11.0307
▁berminyak	-11.0307
▁sd	-11.0308
▁taw	-11.0308
▁penjagaan	-11.0308
cup	-11.0308
ys	-11.0309
▁Labuan	-11.031
nggal	-11.0311
sma	-11.0313
▁kunjungan	-11.0314
▁Ten	-11.0314
▁mengge	-11.0315
▁katil	-11.0315
▁special	-11.0318
▁mengganggu	-11.0323
▁Zulkifli	-11.0324
cok	-11.0324
▁delivery	-11.0325
sg	-11.0326
▁bobo	-11.0327
fair	-11.033
▁sejauh	-11.033
▁berguna	-11.0331
▁cem	-11.0332
▁Pun	-11.0333
hhhhh	-11.0334
▁bakat	-11.0335
▁penyebab	-11.0336
▁shalat	-11.0343
tahan	-11.0343
buahan	-11.0343
▁ngasih	-11.0343
▁perundangan	-11.0345
▁papan	-11.0348
pop	-11.0351
▁Mampu	-11.0352
▁jamu	-11.0352
fah	-11.0352
tho	-11.0353
▁SET	-11.0353
▁dimasukkan	-11.0353
bad	-11.0355
panas	-11.0356
▁mall	-11.0356
wt	-11.0357
▁merata	-11.0359
politik	-11.0361
▁85	-11.0361
▁atlet	-11.0363
▁lak	-11.0363
▁Rancangan	-11.0365
▁Kisah	-11.0366
▁heran	-11.0369
▁kenduri	-11.037
▁ideal	-11.0371
▁destinasi	-11.0371
larut	-11.0373
jelas	-11.0373
karakter	-11.0376
sili	-11.0379
RAN	-11.0379
▁fav	-11.0382
▁Penjara	-11.0382
▁membuang	-11.0383
▁Sehubungan	-11.0385
▁Diri	-11.0387
UA	-11.0393
EK	-11.0393
▁RUMAH	-11.0393
▁ALAN	-11.0393
▁rak	-11.0396
▁Sabu	-11.0398
saka	-11.0401
▁Mengenai	-11.0401
▁Pengguna	-11.0402
ava	-11.0404
▁WHATSAPP	-11.0407
▁kemanusiaan	-11.0407
▁perlukan	-11.0408
▁Janji	-11.0408
▁}	-11.0411
termurah	-11.0411
▁Uang	-11.0412
sayang	-11.0415
edit	-11.0418
arch	-11.0419
▁lembu	-11.042
pai	-11.0422
▁iftar	-11.0423
▁makanya	-11.0424
cafe	-11.0425
▁Pin	-11.0425
▁Asas	-11.0427
▁Semakin	-11.0428
kur	-11.0428
▁Via	-11.0429
▁wisuda	-11.043
taman	-11.0431
▁karoke	-11.0434
madu	-11.0437
sana	-11.0437
▁ajaran	-11.0438
▁libur	-11.0441
▁News	-11.0444
TB	-11.0444
▁Dewasa	-11.0446
▁Tahan	-11.0446
damai	-11.0447
BAT	-11.045
▁ragu	-11.0452
▁BO	-11.0452
▁gatal	-11.0454
▁Ste	-11.0455
▁berfikir	-11.0456
▁Lembah	-11.0458
▁Meskipun	-11.0458
▁diletakkan	-11.0462
CU	-11.0465
dri	-11.0466
kuasa	-11.0467
bantu	-11.0468
aging	-11.0468
▁since	-11.0469
dara	-11.047
▁LD	-11.047
▁ngerti	-11.0472
▁eksport	-11.0473
▁enggak	-11.0474
hitz	-11.0479
hrs	-11.048
real	-11.048
▁2003	-11.0481
ngka	-11.0482
▁JAKARTA	-11.0482
treatment	-11.0482
▁CARA	-11.0486
fir	-11.0486
▁Ikut	-11.0488
▁couple	-11.0491
SD	-11.0496
▁Cla	-11.05
▁korea	-11.0502
▁klia	-11.0502
fra	-11.0504
▁cemerlang	-11.0504
▁matlamat	-11.0504
nyaa	-11.0505
motivasi	-11.0506
rl	-11.0507
▁HAJI	-11.0509
▁book	-11.0513
▁membuatkan	-11.0513
fil	-11.0515
▁Belakang	-11.0516
board	-11.0517
▁foodie	-11.0518
saran	-11.052
vas	-11.0521
▁Om	-11.0522
tips	-11.0524
HAN	-11.0525
MAH	-11.053
▁ketara	-11.0532
cle	-11.0535
▁Plaza	-11.0535
▁lebat	-11.0536
roll	-11.0538
▁char	-11.054
▁Kepulauan	-11.054
▁Kayu	-11.0541
▁ngapain	-11.0544
▁44	-11.0546
buh	-11.0555
▁ganda	-11.0555
▁Gaji	-11.0556
apan	-11.0558
lab	-11.0559
sedondon	-11.0559
whitening	-11.0559
▁jadikan	-11.056
▁persiapan	-11.0561
YE	-11.0563
▁Mohammad	-11.0563
▁mematuhi	-11.0563
dem	-11.0567
▁ngopi	-11.0569
▁rogol	-11.057
shaklee	-11.057
LING	-11.057
▁39	-11.0571
▁pertamanya	-11.0575
▁autonomi	-11.0575
face	-11.0576
▁Sarjana	-11.0579
hadi	-11.058
branded	-11.058
3%	-11.0581
▁MURAH	-11.0582
▁Gaya	-11.0583
▁Agar	-11.0583
▁beserta	-11.0585
▁diketuai	-11.0587
rey	-11.0589
▁mara	-11.0589
▁properti	-11.059
▁putrajaya	-11.059
▁kayaknya	-11.0593
she	-11.0594
ril	-11.0596
▁pertuduhan	-11.0597
ganggu	-11.0598
ters	-11.0599
▁berhadapan	-11.0602
▁supplier	-11.0602
▁Hahahah	-11.0603
▁Van	-11.0606
lg	-11.0607
▁Siri	-11.0607
▁mencipta	-11.0609
▁bisnes	-11.0614
culture	-11.0616
kad	-11.0618
▁AJA	-11.0619
▁peluru	-11.062
▁semestinya	-11.062
▁sam	-11.0621
TANG	-11.0621
▁perayaan	-11.0622
▁mengelak	-11.0622
KET	-11.0624
▁cleanser	-11.0625
▁art	-11.0625
▁biarkan	-11.0626
▁ibunya	-11.0626
▁pajak	-11.0628
▁celcom	-11.0629
▁Sub	-11.0637
dium	-11.0638
uda	-11.0639
▁disahkan	-11.0639
▁DPR	-11.064
▁mix	-11.0642
▁syiah	-11.0646
▁nii	-11.0649
▁rakaman	-11.0651
hr	-11.0651
▁aduh	-11.0652
▁tumbuhan	-11.0652
cabut	-11.0652
▁menguruskan	-11.0653
▁Serius	-11.0658
▁Gimana	-11.0659
friendly	-11.066
ane	-11.066
dog	-11.0663
▁Utk	-11.0663
▁gelas	-11.0664
▁Ustadz	-11.0664
ric	-11.0667
▁beautiful	-11.0667
oftheday	-11.067
mie	-11.067
▁diorder	-11.0671
▁46	-11.0671
▁Berapa	-11.0673
▁kelakar	-11.0673
▁perlembagaan	-11.0673
▁ahh	-11.0675
py	-11.068
Syiah	-11.0685
▁moto	-11.0685
▁impak	-11.0688
TT	-11.0689
▁tahunan	-11.0691
▁bossku	-11.0693
▁Zahir	-11.0695
squad	-11.0696
mpu	-11.0699
▁Mandi	-11.0701
▁Dress	-11.0708
▁POSTAGE	-11.0711
pengantin	-11.0711
hitung	-11.0712
▁JUGA	-11.0713
▁varian	-11.0714
▁tipe	-11.0716
▁komited	-11.0717
samarinda	-11.0717
▁PUTRAJAYA	-11.0719
Dalam	-11.0719
▁Gombak	-11.0725
▁pc	-11.0726
▁State	-11.0729
lish	-11.073
▁lintas	-11.0733
▁konsumsi	-11.0733
baris	-11.0734
▁sofa	-11.0738
kle	-11.0738
▁Penerbit	-11.074
gre	-11.074
second	-11.0741
malaya	-11.0741
beng	-11.0745
▁Metro	-11.0745
minggu	-11.0748
085	-11.075
▁MCA	-11.0753
▁bakso	-11.0753
▁Serum	-11.0754
eta	-11.0754
▁ratusan	-11.0757
timur	-11.076
▁Pastikan	-11.076
▁koko	-11.0763
KG	-11.0764
▁Kondisi	-11.0764
rg	-11.0766
▁Bantu	-11.0767
count	-11.077
▁pameran	-11.077
▁menghargai	-11.0771
booster	-11.0771
▁die	-11.0771
SEN	-11.0773
wee	-11.0774
▁diploma	-11.0778
▁take	-11.0779
may	-11.0781
▁pengunjung	-11.0782
▁mac	-11.0782
lian	-11.0782
▁cair	-11.0784
▁Malik	-11.0787
▁Payudara	-11.0787
AB	-11.0788
wad	-11.0788
▁uols	-11.0789
▁Sik	-11.0789
▁bersaing	-11.0798
▁Now	-11.0799
▁too	-11.08
APA	-11.0801
▁Puncak	-11.0801
▁Ulama	-11.0801
▁paksa	-11.0802
▁Cat	-11.0803
▁Karya	-11.0806
▁milk	-11.0807
ndu	-11.0808
▁siasat	-11.0808
▁menurun	-11.0809
▁liter	-11.0809
190	-11.0809
▁kalung	-11.0813
Ia	-11.0815
▁denda	-11.0816
▁munisipaliti	-11.0817
▁mukim	-11.0819
gri	-11.0819
▁Itulah	-11.082
▁lps	-11.082
▁belas	-11.0821
▁block	-11.0822
bing	-11.0822
▁makna	-11.0828
cet	-11.0828
▁Strategi	-11.083
itan	-11.083
▁pembentukan	-11.0831
▁pakcik	-11.0836
▁Rendah	-11.0837
▁Stock	-11.0838
▁Ran	-11.0838
▁Bayi	-11.0839
▁mengendalikan	-11.0842
▁rice	-11.0843
▁Pelajaran	-11.0843
▁sijil	-11.0845
rot	-11.0846
pg	-11.0847
gila	-11.0848
▁them	-11.085
▁125	-11.0852
▁mengarahkan	-11.0854
▁ijo	-11.0858
▁rame	-11.0862
▁Malas	-11.0866
burg	-11.0868
▁Mag	-11.0871
hand	-11.0872
lokal	-11.0873
▁ECRL	-11.0875
kum	-11.0878
▁Pekerja	-11.0878
▁dibilang	-11.0879
▁Chan	-11.0881
bahagia	-11.0882
cel	-11.0886
▁damai	-11.0889
▁red	-11.0889
▁bengkel	-11.0889
nau	-11.089
▁prosedur	-11.089
▁BUMN	-11.089
▁memb	-11.0891
▁Lebar	-11.0892
▁catering	-11.0892
hri	-11.0893
▁gaada	-11.0894
▁Sch	-11.0896
▁anjuran	-11.0897
ugh	-11.0897
▁menaikkan	-11.0899
▁Wajah	-11.0899
▁nek	-11.0899
▁pertukaran	-11.0901
Jadi	-11.0902
Du	-11.0905
bot	-11.0906
ery	-11.0909
▁class	-11.091
▁34	-11.091
▁||	-11.0911
▁06	-11.0914
▁kompleks	-11.0915
▁mode	-11.0919
tron	-11.092
▁1997	-11.0921
▁Telah	-11.0923
ev	-11.0923
PT	-11.0923
▁dipasang	-11.0924
ais	-11.0927
TEN	-11.093
▁batuk	-11.093
▁catatan	-11.0931
▁LINK	-11.0932
▁Member	-11.0935
ANDA	-11.0938
gem	-11.0938
▁lahan	-11.0938
▁Rang	-11.094
mark	-11.0941
▁Hijau	-11.0942
▁pemantauan	-11.0942
RS	-11.0942
chen	-11.0944
▁berpendapat	-11.0945
▁gold	-11.0946
▁mencatat	-11.0946
▁repost	-11.0946
eni	-11.0949
▁Tam	-11.0949
wisata	-11.0951
▁Tambahan	-11.0951
▁Cor	-11.0951
▁diperoleh	-11.0956
DAR	-11.0957
Shop	-11.096
gok	-11.096
▁Hy	-11.0962
read	-11.0962
▁Siasatan	-11.0964
▁Sidang	-11.0964
▁sangka	-11.0965
▁yak	-11.0966
▁pinjam	-11.0966
▁kemasukan	-11.0967
undi	-11.0969
mpuan	-11.0972
▁Gubernur	-11.0972
AKAN	-11.0973
AGA	-11.0974
▁tentunya	-11.0978
▁mee	-11.0979
nja	-11.098
ale	-11.0981
naga	-11.0984
▁revolusi	-11.0984
▁wish	-11.0985
yra	-11.0987
ew	-11.0988
▁MP	-11.0989
▁Kredit	-11.099
pung	-11.0991
▁Pesan	-11.0992
▁Semarang	-11.0992
▁bus	-11.0992
▁kendaraan	-11.0994
▁muat	-11.0994
916	-11.0995
tn	-11.0995
▁into	-11.0996
riau	-11.0999
▁Besi	-11.0999
janji	-11.1006
▁43	-11.1006
▁asrama	-11.1006
▁dukungan	-11.1008
kelantan	-11.1009
▁result	-11.1011
▁mikro	-11.1012
WAN	-11.1015
▁bis	-11.1016
sos	-11.1016
update	-11.1017
▁wahabi	-11.1018
▁Kesehatan	-11.1019
▁menamatkan	-11.1021
borong	-11.1022
challenge	-11.1024
▁1980	-11.103
▁mengalir	-11.1032
cl	-11.1033
sela	-11.1034
▁Mobile	-11.1035
ese	-11.1039
▁fans	-11.104
▁organ	-11.1041
1%	-11.1042
terpercaya	-11.1042
peplum	-11.1043
▁dikaitkan	-11.1043
fik	-11.1044
▁Pria	-11.1045
arang	-11.1047
▁help	-11.1048
moto	-11.1048
▁PR	-11.1049
mono	-11.105
GAR	-11.1051
▁Big	-11.1051
▁Cam	-11.1053
▁konteks	-11.1053
▁JPenerangan	-11.1056
▁healthy	-11.1057
▁portal	-11.1057
oni	-11.1058
▁mukena	-11.1058
▁PBB	-11.1059
ngkang	-11.106
var	-11.1062
▁beragama	-11.1063
kuliah	-11.1065
▁Ze	-11.1066
▁kehabisan	-11.1069
usan	-11.1069
▁nafas	-11.1069
kab	-11.1071
▁Mel	-11.1071
dad	-11.1074
▁sokong	-11.1075
ash	-11.1077
model	-11.1083
UNI	-11.1085
▁Fre	-11.1086
▁kasur	-11.1086
PAN	-11.1088
ista	-11.1089
▁cili	-11.1089
▁dicapai	-11.1089
As	-11.109
▁jantan	-11.1091
▁komersial	-11.1093
oooo	-11.1094
uji	-11.1095
ksi	-11.1095
▁bacaan	-11.1098
hon	-11.1099
spot	-11.11
▁latar	-11.11
▁astro	-11.1102
▁ngo	-11.1103
tudung	-11.1103
bungkus	-11.1104
▁Lima	-11.1106
anta	-11.1107
▁Bodoh	-11.1108
▁Sapa	-11.111
rio	-11.1111
▁KLIA	-11.1111
▁maksudnya	-11.1112
▁publik	-11.1113
▁0856	-11.1114
▁teknikal	-11.1115
▁48	-11.1119
▁berlakon	-11.1122
well	-11.1125
OO	-11.1127
belajar	-11.1128
▁Gar	-11.1129
▁House	-11.113
▁Mulia	-11.1131
▁blue	-11.1133
▁wes	-11.1134
▁Singapore	-11.1135
PDRM	-11.1136
▁hard	-11.1137
▁akta	-11.1137
lemak	-11.1139
▁Amir	-11.1142
gai	-11.1143
ganti	-11.1143
▁trip	-11.1143
angkut	-11.1146
NU	-11.1146
▁oil	-11.1147
▁parkir	-11.1148
▁Seluruh	-11.1151
afi	-11.1151
harian	-11.1151
bh	-11.1151
▁BH	-11.1151
▁kecederaan	-11.1152
firm	-11.1152
▁Rasanya	-11.1154
jil	-11.1155
GE	-11.116
best	-11.1161
ges	-11.1162
▁arwah	-11.1164
▁skirt	-11.1165
jung	-11.1166
▁kete	-11.1166
paytren	-11.1167
▁HD	-11.1167
▁disuruh	-11.1168
▁capek	-11.1168
▁takyah	-11.1168
▁GT	-11.117
▁fff	-11.1172
▁merasmikan	-11.1172
▁punggung	-11.1173
▁Karna	-11.1173
▁mendalam	-11.1173
▁siswa	-11.1174
pari	-11.1175
▁give	-11.1176
kos	-11.1176
▁Insya	-11.1181
▁If	-11.1182
▁Huawei	-11.1183
▁Ruang	-11.1184
hang	-11.1184
▁beza	-11.1187
MR	-11.1188
▁kfc	-11.1188
▁perfume	-11.1188
▁ATAU	-11.119
▁Banten	-11.119
▁Pemimpin	-11.1193
▁Menara	-11.1194
TR	-11.1195
▁Myanmar	-11.1196
sentuh	-11.1196
mewah	-11.1196
▁dinyatakan	-11.12
▁diabetes	-11.1202
▁radikal	-11.1202
▁Cheras	-11.1206
▁topi	-11.1207
▁artinya	-11.1209
▁detik	-11.1215
ngg	-11.1215
▁diwujudkan	-11.1215
▁Membuat	-11.1216
TOR	-11.1224
▁seronok	-11.1224
▁Paul	-11.1225
▁Merdeka	-11.123
▁Bala	-11.1232
fin	-11.1234
▁want	-11.1235
▁Kristian	-11.1235
▁Bung	-11.1235
▁William	-11.1243
▁Sta	-11.1244
tama	-11.1246
wak	-11.1247
▁UPDATE	-11.1248
crepe	-11.1249
▁prof	-11.1251
▁Tom	-11.1252
▁Syarat	-11.1253
yyy	-11.1253
▁perlengkapan	-11.1254
▁SAW	-11.1254
5%;	-11.1256
gresik	-11.1258
was	-11.126
▁Bau	-11.1261
SPRM	-11.1263
▁teratur	-11.1263
sby	-11.1264
▁mun	-11.1264
jokowi	-11.1265
▁mengisi	-11.1267
▁SMP	-11.1268
uas	-11.127
GP	-11.1271
▁Sayur	-11.1273
lock	-11.1273
▁racun	-11.1273
gaya	-11.1273
▁keliatan	-11.1274
▁Kantor	-11.1275
▁CO	-11.1276
▁penerbitan	-11.1277
balan	-11.1278
▁Sebanyak	-11.1279
▁memba	-11.1279
▁Dada	-11.1284
syen	-11.1284
pesta	-11.1285
jb	-11.1289
▁bandara	-11.129
▁Meski	-11.129
▁teras	-11.1291
legend	-11.1294
▁Mara	-11.1295
▁Awang	-11.1303
ungkap	-11.1304
▁Dus	-11.1305
▁MARA	-11.1306
▁Besok	-11.1309
▁stasiun	-11.1309
▁Alasan	-11.131
▁bera	-11.1312
▁nambah	-11.1314
▁memerintah	-11.1314
nasa	-11.1315
eli	-11.1315
▁liar	-11.1318
▁Kebun	-11.1318
▁DKI	-11.1319
▁kudu	-11.132
▁dikira	-11.1323
▁gabung	-11.1325
▁MAC	-11.1327
▁jimat	-11.1327
jeans	-11.1328
▁Kualitas	-11.1329
▁pengumuman	-11.1329
▁Kerana	-11.1329
▁PARLIMEN	-11.1333
▁Bener	-11.1335
selatan	-11.1335
rotan	-11.1336
▁lirik	-11.1336
▁Mera	-11.1338
▁tauhid	-11.1338
jambi	-11.1339
▁cawangan	-11.1341
▁company	-11.1346
▁brunei	-11.1346
hani	-11.1351
dasar	-11.1352
▁adem	-11.1356
▁mekanisme	-11.1358
▁Spa	-11.1359
▁Revolusi	-11.136
▁kubu	-11.136
▁lbh	-11.136
▁KPK	-11.1361
▁memandu	-11.1362
▁Petronas	-11.1362
▁keep	-11.1363
los	-11.1363
▁jemaah	-11.1367
▁apply	-11.1367
▁Price	-11.1368
erat	-11.1369
fel	-11.1369
212	-11.1369
ISI	-11.1369
ringan	-11.1371
▁lahh	-11.1372
▁zip	-11.1373
▁Hungary	-11.1373
dih	-11.1373
▁Polri	-11.1373
%	-11.1376
▁dibentuk	-11.1376
tensi	-11.1376
▁karet	-11.1379
▁Empat	-11.1381
balikpapan	-11.1382
▁anggap	-11.1384
▁angkatan	-11.1384
▁penuaan	-11.1384
kawasan	-11.1386
▁dirimu	-11.1387
masuk	-11.1388
▁gaes	-11.1388
▁google	-11.1388
▁Warisan	-11.139
music	-11.1391
▁penipuan	-11.1392
bed	-11.1393
dian	-11.1394
rep	-11.1394
▁sudi	-11.1395
▁Ain	-11.1397
gemuk	-11.1397
▁Tiap	-11.1397
▁Menang	-11.1398
series	-11.14
▁merokok	-11.14
▁penyu	-11.1401
KK	-11.1404
▁Eks	-11.1404
KS	-11.1405
▁Sepanjang	-11.1406
▁berlian	-11.1406
▁beraksi	-11.1407
▁Senarai	-11.1407
biasa	-11.1407
UD	-11.1408
▁PROMOSI	-11.1419
▁comment	-11.142
▁School	-11.142
▁favorit	-11.1421
7%	-11.1422
▁mengemukakan	-11.1424
rate	-11.1426
▁Bayar	-11.1427
▁ingatkan	-11.1427
ADI	-11.1432
plum	-11.1432
▁jagung	-11.1432
uti	-11.1434
▁extra	-11.1434
▁dipermudahkan	-11.1435
bone	-11.1437
▁Len	-11.144
▁bising	-11.1442
▁darat	-11.1442
▁Shu	-11.1443
▁manja	-11.1446
masi	-11.1447
▁khawatir	-11.1448
▁kemasan	-11.1452
furniture	-11.1453
▁malay	-11.1453
EP	-11.1454
▁meriah	-11.1456
▁usul	-11.1456
water	-11.1457
▁eks	-11.1458
kuning	-11.1458
▁Ani	-11.1459
▁berlalu	-11.1459
▁penyertaan	-11.146
▁mega	-11.146
ln	-11.146
▁Us	-11.1461
▁cewek	-11.1461
▁Zip	-11.1462
▁staff	-11.1464
▁years	-11.1465
bio	-11.1465
2,000	-11.1465
▁KENAPA	-11.1467
dinding	-11.1468
gut	-11.1469
▁BU	-11.1469
▁terjaga	-11.1469
▁pengenalan	-11.1471
▁Hol	-11.1472
▁Olimpik	-11.1473
▁menjaringkan	-11.1475
▁Segala	-11.1479
▁kalori	-11.1479
sederhana	-11.148
▁JNE	-11.1481
▁Adalah	-11.1483
▁Ari	-11.1483
hwan	-11.1483
▁Aplikasi	-11.1484
▁ketidak	-11.1485
▁menempatkan	-11.1486
ries	-11.1487
minang	-11.1487
▁sure	-11.1489
▁green	-11.1491
▁keluarganya	-11.1493
▁Jati	-11.1495
▁pengembangan	-11.1495
▁XS	-11.1497
lom	-11.1504
▁Galaxy	-11.1504
mpat	-11.1505
▁permasalahan	-11.1509
▁JOM	-11.151
▁jejak	-11.1513
angka	-11.1513
▁FOLLOW	-11.1513
▁maksimum	-11.1515
▁umno	-11.1516
▁sayuran	-11.1516
▁betapa	-11.1517
▁pemulihan	-11.152
▁Kakak	-11.1521
▁0877	-11.1523
group	-11.1524
▁organik	-11.1525
▁NEW	-11.1525
Pada	-11.1527
enang	-11.1529
▁kode	-11.153
▁lidah	-11.1534
uw	-11.1536
▁TERBAIK	-11.1536
▁Hingga	-11.1536
▁pengedar	-11.1536
▁2013,	-11.1538
▁pahang	-11.1539
▁Daya	-11.154
▁otot	-11.154
▁Tk	-11.1542
▁kembang	-11.1543
▁bedak	-11.1545
▁Live	-11.1547
link	-11.1547
aziz	-11.1548
▁meletop	-11.155
▁clean	-11.155
plastik	-11.1551
▁PERTAMA	-11.1551
▁sikat	-11.1552
▁menyu	-11.1552
sian	-11.1552
▁hendaklah	-11.1553
blouse	-11.1554
▁menikah	-11.1556
4%	-11.1559
▁Zain	-11.156
▁tinggalkan	-11.156
▁Tamil	-11.1561
AJA	-11.1561
bentuk	-11.1561
▁sesebuah	-11.1562
ENT	-11.1563
hq	-11.1564
lanjut	-11.1564
▁parfum	-11.1565
▁nmpk	-11.1567
lukis	-11.157
▁Kad	-11.1573
GAN	-11.1573
▁mangga	-11.1575
lace	-11.1579
▁penyelenggaraan	-11.158
▁berbahasa	-11.158
▁morning	-11.1581
▁Ch	-11.1582
▁perodua	-11.1582
▁ABDUL	-11.1583
▁box	-11.1583
bn	-11.1588
▁diarahkan	-11.1589
▁Share	-11.1589
▁feel	-11.159
▁Terdahulu	-11.1591
Do	-11.1592
▁diserahkan	-11.1592
▁ribuan	-11.1592
▁siaran	-11.1593
gulung	-11.1596
dhi	-11.1599
haha	-11.1599
▁studio	-11.1599
▁fan	-11.16
▁card	-11.16
▁penga	-11.1603
kami	-11.1604
▁cetak	-11.1606
ier	-11.1608
▁diluar	-11.1609
▁Wkwk	-11.161
▁CIMB	-11.161
▁Beda	-11.161
▁runcit	-11.161
▁fon	-11.1612
▁pindaan	-11.1612
▁instadaily	-11.1613
lisa	-11.1614
▁Damansara	-11.1617
IAN	-11.1618
▁Pondok	-11.1619
rip	-11.1619
▁trend	-11.1624
▁Area	-11.1625
▁tshirt	-11.1625
bajumurah	-11.1626
▁thanks	-11.1627
▁Saudara	-11.1627
ruk	-11.1628
bayang	-11.1631
hapus	-11.1632
banding	-11.1633
▁imej	-11.1634
paru	-11.1636
▁internasional	-11.1637
▁well	-11.1637
▁YouTube	-11.1637
TING	-11.1638
▁dolar	-11.164
▁simbol	-11.164
DT	-11.164
▁kekuasaan	-11.1642
cium	-11.1643
CP	-11.1645
▁murtabak	-11.1646
▁pembukaan	-11.1647
RR	-11.1648
▁Pilpres	-11.165
▁keluasan	-11.1651
Sport	-11.1653
ija	-11.1654
▁berkumpul	-11.1655
▁pembunuhan	-11.1655
ncang	-11.1658
▁Nar	-11.1659
▁menyentuh	-11.166
▁netizen	-11.166
▁manifesto	-11.1662
vers	-11.1662
blogger	-11.1663
▁THE	-11.1663
▁kabinet	-11.1664
lupa	-11.1666
▁Bre	-11.1666
▁menanti	-11.1667
▁Perbadanan	-11.1668
sional	-11.1668
▁Banjar	-11.1669
▁hemat	-11.1671
karawang	-11.1671
▁gelar	-11.1672
▁tipis	-11.1673
bud	-11.1676
▁350	-11.1676
▁lemon	-11.1677
▁Komunis	-11.168
loh	-11.1682
tali	-11.1683
copy	-11.1683
▁public	-11.1688
▁keuangan	-11.1689
▁0823	-11.1691
▁terbitan	-11.1691
6%	-11.1692
▁Asam	-11.1695
ngat	-11.1695
▁ayamgoreng	-11.1696
▁berpotensi	-11.1696
▁berupaya	-11.1697
▁cukur	-11.1698
▁Jer	-11.1699
langsing	-11.1702
▁Development	-11.1703
YO	-11.1703
▁mampir	-11.1706
cial	-11.1708
▁followers	-11.1708
▁Saja	-11.1708
NY	-11.171
▁ASLI	-11.171
▁pesen	-11.1712
▁berjudul	-11.1712
▁Miss	-11.1715
▁dimulai	-11.1715
tat	-11.1716
▁Maszlee	-11.1719
▁adu	-11.172
▁Makanya	-11.1721
▁menafikan	-11.1721
urban	-11.1724
Daerah	-11.1724
shah	-11.1725
▁penghargaan	-11.1726
ultah	-11.1726
seller	-11.1728
▁singapore	-11.173
SL	-11.173
fruit	-11.1731
instan	-11.1732
fal	-11.1733
timbang	-11.1733
▁reka	-11.1734
marah	-11.1735
▁penelitian	-11.1736
▁Home	-11.1736
not	-11.1738
▁Gel	-11.1739
ago	-11.174
kol	-11.1741
hasil	-11.1744
▁keluaran	-11.1744
▁Komuniti	-11.1744
karat	-11.1745
▁04	-11.1747
RIS	-11.1748
operasi	-11.1748
pasti	-11.1749
siti	-11.1751
▁petrol	-11.1756
vol	-11.176
▁dianggarkan	-11.1763
▁lazada	-11.1763
▁mampus	-11.1766
alaikum	-11.1767
pir	-11.1767
▁keganasan	-11.1767
▁aturan	-11.1769
▁sejam	-11.177
▁chicken	-11.177
door	-11.177
▁keju	-11.1772
banten	-11.1776
▁wayang	-11.1777
▁menghormati	-11.1779
▁Puchong	-11.1779
▁Bidang	-11.178
turut	-11.178
zul	-11.178
▁much	-11.1782
▁Bay	-11.1783
▁warisan	-11.1783
cetak	-11.1784
▁Road	-11.1786
massage	-11.1786
hwa	-11.1786
▁Mary	-11.1787
▁maybe	-11.1788
▁batas	-11.1789
▁Hub	-11.1789
▁cool	-11.179
pasar	-11.1791
▁literasi	-11.1791
jong	-11.1791
cro	-11.1795
▁sedemikian	-11.1795
naik	-11.1795
mia	-11.1797
▁semak	-11.1798
▁alaihi	-11.18
▁Memper	-11.1801
jepara	-11.1801
pong	-11.1804
▁pacaran	-11.1809
▁match	-11.1811
▁karyawan	-11.1813
▁Perusahaan	-11.1813
▁toilet	-11.1814
DUN	-11.1817
rich	-11.1818
▁konser	-11.1819
▁Borneo	-11.182
▁mempengaruhi	-11.182
▁Please	-11.182
zone	-11.1825
aian	-11.1826
▁kaitan	-11.1829
▁khasiat	-11.1832
▁Bat	-11.1833
lawat	-11.1834
▁secukupnya	-11.1834
▁Bandaraya	-11.1836
▁surga	-11.1842
rim	-11.1842
Yang	-11.1842
▁night	-11.1846
struktur	-11.1847
▁mok	-11.1847
▁seimbang	-11.1847
▁Jarang	-11.1848
▁Fast	-11.1848
450	-11.1848
▁semulajadi	-11.1849
play	-11.1849
▁ideologi	-11.1853
uc	-11.1858
▁memanggil	-11.1859
▁selengkapnya	-11.186
▁Tarikh	-11.1864
AHAN	-11.1865
ARA	-11.1866
▁pertempuran	-11.1867
▁miliar	-11.1868
▁sapi	-11.1871
▁jeans	-11.1875
besi	-11.1876
olo	-11.188
▁Mengapa	-11.1882
▁neraka	-11.1884
lly	-11.1885
resep	-11.1889
kuningan	-11.1891
▁abu	-11.1891
▁dibantu	-11.1892
▁Kampus	-11.1892
▁dateng	-11.1892
skirt	-11.1893
▁kentang	-11.1894
▁insentif	-11.1894
▁dugaan	-11.1895
RC	-11.1896
▁sweater	-11.1898
▁Water	-11.1898
▁style	-11.1899
▁peta	-11.1899
▁semakan	-11.19
kualalumpur	-11.1901
▁cotton	-11.1901
▁investor	-11.1901
▁End	-11.1902
▁number	-11.1902
ssss	-11.1903
▁poster	-11.1903
cuk	-11.1903
tia	-11.1905
got	-11.1906
cher	-11.1907
▁sajak	-11.1907
▁AWANI	-11.1909
▁Syukur	-11.191
▁ttg	-11.1912
DC	-11.1913
8%	-11.1915
SIS	-11.1919
▁Batin	-11.1919
▁berbincang	-11.1921
lombok	-11.1922
▁Chelsea	-11.1922
▁telekung	-11.1923
▁pengurus	-11.1924
▁vivo	-11.1925
magelang	-11.1925
▁Syria	-11.1926
▁mencatatkan	-11.1926
hadiah	-11.1927
▁proton	-11.1928
▁Jasa	-11.1928
▁Sg	-11.193
▁Cukai	-11.193
▁Kamar	-11.1932
▁Pemain	-11.1932
▁aidilfitri	-11.1933
▁ujarnya	-11.1934
cooking	-11.1934
mn	-11.1937
▁sambel	-11.1939
▁Paris	-11.1939
▁busuk	-11.1939
▁diraja	-11.1943
menyusu	-11.1943
scape	-11.1945
besaran	-11.1945
wn	-11.1946
▁disiasat	-11.1948
▁Mobil	-11.195
▁menawan	-11.1952
Mas	-11.1953
unggul	-11.1955
▁KULIT	-11.1958
▁OPEN	-11.1958
▁Bos	-11.196
▁berjumpa	-11.1961
▁tgl	-11.1961
▁teriak	-11.1963
▁kapitalisme	-11.1964
▁Daun	-11.1965
Ko	-11.1966
▁Pelancongan	-11.1967
▁yamaha	-11.1967
shot	-11.1968
rendah	-11.1968
▁Game	-11.1969
▁Coklat	-11.1969
▁Tujuan	-11.1972
▁Bentuk	-11.1972
LAT	-11.1977
KES	-11.1978
▁bb	-11.1978
▁puluh	-11.1978
seluruh	-11.198
oven	-11.1981
▁Mont	-11.1982
▁latitude	-11.1982
gizi	-11.1983
KIT	-11.1983
▁postingan	-11.1987
▁kononnya	-11.1988
▁Then	-11.1989
▁kitab	-11.199
▁diharapkan	-11.199
▁nda	-11.1991
▁senyap	-11.1993
▁Sambil	-11.1996
▁peka	-11.1998
▁wong	-11.1998
▁Hot	-11.1999
▁Switzerland	-11.2
▁santan	-11.2
menang	-11.2001
awa	-11.2004
university	-11.2006
utara	-11.2007
▁komik	-11.2008
campur	-11.2008
craft	-11.201
wis	-11.2011
:30	-11.2011
▁dianjurkan	-11.2012
▁membela	-11.2012
senang	-11.2013
▁direka	-11.2014
▁Thai	-11.2017
▁tindak	-11.2017
tuan	-11.2018
Sha	-11.2019
diamond	-11.2019
▁Cream	-11.2021
▁PERCUMA	-11.2021
▁terperinci	-11.2021
jiwa	-11.2022
▁lebuh	-11.2022
lewat	-11.2022
mut	-11.2024
NK	-11.2025
Jo	-11.2025
gombak	-11.2026
call	-11.2028
▁teksi	-11.2029
▁Tea	-11.2029
▁larangan	-11.203
▁war	-11.203
▁Lol	-11.2031
berkualitas	-11.2035
▁mengembalikan	-11.2035
▁rehat	-11.2037
▁menghabiskan	-11.2037
ruangtamu	-11.2038
jujur	-11.2038
ndo	-11.2039
▁landasan	-11.204
▁Palembang	-11.204
jk	-11.2042
celana	-11.2044
nen	-11.2045
sports	-11.2049
▁pabrik	-11.2049
bayar	-11.205
▁NA	-11.2051
▁Zakir	-11.2055
▁George	-11.2058
aju	-11.2059
GER	-11.2061
▁ditukar	-11.2062
BAH	-11.2063
SG	-11.2063
▁handphone	-11.2065
ao	-11.2068
ilmu	-11.2072
▁XXL	-11.2072
▁terjangkau	-11.2073
▁Polres	-11.2075
▁ajib	-11.2075
MK	-11.2075
ceria	-11.2076
FT	-11.2076
▁mencerahkan	-11.2078
▁bogor	-11.2078
▁gamau	-11.2082
topup	-11.2086
leg	-11.2088
ddy	-11.2089
lea	-11.2089
▁Hahah	-11.209
▁denggi	-11.2091
▁ikon	-11.2091
▁pemaju	-11.2092
▁berhati	-11.2093
▁Body	-11.2093
▁pojok	-11.2093
▁roda	-11.2093
property	-11.2094
Tak	-11.2101
▁penilaian	-11.2101
pori	-11.2102
▁tambang	-11.2102
usa	-11.2103
cent	-11.2104
▁longtitud	-11.2107
▁wahai	-11.2107
▁KLIK	-11.2108
▁klasik	-11.2109
zat	-11.2109
wh	-11.2109
▁asasi	-11.2109
▁Ara	-11.2111
▁KAMU	-11.2112
▁Kek	-11.2116
fol	-11.2119
▁kala	-11.2124
brand	-11.2129
▁ngajak	-11.213
▁Ibnu	-11.2134
ı	-11.2134
▁HAHAHA	-11.2136
SR	-11.2136
kesihatan	-11.2139
▁baja	-11.2141
▁Rahim	-11.2142
wisuda	-11.2143
▁stadium	-11.2144
▁Jogja	-11.2145
fri	-11.2147
▁bazaar	-11.2151
▁berpikir	-11.2151
wig	-11.2152
▁always	-11.2153
▁Malay	-11.2155
mpak	-11.2157
▁Peluang	-11.2158
▁mc	-11.2159
▁ribut	-11.2162
▁menangkap	-11.2162
▁Minuman	-11.2164
▁upm	-11.2165
▁seafood	-11.2166
mbi	-11.2166
▁terbakar	-11.2168
▁pondok	-11.2168
▁menukar	-11.2169
mpah	-11.2171
▁Hand	-11.2173
▁Mur	-11.2175
tory	-11.2176
▁comp	-11.218
ien	-11.218
▁muntah	-11.218
villa	-11.2182
IB	-11.2182
▁adat	-11.2184
▁kabel	-11.2185
▁bajet	-11.2185
hamil	-11.2187
sil	-11.2187
▁homedecor	-11.2188
▁Street	-11.2188
▁kerosakan	-11.219
▁hantaran	-11.2191
▁Api	-11.2191
thu	-11.2197
KAL	-11.2198
▁Nomor	-11.2201
▁Fin	-11.2202
▁virus	-11.2203
table	-11.2205
lic	-11.2208
▁Madu	-11.2208
▁hancur	-11.2208
pack	-11.2211
▁medis	-11.2212
▁satunya	-11.2214
▁nemu	-11.2215
▁SIZE	-11.2215
▁kantong	-11.2217
PB	-11.2217
nuskin	-11.2218
▁Pukul	-11.2218
▁cake	-11.222
sex	-11.222
sj	-11.2222
▁fe	-11.2224
stri	-11.2224
wok	-11.2224
▁bit	-11.2226
▁taktau	-11.2226
mbong	-11.2227
▁pencegahan	-11.2228
▁Bersih	-11.2229
▁Perubatan	-11.2229
ragam	-11.2229
seragam	-11.223
NGO	-11.223
▁objek	-11.223
▁Bandara	-11.2231
▁zahir	-11.2231
▁KAU	-11.2231
zin	-11.2232
▁Cup	-11.2236
jol	-11.2236
yen	-11.2237
ahan	-11.2239
▁TAHUN	-11.2241
▁kubur	-11.2241
▁West	-11.2242
▁saing	-11.2242
▁gereja	-11.2243
▁Menye	-11.2249
▁dialami	-11.2253
▁Br	-11.2253
plan	-11.2254
▁mane	-11.2255
▁bendera	-11.2255
▁Celana	-11.2257
polis	-11.2258
▁ditempatkan	-11.2258
jib	-11.2259
▁Hampir	-11.226
▁pengganti	-11.226
▁usus	-11.2261
ford	-11.2261
▁Blue	-11.2262
▁contohnya	-11.2264
▁milih	-11.2265
▁sekedar	-11.2265
▁pasca	-11.2267
Kalau	-11.2268
▁Lengan	-11.227
bekal	-11.227
▁Bru	-11.2271
▁North	-11.2272
▁melantik	-11.2276
▁asik	-11.2279
pod	-11.228
▁warganegara	-11.228
station	-11.228
▁Trafik	-11.2281
darah	-11.2282
▁lurus	-11.2284
▁fasilitas	-11.2284
perempuan	-11.2284
▁semi	-11.2285
▁dap	-11.2286
▁persidangan	-11.2286
▁photography	-11.229
▁menciptakan	-11.2291
▁Kaki	-11.2291
▁bts	-11.2295
▁honda	-11.2298
trans	-11.2298
▁maap	-11.2299
▁seger	-11.23
▁jadinya	-11.2301
NC	-11.2301
▁Bulu	-11.2304
▁universitas	-11.2305
AAN	-11.2305
▁massa	-11.2305
▁tahniah	-11.2308
999	-11.2308
▁terjun	-11.2309
rose	-11.2311
▁Keterangan	-11.2311
▁memimpin	-11.2313
▁110	-11.2314
▁both	-11.2315
▁Soviet	-11.2318
selamat	-11.2319
▁poli	-11.2321
fun	-11.2322
▁Encik	-11.2324
bg	-11.2325
▁Kuasa	-11.2325
show	-11.2327
TION	-11.2328
▁Rus	-11.2328
▁jurusan	-11.2329
kr	-11.233
▁Mencegah	-11.2331
ped	-11.2332
▁0858	-11.2332
▁kontroversi	-11.2332
▁dinner	-11.2333
▁nice	-11.2335
▁sobat	-11.2336
ONE	-11.2336
▁kongsi	-11.2339
Is	-11.2339
▁Sup	-11.234
▁breakfast	-11.2344
▁Syah	-11.2347
oles	-11.2348
Ya	-11.2348
ole	-11.2348
▁tq	-11.2348
sea	-11.2349
decor	-11.2351
▁spesial	-11.2356
▁National	-11.2358
▁melarikan	-11.2359
▁Cafe	-11.236
▁kaga	-11.236
marykay	-11.2362
▁send	-11.2362
▁Gunakan	-11.2364
allahu	-11.2364
▁Sur	-11.2367
ALL	-11.2368
▁Pur	-11.2369
▁puak	-11.2372
▁futsal	-11.2372
▁boy	-11.2373
▁mencecah	-11.2374
▁Sah	-11.2377
▁David	-11.2378
ulu	-11.2379
▁Ap	-11.238
jj	-11.2385
pasang	-11.2385
▁tertutup	-11.2386
▁Pembelian	-11.239
▁far	-11.2391
▁dinaikkan	-11.2391
750	-11.2392
▁Kegiatan	-11.2393
bach	-11.2397
ALI	-11.2398
▁berkurang	-11.2398
▁ditentukan	-11.2398
Bangsa	-11.2398
▁brand	-11.24
lasi	-11.2401
▁teks	-11.2401
▁homemade	-11.2402
vil	-11.2402
▁Habib	-11.2402
▁Sekiranya	-11.2402
▁2011,	-11.2405
JUTA	-11.2406
▁Fungsi	-11.2406
terus	-11.2408
▁Kebudayaan	-11.241
▁Join	-11.2412
MAS	-11.2412
▁bimbang	-11.2412
BEL	-11.2415
▁Peraturan	-11.2416
▁aktivis	-11.2417
baran	-11.2418
▁Oil	-11.2419
▁Laluan	-11.242
▁umah	-11.2421
▁emmamaembong	-11.2423
He	-11.2425
shirt	-11.2427
diam	-11.2428
▁dengerin	-11.2428
▁Wajib	-11.2429
▁pentas	-11.243
▁pin	-11.243
▁loan	-11.2431
cerdas	-11.2431
▁derma	-11.2432
▁jln	-11.2432
▁Acara	-11.2432
beda	-11.2432
▁bh	-11.2433
▁kepemimpinan	-11.2435
▁Koperasi	-11.2436
▁bye	-11.2436
shabby	-11.2438
▁mayat	-11.2439
cas	-11.244
▁Zainal	-11.2441
▁aroma	-11.2441
▁malaysian	-11.2442
preloved	-11.2442
10,000	-11.2443
cul	-11.2444
▁ribet	-11.2447
▁pil	-11.2447
▁ringkas	-11.2448
▁memaksa	-11.245
▁DP	-11.2452
▁Robert	-11.2453
Rakyat	-11.2455
▁TPS	-11.2456
▁ikanbakar	-11.2457
▁Sena	-11.2457
▁Perniagaan	-11.2457
▁maha	-11.2458
▁meeting	-11.2459
▁Mula	-11.2463
▁Fit	-11.2463
▁Allahyarham	-11.2464
▁dikendalikan	-11.2464
▁lipstick	-11.2465
▁Nusantara	-11.2465
madiun	-11.2465
▁tuala	-11.2466
▁statistik	-11.2467
▁dear	-11.2471
dana	-11.2471
▁jualbeli	-11.2472
▁Bil	-11.2473
▁dirancang	-11.2474
▁perikanan	-11.2474
sakit	-11.2476
▁bil	-11.248
▁pemudahijrah	-11.2483
head	-11.2484
▁Mark	-11.2485
104	-11.2486
SN	-11.2487
▁MAKAN	-11.2487
ORI	-11.2487
▁eye	-11.2488
▁should	-11.249
TRI	-11.2491
community	-11.2492
▁penya	-11.2496
Jakarta	-11.2497
eat	-11.2498
artist	-11.2498
▁meski	-11.2499
▁dikesan	-11.2502
▁repeat	-11.2503
▁Bernama	-11.2505
▁kawen	-11.2506
▁awet	-11.2507
ARAN	-11.2507
view	-11.2508
▁Undi	-11.2509
▁hewan	-11.2509
aff	-11.2509
laksana	-11.251
▁Sukses	-11.2511
ink	-11.2514
▁gf	-11.2514
▁Rok	-11.2515
DS	-11.2518
▁Hindu	-11.2518
▁ALAM	-11.2518
▁bapanya	-11.2519
▁runtuh	-11.2521
arab	-11.2522
▁penerbit	-11.2523
▁SAMPAI	-11.2524
▁diantara	-11.2524
mbe	-11.2525
▁Latitud	-11.2525
photographer	-11.2527
128	-11.2527
▁bt	-11.2528
▁laper	-11.2532
▁sastra	-11.2533
▁Guna	-11.2533
▁come	-11.2534
Ge	-11.2534
suit	-11.2534
DANG	-11.2535
cerah	-11.2535
▁diajak	-11.2536
▁sarang	-11.2536
camp	-11.2538
dun	-11.254
JB	-11.2541
▁Kas	-11.2541
hus	-11.2542
queen	-11.2544
▁CANTIK	-11.2544
▁puluhan	-11.2544
trusted	-11.2546
▁atasan	-11.2546
cos	-11.2547
dp	-11.2548
▁perbedaan	-11.2548
▁marketing	-11.2549
tuhan	-11.2553
Bagi	-11.2553
▁MY	-11.2555
▁Biru	-11.2556
▁Mahkota	-11.2557
▁herbalife	-11.2559
▁ndak	-11.2559
idaman	-11.2562
channel	-11.2564
mahasiswa	-11.2565
▁Mujahid	-11.2568
123	-11.2571
ttle	-11.2573
▁Cendol	-11.2574
hahaha	-11.2574
gudang	-11.2574
right	-11.2574
▁liberal	-11.2575
▁peminjam	-11.2576
▁rupiah	-11.2576
bm	-11.2577
NN	-11.258
▁RA	-11.2581
▁Solusi	-11.2583
199	-11.2583
▁WARNA	-11.2587
gli	-11.2589
▁III	-11.2591
▁kim	-11.2593
▁Longitud	-11.2593
▁cimb	-11.2593
▁Parit	-11.2593
▁Bri	-11.2594
▁Camp	-11.2595
filter	-11.2596
▁Menerima	-11.2596
▁government	-11.2596
▁flight	-11.2598
▁korporat	-11.2598
eg	-11.2599
pintu	-11.26
ukir	-11.2604
▁think	-11.2604
sarawak	-11.2606
▁menanam	-11.2607
▁penambahbaikan	-11.2608
bella	-11.2609
▁dihadiri	-11.2611
KB	-11.2612
▁gofood	-11.2612
pper	-11.2614
gaji	-11.2614
▁Taiwan	-11.2615
dj	-11.2615
▁date	-11.2618
▁berkat	-11.2619
▁Shin	-11.2619
USA	-11.2621
▁0853	-11.2621
▁caleg	-11.2621
▁Sambal	-11.2621
WAR	-11.2622
PAT	-11.2622
bawah	-11.2623
▁dampak	-11.2626
▁syariah	-11.2628
▁dibangun	-11.2628
kuk	-11.2629
▁Kelab	-11.263
hee	-11.2633
xy	-11.2634
▁gempa	-11.2637
Gu	-11.264
chang	-11.264
iyyah	-11.2642
AWA	-11.2643
▁dont	-11.2646
PIN	-11.2646
50,000	-11.265
doa	-11.2651
▁ml	-11.2651
▁berkenan	-11.2652
▁giliran	-11.2652
semua	-11.2654
elo	-11.2654
puasa	-11.2656
Loire	-11.2657
hala	-11.2657
nc	-11.2658
▁1996	-11.2659
9%	-11.2661
▁penghantaran	-11.2662
▁Bab	-11.2663
▁ngam	-11.2663
▁Radio	-11.2663
organik	-11.2666
▁Wasap	-11.2666
▁pelancaran	-11.2666
▁SRI	-11.2666
aba	-11.2667
▁lubang	-11.2669
▁dike	-11.2673
BUT	-11.2673
▁Plan	-11.2674
▁tertarik	-11.2674
▁Reformasi	-11.2675
▁PRO	-11.2675
▁serious	-11.2677
▁Golden	-11.2679
2016	-11.2679
▁Bahagia	-11.268
▁menyebarkan	-11.2681
side	-11.2684
▁Diskon	-11.2685
▁akuarium	-11.2685
▁Proton	-11.2686
lifestyle	-11.2686
▁menyenangkan	-11.2686
▁Gojek	-11.2688
▁palembang	-11.2689
STI	-11.2689
▁kejar	-11.2689
salaf	-11.2689
▁kecam	-11.269
▁BANDAR	-11.2691
[	-11.2692
TC	-11.2694
dot	-11.2695
▁seb	-11.2695
▁ditolak	-11.2696
tru	-11.2698
contoh	-11.2698
▁mengesan	-11.2699
▁Abis	-11.2699
▁bibit	-11.2702
KM	-11.2703
▁selimut	-11.2703
▁masi	-11.2704
▁Ust	-11.2705
▁spt	-11.2706
ntu	-11.2706
▁dikemukakan	-11.2709
▁logam	-11.2709
pusat	-11.271
▁profile	-11.2711
ld	-11.2712
▁Menggunakan	-11.2712
▁jomkurus	-11.2712
ajaib	-11.2713
▁tandas	-11.2713
modal	-11.2716
kumpulan	-11.2716
▁Empayar	-11.2716
▁Peringkat	-11.2717
Th	-11.2719
▁Duta	-11.2719
Fi	-11.272
AC	-11.2721
TIK	-11.2721
▁modern	-11.2725
▁kehendak	-11.2725
▁2012,	-11.2726
loss	-11.2727
▁Mengikut	-11.2728
oon	-11.273
▁Tanggal	-11.2731
▁Lemak	-11.2733
▁booking	-11.2733
▁SANGAT	-11.2734
murahmalaysia	-11.2735
▁Said	-11.274
▁kembar	-11.274
▁Kari	-11.2742
▁Adi	-11.2742
kue	-11.2745
plant	-11.2745
▁kroni	-11.2747
▁Bou	-11.2747
berita	-11.2749
bert	-11.275
amal	-11.2752
mist	-11.2752
▁dalaman	-11.2752
glow	-11.2753
▁gelombang	-11.2754
▁Kemen	-11.2754
▁kesel	-11.2754
adaptasi	-11.2756
▁rock	-11.2756
▁Mie	-11.2757
▁Lanjut	-11.2757
▁Selesai	-11.2759
▁nabi	-11.276
▁kaw	-11.2761
AAA	-11.2763
▁beriman	-11.2765
▁Masker	-11.2765
▁Tah	-11.2767
Hi	-11.2768
▁social	-11.2769
▁140	-11.277
penerangan	-11.277
▁bercadang	-11.277
▁meluluskan	-11.2772
sto	-11.2777
▁rebus	-11.2777
iman	-11.2778
ave	-11.2779
aaaaaa	-11.2779
▁Chu	-11.278
▁keliling	-11.278
▁Sum	-11.2783
▁SATU	-11.2783
kem	-11.2784
▁giveaway	-11.2786
para	-11.2791
▁sawah	-11.2792
▁diganti	-11.2792
▁mengalahkan	-11.2795
pk	-11.2797
tarian	-11.2797
▁padat	-11.2797
▁menghentikan	-11.2798
▁Tokopedia	-11.2798
niaga	-11.2798
▁Juta	-11.2799
▁tkde	-11.28
▁parents	-11.28
walk	-11.2803
▁DAPAT	-11.2806
▁HAHAHAHA	-11.2807
cana	-11.2808
sial	-11.2809
lancar	-11.2813
Hu	-11.2815
pahang	-11.2815
bundle	-11.2818
tz	-11.2818
▁CEO	-11.2819
▁pembantu	-11.2819
adil	-11.2819
psi	-11.2821
▁1970	-11.2822
essen	-11.2825
football	-11.2828
masyarakat	-11.2831
▁Pah	-11.2832
119	-11.2836
▁Wkwkwk	-11.2836
▁keduanya	-11.2837
▁Idul	-11.2837
▁sushi	-11.2838
▁rujukan	-11.2838
futsal	-11.2841
▁Osman	-11.2841
jel	-11.2843
▁Rohingya	-11.2846
▁statement	-11.2847
▁aneka	-11.2847
nel	-11.2848
▁ea	-11.2849
kosmetik	-11.2849
3,000	-11.285
▁sombong	-11.2851
KT	-11.2853
pernikahan	-11.2855
ulat	-11.2855
▁seminar	-11.2857
▁girl	-11.2857
Dan	-11.2857
Pi	-11.2857
▁hormon	-11.2859
agent	-11.286
▁Daging	-11.286
▁Dataran	-11.2861
SHA	-11.2861
▁1995	-11.2862
▁Jelas	-11.2863
▁Penasihat	-11.2864
Online	-11.2868
pau	-11.2869
mpo	-11.2869
▁Serikat	-11.287
▁sport	-11.2871
▁Apple	-11.2872
▁dog	-11.2873
▁panel	-11.2873
▁Oke	-11.2875
▁menambahkan	-11.2876
EU	-11.2878
KH	-11.2878
tot	-11.2879
▁kebudayaan	-11.288
nova	-11.288
aris	-11.288
sub	-11.2881
basi	-11.2882
▁awk	-11.2883
▁sepuluh	-11.2883
mag	-11.2884
fee	-11.2886
▁tersebar	-11.2887
kecantikan	-11.2889
▁menerbitkan	-11.289
▁Poland	-11.2891
bob	-11.2895
▁Padi	-11.2895
present	-11.2897
bicara	-11.2899
▁Next	-11.29
▁jutaan	-11.2901
▁bn	-11.2902
▁Bayan	-11.2902
▁Singh	-11.2902
pihak	-11.2904
▁kunjungi	-11.2904
perlu	-11.2905
inci	-11.2906
▁KERJA	-11.2906
junior	-11.2906
▁Harun	-11.2906
▁asap	-11.2907
▁list	-11.2908
▁tertera	-11.2909
mlm	-11.291
▁sekalipun	-11.2911
▁Bazar	-11.2915
ica	-11.2917
fact	-11.2917
▁serat	-11.2919
▁Soal	-11.2919
gaming	-11.2921
▁Jeneral	-11.2923
rina	-11.2923
▁hadap	-11.2923
▁1994	-11.2924
EE	-11.2924
KLIA	-11.2925
▁SUDAH	-11.2926
kaca	-11.293
▁partner	-11.293
▁Spesifikasi	-11.2931
sablon	-11.2931
▁beradik	-11.2932
▁berhak	-11.2933
▁ibarat	-11.2934
▁SAHAJA	-11.2936
uto	-11.2937
more	-11.2938
▁dipindahkan	-11.2939
▁slalu	-11.2939
▁sesak	-11.2941
▁MANA	-11.2941
▁perlumbaan	-11.2941
▁perwakilan	-11.2944
▁LGBT	-11.2944
ili	-11.2944
370	-11.2944
▁tele	-11.2945
▁exo	-11.2945
▁sewajarnya	-11.2946
▁bertentangan	-11.2946
rontok	-11.295
gap	-11.2952
▁memakan	-11.2953
▁brp	-11.2953
payudara	-11.2954
▁corak	-11.2956
akh	-11.2957
▁Mending	-11.2958
▁Contohnya	-11.2959
▁kekasih	-11.2959
▁Bohong	-11.296
▁inter	-11.2961
▁Pandan	-11.2962
▁CariAkuDiSyurga	-11.2962
IKAN	-11.2965
▁Pengajian	-11.2967
▁Sul	-11.2967
▁2008,	-11.2967
▁Penduduk	-11.2968
ANTI	-11.2971
▁cash	-11.2971
bangunan	-11.2972
▁Pariwisata	-11.2972
ouch	-11.2975
▁Ijazah	-11.2975
resto	-11.2975
share	-11.2976
▁bimbingan	-11.2976
year	-11.2978
HAR	-11.298
▁peperangan	-11.298
hip	-11.2981
▁kelima	-11.2983
rab	-11.2983
oma	-11.2983
▁NGO	-11.2983
▁lutut	-11.2984
▁perkongsian	-11.2988
LER	-11.2988
Or	-11.2989
pemutih	-11.2989
▁HATI	-11.2989
putera	-11.2991
▁Xiaomi	-11.2991
▁Tokyo	-11.2992
▁unifi	-11.2992
▁dilarang	-11.2992
▁BULAN	-11.2992
▁Lang	-11.2993
▁Penggunaan	-11.2993
▁terengganu	-11.2994
LIN	-11.2996
rry	-11.2997
▁mask	-11.2997
▁Plus	-11.2997
▁keluarkan	-11.2997
▁berlainan	-11.2998
▁telor	-11.2999
▁Garansi	-11.3001
hub	-11.3002
▁Fakta	-11.3002
▁berbicara	-11.3002
juga	-11.3003
mom	-11.3003
sua	-11.3004
▁mam	-11.3004
▁subjek	-11.3004
▁kalimantan	-11.3005
▁digantikan	-11.3007
▁Muar	-11.3009
ERA	-11.301
▁khabar	-11.3011
▁review	-11.3011
▁upsi	-11.3012
▁Tangga	-11.3013
Book	-11.3013
▁apple	-11.3013
▁Chen	-11.3014
▁Perubahan	-11.3014
▁wifi	-11.3016
▁label	-11.3016
▁dimaklumkan	-11.3017
yam	-11.3017
polri	-11.3017
▁ato	-11.3018
▁Tro	-11.302
▁Guys	-11.3021
▁seumur	-11.3026
▁SPR	-11.3027
▁very	-11.3027
▁kedatangan	-11.3027
▁Band	-11.3027
▁Tua	-11.3027
PAR	-11.3027
Pem	-11.303
▁Saifuddin	-11.3032
kus	-11.3032
▁180	-11.3034
▁petronas	-11.3035
cket	-11.3037
▁Kara	-11.3038
VE	-11.3038
▁GUE	-11.3041
▁add	-11.3041
▁pemasangan	-11.3043
▁BANGET	-11.3043
▁Honda	-11.3043
soo	-11.3044
shabbychic	-11.3045
▁64	-11.3046
stik	-11.3049
rib	-11.305
sc	-11.3052
▁ucap	-11.3052
nggi	-11.3053
eon	-11.3055
▁berbaloi	-11.3056
▁mengantuk	-11.3056
▁penjual	-11.3057
▁roger	-11.3058
▁RAMADHAN	-11.3058
holder	-11.3059
▁pg	-11.3059
▁hayat	-11.3061
masker	-11.3062
Property	-11.3063
ero	-11.3064
SAR	-11.3064
▁gedung	-11.3065
▁pape	-11.3065
▁Center	-11.3066
▁tertakluk	-11.3066
▁foundation	-11.3067
▁Ana	-11.3067
▁tetamu	-11.3069
KN	-11.307
lung	-11.307
145	-11.3071
▁bahas	-11.3071
kediri	-11.3071
FL	-11.3071
boh	-11.3072
phy	-11.3072
▁mencabar	-11.3072
▁least	-11.3073
cell	-11.3075
▁berak	-11.3075
race	-11.3076
rian	-11.3078
▁hampa	-11.3078
▁kelemahan	-11.3079
cosmetics	-11.308
▁meneliti	-11.3082
parenting	-11.3082
▁SUPER	-11.3083
ition	-11.3084
round	-11.3084
Jangan	-11.3084
▁Desain	-11.3086
▁UP	-11.3086
▁ilang	-11.3086
▁ide	-11.3088
sau	-11.3089
130	-11.3092
▁Resmi	-11.3092
▁Setakat	-11.3093
ree	-11.3094
▁Cikgu	-11.3094
▁Bilik	-11.3095
budaya	-11.3095
▁Airlines	-11.3095
▁MAK	-11.3097
Selain	-11.3097
▁400	-11.3098
▁robot	-11.3099
▁Contact	-11.31
▁jadwal	-11.3103
▁disimpan	-11.3103
ens	-11.3104
▁HE	-11.3105
▁mencuba	-11.3106
▁dukung	-11.3107
LIM	-11.3107
▁Beri	-11.3108
sema	-11.3109
him	-11.3109
▁Song	-11.311
lid	-11.311
▁otw	-11.3112
▁dialog	-11.3113
▁Mega	-11.3115
▁Kapan	-11.3116
▁BANYAK	-11.3116
▁cowok	-11.3117
▁Luas	-11.3117
▁petshop	-11.3117
▁melu	-11.3118
▁ngeliat	-11.312
▁thn	-11.312
cook	-11.3124
katun	-11.3126
▁kebersihan	-11.3127
▁praktis	-11.3127
▁Sebelah	-11.3128
▁Ven	-11.313
nabi	-11.3131
imun	-11.3131
▁hub	-11.3131
▁senja	-11.3134
▁0895	-11.3134
▁ST	-11.3134
▁Ramli	-11.3135
▁Romania	-11.3135
▁smk	-11.3136
▁kacamata	-11.3137
thai	-11.3138
jelly	-11.3139
▁menyiasat	-11.314
▁menyiapkan	-11.314
Apa	-11.3142
▁second	-11.3142
▁AWANInews	-11.3143
▁TAU	-11.3143
▁ampe	-11.3144
BC	-11.3144
UAN	-11.3146
layan	-11.3147
▁Hafiz	-11.3148
▁Klu	-11.3149
banjarmasin	-11.315
▁persetujuan	-11.315
legal	-11.3152
▁uum	-11.3152
kenal	-11.3155
▁silakan	-11.3157
pesona	-11.3157
LS	-11.3157
lir	-11.3157
▁mencintai	-11.3157
eks	-11.3158
▁APRIL	-11.3158
lempar	-11.3159
vs	-11.3159
iris	-11.3161
▁mengurus	-11.3165
▁eksklusif	-11.3165
▁wkwkwkwk	-11.3166
▁Suami	-11.3166
mbat	-11.3168
▁ONLINE	-11.3169
▁download	-11.3169
▁yes	-11.3172
fur	-11.3173
ations	-11.3176
▁sekitarnya	-11.3178
▁BELAS	-11.3178
▁<	-11.3181
▁rumahnya	-11.3181
vit	-11.3183
▁Utusan	-11.3185
zir	-11.3186
▁Jalil	-11.3186
▁glowing	-11.3186
▁fenomena	-11.3187
TIM	-11.319
▁direct	-11.3192
OC	-11.3195
addict	-11.3197
▁Infrastruktur	-11.3198
▁gajah	-11.3198
▁That	-11.3199
▁tisu	-11.3199
▁Peri	-11.3199
▁Budi	-11.3203
▁BBMAsTopSocial	-11.3208
▁Setuju	-11.3209
Mereka	-11.321
sand	-11.321
▁berkali	-11.321
▁diiktiraf	-11.3211
abang	-11.3215
2015	-11.3217
▁merdeka	-11.3218
▁USD	-11.3219
▁Butuh	-11.322
▁Fri	-11.3221
155	-11.3223
JAR	-11.3224
▁kp	-11.3224
pisang	-11.3225
▁handsome	-11.3227
populer	-11.3227
▁customcase	-11.3228
nakkurus	-11.323
bebas	-11.323
▁kuku	-11.3232
▁Trus	-11.3232
▁lapor	-11.3233
mber	-11.3233
▁diem	-11.3234
duri	-11.3236
ALA	-11.3239
▁bersara	-11.3241
360	-11.3243
heh	-11.3247
▁Kha	-11.3247
▁Sale	-11.325
rent	-11.325
▁jjcm	-11.3251
▁Nih	-11.3254
hd	-11.3254
▁Ori	-11.3256
▁salaf	-11.3256
▁Pal	-11.3257
▁seekor	-11.3257
seni	-11.3259
elle	-11.326
▁menyifatkan	-11.3262
BNM	-11.3262
▁Gun	-11.3264
▁brg	-11.3264
▁jadual	-11.3265
umur	-11.3265
▁Peter	-11.3265
▁orangtua	-11.3267
GM	-11.3267
kotak	-11.3267
bela	-11.3269
▁Argentina	-11.327
▁SEM	-11.3272
▁Sesi	-11.3273
▁beralih	-11.3274
guy	-11.3281
ekonomi	-11.3286
▁Mesin	-11.3286
rol	-11.3286
yek	-11.3286
▁Ig	-11.3287
▁herba	-11.329
bajet	-11.329
▁pengajaran	-11.329
▁Ikuti	-11.3291
▁dituduh	-11.3291
BUK	-11.3291
▁Tru	-11.3292
raj	-11.3292
▁licin	-11.3292
sayur	-11.3293
▁local	-11.3293
awai	-11.3296
ende	-11.3296
nding	-11.3296
▁Ayer	-11.3297
▁Johan	-11.3298
▁Mantap	-11.33
BUR	-11.33
▁pelayanan	-11.3301
kapcai	-11.3302
▁antar	-11.3302
▁jala	-11.3304
point	-11.3305
zura	-11.3306
prima	-11.3306
▁pesat	-11.3306
ath	-11.3306
▁Bon	-11.3308
▁bae	-11.3309
cukup	-11.3309
▁suaminya	-11.331
▁tekstur	-11.3311
black	-11.3311
▁RS	-11.3315
honey	-11.3316
TOP	-11.3317
▁debut	-11.3317
farm	-11.3318
▁tang	-11.3318
▁Promosi	-11.3319
▁butik	-11.332
▁angkasa	-11.332
pene	-11.3321
▁mengatur	-11.3321
SIA	-11.3321
vasi	-11.3323
▁Smartphone	-11.3323
remaja	-11.3324
eva	-11.3327
▁paru	-11.3328
▁BAHAN	-11.3328
▁Kenyataan	-11.3329
rajut	-11.333
▁Bukti	-11.3331
jajan	-11.3333
gitar	-11.3334
ged	-11.3337
▁perhimpunan	-11.3337
▁apam	-11.3337
▁UTC	-11.3337
▁ustad	-11.3338
projek	-11.3339
teknologi	-11.334
▁claim	-11.3341
▁Imigresen	-11.3342
▁dinilai	-11.3342
▁Art	-11.3343
▁penjaga	-11.3346
▁jambatan	-11.3347
▁inginkan	-11.335
▁dibuang	-11.335
rma	-11.3351
▁tempe	-11.3352
kid	-11.3354
▁Tenang	-11.3355
▁JABATAN	-11.3358
▁James	-11.3358
▁Music	-11.3359
▁STOK	-11.336
ova	-11.336
geser	-11.336
▁pokoknya	-11.3362
ally	-11.3362
▁konsert	-11.3365
▁those	-11.3368
▁menjana	-11.3369
Food	-11.337
▁Chong	-11.3373
▁Belanja	-11.3373
▁sing	-11.3374
▁Memiliki	-11.3374
UANG	-11.3374
▁caj	-11.3375
▁ngaku	-11.3375
sendiri	-11.3375
new	-11.3376
▁product	-11.3376
▁terminal	-11.3377
▁peringatan	-11.3377
uru	-11.3381
barkan	-11.3383
▁PADA	-11.3384
▁instalike	-11.3385
suke	-11.3387
▁pkai	-11.3389
▁karakter	-11.339
▁Keadilan	-11.3391
▁Pop	-11.3392
▁sediakan	-11.3393
▁kawal	-11.3393
oper	-11.3393
▁Adu	-11.3393
▁right	-11.3394
▁Termasuk	-11.3395
gesa	-11.3395
HE	-11.3396
isa	-11.3397
▁karo	-11.3398
lad	-11.3401
NT	-11.3401
umroh	-11.3401
stick	-11.3403
gmail	-11.3403
▁sulung	-11.3404
jepang	-11.3404
ded	-11.3404
glass	-11.3404
▁Ladang	-11.3406
mee	-11.3407
▁Pang	-11.3409
▁Perhimpunan	-11.3409
▁07	-11.341
▁sekeliling	-11.341
▁upacara	-11.341
▁ipoh	-11.3414
cipta	-11.3414
▁TERUS	-11.3414
▁Kah	-11.3415
bukit	-11.3418
ulama	-11.3419
under	-11.3421
didik	-11.3424
Juara	-11.3424
▁BADAN	-11.3425
▁Bun	-11.3426
▁gerai	-11.3427
▁Kanun	-11.3427
jafra	-11.3427
▁Kadar	-11.3428
oa	-11.3428
Rp	-11.3432
▁ngaji	-11.3433
▁pantang	-11.3434
▁Tutup	-11.3435
▁bajukurungmoden	-11.3435
gha	-11.3435
boi	-11.3436
international	-11.3437
▁Ky	-11.3437
service	-11.3437
kukus	-11.3438
▁sekar	-11.344
▁semenjak	-11.344
▁Sering	-11.344
▁Villa	-11.3441
hina	-11.3442
▁Kandungan	-11.3445
dos	-11.3446
▁semacam	-11.345
▁SHAH	-11.345
▁pernikahan	-11.3452
▁Ketupat	-11.3453
▁baka	-11.3453
▁koyak	-11.3453
lih	-11.3454
▁Paduka	-11.3455
▁dibaca	-11.3455
game	-11.3456
▁Sp	-11.3457
▁kalinya	-11.3457
▁topik	-11.3459
▁train	-11.3464
▁Thomas	-11.3464
▁UV	-11.3465
▁Merawat	-11.3465
▁wakaf	-11.3466
▁Run	-11.3468
▁BRI	-11.3469
▁Alias	-11.347
▁BCA	-11.347
iye	-11.3471
▁mengi	-11.3473
▁jl	-11.3473
▁bajuanak	-11.3474
▁mengundang	-11.3474
mbok	-11.3475
bareng	-11.3476
▁mempromosikan	-11.3477
lawak	-11.3478
DH	-11.3479
sch	-11.3479
dijual	-11.3482
▁kapasiti	-11.3483
▁Jerawat	-11.3484
▁Pelbagai	-11.3486
▁Part	-11.3487
▁money	-11.3487
▁lorong	-11.3489
▁lowongan	-11.349
▁lajur	-11.3491
lep	-11.3491
▁issue	-11.3495
ultra	-11.3496
▁dibanding	-11.3498
▁menonton	-11.3499
▁Bakal	-11.35
With	-11.3502
weight	-11.3502
ote	-11.3503
sn	-11.3503
▁Sini	-11.3504
mbing	-11.3506
▁something	-11.3508
AMA	-11.3508
▁nipis	-11.351
oe	-11.3511
▁pernyataan	-11.3513
▁Ulang	-11.3517
ching	-11.3517
▁kekinian	-11.3518
lens	-11.352
babyshop	-11.3521
masalah	-11.3521
rail	-11.3522
▁saw	-11.3524
▁Barcelona	-11.3524
▁Kelebihan	-11.3524
kelas	-11.3525
▁menipu	-11.3526
kia	-11.3526
▁018	-11.3528
▁bersabda	-11.3529
ht	-11.353
▁Family	-11.3531
▁Post	-11.3531
frame	-11.3534
latte	-11.3534
kuantan	-11.3535
▁kotoran	-11.3537
▁1960	-11.3538
▁Spi	-11.3539
detik	-11.354
▁berturut	-11.3541
ganda	-11.3541
cau	-11.3542
▁Pakar	-11.3542
▁chocofit	-11.3546
▁degree	-11.3546
▁Hamzah	-11.3546
jd	-11.3548
▁kerjaan	-11.3549
kain	-11.3549
▁perkasa	-11.3549
▁05	-11.3549
misi	-11.3551
▁leh	-11.3552
Menang	-11.3554
▁insurans	-11.3554
sulawesi	-11.3554
anggur	-11.3556
▁uji	-11.3556
▁clear	-11.3558
▁Sebaliknya	-11.356
▁mengira	-11.356
jabodetabek	-11.3561
▁offer	-11.3561
balas	-11.3562
▁saran	-11.3564
FE	-11.3565
CON	-11.3567
▁NAMA	-11.3567
label	-11.3567
▁Dear	-11.3568
▁pelarian	-11.3568
hin	-11.3569
▁Hilang	-11.357
guh	-11.357
▁Sambutan	-11.357
▁Kebajikan	-11.3571
▁pela	-11.3571
▁cri	-11.3575
self	-11.3577
▁system	-11.3578
ampuh	-11.3578
▁Pesawat	-11.3579
▁Britain	-11.3579
kelurahan	-11.3579
▁amaran	-11.3579
▁Dinas	-11.358
▁cite	-11.3581
▁dimulakan	-11.3582
kill	-11.3586
▁Cal	-11.3587
▁Mengatasi	-11.3587
silver	-11.3588
▁Sektor	-11.3588
ene	-11.3589
▁being	-11.3592
OW	-11.3592
powder	-11.3592
▁Mene	-11.3593
ej	-11.3595
▁break	-11.3596
BEN	-11.3596
bidang	-11.3598
racing	-11.3598
urai	-11.3602
▁Bag	-11.3606
rtm	-11.3607
taro	-11.3609
det	-11.361
hum	-11.3612
GEL	-11.3613
lawa	-11.3613
dm	-11.3614
gerak	-11.3614
▁ngobrol	-11.3615
kajian	-11.3615
gos	-11.3617
▁refer	-11.3618
▁peluk	-11.3618
▁Misi	-11.3618
▁perkampungan	-11.362
▁haaa	-11.3622
▁peran	-11.3622
Par	-11.3622
▁56	-11.3623
My	-11.3623
kasi	-11.3625
▁Warung	-11.3625
▁project	-11.3628
nde	-11.3629
product	-11.363
oq	-11.363
wer	-11.363
BAK	-11.363
▁selamanya	-11.3631
▁Bawang	-11.3631
pie	-11.3631
▁Morning	-11.3632
220	-11.3635
▁rompak	-11.3635
sukabumi	-11.3637
halus	-11.3639
cerai	-11.3639
▁Station	-11.3643
jari	-11.3645
▁Tasik	-11.3647
effect	-11.3647
ental	-11.3651
▁facebook	-11.3651
lusi	-11.3651
▁KEDUA	-11.3653
▁lukisan	-11.3656
tega	-11.3656
▁Pink	-11.366
rid	-11.366
ative	-11.366
capai	-11.3663
▁jomblo	-11.3663
▁berpuas	-11.3665
▁BPOM	-11.3665
▁pemindahan	-11.3667
BR	-11.3668
handmade	-11.3671
▁Lot	-11.3671
▁AirAsia	-11.3673
kerajaan	-11.3674
serang	-11.3674
kitchen	-11.3676
abadi	-11.3677
▁apaan	-11.3679
▁Telp	-11.3679
laris	-11.368
▁rahmat	-11.368
▁sotong	-11.3681
▁Batam	-11.3681
kapal	-11.3682
▁Nutrisi	-11.3683
▁Paya	-11.3683
▁mulanya	-11.3683
usia	-11.3684
lawas	-11.3685
▁App	-11.3685
ngkok	-11.3685
▁tertinggal	-11.3688
instant	-11.3689
▁Ajak	-11.369
▁pengganas	-11.369
rga	-11.3691
▁elaun	-11.3691
▁Travel	-11.3691
milk	-11.3693
▁Remaja	-11.3693
▁tong	-11.3694
▁Diet	-11.3694
KAK	-11.3695
▁bangsat	-11.3695
▁Tai	-11.3696
zali	-11.3698
soap	-11.3699
▁gada	-11.3699
▁mengejar	-11.37
▁step	-11.3701
▁planet	-11.3704
▁cup	-11.3704
▁NKRI	-11.3704
▁wak	-11.3704
▁gel	-11.3704
▁rahim	-11.3707
▁Disebabkan	-11.3709
▁KWSP	-11.371
▁huawei	-11.371
▁pinter	-11.371
▁gamissyari	-11.3711
▁Had	-11.3714
▁vote	-11.3716
▁Jumpa	-11.3718
sampai	-11.372
▁menara	-11.3721
▁tawar	-11.3722
berkah	-11.3724
versi	-11.3725
cit	-11.3727
llow	-11.3728
bata	-11.3732
▁school	-11.3732
lengkap	-11.3733
berkebun	-11.3734
▁sirap	-11.3734
▁mesej	-11.3734
▁account	-11.3734
sahabat	-11.3735
garut	-11.3737
▁Not	-11.3738
RES	-11.374
gau	-11.3741
▁kkm	-11.3742
Aja	-11.3742
▁sholawat	-11.3742
▁pupuk	-11.3743
▁Keluar	-11.3745
▁Special	-11.3745
▁AKAN	-11.3746
▁Mexico	-11.3748
▁Umar	-11.375
jatim	-11.3751
▁maxis	-11.3754
▁016	-11.3754
▁Kay	-11.3754
▁lembar	-11.3755
kunci	-11.3756
▁Geng	-11.3757
balang	-11.3758
wkwk	-11.3759
▁view	-11.3759
▁wonderful	-11.3759
nyata	-11.376
▁mampos	-11.376
rie	-11.376
HAM	-11.3761
▁could	-11.3763
▁Youtube	-11.3763
agen	-11.3764
▁feedback	-11.3765
hulu	-11.3765
▁training	-11.3765
▁kaunter	-11.3765
▁skala	-11.3765
▁terimakasih	-11.3765
buang	-11.3767
▁dini	-11.3767
▁kwn	-11.3772
aci	-11.3773
balm	-11.3776
amir	-11.3777
fast	-11.3782
▁Arsenal	-11.3785
▁memikirkan	-11.3788
yani	-11.3788
TAM	-11.3789
tee	-11.379
uju	-11.379
yh	-11.3791
ternak	-11.3792
▁Hehehe	-11.3792
▁kebanyakannya	-11.3793
▁Berbuka	-11.3793
▁Legend	-11.3793
▁tercinta	-11.3794
ject	-11.3795
▁jawi	-11.3798
lindung	-11.3799
TY	-11.38
▁sebaiknya	-11.3801
Update	-11.3802
▁Tekan	-11.3802
▁Akun	-11.3804
NP	-11.3805
metro	-11.3805
▁siapkan	-11.3806
▁psikologi	-11.3807
▁mendadak	-11.3808
jepit	-11.3809
▁Ayu	-11.381
▁mendesak	-11.3811
▁strong	-11.3811
▁suplemen	-11.3811
▁Nat	-11.3813
ihan	-11.3813
1440	-11.3815
▁Arief	-11.3816
▁Azhar	-11.3817
onic	-11.3817
▁keping	-11.3819
silat	-11.3819
Negara	-11.382
▁kayanya	-11.3821
cep	-11.3821
feed	-11.3823
▁Lisa	-11.3823
▁seat	-11.3823
▁AB	-11.3823
▁Era	-11.3823
▁bersamaan	-11.3828
sexy	-11.3828
▁tajam	-11.3829
PEN	-11.383
maju	-11.3832
▁jawaban	-11.3834
▁Dijamin	-11.3835
tty	-11.3835
▁Beauty	-11.3836
▁dpn	-11.3836
ass	-11.3837
▁abam	-11.3838
enti	-11.3839
▁sentimen	-11.3841
jauh	-11.3843
runner	-11.3843
▁ANJING	-11.3844
▁PP	-11.3846
▁Adib	-11.3847
▁thank	-11.3848
▁selam	-11.3848
▁kne	-11.3848
▁soto	-11.3851
fiber	-11.3851
▁PPBM	-11.3852
▁segalanya	-11.3852
▁Alami	-11.3855
▁Channel	-11.3855
yon	-11.3857
▁menaik	-11.3857
▁gym	-11.3858
▁1993	-11.3858
cis	-11.3864
▁Melayani	-11.3864
▁dikawal	-11.3865
▁Mandiri	-11.3865
berry	-11.3868
▁moga	-11.387
unan	-11.3871
▁Land	-11.3872
▁DS	-11.3874
▁tajuk	-11.3874
▁Huhu	-11.3874
▁katering	-11.3875
▁tuuu	-11.3876
▁najib	-11.3879
▁win	-11.388
▁bakalan	-11.3882
minute	-11.3883
▁protes	-11.3885
rub	-11.3887
dream	-11.3888
▁Penuh	-11.3888
▁Amal	-11.3889
▁konservatif	-11.3889
site	-11.389
Kurus	-11.3892
NER	-11.3893
▁Syu	-11.3893
mul	-11.3893
games	-11.3899
▁soft	-11.3899
▁Transformasi	-11.3901
▁Haaa	-11.3902
dee	-11.3903
▁Gabungan	-11.3904
▁aing	-11.3904
tingkat	-11.3905
▁bertahun	-11.3907
pay	-11.3907
rahim	-11.3909
▁zat	-11.3909
kari	-11.3909
tunik	-11.3909
▁dibintangi	-11.3909
▁Mc	-11.3911
▁amalkan	-11.3911
istik	-11.3912
▁Tour	-11.3915
ado	-11.3916
RED	-11.3918
▁mendaftar	-11.3919
2014	-11.392
333	-11.3921
khas	-11.3921
▁Ur	-11.3921
▁ekoran	-11.3922
▁iklim	-11.3922
gger	-11.3922
heart	-11.3923
mahal	-11.3924
▁berdarah	-11.3926
▁Testimoni	-11.3926
▁bersuara	-11.3931
▁pekebun	-11.3931
▁hello	-11.3932
▁Reseller	-11.3934
harmoni	-11.3935
sty	-11.3935
ATAN	-11.3936
RB	-11.3937
▁fr	-11.3937
hua	-11.3937
▁Persidangan	-11.3941
dg	-11.3941
▁short	-11.3942
▁bangi	-11.3945
▁sticker	-11.3945
▁umrah	-11.3945
▁diesel	-11.3947
▁mundur	-11.395
▁harusnya	-11.3952
ging	-11.3952
organic	-11.3953
presiden	-11.3953
▁Gal	-11.3954
▁pecahan	-11.3956
ratu	-11.3956
▁ORIGINAL	-11.3958
▁Sulaiman	-11.3958
▁pangan	-11.396
▁Makassar	-11.3961
▁Let	-11.3961
NAS	-11.3962
koi	-11.3962
▁Keempat	-11.3964
▁intern	-11.3966
agak	-11.3967
▁mencuri	-11.3968
▁really	-11.3969
stu	-11.397
vac	-11.3971
▁Bangkok	-11.3971
▁nad	-11.3971
▁kekalahan	-11.3973
▁temu	-11.3974
▁pack	-11.3974
seru	-11.3975
▁Kesan	-11.3977
stroke	-11.3977
rumahidaman	-11.3978
▁BEST	-11.3979
▁Kol	-11.3981
▁Postage	-11.3981
▁uni	-11.3981
ESS	-11.3983
hard	-11.3985
mok	-11.3985
175	-11.3986
▁enjoy	-11.399
tut	-11.399
panggang	-11.3991
▁sblm	-11.3992
▁Ay	-11.3995
▁relevan	-11.3995
▁jersey	-11.3996
nat	-11.4
▁persepsi	-11.4001
sertifikat	-11.4001
▁Madrid	-11.4001
▁Kartu	-11.4002
▁MASIH	-11.4003
sebab	-11.4003
▁doyan	-11.4004
▁hadis	-11.4005
▁melanda	-11.4007
tero	-11.4007
IPT	-11.4007
thailand	-11.4007
▁gtu	-11.401
▁rumput	-11.4013
kejora	-11.4013
▁flash	-11.4013
165	-11.4014
▁twit	-11.4015
hkan	-11.4016
▁PUN	-11.4017
yai	-11.4018
▁owner	-11.4019
wr	-11.4019
▁Penyelidikan	-11.402
▁menggesa	-11.4021
▁Haah	-11.4021
▁pat	-11.4021
▁PENGGAL	-11.4024
▁maluapabossku	-11.4024
▁moral	-11.4026
▁milenial	-11.4028
▁Buloh	-11.4028
▁Kuat	-11.4031
▁Ratu	-11.4032
school	-11.4034
▁Campur	-11.4036
ambi	-11.4037
▁tiang	-11.4038
▁perpustakaan	-11.4038
▁nyamuk	-11.4039
▁sampingan	-11.4039
▁Haih	-11.4042
▁Aksi	-11.4042
young	-11.4045
ride	-11.4048
alfa	-11.405
▁Buruan	-11.4051
▁diskaun	-11.4053
wor	-11.4053
TL	-11.4054
▁Serdang	-11.4054
EA	-11.4056
▁selalunya	-11.4056
▁miliki	-11.4056
Pilih	-11.4056
zh	-11.4057
lli	-11.4057
▁penggal	-11.4058
▁kedaulatan	-11.4061
oid	-11.4061
raga	-11.4063
tinggal	-11.4064
▁TK	-11.4065
▁Muara	-11.4065
▁pedagang	-11.4065
▁mencetuskan	-11.4068
beras	-11.4069
▁law	-11.4069
▁dawet	-11.407
▁Makasih	-11.4072
▁isyarat	-11.4072
▁Pelakon	-11.4075
artis	-11.4076
▁utm	-11.4076
▁penghujung	-11.4076
▁Pertumbuhan	-11.4077
interior	-11.4078
▁Kaum	-11.4078
▁petunjuk	-11.4079
▁Sab	-11.4079
▁HAHAHAHAHA	-11.408
▁chill	-11.4086
▁pic	-11.4086
▁bumiputera	-11.4087
**	-11.4087
samsung	-11.4088
▁kecerdasan	-11.409
cast	-11.4091
▁Ash	-11.4093
HQ	-11.4094
ML	-11.4095
berl	-11.4096
▁tlg	-11.4096
▁1992	-11.4098
▁murni	-11.4099
▁Malu	-11.41
▁koperasi	-11.4101
bintang	-11.4101
▁bekasi	-11.4101
▁Sea	-11.4102
▁Bangladesh	-11.4105
▁Juventus	-11.4105
▁khimar	-11.4105
▁inti	-11.4106
EMAS	-11.4107
▁Corporation	-11.4111
▁Yaa	-11.4112
▁kaget	-11.4113
▁disalurkan	-11.4114
▁dekad	-11.4114
▁rahasia	-11.4117
▁kuantan	-11.4118
ganu	-11.4118
▁Aw	-11.4119
▁SIAPA	-11.4121
350	-11.4121
tp	-11.4121
gate	-11.4124
▁Herbal	-11.4124
sulam	-11.4125
tuju	-11.4125
PG	-11.4126
▁membahas	-11.4127
▁Getah	-11.4127
▁penemuan	-11.4128
jad	-11.4128
kampus	-11.413
▁Wai	-11.4131
lala	-11.4133
▁wadah	-11.4135
▁Perut	-11.4136
▁upload	-11.4136
kajang	-11.4136
tain	-11.4137
▁Gol	-11.4141
▁Pasangan	-11.4141
▁rojak	-11.4142
▁chocolate	-11.4143
▁Internasional	-11.4143
▁Tiket	-11.4145
▁Bupati	-11.4145
gum	-11.415
▁Miri	-11.415
UI	-11.4152
▁keindahan	-11.4152
zaman	-11.4152
kerang	-11.4155
▁binti	-11.4155
▁charger	-11.4156
▁Pekerjaan	-11.4157
▁BALI	-11.4159
▁kasian	-11.416
▁langsing	-11.4162
▁bubuk	-11.4162
ident	-11.4162
▁berlari	-11.4163
vision	-11.4163
unit	-11.4164
▁dp	-11.4164
▁Jambi	-11.4166
▁kaftan	-11.4166
▁Agak	-11.4168
▁Batang	-11.4168
IF	-11.4168
▁berjanji	-11.417
▁Cur	-11.417
▁Hashim	-11.417
▁Rezeki	-11.417
▁Shopping	-11.4172
▁KALAU	-11.4172
▁dimainkan	-11.4172
▁sendirian	-11.4173
▁Pet	-11.4174
▁Harimau	-11.4175
▁Direktur	-11.4175
▁memelihara	-11.4175
▁Of	-11.4175
brush	-11.4175
speed	-11.4175
▁Kandar	-11.4176
▁bermasalah	-11.4176
▁jago	-11.4178
jabar	-11.4179
▁ditanam	-11.418
hoo	-11.4185
▁SALE	-11.4186
▁dicadangkan	-11.4186
▁Rawa	-11.4187
tempel	-11.4188
▁Samad	-11.419
Mem	-11.419
▁waktunya	-11.4191
▁Tebal	-11.4192
ampun	-11.4195
Kerajaan	-11.4195
▁pengu	-11.4196
▁Nan	-11.4198
▁Cameron	-11.4198
gift	-11.4199
▁Michael	-11.4201
ambang	-11.4202
ANA	-11.4202
▁Disney	-11.4204
▁LIVE	-11.4207
bee	-11.4208
▁panda	-11.4208
SAH	-11.4208
▁screen	-11.421
▁Yunani	-11.421
pita	-11.4214
▁OKU	-11.4215
4,000	-11.4218
▁pingat	-11.4218
pose	-11.4219
undur	-11.422
▁standar	-11.4221
▁>>	-11.4221
▁Mengurangkan	-11.4222
▁skit	-11.4222
mac	-11.4225
DAP	-11.4229
▁jaa	-11.4229
▁pahit	-11.423
▁Gas	-11.423
mancing	-11.423
▁trustedseller	-11.423
▁deposit	-11.4231
plussize	-11.4232
▁tsunami	-11.4233
▁usm	-11.4234
Lu	-11.4234
inda	-11.4237
kung	-11.4237
menyusui	-11.4238
▁sdm	-11.4238
▁master	-11.4239
pecah	-11.4239
▁penglibatan	-11.4242
▁Maybank	-11.4243
jab	-11.4247
puluh	-11.4248
▁Cincin	-11.4248
▁siot	-11.4249
outfit	-11.425
terlajaklaris	-11.4251
▁Wahai	-11.4253
▁Perikanan	-11.4254
lahhh	-11.4254
▁mek	-11.4257
▁mrt	-11.4257
▁PUNYA	-11.4257
▁jumat	-11.426
AJ	-11.4261
▁seiring	-11.4261
goda	-11.4264
▁aura	-11.4265
▁hidupnya	-11.4267
kondangan	-11.4267
▁utang	-11.4268
nation	-11.4269
▁juru	-11.427
▁oleholeh	-11.4272
meru	-11.4273
▁Takpe	-11.4274
shar	-11.4274
hemat	-11.4274
▁omg	-11.4276
▁Musang	-11.4276
eun	-11.4278
talk	-11.428
▁geran	-11.428
karbon	-11.4281
▁Koleksi	-11.4281
▁menda	-11.4282
You	-11.4284
▁sales	-11.4284
▁Ve	-11.4286
▁White	-11.4287
888	-11.4288
▁politeknik	-11.4288
▁pencernaan	-11.4289
ootd	-11.429
▁NASI	-11.4291
▁menghubungkan	-11.4292
▁Din	-11.4292
▁Dong	-11.4295
▁berdaya	-11.4297
hut	-11.4299
trak	-11.43
▁memaparkan	-11.4301
▁Cotton	-11.4301
▁Sape	-11.4302
▁janganlah	-11.4303
▁setinggi	-11.4304
▁skuter	-11.4304
▁kalendar	-11.4307
▁mempelajari	-11.4307
▁Tubuh	-11.4312
▁persediaan	-11.4313
▁fail	-11.4314
▁geli	-11.4314
▁Syiah	-11.4316
kakak	-11.4316
▁seawal	-11.4317
tour	-11.4317
▁pelangsing	-11.4318
▁Tele	-11.4318
▁dirujuk	-11.4321
▁Tab	-11.4321
▁iPhone	-11.4323
▁forum	-11.4324
▁dibutuhkan	-11.4325
qo	-11.4325
▁yogyakarta	-11.4327
▁Pancasila	-11.4329
▁habib	-11.4329
▁piring	-11.4329
larang	-11.4329
▁lemari	-11.4331
▁Lam	-11.4332
▁Ayuh	-11.4332
▁Salahuddin	-11.4333
▁Pengurus	-11.4333
▁Jho	-11.4333
review	-11.4334
▁friends	-11.4335
▁Gil	-11.4335
gis	-11.4336
▁borak	-11.4336
▁MIC	-11.4337
int	-11.4337
▁unikl	-11.4337
▁jualbuku	-11.4338
zara	-11.4338
▁++	-11.4338
▁JOIN	-11.434
▁reaksi	-11.434
▁Tema	-11.4342
ATE	-11.4343
▁alif	-11.4344
▁tunang	-11.4344
▁Sobat	-11.4346
▁payung	-11.4348
▁sebenernya	-11.4349
banyuwangi	-11.4349
belakang	-11.4351
▁amek	-11.4353
▁nyu	-11.4355
▁most	-11.4357
▁PERHATIAN	-11.4358
kitab	-11.4359
▁karang	-11.436
ette	-11.436
EY	-11.436
▁Rashid	-11.4364
samping	-11.4364
layar	-11.4366
▁lgsg	-11.4366
▁lingkar	-11.4366
▁seakan	-11.4366
hukum	-11.4368
▁jati	-11.4369
▁BARANG	-11.4369
asuh	-11.4369
▁0811	-11.4369
▁berperingkat	-11.4369
patah	-11.4371
▁meli	-11.4371
kudus	-11.4372
▁name	-11.4377
wet	-11.4378
▁Nam	-11.4378
▁Mencerahkan	-11.4378
▁print	-11.438
ENANG	-11.438
▁Eco	-11.438
▁dipimpin	-11.4382
▁SIAP	-11.4382
▁kritikal	-11.4383
▁igt	-11.4383
▁sendi	-11.4385
daging	-11.4385
108	-11.4387
▁bentar	-11.4388
▁Tong	-11.4388
INTA	-11.439
▁shahalam	-11.439
MEN	-11.439
▁kebimbangan	-11.439
mahkota	-11.4391
185	-11.4392
▁kluar	-11.4394
▁Perai	-11.4396
▁melangkah	-11.4396
solid	-11.4396
▁Pertanyaan	-11.4396
irah	-11.4398
▁Wisma	-11.4399
lk	-11.44
▁Maz	-11.44
bentang	-11.4403
REN	-11.4404
▁jurulatih	-11.4405
▁Benar	-11.4412
2010	-11.4412
▁Bawah	-11.4413
Vi	-11.4413
▁1987	-11.4414
dz	-11.4414
repot	-11.4415
botak	-11.4416
▁Artis	-11.4417
oz	-11.4421
ngin	-11.4423
▁pengiktirafan	-11.4423
▁yatim	-11.4423
▁panen	-11.4424
syukur	-11.4426
▁disiplin	-11.4426
hewan	-11.4428
teknik	-11.4429
▁Maritim	-11.4431
berlian	-11.4431
▁tersenyum	-11.4431
▁Othman	-11.4432
jember	-11.4432
▁LU	-11.4433
kim	-11.4433
PRK	-11.4435
▁isterinya	-11.4436
▁menyerah	-11.4437
wara	-11.4438
▁HALAL	-11.4438
▁DISKON	-11.4441
▁penasaran	-11.4442
biru	-11.4442
ngk	-11.4443
▁state	-11.4444
▁Pesuruhjaya	-11.4444
▁menewaskan	-11.4444
Ni	-11.4444
▁Kuota	-11.4445
urang	-11.4448
say	-11.445
▁idola	-11.445
tipu	-11.4454
▁Cutting	-11.4454
event	-11.4454
▁bias	-11.4456
▁bukber	-11.4459
▁pengurangan	-11.4459
ahmad	-11.446
emak	-11.4461
batas	-11.4461
▁pemakanan	-11.4463
nut	-11.4464
▁menyerap	-11.4464
▁menetap	-11.4465
▁antioksidan	-11.4466
▁BR	-11.4466
▁Mira	-11.4468
Car	-11.447
▁Sahur	-11.447
▁cabe	-11.4471
chat	-11.4471
terapi	-11.4471
▁dibentangkan	-11.4472
mpit	-11.4473
▁lipat	-11.4473
ering	-11.4474
▁sms	-11.4476
belas	-11.4477
▁kecemasan	-11.4477
▁tonton	-11.4478
▁PJ	-11.4479
▁Masukkan	-11.4479
av	-11.4483
ulasi	-11.4484
▁got	-11.4485
▁Daniel	-11.4486
based	-11.4486
▁^^	-11.4487
▁transportasi	-11.4487
mpasi	-11.4488
juara	-11.4489
pear	-11.4489
▁korg	-11.4493
▁automatik	-11.4493
waktu	-11.4495
▁aslegacy	-11.4495
▁Pelaksanaan	-11.4495
▁lega	-11.4496
▁alattulis	-11.4497
▁rumahminimalis	-11.4498
▁tular	-11.4498
▁pengantin	-11.45
▁mengancam	-11.4502
▁suda	-11.4502
▁hahahha	-11.4502
iza	-11.4502
▁Abidin	-11.4503
▁posting	-11.4504
CAR	-11.4505
▁Nusa	-11.4506
▁look	-11.4508
▁jelek	-11.4511
ground	-11.4511
sudah	-11.4512
▁nikmati	-11.4513
▁HI	-11.4513
PD	-11.4513
Akta	-11.4514
▁haid	-11.4516
▁foodpanda	-11.4517
▁nyo	-11.4518
▁mendidik	-11.4519
▁berucap	-11.4522
▁someone	-11.4524
spect	-11.4525
▁menganjurkan	-11.4526
▁persegi	-11.4526
▁KRI	-11.4527
▁arti	-11.4527
▁sk	-11.4528
vic	-11.4528
rice	-11.4528
▁pengawal	-11.4528
ema	-11.4529
▁nang	-11.4529
▁Telur	-11.453
tabur	-11.453
child	-11.4531
▁pelepasan	-11.4532
▁Depok	-11.4532
center	-11.4533
▁mna	-11.4533
Murah	-11.4534
mandi	-11.4534
▁ikhtiar	-11.4534
▁Sedang	-11.4535
▁dibangkitkan	-11.4535
cycle	-11.4535
▁Iron	-11.4536
pink	-11.4537
▁Kualiti	-11.4538
▁pengangguran	-11.4538
▁kelajuan	-11.454
▁legging	-11.4541
▁periuk	-11.4541
Dengan	-11.4543
▁saingan	-11.4544
▁husband	-11.4544
▁Laksa	-11.4545
▁Zo	-11.4545
▁menghina	-11.4546
▁Khazanah	-11.4547
▁Semenyih	-11.4547
▁Harry	-11.4551
▁sebegini	-11.4553
▁realiti	-11.4554
FAM	-11.4555
180	-11.4556
▁memulai	-11.4556
▁98	-11.4556
▁makasih	-11.4556
rangka	-11.4556
law	-11.4559
▁Perodua	-11.4559
▁dipenuhi	-11.456
▁Datin	-11.4561
▁PKI	-11.4562
POL	-11.4562
▁emaskorea	-11.4563
fooddelivery	-11.4563
▁cant	-11.4564
adik	-11.4565
▁cancel	-11.4566
▁menja	-11.4569
eran	-11.4569
▁pengikut	-11.457
▁Cr	-11.457
▁sunscreen	-11.457
CHE	-11.4571
▁Kunjungi	-11.4571
pintar	-11.4571
▁jalanjalan	-11.4574
toleransi	-11.4574
▁Play	-11.4574
nyaaaa	-11.4582
uf	-11.4583
▁Kerjasama	-11.4584
FO	-11.4585
▁Hay	-11.4586
UB	-11.4587
▁women	-11.4587
salkanDiaBahagia	-11.4589
▁Jd	-11.4591
▁mendatang	-11.4591
blog	-11.4591
▁Karim	-11.4591
▁Konvensyen	-11.4593
▁Kembangan	-11.4593
▁Gelar	-11.4594
▁Serta	-11.4594
▁komedi	-11.4594
▁penyediaan	-11.4596
▁perbankan	-11.4599
SYA	-11.4599
▁sekejap	-11.4602
▁Kampong	-11.4605
crew	-11.4605
merta	-11.4605
DER	-11.4606
jum	-11.4606
▁royal	-11.461
▁aceh	-11.4611
▁sri	-11.4613
▁jempol	-11.4613
hafiz	-11.4615
▁Sedikit	-11.4615
▁filsafat	-11.4616
▁sudu	-11.4618
▁diubah	-11.4618
dat	-11.4619
sweet	-11.4619
▁Out	-11.4619
hutan	-11.462
▁korupsi	-11.4622
▁Cawangan	-11.4622
gl	-11.4622
KKK	-11.4622
▁jb	-11.4623
Tr	-11.4623
sup	-11.4623
jaring	-11.4625
▁Wu	-11.4625
▁PENDIDIKAN	-11.4626
▁while	-11.4627
good	-11.4632
▁syurga	-11.4632
moo	-11.4634
▁gemok	-11.4634
▁pakatan	-11.4634
lahan	-11.4634
▁fiskal	-11.4635
Meng	-11.4636
▁kutuk	-11.4638
pancasila	-11.4638
▁pertimbangan	-11.4638
▁konten	-11.464
▁Leon	-11.4641
datang	-11.4642
jap	-11.4642
▁uolls	-11.4643
▁Pertandingan	-11.4644
duit	-11.4648
▁kre	-11.4649
▁Pulang	-11.4649
▁april	-11.465
▁Menjelang	-11.4651
hall	-11.4652
enteng	-11.4653
busui	-11.4654
awas	-11.4654
▁letih	-11.4654
▁Mam	-11.4657
▁pesta	-11.4658
sure	-11.466
komputer	-11.4661
▁Lum	-11.4661
▁Col	-11.4662
▁ntah	-11.4663
▁batal	-11.4664
▁parking	-11.4667
▁kandar	-11.4668
▁turn	-11.4669
▁kewujudan	-11.4669
mont	-11.467
▁penutup	-11.467
▁Boss	-11.4671
HR	-11.4672
part	-11.4675
▁MUI	-11.4676
GEN	-11.4677
muhammad	-11.4678
sofa	-11.4678
▁kesabaran	-11.4678
kepala	-11.4679
mobile	-11.4679
dani	-11.4679
▁keluhan	-11.468
▁again	-11.4683
wani	-11.4683
▁SEBELUM	-11.4684
ille	-11.4686
▁Pengedar	-11.4686
REA	-11.4687
▁iv	-11.4689
▁Ciri	-11.4689
▁askar	-11.469
▁pengerusi	-11.4691
▁1991	-11.4691
▁tekak	-11.4691
sungguh	-11.4692
▁Bis	-11.4692
▁defisit	-11.4694
▁Muzik	-11.4694
jaket	-11.4696
▁olshopmurah	-11.4698
bodoh	-11.4699
HAT	-11.4703
▁penghuni	-11.4703
DBKL	-11.4703
TUN	-11.4704
BAL	-11.4704
green	-11.4705
▁Kempen	-11.4705
▁hidro	-11.4705
▁52	-11.4707
rain	-11.4707
libat	-11.4708
living	-11.4709
▁PAKAI	-11.4709
iga	-11.4711
mine	-11.4711
▁mengingat	-11.4712
▁misteri	-11.4713
▁click	-11.4713
mudi	-11.4714
LN	-11.4715
siar	-11.4715
▁Get	-11.4716
kho	-11.4717
▁Maharaja	-11.4717
▁Agen	-11.4718
▁mimin	-11.472
▁Max	-11.4723
▁yummy	-11.4724
sign	-11.4727
▁54	-11.4727
bagai	-11.4729
▁kol	-11.4729
truck	-11.4729
▁Email	-11.4731
▁because	-11.4731
▁Kuih	-11.4731
nggo	-11.4732
rantau	-11.4733
lash	-11.4734
aqiqah	-11.4735
▁care	-11.4736
▁Life	-11.4737
▁Pemba	-11.474
Semua	-11.474
▁Penyelamat	-11.474
woman	-11.474
▁induk	-11.4742
▁aiskrim	-11.4742
lele	-11.4745
▁JA	-11.4745
▁teater	-11.4746
▁menggelar	-11.4748
pake	-11.4749
pd	-11.475
your	-11.4752
▁memperjuangkan	-11.4752
langka	-11.4754
▁Boy	-11.4755
jumpsuit	-11.4756
▁disiapkan	-11.4756
magnet	-11.4757
stic	-11.4759
▁tangkapan	-11.476
doll	-11.4761
bk	-11.4761
▁Yassin	-11.4762
▁urutan	-11.4765
▁Jalur	-11.4766
edar	-11.477
▁kemain	-11.477
▁puji	-11.477
▁Dengar	-11.4771
songket	-11.4772
COM	-11.4775
▁caption	-11.4775
▁giler	-11.4776
code	-11.4776
burn	-11.4777
iklan	-11.4778
gian	-11.4778
▁Kipas	-11.4778
novel	-11.4779
▁gampong	-11.478
▁kolesterol	-11.478
▁GAK	-11.4781
bantal	-11.4781
▁Sungguh	-11.4782
▁menaiki	-11.4782
▁peralihan	-11.4783
▁ph	-11.4784
▁Prima	-11.4784
▁Lem	-11.4784
▁Bara	-11.4784
140	-11.4785
siang	-11.4787
manusia	-11.4787
▁menjatuhkan	-11.479
▁53	-11.4791
ente	-11.4792
▁Sijil	-11.4792
▁BISNIS	-11.4793
LIP	-11.4795
▁Rosmah	-11.4795
▁Kongres	-11.4796
puji	-11.4797
untung	-11.4799
lib	-11.4799
▁period	-11.4799
kelapa	-11.48
BAS	-11.48
wana	-11.4801
force	-11.4801
▁70%	-11.4802
wil	-11.4802
ografi	-11.4803
▁HAHA	-11.4804
▁Print	-11.4804
▁record	-11.4805
Sunnah	-11.4806
▁kebencian	-11.4808
temu	-11.4809
maaf	-11.481
▁Federal	-11.4814
▁indomie	-11.4815
▁asin	-11.4817
▁kejam	-11.4818
▁WANITA	-11.4818
▁Berbagai	-11.4818
▁Usahawan	-11.4818
▁retweet	-11.4818
▁Nggak	-11.4819
▁slim	-11.482
▁BNI	-11.482
▁Photo	-11.4821
▁99	-11.4823
GET	-11.4823
▁integriti	-11.4824
▁berasingan	-11.4825
▁diajar	-11.4825
dokter	-11.4825
▁dibunuh	-11.4825
RD	-11.4826
prabowosandi	-11.4828
▁Stra	-11.4828
▁sos	-11.4829
▁penyebaran	-11.4829
andai	-11.483
▁craving	-11.483
gede	-11.4831
▁sepupu	-11.4833
▁Melihat	-11.4835
▁nasehat	-11.4835
def	-11.4836
▁Skin	-11.4836
IMA	-11.4839
▁Teknik	-11.484
lantas	-11.484
botol	-11.4841
▁Normal	-11.4842
▁MotoGP	-11.4843
▁hape	-11.4844
cont	-11.4846
live	-11.4846
▁Bodo	-11.4847
berang	-11.4848
beri	-11.4848
▁Transfer	-11.4849
▁cerdas	-11.485
▁app	-11.4853
Alpes	-11.4854
fas	-11.4854
cincin	-11.4855
▁Indeks	-11.4858
DAH	-11.4859
▁panggung	-11.486
▁Keadaan	-11.4861
▁SH	-11.4861
▁terapi	-11.4862
Itu	-11.4862
▁close	-11.4863
APAN	-11.4863
▁kekerasan	-11.4865
▁Sebut	-11.4865
batikmurah	-11.4865
nanti	-11.4866
▁melarang	-11.4867
▁BATIK	-11.4868
▁genre	-11.4869
makmur	-11.4869
eka	-11.4869
TK	-11.4869
gua	-11.487
radi	-11.4871
▁gapapa	-11.4871
▁Bapa	-11.4872
▁sharing	-11.4873
▁Skrg	-11.4877
▁terjamin	-11.4877
▁ngerasa	-11.4879
gent	-11.4879
caya	-11.488
dusta	-11.488
bw	-11.4882
▁pekat	-11.4882
bc	-11.4883
rad	-11.4885
pakai	-11.4885
▁Perkasa	-11.4886
▁Komp	-11.4887
▁income	-11.4888
▁usim	-11.4889
▁Almarhum	-11.489
choco	-11.4899
▁menyalurkan	-11.4899
HH	-11.49
ajaran	-11.4901
kra	-11.4902
▁kuala	-11.4903
▁2007,	-11.4904
▁airport	-11.4905
▁membatalkan	-11.4905
▁trafik	-11.4906
osis	-11.4908
▁berpengalaman	-11.4908
senam	-11.4909
friend	-11.4909
lestari	-11.491
▁rase	-11.491
▁ejen	-11.491
▁thr	-11.491
ano	-11.4911
▁persaingan	-11.4912
▁Suci	-11.4914
sentral	-11.4915
▁serbuk	-11.4915
▁nyampe	-11.4918
▁selia	-11.4918
plain	-11.4918
▁ttp	-11.4919
▁Jamal	-11.4919
▁Lai	-11.4922
▁Chin	-11.4923
▁Sejuk	-11.4923
▁Final	-11.4923
▁scroll	-11.4924
garis	-11.4925
▁tni	-11.4926
sado	-11.4927
▁Gelang	-11.4929
coblos	-11.493
▁Kuning	-11.4931
cheese	-11.4931
▁Formula	-11.4932
▁Mahmud	-11.4932
▁beragam	-11.4933
▁kecurangan	-11.4934
jw	-11.4935
▁tayangan	-11.4936
▁Cou	-11.4936
▁berka	-11.4937
ashi	-11.4938
▁rotijohn	-11.4939
▁hr	-11.4939
ute	-11.4939
▁Yakin	-11.494
gia	-11.494
KEN	-11.4942
▁periode	-11.4942
▁SIM	-11.4943
▁poin	-11.4944
▁sallam	-11.4945
▁Tahukah	-11.4946
▁kabur	-11.4946
spon	-11.4946
▁upah	-11.4946
▁jobstreet	-11.4946
oksida	-11.4947
▁Cre	-11.4949
▁Hebat	-11.4949
▁Ireland	-11.4949
▁Lanka	-11.4951
▁ekspor	-11.4955
▁type	-11.4957
▁RW	-11.496
▁menyedari	-11.496
PET	-11.496
komedo	-11.4961
▁berkunjung	-11.4962
▁juak	-11.4963
tup	-11.4963
▁billion	-11.4963
▁arisan	-11.4964
wall	-11.4967
titip	-11.4968
▁tersayang	-11.4969
RY	-11.4969
▁Amar	-11.4969
▁Peti	-11.4972
meja	-11.4972
▁iso	-11.4973
▁160	-11.4975
MAL	-11.4975
▁LG	-11.4976
▁PD	-11.4978
seperti	-11.4979
▁syawal	-11.4979
▁syed	-11.4979
grow	-11.4979
lambang	-11.498
▁Slovakia	-11.4981
rawa	-11.4984
pdrm	-11.4984
▁sele	-11.4984
▁Tata	-11.4984
▁diisi	-11.4987
▁great	-11.4987
user	-11.4987
BY	-11.4988
esti	-11.499
▁menceritakan	-11.4991
KALI	-11.4991
cung	-11.4993
▁memasukkan	-11.4994
▁penanaman	-11.4994
▁Harta	-11.4994
▁Pinjaman	-11.4994
▁belikan	-11.4995
parti	-11.4995
kamu	-11.4996
▁ali	-11.4997
▁Seru	-11.4999
▁anime	-11.5
▁IV	-11.5
▁beruntung	-11.5001
▁OLEH	-11.5001
palsu	-11.5001
▁Atasan	-11.5002
OB	-11.5005
▁membalas	-11.5005
▁Respon	-11.5005
▁berniaga	-11.5006
▁LANGSUNG	-11.5006
▁SUKSES	-11.5006
▁akhlak	-11.5007
▁party	-11.5007
eem	-11.5007
WO	-11.5007
murahbanget	-11.501
▁ubah	-11.501
▁pizza	-11.5011
▁Baba	-11.5011
▁sempit	-11.5012
▁Web	-11.5012
iring	-11.5012
ovo	-11.5013
▁Perlindungan	-11.5013
perta	-11.5013
TAI	-11.5014
rusak	-11.5015
▁paha	-11.5016
gama	-11.5017
▁Dok	-11.5017
▁Fil	-11.5018
roti	-11.5018
▁disitu	-11.5018
▁Sh	-11.5018
ngah	-11.502
segar	-11.5022
▁Rt	-11.5023
num	-11.5023
▁Niat	-11.5023
singapore	-11.5023
▁FOTO	-11.5024
JE	-11.5024
▁Jualan	-11.5025
biji	-11.5029
KIN	-11.5029
▁Service	-11.503
text	-11.5032
▁Keseksaan	-11.5032
▁rezim	-11.5033
▁Rose	-11.5035
▁kitchen	-11.5035
gugu	-11.5037
▁Darurat	-11.5039
▁Lion	-11.504
▁gemes	-11.504
▁KDNK	-11.5043
▁Var	-11.5044
▁magic	-11.5048
▁Urusan	-11.5051
▁Sing	-11.5051
temen	-11.5052
111	-11.5054
sey	-11.5054
▁semester	-11.5055
olahraga	-11.5055
▁MEM	-11.5055
pil	-11.5055
ADUN	-11.5056
tembak	-11.5057
▁volume	-11.5057
▁ONGKIR	-11.5057
fresh	-11.5059
▁indonesian	-11.5061
▁Yaman	-11.5061
zai	-11.5062
▁episode	-11.5064
▁berpunca	-11.5064
▁galau	-11.5065
▁masalahnya	-11.5067
▁ADUN	-11.5068
▁mira	-11.5068
layang	-11.507
riya	-11.5071
America	-11.5071
▁materi	-11.5071
▁Fasa	-11.5073
klang	-11.5075
GH	-11.5076
▁merampas	-11.5077
▁Takkan	-11.5077
▁menyeru	-11.5078
▁QS	-11.508
gul	-11.5081
▁smlm	-11.5082
▁impor	-11.5083
pesan	-11.5084
▁berlakunya	-11.5085
▁Johari	-11.5085
▁Pena	-11.5086
▁bajumuslim	-11.5086
jilbab	-11.5087
▁Non	-11.5087
▁Tanda	-11.5087
▁wehh	-11.509
▁dorg	-11.509
budi	-11.5091
▁sepeda	-11.5092
▁babak	-11.5092
▁disambut	-11.5093
▁kuis	-11.5095
endra	-11.5095
▁macet	-11.5096
nto	-11.5097
▁lompat	-11.5098
▁Duh	-11.5104
lezat	-11.5104
AAAAA	-11.5105
▁Cas	-11.5107
▁pinggan	-11.5108
banjar	-11.5114
▁MINI	-11.5118
tina	-11.5118
Ru	-11.512
kilo	-11.5121
▁huhuhu	-11.5122
dn	-11.5122
▁drop	-11.5123
front	-11.5124
▁System	-11.5124
ick	-11.5126
▁Niaga	-11.5127
NGAN	-11.5127
▁kebetulan	-11.5128
▁disyaki	-11.5128
▁Temen	-11.5129
alukan	-11.5129
renda	-11.5129
ics	-11.513
saudara	-11.5132
▁COM	-11.5133
▁formal	-11.5133
▁dijumpai	-11.5134
▁ditunggu	-11.5136
▁human	-11.5138
▁ahad	-11.5143
▁sdt	-11.5144
▁MALAM	-11.5144
serve	-11.5144
▁hatinya	-11.5144
▁fitur	-11.5145
▁tender	-11.5148
▁Rasul	-11.515
▁lontong	-11.5151
▁bnyak	-11.5153
▁sekumpulan	-11.5153
▁SPM	-11.5153
▁Ming	-11.5155
▁terbentuk	-11.5156
▁Disini	-11.5157
elect	-11.5158
turn	-11.516
konveksi	-11.516
mei	-11.5164
hehehehe	-11.5165
▁shampoo	-11.5165
mantap	-11.5166
Am	-11.5166
▁Total	-11.5167
▁many	-11.5169
▁RO	-11.5169
▁capres	-11.5169
cegah	-11.5169
▁Penguatkuasaan	-11.517
ombak	-11.517
▁jafra	-11.5173
▁timbalan	-11.5174
▁setara	-11.5176
▁JOHOR	-11.5176
▁Kertas	-11.5178
▁kera	-11.5178
▁camtu	-11.5179
bha	-11.518
▁maybank	-11.518
▁Kastam	-11.518
RON	-11.5181
▁puan	-11.5183
▁Forum	-11.5186
▁Pesta	-11.5187
syi	-11.5187
▁wae	-11.5188
▁niii	-11.5188
harus	-11.5191
kebun	-11.5193
▁bocah	-11.5193
sad	-11.5195
dressmurah	-11.5196
raw	-11.5196
▁guling	-11.5198
grand	-11.5199
tet	-11.5199
atul	-11.52
▁jihad	-11.5201
xl	-11.5201
▁Hall	-11.5202
▁Seterusnya	-11.5202
▁1985	-11.5203
iko	-11.5203
▁PADAT	-11.5204
▁perolehan	-11.5205
fy	-11.5206
▁JPJ	-11.5207
mandiri	-11.5207
ukan	-11.5208
▁ketenteraan	-11.5209
▁iki	-11.5209
▁merusak	-11.5209
nant	-11.521
▁jajaran	-11.5211
▁Highlands	-11.5212
halang	-11.5212
▁pemilih	-11.5212
minat	-11.5215
▁dicipta	-11.5215
▁Master	-11.5218
▁saatnya	-11.5218
▁triliun	-11.5218
▁siak	-11.522
▁Jenderal	-11.5222
map	-11.5224
▁mengunjungi	-11.5225
film	-11.5228
▁mng	-11.523
size	-11.5231
RAT	-11.5233
▁lembab	-11.5234
SMK	-11.5234
hing	-11.5237
▁Engkau	-11.5239
▁bokep	-11.5239
▁Well	-11.5241
▁Bengkulu	-11.5241
▁terkandung	-11.5241
▁Menambah	-11.5241
ustadzabdulsomad	-11.5241
▁shift	-11.5242
rujuk	-11.5243
▁sugar	-11.5244
▁sosok	-11.5244
▁mengukuhkan	-11.5244
▁Knp	-11.5245
▁tren	-11.5246
▁pelatih	-11.5247
▁pembaca	-11.5248
yeon	-11.5249
▁mengharapkan	-11.525
▁liverpool	-11.5251
▁peperiksaan	-11.5251
▁sememangnya	-11.5251
desain	-11.5251
▁balai	-11.5252
benda	-11.5254
▁animasi	-11.5254
pisah	-11.5254
▁keseluruhannya	-11.5255
tetap	-11.5255
▁KURUS	-11.5255
198	-11.5255
▁plis	-11.5256
▁Pon	-11.5259
▁rais	-11.5261
▁patung	-11.5261
adventure	-11.5263
kocak	-11.5264
▁Standard	-11.5264
murahmeriah	-11.5264
rti	-11.5264
▁bersikap	-11.5264
▁pariwisata	-11.5264
lembut	-11.5264
▁edukasi	-11.5265
lambat	-11.5265
▁Fer	-11.5267
▁doorgift	-11.5267
▁Sk	-11.5268
mainan	-11.5269
▁Efek	-11.5269
▁hope	-11.5269
▁memulihkan	-11.527
ROS	-11.5273
▁kru	-11.5273
Damai	-11.5274
▁Asy	-11.5275
endang	-11.5276
▁Tawau	-11.5277
▁membiayai	-11.5277
▁felda	-11.5278
▁Mantan	-11.5278
mandang	-11.5279
▁fix	-11.5281
▁teliti	-11.5281
▁Card	-11.5282
▁gugur	-11.5283
▁Cuci	-11.5284
arif	-11.5284
▁Young	-11.5284
▁Terbaru	-11.5285
titi	-11.5287
▁donasi	-11.5287
DIS	-11.5287
lampu	-11.5288
duren	-11.5288
fisi	-11.529
▁Penya	-11.529
▁Gereja	-11.529
▁fake	-11.5291
▁Bermula	-11.5292
▁Angel	-11.5294
lumba	-11.5294
▁trading	-11.5294
▁keatas	-11.5294
▁mustahil	-11.5297
▁fesyen	-11.5297
▁Rahmat	-11.5303
▁Pembinaan	-11.5303
210	-11.5304
▁sampul	-11.5304
▁Putera	-11.5306
▁chef	-11.5307
ITA	-11.5307
▁health	-11.5308
ech	-11.531
▁Haziq	-11.531
▁ramah	-11.5312
▁perbicaraan	-11.5313
▁setelan	-11.5313
▁kencang	-11.5314
tuna	-11.5315
yal	-11.5315
united	-11.5316
▁diskusi	-11.5316
▁Cahaya	-11.5317
▁baper	-11.5318
▁moment	-11.5318
▁leader	-11.5318
sakan	-11.5318
▁Garden	-11.5318
▁pendatang	-11.5321
election	-11.5321
▁Pemilihan	-11.5324
rumahan	-11.5324
ile	-11.5324
jing	-11.5327
▁mt	-11.5327
▁bergaya	-11.5327
Cinta	-11.5328
▁camera	-11.5329
xia	-11.5329
lokasi	-11.5331
▁Ih	-11.5331
▁KFC	-11.5333
hong	-11.5335
▁Hussein	-11.5336
▁Sampe	-11.5336
▁Fan	-11.5337
oko	-11.5338
sli	-11.5339
▁KESIHATAN	-11.5339
▁membangkitkan	-11.5339
umum	-11.5339
▁Mis	-11.534
stagram	-11.5342
tunang	-11.5343
fen	-11.5343
cai	-11.5346
leb	-11.5348
Pas	-11.5349
▁taun	-11.5351
▁cakep	-11.5351
▁flower	-11.5352
▁kombinasi	-11.5353
hiking	-11.5354
hap	-11.5355
▁Lahir	-11.5356
▁Bantal	-11.5357
▁militer	-11.5358
▁1989	-11.5359
wakil	-11.5359
▁Exco	-11.5361
kosong	-11.5361
MER	-11.5362
▁dibebaskan	-11.5362
JPN	-11.5365
▁arsitek	-11.5365
▁berpandu	-11.5366
▁Polda	-11.5366
cong	-11.5368
▁elegan	-11.5369
▁diatur	-11.5369
▁sopan	-11.537
▁010	-11.5371
thn	-11.5372
ANI	-11.5373
▁LAIN	-11.5373
PUN	-11.5374
▁keberkesanan	-11.5375
daftar	-11.5377
▁Caranya	-11.5378
desa	-11.538
DY	-11.538
▁dipaksa	-11.5383
▁Isa	-11.5383
Anak	-11.5384
▁Santa	-11.5384
▁menekankan	-11.5386
vari	-11.5387
▁found	-11.5388
damansara	-11.5389
▁asus	-11.5389
oke	-11.5389
▁emo	-11.5389
flower	-11.539
dosa	-11.539
▁lautan	-11.5391
▁mendirikan	-11.5392
nci	-11.5393
pj	-11.5393
▁hina	-11.5393
▁Belanjawan	-11.5393
▁boneka	-11.5397
▁KOM	-11.5399
▁Soalnya	-11.5399
▁pegangan	-11.5399
PATI	-11.54
www	-11.5402
▁Maria	-11.5403
▁Shari	-11.5404
▁katakan	-11.5404
hay	-11.5405
▁Donald	-11.5405
aca	-11.5406
cod	-11.5407
▁hahahahah	-11.5408
▁Penerangan	-11.5408
printer	-11.5409
▁cb	-11.5411
▁input	-11.5412
▁gebu	-11.5412
▁Lari	-11.5413
hafal	-11.5413
▁gift	-11.5414
▁kaji	-11.5414
▁vsco	-11.5415
▁Abah	-11.5416
▁memori	-11.5417
▁jem	-11.5417
▁Bai	-11.5418
▁kor	-11.5418
▁Pengkalan	-11.5419
SING	-11.542
▁berte	-11.542
▁Simpan	-11.5426
▁sendok	-11.5426
loy	-11.5429
genggam	-11.543
nano	-11.543
MAX	-11.543
teria	-11.5433
▁jualrumah	-11.5435
▁Dickson	-11.5435
▁Cyberjaya	-11.5435
TEL	-11.5435
▁empuk	-11.5436
▁audit	-11.5437
▁mendekati	-11.5438
▁pencarian	-11.544
wl	-11.544
fungsi	-11.5441
▁kesilapan	-11.5441
▁47	-11.5442
▁FOR	-11.5442
luka	-11.5443
kait	-11.5443
▁Cuti	-11.5444
naz	-11.5445
▁Petang	-11.5446
▁Azman	-11.5446
▁Tor	-11.5451
▁Menarik	-11.5452
cky	-11.5453
rk	-11.5453
▁hijabers	-11.5455
▁Pesanan	-11.5456
109	-11.5457
▁Mengu	-11.5458
▁cookies	-11.5461
pulau	-11.5462
kawa	-11.5462
yeh	-11.5463
745	-11.5464
▁disokong	-11.5465
▁seribu	-11.5465
cheras	-11.5468
▁pangkalan	-11.5468
▁Agro	-11.5469
▁aduk	-11.547
▁Alhamdulilah	-11.5471
▁Pelaburan	-11.5473
bik	-11.5473
News	-11.5474
▁Tugas	-11.5474
asy	-11.5475
▁UEFA	-11.5475
char	-11.5477
pernah	-11.5478
▁Kehidupan	-11.5478
▁dibincangkan	-11.5478
▁Izzah	-11.5478
▁How	-11.548
▁vape	-11.5481
▁Android	-11.5481
etan	-11.5482
▁diorg	-11.5486
nol	-11.5488
▁Grosir	-11.5488
▁repair	-11.5489
▁ditinggalkan	-11.5489
▁rempah	-11.549
emb	-11.549
▁sesat	-11.5491
▁East	-11.5492
▁didirikan	-11.5492
laras	-11.5492
HP	-11.5494
word	-11.5494
▁SEA	-11.5495
▁MEI	-11.5495
▁kecap	-11.5496
▁Apapun	-11.5497
▁Sai	-11.5498
kado	-11.5501
▁Kera	-11.5501
▁MASA	-11.5503
▁Penerbangan	-11.5505
jp	-11.5505
▁600	-11.5507
VO	-11.5509
▁beratur	-11.5509
depan	-11.551
▁Restaurant	-11.5511
▁Town	-11.5512
▁DIY	-11.5512
izer	-11.5514
▁JALAN	-11.5515
lc	-11.5515
rokok	-11.5517
▁Lau	-11.552
▁rayuan	-11.5522
▁Hubungan	-11.5522
▁fattah	-11.5522
▁cop	-11.5523
▁rasakan	-11.5524
Dakwah	-11.5524
▁Nie	-11.5524
▁otomatis	-11.5525
▁secepat	-11.5525
▁UTK	-11.5526
▁CS	-11.5527
gitu	-11.5528
▁BL	-11.5528
karta	-11.5529
udara	-11.553
PBT	-11.5531
▁rilek	-11.5533
puisi	-11.5534
▁dimuat	-11.5535
▁BERTULIS	-11.5535
asih	-11.5536
▁deodorant	-11.5537
222	-11.5538
▁014	-11.5538
suf	-11.5539
ific	-11.5539
▁skrng	-11.554
▁berkait	-11.5541
▁dropnshop	-11.5542
formasi	-11.5543
seg	-11.5543
▁Pembayaran	-11.5545
▁Castile	-11.5545
gantipresiden	-11.5545
▁Poli	-11.5546
▁page	-11.5546
▁sosialis	-11.5546
coach	-11.5548
arti	-11.5549
▁akhwat	-11.5549
▁pemilikan	-11.5549
▁utamanya	-11.5553
▁LED	-11.5553
public	-11.5553
▁prihatin	-11.5556
rier	-11.5557
▁mengerti	-11.5558
gov	-11.5558
▁penalti	-11.5558
puh	-11.5559
▁Akibat	-11.5559
MON	-11.5559
keh	-11.556
▁Rad	-11.5561
lembap	-11.5563
▁pentingnya	-11.5563
▁1984	-11.5565
▁dikurangkan	-11.5565
Love	-11.5566
langkawi	-11.5567
ubat	-11.5567
KW	-11.5567
fest	-11.5567
▁iflix	-11.5568
▁near	-11.5569
▁Rama	-11.5571
▁pandan	-11.5571
peduli	-11.5575
▁masanya	-11.5575
▁such	-11.5576
baper	-11.5576
mohon	-11.5577
Menge	-11.5577
▁PLUS	-11.5578
▁seberapa	-11.5578
▁Kam	-11.5579
▁ice	-11.558
fitri	-11.5588
▁ptptn	-11.5589
▁keretasewa	-11.559
▁tragedi	-11.5592
eyeshadow	-11.5592
▁diwakili	-11.5593
kimia	-11.5593
▁diangkat	-11.5593
▁Gaza	-11.5594
tte	-11.5595
▁pay	-11.5595
▁Maklumat	-11.5595
▁Sentral	-11.5595
laaa	-11.5598
▁turunkan	-11.5599
▁Reka	-11.56
zal	-11.56
▁Pala	-11.5601
▁unisza	-11.5602
khalidbasalamah	-11.5602
▁JUN	-11.5602
▁alas	-11.5603
fli	-11.5603
▁panik	-11.5604
▁melekat	-11.5604
▁Ras	-11.5604
▁Loke	-11.5606
▁goblok	-11.5606
ilan	-11.5608
▁Sydney	-11.5609
▁Skincare	-11.5609
tkan	-11.561
▁Bagan	-11.5611
outdoor	-11.5612
▁JUAL	-11.5614
reen	-11.5616
▁Public	-11.5617
klaten	-11.5619
▁bersepadu	-11.5619
▁barai	-11.5621
▁serentak	-11.5622
▁Liat	-11.5625
▁perisian	-11.5626
▁tmpt	-11.5626
maha	-11.5627
▁BERSAMA	-11.5629
bangkit	-11.563
▁PAGI	-11.5632
▁California	-11.5632
▁pendedahan	-11.5632
▁apatah	-11.5634
tangga	-11.5635
650	-11.5635
▁MELAYU	-11.5636
▁katun	-11.5636
malu	-11.5636
▁berpeluang	-11.5637
▁against	-11.5638
rupa	-11.5638
▁Ehh	-11.5638
▁dagangan	-11.5639
▁Dur	-11.564
▁081	-11.5642
▁Sesetengah	-11.5643
pants	-11.5643
▁weyh	-11.5643
dance	-11.5646
▁max	-11.5647
▁PERLU	-11.5647
▁songket	-11.5649
▁bubar	-11.5649
▁Iklan	-11.565
LC	-11.5652
▁terawih	-11.5653
avi	-11.5654
usul	-11.5654
profesi	-11.5655
▁scene	-11.5655
▁Store	-11.5656
▁Selat	-11.5656
▁Shafie	-11.5657
sejarah	-11.5657
▁asalkan	-11.5657
wen	-11.5658
HS	-11.5661
▁Edisi	-11.5661
▁istiqomah	-11.5661
▁bile	-11.5662
▁sepasang	-11.5662
memes	-11.5666
Junior	-11.5666
▁diturunkan	-11.5666
▁Rabb	-11.5667
minum	-11.5667
▁God	-11.5668
kembang	-11.567
▁army	-11.567
▁merajuk	-11.567
bdg	-11.5673
▁memuaskan	-11.5673
▁bekal	-11.5676
ppp	-11.5678
▁berbelanja	-11.5678
▁pendaki	-11.568
▁FAST	-11.568
▁asid	-11.5681
▁PB	-11.5681
▁private	-11.5681
casual	-11.5682
cermin	-11.5683
▁terapiinstagram	-11.5684
▁Club	-11.5685
▁pick	-11.5685
▁dalem	-11.5687
properti	-11.5687
▁tembakan	-11.5687
ces	-11.5689
acu	-11.5689
▁Even	-11.569
inc	-11.569
▁Lepastu	-11.569
▁Back	-11.5691
▁Perwakilan	-11.5694
▁moisturizer	-11.5694
▁SETIAP	-11.5694
2000	-11.5696
▁dewa	-11.5697
▁Office	-11.5698
▁Sabun	-11.5698
puchong	-11.5698
▁Charles	-11.5699
cross	-11.5699
▁dosen	-11.57
▁Why	-11.57
▁Buang	-11.5701
▁UN	-11.5701
pedia	-11.5702
tarik	-11.5704
▁gambaran	-11.5705
▁ptg	-11.5706
▁tutorial	-11.5707
▁Hey	-11.5707
▁Generasi	-11.5707
▁Istilah	-11.5708
mbus	-11.5708
▁dijaga	-11.5708
▁Kasus	-11.5708
▁apo	-11.571
ganteng	-11.571
ito	-11.5711
▁delay	-11.5713
▁membakar	-11.5713
▁bantahan	-11.5714
acara	-11.5715
▁1963	-11.5715
▁panci	-11.572
▁tl	-11.5721
▁serantau	-11.5722
▁AM	-11.5723
space	-11.5723
▁pendakwaan	-11.5723
Ne	-11.5724
▁Jawi	-11.5724
than	-11.5727
▁Kur	-11.5727
▁pengecualian	-11.5728
▁form	-11.5728
▁Times	-11.5728
▁ditanggung	-11.5729
▁narkoba	-11.5731
touch	-11.5731
rohani	-11.5731
▁ain	-11.5734
▁Suatu	-11.5735
matte	-11.5735
▁Ingatkan	-11.5735
▁ditangani	-11.5736
▁shj	-11.5737
▁three	-11.5737
yoo	-11.5737
▁gpp	-11.5737
▁Tha	-11.5738
▁kalimat	-11.574
▁Kho	-11.5741
▁kriteria	-11.5741
▁delete	-11.5742
▁undian	-11.5742
foundation	-11.5744
hubung	-11.5745
soal	-11.5746
▁Urut	-11.5746
▁letupan	-11.5748
ICERD	-11.5748
▁bersabar	-11.5748
▁Kebaya	-11.575
▁penah	-11.5751
▁konon	-11.5752
▁kemunculan	-11.5755
Official	-11.5758
▁Diploma	-11.5758
▁debu	-11.5759
▁galeri	-11.5759
106	-11.576
▁porsi	-11.5763
▁terawal	-11.5765
keliling	-11.5767
▁Koh	-11.5769
▁Milan	-11.5769
▁Mala	-11.5769
aah	-11.5771
integrasi	-11.5772
Air	-11.5773
▁keris	-11.5774
▁^	-11.5774
jus	-11.5775
spray	-11.5775
picture	-11.5776
▁Gan	-11.5776
▁manual	-11.5777
▁Motif	-11.5779
0000	-11.578
▁diduga	-11.5781
▁Rem	-11.5782
▁hadits	-11.5783
▁sepe	-11.5784
▁telan	-11.5785
Tidak	-11.5785
▁selesaikan	-11.5786
▁aih	-11.5786
▁Soalan	-11.5786
▁Naga	-11.5787
prov	-11.5788
▁hawa	-11.5788
▁betta	-11.5788
It	-11.5789
▁Tertinggi	-11.5789
▁tertuduh	-11.5789
liga	-11.579
acne	-11.579
▁Wangi	-11.5791
▁rantai	-11.5792
▁habiskan	-11.5793
lop	-11.5793
▁1,5	-11.5794
YU	-11.5794
tanjung	-11.5795
mpung	-11.5795
▁airasia	-11.5796
bie	-11.5796
▁falsafah	-11.5796
▁Teng	-11.5803
▁ciptaan	-11.5804
▁makassar	-11.5805
▁KPM	-11.5805
▁kutu	-11.5806
2,5	-11.5806
▁ekstrak	-11.5807
▁dilindungi	-11.5807
▁bua	-11.5808
▁ame	-11.5808
AWAN	-11.5809
▁sop	-11.5809
alan	-11.5812
▁samp	-11.5813
handsock	-11.5814
mpi	-11.5814
▁bursa	-11.5814
▁Dimana	-11.5816
▁Jak	-11.5817
▁ditandatangani	-11.5817
▁Listrik	-11.5817
▁Tin	-11.5818
MENT	-11.5819
▁tuju	-11.5821
▁dendam	-11.5821
225	-11.5822
abis	-11.5824
jae	-11.5825
promosi	-11.5825
▁berhasrat	-11.5827
entrepreneur	-11.5827
▁Alex	-11.5827
tutup	-11.5829
▁menjayakan	-11.5831
▁kepakaran	-11.5831
▁canggih	-11.5832
▁rumahmurah	-11.5833
pc	-11.5833
▁istirahat	-11.5834
▁Comel	-11.5835
▁Kai	-11.5836
ASA	-11.5837
▁bertempat	-11.5837
jor	-11.5837
▁1986	-11.5839
▁merk	-11.584
▁terkawal	-11.5841
▁menandakan	-11.5841
▁ISLAM	-11.5841
alik	-11.5842
▁bangang	-11.5843
▁head	-11.5849
sayuran	-11.585
bati	-11.5852
▁Fitnah	-11.5852
▁sayajualmurah	-11.5853
▁Mere	-11.5853
ganas	-11.5856
▁ceterahatidiya	-11.5858
▁bengkak	-11.5858
agamaislam	-11.5861
▁berseri	-11.5862
HAH	-11.5862
▁Viral	-11.5863
▁Ria	-11.5865
▁colour	-11.5865
▁Yah	-11.5866
▁Duk	-11.5866
▁Isteri	-11.5869
ich	-11.5869
▁stand	-11.5871
kti	-11.5871
nz	-11.5871
ND	-11.5874
imut	-11.5875
▁kafe	-11.5876
▁Saksikan	-11.5878
▁puteri	-11.5878
▁digi	-11.5878
awang	-11.5879
▁kejatuhan	-11.5879
RAH	-11.5882
▁Light	-11.5882
▁during	-11.5883
core	-11.5883
▁berisiko	-11.5886
▁Gor	-11.5888
240	-11.5888
sumber	-11.5889
▁rmh	-11.5889
lamp	-11.5889
▁Yan	-11.5889
▁profil	-11.589
777	-11.589
kreatif	-11.589
▁jalanan	-11.5891
▁usai	-11.5891
▁Box	-11.5892
▁kandang	-11.5892
milik	-11.5894
berat	-11.5894
Sandiaga	-11.5894
ramah	-11.5894
▁aurat	-11.5895
babi	-11.5897
▁RASA	-11.5897
▁gosok	-11.5898
vienta	-11.59
▁UU	-11.5901
▁People	-11.5901
▁perkebunan	-11.5902
▁Mencari	-11.5903
shallallahu	-11.5903
▁Perhubungan	-11.5903
▁jurang	-11.5905
pilih	-11.5905
▁Tentu	-11.5905
nus	-11.5906
▁Tahap	-11.5907
▁Gara	-11.5907
▁neng	-11.5909
inspirasi	-11.591
▁ceritanya	-11.5912
▁berbau	-11.5912
▁mahukan	-11.5916
▁PELA	-11.5917
uki	-11.5919
tulis	-11.5919
hey	-11.5921
▁friend	-11.5921
▁Kecantikan	-11.5921
▁MASALAH	-11.5921
▁eat	-11.5923
▁kerepek	-11.5924
▁gmbr	-11.5925
PPR	-11.5925
▁1945	-11.5926
▁siapapun	-11.5927
place	-11.5927
bangkok	-11.5927
▁Ais	-11.5928
▁Pemenang	-11.5928
▁del	-11.5928
▁apps	-11.593
▁Burger	-11.5931
▁130	-11.5931
▁membantah	-11.5932
▁sg	-11.5932
EG	-11.5932
▁tuk	-11.5933
▁dicari	-11.5933
von	-11.5934
SY	-11.5935
tafsir	-11.5938
▁mengisytiharkan	-11.5938
tay	-11.5939
▁Penge	-11.5939
▁Kasi	-11.5941
▁Darah	-11.5941
▁With	-11.5941
▁basic	-11.5942
leather	-11.5942
▁Hana	-11.5943
mali	-11.5944
eeeee	-11.5944
opi	-11.5945
260	-11.5945
▁identiti	-11.5946
shake	-11.5947
simple	-11.5948
▁Brand	-11.5948
▁Laptop	-11.5949
▁menghadap	-11.5949
Min	-11.595
itis	-11.5952
▁PREMIUM	-11.5952
▁betina	-11.5952
▁menjalin	-11.5953
▁bujang	-11.5954
dulu	-11.5956
▁kuey	-11.5956
▁okey	-11.5957
mengaji	-11.5958
▁Halaman	-11.5958
palu	-11.5958
▁analisis	-11.5959
▁aspirasi	-11.596
▁Ron	-11.5961
▁AFC	-11.5961
▁month	-11.5961
▁bon	-11.5962
▁Pribumi	-11.5963
sera	-11.5964
JAM	-11.5966
▁tergolong	-11.5966
qq	-11.5967
▁Kh	-11.5968
▁Suria	-11.5968
LANG	-11.5969
▁Pameran	-11.597
TAK	-11.5973
np	-11.5975
alun	-11.5976
IND	-11.5977
angel	-11.598
▁PRE	-11.598
Bagaimanapun	-11.5983
▁tersangka	-11.5984
▁Audit	-11.5985
▁Wangsa	-11.5988
ANGKA	-11.5989
blitar	-11.5989
takraw	-11.599
127	-11.599
▁bakteri	-11.599
kulot	-11.599
▁pemandangan	-11.5991
sio	-11.5991
RASI	-11.5991
▁Jemput	-11.5991
▁ratus	-11.5992
▁wey	-11.5993
▁eksekutif	-11.5994
▁oksigen	-11.5998
▁berpengaruh	-11.5999
▁bubble	-11.5999
rez	-11.6
pantas	-11.6
▁Pertempuran	-11.6001
▁Putri	-11.6001
▁streaming	-11.6002
▁Muzium	-11.6005
tary	-11.6005
▁PETRONAS	-11.6008
YUK	-11.601
borneo	-11.6012
▁flek	-11.6012
berpantang	-11.6012
culinary	-11.6014
sajat	-11.6016
lempang	-11.6016
▁song	-11.6019
▁Permaisuri	-11.6019
proses	-11.6019
▁Bosan	-11.6019
inter	-11.602
HAL	-11.602
▁hikmah	-11.602
▁mne	-11.6021
Baru	-11.6023
unjuk	-11.6025
▁2006,	-11.6025
▁penguat	-11.6026
▁kunyit	-11.6027
▁sebutan	-11.6028
iiiii	-11.6029
▁blog	-11.603
brown	-11.6031
▁kananku	-11.6033
▁tggu	-11.6033
▁old	-11.6036
▁Dm	-11.6036
FIT	-11.6039
aye	-11.6039
bd	-11.6041
subang	-11.6041
koh	-11.6041
▁zon	-11.6041
▁VIDEO	-11.6043
▁Rafizi	-11.6044
bijak	-11.6044
GR	-11.6044
Mak	-11.6045
▁beres	-11.6045
▁Lombok	-11.6048
▁menc	-11.6048
▁dota	-11.6049
uy	-11.6051
▁ingt	-11.6052
▁DPRD	-11.6052
dorong	-11.6053
▁jendela	-11.6053
▁KONSULTASI	-11.6054
▁Dapur	-11.6056
▁tempur	-11.6056
protect	-11.6057
▁china	-11.6057
▁change	-11.6058
und	-11.6058
▁Stop	-11.6058
▁liputan	-11.6058
▁Website	-11.6065
▁buy	-11.6069
ahaha	-11.6071
▁deal	-11.6071
▁Namanya	-11.6071
▁MAJLIS	-11.6071
▁Hor	-11.6072
▁Ray	-11.6073
▁lomba	-11.6074
IQ	-11.6074
▁bagitau	-11.6075
▁terkemuka	-11.6075
boro	-11.6076
VC	-11.6078
▁duluan	-11.6078
trol	-11.6079
En	-11.6079
▁merangka	-11.6079
▁cupang	-11.608
WU	-11.6081
▁terdedah	-11.6082
▁Seramai	-11.6084
worth	-11.6084
msglow	-11.6084
▁Coffee	-11.6086
umbu	-11.6086
▁price	-11.6088
▁oriflame	-11.6089
▁Status	-11.609
heboh	-11.6091
ux	-11.6091
jangka	-11.6091
cker	-11.6092
▁Major	-11.6093
▁Statut	-11.6094
▁diperbuat	-11.6094
▁kids	-11.6095
makanankucing	-11.6097
▁sampaikan	-11.6097
cop	-11.6097
▁AK	-11.6097
▁alergi	-11.6097
001	-11.6098
PRI	-11.6099
▁Gedung	-11.6102
sif	-11.6102
▁Sempena	-11.6103
▁ucapkan	-11.6104
▁1988	-11.6104
▁Prix	-11.6104
glowing	-11.6106
rumus	-11.6106
diskriminasi	-11.6107
▁salad	-11.6108
▁bwk	-11.611
▁Mid	-11.6113
▁seksyen	-11.6113
[...]
