<pad>	0
<unk>	0
[CLS]	0
[SEP]	0
[MASK]	0
.	0
(	0
)	0
"	0
-	0
–	0
£	0
€	0
#	0
'	0
[	0
]	0
▁	-1.85551
▁,	-4.20611
,	-4.29192
▁yang	-4.63854
▁di	-4.70148
▁dan	-4.72675
▁aku	-5.12445
nya	-5.23705
s	-5.49556
an	-5.54774
▁:	-5.5621
▁?	-5.59081
▁ini	-5.61509
▁ke	-5.64781
▁dengan	-5.65896
▁untuk	-5.692
2	-5.71862
▁ni	-5.74442
kan	-5.84271
▁tak	-5.8581
▁ada	-5.88143
▁dalam	-5.91617
▁itu	-5.95323
▁dia	-5.98624
▁yg	-6.01107
▁nak	-6.02541
▁!	-6.06366
i	-6.07668
▁dari	-6.0883
▁tu	-6.21326
▁pada	-6.2189
▁orang	-6.2837
▁tidak	-6.29676
a	-6.35965
▁lagi	-6.38727
▁akan	-6.389
▁kita	-6.42635
k	-6.43187
▁juga	-6.44729
▁dah	-6.4949
▁/	-6.50124
in	-6.5041
▁Aku	-6.50702
▁the	-6.52115
e	-6.52983
▁la	-6.55244
▁buat	-6.56956
m	-6.57289
▁boleh	-6.61912
t	-6.61998
▁apa	-6.65825
▁pun	-6.67843
▁je	-6.68074
▁kepada	-6.68112
▁tahun	-6.68935
▁adalah	-6.6934
▁to	-6.71076
▁ya	-6.72945
▁1	-6.73151
▁atau	-6.73597
▁tapi	-6.75477
▁saya	-6.75489
▁sama	-6.77797
▁hari	-6.79869
▁kau	-6.80429
▁bagi	-6.81685
▁lebih	-6.82887
▁semua	-6.83397
▁oleh	-6.8376
▁mereka	-6.83952
▁I	-6.84553
▁lah	-6.85814
▁in	-6.85841
lah	-6.86712
▁jadi	-6.88203
▁and	-6.88724
ku	-6.88888
▁satu	-6.9083
h	-6.91715
▁telah	-6.91752
▁bisa	-6.92389
▁&	-6.93842
▁Malaysia	-6.96982
▁kamu	-6.98516
▁sebagai	-7.0156
▁kalau	-7.03329
▁baru	-7.05362
▁lain	-7.06055
▁3	-7.06762
d	-7.08196
▁merupakan	-7.09894
▁dapat	-7.11451
▁sebuah	-7.12009
▁banyak	-7.12426
o	-7.12743
▁mau	-7.13003
▁bukan	-7.14386
mu	-7.15088
▁anak	-7.16128
▁a	-7.16521
▁rumah	-7.16608
n	-7.17012
▁ga	-7.17472
:	-7.17551
▁aja	-7.18494
▁mana	-7.19023
▁;	-7.19623
▁of	-7.20439
▁kat	-7.20662
▁A	-7.22208
u	-7.23525
▁Di	-7.24406
▁makan	-7.25015
▁kena	-7.25565
▁menjadi	-7.2645
ing	-7.26701
▁i	-7.26716
▁masih	-7.27151
▁sudah	-7.28397
y	-7.29425
▁daripada	-7.29863
▁macam	-7.31141
▁negara	-7.31619
▁baik	-7.31625
▁2	-7.32731
▁seperti	-7.3314
▁masa	-7.33358
▁kami	-7.33491
▁RM	-7.34873
▁sampai	-7.37197
▁rasa	-7.38232
▁sangat	-7.38751
▁ber	-7.39455
amp	-7.4017
▁sendiri	-7.40842
r	-7.41858
▁hanya	-7.42675
▁pernah	-7.44476
▁4	-7.45095
▁terus	-7.46258
▁tau	-7.46875
▁sebab	-7.47786
▁dulu	-7.49101
▁S	-7.51376
▁is	-7.51647
▁you	-7.53811
▁suka	-7.54491
▁5	-7.54639
▁kerja	-7.55383
ed	-7.55516
▁gak	-7.56135
▁Allah	-7.56835
▁balik	-7.58093
▁atas	-7.58738
▁hati	-7.59652
l	-7.60174
A	-7.60426
▁Kalau	-7.60441
▁beli	-7.61057
▁me	-7.61079
▁air	-7.61379
▁tahu	-7.61566
▁Tapi	-7.62173
p	-7.62277
▁Yang	-7.6234
▁at	-7.62405
▁kata	-7.62789
er	-7.62895
▁hidup	-7.62982
▁terletak	-7.63132
1	-7.63878
▁bila	-7.64175
▁dgn	-7.64531
▁Tak	-7.648
▁*	-7.65724
▁Indonesia	-7.6599
▁salah	-7.66876
▁kali	-7.67089
▁masuk	-7.67499
▁tidur	-7.67831
S	-7.68053
▁tersebut	-7.68251
g	-7.69448
▁kalo	-7.69767
▁for	-7.70886
▁diri	-7.71316
la	-7.71327
▁so	-7.71478
▁perlu	-7.73283
▁dekat	-7.7438
▁kerana	-7.74501
▁punya	-7.74512
▁secara	-7.74643
▁jangan	-7.74645
ah	-7.7483
▁org	-7.7496
K	-7.75369
▁ia	-7.75718
▁sekarang	-7.76751
▁kanan	-7.77744
▁10	-7.78195
▁be	-7.78286
▁Dia	-7.78958
▁ialah	-7.79595
▁2019	-7.79668
▁lama	-7.80004
▁dua	-7.80333
▁pakai	-7.80599
▁Ada	-7.80949
▁serta	-7.81082
▁Ke	-7.81244
▁seorang	-7.81528
al	-7.81552
▁karena	-7.81835
▁jalan	-7.82142
▁udah	-7.82353
▁ter	-7.83227
na	-7.83291
▁x	-7.83317
▁besar	-7.83754
▁berkata	-7.83815
▁bersama	-7.84203
▁kerajaan	-7.8421
b	-7.84564
▁memang	-7.84603
ta	-7.86607
▁kawasan	-7.86623
▁Islam	-7.87167
▁Menteri	-7.87205
▁beliau	-7.8731
▁anda	-7.87382
▁se	-7.87386
▁sebelum	-7.87605
▁tempat	-7.87903
?	-7.88137
▁mcm	-7.88443
3	-7.8846
▁paling	-7.88481
▁malam	-7.88573
▁raya	-7.88641
▁lalu	-7.88641
▁Kuala	-7.88945
▁nk	-7.89363
▁Pada	-7.89729
▁selalu	-7.89894
▁Ini	-7.90101
▁no	-7.90522
▁saja	-7.90602
▁beberapa	-7.909
▁sini	-7.91015
▁sekolah	-7.91147
▁ketika	-7.91739
▁nanti	-7.91922
▁pergi	-7.92491
▁bulan	-7.92721
▁B	-7.92789
▁sekali	-7.9293
▁katanya	-7.92931
▁liao	-7.93172
▁pagi	-7.93644
▁Al	-7.94411
▁my	-7.95286
▁jam	-7.95318
▁Saya	-7.95959
▁that	-7.96052
▁M	-7.96194
M	-7.96759
▁Dan	-7.971
di	-7.97166
▁Jangan	-7.97205
T	-7.97693
▁bawah	-7.97802
▁6	-7.97882
▁setiap	-7.97896
▁harus	-7.98138
▁baju	-7.98848
▁si	-7.99164
▁negeri	-7.99198
▁masalah	-7.99624
▁belum	-7.99995
▁antara	-8.00638
▁tengok	-8.00764
▁Nak	-8.01123
si	-8.02078
ng	-8.02874
▁nama	-8.02891
▁utk	-8.03114
▁lelaki	-8.03265
▁mak	-8.03271
▁kan	-8.03353
▁it	-8.0371
▁kasih	-8.04185
▁on	-8.04331
▁depan	-8.04339
▁banget	-8.0435
ya	-8.04436
B	-8.04453
x	-8.04607
▁7	-8.04626
▁rakyat	-8.04659
▁Ber	-8.04738
▁saat	-8.04915
▁dunia	-8.05305
▁tadi	-8.05597
▁pertama	-8.05709
▁ku	-8.06269
w	-8.06524
at	-8.06763
▁duit	-8.06866
▁Selangor	-8.07195
▁tanpa	-8.07343
▁like	-8.07965
▁gue	-8.08057
;	-8.08814
▁mempunyai	-8.09057
▁cakap	-8.09389
5	-8.09529
▁pake	-8.09641
▁Dalam	-8.10058
▁not	-8.10355
▁kenapa	-8.10382
4	-8.10684
▁betul	-8.10729
c	-8.10798
▁E	-8.10811
000	-8.10966
▁harga	-8.10974
▁P	-8.1098
▁sayang	-8.11038
▁Ya	-8.11133
▁Se	-8.11427
li	-8.11584
▁lepas	-8.11866
▁manusia	-8.12257
▁pulak	-8.12286
▁mata	-8.12381
da	-8.1275
▁langsung	-8.12858
▁datang	-8.12926
ke	-8.13218
▁time	-8.13314
▁waktu	-8.13398
▁membuat	-8.1344
▁kawan	-8.13606
_	-8.13697
on	-8.1404
▁keluar	-8.142
▁kulit	-8.14325
▁ibu	-8.14419
▁cuma	-8.14608
C	-8.14668
▁sih	-8.151
▁main	-8.15406
▁selepas	-8.15439
▁hingga	-8.15468
D	-8.16088
ka	-8.16216
▁Apa	-8.16404
▁Kerajaan	-8.16666
se	-8.17245
▁jika	-8.17464
es	-8.17706
▁naik	-8.17823
▁Dr	-8.17947
▁siapa	-8.1816
▁sehingga	-8.19184
▁but	-8.19282
is	-8.19314
ar	-8.19518
▁pihak	-8.19612
▁terhadap	-8.19858
▁Lumpur	-8.20326
▁tinggi	-8.20399
▁u	-8.20418
▁kalian	-8.20546
▁ramai	-8.20842
▁isu	-8.21798
▁tolong	-8.22205
▁luar	-8.22205
I	-8.22342
▁hal	-8.22398
▁lupa	-8.22486
▁mungkin	-8.22675
▁Untuk	-8.22792
▁makanan	-8.23698
@	-8.23784
ne	-8.23804
▁tp	-8.24002
▁%	-8.24136
▁melalui	-8.24173
▁kecil	-8.24174
f	-8.24228
ly	-8.245
ra	-8.24614
▁So	-8.24749
H	-8.24964
sa	-8.25274
▁+	-8.25374
▁buah	-8.25984
▁pula	-8.2618
▁kiri	-8.26265
▁tetapi	-8.26596
▁bahawa	-8.26637
▁biasa	-8.2677
▁Hari	-8.26786
ri	-8.26831
▁cari	-8.27084
▁Ia	-8.27539
▁perempuan	-8.27641
▁per	-8.28133
▁can	-8.28254
▁iaitu	-8.2846
▁T	-8.28647
en	-8.29241
▁leh	-8.29246
ang	-8.29293
le	-8.29545
G	-8.29657
▁Kita	-8.29694
▁this	-8.29757
▁K	-8.29774
▁J	-8.29933
▁U	-8.30193
▁benda	-8.30212
ni	-8.30232
▁termasuk	-8.3028
▁mampu	-8.30548
▁Me	-8.30666
▁kereta	-8.307
▁he	-8.30784
▁Selamat	-8.31063
ma	-8.31339
re	-8.31346
▁cerita	-8.31455
▁sakit	-8.31781
▁keluarga	-8.31823
▁nasi	-8.31884
▁tentang	-8.3189
AN	-8.31955
▁memiliki	-8.32184
▁sedang	-8.33053
▁penting	-8.33154
▁C	-8.33377
man	-8.33416
▁badan	-8.3342
▁Dah	-8.3356
▁lagu	-8.33752
▁Melayu	-8.34044
▁ingin	-8.34124
▁muka	-8.34602
▁with	-8.34881
▁al	-8.35283
▁juta	-8.35427
▁8	-8.35565
▁Datuk	-8.35796
▁masyarakat	-8.36238
▁minta	-8.36293
▁menggunakan	-8.36727
us	-8.36775
E	-8.36819
▁or	-8.37043
▁pasti	-8.37106
to	-8.37251
▁de	-8.37276
ti	-8.37438
▁awal	-8.37518
▁The	-8.3758
▁Negeri	-8.37625
de	-8.37824
▁batu	-8.38144
▁Beliau	-8.38486
▁as	-8.38665
j	-8.38731
▁memberi	-8.38793
te	-8.38988
▁pas	-8.39335
▁tengah	-8.39379
▁digunakan	-8.3945
▁kembali	-8.39718
or	-8.39783
▁korang	-8.40117
▁kedua	-8.40196
▁wanita	-8.40549
P	-8.40572
▁belajar	-8.40761
z	-8.40796
▁cara	-8.41008
▁one	-8.41191
▁Jadi	-8.41642
▁tanya	-8.41824
▁nih	-8.41838
▁selama	-8.42255
▁para	-8.42263
▁tangan	-8.42463
▁pe	-8.42553
ter	-8.43545
▁cukup	-8.43838
▁tetap	-8.44073
▁Sekolah	-8.44196
▁RT	-8.44262
▁agama	-8.44428
▁eh	-8.44611
▁up	-8.44896
▁20	-8.45001
▁habis	-8.45354
▁mati	-8.45501
▁bgt	-8.45561
pe	-8.45794
tu	-8.45795
▁daerah	-8.45879
6	-8.46944
▁H	-8.46967
▁kurang	-8.47255
▁jugak	-8.47315
▁Harga	-8.47588
me	-8.47589
▁ko	-8.47703
▁gitu	-8.48039
▁Orang	-8.48207
▁gila	-8.48239
▁ka	-8.48818
7	-8.48904
▁sikit	-8.49185
▁Johor	-8.49253
▁Pe	-8.49727
▁Semoga	-8.49813
▁melihat	-8.50033
▁kok	-8.50105
▁kampung	-8.50339
▁b	-8.50444
▁D	-8.50518
▁Kau	-8.50524
▁9	-8.50797
▁Baru	-8.50937
▁siap	-8.50949
am	-8.51315
▁takut	-8.51382
▁adik	-8.51438
▁jauh	-8.51489
▁12	-8.51901
▁sahaja	-8.52086
▁Ni	-8.52163
▁Bila	-8.52213
▁baca	-8.52548
▁sbb	-8.52633
▁nampak	-8.5311
▁was	-8.53129
▁dh	-8.53275
/	-8.53334
00	-8.53456
▁Alhamdulillah	-8.53791
▁pon	-8.53998
▁your	-8.54019
▁produk	-8.54131
▁tanah	-8.5429
▁mudah	-8.54382
▁Bukan	-8.54394
▁tiba	-8.54424
▁Rp	-8.54533
▁membantu	-8.54556
▁jenis	-8.54773
▁N	-8.54852
▁cantik	-8.54898
▁agar	-8.55046
▁Anda	-8.55174
ga	-8.55299
▁DI	-8.55397
▁kak	-8.5552
▁O	-8.55627
▁kaya	-8.55629
lu	-8.55748
ber	-8.55866
th	-8.55995
▁ayah	-8.5602
▁sejak	-8.56058
▁turut	-8.56066
▁sambil	-8.5607
▁video	-8.5641
▁sebanyak	-8.56631
un	-8.56692
▁buku	-8.56745
▁Negara	-8.56909
▁from	-8.5711
▁do	-8.57279
▁ja	-8.57487
▁just	-8.57527
▁berlaku	-8.57553
▁sedih	-8.57687
▁program	-8.57721
▁jual	-8.57771
▁bikin	-8.57781
ak	-8.57836
▁biar	-8.57872
▁apabila	-8.58664
▁duduk	-8.58866
▁setelah	-8.58879
no	-8.58977
▁media	-8.58988
▁mah	-8.59285
▁politik	-8.59647
▁cepat	-8.60097
▁minyak	-8.60241
▁nge	-8.60271
▁utama	-8.60435
▁jumlah	-8.60845
▁go	-8.60929
▁WA	-8.61099
▁ye	-8.61134
▁bahan	-8.61278
▁tinggal	-8.61293
L	-8.6138
▁pelajar	-8.61596
▁ayam	-8.61646
▁takde	-8.61697
▁Kementerian	-8.62043
▁by	-8.62099
▁susah	-8.62378
▁pasal	-8.62627
19	-8.6264
▁dlm	-8.62796
▁**	-8.62802
ro	-8.62998
▁bahasa	-8.63052
▁kini	-8.6306
▁all	-8.63134
▁minum	-8.63179
▁No	-8.63202
8	-8.63336
▁100	-8.6356
▁lg	-8.6398
▁Seri	-8.64174
▁malah	-8.6424
▁barang	-8.6429
▁berat	-8.64379
▁berada	-8.6438
▁then	-8.64567
▁Ga	-8.64638
▁ekonomi	-8.64683
▁mengenai	-8.6486
▁gambar	-8.65108
wa	-8.65407
▁mengambil	-8.65713
▁guna	-8.65734
N	-8.65745
go	-8.65755
ca	-8.66172
▁15	-8.66351
▁F	-8.66571
st	-8.66597
▁Shah	-8.66831
▁Kami	-8.66875
▁Kenapa	-8.67081
et	-8.67098
ha	-8.67109
▁masak	-8.67122
▁lo	-8.67267
pa	-8.6734
▁gua	-8.6734
▁bandar	-8.67644
▁lor	-8.67824
▁Ter	-8.67914
ce	-8.67961
▁tiga	-8.67982
▁sana	-8.6807
▁hasil	-8.68335
▁Alam	-8.68566
30	-8.68742
▁Perdana	-8.68773
per	-8.68837
▁kuat	-8.68843
▁Kamu	-8.69096
▁dr	-8.69148
▁Raya	-8.69252
▁if	-8.69252
W	-8.69253
▁jumpa	-8.69392
▁seluruh	-8.69424
▁melakukan	-8.69465
▁kaki	-8.69515
▁G	-8.69757
▁Per	-8.69791
▁maka	-8.70019
▁11	-8.70075
▁=	-8.70195
▁Dari	-8.702
▁ikut	-8.70371
F	-8.70539
▁Tidak	-8.70652
▁order	-8.70894
▁ah	-8.70907
▁Jalan	-8.70911
▁mulai	-8.71161
▁kes	-8.71366
▁kelas	-8.7138
▁teman	-8.7152
q	-8.71522
▁dong	-8.71594
lo	-8.71696
10	-8.71696
▁hahaha	-8.71809
▁Ketua	-8.71902
ba	-8.72412
O	-8.72767
0	-8.729
▁Dengan	-8.72924
▁Jakarta	-8.72934
▁Boleh	-8.7298
▁budak	-8.73158
▁berkenaan	-8.73182
▁kt	-8.7332
▁mesti	-8.73537
▁meng	-8.73558
▁ingat	-8.7361
▁haha	-8.73618
▁usaha	-8.73625
▁semula	-8.73704
▁kira	-8.74238
9	-8.74287
▁gini	-8.74428
▁terbaik	-8.74449
mi	-8.74731
▁|	-8.74752
▁have	-8.74807
▁namun	-8.74814
▁turun	-8.74843
▁awak	-8.74939
▁semakin	-8.7503
▁are	-8.75156
▁ahli	-8.75175
U	-8.75457
▁warna	-8.75567
▁supaya	-8.7563
▁mula	-8.75723
▁menerima	-8.75798
▁minggu	-8.75894
▁18	-8.75902
▁kemudian	-8.75907
▁buka	-8.75921
▁pelbagai	-8.75961
▁30	-8.76088
R	-8.76092
▁ikan	-8.76219
kah	-8.7628
gi	-8.76348
▁Jika	-8.76529
▁Kota	-8.76566
▁2020	-8.76768
▁Ku	-8.77078
▁tuh	-8.77133
el	-8.77176
murah	-8.77181
▁terlalu	-8.77254
▁L	-8.77272
v	-8.77319
▁Bagi	-8.77606
ge	-8.77621
▁wa	-8.77722
▁sekitar	-8.77742
▁sistem	-8.77804
▁terima	-8.77927
▁syarikat	-8.78025
▁sering	-8.78115
men	-8.78238
▁belakang	-8.78267
▁sia	-8.78443
▁n	-8.78538
▁panjang	-8.78592
▁Sabah	-8.78694
▁Terima	-8.78757
▁Si	-8.7877
▁begitu	-8.79046
▁AKU	-8.79113
▁Tun	-8.79133
▁mendapat	-8.79223
▁re	-8.7927
▁we	-8.79404
▁bahwa	-8.79591
▁memberikan	-8.79627
▁Mau	-8.79714
▁puasa	-8.79948
▁wilayah	-8.80137
▁lu	-8.80142
▁jd	-8.80247
aa	-8.80288
▁berjaya	-8.80392
▁g	-8.80526
▁sosial	-8.80662
▁bawa	-8.80899
▁kepala	-8.81007
▁best	-8.81063
▁men	-8.8162
▁bilik	-8.81679
▁walaupun	-8.81707
▁tiada	-8.81818
▁penuh	-8.81844
▁sampe	-8.82009
▁will	-8.82148
▁sy	-8.82226
ja	-8.8241
it	-8.82564
anak	-8.82658
▁makin	-8.82661
▁sedap	-8.82725
▁cuba	-8.82839
▁cinta	-8.82917
▁bakal	-8.82918
▁dilakukan	-8.82951
▁suami	-8.83284
▁mandi	-8.83406
▁da	-8.83439
▁rambut	-8.83475
▁pastu	-8.83529
▁still	-8.83607
▁kedai	-8.8361
▁ambil	-8.83714
Y	-8.83996
ny	-8.84096
▁marah	-8.84222
▁they	-8.84417
▁pilihan	-8.84444
▁kucing	-8.84503
▁keadaan	-8.84609
ok	-8.84611
▁warga	-8.84659
▁hilang	-8.84738
▁Mereka	-8.84921
▁bilang	-8.85134
▁putih	-8.85248
▁akhir	-8.85279
ji	-8.8538
▁bangun	-8.85417
▁Re	-8.85624
orang	-8.85894
▁perkara	-8.86215
▁esok	-8.86428
▁muda	-8.86436
▁Pulau	-8.86489
▁bodoh	-8.86686
▁pulang	-8.86778
▁mas	-8.86838
▁jaga	-8.87136
▁Tuan	-8.87168
▁Presiden	-8.87216
▁Perak	-8.87311
▁d	-8.87362
▁Kampung	-8.87373
▁W	-8.87374
▁kot	-8.8752
▁pintu	-8.87626
▁Jabatan	-8.87637
ur	-8.8768
▁sesuai	-8.88248
▁segala	-8.88399
▁tunggu	-8.8845
▁membawa	-8.88733
▁Jom	-8.88876
as	-8.89091
▁KE	-8.89112
▁ok	-8.89121
▁~	-8.89145
▁Semua	-8.89151
KAN	-8.89296
▁p	-8.8952
▁rt	-8.89641
▁Sebab	-8.89742
NYA	-8.89767
▁rezeki	-8.90035
▁mmg	-8.90109
▁Wa	-8.90247
▁selamat	-8.90262
ul	-8.90404
▁Kedah	-8.90521
ik	-8.90562
do	-8.90653
▁also	-8.90685
▁sebelah	-8.90716
apa	-8.90964
▁foto	-8.91003
▁R	-8.91109
▁pi	-8.91189
▁sedikit	-8.9125
▁Namun	-8.91253
▁got	-8.91257
▁maaf	-8.91317
▁parti	-8.91535
▁Kalo	-8.91563
▁19	-8.91579
▁tua	-8.91582
▁pukul	-8.91616
▁sik	-8.91663
▁Melaka	-8.91791
▁pak	-8.91842
▁Kebangsaan	-8.91955
▁liat	-8.91982
▁In	-8.92115
▁terdapat	-8.92216
ki	-8.92332
▁panas	-8.92412
pun	-8.9246
▁ha	-8.92684
ru	-8.92689
▁Itu	-8.92698
il	-8.92912
▁Terengganu	-8.9298
▁Siapa	-8.9331
lan	-8.9344
▁okay	-8.93659
▁dpt	-8.93778
▁pendidikan	-8.93913
▁arah	-8.94011
▁Tu	-8.94206
▁Abdul	-8.94223
▁benar	-8.94324
ck	-8.9437
▁sabar	-8.94388
▁suara	-8.94493
▁India	-8.94513
▁percaya	-8.94541
▁bagus	-8.94549
▁semasa	-8.94566
▁Selain	-8.94614
▁mahu	-8.94627
ss	-8.94778
hh	-8.94822
ko	-8.94855
J	-8.94893
▁sebenarnya	-8.95012
▁sesuatu	-8.95268
tan	-8.95328
▁suruh	-8.95467
▁goreng	-8.95507
id	-8.95584
mo	-8.95716
▁April	-8.95766
ap	-8.95786
▁menarik	-8.95834
▁proses	-8.96045
▁Air	-8.96169
▁Hi	-8.96255
▁enak	-8.9628
bi	-8.9628
▁kehidupan	-8.96302
▁kuasa	-8.96521
▁anjing	-8.9655
IN	-8.96711
▁alam	-8.96719
▁50	-8.96815
&	-8.96965
▁De	-8.97192
▁semoga	-8.972
V	-8.9735
▁akhirnya	-8.97352
20	-8.97405
▁tindakan	-8.97494
▁w	-8.9762
ir	-8.97622
▁Sultan	-8.97623
▁Amerika	-8.97903
▁gw	-8.97903
▁X	-8.97941
ai	-8.9802
bu	-8.98042
▁Mei	-8.98182
mana	-8.9827
▁jatuh	-8.98509
▁jgn	-8.98673
▁asal	-8.99224
▁senang	-8.9935
ve	-8.99657
▁Taman	-8.99699
▁sorang	-8.99703
▁berapa	-8.99758
2019	-8.99791
ong	-8.99851
undang	-8.9996
▁mencari	-8.99986
▁China	-9.00167
▁guru	-9.00187
▁umur	-9.00209
▁Ibu	-9.00354
▁merah	-9.00384
▁Be	-9.00571
▁Ahmad	-9.00638
co	-9.0088
▁kaum	-9.00923
▁Yg	-9.01004
▁mendapatkan	-9.01152
▁tgk	-9.01164
be	-9.0126
▁komun	-9.01262
▁Majlis	-9.01347
▁tk	-9.01453
cm	-9.01543
▁Perancis	-9.01595
▁temen	-9.01755
eh	-9.02076
ung	-9.02182
▁bekerja	-9.02196
▁Mohd	-9.02251
▁deh	-9.0238
▁penduduk	-9.02406
▁La	-9.02418
du	-9.02511
wi	-9.02731
▁abang	-9.0275
▁Hahaha	-9.02972
▁Karena	-9.0315
▁guys	-9.03282
han	-9.03507
▁out	-9.03526
▁bayar	-9.03841
▁filem	-9.03888
▁zaman	-9.03987
▁DAN	-9.03988
▁yaa	-9.04118
san	-9.04142
▁Buat	-9.04205
za	-9.04377
▁sis	-9.04543
▁follow	-9.04648
▁14	-9.04684
15	-9.04762
▁menyatakan	-9.04918
gt	-9.04957
▁kopi	-9.0498
▁Kelantan	-9.05149
!	-9.05199
▁Sarawak	-9.05427
▁kota	-9.05613
▁wajah	-9.05684
▁Pak	-9.05727
▁tweet	-9.05731
sh	-9.05781
▁bentuk	-9.05856
▁gaji	-9.06019
▁kenal	-9.06032
▁amat	-9.0623
ci	-9.0623
▁dibuat	-9.06262
bo	-9.06589
ut	-9.06716
wan	-9.06794
um	-9.06828
▁pasukan	-9.06981
▁17	-9.07001
dua	-9.07144
▁seseorang	-9.0716
▁pembangunan	-9.07188
▁hampir	-9.07249
▁kisah	-9.07262
ek	-9.07341
▁Jaya	-9.07352
▁polis	-9.0737
14	-9.0739
▁nggak	-9.07495
▁last	-9.07624
▁semangat	-9.07656
▁pengen	-9.07667
▁segera	-9.07673
▁manis	-9.07734
ch	-9.08073
▁projek	-9.08158
▁Rakyat	-9.08159
▁2018	-9.0819
▁Sri	-9.08293
▁Besar	-9.08338
▁now	-9.08356
▁bantuan	-9.08362
▁masing	-9.08451
▁hitam	-9.08642
▁bahagian	-9.08666
▁Mak	-9.08722
▁wkwk	-9.08824
▁don	-9.09064
▁penyakit	-9.0911
ia	-9.09119
▁Mahathir	-9.09161
▁member	-9.0922
▁24	-9.09232
▁terjadi	-9.09335
▁sm	-9.09407
▁keputusan	-9.09579
▁faham	-9.09628
▁meningkatkan	-9.09783
▁Sa	-9.10085
jo	-9.10087
▁more	-9.10106
ll	-9.10115
kira	-9.10182
▁13	-9.10271
▁anggota	-9.1037
▁ba	-9.10384
▁Ma	-9.10414
▁agak	-9.10416
▁jelas	-9.10442
▁bapak	-9.10475
▁desa	-9.10481
▁jabatan	-9.1052
▁awam	-9.10566
su	-9.10586
pi	-9.10611
ran	-9.10744
▁16	-9.10819
▁she	-9.10826
▁selain	-9.10905
▁Mac	-9.10906
▁bermula	-9.10916
▁Barat	-9.1097
▁meh	-9.10981
▁Bisa	-9.1102
▁perasaan	-9.11031
ii	-9.11069
▁sgt	-9.11092
▁laa	-9.11103
▁murah	-9.1117
▁nangis	-9.11182
▁25	-9.11461
▁seramai	-9.11507
▁what	-9.11593
▁Selatan	-9.11697
▁semalam	-9.1174
▁pen	-9.1189
▁Ha	-9.11927
▁twitter	-9.11948
▁bola	-9.11959
▁rindu	-9.1211
▁Menurut	-9.12146
▁Pa	-9.12158
▁Sungai	-9.12301
▁ma	-9.12366
▁industri	-9.12452
▁dengar	-9.12519
▁bro	-9.12596
▁ade	-9.1275
▁Masjid	-9.12809
▁bantu	-9.12828
▁Batu	-9.13167
▁bahagia	-9.13273
▁Le	-9.13366
▁Rumah	-9.13544
▁his	-9.13573
hhh	-9.13683
kk	-9.13729
▁laut	-9.13753
▁her	-9.1379
▁tempoh	-9.14046
com	-9.14117
dan	-9.14185
▁PH	-9.14371
▁ak	-9.14482
▁Banyak	-9.14515
au	-9.14762
▁berkaitan	-9.14837
▁call	-9.14848
▁Raja	-9.15108
▁UMNO	-9.15126
▁menang	-9.15214
▁Persekutuan	-9.15265
▁menyebabkan	-9.15299
▁bilion	-9.15411
▁peratus	-9.1554
▁Anak	-9.15594
+	-9.15598
▁kek	-9.15841
▁Eh	-9.16063
po	-9.16111
ad	-9.16288
▁Satu	-9.16513
50	-9.16634
▁Ko	-9.16641
*	-9.16662
▁kos	-9.16665
▁Parlimen	-9.16669
▁suatu	-9.16775
▁motor	-9.16823
▁dok	-9.17023
fa	-9.17183
X	-9.17365
▁bekas	-9.17366
▁bidang	-9.174
▁know	-9.17444
▁Bandar	-9.17478
▁kumpulan	-9.17708
▁Dewan	-9.1776
▁Men	-9.17942
▁pilih	-9.18021
▁kl	-9.18064
ih	-9.18118
▁Ali	-9.18145
▁see	-9.18347
▁tubuh	-9.18385
▁Ka	-9.18433
▁kakak	-9.18438
▁banjir	-9.18467
▁lewat	-9.18532
▁Masa	-9.18618
▁masjid	-9.18946
▁Su	-9.19004
sama	-9.19101
up	-9.19138
▁sepanjang	-9.1923
▁memastikan	-9.19331
▁emang	-9.19383
▁yuk	-9.19533
▁Tuhan	-9.19577
▁rendah	-9.19641
▁nilai	-9.19713
▁perkhidmatan	-9.19765
▁hujan	-9.19866
▁merasa	-9.19981
▁KL	-9.20002
▁skrg	-9.20058
▁Timur	-9.20459
▁Na	-9.20506
▁solat	-9.20593
▁lari	-9.20693
ry	-9.20711
aaa	-9.20914
yo	-9.21102
▁link	-9.21238
▁terakhir	-9.21347
▁Bu	-9.21413
hi	-9.21446
▁say	-9.21493
▁bunga	-9.21509
▁first	-9.21845
bar	-9.21986
▁dikenali	-9.21993
▁Lo	-9.22097
ting	-9.22148
▁melayu	-9.22259
▁hak	-9.22281
▁bang	-9.22324
▁area	-9.22373
▁jawab	-9.22474
▁He	-9.22578
▁susu	-9.22589
▁free	-9.22593
▁demi	-9.22672
▁good	-9.22679
▁Salam	-9.22707
▁Utara	-9.22769
▁mama	-9.22789
▁kadar	-9.22814
▁langkah	-9.22819
▁try	-9.22893
▁km	-9.22905
▁Ta	-9.23115
▁peringkat	-9.23508
▁Kan	-9.23592
▁ilmu	-9.23605
▁Ahli	-9.23754
▁bayi	-9.23842
▁isi	-9.23888
▁kadang	-9.23941
▁think	-9.24275
▁sentiasa	-9.2445
▁peng	-9.24457
▁Bukit	-9.24509
▁tahan	-9.24591
▁info	-9.24595
▁Tahun	-9.24609
▁jg	-9.24716
▁menunjukkan	-9.24739
▁Go	-9.24757
▁only	-9.24841
▁ternyata	-9.24882
▁pemain	-9.24967
hari	-9.24989
▁pemimpin	-9.25057
▁Pahang	-9.25307
▁meninggal	-9.25496
▁hor	-9.25499
▁bin	-9.25537
▁asli	-9.2566
▁kayak	-9.25979
tar	-9.26058
ton	-9.2613
▁kecamatan	-9.26223
asi	-9.26223
▁harini	-9.26316
▁peluang	-9.26326
▁Hal	-9.26377
so	-9.26388
▁lanjut	-9.26426
▁Pas	-9.26548
▁Setelah	-9.26552
▁hadir	-9.26583
▁Muhammad	-9.26595
uk	-9.26601
▁Lagi	-9.26783
▁dasar	-9.26995
▁pusat	-9.27016
▁bawak	-9.27307
▁malas	-9.27314
▁berubah	-9.2733
▁Program	-9.27392
▁Asia	-9.27458
▁kejadian	-9.27523
masing	-9.27545
▁soal	-9.27552
▁Syarikat	-9.27571
▁teruk	-9.27581
▁Lu	-9.27616
▁Sudah	-9.27682
▁karna	-9.27857
▁berjalan	-9.28012
▁Assalamualaikum	-9.2807
▁YANG	-9.28102
▁kahwin	-9.28183
▁share	-9.2824
▁baharu	-9.28267
▁ruang	-9.28323
▁bu	-9.28397
▁ape	-9.28501
▁Pendidikan	-9.2857
▁udh	-9.28577
▁Yuk	-9.28628
▁laki	-9.28658
▁isteri	-9.28669
pan	-9.28695
▁start	-9.28807
ling	-9.28932
▁mengikut	-9.29061
▁janji	-9.29103
▁Li	-9.29183
▁diberikan	-9.29287
ee	-9.29309
▁Hai	-9.29332
▁21	-9.2934
▁hehe	-9.2935
▁get	-9.2941
▁diam	-9.29488
tik	-9.29743
▁Tolong	-9.29824
▁golongan	-9.30146
▁le	-9.30219
▁hutan	-9.3022
▁letak	-9.30531
▁Ra	-9.3054
▁empat	-9.30593
▁sa	-9.30685
▁musim	-9.30696
lang	-9.30698
▁Dunia	-9.30702
▁gimana	-9.30712
▁Sekarang	-9.30786
▁abis	-9.30958
▁c	-9.31162
▁make	-9.31176
▁tiap	-9.31444
kanak	-9.31561
▁menjaga	-9.31656
▁padahal	-9.31669
min	-9.31699
▁Mana	-9.31777
▁Ar	-9.31845
▁Jokowi	-9.31867
▁Macam	-9.31867
▁kenyataan	-9.31932
Se	-9.31981
▁milik	-9.32015
▁menteri	-9.3207
▁ajak	-9.32205
▁Cina	-9.32214
▁Bahan	-9.32278
▁terbang	-9.32278
▁penat	-9.32396
▁diberi	-9.32465
▁berita	-9.326
▁petang	-9.32656
ada	-9.32692
▁ringgit	-9.32758
▁emas	-9.32932
▁need	-9.33207
ment	-9.33242
kar	-9.33312
▁malu	-9.33458
▁22	-9.33556
▁Nama	-9.33683
▁Haha	-9.33745
▁menjadikan	-9.3377
▁Iya	-9.33912
▁bebas	-9.33937
▁tangga	-9.33947
▁biasanya	-9.34004
ho	-9.3403
▁teknologi	-9.341
▁situ	-9.3413
▁pa	-9.34162
▁Nasi	-9.34196
▁PERTANYAAN	-9.34251
▁hubungan	-9.34593
▁asing	-9.346
▁sempat	-9.34628
▁Mungkin	-9.34629
▁lampu	-9.35342
yang	-9.35371
dah	-9.354
▁alat	-9.35593
▁roti	-9.35766
▁akibat	-9.35941
▁dimana	-9.35981
▁lima	-9.36096
▁mahal	-9.36147
je	-9.36302
son	-9.36359
▁Salah	-9.36432
▁iya	-9.3651
▁darah	-9.36521
▁perut	-9.36716
▁bener	-9.36737
▁BER	-9.36777
▁weh	-9.36888
▁bo	-9.37034
▁memilih	-9.37053
▁Masih	-9.37071
▁Ketika	-9.37118
▁taknak	-9.37171
▁Lepas	-9.37177
rb	-9.37252
▁berbanding	-9.37258
▁bagaimana	-9.37316
▁Kabupaten	-9.37348
▁doa	-9.37375
▁Man	-9.37392
▁who	-9.3762
▁family	-9.37692
▁muncul	-9.37788
▁bau	-9.37803
11	-9.37806
▁when	-9.37815
▁said	-9.37851
indonesia	-9.37891
der	-9.37908
▁aktiviti	-9.37961
▁teh	-9.37996
▁kapal	-9.38034
▁coba	-9.38046
▁Tan	-9.3808
▁Setiap	-9.38218
▁sejarah	-9.38264
▁Pusat	-9.38308
▁uang	-9.38342
▁Nasional	-9.38461
▁mengatakan	-9.38463
▁Ki	-9.38529
▁set	-9.38545
▁butuh	-9.38587
▁YB	-9.38615
sen	-9.38742
40	-9.38783
▁Lapangan	-9.38823
▁kalangan	-9.38894
▁sumber	-9.39023
▁yakin	-9.39043
▁babi	-9.39078
▁Jun	-9.39238
▁klo	-9.39294
▁ngga	-9.39322
▁Pen	-9.39345
▁bahkan	-9.39371
▁post	-9.39644
▁PAS	-9.39647
Ma	-9.39652
▁khas	-9.3979
▁Terbang	-9.39828
▁V	-9.39853
▁sehat	-9.40012
▁there	-9.401
tiba	-9.40285
▁rm	-9.40309
▁Hanya	-9.40354
▁tujuan	-9.40382
▁calon	-9.40447
▁even	-9.4045
▁ki	-9.40468
▁Hidup	-9.40852
▁kesihatan	-9.40894
▁drama	-9.40988
▁tahap	-9.41061
▁keseluruhan	-9.41222
▁bio	-9.41307
▁pekerja	-9.41459
▁lihat	-9.41498
gu	-9.41687
▁fikir	-9.4181
▁Universiti	-9.41927
▁Muslim	-9.41966
▁AS	-9.41983
▁na	-9.42015
▁kesan	-9.42027
▁Mohamad	-9.42043
avascript	-9.42046
▁mo	-9.42054
▁SE	-9.42163
gan	-9.42216
kn	-9.42229
▁0	-9.42334
▁doang	-9.42476
▁siang	-9.42554
▁cm	-9.42624
▁dkt	-9.42887
▁membaca	-9.42901
▁had	-9.42941
▁Mo	-9.43002
▁Meng	-9.43052
▁harap	-9.43128
▁Ramadhan	-9.43258
▁day	-9.43333
▁bangsa	-9.43361
▁sepak	-9.43393
▁api	-9.43407
▁Follow	-9.43444
▁nikah	-9.43464
▁via	-9.43473
▁tempatan	-9.43508
ers	-9.43512
▁their	-9.4355
oh	-9.43575
▁pekan	-9.43596
▁Katanya	-9.43679
▁ckp	-9.43839
12	-9.4384
▁As	-9.43898
▁berdasarkan	-9.43901
▁mintak	-9.4405
▁Pinang	-9.44187
▁here	-9.44286
▁mencapai	-9.44442
▁Tanah	-9.44451
▁Jepun	-9.44466
▁bas	-9.44469
▁laporan	-9.44533
▁cuti	-9.44595
Ke	-9.44669
▁Sebelum	-9.44798
▁keras	-9.44834
▁tentera	-9.44857
▁layan	-9.44939
▁keselamatan	-9.45067
▁Memang	-9.45081
▁back	-9.45283
▁Februari	-9.45367
▁Dulu	-9.45389
▁Jawa	-9.45417
▁otak	-9.4542
▁Ci	-9.45429
▁lemak	-9.45433
▁selesai	-9.45469
ot	-9.45742
▁bg	-9.45805
▁utara	-9.45849
▁data	-9.46036
▁Wan	-9.46078
▁Rasa	-9.46111
tor	-9.46308
▁lainnya	-9.46323
▁sementara	-9.46383
▁pro	-9.46507
▁Dua	-9.46585
▁GA	-9.46646
▁kedudukan	-9.46697
tak	-9.46704
▁game	-9.46768
▁Y	-9.46775
▁Nanti	-9.46797
▁gagal	-9.46808
▁PM	-9.46832
▁23	-9.46853
▁sebarang	-9.46892
▁My	-9.47077
▁pandai	-9.47157
▁bank	-9.47359
▁Sampai	-9.47482
▁happy	-9.47625
▁pasangan	-9.47637
▁Oh	-9.47664
▁dm	-9.47762
▁how	-9.47777
▁gi	-9.4778
▁kalah	-9.47828
▁berhenti	-9.47853
▁nonton	-9.47871
▁urusan	-9.47966
▁Mu	-9.48078
▁lokasi	-9.48103
▁alasan	-9.48234
▁Sementara	-9.48261
▁Wilayah	-9.48596
▁Sama	-9.48657
▁Walaupun	-9.48695
aku	-9.4875
▁Kak	-9.48759
▁Lebih	-9.48928
▁love	-9.49009
▁Mas	-9.49057
eng	-9.49095
▁mengalami	-9.49172
lin	-9.49178
Z	-9.49193
ty	-9.49211
pen	-9.49217
▁Putrajaya	-9.49219
▁Makan	-9.49294
▁wang	-9.49321
▁dapur	-9.49354
▁berbagai	-9.49368
▁melibatkan	-9.4953
ten	-9.49597
▁Tengah	-9.4962
▁jawatan	-9.49659
▁rasanya	-9.49718
▁MENTERI	-9.49722
▁pantai	-9.4974
▁Jam	-9.49774
▁memba	-9.49828
▁hp	-9.49932
▁Najib	-9.50042
▁kene	-9.50052
▁Udah	-9.50082
▁dilaksanakan	-9.50094
▁sayur	-9.50103
▁manakala	-9.50108
▁disini	-9.50282
▁very	-9.50478
▁ex	-9.50731
hal	-9.50747
va	-9.50881
▁acara	-9.50909
▁harapan	-9.50918
▁sahabat	-9.50923
rah	-9.51021
ring	-9.51111
▁penggunaan	-9.51301
fi	-9.5133
▁sehari	-9.51371
▁To	-9.51418
▁people	-9.51542
▁coklat	-9.51549
▁tukang	-9.51559
▁kewangan	-9.51562
▁hahahaha	-9.51604
▁Buku	-9.51643
ation	-9.51691
ol	-9.51772
▁barat	-9.51818
em	-9.51885
▁Jerman	-9.51932
▁DM	-9.51958
▁Polis	-9.5202
▁Ba	-9.52112
18	-9.52115
▁sungai	-9.52143
▁And	-9.52178
▁tambah	-9.52244
▁tutup	-9.52246
▁hi	-9.52314
kat	-9.52513
▁2017	-9.52522
▁menyediakan	-9.52574
▁bakar	-9.52603
▁berusaha	-9.52665
▁Iran	-9.52686
▁ayat	-9.52717
▁diambil	-9.52952
▁menuju	-9.53001
▁mangsa	-9.53005
▁hm	-9.53076
▁pengguna	-9.531
▁man	-9.53128
▁tepi	-9.53286
▁Kerja	-9.53294
▁bagian	-9.53317
▁semuanya	-9.53459
▁kamar	-9.5351
▁terpaksa	-9.53554
▁pendapatan	-9.53589
▁dahulu	-9.53647
▁perjalanan	-9.53744
▁swasta	-9.53789
ari	-9.53813
chi	-9.53931
sel	-9.54004
▁perbandaran	-9.54064
▁individu	-9.54308
▁kurus	-9.54322
▁sumpah	-9.54361
▁him	-9.54456
ger	-9.54499
▁baby	-9.54501
▁chat	-9.54503
▁undang	-9.54704
land	-9.54706
▁some	-9.54713
▁melaksanakan	-9.54715
▁umum	-9.5472
▁ig	-9.54836
pu	-9.54852
▁serius	-9.54928
▁buang	-9.54935
gar	-9.54986
▁murid	-9.55019
▁sibuk	-9.55055
▁dilihat	-9.55072
nye	-9.55142
▁Oleh	-9.552
▁surat	-9.5532
▁Januari	-9.55384
▁meminta	-9.55424
we	-9.55471
vi	-9.55522
▁disebabkan	-9.55549
ker	-9.55555
▁anti	-9.55561
▁majlis	-9.55644
nd	-9.55661
▁lepak	-9.5571
▁beri	-9.55739
▁Daerah	-9.55756
▁pegawai	-9.55934
MA	-9.5595
▁tepat	-9.56241
▁tukar	-9.56328
▁ganti	-9.56345
▁mimpi	-9.56431
▁tenang	-9.56507
▁Sebagai	-9.56617
▁Timbalan	-9.56718
▁Bahasa	-9.5674
▁Bank	-9.568
▁Arab	-9.56808
▁maklumat	-9.56808
▁pisang	-9.56813
▁bodo	-9.56958
▁Ok	-9.56994
▁too	-9.57004
▁mutualan	-9.57021
▁Tp	-9.57051
hu	-9.57062
▁Antara	-9.57084
25	-9.57259
▁Tinggi	-9.57367
17	-9.57505
▁Te	-9.57519
▁menangis	-9.57531
▁Penang	-9.57619
▁timur	-9.57697
▁angin	-9.57705
▁bapa	-9.57797
▁team	-9.57814
▁model	-9.57835
▁about	-9.57863
▁min	-9.57908
hati	-9.57984
▁sektor	-9.57998
▁pekerjaan	-9.58018
bah	-9.58103
▁sesiapa	-9.5814
▁terutama	-9.58175
▁besok	-9.58234
▁tenaga	-9.5828
▁Terdapat	-9.58295
▁namanya	-9.58371
▁New	-9.58408
▁bermain	-9.5844
▁su	-9.58468
ie	-9.58513
▁kekal	-9.58562
▁hutang	-9.58646
▁dapet	-9.58682
kata	-9.58692
▁te	-9.58754
▁sihat	-9.58865
▁Cara	-9.58912
▁Ri	-9.58973
13	-9.58987
▁them	-9.58989
▁kacang	-9.59067
▁Da	-9.59196
▁khusus	-9.59214
▁nie	-9.59223
▁berharap	-9.59361
▁minit	-9.59376
▁join	-9.59419
▁kajian	-9.59503
▁Mi	-9.59517
▁menerusi	-9.59601
ju	-9.59663
▁miskin	-9.59745
▁loh	-9.59746
▁akun	-9.59753
tt	-9.5982
▁menunggu	-9.59847
Q	-9.59902
bang	-9.59986
▁2016	-9.59995
▁INI	-9.60016
▁Ayah	-9.60064
▁buruk	-9.60093
▁40	-9.60189
▁yah	-9.60203
iii	-9.60264
▁mulut	-9.60279
▁tido	-9.60367
▁pokok	-9.60401
▁menurut	-9.60416
▁dirinya	-9.60508
▁perniagaan	-9.60532
▁ngan	-9.60602
▁tiket	-9.60623
jam	-9.608
▁has	-9.60815
▁terasa	-9.6088
▁unit	-9.60934
▁malaysia	-9.61061
▁panggil	-9.6115
▁am	-9.61176
▁An	-9.61178
ion	-9.61352
▁Mari	-9.61363
▁apakah	-9.61392
▁Wanita	-9.61437
▁alias	-9.61457
▁bangunan	-9.61633
tok	-9.61646
▁please	-9.61655
▁demikian	-9.6169
▁DAP	-9.61699
▁2015	-9.61855
500	-9.61862
▁rakan	-9.62012
▁after	-9.62071
▁really	-9.62072
▁Ayo	-9.6211
▁kerjasama	-9.62145
▁down	-9.62156
lak	-9.62177
▁kecik	-9.62182
▁pandangan	-9.62209
▁cikgu	-9.62356
▁keperluan	-9.62366
▁Dato	-9.62419
▁hang	-9.62423
▁Saat	-9.62442
▁terkenal	-9.62505
▁modal	-9.62601
▁nga	-9.62642
▁sedar	-9.62703
uu	-9.62722
▁pengalaman	-9.62764
▁cek	-9.62776
rat	-9.62882
set	-9.62914
▁album	-9.6303
▁Atau	-9.63142
▁want	-9.63163
▁belanja	-9.63187
▁Hu	-9.63211
▁Ye	-9.63226
▁Fa	-9.63241
dia	-9.63334
▁menu	-9.63534
▁Maaf	-9.63639
mer	-9.63646
▁why	-9.6365
▁nasib	-9.63677
▁Maka	-9.63775
▁jarang	-9.6384
▁Do	-9.63944
he	-9.63986
▁berusia	-9.64051
▁Haji	-9.64057
baik	-9.64267
▁sebulan	-9.64278
▁Ja	-9.64333
▁elok	-9.64347
mah	-9.64356
Saya	-9.6439
dy	-9.64394
▁diper	-9.64474
day	-9.64477
negara	-9.64495
▁2014	-9.6451
ic	-9.64552
▁Malam	-9.64625
▁gaya	-9.64662
▁We	-9.64888
mar	-9.64889
▁operasi	-9.64916
▁Hahahaha	-9.64946
▁kelapa	-9.65062
▁terbesar	-9.65227
▁Selepas	-9.65302
▁lengkap	-9.65357
▁batik	-9.65358
▁ketiga	-9.65379
▁TV	-9.65487
▁60	-9.65608
▁usia	-9.65658
▁jom	-9.65668
▁Beli	-9.65668
▁gk	-9.65681
▁dll	-9.65709
▁Harapan	-9.65719
▁online	-9.65749
▁terlibat	-9.65832
▁budaya	-9.65888
▁jerawat	-9.65942
▁Abu	-9.65996
▁tentu	-9.66051
▁28	-9.66067
▁over	-9.66073
▁Korang	-9.66232
▁berani	-9.66236
▁terbuka	-9.66262
▁pemerintah	-9.66362
▁hadapan	-9.66536
▁berhubung	-9.66673
▁terdiri	-9.66883
▁positif	-9.66918
▁27	-9.66945
▁sedia	-9.66954
16	-9.67004
im	-9.67038
▁minat	-9.67038
baru	-9.67048
▁Sha	-9.67105
AH	-9.67112
▁pesan	-9.67143
▁bersih	-9.67223
▁Akta	-9.67305
▁Gak	-9.67353
sha	-9.67358
▁part	-9.67387
▁26	-9.67443
▁tok	-9.67461
▁dianggap	-9.6762
▁kain	-9.67624
▁perhatian	-9.67735
▁harta	-9.67805
▁minuman	-9.67849
▁samping	-9.67882
▁kering	-9.67886
▁sebahagian	-9.67896
▁Gue	-9.67905
annya	-9.67943
▁Padahal	-9.67982
▁mobil	-9.67992
ris	-9.68057
▁perubahan	-9.68115
▁tdk	-9.68138
▁Korea	-9.68147
▁membuka	-9.68174
▁lembut	-9.68194
▁Nah	-9.68252
▁tanda	-9.68253
cu	-9.6826
▁new	-9.68346
rin	-9.68401
▁trus	-9.68424
▁umat	-9.68458
▁aman	-9.6851
▁bole	-9.68533
▁puas	-9.68685
▁hukum	-9.68783
▁food	-9.68799
▁pasaran	-9.6887
▁Peng	-9.68921
▁Info	-9.68997
▁Ibrahim	-9.69106
▁balas	-9.69146
dang	-9.69216
▁klik	-9.69307
▁bertemu	-9.69339
yu	-9.69478
▁lahir	-9.69571
Nya	-9.69622
▁check	-9.6982
mas	-9.69821
▁begini	-9.69829
bat	-9.69858
les	-9.69906
▁diorang	-9.69988
▁BN	-9.7
▁RAKYAT	-9.70016
AL	-9.7007
▁kebangsaan	-9.70103
▁perangai	-9.70136
▁dadah	-9.70167
kg	-9.70205
my	-9.70366
▁off	-9.70377
tek	-9.70386
▁Ayam	-9.70449
100	-9.70475
▁berikut	-9.70489
▁saham	-9.70512
▁byk	-9.70677
mat	-9.7073
▁pasar	-9.70755
▁status	-9.70805
▁gula	-9.70942
len	-9.71006
▁Anwar	-9.71118
rang	-9.71126
▁sampah	-9.71217
vo	-9.71275
▁berbeza	-9.71346
▁NO	-9.71353
ye	-9.71375
▁YA	-9.71429
if	-9.71446
long	-9.71461
24	-9.71528
▁Pernah	-9.71528
bel	-9.71543
SI	-9.71617
▁Pagi	-9.71631
uh	-9.71666
▁bi	-9.71725
▁open	-9.71784
▁jualan	-9.71798
▁terba	-9.7181
▁pegi	-9.71869
▁kosong	-9.71876
▁meninggalkan	-9.71979
▁contoh	-9.71989
▁apapun	-9.72099
che	-9.72105
▁daging	-9.72185
▁kebanyakan	-9.72277
▁menjalankan	-9.72303
▁lucu	-9.72388
▁Ge	-9.72393
▁menikmati	-9.72409
▁meningkat	-9.72417
▁Aceh	-9.7249
▁Piala	-9.72579
▁thread	-9.72592
▁sem	-9.72618
▁membeli	-9.72652
▁wajib	-9.72655
AT	-9.72714
den	-9.72743
tra	-9.72747
ana	-9.72766
▁beras	-9.72803
▁Pengarah	-9.72832
zi	-9.72871
▁Singapura	-9.72907
▁sanggup	-9.72915
▁Am	-9.73002
ham	-9.73026
▁take	-9.73102
▁islam	-9.73146
▁setahun	-9.7328
▁jasa	-9.73287
▁mohon	-9.73386
▁senyum	-9.73388
21	-9.73391
sar	-9.73408
▁Ti	-9.73449
▁lol	-9.73452
▁hospital	-9.73504
dar	-9.73546
▁its	-9.73627
▁virus	-9.73712
ron	-9.73725
▁29	-9.73857
▁ta	-9.73906
▁geng	-9.74168
▁Order	-9.74275
mm	-9.74276
rt	-9.74367
▁dtg	-9.74398
▁Nur	-9.74444
▁tertentu	-9.74456
▁kesalahan	-9.74544
▁kehilangan	-9.74636
nt	-9.7465
▁Min	-9.74673
90	-9.74688
▁saling	-9.74701
▁cam	-9.74732
▁reply	-9.74783
▁fitnah	-9.74822
▁lambat	-9.74889
▁next	-9.74906
▁tugas	-9.74969
ity	-9.74999
▁Pilihan	-9.75019
▁Shopee	-9.75044
▁dibawa	-9.75202
▁agensi	-9.75248
ser	-9.75376
kal	-9.75387
lek	-9.75408
▁maju	-9.75456
▁mai	-9.75481
▁payah	-9.75505
▁hadiah	-9.75634
tin	-9.75646
▁fokus	-9.75751
▁saudara	-9.75793
nda	-9.75804
▁komen	-9.75832
TA	-9.7585
▁kesehatan	-9.75866
bal	-9.75873
▁Ho	-9.75878
rak	-9.75891
▁come	-9.75912
▁hebat	-9.75918
▁tambahan	-9.75941
▁mi	-9.75943
▁Kedua	-9.76136
▁dapatkan	-9.76142
▁phone	-9.76166
▁bernama	-9.7619
ram	-9.76212
ban	-9.76224
▁diterima	-9.76265
▁Asli	-9.76379
▁durian	-9.76397
▁Ne	-9.76399
▁kuota	-9.76449
▁stress	-9.76495
▁September	-9.76546
▁BTS	-9.7656
▁TAK	-9.76574
▁give	-9.76616
lain	-9.7664
▁ulang	-9.76696
▁indonesia	-9.76712
▁diadakan	-9.76775
▁peruntukan	-9.76833
▁Perlis	-9.76856
▁rasmi	-9.76922
▁study	-9.76931
ep	-9.76954
▁menghasilkan	-9.77037
▁Kadang	-9.77064
▁You	-9.77135
mata	-9.77175
▁indah	-9.77235
▁200	-9.77319
▁sejuk	-9.77325
▁ketemu	-9.77351
lam	-9.77431
▁mem	-9.77451
har	-9.77486
▁perang	-9.77514
▁terlihat	-9.7754
▁Kata	-9.77617
▁layak	-9.77741
ze	-9.77747
▁berbuka	-9.77769
▁Mohon	-9.77786
▁sel	-9.77868
rap	-9.77884
os	-9.77992
▁meter	-9.78026
▁hubungi	-9.78073
▁Suka	-9.7815
▁daya	-9.78151
▁ra	-9.78154
▁segi	-9.78169
▁kang	-9.78342
▁story	-9.78365
▁Ro	-9.78397
▁membentuk	-9.78485
▁NAK	-9.78487
▁Pembangunan	-9.78525
sia	-9.78567
Mu	-9.78586
▁sial	-9.78591
sing	-9.78609
▁dorang	-9.78632
▁admin	-9.78716
▁Bhd	-9.78732
▁before	-9.78745
ian	-9.78771
▁bukak	-9.7882
▁angkat	-9.78841
▁kanak	-9.78843
aaaa	-9.78956
▁td	-9.78956
▁kematian	-9.78968
▁simpan	-9.78986
▁Cuma	-9.7907
▁bumi	-9.79098
▁abah	-9.79142
sur	-9.79146
▁wan	-9.79146
▁paham	-9.79154
▁which	-9.79172
▁KUALA	-9.7923
▁Terus	-9.79292
▁ADA	-9.79319
▁Bo	-9.79327
ster	-9.79369
▁ambik	-9.79389
▁Ru	-9.79463
▁sawit	-9.7949
benar	-9.79518
▁Betul	-9.79571
▁Bi	-9.7978
▁meja	-9.79849
▁Baju	-9.79859
▁seterusnya	-9.79903
▁Twitter	-9.79945
▁end	-9.80161
▁browser	-9.80172
▁Lama	-9.80201
able	-9.80289
ist	-9.80354
dak	-9.8036
▁Jl	-9.80392
▁menjual	-9.80401
▁memerlukan	-9.80466
▁Ismail	-9.80486
lar	-9.80526
▁seminggu	-9.80576
▁khususnya	-9.80624
▁salam	-9.80725
▁must	-9.80778
▁single	-9.80792
▁long	-9.81009
▁Filem	-9.81114
▁Sumber	-9.81168
▁pejabat	-9.8126
▁2013	-9.81297
▁kipas	-9.81307
▁Kat	-9.81324
▁Apakah	-9.81414
▁pesawat	-9.8143
▁mendengar	-9.81492
▁dibuka	-9.81501
lon	-9.81654
▁nyaman	-9.81666
▁group	-9.81774
▁02	-9.81807
▁patut	-9.81851
▁pembinaan	-9.81914
▁hmm	-9.81916
▁ketua	-9.81941
▁mengeluarkan	-9.81959
▁yaitu	-9.82009
▁pecah	-9.82048
▁lapar	-9.82066
▁beda	-9.82159
▁Sembilan	-9.82294
sal	-9.8234
▁apalagi	-9.82377
lt	-9.82393
▁than	-9.82433
jah	-9.82469
ria	-9.82498
▁Tol	-9.82514
▁bersyukur	-9.82536
▁jin	-9.8259
▁takda	-9.82609
45	-9.82712
▁kegiatan	-9.82727
▁Ca	-9.82754
▁faktor	-9.82774
▁dosa	-9.82817
ner	-9.82822
▁Pertama	-9.82868
▁Tentera	-9.82943
▁keje	-9.82966
▁whatsapp	-9.82989
car	-9.83029
▁Nabi	-9.83043
▁life	-9.83046
▁antarabangsa	-9.83048
▁soalnya	-9.83049
▁dikeluarkan	-9.83051
35	-9.83081
▁kasi	-9.83143
▁krn	-9.83217
▁UNTUK	-9.83253
▁Tanpa	-9.83319
pak	-9.83344
▁jiwa	-9.83381
▁WP	-9.83386
▁bukti	-9.83405
▁asyik	-9.83531
▁Hati	-9.83538
▁Okay	-9.83573
▁tudung	-9.83611
▁Je	-9.83752
▁soalan	-9.83803
▁sapa	-9.83815
▁lakukan	-9.83857
▁sebenar	-9.83877
▁Ekonomi	-9.83914
▁But	-9.83926
malaysia	-9.83936
▁full	-9.84026
▁Pengerusi	-9.84035
KU	-9.84061
▁Mahkamah	-9.84279
▁Mar	-9.84294
▁Kena	-9.84309
kali	-9.84329
▁masker	-9.84332
▁kepentingan	-9.84373
▁rapat	-9.84435
▁Pakatan	-9.84489
▁memper	-9.84516
▁tol	-9.84546
▁bisnis	-9.84546
▁tgh	-9.84821
▁tanggal	-9.84902
▁menye	-9.84904
▁lengan	-9.84938
▁Liga	-9.85094
▁support	-9.85098
▁Ah	-9.85163
▁Kali	-9.85201
▁menit	-9.85372
▁menge	-9.85388
ren	-9.85413
res	-9.8563
ts	-9.85647
▁wujud	-9.85666
▁NI	-9.85673
▁melaka	-9.85689
▁DEWAN	-9.85691
▁Pu	-9.85742
▁udara	-9.858
▁kemarin	-9.85835
▁manfaat	-9.85885
▁bantal	-9.85894
▁promo	-9.85933
▁aktif	-9.85946
raya	-9.85969
▁pandang	-9.85974
**	-9.85993
▁super	-9.86006
▁lapangan	-9.86049
▁dada	-9.86206
▁other	-9.86222
▁presiden	-9.8626
▁dikatakan	-9.86319
▁kuliah	-9.86332
cer	-9.86358
▁gadis	-9.86391
▁tulis	-9.86416
▁terutamanya	-9.86536
▁latihan	-9.86796
▁Pan	-9.86809
gg	-9.86908
▁ad	-9.86967
▁hu	-9.87008
Ba	-9.8705
▁gigi	-9.87067
▁ayo	-9.87106
▁nye	-9.87119
▁31	-9.87147
▁Seorang	-9.87191
▁aq	-9.87219
▁Mat	-9.87316
▁ujian	-9.87393
▁sokongan	-9.87407
gen	-9.8741
▁Thailand	-9.87449
▁pentadbiran	-9.87455
▁tersenyum	-9.8751
▁peranan	-9.87629
▁PER	-9.87722
▁IG	-9.87739
▁huhu	-9.87789
▁November	-9.87836
tas	-9.8788
▁bareng	-9.8789
▁benci	-9.87901
▁Abdullah	-9.87945
▁hotel	-9.87955
▁Agama	-9.88015
▁dun	-9.88091
▁Julai	-9.88103
▁penjara	-9.8812
▁arwah	-9.8815
▁ajar	-9.88159
▁pakaian	-9.88183
▁sidang	-9.88262
▁haram	-9.88271
▁Tidur	-9.88313
▁cukai	-9.88323
▁cannot	-9.88338
▁siasatan	-9.88342
▁takkan	-9.88352
▁kenderaan	-9.88525
▁niat	-9.8853
▁sisi	-9.88552
cak	-9.88573
duk	-9.88591
cha	-9.88639
Pertua	-9.88645
▁Foto	-9.88673
▁Siap	-9.88729
▁sang	-9.88743
isme	-9.88749
▁berasal	-9.88752
▁setakat	-9.88789
▁plan	-9.88876
▁Co	-9.88932
▁allah	-9.88943
▁seng	-9.89048
34	-9.89057
▁01	-9.89139
▁lawa	-9.89167
ud	-9.89174
aq	-9.89186
▁Pro	-9.89211
▁Waktu	-9.89226
kkk	-9.89276
23	-9.89307
▁dijadikan	-9.89356
▁ataupun	-9.89409
▁f	-9.89489
▁enggak	-9.89511
▁Oktober	-9.8961
bak	-9.8966
hhhh	-9.89677
▁film	-9.8974
▁pertanian	-9.89812
ala	-9.89814
kin	-9.89864
▁risau	-9.8989
▁pd	-9.89904
▁rendang	-9.89905
▁Dasar	-9.89922
▁duk	-9.89962
▁perkembangan	-9.89993
▁Jgn	-9.90024
▁peduli	-9.90099
▁Parti	-9.90123
▁pendek	-9.90133
26	-9.90204
▁Industri	-9.90214
▁Aman	-9.90264
▁die	-9.90266
▁Disember	-9.90276
ina	-9.90283
▁oh	-9.90298
▁mkn	-9.90308
▁Para	-9.90324
▁cadangan	-9.90402
▁rep	-9.90428
ler	-9.90464
om	-9.9051
▁Bersama	-9.90525
▁sekiranya	-9.90652
▁much	-9.90664
nn	-9.90687
▁dg	-9.90691
▁mengurangkan	-9.90774
▁mental	-9.90839
▁bingung	-9.90862
▁Vi	-9.90915
tel	-9.90932
▁pelaksanaan	-9.90932
▁cermin	-9.90969
▁sewa	-9.91074
▁Rindu	-9.91116
tur	-9.91135
▁normal	-9.9118
The	-9.91225
▁Seperti	-9.91279
▁At	-9.91306
▁akak	-9.9132
ff	-9.91338
▁Pi	-9.91358
▁nombor	-9.91491
▁Kanan	-9.91539
▁Repost	-9.91548
▁cocok	-9.91643
▁aplikasi	-9.91656
▁Badan	-9.91734
▁padi	-9.91813
▁Baca	-9.91829
▁Z	-9.9186
▁pertanyaan	-9.91863
▁Ingat	-9.91881
▁wkwkwk	-9.91921
▁Biar	-9.91926
▁berdiri	-9.92034
▁Provinsi	-9.92054
▁selatan	-9.92166
▁sebelumnya	-9.92204
▁enam	-9.92205
▁update	-9.92264
▁jodoh	-9.92267
▁kuih	-9.92297
▁jer	-9.92367
▁Klang	-9.9237
Malaysia	-9.92411
▁Baik	-9.9248
▁ngomong	-9.92496
▁malem	-9.92554
▁Pejabat	-9.92583
▁LUMPUR	-9.92612
▁perlawanan	-9.92788
▁Bagaimana	-9.92802
▁maybe	-9.92853
▁For	-9.92903
▁Bas	-9.92928
▁telur	-9.9298
▁dijangka	-9.93009
▁mesin	-9.931
▁kapan	-9.93115
DA	-9.93232
▁Inggeris	-9.93275
way	-9.93334
▁campur	-9.93339
▁pos	-9.93344
▁halal	-9.93402
▁Dapat	-9.93405
mis	-9.9341
nan	-9.93427
ate	-9.93464
▁Sejak	-9.93484
uuu	-9.93561
▁berkuasa	-9.93643
▁ribu	-9.93669
▁bunyi	-9.9374
▁APA	-9.93749
Quran	-9.9376
▁sadar	-9.93783
▁Seksyen	-9.93786
▁kebaikan	-9.9404
▁those	-9.9407
▁menghadapi	-9.94079
▁alami	-9.94166
▁PKR	-9.94179
▁undi	-9.94194
▁pemandu	-9.94201
bul	-9.94223
ket	-9.94363
Kita	-9.944
▁Abang	-9.94501
▁dana	-9.94585
tis	-9.94611
▁stay	-9.94613
▁tanggungjawab	-9.94649
▁amik	-9.94665
▁run	-9.94674
▁show	-9.94676
▁gelap	-9.94679
▁real	-9.94724
▁pertumbuhan	-9.9479
▁pengurusan	-9.94794
▁GUK	-9.94796
▁bad	-9.94813
▁International	-9.94854
▁better	-9.94863
dik	-9.94889
Di	-9.94918
▁jari	-9.94922
▁pasang	-9.94958
▁doakan	-9.9496
▁perak	-9.94983
isi	-9.94997
▁jahat	-9.95132
rr	-9.95177
▁many	-9.95281
▁putus	-9.95402
▁Jo	-9.95403
▁Hospital	-9.95413
▁Takde	-9.95431
▁korban	-9.95488
▁Ogos	-9.95573
▁mood	-9.95617
one	-9.95729
▁dibawah	-9.95821
▁Po	-9.95854
▁biru	-9.95882
▁level	-9.95918
▁same	-9.95925
ish	-9.95945
▁Bulan	-9.95964
▁dijalankan	-9.96001
▁Petaling	-9.96002
▁berdua	-9.9601
▁laju	-9.96077
pp	-9.96106
▁pn	-9.96211
let	-9.96219
▁Produk	-9.96235
▁Coba	-9.96297
▁Sdn	-9.9631
▁trs	-9.96354
▁our	-9.96372
▁menyertai	-9.96377
▁car	-9.96396
▁pulau	-9.96396
▁Perang	-9.96529
▁PT	-9.96661
▁asas	-9.96677
▁bergerak	-9.96741
▁luas	-9.96751
▁power	-9.96755
▁were	-9.96801
▁tingkat	-9.96807
age	-9.96866
▁hantar	-9.96879
▁viral	-9.96891
dam	-9.96925
▁mengadakan	-9.9693
▁lawan	-9.96973
▁Australia	-9.9698
28	-9.97009
▁cuci	-9.97011
▁Masyarakat	-9.97021
▁Subang	-9.97081
▁Kereta	-9.97085
▁kirim	-9.97116
48	-9.97129
▁pelik	-9.97146
▁seni	-9.97181
tahun	-9.97196
▁bertanya	-9.9728
tri	-9.97286
tau	-9.97314
▁sure	-9.9742
▁kerusi	-9.97455
▁Minyak	-9.9755
▁Kok	-9.97552
ding	-9.97568
▁kayu	-9.97596
lia	-9.97664
jang	-9.97702
▁LISAN	-9.97777
▁Dapatkan	-9.978
▁Manusia	-9.97864
▁year	-9.97965
▁Hasil	-9.98017
▁Sukan	-9.98072
▁dipakai	-9.98079
ning	-9.98151
▁Warna	-9.98156
▁Sabtu	-9.98167
▁ditemui	-9.98223
▁sikap	-9.98263
▁berarti	-9.98289
▁tips	-9.98292
▁any	-9.98323
pm	-9.9834
▁Nasib	-9.9834
▁WIB	-9.98413
eee	-9.98413
▁serangan	-9.98484
▁Whatsapp	-9.98575
SE	-9.9866
▁stop	-9.98677
jak	-9.98681
▁rajin	-9.98747
▁sebaliknya	-9.98855
mp	-9.98976
▁never	-9.98987
▁Belum	-9.98992
est	-9.99026
▁TER	-9.9909
▁Sy	-9.99131
▁ukuran	-9.99192
▁kemana	-9.99198
▁sahur	-9.99233
▁pikir	-9.9924
ted	-9.9928
▁Otak	-9.99319
▁Ramai	-9.99403
SA	-9.99414
2020	-9.99426
▁Masuk	-9.99461
▁Poskod	-9.99481
fu	-9.99494
▁Bismillah	-9.99498
las	-9.99508
▁kertas	-9.9953
▁comel	-9.99576
▁kurung	-9.99579
sin	-9.99602
▁smpai	-9.9968
▁kesian	-9.99714
▁?!	-9.99716
▁line	-9.99719
▁sukan	-9.99738
▁syarat	-9.99857
▁It	-9.99887
▁lemah	-9.99911
nas	-9.99955
▁Desa	-9.99969
▁wakil	-9.99971
▁karya	-10
▁rupanya	-10.0006
▁Mama	-10.0015
▁sambung	-10.0018
▁alhamdulillah	-10.0022
▁Bersatu	-10.0027
akan	-10.0035
▁sah	-10.0035
▁menolak	-10.0045
▁sdh	-10.0048
▁menambah	-10.0048
▁selesa	-10.005
▁should	-10.0054
▁co	-10.0056
▁semata	-10.0057
▁abg	-10.0071
▁memandang	-10.0072
▁Sedih	-10.0076
29	-10.008
▁bagaimanapun	-10.0084
▁hijau	-10.0088
▁Tetapi	-10.0096
ey	-10.0098
▁Pantai	-10.0098
▁Yu	-10.0104
▁Amin	-10.0107
IK	-10.0108
▁pemenang	-10.0113
▁ama	-10.0113
▁sorry	-10.0116
▁klinik	-10.0116
▁universiti	-10.0121
▁dont	-10.0124
▁wah	-10.0128
tal	-10.0131
ver	-10.0137
▁Laut	-10.0138
▁berakhir	-10.014
▁Con	-10.0142
▁bekalan	-10.0144
▁Kesihatan	-10.0145
Per	-10.0147
▁Cinta	-10.0151
▁would	-10.016
▁Dipertua	-10.0163
ara	-10.0164
▁haiwan	-10.0166
ras	-10.0169
▁cik	-10.0171
▁dri	-10.0171
▁mengikuti	-10.0173
org	-10.0174
▁Syed	-10.0174
▁hai	-10.0175
wo	-10.0179
kas	-10.0192
▁Ce	-10.0193
▁Ikan	-10.0194
▁Panjang	-10.0208
oo	-10.0211
200	-10.0211
dok	-10.0234
▁pakcik	-10.0239
▁aspek	-10.0245
▁tunjuk	-10.0248
▁pelaburan	-10.0248
▁Maha	-10.0256
▁2010	-10.0259
▁bohong	-10.0264
bur	-10.0275
yah	-10.0277
mba	-10.0279
▁shopee	-10.0281
ine	-10.0283
▁Lalu	-10.0287
▁YG	-10.0291
▁Za	-10.0296
▁Esok	-10.0298
ab	-10.0299
nah	-10.03
▁perusahaan	-10.03
▁Antarabangsa	-10.0301
ps	-10.0303
▁berlangsung	-10.0307
▁work	-10.0307
▁Republik	-10.0309
▁Jenis	-10.0309
▁hujung	-10.0309
▁daun	-10.0309
sis	-10.0318
95	-10.0319
▁tim	-10.0328
▁HARGA	-10.0328
US	-10.0329
IS	-10.0336
▁kemudahan	-10.0336
▁Walau	-10.0336
▁menga	-10.0337
▁dewasa	-10.034
▁sesi	-10.0342
▁ge	-10.0348
▁gelak	-10.0353
▁Tenggara	-10.0356
nu	-10.0359
but	-10.0361
▁lepastu	-10.0369
PA	-10.0372
▁plus	-10.0374
ani	-10.0378
▁pinjaman	-10.0378
▁Paling	-10.0387
▁sepenuhnya	-10.0388
ence	-10.0388
▁pindah	-10.039
60	-10.0394
by	-10.0399
▁case	-10.04
▁Time	-10.0404
▁FREE	-10.0408
▁tv	-10.041
▁dipanggil	-10.0414
pas	-10.0417
ow	-10.0418
▁cina	-10.0433
▁help	-10.0438
▁sate	-10.044
▁United	-10.0441
▁sengaja	-10.0442
kerja	-10.046
▁menjawab	-10.0463
▁setuju	-10.0465
▁already	-10.0471
▁besi	-10.0472
▁institusi	-10.0473
▁Tiada	-10.0476
▁nder	-10.0479
▁HARI	-10.0482
▁Lokasi	-10.0501
▁Facebook	-10.0503
▁disebut	-10.0519
▁Minggu	-10.0528
▁perkataan	-10.053
▁home	-10.0532
▁konsep	-10.0538
▁Beberapa	-10.0541
▁Sakit	-10.0544
▁peserta	-10.0551
▁pelanggan	-10.0552
▁Sayang	-10.0553
ANG	-10.0559
rai	-10.0561
▁kemas	-10.0568
▁biji	-10.0572
▁nenek	-10.0576
▁yo	-10.0582
▁LA	-10.0582
▁dibina	-10.0584
▁bela	-10.0587
pur	-10.059
▁sempurna	-10.0594
▁El	-10.0597
27	-10.0602
▁peningkatan	-10.0604
▁big	-10.0609
▁digital	-10.0611
▁kecewa	-10.0623
▁Bin	-10.0624
▁Tadi	-10.0636
▁memenuhi	-10.0646
▁right	-10.065
01	-10.0654
▁grab	-10.0656
▁reti	-10.0659
▁mulu	-10.0664
▁im	-10.0664
▁hard	-10.067
▁Che	-10.0671
▁mom	-10.0675
▁berhasil	-10.0677
▁muslim	-10.0688
jalan	-10.0691
▁Prabowo	-10.0699
▁Tanjung	-10.07
▁plastik	-10.0705
▁plak	-10.0707
▁jantung	-10.0712
▁bawang	-10.0712
yan	-10.0714
sari	-10.0722
▁halus	-10.0725
▁Teknologi	-10.0737
▁Akhirnya	-10.0738
Pe	-10.0738
▁En	-10.0743
▁buy	-10.0743
▁langit	-10.076
▁nyanyi	-10.0761
▁Gua	-10.0761
▁II	-10.0764
▁Gi	-10.0777
▁sebut	-10.078
▁siri	-10.0781
▁Itali	-10.0781
La	-10.0784
kon	-10.0784
▁pembangkang	-10.0785
▁Fi	-10.0787
▁mbak	-10.0787
TI	-10.0795
▁nnti	-10.0796
▁MAU	-10.0796
▁Cepat	-10.0797
▁usah	-10.0799
▁Akan	-10.08
ING	-10.0802
▁well	-10.0803
▁Kulit	-10.0804
mak	-10.0807
▁90	-10.0813
que	-10.082
▁cuman	-10.082
▁tetep	-10.082
▁Happy	-10.0831
▁Apabila	-10.0834
▁palsu	-10.0836
tif	-10.0844
▁kesempatan	-10.0845
▁mamak	-10.0848
49	-10.0857
ive	-10.0858
▁Menengah	-10.0861
▁melebihi	-10.0869
▁Kon	-10.0873
▁kondisi	-10.0873
▁papa	-10.0874
▁tuan	-10.0874
▁Kewangan	-10.0882
▁infrastruktur	-10.0883
▁diet	-10.0885
▁vs	-10.0886
▁lancar	-10.0893
▁been	-10.0894
▁informasi	-10.0896
des	-10.0904
▁pemerintahan	-10.0904
▁walau	-10.091
36	-10.0911
▁City	-10.0925
▁kekuatan	-10.0926
▁Super	-10.0928
▁mengetahui	-10.0928
pol	-10.0933
▁Az	-10.0933
CE	-10.0935
▁Du	-10.0938
▁Kim	-10.0945
▁pembelian	-10.0946
▁taman	-10.0949
▁Sbb	-10.095
▁Luar	-10.0953
▁Moga	-10.0962
▁botol	-10.0964
▁menulis	-10.0964
▁toko	-10.0969
55	-10.0971
▁br	-10.0971
▁Razak	-10.0971
▁raja	-10.0971
▁potong	-10.0974
▁entah	-10.0975
▁Turki	-10.0978
▁KM	-10.098
▁sha	-10.0982
▁Kemudian	-10.0985
▁maksud	-10.0986
ping	-10.0991
▁Ben	-10.0991
▁menjelaskan	-10.0992
▁gojek	-10.0994
▁MALAYSIA	-10.0996
Sa	-10.0998
▁blm	-10.0998
▁un	-10.1001
▁sedangkan	-10.1013
▁Ak	-10.1019
▁setia	-10.1025
sir	-10.1029
kawan	-10.1032
▁pelakon	-10.1035
▁boss	-10.104
peng	-10.1043
daerah	-10.1048
pet	-10.1049
▁Shi	-10.105
▁pegang	-10.1053
▁mari	-10.1057
▁Lelaki	-10.1062
▁tulisan	-10.1064
▁service	-10.1068
CI	-10.1072
▁Alor	-10.1073
ini	-10.1074
▁Ukuran	-10.1076
▁Selalu	-10.1084
▁SO	-10.1087
▁berbeda	-10.1094
▁tanaman	-10.11
ent	-10.1104
▁Awak	-10.1107
▁po	-10.111
▁End	-10.1111
▁tamu	-10.1111
▁kandungan	-10.1112
▁posisi	-10.1114
▁disediakan	-10.1116
▁Aziz	-10.1122
▁membolehkan	-10.1122
▁Eropah	-10.1124
▁sejenis	-10.1124
▁sore	-10.1125
▁kementerian	-10.1126
RI	-10.1127
jan	-10.1137
▁Jawatankuasa	-10.114
▁maupun	-10.114
UN	-10.1143
kir	-10.115
▁v	-10.1153
ib	-10.1156
▁anaknya	-10.1157
▁untung	-10.1159
▁BIN	-10.1161
▁amalan	-10.1163
▁Darul	-10.1167
line	-10.1172
▁ketawa	-10.1181
bin	-10.1184
▁amanah	-10.1195
▁kilang	-10.1198
▁bilangan	-10.1207
▁ala	-10.1207
▁menangani	-10.1208
▁Pasir	-10.1216
sy	-10.1219
less	-10.122
▁Instagram	-10.1221
▁She	-10.1222
▁makcik	-10.1228
IT	-10.1232
▁fungsi	-10.1233
▁St	-10.1234
▁dilantik	-10.1236
▁Guru	-10.1238
MU	-10.124
▁sing	-10.1243
itas	-10.1247
▁Ramadan	-10.1261
▁padang	-10.1275
▁Pra	-10.1278
▁terkejut	-10.1283
▁Lagu	-10.1284
▁menyokong	-10.1292
▁jap	-10.1297
▁perasan	-10.1297
▁memakai	-10.1297
▁sukses	-10.1303
▁terbaru	-10.1304
▁ho	-10.1305
iz	-10.1317
▁always	-10.1332
LAH	-10.1332
▁Asal	-10.1337
tam	-10.134
IM	-10.1342
▁bukannya	-10.1342
▁komuniti	-10.1349
▁pedas	-10.1351
▁customer	-10.1352
▁San	-10.1354
▁kg	-10.1355
▁Bunga	-10.1359
pin	-10.136
▁Tempat	-10.136
▁Kumpulan	-10.1363
▁mendapati	-10.1364
▁Isu	-10.1364
▁PEMBERITAHUAN	-10.1365
▁ne	-10.1366
▁Suruhanjaya	-10.1367
▁way	-10.1368
▁permohonan	-10.1369
33	-10.1371
▁Lim	-10.1377
▁suku	-10.1379
▁because	-10.138
ena	-10.1381
▁kejar	-10.1385
▁berasa	-10.1389
▁kawin	-10.139
cur	-10.1396
▁Sekali	-10.1397
▁mahkamah	-10.1401
rumah	-10.1405
▁pu	-10.1405
▁Bapak	-10.1409
▁sempena	-10.1416
▁Siti	-10.1418
▁perjuangan	-10.1422
▁em	-10.1429
▁terlebih	-10.1435
▁dek	-10.1437
ley	-10.1437
▁parents	-10.1447
lama	-10.1457
▁80	-10.146
▁aset	-10.1461
LI	-10.1462
▁Free	-10.1465
▁tegur	-10.1466
▁hendak	-10.1473
▁tertinggi	-10.1473
▁rawatan	-10.1475
mal	-10.1475
▁kebun	-10.1476
▁kemenangan	-10.1478
▁Tau	-10.1482
▁menentang	-10.1491
ira	-10.1494
▁Umum	-10.1495
▁non	-10.1499
▁bosan	-10.1499
▁mat	-10.1506
▁Mall	-10.1512
▁student	-10.1512
▁kangen	-10.1517
▁rasuah	-10.1519
▁urut	-10.1522
mon	-10.1523
▁internet	-10.1529
iya	-10.1529
▁Media	-10.153
▁pendapat	-10.1532
▁sekalian	-10.1534
▁jangka	-10.1535
▁perdagangan	-10.1537
▁pelajaran	-10.1538
▁kecuali	-10.154
ita	-10.1546
▁live	-10.1546
▁Rahman	-10.1553
▁Berat	-10.1553
▁arahan	-10.1554
con	-10.1555
az	-10.1556
jen	-10.1556
▁size	-10.1557
▁mewujudkan	-10.156
▁segar	-10.1563
anda	-10.1569
▁diperlukan	-10.1575
lip	-10.1577
97	-10.1579
▁bangga	-10.1579
cantik	-10.158
▁Tok	-10.1581
▁idea	-10.1582
kam	-10.1582
▁This	-10.1593
▁kelantan	-10.1594
▁Video	-10.1595
▁bertindak	-10.1595
angan	-10.1596
▁merasakan	-10.1597
▁fb	-10.1598
sah	-10.1602
22	-10.1606
▁jak	-10.1606
▁dlu	-10.1607
▁berkembang	-10.1607
UT	-10.1612
▁Tahniah	-10.1612
▁Bang	-10.1613
>	-10.1615
▁Pastu	-10.1616
▁membina	-10.1616
▁versi	-10.1617
▁mikir	-10.1618
▁since	-10.1626
▁Benda	-10.1632
ble	-10.1632
▁tarik	-10.1639
red	-10.1641
▁British	-10.1645
▁artis	-10.1648
▁ce	-10.1649
03	-10.165
▁pem	-10.1651
▁mengatasi	-10.1653
tip	-10.1656
uan	-10.1665
▁dagang	-10.1666
▁sungguh	-10.1667
▁Balik	-10.1668
▁muzik	-10.1668
▁kaedah	-10.1669
70	-10.1669
▁gerak	-10.167
lok	-10.1671
dung	-10.1677
▁obor	-10.1682
80	-10.1693
▁kotak	-10.1694
▁Jumaat	-10.1694
▁pihaknya	-10.1695
▁Ustaz	-10.1699
▁far	-10.1704
▁mengandungi	-10.1705
▁cincin	-10.1706
▁ws	-10.1708
99	-10.1709
ies	-10.1711
▁auto	-10.1719
▁Ji	-10.173
▁seneng	-10.1732
▁ubat	-10.1736
▁Pegawai	-10.1737
▁dipilih	-10.1738
44	-10.174
▁doh	-10.1742
LA	-10.1744
ret	-10.1744
▁use	-10.1751
▁us	-10.1752
▁sek	-10.1752
▁pacar	-10.1755
02	-10.1756
iti	-10.176
▁nasihat	-10.1761
Ta	-10.1762
Ka	-10.1769
bas	-10.1769
▁SMK	-10.1772
bahan	-10.1773
▁dijual	-10.1776
▁mengandung	-10.1779
▁bergantung	-10.1782
ary	-10.1788
▁Muda	-10.1788
▁bersatu	-10.179
▁gara	-10.1798
▁sederhana	-10.1805
▁terang	-10.1806
▁gol	-10.1806
▁takleh	-10.181
▁Bahru	-10.1811
Me	-10.1812
af	-10.1817
▁bulu	-10.1825
▁pre	-10.183
▁getah	-10.183
▁sub	-10.183
tro	-10.1834
▁move	-10.184
tion	-10.1842
▁bayaran	-10.1845
war	-10.1852
▁daftar	-10.1857
kh	-10.1861
▁perlahan	-10.1869
▁kabar	-10.187
▁tipu	-10.188
▁Rabu	-10.1884
▁polisi	-10.1885
▁tpi	-10.1893
▁pm	-10.1897
iyah	-10.1909
▁subuh	-10.191
bes	-10.1911
▁watak	-10.1914
▁feel	-10.1914
▁Bar	-10.1915
▁Rasulullah	-10.1916
▁office	-10.1916
king	-10.1918
▁TIDAK	-10.192
▁btw	-10.1921
▁langgar	-10.1922
▁doktor	-10.1926
▁play	-10.1927
▁Pekan	-10.1927
▁remaja	-10.1932
▁Harap	-10.1933
rs	-10.194
▁Lembaga	-10.1944
▁bru	-10.1958
▁Rm	-10.1964
▁into	-10.1972
▁sisa	-10.1973
▁tapak	-10.1973
▁menyelesaikan	-10.1974
▁itulah	-10.1974
▁ditahan	-10.1982
▁instagram	-10.1986
▁jarak	-10.1987
▁nanya	-10.1988
Pa	-10.1989
▁kejayaan	-10.1991
63	-10.1992
▁kuning	-10.1994
▁kejap	-10.1996
▁sifat	-10.2018
▁setengah	-10.2024
▁drive	-10.2024
▁pelan	-10.2025
leh	-10.203
▁MEN	-10.2035
▁situasi	-10.2046
▁punca	-10.2046
▁years	-10.205
▁Hmm	-10.2052
▁akaun	-10.2058
▁design	-10.206
▁perkahwinan	-10.206
▁gatau	-10.2061
▁tag	-10.2067
▁shah	-10.2073
▁KA	-10.2077
▁tumbuh	-10.2078
▁penumpang	-10.208
▁lho	-10.2081
▁bos	-10.2082
▁2012	-10.2083
shi	-10.2087
▁Material	-10.2088
▁generasi	-10.2089
dis	-10.2093
rus	-10.2096
▁Kini	-10.2096
ds	-10.2099
▁Terbaik	-10.2105
▁Bandung	-10.2106
▁permainan	-10.2106
▁70	-10.2115
▁xde	-10.2117
▁Kawan	-10.2117
▁500	-10.2119
▁dingin	-10.2123
▁popular	-10.2128
▁everyone	-10.2131
buk	-10.2135
▁Habis	-10.2139
teman	-10.214
▁ready	-10.2146
▁abad	-10.2148
▁Good	-10.2149
▁mengubah	-10.2152
▁sejumlah	-10.2153
bertanggungjawab	-10.2163
▁Keluarga	-10.2164
▁Persatuan	-10.2165
▁populasi	-10.2169
▁2008	-10.2169
▁Org	-10.2172
▁rancangan	-10.2174
▁Mudah	-10.2176
39	-10.2182
▁gede	-10.2183
ID	-10.2185
▁aksi	-10.2188
▁mba	-10.219
▁Sam	-10.2196
▁dilaporkan	-10.2198
▁pemilik	-10.2199
▁telefon	-10.2201
▁confirm	-10.2201
▁kontrak	-10.2203
▁bertahan	-10.2204
▁gampang	-10.2206
▁Malah	-10.2207
▁Best	-10.2216
▁laman	-10.2218
▁nomor	-10.2223
out	-10.2224
▁Mcm	-10.2228
▁aneh	-10.2228
▁Ternyata	-10.2229
▁memegang	-10.224
▁Mata	-10.2244
▁mengaku	-10.2245
▁beradik	-10.2254
▁Kepala	-10.2255
▁event	-10.2256
▁Aidilfitri	-10.2258
▁memahami	-10.2264
▁ramadhan	-10.2265
▁HP	-10.2273
pal	-10.2279
▁Padang	-10.2285
08	-10.2286
▁ask	-10.2288
▁bertujuan	-10.2289
ua	-10.229
▁memasuki	-10.229
▁Park	-10.229
▁kekurangan	-10.2293
▁Im	-10.2295
▁SM	-10.2298
op	-10.2303
▁Kuantan	-10.2305
▁yaaa	-10.2307
▁teringat	-10.2308
68	-10.2309
69	-10.2311
▁Cari	-10.2316
▁Size	-10.2318
▁today	-10.2321
▁pengeluaran	-10.2324
kap	-10.2326
▁bab	-10.2331
▁2011	-10.2332
lai	-10.2334
▁menjalani	-10.2335
▁jenayah	-10.2341
▁bukanlah	-10.2351
▁jela	-10.2354
▁Eng	-10.2356
▁Nga	-10.2358
▁most	-10.236
▁something	-10.2363
pro	-10.2375
puk	-10.2376
▁ORDER	-10.2377
▁rata	-10.2378
▁depa	-10.2378
▁pay	-10.2396
▁laluan	-10.2396
▁bertambah	-10.2404
▁rosak	-10.2404
rek	-10.2408
▁Diraja	-10.2408
▁j	-10.2411
▁gabisa	-10.2411
▁Pengen	-10.2414
▁Pasti	-10.2415
▁kunci	-10.2418
▁Tangan	-10.2421
SK	-10.2435
▁LAGI	-10.2436
▁Naik	-10.2437
▁Dar	-10.244
▁parah	-10.2442
▁week	-10.2443
▁belah	-10.2444
▁Istana	-10.2445
▁Selasa	-10.2446
▁Berita	-10.2448
▁kacau	-10.2451
▁ditetapkan	-10.2458
▁giveaway	-10.2459
▁diatas	-10.246
▁pinggang	-10.2464
▁stok	-10.2467
ER	-10.2468
▁gais	-10.2469
▁DENGAN	-10.247
▁Tiba	-10.2475
kai	-10.2475
▁berkahwin	-10.2477
67	-10.2481
▁kelihatan	-10.2483
▁Sabar	-10.2492
▁berikutan	-10.2496
▁nikmat	-10.2496
▁Tengok	-10.2498
▁obat	-10.2499
▁pria	-10.2502
▁Pasukan	-10.2503
▁Sebenarnya	-10.2506
gel	-10.2507
sta	-10.2508
▁menawarkan	-10.2508
▁DIA	-10.2509
▁Secara	-10.2514
uri	-10.2517
▁kelompok	-10.2525
▁look	-10.2526
▁Chi	-10.2529
▁permintaan	-10.2529
▁Selama	-10.2531
▁kantor	-10.2536
ven	-10.2538
▁Tanya	-10.2539
▁Lee	-10.254
▁terkini	-10.2542
▁War	-10.2545
▁asam	-10.2545
OL	-10.2546
59	-10.2547
38	-10.2548
▁Car	-10.2549
food	-10.2551
▁song	-10.2556
▁Kar	-10.2558
▁memutuskan	-10.2559
▁35	-10.2567
▁Pasar	-10.2568
▁emosi	-10.257
▁Q	-10.2572
▁Gu	-10.2575
▁sekaligus	-10.2578
pat	-10.2579
LE	-10.2585
▁gitar	-10.2585
▁report	-10.2586
▁tas	-10.2587
cap	-10.2591
▁global	-10.2594
aya	-10.2596
▁DARIPADA	-10.2596
▁Sangat	-10.2607
▁BUKAN	-10.261
▁ulama	-10.2611
▁sumbangan	-10.2613
▁sepatutnya	-10.2616
▁ibadah	-10.2619
▁beb	-10.2621
MI	-10.2622
▁Sains	-10.2623
▁biaya	-10.2626
▁mahasiswa	-10.2627
jar	-10.2636
zz	-10.2637
▁Bali	-10.264
pon	-10.2642
dal	-10.2644
isasi	-10.2652
▁slow	-10.2653
▁Khas	-10.266
jin	-10.2661
▁luka	-10.2662
▁memenangi	-10.2667
▁cahaya	-10.2668
▁RAYA	-10.2668
▁pakar	-10.2671
▁tr	-10.2674
▁ringan	-10.2674
▁rokok	-10.2676
▁saiz	-10.2677
▁contact	-10.2681
▁inisiatif	-10.2682
lem	-10.2683
▁mengumumkan	-10.2686
▁movie	-10.2686
▁matahari	-10.2687
▁Bagaimanapun	-10.2688
▁Rt	-10.2688
sss	-10.269
RM	-10.269
▁pengetahuan	-10.2692
64	-10.2692
BN	-10.2695
▁Bahkan	-10.2697
lur	-10.2698
▁sembuh	-10.27
05	-10.2702
▁mabuk	-10.2704
31	-10.2705
AM	-10.2706
rum	-10.2714
▁sabah	-10.2717
▁hukuman	-10.2719
▁lulus	-10.2719
▁final	-10.2719
lit	-10.2723
▁nyari	-10.2725
▁kpd	-10.2726
▁kebutuhan	-10.2737
▁Sistem	-10.2738
par	-10.274
DI	-10.2743
▁face	-10.2745
▁jujur	-10.275
▁Buka	-10.275
▁gaduh	-10.2751
▁result	-10.2757
▁Muka	-10.2761
▁tinggalkan	-10.2763
▁kecantikan	-10.2763
▁pls	-10.2764
▁Bahagian	-10.2765
▁takpe	-10.2766
▁teriak	-10.2769
▁kad	-10.2776
▁curi	-10.2778
▁MB	-10.2781
▁Belajar	-10.2781
▁Pertanian	-10.2784
▁kasar	-10.2788
▁laaa	-10.2789
ilah	-10.2789
run	-10.2793
era	-10.2796
▁pusing	-10.2797
▁kemungkinan	-10.2799
▁Cukup	-10.28
▁Wah	-10.28
▁pulsa	-10.2802
can	-10.2809
zu	-10.2809
mbang	-10.2816
▁es	-10.282
▁nu	-10.2834
Ha	-10.2835
▁Like	-10.2836
▁separuh	-10.284
▁perbuatan	-10.2842
olah	-10.2845
▁Berhormat	-10.2845
▁ngn	-10.2849
▁Anugerah	-10.285
NA	-10.2851
▁adanya	-10.2853
▁membunuh	-10.2854
▁kualitas	-10.2854
06	-10.2855
▁Es	-10.2856
▁dikenakan	-10.2857
▁diketahui	-10.2859
▁Sumpah	-10.2874
37	-10.2874
▁cover	-10.2874
kes	-10.2875
▁bintang	-10.2885
▁ditubuhkan	-10.2887
▁keren	-10.2888
▁Kesian	-10.2888
ori	-10.2891
▁pengajian	-10.2892
▁SK	-10.2894
ST	-10.2897
pah	-10.2898
▁Utama	-10.29
▁Pakai	-10.29
▁pipi	-10.29
▁lantai	-10.2903
▁PRU	-10.2903
AD	-10.2904
▁DARI	-10.2909
net	-10.2914
▁Barang	-10.292
ob	-10.2925
73	-10.2928
▁Cuba	-10.2929
▁MA	-10.2935
▁tetiba	-10.2938
▁tgok	-10.2939
▁larut	-10.2941
▁Ad	-10.2944
▁ujar	-10.2951
▁sape	-10.2956
isu	-10.2957
▁bs	-10.2957
din	-10.2962
▁top	-10.2963
▁bla	-10.2966
▁melindungi	-10.2968
▁Makanan	-10.2971
lat	-10.2971
▁seolah	-10.2973
▁paket	-10.2979
▁lingkungan	-10.298
ming	-10.2983
▁berwarna	-10.2987
▁house	-10.2988
▁Gila	-10.2995
▁Putra	-10.2998
▁sekadar	-10.3
▁point	-10.3002
▁Gunung	-10.3002
▁gas	-10.3003
tuk	-10.3006
▁Hotel	-10.3007
▁mending	-10.3008
▁ca	-10.3015
▁Pergi	-10.3015
▁kebenaran	-10.3018
▁mewakili	-10.3018
▁kemalangan	-10.302
▁tuhan	-10.302
▁Nor	-10.3021
Re	-10.3022
In	-10.3022
▁klu	-10.3023
ي	-10.3026
mb	-10.3033
▁patah	-10.3033
▁berhampiran	-10.3035
▁bagai	-10.3038
96	-10.3039
▁RI	-10.3039
▁petani	-10.3044
65	-10.3045
▁silap	-10.3046
▁Kepada	-10.3047
ay	-10.3048
▁sila	-10.3049
▁Ju	-10.3053
▁ngantuk	-10.3053
▁mengenal	-10.3053
▁Setiausaha	-10.3054
▁Adik	-10.3056
MDB	-10.3067
▁GIVEAWAY	-10.3068
▁demam	-10.3069
▁dipercayai	-10.3073
▁old	-10.3074
▁menemukan	-10.3074
Ber	-10.3078
▁Sepanyol	-10.3078
▁emg	-10.308
▁Buah	-10.3083
tes	-10.3083
▁kehadiran	-10.3084
iah	-10.3086
▁con	-10.3087
▁Azmin	-10.3087
▁All	-10.3088
▁emak	-10.3089
▁memulakan	-10.3089
▁basuh	-10.309
por	-10.3092
▁Sebuah	-10.3108
▁sulit	-10.311
▁om	-10.311
▁bahaya	-10.3111
▁Punya	-10.3116
CC	-10.312
kadang	-10.3121
▁high	-10.3123
▁en	-10.3126
▁Ade	-10.3126
cho	-10.3127
▁sangka	-10.3128
▁tujuh	-10.3132
▁gunakan	-10.3133
▁seru	-10.3133
▁menjelang	-10.3137
▁bicara	-10.3138
▁sen	-10.3139
ben	-10.3139
▁tulang	-10.3141
▁MU	-10.3143
▁pra	-10.3144
raja	-10.3145
▁tah	-10.3152
tah	-10.3153
▁Perkhidmatan	-10.3153
bulan	-10.316
▁era	-10.3164
lik	-10.3164
ice	-10.3164
▁where	-10.3168
89	-10.3169
▁FA	-10.3172
▁ucap	-10.3175
▁PE	-10.3175
▁Lah	-10.3178
▁bercakap	-10.318
▁ciri	-10.3181
▁job	-10.3182
HAN	-10.3182
ooo	-10.3184
OR	-10.3186
▁Mohamed	-10.3186
▁Perempuan	-10.3189
▁nice	-10.3191
▁berminat	-10.3193
04	-10.3195
oi	-10.3196
makan	-10.3199
▁Perlembagaan	-10.3204
▁hamba	-10.3204
tic	-10.3208
jakarta	-10.3215
▁stock	-10.322
▁membayar	-10.3224
▁membangun	-10.3225
▁silahkan	-10.323
wal	-10.323
▁Click	-10.323
PH	-10.3231
▁Belanda	-10.3234
bb	-10.3236
▁masakan	-10.3236
▁Inilah	-10.3236
▁kategori	-10.3239
▁berjuang	-10.3247
▁45	-10.3248
▁kasut	-10.3249
tun	-10.325
nk	-10.3254
▁Kes	-10.3258
▁ucapan	-10.3263
KI	-10.3264
▁lebaran	-10.3265
▁dikit	-10.3265
▁gembira	-10.327
▁May	-10.327
▁ME	-10.3271
GI	-10.3276
▁menahan	-10.3281
▁segini	-10.3282
▁berikan	-10.3284
▁Sehingga	-10.3284
▁2009	-10.3286
▁kite	-10.3287
▁tekanan	-10.3289
▁menutup	-10.3294
▁bermanfaat	-10.3298
▁anjir	-10.3303
▁mirip	-10.3307
▁kemudiannya	-10.331
▁under	-10.3313
▁meletakkan	-10.3314
▁PA	-10.3315
▁merujuk	-10.3316
sak	-10.3317
▁Contoh	-10.3321
▁mengapa	-10.3322
▁silam	-10.3323
▁JANGAN	-10.3324
raf	-10.3331
▁hehehe	-10.3337
▁Bakar	-10.334
gh	-10.3341
cat	-10.3347
the	-10.3348
▁aj	-10.3353
▁telinga	-10.3354
▁body	-10.3357
hat	-10.3358
▁moden	-10.3361
▁mencoba	-10.3366
▁again	-10.3367
put	-10.3367
▁terkena	-10.3371
▁mantan	-10.3374
46	-10.3376
86	-10.3379
▁Banjir	-10.3381
▁kasus	-10.3384
▁lilin	-10.3384
▁fa	-10.3385
▁simple	-10.3391
sya	-10.3393
▁Or	-10.3393
▁makluman	-10.3394
▁adil	-10.3396
▁beroperasi	-10.3409
rata	-10.341
▁pengundi	-10.3412
▁sambal	-10.3413
BU	-10.3415
yy	-10.3415
▁kelab	-10.3418
▁acc	-10.3419
▁Tabung	-10.342
▁bkn	-10.3425
=	-10.3425
RE	-10.3427
▁elektrik	-10.3433
▁cewe	-10.3434
▁ditambah	-10.3438
▁bus	-10.344
aman	-10.3442
▁SPRM	-10.3443
ks	-10.3446
pt	-10.3447
▁Agong	-10.3449
cik	-10.3449
▁talk	-10.345
▁gus	-10.3453
▁One	-10.3454
▁bersetuju	-10.3455
▁meneruskan	-10.3457
88	-10.3459
▁Anti	-10.3462
▁bibir	-10.3462
▁kampus	-10.3466
▁sarawak	-10.3467
▁crush	-10.3467
ez	-10.347
79	-10.3472
▁bernilai	-10.3476
▁kebaya	-10.3477
▁laptop	-10.3479
▁company	-10.3484
rd	-10.3485
ns	-10.3496
▁Penat	-10.35
▁ketinggian	-10.35
log	-10.3501
▁gunung	-10.3508
▁Putih	-10.351
daya	-10.3512
kom	-10.3512
pang	-10.3522
▁course	-10.3522
▁beg	-10.3524
▁baginda	-10.3526
32	-10.3526
▁pertemuan	-10.3532
▁sesama	-10.3533
▁300	-10.3536
▁titik	-10.3538
▁Semangat	-10.3538
▁belom	-10.3545
jadi	-10.3545
▁SOALAN	-10.3547
▁Awam	-10.3551
▁Sorry	-10.3553
▁Adam	-10.3555
▁tolak	-10.3564
▁mesyuarat	-10.3565
▁tegas	-10.3569
ft	-10.3569
▁perumahan	-10.3577
▁Kain	-10.358
for	-10.3585
▁Open	-10.3586
▁penerbangan	-10.3589
▁Last	-10.3592
▁corona	-10.3593
▁2001	-10.3593
▁yu	-10.3596
▁away	-10.3597
▁mencegah	-10.3598
▁Minta	-10.3598
▁150	-10.3603
▁suasana	-10.3604
▁Han	-10.361
▁Main	-10.3611
▁Lain	-10.3618
▁On	-10.3618
▁Maret	-10.3619
▁Cik	-10.3622
▁vitamin	-10.3625
AS	-10.3626
▁melawan	-10.3629
▁Mem	-10.3632
▁bermakna	-10.3633
▁sudut	-10.3637
▁bunda	-10.3639
▁Cantik	-10.364
▁travel	-10.3642
▁bunuh	-10.3643
▁timbul	-10.3643
▁settle	-10.3645
ard	-10.3653
47	-10.3657
laki	-10.366
▁let	-10.3662
▁ANDA	-10.3668
▁Kasih	-10.3672
▁beban	-10.3673
▁Gambar	-10.3674
IA	-10.3676
▁Tunggu	-10.3676
▁Btw	-10.3683
aka	-10.3687
▁least	-10.3688
▁bersalah	-10.3689
ologi	-10.369
ati	-10.369
ngan	-10.3691
▁WhatsApp	-10.3692
54	-10.3693
bung	-10.3696
EN	-10.3697
don	-10.3698
▁Stadium	-10.3701
▁Cu	-10.3703
BA	-10.3703
▁kuah	-10.3706
▁izin	-10.3714
ew	-10.3716
▁berdoa	-10.3716
▁bijak	-10.3728
▁Set	-10.3731
ika	-10.3734
▁gangguan	-10.3736
▁diterbitkan	-10.3743
▁ketiak	-10.3743
▁ditanya	-10.3748
▁XL	-10.3759
▁didakwa	-10.3765
aan	-10.3769
▁Kedai	-10.3769
gas	-10.3775
▁Budak	-10.3776
▁iklan	-10.3778
▁sebentar	-10.3779
▁nasional	-10.3779
▁menentukan	-10.378
▁siao	-10.3781
▁tarikh	-10.3783
nis	-10.3785
▁penulis	-10.3786
▁Sal	-10.3786
▁BA	-10.379
▁Projek	-10.3792
▁Ipoh	-10.3792
▁Wow	-10.3792
pot	-10.3792
▁hamil	-10.3793
▁Har	-10.3794
▁RE	-10.3801
▁class	-10.3803
ex	-10.381
▁menyampaikan	-10.3812
▁tanggung	-10.3816
▁Semalam	-10.3816
07	-10.3816
uddin	-10.3818
▁pikiran	-10.3818
▁ijazah	-10.3818
▁Tengku	-10.3819
▁Bola	-10.382
▁cream	-10.3825
van	-10.3827
▁jelah	-10.3828
▁Restoran	-10.3833
▁US	-10.3838
sih	-10.3842
▁perjanjian	-10.3845
tum	-10.3846
▁kerap	-10.3848
▁pertandingan	-10.385
▁Makin	-10.385
▁berjumlah	-10.3853
cy	-10.3856
ida	-10.3856
tera	-10.3857
▁antaranya	-10.3864
▁rela	-10.3865
▁bf	-10.3866
▁risiko	-10.3868
▁haritu	-10.387
▁Agung	-10.3872
ONG	-10.3872
94	-10.3873
▁berke	-10.3873
▁inget	-10.3874
▁ALLAH	-10.3876
▁ikhlas	-10.3879
▁juara	-10.3882
▁Kiri	-10.3885
▁may	-10.3887
rul	-10.3887
TAN	-10.3888
▁engkau	-10.389
Su	-10.3893
▁lawak	-10.3894
▁istilah	-10.3896
▁money	-10.3907
lis	-10.3909
▁problem	-10.3912
▁2009,	-10.3913
▁Kecil	-10.3917
▁Prof	-10.3918
▁bukit	-10.3919
eu	-10.3921
▁Barisan	-10.3925
tasi	-10.3929
▁jaman	-10.393
75	-10.3939
AI	-10.3943
bus	-10.3945
▁ji	-10.3945
▁maklum	-10.3946
▁inspirasi	-10.3948
buat	-10.3948
▁berkesan	-10.3949
▁Pem	-10.395
awan	-10.395
bab	-10.3952
▁hahah	-10.3953
▁38	-10.3956
lim	-10.3958
zo	-10.3958
ibu	-10.3963
▁PO	-10.3964
▁bar	-10.3965
▁dise	-10.3967
58	-10.3968
▁Cerita	-10.3975
▁memohon	-10.3975
▁cendol	-10.3979
▁sebesar	-10.3982
▁fakta	-10.3983
300	-10.3984
▁Kejadian	-10.3987
itu	-10.3987
MP	-10.3988
▁Warga	-10.3992
▁Hutan	-10.3993
▁Teme	-10.4
air	-10.4002
GB	-10.4004
▁negatif	-10.4005
▁someone	-10.4005
▁bnyk	-10.4005
▁elektronik	-10.4008
▁knp	-10.4008
val	-10.4008
▁didapati	-10.4009
tengah	-10.4009
▁lot	-10.4009
▁fi	-10.401
▁seharusnya	-10.4013
▁ketupat	-10.4016
▁jahit	-10.402
▁kepercayaan	-10.4025
61	-10.4026
▁burung	-10.4029
aaaaa	-10.4031
▁kelebihan	-10.4035
▁sepi	-10.4035
ous	-10.4037
nama	-10.4042
Bu	-10.4043
▁skincare	-10.4043
▁alih	-10.4047
▁nda	-10.4049
▁Kopi	-10.405
;&	-10.4051
kha	-10.4052
▁thing	-10.4055
aran	-10.4058
▁Mesti	-10.4059
time	-10.406
MB	-10.4062
▁ditutup	-10.4064
▁going	-10.4064
▁cepet	-10.4065
lor	-10.4068
▁jempol	-10.407
▁singapore	-10.4071
macam	-10.4072
ste	-10.4075
ulang	-10.4078
▁ais	-10.4078
▁Berhad	-10.4079
aga	-10.4085
▁mini	-10.4092
▁Abd	-10.4103
▁gratis	-10.4103
De	-10.4113
▁males	-10.4117
pit	-10.412
▁did	-10.412
▁Pos	-10.4126
lid	-10.4127
iran	-10.4129
▁sains	-10.4136
▁Tim	-10.4136
▁penang	-10.4137
▁keuntungan	-10.4139
SS	-10.4139
42	-10.4139
▁actually	-10.414
▁senjata	-10.4144
cara	-10.4144
▁keep	-10.4144
▁hangat	-10.4145
▁friends	-10.4149
▁DALAM	-10.4155
lum	-10.4155
▁nyata	-10.4156
▁laksa	-10.4157
▁persen	-10.416
▁retweet	-10.4162
▁bini	-10.4165
▁dak	-10.4166
pura	-10.4167
▁Tri	-10.4168
▁sweet	-10.4171
▁item	-10.4173
▁lebar	-10.4177
ther	-10.4177
▁0812	-10.4181
▁mencintai	-10.4186
ل	-10.4186
▁garis	-10.4188
▁hahahah	-10.4188
▁Kawasan	-10.419
atan	-10.4192
▁berterusan	-10.4197
▁Pre	-10.4198
▁Wi	-10.4198
Be	-10.4203
km	-10.4211
▁rupa	-10.4213
dong	-10.4214
▁KU	-10.4215
▁istri	-10.4218
▁2000	-10.4218
▁Line	-10.422
▁menyaksikan	-10.422
▁aliran	-10.4223
▁Tiga	-10.4223
▁lorong	-10.4225
get	-10.4228
▁Adakah	-10.4229
▁dn	-10.4233
▁sg	-10.4236
▁SMA	-10.4237
43	-10.4238
▁cat	-10.4241
▁dikasih	-10.4242
▁peraturan	-10.4247
▁rugi	-10.4249
▁mendakwa	-10.4251
▁busy	-10.4253
▁ongkir	-10.4255
▁wife	-10.4257
77	-10.4258
▁basah	-10.4263
Ra	-10.4263
ES	-10.4263
▁kemampuan	-10.4265
▁bahu	-10.4265
▁kelak	-10.4266
SM	-10.4268
kit	-10.4268
▁dihasilkan	-10.4271
▁HA	-10.4271
tang	-10.4272
▁stesen	-10.4272
▁kambing	-10.4272
KA	-10.4272
▁pelaku	-10.4273
▁cewek	-10.4282
▁birthday	-10.4293
98	-10.4294
▁mlm	-10.4294
gra	-10.4296
TU	-10.4297
▁percuma	-10.4298
pel	-10.4302
▁Syariah	-10.4302
▁perubatan	-10.4303
▁Imam	-10.4305
▁cita	-10.4307
▁•	-10.4307
of	-10.4314
sat	-10.4316
▁Emang	-10.4321
til	-10.4323
▁barangan	-10.4325
▁nelayan	-10.433
▁profesional	-10.4331
56	-10.4334
kel	-10.4336
cil	-10.4341
▁meraih	-10.4342
▁sebagainya	-10.4343
▁Can	-10.4355
jaya	-10.4357
▁DE	-10.4359
wah	-10.4363
▁ntar	-10.4364
▁pantas	-10.4365
sor	-10.4366
▁tea	-10.4366
76	-10.4368
▁makeup	-10.4369
teng	-10.4369
▁du	-10.437
shop	-10.4372
▁terkait	-10.4375
betul	-10.4376
lap	-10.4377
NI	-10.4378
▁Jaga	-10.4379
▁beneran	-10.4382
▁normally	-10.4384
74	-10.4391
▁hg	-10.4392
jat	-10.4393
▁PDRM	-10.4401
▁Klik	-10.4401
▁seri	-10.441
gambar	-10.4414
mit	-10.4416
▁cb	-10.4417
93	-10.4419
gram	-10.4421
CA	-10.4422
▁Langkawi	-10.4423
gara	-10.4424
▁kimia	-10.4424
▁etc	-10.4426
ila	-10.4431
▁sempadan	-10.4435
▁disana	-10.4436
AK	-10.4439
▁ikutan	-10.4441
▁Entah	-10.4442
▁DAH	-10.4443
▁sepatu	-10.4446
▁unik	-10.4448
▁tradisi	-10.4449
▁dirimu	-10.445
▁every	-10.4451
▁jiran	-10.4455
▁mene	-10.4456
▁SA	-10.4457
▁test	-10.4459
tapi	-10.4463
▁Susah	-10.4476
▁sarjana	-10.4476
▁ju	-10.4479
ken	-10.4482
rong	-10.4484
▁pemesanan	-10.4487
▁aras	-10.4487
▁Ready	-10.4489
gal	-10.4492
▁sembang	-10.4492
▁friend	-10.4496
▁menyesal	-10.4497
▁night	-10.4499
▁Ab	-10.4503
satunya	-10.4504
Na	-10.4507
ship	-10.4508
sul	-10.4508
UK	-10.451
▁sp	-10.4513
▁Ingin	-10.4514
▁Airport	-10.4515
▁Mulai	-10.4516
ful	-10.4516
▁person	-10.4518
84	-10.4519
▁kempen	-10.452
▁Kerana	-10.452
▁Saudi	-10.4521
▁johor	-10.4523
▁keturunan	-10.4528
▁promosi	-10.4529
▁KAU	-10.4529
▁Bro	-10.4534
TER	-10.4538
▁Israel	-10.4541
▁done	-10.4543
▁pohon	-10.4544
▁menatap	-10.4545
▁Malaysiakini	-10.4558
▁taraf	-10.456
▁ringkasnya	-10.4564
art	-10.4564
▁Unit	-10.4566
PP	-10.4567
gam	-10.4575
▁pembayaran	-10.4576
▁insta	-10.4583
gr	-10.4584
▁Em	-10.4593
▁made	-10.4593
jangan	-10.4596
fan	-10.4596
▁sma	-10.4596
▁pesakit	-10.4597
▁Cha	-10.4604
▁tamat	-10.4604
78	-10.4606
▁sat	-10.4607
▁Terimakasih	-10.4609
nes	-10.461
▁SEMUA	-10.4611
▁32	-10.4612
▁Sekian	-10.4614
▁geram	-10.4619
▁menggalakkan	-10.4619
▁hand	-10.4623
▁Bumiputera	-10.4625
▁Langsung	-10.4625
41	-10.4628
UNG	-10.4631
▁sukar	-10.4631
▁JE	-10.4633
OK	-10.4633
▁Bharu	-10.4633
▁penyanyi	-10.4634
▁uitm	-10.4634
nak	-10.4634
▁nyawa	-10.4637
▁mere	-10.4639
▁TU	-10.4642
▁Harini	-10.4643
nti	-10.4644
▁betapa	-10.4646
▁two	-10.4647
▁lak	-10.4648
▁jawa	-10.465
▁few	-10.465
▁Pemerintah	-10.4651
53	-10.4654
▁quite	-10.4655
▁Suara	-10.4655
▁perbelanjaan	-10.4656
▁fav	-10.4656
▁wei	-10.4656
lahir	-10.4656
jt	-10.4662
▁sarapan	-10.4662
sap	-10.4665
▁jawapan	-10.4668
▁saluran	-10.467
▁Sem	-10.4675
▁ganteng	-10.4679
▁Hakim	-10.468
▁Pihak	-10.4681
▁$	-10.4683
▁sewaktu	-10.4685
ld	-10.4685
▁Bantu	-10.4685
top	-10.4688
▁tabung	-10.469
▁Sahabat	-10.4691
▁sup	-10.4691
▁Jumlah	-10.4694
▁AJA	-10.4697
▁ro	-10.4703
foto	-10.4708
qa	-10.4708
KE	-10.4717
▁ASEAN	-10.472
▁saw	-10.4721
▁these	-10.4721
▁rekod	-10.4722
▁menimbulkan	-10.4722
▁PEN	-10.4724
cing	-10.4725
AU	-10.4733
cinta	-10.4736
▁Kalian	-10.4738
▁Pertahanan	-10.4739
▁novel	-10.474
▁wangi	-10.4743
▁prinsip	-10.4746
▁sya	-10.4746
▁Guan	-10.4749
▁hahahahaha	-10.475
▁nunggu	-10.4756
▁acah	-10.4757
▁mn	-10.4759
▁transfer	-10.4763
▁MO	-10.4767
▁Yo	-10.4767
▁Sesuai	-10.4768
▁aje	-10.477
▁rutin	-10.477
▁cowo	-10.4771
▁kenyang	-10.4774
▁fans	-10.4774
tim	-10.4776
▁ampun	-10.4776
▁girl	-10.4779
▁haji	-10.478
sek	-10.4784
▁mengangkat	-10.4785
▁kualiti	-10.4786
▁nutrisi	-10.4792
nia	-10.4794
▁melahirkan	-10.4797
▁kemiskinan	-10.48
langkah	-10.4802
▁around	-10.4805
▁University	-10.4806
▁perdana	-10.4808
▁madu	-10.4809
pri	-10.481
▁bermaksud	-10.4813
hara	-10.4814
▁Sis	-10.4817
▁Dekat	-10.4818
ikan	-10.4818
▁cerah	-10.482
asa	-10.4822
▁Guys	-10.4831
nam	-10.4834
▁kah	-10.4835
AR	-10.4837
▁bag	-10.4838
▁SWT	-10.484
▁prestasi	-10.4845
▁bah	-10.4846
▁Pemuda	-10.4847
▁enable	-10.485
▁dokter	-10.4854
▁akal	-10.4861
▁Sepang	-10.4867
ros	-10.4871
mate	-10.4872
▁sambutan	-10.4874
▁karpet	-10.4875
▁Team	-10.4881
luk	-10.4885
▁gerakan	-10.4885
boleh	-10.4889
▁water	-10.4893
▁until	-10.4897
▁haih	-10.4903
▁COD	-10.4905
▁Bodoh	-10.4908
▁senarai	-10.4909
KL	-10.491
▁put	-10.4911
ndang	-10.4913
▁total	-10.4915
▁kawalan	-10.4915
▁hot	-10.4916
▁berumur	-10.4921
ET	-10.4922
▁hmmm	-10.4922
sam	-10.4925
▁Sedap	-10.4931
▁Kg	-10.4932
▁nafas	-10.4932
▁bersedia	-10.4935
▁peribadi	-10.4937
▁mela	-10.4937
mun	-10.4938
rik	-10.4942
▁pening	-10.4942
▁tan	-10.4942
TE	-10.4942
bok	-10.4946
ac	-10.4948
▁FB	-10.4948
▁TO	-10.4948
▁Akhir	-10.4949
▁Perumahan	-10.4949
▁Itulah	-10.4949
▁eat	-10.4951
bra	-10.4954
▁memudahkan	-10.4955
▁exam	-10.4956
dh	-10.4958
▁tekan	-10.4965
▁cowok	-10.4966
▁Tag	-10.4967
▁world	-10.4968
▁Halo	-10.497
▁Dis	-10.4972
▁Nampak	-10.4975
▁garam	-10.4975
PM	-10.4979
▁rest	-10.4983
rut	-10.4986
▁selanjutnya	-10.4987
ip	-10.4989
▁requires	-10.4989
81	-10.499
▁Untung	-10.4991
▁ci	-10.4993
▁perlukan	-10.4995
▁FC	-10.4995
▁Senang	-10.5003
kala	-10.5007
▁wajar	-10.5015
▁meskipun	-10.5016
▁Emas	-10.5016
▁setan	-10.5017
▁blh	-10.5022
▁Biasa	-10.5024
jal	-10.5026
▁Alamat	-10.5026
▁Sik	-10.5029
▁kenaikan	-10.5031
rrr	-10.5032
▁Ahad	-10.5033
dir	-10.5036
suka	-10.5039
▁pasir	-10.5041
▁Berdasarkan	-10.5048
▁korea	-10.505
▁World	-10.5051
▁gr	-10.5052
Kami	-10.5062
▁kencing	-10.5068
▁komunis	-10.5069
DE	-10.5075
▁Meow	-10.5076
▁kerugian	-10.5076
▁gf	-10.5076
▁disabled	-10.508
▁menyebut	-10.508
▁tebal	-10.5082
back	-10.5082
▁Star	-10.5083
▁Usaha	-10.5086
mor	-10.5087
▁mengucapkan	-10.5089
▁Masalah	-10.509
400	-10.5092
▁nnt	-10.5095
▁block	-10.5096
▁dikenal	-10.5103
▁melaporkan	-10.5103
cal	-10.5103
▁kedah	-10.5103
▁nafsu	-10.5104
banyak	-10.5106
▁find	-10.5107
▁care	-10.511
▁lunch	-10.5115
▁Jan	-10.5117
▁Looks	-10.5118
▁Promo	-10.5122
pek	-10.5127
bek	-10.5127
85	-10.5128
▁Daripada	-10.5132
OS	-10.5134
▁skin	-10.5136
▁berguna	-10.5137
ora	-10.514
▁Merah	-10.5141
ml	-10.5144
▁Minum	-10.5147
▁Sya	-10.5149
▁Thanks	-10.5151
ub	-10.5153
▁pendekatan	-10.5156
bol	-10.5156
▁list	-10.5159
fe	-10.5159
and	-10.516
▁Qa	-10.516
pada	-10.5161
▁kon	-10.5166
▁musik	-10.5169
▁school	-10.5169
▁BISA	-10.5171
▁Port	-10.5174
▁wait	-10.5177
▁black	-10.5178
▁mie	-10.518
▁ORANG	-10.518
sik	-10.518
dek	-10.5184
▁capek	-10.5188
▁UiTM	-10.5194
▁Bak	-10.5196
▁dokumen	-10.5196
▁udang	-10.5197
▁kebahagiaan	-10.5198
JA	-10.5202
▁ngakak	-10.5203
▁mampus	-10.5203
▁place	-10.5207
▁berfungsi	-10.5215
▁sebaik	-10.5218
▁being	-10.5219
▁organisasi	-10.5219
▁tradisional	-10.5223
▁DO	-10.523
dai	-10.5234
▁SI	-10.5235
▁Panas	-10.5236
▁musuh	-10.524
▁hantu	-10.5243
▁menengah	-10.5244
▁panggilan	-10.5251
▁moh	-10.5254
▁Zaman	-10.5256
kanlah	-10.5257
▁mengawal	-10.5261
pad	-10.5265
▁anggap	-10.5266
▁cute	-10.5268
▁head	-10.5269
▁Sun	-10.5272
▁Ex	-10.5272
▁Hehe	-10.5276
▁matang	-10.5276
ruh	-10.5278
▁merangkumi	-10.5278
▁Demi	-10.5279
▁tokoh	-10.5279
JK	-10.5284
▁Seremban	-10.5284
▁istana	-10.5289
▁majoriti	-10.5291
▁Un	-10.5294
ei	-10.5297
▁tetangga	-10.5301
▁Then	-10.5306
▁mendukung	-10.5307
lly	-10.5308
▁menggantikan	-10.5308
▁win	-10.5311
hah	-10.5312
meng	-10.5314
▁ngapain	-10.5315
dalam	-10.5318
▁First	-10.532
PU	-10.532
▁wasap	-10.532
▁Muhyiddin	-10.5324
▁singgah	-10.5324
▁perbincangan	-10.533
▁hanyalah	-10.533
▁santai	-10.5331
abad	-10.5331
▁Atas	-10.5338
▁KAMI	-10.534
▁Kalimantan	-10.534
▁Bangsa	-10.5342
tai	-10.5349
BI	-10.5349
▁perlindungan	-10.535
▁termasuklah	-10.5351
▁mempertahankan	-10.5353
▁Ai	-10.5354
▁maki	-10.5356
▁Hahahahaha	-10.5359
▁lgi	-10.536
▁KAMU	-10.5364
hir	-10.5365
▁1440	-10.5368
kurangnya	-10.5368
▁awek	-10.5368
▁miss	-10.5369
batik	-10.537
▁Puan	-10.5374
▁menyu	-10.5379
▁nah	-10.5379
▁pribadi	-10.5381
▁biskut	-10.5381
▁ae	-10.5382
▁keluarkan	-10.5383
▁kenangan	-10.5384
▁kafir	-10.5387
▁John	-10.5392
▁hiasan	-10.5393
BP	-10.5393
▁Bagus	-10.5396
▁tuu	-10.5398
▁purata	-10.5398
nga	-10.5399
▁maut	-10.5399
▁berbahaya	-10.5404
ona	-10.5408
▁tell	-10.5413
ach	-10.5415
▁Takut	-10.5416
▁cucu	-10.5417
▁yakni	-10.542
▁grup	-10.5423
lau	-10.5424
▁BUAT	-10.5428
▁jgk	-10.5436
▁36	-10.5436
▁Bangun	-10.5437
tha	-10.5441
▁terbukti	-10.5441
▁date	-10.5446
▁fast	-10.5448
▁Online	-10.5451
▁Weh	-10.5453
pes	-10.5454
ef	-10.5459
▁Teluk	-10.546
▁membenarkan	-10.5462
▁uda	-10.5463
▁Pertubuhan	-10.5465
▁Please	-10.5471
lagi	-10.5471
▁pendaftaran	-10.5473
▁jubah	-10.5475
▁ngerasa	-10.5476
ct	-10.5478
ls	-10.5479
▁strategi	-10.5481
▁ngerti	-10.5481
87	-10.5484
▁Semenanjung	-10.5487
▁Indah	-10.5487
ASI	-10.5487
pagi	-10.5495
▁lelah	-10.5497
▁TUAN	-10.5498
▁melancarkan	-10.5502
▁weekend	-10.5506
tika	-10.5508
▁shopping	-10.5509
▁dirumah	-10.5509
SP	-10.551
▁padu	-10.5517
800	-10.5518
▁Membantu	-10.552
▁matanya	-10.5523
▁Tetap	-10.5525
main	-10.5527
▁adek	-10.5529
ant	-10.5533
aw	-10.5534
▁mahupun	-10.5537
TV	-10.5538
ise	-10.554
▁menyambut	-10.554
▁another	-10.5541
ue	-10.5545
▁Hello	-10.5551
ness	-10.5552
▁cabaran	-10.5553
ED	-10.5556
gang	-10.5557
▁merawat	-10.556
ciri	-10.5562
▁SPM	-10.5569
▁web	-10.557
▁own	-10.557
Si	-10.5573
tahu	-10.5576
cin	-10.5576
▁pesanan	-10.5576
▁kamera	-10.5578
▁drpd	-10.5583
▁deket	-10.5583
ntang	-10.5586
▁2007	-10.5592
▁berlalu	-10.5594
bai	-10.5596
boy	-10.5597
laut	-10.5605
bet	-10.5611
▁berbuat	-10.5612
▁Sila	-10.5615
BS	-10.5616
▁Hassan	-10.5618
▁ali	-10.5619
▁bertanding	-10.5619
▁Nge	-10.5623
▁bancian	-10.5627
▁What	-10.5629
▁photo	-10.5635
▁bersifat	-10.5636
▁keterangan	-10.5637
▁menghadiri	-10.5637
▁dilahirkan	-10.564
▁racun	-10.5645
▁engga	-10.5646
▁radio	-10.565
▁nmpk	-10.5652
▁KITA	-10.5652
▁Dh	-10.5657
▁Surabaya	-10.5659
▁tema	-10.5661
▁tali	-10.5662
bon	-10.5666
▁terdekat	-10.5666
▁rencana	-10.5669
▁paksa	-10.5669
▁Real	-10.5671
▁suspek	-10.5676
▁Papua	-10.5676
uni	-10.5677
▁penjelasan	-10.568
rasa	-10.5681
won	-10.5682
▁driver	-10.5682
▁katil	-10.5683
▁toilet	-10.5683
pus	-10.5686
▁Karna	-10.5686
▁sasaran	-10.5693
▁meme	-10.5693
SH	-10.5696
▁dinding	-10.5697
HO	-10.5699
ug	-10.5701
▁Ala	-10.5701
▁sok	-10.5702
▁gudang	-10.5705
zim	-10.5708
▁Her	-10.5712
▁angka	-10.5712
▁Sang	-10.5717
▁kelakar	-10.5723
▁kumpul	-10.5724
▁suci	-10.5725
▁penyelesaian	-10.5725
▁berasaskan	-10.5727
cah	-10.5729
qui	-10.573
ance	-10.573
▁mulia	-10.5733
▁rangkaian	-10.5738
hak	-10.574
▁DR	-10.5746
▁berfikir	-10.5747
▁adakah	-10.575
BO	-10.5751
▁cha	-10.5752
▁amin	-10.5753
dut	-10.5753
satu	-10.5756
VI	-10.5756
▁pemikiran	-10.5757
▁>	-10.5759
lla	-10.576
IL	-10.5763
▁SU	-10.5764
▁beza	-10.5764
▁aircond	-10.5766
▁Undang	-10.5766
▁sbg	-10.5767
▁Perkara	-10.5768
▁tepung	-10.577
NG	-10.577
JU	-10.5771
▁paper	-10.5771
|	-10.5777
lih	-10.5789
▁penye	-10.579
▁kuliner	-10.5792
▁memperoleh	-10.5795
▁ban	-10.5795
▁both	-10.58
▁Thank	-10.5802
▁PROMO	-10.5804
▁Day	-10.5814
▁membuktikan	-10.5818
▁serum	-10.5818
▁lesen	-10.5819
▁sesetengah	-10.582
▁denger	-10.5821
dap	-10.5821
▁oke	-10.5822
▁transaksi	-10.5823
▁misi	-10.5823
▁Au	-10.5823
▁Up	-10.5823
▁mengekalkan	-10.5824
▁gemuk	-10.5824
▁mampos	-10.5825
▁Puteri	-10.5827
▁harimau	-10.5828
▁menya	-10.5831
▁IDR	-10.5833
▁menegaskan	-10.5836
▁2004	-10.5843
▁Menurutnya	-10.5843
▁Roti	-10.5845
▁Begitu	-10.5848
▁restoran	-10.5852
▁memperkenalkan	-10.5853
MAN	-10.5854
▁mcd	-10.5858
▁band	-10.5858
▁laku	-10.5859
▁memainkan	-10.586
▁luck	-10.5861
▁hidung	-10.5861
▁merata	-10.5873
▁mewah	-10.5878
▁kaos	-10.588
jek	-10.5881
▁ekor	-10.5882
sk	-10.5882
▁Sumatera	-10.5888
CH	-10.5891
▁Kira	-10.5893
▁kemahiran	-10.5894
▁berkongsi	-10.5899
▁disuruh	-10.5899
ight	-10.59
▁senior	-10.59
▁selagi	-10.59
▁Gudang	-10.5901
▁buta	-10.5902
▁Medan	-10.5904
▁mobile	-10.5905
jer	-10.5906
▁BAGI	-10.5909
LO	-10.5909
▁kari	-10.5909
▁Ram	-10.5912
▁Hitam	-10.5915
▁Kabinet	-10.5925
▁jdi	-10.5927
▁Institut	-10.5927
▁caranya	-10.593
▁syukur	-10.5931
▁selera	-10.5934
09	-10.5936
▁nek	-10.5939
▁Malaya	-10.5942
▁Kurang	-10.5945
▁Fe	-10.5951
▁Setar	-10.5951
▁DATO	-10.5953
▁MRT	-10.5954
▁Gombak	-10.5955
▁fun	-10.5956
▁mean	-10.5957
▁gajah	-10.5958
rakan	-10.5958
▁Amanah	-10.5967
▁ruangan	-10.597
ses	-10.5974
▁yak	-10.5974
▁jakarta	-10.5975
▁wong	-10.5977
▁efek	-10.5978
▁buaya	-10.5981
UL	-10.5982
▁Juga	-10.599
▁bekerjasama	-10.5992
TAR	-10.5992
cut	-10.5992
▁London	-10.5993
rup	-10.6012
▁manja	-10.6014
MS	-10.6016
▁pengarah	-10.6017
▁Tinggal	-10.6019
▁dress	-10.6022
tem	-10.6024
▁Rom	-10.6025
▁Seni	-10.6028
▁Felda	-10.6029
▁Afrika	-10.6031
▁agenda	-10.6037
▁Tambah	-10.6039
mel	-10.6039
Te	-10.6039
PI	-10.604
like	-10.6042
▁card	-10.6044
▁news	-10.6044
▁Senin	-10.6046
▁membangunkan	-10.6047
bir	-10.605
▁Sepak	-10.6051
▁Jauh	-10.6054
Mo	-10.6056
▁anugerah	-10.6068
▁bot	-10.607
una	-10.6073
▁2006	-10.6075
Indonesia	-10.6077
▁bincang	-10.6079
▁demokrasi	-10.6079
▁Politik	-10.6084
▁pengaruh	-10.6085
NE	-10.6089
▁jalur	-10.6089
▁resmi	-10.6091
▁42	-10.6091
▁mall	-10.6092
▁Zi	-10.6092
▁halaman	-10.6093
yar	-10.6096
rit	-10.6098
▁ditulis	-10.6099
▁menyerang	-10.6099
▁ngasih	-10.6103
▁Saint	-10.6105
▁Vietnam	-10.6109
▁Nik	-10.611
stan	-10.6112
▁Kisah	-10.6112
▁hina	-10.6114
kor	-10.6115
▁subsidi	-10.6119
lian	-10.612
PO	-10.612
▁If	-10.6122
▁Berikut	-10.6128
bahasa	-10.6129
▁berbagi	-10.613
▁Kanak	-10.6132
mik	-10.6132
▁Ros	-10.6134
▁rangka	-10.6135
▁SAMA	-10.6138
▁Hadi	-10.614
▁Is	-10.6145
▁dewan	-10.6146
▁harian	-10.6146
▁syg	-10.6146
▁Bio	-10.6148
▁peristiwa	-10.6149
leng	-10.615
▁pengangkutan	-10.6155
▁book	-10.6155
Al	-10.6159
▁pintar	-10.6161
▁special	-10.6164
▁Filipina	-10.6166
▁menyimpan	-10.617
hid	-10.6172
▁Long	-10.6179
▁Nk	-10.6179
▁jaringan	-10.6189
▁BANGET	-10.619
▁berkhidmat	-10.619
mbo	-10.619
▁puncak	-10.6193
▁awalnya	-10.6194
▁penampilan	-10.6195
▁Love	-10.6196
▁Nu	-10.6202
▁loghat	-10.6205
▁Datang	-10.621
▁tampak	-10.6214
OT	-10.6218
▁kebajikan	-10.6222
▁such	-10.6233
▁yes	-10.6233
▁mengajar	-10.6234
▁klau	-10.6236
sekolah	-10.6238
▁Just	-10.6239
lebih	-10.6242
▁tangkap	-10.6243
▁Gw	-10.6244
▁Proses	-10.6246
sus	-10.6246
bs	-10.6248
LAN	-10.6255
▁bonus	-10.6256
online	-10.6261
$	-10.6267
▁Jual	-10.6268
buku	-10.627
▁menganggap	-10.627
▁war	-10.6271
▁while	-10.6272
▁Qu	-10.6275
bawa	-10.6275
nai	-10.6277
▁number	-10.6281
▁damn	-10.6284
IR	-10.6285
▁type	-10.6285
RA	-10.6289
▁Mai	-10.6296
▁peralatan	-10.6296
▁Ker	-10.6297
▁cu	-10.6298
▁HAILAK	-10.6301
▁tampil	-10.6302
▁sudi	-10.6302
▁BE	-10.6305
▁Semasa	-10.6307
▁guy	-10.6308
▁darjah	-10.6308
▁sebagian	-10.6311
utan	-10.6311
▁menyumbang	-10.6315
▁membuatkan	-10.632
▁Harus	-10.6326
▁berlari	-10.6332
▁komitmen	-10.6335
hen	-10.6338
▁memberitahu	-10.6339
nyaaa	-10.6339
qu	-10.6341
▁kind	-10.6341
bor	-10.6344
~	-10.6347
▁melawat	-10.6348
▁terbakar	-10.6348
stra	-10.6349
▁TE	-10.635
▁Jumat	-10.635
▁Brunei	-10.6351
hits	-10.6351
▁keinginan	-10.6356
UM	-10.6357
bis	-10.636
suk	-10.6362
▁Sedangkan	-10.6365
our	-10.6371
▁wish	-10.6371
▁Top	-10.6375
▁things	-10.6375
▁Yes	-10.6378
▁kediaman	-10.6382
71	-10.6389
▁akses	-10.6393
▁solo	-10.6393
▁pan	-10.6398
▁peluk	-10.6399
▁talian	-10.6403
▁pr	-10.6403
83	-10.6405
▁potensi	-10.6405
▁komputer	-10.6407
▁terpilih	-10.6412
▁Suami	-10.6416
▁berpikir	-10.6417
▁Puasa	-10.6419
▁pemilihan	-10.6422
▁justru	-10.6427
▁Kajian	-10.6429
▁menuntut	-10.6432
pati	-10.6432
▁TAPI	-10.6432
51	-10.6433
▁seluar	-10.6433
▁insan	-10.6434
▁camni	-10.6434
▁memandangkan	-10.6438
▁Manakala	-10.6439
▁ap	-10.6444
▁Hm	-10.6444
hai	-10.6444
cita	-10.6445
▁edit	-10.6445
▁Sekitar	-10.6446
▁leher	-10.6446
62	-10.6454
oc	-10.6457
▁jemput	-10.6458
▁mention	-10.646
▁stabil	-10.6461
port	-10.6461
mart	-10.6465
▁ladang	-10.6467
▁bak	-10.6468
▁batin	-10.6469
▁Rusia	-10.6472
91	-10.6474
low	-10.6477
ore	-10.6478
▁spesies	-10.6479
▁hatinya	-10.6483
eksi	-10.6487
▁sekian	-10.649
▁TH	-10.6491
▁gamis	-10.6491
▁berse	-10.6494
▁dibenarkan	-10.65
▁persoalan	-10.6502
▁Kab	-10.6505
ture	-10.6505
▁ibunya	-10.6508
▁Er	-10.6511
dor	-10.6512
▁target	-10.6513
▁pink	-10.6514
▁penubuhan	-10.6516
▁unsur	-10.6518
▁celana	-10.6521
▁Hang	-10.6521
beli	-10.6523
sebab	-10.6524
▁days	-10.6524
▁memerintah	-10.6526
▁iphone	-10.6527
cam	-10.6527
ura	-10.653
sion	-10.6531
▁Umur	-10.6534
asan	-10.6534
▁apply	-10.6535
ت	-10.6537
her	-10.6539
sung	-10.654
▁dinamakan	-10.6546
▁che	-10.6548
▁smua	-10.6548
▁makhluk	-10.655
▁08	-10.655
FI	-10.6551
▁Komunikasi	-10.6554
▁grad	-10.6556
ensi	-10.656
▁Doa	-10.6561
▁platform	-10.6561
▁Bebas	-10.6563
▁GST	-10.6565
ttt	-10.6567
▁Klo	-10.6569
▁Juni	-10.6569
▁Centre	-10.6571
▁kemaren	-10.6572
▁istimewa	-10.6574
lung	-10.6574
▁Rep	-10.6578
sil	-10.6579
Ini	-10.6582
▁wor	-10.6582
baju	-10.6588
▁bertukar	-10.6588
▁Tuanku	-10.6589
▁Yayasan	-10.6592
▁desain	-10.6596
▁rame	-10.6599
▁jumaat	-10.66
▁Meh	-10.6601
▁kala	-10.6601
far	-10.6601
▁chop	-10.6606
rel	-10.6609
▁Kong	-10.6614
▁jaminan	-10.6616
Le	-10.6618
TP	-10.6621
rasi	-10.6622
▁Nilai	-10.6627
▁Ban	-10.6627
mad	-10.6628
▁doi	-10.663
▁ustaz	-10.663
ms	-10.6631
▁bangkit	-10.6634
▁kesemua	-10.6634
wat	-10.6636
▁pelancongan	-10.6637
Ku	-10.6637
PER	-10.6638
▁Ampang	-10.6639
yuk	-10.6639
eeee	-10.6644
▁Sen	-10.6645
▁urus	-10.6647
▁diikuti	-10.6647
▁Rambut	-10.6649
▁jo	-10.665
▁JADI	-10.665
atur	-10.6651
had	-10.6653
▁Apalagi	-10.6653
RT	-10.6654
▁PRK	-10.6656
dul	-10.666
▁Pokok	-10.6663
▁isinya	-10.6663
rama	-10.6664
▁Sosial	-10.6665
▁gmn	-10.6668
▁menghantar	-10.667
AA	-10.6671
▁hormat	-10.6674
▁Hong	-10.6674
pcs	-10.6675
zan	-10.6676
▁morning	-10.6676
▁watch	-10.6677
kita	-10.6677
▁singkat	-10.668
cre	-10.668
66	-10.6683
▁Mati	-10.6684
▁melepaskan	-10.6686
▁mantap	-10.6686
▁Silahkan	-10.6689
▁Gen	-10.669
git	-10.6692
▁dgr	-10.6692
▁jantan	-10.6693
▁kerabat	-10.6698
WA	-10.67
▁cuaca	-10.6702
▁park	-10.6702
▁Kakak	-10.6703
▁perintah	-10.6703
▁Bintang	-10.6706
▁lauk	-10.6706
▁dimiliki	-10.6707
▁wow	-10.6708
▁seharian	-10.6708
▁pemeriksaan	-10.6711
▁kotor	-10.6711
▁gen	-10.6715
▁kn	-10.6715
▁Kelas	-10.6716
win	-10.6717
ple	-10.6717
▁haa	-10.6717
od	-10.6724
adi	-10.6726
▁gay	-10.673
fer	-10.6731
PR	-10.6735
▁Black	-10.6737
▁gaada	-10.6738
▁Kebanyakan	-10.6738
wn	-10.674
▁sara	-10.6741
ky	-10.6743
▁perbezaan	-10.6744
sai	-10.6747
▁menilai	-10.6747
▁Rantau	-10.6747
▁JAWAPAN	-10.6748
UH	-10.6749
▁hancur	-10.6749
▁Note	-10.6753
ase	-10.6754
To	-10.6757
juk	-10.676
▁Awal	-10.6762
▁biarkan	-10.6763
▁Keselamatan	-10.6763
▁tangannya	-10.6774
▁Gimana	-10.6777
buru	-10.6777
ntu	-10.6778
▁slot	-10.6778
▁Aduh	-10.6778
▁staff	-10.6781
▁Susu	-10.6786
▁melanjutkan	-10.6788
▁kesayangan	-10.6789
uuuu	-10.679
Bo	-10.6791
▁break	-10.6794
▁seharga	-10.6795
qi	-10.6798
dina	-10.6799
▁darurat	-10.6801
ndi	-10.6801
▁Malaysian	-10.6814
yun	-10.6816
▁standard	-10.6818
▁struktur	-10.6822
vin	-10.6824
▁teringin	-10.6824
▁Duit	-10.6833
▁PU	-10.6835
▁Gerakan	-10.6837
▁material	-10.6841
▁price	-10.6841
mula	-10.6846
▁pertahanan	-10.6847
▁Samsung	-10.685
▁orng	-10.6851
kri	-10.6853
▁Bumi	-10.6854
▁menyelamatkan	-10.6855
▁liga	-10.6856
▁sun	-10.6861
▁thanks	-10.6862
▁comment	-10.6863
▁Cek	-10.6867
BANG	-10.6869
▁Member	-10.6869
kum	-10.6875
▁gamau	-10.6875
DU	-10.6876
sem	-10.6876
Ja	-10.6877
▁menghilangkan	-10.6879
▁pacaran	-10.6883
▁Pilih	-10.6884
▁send	-10.6888
▁Menu	-10.6888
▁pergerakan	-10.6889
▁pimpinan	-10.6893
▁wes	-10.6897
▁Azizah	-10.69
▁Food	-10.6905
HA	-10.6908
▁gabungan	-10.6909
▁binatang	-10.6911
▁Kucing	-10.6911
57	-10.6912
▁akhirat	-10.6918
led	-10.6919
OM	-10.692
▁Allahu	-10.6928
rg	-10.6931
▁seronok	-10.6932
▁heran	-10.6932
▁upaya	-10.6933
ullah	-10.6938
▁Iskandar	-10.694
▁Perlu	-10.6944
▁kerjaya	-10.6951
▁toner	-10.6952
▁change	-10.6953
IC	-10.6953
▁season	-10.6954
▁Digital	-10.6954
▁akhbar	-10.6955
▁menurunkan	-10.6956
ure	-10.6957
▁Enak	-10.6959
▁lemas	-10.6963
▁koleksi	-10.6965
▁serba	-10.6966
▁PayTren	-10.6967
▁Lebuhraya	-10.697
▁pahang	-10.697
▁kia	-10.6971
Allah	-10.6977
▁mok	-10.6978
▁Polisi	-10.6979
▁peminat	-10.6981
▁save	-10.6986
▁Mon	-10.6986
▁Wo	-10.6988
aja	-10.6991
reng	-10.6991
▁Kinabalu	-10.7
▁dakwah	-10.7001
TH	-10.7005
import	-10.7008
▁inilah	-10.701
▁light	-10.7011
hana	-10.7013
▁SD	-10.7014
pok	-10.7014
▁Pengurusan	-10.7017
Bi	-10.702
nar	-10.7023
▁Isi	-10.7024
▁turn	-10.7029
tong	-10.703
awal	-10.7039
▁paip	-10.7042
▁makna	-10.7042
▁KKM	-10.7043
AP	-10.7046
▁DUN	-10.7047
▁tebu	-10.7049
▁produksi	-10.7052
▁solusi	-10.7066
▁parlimen	-10.7068
end	-10.7069
rem	-10.7069
▁kyk	-10.7069
▁hensem	-10.707
gon	-10.707
untuk	-10.7074
▁kakitangan	-10.7075
▁Cho	-10.7077
▁ANAK	-10.7077
▁gelaran	-10.7077
▁mende	-10.7078
▁mengakui	-10.7078
▁berangkat	-10.7083
▁peti	-10.7085
▁Liverpool	-10.7091
ction	-10.7093
▁sapu	-10.7095
▁Oke	-10.7095
▁ancaman	-10.7096
▁Sesungguhnya	-10.7097
▁later	-10.7097
▁tunggal	-10.7099
▁DKI	-10.71
▁dakwaan	-10.71
▁berulang	-10.7103
▁mar	-10.7105
cc	-10.7108
▁tumpuan	-10.7111
▁Undangan	-10.7115
▁maha	-10.7115
ov	-10.7116
▁03	-10.7116
52	-10.7116
▁mengalir	-10.7117
▁skali	-10.7117
▁Mesyuarat	-10.7121
▁etnik	-10.7122
▁ingatkan	-10.7122
▁Hujan	-10.7122
▁Link	-10.7123
XL	-10.7124
cepat	-10.7127
▁diminta	-10.7128
▁1998	-10.713
▁kursi	-10.7133
▁perancangan	-10.7134
▁tiktok	-10.7138
▁drop	-10.7139
dd	-10.7139
▁Ren	-10.7141
▁berbentuk	-10.7141
▁TNI	-10.7143
▁Pengangkutan	-10.7143
▁2002	-10.7144
▁mengundi	-10.7146
▁Hukum	-10.7146
▁pala	-10.715
ig	-10.715
▁style	-10.7152
▁bising	-10.7153
▁SS	-10.7154
belah	-10.7157
▁mee	-10.7157
mil	-10.7158
▁BOLEH	-10.7161
iiii	-10.7162
sok	-10.7162
▁inter	-10.7168
▁second	-10.7169
▁Has	-10.7169
▁suhu	-10.717
▁ianya	-10.7172
▁Operasi	-10.7175
▁asik	-10.718
▁diumumkan	-10.718
▁hasilnya	-10.7181
▁legend	-10.7181
▁sabtu	-10.7182
▁Kecamatan	-10.7187
▁susulan	-10.7189
▁terlepas	-10.7189
▁kuda	-10.7191
life	-10.7191
▁Group	-10.7192
▁Jin	-10.7194
▁berharga	-10.7194
▁kolej	-10.7194
HU	-10.7197
▁pic	-10.7199
▁2003	-10.72
oon	-10.72
▁sekeliling	-10.7201
kasi	-10.7202
▁55	-10.7203
▁saksi	-10.7203
▁stadium	-10.7206
▁cadar	-10.7208
balik	-10.7212
TO	-10.7213
▁dibilang	-10.7213
▁teori	-10.7217
sab	-10.7222
gun	-10.7228
92	-10.7231
▁kaca	-10.7232
▁Ham	-10.7235
▁hair	-10.7242
rom	-10.7243
▁Tahu	-10.7248
FA	-10.7248
▁Eksekutif	-10.7249
▁degree	-10.7249
MAT	-10.725
▁TOLONG	-10.725
▁sebagaimana	-10.725
▁box	-10.725
ceng	-10.7252
gb	-10.726
▁beng	-10.726
pres	-10.7263
▁pulih	-10.7263
▁pola	-10.7265
▁cap	-10.7268
▁Kaya	-10.7268
CO	-10.7274
kak	-10.7276
▁BARU	-10.7276
FF	-10.7277
▁Hak	-10.7278
▁pembelajaran	-10.7285
gah	-10.7289
▁penge	-10.729
▁PERDANA	-10.7292
tiga	-10.7294
tch	-10.7296
▁Bekasi	-10.7298
jun	-10.7305
▁fo	-10.731
▁hektar	-10.731
▁berjumpa	-10.7312
▁masi	-10.7312
▁Trans	-10.7314
lina	-10.7317
▁form	-10.7318
▁couple	-10.7321
▁Isnin	-10.7321
▁Pemilu	-10.7324
▁sendirian	-10.7325
▁Allahyarham	-10.7328
▁persembahan	-10.7336
GA	-10.7338
▁setempat	-10.7343
dus	-10.7344
ngga	-10.7346
▁ITU	-10.7348
PS	-10.7349
zen	-10.735
▁mengge	-10.7352
▁gt	-10.7353
▁sabun	-10.7356
▁sorg	-10.7357
lay	-10.7358
▁televisyen	-10.7358
▁pembiayaan	-10.7363
▁fit	-10.7363
▁pemuda	-10.7363
▁ek	-10.7366
▁pcs	-10.7366
rn	-10.7369
▁Udara	-10.7369
▁won	-10.7371
▁Hasan	-10.7373
besar	-10.7376
PAK	-10.738
▁teknik	-10.7381
▁pengusaha	-10.7383
▁KO	-10.7384
▁Astro	-10.7384
ruk	-10.7388
▁sekurang	-10.7389
▁Mmg	-10.739
mau	-10.7395
tir	-10.7395
book	-10.74
▁Manfaat	-10.74
▁tenggara	-10.7401
72	-10.7402
ves	-10.7402
rok	-10.7405
▁berdepan	-10.7406
▁sokong	-10.7407
▁fan	-10.7407
tus	-10.7408
▁Laporan	-10.7416
▁Red	-10.7417
▁Biasanya	-10.7422
▁ketinggalan	-10.7425
▁public	-10.7426
▁msh	-10.7426
▁sendu	-10.7427
▁majikan	-10.7435
allah	-10.7435
indo	-10.7437
▁JAM	-10.7438
▁keamanan	-10.7439
▁wkwkw	-10.744
▁keyakinan	-10.744
▁close	-10.7442
▁mengajak	-10.7442
mmm	-10.7444
▁dipermudahkan	-10.7446
▁rusak	-10.7451
▁senyuman	-10.7459
▁Bangi	-10.7461
▁sembilan	-10.7461
▁batang	-10.7461
▁indo	-10.7462
IH	-10.7463
mpa	-10.7468
▁Model	-10.7468
▁penga	-10.7469
▁Kor	-10.7473
▁KPU	-10.7481
▁makasih	-10.7481
▁beraya	-10.7486
box	-10.7488
love	-10.7492
panjang	-10.7492
▁blok	-10.7493
▁tertawa	-10.7495
▁ben	-10.7495
▁penyelidikan	-10.7496
▁memanggil	-10.7498
▁Bantuan	-10.7499
▁asrama	-10.7503
EL	-10.7504
▁lawatan	-10.7506
▁amal	-10.7507
▁komunikasi	-10.7508
▁sad	-10.7509
▁kelulusan	-10.7514
▁menubuhkan	-10.7515
▁maksudnya	-10.7516
▁ehh	-10.7516
sep	-10.7522
▁menemui	-10.7522
▁Hampir	-10.7523
lh	-10.7526
▁pemilu	-10.7528
▁youtube	-10.7531
▁business	-10.7536
▁pengajaran	-10.7536
▁mera	-10.7537
ENG	-10.754
▁impian	-10.7545
ral	-10.7545
▁sombong	-10.7545
mbak	-10.7548
▁kongsi	-10.755
▁gapapa	-10.755
▁Gubernur	-10.7552
Da	-10.7554
▁melangkah	-10.7554
▁membutuhkan	-10.7554
IP	-10.7555
▁mengurangi	-10.7557
▁pc	-10.7558
bali	-10.7558
▁alamat	-10.7559
▁Teh	-10.7561
▁Tindakan	-10.7561
▁rehat	-10.7562
▁meski	-10.7563
ف	-10.7565
▁Yogyakarta	-10.7565
▁misalnya	-10.7565
▁woi	-10.7566
▁Design	-10.7569
yer	-10.757
▁darat	-10.757
▁barisan	-10.757
▁khabar	-10.7573
zam	-10.7575
▁could	-10.7583
▁Cikgu	-10.7583
▁senyap	-10.7591
▁kawen	-10.7591
UP	-10.7596
▁month	-10.7596
▁dibayar	-10.7597
▁atu	-10.7597
▁berbicara	-10.7598
▁memikirkan	-10.76
▁star	-10.7605
nnn	-10.7605
▁thank	-10.7606
▁mengingatkan	-10.7606
▁meliputi	-10.7612
fo	-10.7613
▁Noor	-10.7614
▁kayaknya	-10.7615
▁berisi	-10.7617
▁pastikan	-10.7622
light	-10.7622
▁belia	-10.7623
▁fisik	-10.7623
▁seram	-10.7626
tab	-10.7632
▁diperkenalkan	-10.7637
PT	-10.7642
wang	-10.7644
mati	-10.7646
▁potongan	-10.7648
▁olahraga	-10.7648
▁ketat	-10.7655
awi	-10.7656
jur	-10.7659
▁BO	-10.766
rung	-10.7662
▁Bab	-10.7662
qua	-10.7662
tr	-10.7666
▁menghalang	-10.7666
▁memperbaiki	-10.7668
▁jadikan	-10.767
▁hiburan	-10.767
▁bil	-10.7671
▁peniaga	-10.7671
▁pinjam	-10.7672
▁Mr	-10.7672
▁bergabung	-10.7676
▁vote	-10.7685
▁MK	-10.7688
150	-10.7689
▁Besok	-10.7693
▁subjek	-10.7694
▁Kolej	-10.7697
▁Sejarah	-10.77
▁pelancong	-10.77
▁Melalui	-10.7702
▁penyokong	-10.7704
▁Sandakan	-10.7705
▁mengu	-10.7707
ism	-10.7707
▁menikah	-10.7708
▁Perdagangan	-10.7715
▁CIMB	-10.7716
▁mun	-10.7719
▁Belia	-10.7721
tangan	-10.7722
▁membalas	-10.7727
▁{	-10.7733
▁Riau	-10.7734
dr	-10.7735
INA	-10.7737
JI	-10.7739
▁Baby	-10.7739
Pro	-10.7739
▁Km	-10.7743
▁Mer	-10.7746
▁berlebihan	-10.7749
▁Puncak	-10.7752
▁Mesir	-10.7754
▁Far	-10.7754
▁kemeja	-10.7756
ب	-10.7758
▁berdekatan	-10.776
▁LRT	-10.7763
▁sedekah	-10.7764
▁dipake	-10.7768
▁serious	-10.7768
▁kod	-10.7768
▁Rais	-10.7772
▁terhad	-10.7773
SU	-10.7776
▁Semakin	-10.7777
▁kr	-10.7779
▁Islamic	-10.7781
▁mengerti	-10.7781
▁lumayan	-10.7784
▁kue	-10.7787
▁Mini	-10.7787
▁kaget	-10.7787
▁Lisa	-10.7788
▁side	-10.7793
▁Lihat	-10.7794
▁berta	-10.7794
▁jelek	-10.7795
▁Setia	-10.7799
ray	-10.7799
▁ajaran	-10.7799
▁MP	-10.7799
▁ujung	-10.78
dom	-10.7801
▁Balai	-10.7802
▁dateng	-10.7803
ndu	-10.7803
▁burger	-10.7804
cent	-10.7805
usaha	-10.7805
list	-10.7805
▁motif	-10.7808
▁claim	-10.7809
▁random	-10.7811
▁penerima	-10.7811
▁Serius	-10.7812
▁Maju	-10.7815
▁berpuasa	-10.7819
▁Angkatan	-10.7819
GO	-10.782
▁pencapaian	-10.7822
▁Sho	-10.7825
▁Kuching	-10.7825
▁TA	-10.7825
bl	-10.7826
▁Tiap	-10.7827
▁Drama	-10.7828
▁premis	-10.7828
▁konflik	-10.7835
▁kursus	-10.7836
▁BI	-10.7836
UR	-10.7837
▁Af	-10.7839
900	-10.784
MC	-10.784
ON	-10.7841
▁request	-10.7841
▁mentah	-10.7842
▁Don	-10.7842
▁hadap	-10.7842
wu	-10.7845
▁Narkoba	-10.7846
▁akademik	-10.7848
▁Hulu	-10.7855
▁selamanya	-10.7856
▁Va	-10.786
▁busuk	-10.786
yong	-10.7861
▁Kajang	-10.7862
▁bina	-10.7862
▁Daftar	-10.7866
▁hijab	-10.7867
▁bulanan	-10.7868
▁kesedaran	-10.7873
bil	-10.7878
▁sensitif	-10.7878
▁Peguam	-10.7882
▁Patut	-10.7883
▁mind	-10.7885
▁serupa	-10.7885
▁Kem	-10.7887
AYA	-10.7888
▁SAYA	-10.7892
▁makanya	-10.7893
lee	-10.7894
ruf	-10.7896
▁Ketiga	-10.7897
▁Om	-10.79
▁Hubungi	-10.79
▁Full	-10.7902
ا	-10.7904
▁FELDA	-10.7905
diri	-10.7907
▁Justeru	-10.7908
▁jua	-10.791
▁berupa	-10.7911
▁detik	-10.7912
gn	-10.7912
▁different	-10.7914
▁Baginda	-10.7917
hb	-10.792
▁Haa	-10.7921
ec	-10.7921
▁confession	-10.7922
▁fon	-10.7924
▁250	-10.7925
▁Masak	-10.7926
▁Surat	-10.7929
▁kebakaran	-10.793
▁kemajuan	-10.7937
LL	-10.7938
haru	-10.7939
▁sholat	-10.7941
udin	-10.7941
lot	-10.7942
▁Ng	-10.7942
▁olshop	-10.7947
nie	-10.7954
ramai	-10.7954
▁sekalipun	-10.7955
▁Now	-10.7955
▁LO	-10.7955
masa	-10.7956
▁hope	-10.7956
▁Ang	-10.7958
▁premium	-10.7959
▁Anjing	-10.796
bandung	-10.796
▁tuntutan	-10.7962
▁GE	-10.7963
▁BAJU	-10.7963
▁aduh	-10.7972
▁episod	-10.7973
▁bulat	-10.7974
xi	-10.7975
lagu	-10.7976
ali	-10.7977
▁Wei	-10.7979
ami	-10.7979
▁tgl	-10.798
▁artikel	-10.798
▁mertua	-10.7981
▁bumbu	-10.7981
▁permukaan	-10.7981
▁fizikal	-10.7984
▁listrik	-10.7987
▁swee	-10.7988
▁kudu	-10.7989
tanya	-10.7993
▁Tunku	-10.7993
wak	-10.7996
▁Hmmm	-10.7999
ui	-10.8
ayat	-10.8001
ula	-10.8002
▁Bisnis	-10.8003
▁lanang	-10.8007
▁rapi	-10.8007
tg	-10.8016
▁Pri	-10.8018
▁Juli	-10.8018
▁nemu	-10.8019
▁kelahiran	-10.8026
uran	-10.8027
iq	-10.8027
▁Petani	-10.8029
▁pahala	-10.803
▁hala	-10.8039
▁melainkan	-10.804
ksa	-10.804
▁kubur	-10.804
▁email	-10.8042
nyaa	-10.8045
▁Sek	-10.8046
EX	-10.8048
▁respon	-10.8049
▁Dimana	-10.8051
▁Tenaga	-10.8051
gak	-10.8054
dari	-10.8055
▁strong	-10.8055
▁menetapkan	-10.8057
▁MAS	-10.8059
▁sb	-10.8065
▁Grand	-10.8066
▁mainan	-10.8067
kota	-10.807
▁tahanan	-10.8071
lea	-10.8073
ksi	-10.8073
▁diem	-10.8074
▁cedera	-10.8075
▁READY	-10.8079
▁Kapal	-10.808
kw	-10.8082
▁ngu	-10.8083
▁kesejahteraan	-10.8089
An	-10.809
ن	-10.8095
▁enjoy	-10.8095
▁mesra	-10.8096
▁Berminat	-10.8096
▁left	-10.8097
▁Trump	-10.8098
lus	-10.8099
▁lokal	-10.8106
▁Teman	-10.8106
▁ragu	-10.8107
▁fasa	-10.8107
▁menghargai	-10.8107
▁kebebasan	-10.8109
▁Feb	-10.811
▁Rendah	-10.8116
▁Op	-10.8116
MAR	-10.8117
▁tang	-10.8118
▁thought	-10.812
▁pemberian	-10.812
▁layanan	-10.8121
▁offer	-10.8123
▁berikutnya	-10.8125
▁keempat	-10.8131
teh	-10.8131
▁Uni	-10.8132
▁Kl	-10.8132
▁simpanan	-10.8136
▁taktau	-10.8136
▁Langat	-10.814
zar	-10.814
▁seumur	-10.8142
room	-10.8145
▁sulung	-10.8147
bun	-10.8151
▁curang	-10.8157
ANA	-10.8158
▁mena	-10.8158
▁minimum	-10.8159
▁Gajah	-10.8159
▁usahawan	-10.816
fir	-10.8161
mai	-10.8162
▁EXO	-10.8164
▁berpindah	-10.8165
▁Bikin	-10.8165
▁provinsi	-10.8167
oleh	-10.8167
bola	-10.8167
guna	-10.8167
yg	-10.8168
▁surau	-10.817
▁suda	-10.817
ium	-10.8171
▁diluar	-10.8173
▁shi	-10.8174
▁Segera	-10.8177
press	-10.8178
▁Mus	-10.818
was	-10.818
spek	-10.8181
▁kilometer	-10.8182
▁Rasanya	-10.8182
ward	-10.8182
SC	-10.8183
EM	-10.8183
Ro	-10.8191
sm	-10.8195
BAR	-10.82
▁Harian	-10.8203
amat	-10.8208
▁mencadangkan	-10.8208
▁pertengahan	-10.8208
RO	-10.8209
sc	-10.821
▁once	-10.8211
▁shop	-10.8212
kong	-10.8213
▁khawatir	-10.822
▁kepimpinan	-10.8226
io	-10.8226
▁mele	-10.8227
▁sesungguhnya	-10.8231
PE	-10.8232
5%	-10.8232
nder	-10.8233
▁By	-10.8234
▁smp	-10.8238
tuh	-10.8242
▁membe	-10.8248
▁Zu	-10.8251
▁Indo	-10.8254
ribu	-10.8257
▁kelayakan	-10.8257
▁seakan	-10.8261
▁dimakan	-10.8263
▁law	-10.8263
▁mode	-10.8264
▁Anies	-10.8264
▁59	-10.8264
cia	-10.8265
ear	-10.8267
▁investasi	-10.827
yn	-10.8272
▁Tersedia	-10.8278
▁rahsia	-10.8278
▁ganja	-10.8279
tara	-10.828
TAS	-10.8282
▁Bunda	-10.8283
uli	-10.8285
▁khidmat	-10.8286
▁Bangunan	-10.8287
▁ditayangkan	-10.829
▁perpaduan	-10.8291
▁iman	-10.8292
▁maap	-10.8301
akhir	-10.8304
▁mengganggu	-10.8306
▁2005	-10.8306
▁Depan	-10.8306
▁Meningkatkan	-10.8307
▁Cafe	-10.8307
lihat	-10.8309
▁Kembali	-10.8312
▁ngo	-10.8316
▁mendorong	-10.8316
▁Disebabkan	-10.8317
▁ofis	-10.8318
▁Sehat	-10.8319
▁account	-10.8322
▁Van	-10.8323
yi	-10.8323
nting	-10.8325
spi	-10.8327
▁brand	-10.8328
▁runtuh	-10.8329
gur	-10.8331
▁Papa	-10.8332
pem	-10.8333
▁lps	-10.8334
▁pembuatan	-10.8336
▁diluluskan	-10.8337
▁ppl	-10.834
▁disiarkan	-10.8343
▁bayangkan	-10.8343
▁petugas	-10.8343
▁0813	-10.8344
ney	-10.8346
▁reformasi	-10.8347
▁kartu	-10.8347
▁coffee	-10.8357
▁Wang	-10.8357
nggang	-10.8358
▁Murah	-10.8363
▁berkualiti	-10.8372
▁fresh	-10.8373
▁Sin	-10.8373
GU	-10.8375
▁Puchong	-10.8375
▁Sel	-10.8376
▁everything	-10.8377
kuat	-10.838
▁Sambil	-10.8382
▁Lupa	-10.8388
▁menyerahkan	-10.8388
PAN	-10.8389
ahli	-10.8389
▁import	-10.8393
dha	-10.8393
▁berkualitas	-10.8401
ntar	-10.8401
SER	-10.8402
pik	-10.8405
RU	-10.8405
▁paras	-10.8406
▁nok	-10.8407
▁mema	-10.8407
kebolehan	-10.841
▁jee	-10.841
▁Pelajar	-10.8413
▁lapan	-10.842
ola	-10.8422
▁Mah	-10.8422
ubah	-10.8422
LU	-10.8424
Wa	-10.8425
cle	-10.8425
▁Intan	-10.8427
▁tersedia	-10.8427
▁dibandingkan	-10.843
▁Inggris	-10.8431
cok	-10.8432
gus	-10.8433
▁tuduhan	-10.8437
chan	-10.8438
iri	-10.8438
▁keliatan	-10.8443
▁selaku	-10.8443
▁Turut	-10.8444
▁Meskipun	-10.8444
▁Mal	-10.8447
▁Kang	-10.8447
▁detail	-10.8453
▁comp	-10.8456
▁tl	-10.8457
▁elemen	-10.8459
off	-10.846
▁short	-10.846
▁penjualan	-10.846
▁Ape	-10.8461
▁gpp	-10.8462
▁bt	-10.8463
▁sibei	-10.8463
band	-10.8465
▁wat	-10.8468
ahhh	-10.8469
▁1990	-10.847
▁wanna	-10.8471
Day	-10.8471
▁pemba	-10.8472
hyun	-10.8472
bila	-10.8472
MO	-10.8473
▁tarif	-10.8476
▁penghasilan	-10.8478
▁Anggota	-10.8481
▁nothing	-10.8486
▁Nas	-10.8488
siap	-10.8488
wanita	-10.8488
suh	-10.8488
yung	-10.849
▁means	-10.8495
▁asalnya	-10.8496
▁jokowi	-10.8497
▁liar	-10.8499
▁moto	-10.8499
enak	-10.8504
dk	-10.8509
PK	-10.8512
▁Burung	-10.8514
Pertuan	-10.8517
bby	-10.8517
▁Kec	-10.852
So	-10.8521
▁ST	-10.8521
▁Ari	-10.8524
▁tunai	-10.8529
▁siam	-10.8531
photography	-10.8532
▁penjawat	-10.8533
▁gatal	-10.8533
▁google	-10.8536
▁road	-10.8539
▁Kredit	-10.854
▁melepak	-10.8542
ill	-10.8542
wk	-10.8543
▁Juara	-10.8543
▁ditangkap	-10.8544
alam	-10.8544
▁umumnya	-10.8544
▁clear	-10.8546
▁Ehwal	-10.8548
▁kredit	-10.8553
act	-10.8553
▁Ver	-10.8555
▁Admin	-10.8556
▁dilancarkan	-10.8559
▁Halal	-10.8561
▁persatuan	-10.8563
▁dihantar	-10.8565
▁cr	-10.8565
▁AL	-10.8571
▁Paket	-10.8572
▁diskon	-10.8574
▁cod	-10.8574
▁Ser	-10.8575
▁Hamid	-10.8575
▁cemerlang	-10.8576
▁Namanya	-10.8579
▁Grab	-10.858
Ter	-10.8581
▁mence	-10.8582
▁Pisang	-10.8585
▁Lan	-10.8586
▁layar	-10.8587
rawat	-10.8589
▁Ir	-10.8592
▁memaksa	-10.8592
▁chatime	-10.8594
▁true	-10.8594
▁Langkah	-10.8597
▁Ken	-10.86
BB	-10.8602
▁Malas	-10.8603
yyy	-10.8606
▁merajuk	-10.8608
sim	-10.8613
▁pembaca	-10.8613
▁Aq	-10.8613
▁diteruskan	-10.8616
▁sultan	-10.8617
▁bagitau	-10.8617
▁perairan	-10.862
▁Amir	-10.862
▁tersendiri	-10.862
▁Um	-10.8622
ele	-10.8623
hhhhh	-10.8626
lalu	-10.8626
▁Palestin	-10.8628
▁ml	-10.863
▁Solo	-10.8631
teri	-10.8633
kkkk	-10.8634
▁interview	-10.8639
▁each	-10.8641
▁cheese	-10.8642
pai	-10.8643
mpu	-10.8643
roh	-10.8645
▁tong	-10.8645
ella	-10.8645
▁petrol	-10.8647
▁King	-10.8649
▁kreatif	-10.8651
▁pastinya	-10.8653
bagi	-10.8655
▁dom	-10.8655
▁state	-10.8657
nik	-10.8658
▁pinggir	-10.8658
▁Iman	-10.8659
▁hakim	-10.8659
▁Pengiriman	-10.8661
▁Khalid	-10.8661
▁gelas	-10.8662
▁sarung	-10.8664
▁partner	-10.8666
▁during	-10.8666
bukan	-10.8671
▁AC	-10.8673
iyyah	-10.8673
▁High	-10.8677
▁bye	-10.8682
laku	-10.8683
▁Ph	-10.8685
▁Siang	-10.8686
rep	-10.8688
▁dike	-10.8688
▁diriku	-10.869
deh	-10.8695
▁sijil	-10.8699
▁keliling	-10.87
tol	-10.87
pela	-10.87
tua	-10.8704
nilai	-10.8704
▁thn	-10.8709
hapus	-10.8709
ama	-10.871
▁bagitahu	-10.8713
▁saman	-10.8713
ungan	-10.8717
▁Ibn	-10.8721
▁bertugas	-10.8723
CM	-10.8725
▁bersempadan	-10.8725
▁Janji	-10.8726
▁shiok	-10.8728
▁Nurul	-10.8728
▁harganya	-10.8729
awa	-10.8729
▁menjejaskan	-10.8733
▁semestinya	-10.8733
▁sekejap	-10.8733
▁demo	-10.8734
▁Bogor	-10.8735
hab	-10.8736
▁Sg	-10.8738
600	-10.874
▁kitorang	-10.8742
over	-10.8746
fit	-10.8747
▁YAB	-10.875
lucu	-10.8753
▁motosikal	-10.8753
▁tawaran	-10.8754
▁Miss	-10.876
▁Dana	-10.876
▁mna	-10.8761
▁Naib	-10.8761
anti	-10.8762
ite	-10.8763
▁JA	-10.8763
▁SERI	-10.8764
▁GRATIS	-10.8765
▁RA	-10.8766
▁kolam	-10.8769
▁BH	-10.8772
fat	-10.8773
▁batas	-10.8776
med	-10.8777
▁BELI	-10.8778
▁mm	-10.8782
▁kesel	-10.8783
sum	-10.8784
Fa	-10.8785
▁bencana	-10.8788
▁1000	-10.8789
▁Sar	-10.879
▁konteks	-10.8792
all	-10.8792
▁InsyaAllah	-10.8795
▁Ilmu	-10.8798
▁65	-10.8798
▁medan	-10.8799
enang	-10.88
▁Google	-10.8801
▁extra	-10.8803
▁menggambarkan	-10.8804
▁arab	-10.8804
▁blue	-10.8804
kl	-10.8806
▁kitab	-10.8807
▁kapitalis	-10.8811
OP	-10.8813
▁Wajah	-10.8815
aha	-10.8817
▁tunang	-10.8818
▁menguasai	-10.8819
▁dikira	-10.882
▁keluarganya	-10.8822
▁lori	-10.8823
▁Festival	-10.8824
lisa	-10.8826
temen	-10.8826
hias	-10.8826
▁duluan	-10.8828
atau	-10.8829
▁read	-10.883
▁Gaji	-10.8831
kil	-10.8831
▁Tq	-10.8833
▁Polri	-10.8834
▁kanser	-10.8841
▁kendaraan	-10.8841
bro	-10.8847
▁dihadapi	-10.8853
▁edisi	-10.8853
▁takyah	-10.8858
▁sam	-10.8858
kis	-10.8859
mini	-10.8859
▁Klinik	-10.8859
▁perawatan	-10.886
PG	-10.8861
▁PAN	-10.8861
▁Yusuf	-10.8863
▁Wong	-10.8865
▁Motor	-10.8865
▁Hingga	-10.8867
▁panduan	-10.8868
▁wrong	-10.8872
▁dilengkapi	-10.8873
▁seat	-10.8874
▁meeting	-10.8875
и	-10.8875
▁chicken	-10.8876
▁mengelakkan	-10.8877
▁UKM	-10.8878
ر	-10.8879
▁feeling	-10.8879
▁hobi	-10.8881
SO	-10.8884
▁Mula	-10.8886
▁penempatan	-10.8889
RD	-10.8889
▁red	-10.8895
▁bisnes	-10.8896
▁tertarik	-10.8896
▁cafe	-10.8897
▁buatan	-10.8899
▁Ajak	-10.8901
▁selangor	-10.8901
ww	-10.8902
▁SEKARANG	-10.8903
▁buli	-10.8905
▁ditawarkan	-10.891
eo	-10.8912
▁aduan	-10.8913
▁giliran	-10.8914
▁flight	-10.8916
▁penurunan	-10.8919
▁sejauh	-10.8922
▁34	-10.8926
bong	-10.8926
▁SAW	-10.8928
▁canai	-10.8929
▁iki	-10.8935
▁bobo	-10.8936
▁1999	-10.8942
▁KETIGA	-10.8944
HI	-10.8945
ea	-10.8946
▁dikirim	-10.8948
▁korg	-10.8948
▁04	-10.8949
▁75	-10.8954
▁Agak	-10.8954
▁kebal	-10.8955
▁ora	-10.8955
▁dibeli	-10.8958
▁army	-10.896
NO	-10.8961
ingat	-10.8967
▁Kanada	-10.8967
nding	-10.8968
▁husband	-10.897
▁JUGA	-10.8972
▁Malang	-10.8973
▁roh	-10.8973
gor	-10.8974
▁mengesahkan	-10.8975
▁LE	-10.8977
tung	-10.8978
▁Pake	-10.8978
▁ttg	-10.8984
tani	-10.8986
▁Tani	-10.8987
BM	-10.8989
▁kerabu	-10.899
▁NA	-10.8994
▁viralkan	-10.8994
▁zakat	-10.8994
eri	-10.8997
▁Labuan	-10.8998
د	-10.9
empat	-10.9
▁bun	-10.9
▁Yusof	-10.9006
▁jawatankuasa	-10.9007
▁lirik	-10.9008
82	-10.901
tia	-10.9015
▁maggi	-10.9023
▁konsisten	-10.9023
ball	-10.9024
▁tipe	-10.9029
▁kontak	-10.9031
▁penguatkuasaan	-10.9035
▁POS	-10.9035
sun	-10.9036
▁Sini	-10.9038
▁Bad	-10.9041
hil	-10.9042
▁Babi	-10.9042
▁37	-10.9044
pre	-10.9047
ela	-10.9048
▁went	-10.9049
▁Tar	-10.9049
▁HAHAHA	-10.905
gue	-10.905
▁siswa	-10.9052
▁Jepang	-10.9053
▁wae	-10.9053
▁ngobrol	-10.9059
▁minimal	-10.9062
▁Sat	-10.9065
oy	-10.9067
tidak	-10.9068
▁Kelapa	-10.907
▁kutuk	-10.907
▁ahh	-10.907
е	-10.9071
▁selimut	-10.9071
▁PKS	-10.9071
▁tealive	-10.9076
▁bungkus	-10.9083
▁Saham	-10.9085
▁fashion	-10.9086
Co	-10.9093
▁kwn	-10.9093
BAT	-10.9094
▁boy	-10.9094
▁huruf	-10.9094
▁melanggar	-10.9095
mpuan	-10.9095
▁Bara	-10.9097
surabaya	-10.9098
▁nan	-10.9098
▁lebat	-10.9098
▁Pelan	-10.9099
▁small	-10.91
▁Ana	-10.91
▁kebiasaan	-10.9102
woo	-10.9102
gy	-10.9102
▁Ger	-10.9104
▁panik	-10.9109
board	-10.9112
▁tanam	-10.9112
▁Sapa	-10.9115
▁upload	-10.9117
ه	-10.9118
▁SELAMAT	-10.9118
▁permulaan	-10.9121
▁mesej	-10.9123
▁Makasih	-10.9124
▁bakat	-10.9125
LIM	-10.9136
jogja	-10.9137
▁Kos	-10.9139
▁maen	-10.914
▁bubur	-10.9142
▁kenduri	-10.9143
▁Nggak	-10.9144
▁mengadu	-10.9147
lut	-10.915
thi	-10.9158
▁AIR	-10.9158
▁diploma	-10.9161
YA	-10.9161
▁malang	-10.9162
▁ceramah	-10.9163
tap	-10.9164
apan	-10.9165
▁Jln	-10.9169
▁jk	-10.9169
▁mengakibatkan	-10.9171
▁persekitaran	-10.9171
▁nii	-10.9173
zy	-10.9174
nta	-10.9178
▁menampung	-10.9178
kini	-10.9179
▁Kirim	-10.9184
kok	-10.9185
ncang	-10.9185
▁krim	-10.9187
▁Hahahah	-10.9189
▁Joko	-10.9189
▁didalam	-10.9189
▁name	-10.9192
ens	-10.9194
▁idol	-10.9196
▁CO	-10.9198
▁masukkan	-10.9198
▁girls	-10.9199
▁social	-10.9199
▁segalanya	-10.92
▁Azerbaijan	-10.9201
▁mara	-10.9201
700	-10.9202
▁artinya	-10.9203
▁double	-10.9204
angkan	-10.9204
▁insiden	-10.9205
▁Beras	-10.9206
og	-10.9209
▁wisata	-10.9209
sang	-10.921
▁original	-10.921
▁Sub	-10.921
▁diperuntukkan	-10.9212
▁disampaikan	-10.9215
AF	-10.9216
▁Reposted	-10.9216
▁Gula	-10.9218
▁Pakistan	-10.9222
alang	-10.9223
▁baki	-10.9223
pos	-10.9224
▁pemberita	-10.9224
▁SIAPA	-10.9227
▁kfc	-10.9231
EE	-10.9235
▁ATM	-10.9235
ME	-10.9236
▁Ikut	-10.924
▁cant	-10.9244
bia	-10.9245
sp	-10.9245
▁Bra	-10.9247
▁sekedar	-10.925
▁Power	-10.9251
▁rice	-10.9252
hy	-10.9252
▁warung	-10.9254
▁brp	-10.9254
▁belok	-10.9256
▁penonton	-10.9267
▁THE	-10.9267
▁jawaban	-10.9268
▁seksual	-10.9271
▁system	-10.9275
wet	-10.9277
▁heart	-10.9282
▁Wakil	-10.9283
▁Bawa	-10.929
▁cemburu	-10.9294
▁Berapa	-10.9295
▁jialat	-10.9296
duh	-10.9297
ving	-10.9297
▁kesal	-10.9298
▁mon	-10.9299
irah	-10.93
tul	-10.9301
adik	-10.9302
▁kltu	-10.9303
▁boh	-10.9304
▁wahai	-10.9304
TS	-10.9305
KO	-10.9306
▁step	-10.9307
▁Minat	-10.9311
SR	-10.9311
▁Tips	-10.9312
▁Pat	-10.9312
▁diajak	-10.9313
▁grosir	-10.9314
▁Kamis	-10.9316
▁Malay	-10.9316
▁den	-10.9316
▁membuang	-10.932
▁taw	-10.9321
▁Temen	-10.9324
sed	-10.9324
▁Batik	-10.9326
Ju	-10.9327
▁Part	-10.9328
▁kejohanan	-10.9328
▁partai	-10.9328
gat	-10.9328
▁kekayaan	-10.9329
▁memanfaatkan	-10.9332
kul	-10.9333
▁mengangguk	-10.9333
▁JAWAB	-10.9334
yam	-10.9334
▁Empat	-10.9337
▁PP	-10.9338
▁rasah	-10.9338
▁rumahnya	-10.9338
▁sentuh	-10.9338
▁arus	-10.934
▁effort	-10.9343
▁Sepanjang	-10.935
▁zizan	-10.9356
▁dengerin	-10.9357
▁used	-10.9359
▁Bekas	-10.9362
muka	-10.9362
▁mencukupi	-10.9364
malam	-10.9365
▁lidah	-10.9369
▁Goreng	-10.9369
▁milih	-10.9371
▁Mun	-10.9371
▁syurga	-10.9372
▁market	-10.9372
▁Menye	-10.9373
▁Aamiin	-10.9373
TT	-10.9376
ع	-10.9377
▁bh	-10.9379
nde	-10.9383
▁Musa	-10.9384
▁libur	-10.9384
▁formula	-10.9384
▁pengiriman	-10.9385
▁Data	-10.9385
▁agen	-10.9386
▁memaklumkan	-10.9387
▁GUE	-10.939
▁beruntung	-10.939
▁berkali	-10.9391
pong	-10.9392
▁menyentuh	-10.9394
▁yatim	-10.9396
▁sign	-10.9398
▁ubah	-10.9399
▁terdengar	-10.9402
▁menghentikan	-10.9403
▁pena	-10.9404
▁chill	-10.9405
ery	-10.9407
▁Film	-10.9407
▁owner	-10.9408
▁respect	-10.9408
NY	-10.9409
▁bomba	-10.9417
▁mengejar	-10.942
▁Inter	-10.942
▁menghabiskan	-10.9422
▁menunaikan	-10.9423
▁bercinta	-10.9423
▁terse	-10.9424
field	-10.9425
▁sebarkan	-10.9427
ADA	-10.9427
ped	-10.9429
▁dijamin	-10.9429
▁KH	-10.9432
▁Ten	-10.9432
negeri	-10.9434
▁pakej	-10.9436
▁dengki	-10.9437
dio	-10.9439
▁Jawab	-10.944
rm	-10.9441
▁tandas	-10.9442
▁digelar	-10.9443
▁soon	-10.9444
gol	-10.9444
▁memasak	-10.9446
▁dugaan	-10.9449
▁lembaga	-10.9451
▁rempit	-10.9452
▁pop	-10.9455
▁tipis	-10.9456
▁kebetulan	-10.9456
▁wartawan	-10.9459
raw	-10.9463
ade	-10.9464
ering	-10.9464
▁sleep	-10.9465
▁saran	-10.9466
▁abam	-10.9469
▁question	-10.9469
wira	-10.9475
mut	-10.9476
▁Budaya	-10.9478
▁dinner	-10.9478
▁perform	-10.9478
▁Takkan	-10.9485
▁sayap	-10.9486
ngat	-10.9486
▁jb	-10.949
▁Auto	-10.9491
▁pahit	-10.9491
▁Segala	-10.9491
▁belas	-10.9494
▁hoax	-10.9494
▁sd	-10.9495
▁baling	-10.9496
▁berhati	-10.9496
م	-10.9498
▁young	-10.95
▁trend	-10.9501
▁membincangkan	-10.9501
:30	-10.9504
▁Musim	-10.9507
ag	-10.9509
pul	-10.9511
▁oil	-10.9512
angkut	-10.9512
wel	-10.9513
bag	-10.9514
▁Syarat	-10.9519
▁kem	-10.952
▁kar	-10.9522
▁gaes	-10.9522
▁berhadapan	-10.9522
▁alternatif	-10.9525
▁York	-10.9527
hun	-10.9528
▁62	-10.9528
▁Polsek	-10.9528
▁Menjadi	-10.9529
SB	-10.9529
bank	-10.953
▁penjuru	-10.9531
▁disahkan	-10.9532
ou	-10.9533
ntai	-10.9535
▁Halim	-10.9536
▁Done	-10.9536
▁06	-10.9536
▁pengambilan	-10.9538
gil	-10.9539
CT	-10.954
▁Char	-10.9544
▁human	-10.9548
▁Lingkar	-10.9549
▁berhak	-10.9552
▁menghubungi	-10.9553
ndo	-10.9553
▁mengingat	-10.9554
▁pape	-10.9554
▁seekor	-10.9555
ril	-10.9557
loh	-10.9562
▁cool	-10.9563
nggu	-10.9564
▁Alat	-10.9565
▁Durian	-10.9566
wl	-10.9567
▁sejam	-10.9568
▁chiong	-10.9568
▁ilang	-10.9568
▁enggan	-10.9569
▁Keputusan	-10.9569
▁niaga	-10.9572
▁Selesai	-10.9574
Tu	-10.9574
▁keadilan	-10.9575
▁terdahulu	-10.9575
▁Lol	-10.9575
▁ditemukan	-10.9576
▁Dadah	-10.9578
▁kekasih	-10.9578
▁Hilang	-10.9579
▁berkah	-10.9579
▁tajam	-10.9579
▁low	-10.9581
▁pencemaran	-10.9582
▁antar	-10.9582
▁tlg	-10.9585
JO	-10.9585
▁menjamin	-10.9586
▁plis	-10.9586
▁Kompleks	-10.9588
▁Pintu	-10.9589
▁Album	-10.9589
▁bercerita	-10.9591
▁kuantan	-10.9591
allahu	-10.9592
jung	-10.9592
▁Bal	-10.9595
Li	-10.9597
▁Wahai	-10.9598
▁Hey	-10.96
LY	-10.9601
▁Nasir	-10.9604
▁aib	-10.9605
mbuh	-10.9608
▁120	-10.961
▁borak	-10.9611
jual	-10.9613
barang	-10.962
▁Pencegahan	-10.9623
▁penasaran	-10.9623
▁subang	-10.9624
▁gu	-10.9626
▁bendera	-10.9626
sit	-10.963
▁spt	-10.963
▁Fitri	-10.963
mbat	-10.963
die	-10.9634
▁enough	-10.9639
▁gram	-10.964
▁keberadaan	-10.964
▁Of	-10.9641
▁Doakan	-10.9641
▁easy	-10.9642
bit	-10.9642
▁Sari	-10.9643
▁lapisan	-10.9643
ell	-10.9645
CK	-10.9648
▁membersihkan	-10.9649
▁lip	-10.965
▁matlamat	-10.965
▁sandal	-10.9651
▁Adalah	-10.9651
ever	-10.9654
▁mengi	-10.9656
▁tergantung	-10.9656
▁topik	-10.9657
▁hatiku	-10.966
▁Internet	-10.966
▁siapapun	-10.9662
▁bacaan	-10.9663
GG	-10.9665
rant	-10.9665
OO	-10.9665
chen	-10.9668
▁Ve	-10.9668
hur	-10.9669
▁Zahid	-10.967
▁told	-10.9671
▁0857	-10.9671
▁iron	-10.9672
ifikasi	-10.9673
warna	-10.9674
▁pembeli	-10.9675
nang	-10.9678
▁fail	-10.9678
▁tajuk	-10.9678
▁Meski	-10.9679
▁abu	-10.9679
▁mengamalkan	-10.9684
▁48	-10.9684
▁Ed	-10.9688
▁handsome	-10.969
▁ngeliat	-10.9691
▁CA	-10.9693
▁Jum	-10.9698
▁berdaftar	-10.97
kop	-10.9702
mem	-10.9703
fil	-10.9707
▁statement	-10.9707
▁natural	-10.9708
▁pap	-10.9714
▁menanti	-10.9715
▁menyenangkan	-10.9716
▁mengkaji	-10.9718
▁pernikahan	-10.9719
▁add	-10.9719
▁Pemesanan	-10.9719
tinggi	-10.972
▁neraka	-10.972
▁memeluk	-10.9724
▁Val	-10.9725
▁bandung	-10.9726
▁Zon	-10.973
▁pemandangan	-10.973
▁kete	-10.9732
▁nambah	-10.9733
▁Darat	-10.9734
sehat	-10.9735
▁lemang	-10.9737
▁mundur	-10.974
▁fake	-10.9742
▁Bayangkan	-10.9746
▁mengulas	-10.9748
KAR	-10.9748
▁pemakaian	-10.975
▁pulut	-10.975
jana	-10.9752
oooo	-10.9756
▁komponen	-10.9758
▁Akademi	-10.9761
▁salahkan	-10.9762
dapat	-10.9763
▁organ	-10.9764
▁brg	-10.9768
▁logo	-10.9768
▁spesial	-10.9771
▁39	-10.9777
▁berkumpul	-10.9779
▁wo	-10.9779
▁Cam	-10.978
▁Wal	-10.9784
▁app	-10.9785
▁shoot	-10.9786
▁membela	-10.9787
▁bertahun	-10.9787
II	-10.9794
mara	-10.9795
▁Skim	-10.9798
▁bajet	-10.9799
▁UN	-10.9799
▁parkir	-10.9799
▁punggung	-10.9801
mpak	-10.9801
▁INDONESIA	-10.9802
▁HATI	-10.9802
▁found	-10.9803
▁Sulawesi	-10.9805
▁Gold	-10.9805
▁33	-10.9808
wai	-10.9809
▁soft	-10.9811
▁diselesaikan	-10.9811
▁KENAPA	-10.9812
KN	-10.9814
▁kesulitan	-10.9816
mes	-10.9816
▁Sab	-10.9818
▁peguam	-10.9819
▁Engkau	-10.9819
▁menghormati	-10.9822
▁whole	-10.9824
▁Mukim	-10.9824
▁proyek	-10.9825
▁350	-10.9826
kasih	-10.9827
▁product	-10.983
▁Encik	-10.983
mbar	-10.983
▁MENG	-10.9832
▁slalu	-10.9833
▁earphone	-10.9834
▁kpop	-10.9834
KAH	-10.9841
dana	-10.9841
▁Seng	-10.9841
▁Amri	-10.9841
▁ego	-10.9842
▁menyeluruh	-10.9843
▁beserta	-10.9843
▁011	-10.9844
▁china	-10.9845
kur	-10.9845
KS	-10.9845
▁bakalan	-10.9847
▁Baharu	-10.985
▁efektif	-10.9851
▁Hindu	-10.9852
▁Khamis	-10.9855
▁cair	-10.9856
cor	-10.9858
▁komentar	-10.9859
cari	-10.9859
luh	-10.9862
dera	-10.9863
▁Hadir	-10.9864
▁suaminya	-10.9864
▁parut	-10.9868
▁sk	-10.9868
rry	-10.987
▁beragama	-10.9871
LIS	-10.9872
Undang	-10.9875
form	-10.9878
▁tawar	-10.988
▁nang	-10.9885
▁Ulu	-10.9885
▁sosok	-10.989
▁2010,	-10.9892
▁Sara	-10.9893
▁konser	-10.9894
kau	-10.9894
blo	-10.9897
▁har	-10.9898
▁ea	-10.9898
▁kese	-10.9905
▁pemu	-10.9905
▁damai	-10.9909
▁walk	-10.9911
▁charge	-10.9911
bisa	-10.9911
▁parking	-10.9916
▁denda	-10.9918
▁nada	-10.9919
▁Czech	-10.9919
▁modern	-10.9923
▁char	-10.9924
▁tempahan	-10.9924
WI	-10.9926
▁muat	-10.9926
▁lahh	-10.9932
▁tembak	-10.9933
▁Soal	-10.9934
▁mengenakan	-10.9934
key	-10.9934
▁kuil	-10.9934
▁keutamaan	-10.9937
▁41	-10.9937
▁puisi	-10.9938
▁Universitas	-10.9939
▁Wkwk	-10.9939
▁Partai	-10.994
syen	-10.9942
▁bias	-10.9942
tama	-10.9943
▁Vitamin	-10.9943
▁Bohong	-10.9945
▁terjaga	-10.9946
muk	-10.9948
pic	-10.9948
▁sinar	-10.9948
▁TAU	-10.9951
mber	-10.9952
saran	-10.9955
▁imam	-10.9956
▁bentar	-10.9957
▁diantara	-10.9961
▁AWANInews	-10.9961
▁Khusus	-10.9961
▁room	-10.9963
▁sponsor	-10.9963
yen	-10.9964
tih	-10.9966
▁bateri	-10.9966
▁reject	-10.9967
▁puji	-10.9967
▁hasrat	-10.9967
▁seh	-10.9967
wh	-10.9968
▁HAHAHAHA	-10.9971
▁smart	-10.9972
▁pusingan	-10.9975
▁pangkat	-10.9975
hin	-10.9976
islam	-10.9976
▁cos	-10.9976
jaga	-10.9977
sip	-10.9979
▁dorg	-10.9979
cus	-10.9981
▁muntah	-10.9982
▁become	-10.9984
▁match	-10.9985
cong	-10.9986
▁Calon	-10.9989
▁project	-10.999
bn	-10.9991
▁asap	-10.9992
▁buruh	-10.9995
titi	-10.9995
Ga	-11.0001
▁CARA	-11.0001
▁komoditi	-11.0005
▁maksimal	-11.0008
▁Modal	-11.001
AAA	-11.0011
▁jus	-11.0013
▁katakan	-11.0013
▁Makanya	-11.0015
side	-11.0016
▁keupayaan	-11.0016
▁payudara	-11.0016
▁diorg	-11.0017
▁SAYANG	-11.0018
hee	-11.002
▁favorit	-11.0022
▁RUMAH	-11.0023
work	-11.0024
▁without	-11.0024
▁bring	-11.0024
▁white	-11.0024
▁uni	-11.0024
▁seks	-11.0027
▁akar	-11.0029
BER	-11.0029
▁Yahya	-11.0029
▁Norway	-11.003
▁Area	-11.0031
▁azan	-11.0032
▁moment	-11.0036
kt	-11.0036
▁latar	-11.0036
▁moga	-11.0037
▁page	-11.0037
▁Omar	-11.0038
AG	-11.0039
visi	-11.0044
▁publik	-11.0044
▁mr	-11.0047
▁Tido	-11.0048
▁KOTA	-11.005
▁liburan	-11.0051
▁karo	-11.0052
▁2018,	-11.0053
▁cup	-11.0053
▁menyi	-11.0053
▁Gra	-11.0056
▁netizen	-11.0059
▁neng	-11.0059
▁lakonan	-11.006
▁strategik	-11.0061
▁semester	-11.0062
▁chao	-11.0063
cen	-11.0064
▁Yahudi	-11.0067
cel	-11.0069
reg	-11.0072
laa	-11.0073
▁jejak	-11.0075
▁Jogja	-11.0078
use	-11.0079
pn	-11.008
▁wedding	-11.0081
▁kegagalan	-11.0081
▁boyfriend	-11.0083
▁selfie	-11.0085
▁campuran	-11.0087
▁custom	-11.0088
▁Umno	-11.0088
EK	-11.0089
▁waktunya	-11.0091
PN	-11.0092
▁bersuara	-11.0093
▁memperuntukkan	-11.0094
▁Nan	-11.0094
▁adat	-11.0095
▁satunya	-11.0095
▁record	-11.0096
kek	-11.0097
▁Original	-11.0101
▁Perjanjian	-11.0101
▁Isteri	-11.0108
▁Sah	-11.0108
▁gelar	-11.0109
▁jemaah	-11.0111
▁DP	-11.0112
▁Hj	-11.0113
▁syariah	-11.0115
tahan	-11.0115
▁Brazil	-11.0117
▁terfikir	-11.0117
▁tindak	-11.0118
media	-11.0119
▁ph	-11.012
▁chu	-11.0123
ikat	-11.0128
▁cabut	-11.013
▁AM	-11.0131
▁delete	-11.0132
▁MH	-11.0132
▁Rasuah	-11.0133
▁MY	-11.0134
▁LEBIH	-11.0134
ZA	-11.0135
▁SMP	-11.0135
▁}	-11.0137
▁cenderung	-11.0138
▁anggaran	-11.0138
▁Bela	-11.0138
▁energi	-11.0138
▁merancang	-11.0138
▁tewas	-11.0141
▁Senyum	-11.0141
▁pendirian	-11.0142
tut	-11.0144
▁trans	-11.0144
▁Sk	-11.0146
mg	-11.0147
lie	-11.0148
▁gejala	-11.0151
▁Bahagia	-11.0151
▁janganlah	-11.0153
▁budu	-11.0153
▁Tas	-11.0154
▁selaras	-11.0154
▁lipat	-11.0155
▁cancel	-11.0157
▁pokoknya	-11.0158
▁teks	-11.0158
▁LU	-11.0159
▁jiak	-11.016
ative	-11.0161
▁serem	-11.0165
ual	-11.0166
▁keja	-11.0167
▁Pun	-11.0167
▁ur	-11.0167
▁Fu	-11.0169
▁lembu	-11.0173
▁half	-11.0173
uhan	-11.0173
▁Penye	-11.0174
▁MI	-11.0174
▁Ambil	-11.0176
▁bersikap	-11.0177
bli	-11.0177
NC	-11.0179
▁pengeluar	-11.0182
▁through	-11.0183
EH	-11.0184
ated	-11.0184
▁Sape	-11.0185
atkan	-11.0185
▁Jumpa	-11.0194
▁Md	-11.0196
MY	-11.0199
▁vi	-11.02
▁menangkap	-11.0201
▁permasalahan	-11.0204
pis	-11.0205
▁dibantu	-11.0209
IAN	-11.0209
▁kukuh	-11.021
▁Singapore	-11.0211
wati	-11.0211
▁Hadiah	-11.0218
gok	-11.0218
▁kegunaan	-11.0219
▁Call	-11.0223
▁john	-11.0224
▁Latihan	-11.0225
▁Sungguh	-11.0226
▁Mahasiswa	-11.0228
ao	-11.0228
▁spot	-11.0229
illa	-11.0232
▁fuck	-11.0234
▁bom	-11.0241
quran	-11.0241
▁kemerdekaan	-11.0243
▁assignment	-11.0245
mbah	-11.0246
▁Enggak	-11.0248
▁Agensi	-11.0248
▁resep	-11.0249
atif	-11.025
▁Alasan	-11.0251
▁ganda	-11.0251
kun	-11.0253
▁dimulai	-11.0253
▁Jen	-11.0254
▁jajan	-11.0255
▁MAKAN	-11.0257
Ada	-11.0257
▁apaan	-11.0259
▁kluar	-11.0261
▁Kom	-11.0262
mbe	-11.0262
▁pelabuhan	-11.0265
▁mayat	-11.0266
▁belikan	-11.0266
▁Ulama	-11.0267
iv	-11.0268
▁Zul	-11.0268
▁skandal	-11.027
app	-11.0271
ingin	-11.0271
▁tkde	-11.0272
▁surga	-11.0273
▁payung	-11.0274
ikut	-11.0276
▁Diri	-11.0279
▁terbabit	-11.0283
▁buay	-11.0288
▁rebus	-11.0292
▁pendukung	-11.0292
▁hidangan	-11.0292
▁nabi	-11.0292
▁pesen	-11.0293
▁Hah	-11.0295
▁merokok	-11.0295
ski	-11.0296
▁graduan	-11.0297
▁penyu	-11.03
fla	-11.03
▁Kingdom	-11.0301
▁kecam	-11.0303
▁mengantuk	-11.0304
▁Kal	-11.0305
▁Abah	-11.0306
rban	-11.0307
lir	-11.0308
tempat	-11.0309
▁ab	-11.031
▁hargai	-11.031
▁ال	-11.0312
▁bazar	-11.0312
▁Ze	-11.0313
▁Pesan	-11.0313
▁pin	-11.0315
▁Salleh	-11.0317
س	-11.0324
▁yaudah	-11.0325
▁Idris	-11.0325
▁Kha	-11.0325
▁pertubuhan	-11.0326
ally	-11.0326
▁Jelas	-11.0327
▁Adi	-11.0327
▁sebenernya	-11.0327
▁Tk	-11.0331
▁yeah	-11.0331
baran	-11.0336
▁Muar	-11.0336
Men	-11.0336
5,000	-11.0337
oli	-11.0338
▁krisis	-11.0339
▁BANYAK	-11.0339
▁Chu	-11.0341
▁Tamil	-11.0344
duanya	-11.0344
▁cite	-11.0346
▁sesebuah	-11.0346
FC	-11.0347
▁Pakcik	-11.0349
nja	-11.0349
▁nur	-11.0349
rain	-11.0351
▁dad	-11.0351
▁lubang	-11.0352
▁eks	-11.0354
▁diletakkan	-11.0365
mang	-11.0368
guru	-11.0369
▁servis	-11.0369
▁reason	-11.0373
▁berpendapatan	-11.0374
▁Seberang	-11.0374
jeng	-11.0375
▁pori	-11.0379
▁dimasukkan	-11.0383
Aku	-11.0386
▁Malik	-11.0386
▁music	-11.0387
▁cili	-11.0388
▁spm	-11.0391
MER	-11.0393
▁didn	-11.0393
▁kasian	-11.0394
kara	-11.0395
BUT	-11.0398
dress	-11.04
▁KFC	-11.0401
▁How	-11.0403
del	-11.0406
▁ipar	-11.041
▁dicapai	-11.0411
▁wayang	-11.0411
ENT	-11.0413
▁Daniel	-11.0414
▁ndak	-11.0416
▁England	-11.0417
repost	-11.0419
▁Corona	-11.0421
sol	-11.0421
▁Agar	-11.0423
▁lurus	-11.0425
▁sense	-11.0426
▁memandu	-11.0428
▁dp	-11.0431
biasa	-11.0432
▁usul	-11.0434
▁jenama	-11.0439
▁disertai	-11.0439
▁near	-11.044
yana	-11.0445
nge	-11.0445
▁Lebaran	-11.0445
▁Home	-11.0446
▁PTPTN	-11.0446
▁hendaklah	-11.0449
▁beriman	-11.0449
▁hewan	-11.0451
▁disitu	-11.0451
nger	-11.0452
gri	-11.0452
mbi	-11.0452
▁pembentukan	-11.0454
muda	-11.0455
col	-11.0458
YE	-11.0459
mari	-11.0459
▁kehendak	-11.0461
▁siot	-11.0463
▁Tahan	-11.0466
▁pri	-11.0467
▁geli	-11.0468
▁Umar	-11.0468
▁dik	-11.0468
▁rantau	-11.0469
▁sepupu	-11.0469
▁juru	-11.0472
▁self	-11.0472
▁Family	-11.0474
▁Tang	-11.0478
fra	-11.048
▁melayani	-11.0481
▁Tenang	-11.0482
▁pema	-11.0484
chu	-11.0491
▁pagar	-11.0493
Jokowi	-11.0502
▁semenanjung	-11.0503
▁RTM	-11.0504
▁view	-11.0504
KP	-11.0505
▁ps	-11.0505
▁Plaza	-11.0508
▁ngajak	-11.0508
▁train	-11.0509
▁pentas	-11.0511
jok	-11.0511
▁koyak	-11.0516
▁batuk	-11.0516
▁Mira	-11.0517
try	-11.0518
▁Kemajuan	-11.0519
▁breakfast	-11.0519
▁twit	-11.0519
▁bera	-11.0519
▁Cer	-11.0522
juta	-11.0529
▁KURUNG	-11.0533
▁jimat	-11.0534
▁SATU	-11.0535
ONE	-11.0537
▁menyerah	-11.0539
▁pelantikan	-11.054
▁trip	-11.0546
▁fight	-11.0547
▁perundangan	-11.0548
call	-11.0549
▁Saddiq	-11.0549
▁mineral	-11.0549
▁Cuci	-11.0551
▁pejuang	-11.0552
mos	-11.0554
▁enjin	-11.0557
cep	-11.0557
Po	-11.0557
follow	-11.0562
gih	-11.0564
tanda	-11.0566
▁mengelak	-11.0567
▁direct	-11.0568
▁kononnya	-11.0569
▁ibarat	-11.0569
pia	-11.057
fah	-11.057
▁pantang	-11.0575
uju	-11.0577
▁bimbang	-11.0577
▁terbatas	-11.0578
▁jerit	-11.0578
▁teruskan	-11.0578
▁Dear	-11.0578
▁majalah	-11.0581
alat	-11.0582
eb	-11.0583
▁umah	-11.0585
Ar	-11.0586
▁017	-11.059
▁wkwkwkwk	-11.0591
OH	-11.0594
▁dark	-11.0594
▁mendedahkan	-11.0596
▁Belakang	-11.0596
▁2001,	-11.06
▁control	-11.0601
▁Widodo	-11.0602
▁PUN	-11.0603
▁posting	-11.0604
▁otw	-11.0604
▁Ashraf	-11.0606
▁bali	-11.0607
▁LINE	-11.0608
▁Malu	-11.0612
▁mc	-11.0612
▁almost	-11.0612
▁skim	-11.0615
Islam	-11.0616
▁Penyakit	-11.062
▁mengisi	-11.0621
▁Nih	-11.0624
▁repeat	-11.0625
ق	-11.0625
▁tragedi	-11.0627
▁cabang	-11.0627
▁sound	-11.0627
▁mask	-11.0632
▁Khan	-11.0632
▁lost	-11.0634
iki	-11.0635
▁persekutuan	-11.0636
▁chiu	-11.0637
▁Ac	-11.0638
▁dear	-11.0639
▁dinyatakan	-11.0642
▁puluh	-11.0643
▁keduanya	-11.0643
▁46	-11.0644
▁Syukur	-11.0645
thu	-11.0645
▁PR	-11.0648
▁Trus	-11.0649
▁Swasta	-11.0649
▁JAKARTA	-11.0652
▁perabot	-11.0654
▁faedah	-11.0657
▁intan	-11.0659
▁PRO	-11.0659
▁roger	-11.066
▁bertajuk	-11.0662
▁Mag	-11.0663
cip	-11.0664
▁Caranya	-11.0665
▁Par	-11.0665
▁memantau	-11.0666
Pen	-11.0667
▁Pria	-11.0669
▁pelabur	-11.0669
▁^^	-11.067
▁Len	-11.0671
▁karang	-11.0671
kot	-11.0671
▁85	-11.0678
via	-11.068
▁Mengapa	-11.068
▁aktivitas	-11.0681
SAN	-11.0682
▁brother	-11.0685
mpah	-11.0686
ssss	-11.0686
▁KANAN	-11.0688
EY	-11.0688
malang	-11.0688
▁Telah	-11.0689
▁terjejas	-11.069
▁Bonus	-11.0692
▁South	-11.0693
▁kaitan	-11.0694
trik	-11.0694
▁berlakon	-11.0695
STA	-11.0695
▁skill	-11.0697
▁kalimat	-11.0698
و	-11.0698
hri	-11.0699
▁berbaloi	-11.0699
▁Pengajian	-11.0703
▁download	-11.0703
▁Zulkifli	-11.0705
▁inginkan	-11.0705
oka	-11.0705
▁Bukti	-11.0708
▁Jarang	-11.071
▁tertutup	-11.0712
▁lbh	-11.0712
nasi	-11.0713
▁MANA	-11.0715
▁semak	-11.0716
▁Uang	-11.0716
▁Lima	-11.0717
dra	-11.0719
▁sesak	-11.0719
No	-11.0725
gong	-11.0725
▁OPEN	-11.0727
▁Simpang	-11.0727
▁mendekati	-11.073
▁mampir	-11.073
▁RS	-11.073
▁GO	-11.073
▁DATUK	-11.073
▁bangsat	-11.073
RR	-11.0732
▁Rezeki	-11.0734
arah	-11.0735
▁Kel	-11.0738
▁Global	-11.0738
▁penemuan	-11.0739
▁menguruskan	-11.0741
▁Manis	-11.0743
▁dompet	-11.0744
▁kebijakan	-11.0747
▁menurun	-11.0749
lasi	-11.0751
▁Pendaftaran	-11.0755
▁contohnya	-11.0756
▁kuy	-11.0756
▁Post	-11.0759
Pu	-11.0761
▁hah	-11.0763
▁Sir	-11.0763
▁meluas	-11.0767
▁kekuasaan	-11.0768
ssa	-11.0769
▁Syah	-11.0769
▁okey	-11.077
batu	-11.0774
cek	-11.0774
▁Sering	-11.0775
▁Pol	-11.0775
▁berpendapat	-11.0775
▁selesaikan	-11.0776
▁TANPA	-11.0776
▁Even	-11.0776
▁SET	-11.0778
▁iPhone	-11.0778
▁art	-11.0778
▁redha	-11.0779
Peng	-11.0783
bri	-11.0784
▁BIO	-11.0785
AGA	-11.0788
▁Ani	-11.0788
oma	-11.079
kuasa	-11.0791
▁mane	-11.0793
▁berbincang	-11.0795
▁Eropa	-11.0795
▁ngaku	-11.0796
▁Tarikh	-11.08
▁jurusan	-11.0801
▁poli	-11.0801
▁cash	-11.0802
▁UPDATE	-11.0802
▁mempengaruhi	-11.0802
▁43	-11.0804
▁pemegang	-11.0806
kekinian	-11.0806
▁Ara	-11.081
▁Kesatuan	-11.0812
▁1997	-11.0813
▁Karang	-11.0814
▁lega	-11.0815
▁hampa	-11.0815
▁membu	-11.0815
▁jadinya	-11.0816
▁NU	-11.0817
ono	-11.0819
hitung	-11.0819
▁019	-11.082
▁bra	-11.082
▁Pukul	-11.0821
rot	-11.0822
▁Cocok	-11.0822
▁hr	-11.0822
▁Bursa	-11.0823
▁perkauman	-11.0824
▁ribuan	-11.0824
▁INFO	-11.0825
▁iv	-11.0827
ries	-11.0827
Kuala	-11.0829
▁cakep	-11.083
▁pass	-11.083
▁terbuat	-11.0831
▁berde	-11.0832
▁kehamilan	-11.0832
▁Damansara	-11.0834
▁skuad	-11.0834
▁Beda	-11.0834
▁along	-11.0835
▁persiapan	-11.0837
▁Haih	-11.0837
fren	-11.0837
▁Menghilangkan	-11.0839
▁Siri	-11.0841
▁menampilkan	-11.0844
▁Multimedia	-11.0845
▁gada	-11.0846
▁Hahah	-11.0846
▁rak	-11.0848
▁Tempatan	-11.0849
▁pengunjung	-11.0851
▁hyung	-11.0852
▁mencipta	-11.0853
▁scene	-11.0854
▁sum	-11.0854
▁Ain	-11.0856
▁master	-11.0859
▁Sate	-11.0861
▁Green	-11.0862
▁ribet	-11.0863
tawa	-11.0866
▁dibangunkan	-11.0866
▁kepalanya	-11.0867
▁ava	-11.0867
ukur	-11.0868
▁meni	-11.087
▁hihi	-11.0875
▁kaw	-11.0875
▁Kuat	-11.0876
▁Gaya	-11.0877
▁HANYA	-11.0881
eg	-11.0883
nor	-11.0883
▁website	-11.0883
▁Mark	-11.0884
rip	-11.0887
▁pandan	-11.0888
▁prosedur	-11.089
▁cabul	-11.0897
▁kedalam	-11.0901
▁Kode	-11.0904
▁CEPAT	-11.0907
▁pengumuman	-11.091
▁Royal	-11.091
▁terengganu	-11.0911
▁Membuat	-11.0911
▁sejati	-11.0911
▁training	-11.0912
ARA	-11.0916
kura	-11.0917
▁Blok	-11.0917
▁format	-11.0917
▁bahas	-11.0918
▁Smart	-11.092
ATAN	-11.092
DD	-11.0921
▁binti	-11.0922
▁ringkas	-11.0924
▁tai	-11.0924
▁School	-11.0925
▁Tahukah	-11.0925
▁Burger	-11.0928
▁Toko	-11.093
▁puak	-11.0933
▁siapkan	-11.0934
▁great	-11.0939
▁protein	-11.0942
baca	-11.0942
▁berkat	-11.0942
▁aw	-11.0943
ASA	-11.0944
▁KPK	-11.0944
▁kelemahan	-11.0945
▁State	-11.0946
▁99	-11.0949
▁istirahat	-11.0949
zer	-11.0951
▁Manchester	-11.0951
▁anything	-11.0952
▁Bilik	-11.0952
▁Tah	-11.0953
▁sport	-11.0953
▁Kit	-11.0953
▁leave	-11.0953
▁Bus	-11.0954
▁kutipan	-11.0958
▁Hp	-11.0958
▁Tes	-11.0959
▁local	-11.0959
▁semacam	-11.096
fon	-11.096
lab	-11.096
▁Pemimpin	-11.0963
▁filter	-11.0964
▁remember	-11.0964
▁PLEASE	-11.0965
▁hrs	-11.0969
▁Tujuan	-11.0971
▁berkawan	-11.0971
▁episode	-11.0972
▁bawal	-11.0973
▁bet	-11.0975
tv	-11.0976
▁dihubungi	-11.0977
▁dap	-11.0978
▁kesah	-11.0979
▁GAK	-11.0979
▁Terminal	-11.098
▁dibahagikan	-11.0981
song	-11.0981
▁Abam	-11.0981
▁dibuang	-11.0983
▁hadis	-11.0987
unan	-11.0988
▁Low	-11.0988
▁gemes	-11.0989
zah	-11.099
▁Sawit	-11.099
mark	-11.099
yeon	-11.0991
▁Pelabuhan	-11.0993
▁pinter	-11.0997
mir	-11.0997
▁disa	-11.0999
▁mengembangkan	-11.1001
unt	-11.1002
▁papan	-11.1004
ahan	-11.1005
yok	-11.1008
▁postage	-11.1008
▁sopan	-11.101
▁airport	-11.1011
▁pura	-11.1015
▁Cheras	-11.1015
old	-11.1015
▁Bajet	-11.1017
▁NEGERI	-11.102
▁streaming	-11.1021
▁menyukai	-11.1021
▁Its	-11.1021
▁Tasik	-11.1022
lari	-11.1023
pose	-11.1024
badan	-11.1026
alih	-11.1028
VA	-11.1029
▁ditolak	-11.1029
▁harusnya	-11.1032
▁ideal	-11.1034
▁followers	-11.1041
hol	-11.1041
▁dibentuk	-11.1048
▁rakaman	-11.1048
▁kaga	-11.1048
▁Sim	-11.1049
▁terjun	-11.105
▁012	-11.1052
▁issue	-11.1053
sara	-11.1054
▁bergaduh	-11.1056
▁debat	-11.1056
▁ketara	-11.1059
▁Chat	-11.1062
▁siasat	-11.1062
▁Pelajaran	-11.1066
oni	-11.1068
▁cause	-11.1068
▁dukung	-11.107
▁camtu	-11.1071
▁natang	-11.1073
▁ratusan	-11.1074
malaya	-11.1075
▁God	-11.1077
abu	-11.1077
▁LIKE	-11.1077
▁surah	-11.1078
TR	-11.1078
▁09	-11.1081
▁times	-11.1084
jing	-11.1084
▁hayat	-11.1084
BAN	-11.1085
▁seluas	-11.1086
▁bis	-11.1086
▁tuk	-11.1089
▁Kapan	-11.1089
hn	-11.109
▁perlembagaan	-11.1093
▁personal	-11.1093
det	-11.1097
▁pajak	-11.1097
▁pujuk	-11.1097
sti	-11.1098
MM	-11.1101
berg	-11.1103
▁Stop	-11.1104
▁lintas	-11.1105
jelas	-11.1106
▁Mor	-11.1108
semarang	-11.1109
▁ceritakan	-11.1109
▁amek	-11.111
▁Kasut	-11.1111
syarat	-11.1112
▁magic	-11.1114
SIS	-11.1115
▁ganggu	-11.1115
haf	-11.1117
▁Mohammad	-11.112
▁Terbuka	-11.112
ngkang	-11.1121
tian	-11.1121
▁menandatangani	-11.1121
▁beria	-11.1122
▁chance	-11.1122
bid	-11.1123
mul	-11.1127
▁Lepastu	-11.1128
▁44	-11.113
▁karakter	-11.1131
▁kalinya	-11.1132
▁FIFA	-11.1135
▁impak	-11.1136
▁0821	-11.114
▁realiti	-11.1141
MIN	-11.1142
▁wonder	-11.1142
▁Menga	-11.1142
Je	-11.1147
▁bangang	-11.1149
▁mendadak	-11.1151
▁Serbia	-11.1151
bot	-11.1156
▁DPR	-11.1157
▁mix	-11.1158
▁Sinar	-11.1158
▁FOLLOW	-11.1159
▁Kristian	-11.1159
▁domestik	-11.1159
▁menduduki	-11.1159
hua	-11.1159
▁little	-11.1161
tat	-11.1162
▁destinasi	-11.1162
▁kenalan	-11.1163
rian	-11.1168
gha	-11.117
▁mengendalikan	-11.1173
▁0822	-11.1173
▁motivasi	-11.1175
▁scroll	-11.1181
aci	-11.1181
▁party	-11.1182
emas	-11.1182
rie	-11.1182
▁menipu	-11.1182
▁Penulis	-11.1183
▁experience	-11.1184
▁fly	-11.1186
▁sale	-11.1187
▁Bre	-11.1187
▁uji	-11.1189
▁AWANI	-11.119
▁dita	-11.1191
▁maafkan	-11.1193
mili	-11.1193
▁Abis	-11.1196
BAH	-11.1196
▁Contohnya	-11.1196
▁fikiran	-11.1196
▁gel	-11.1198
lect	-11.1198
▁anyway	-11.1201
▁berbahasa	-11.1202
lm	-11.1202
▁berminyak	-11.1202
▁Setakat	-11.1202
▁05	-11.1205
▁awk	-11.1205
▁teratur	-11.121
▁Cat	-11.1212
▁mener	-11.1213
▁between	-11.1213
▁review	-11.1214
▁omg	-11.1214
▁rebahan	-11.1215
▁Lautan	-11.1216
lom	-11.1218
gap	-11.1218
▁Chan	-11.1219
▁Let	-11.1221
▁Zealand	-11.1222
bau	-11.1224
VE	-11.1224
▁NCT	-11.1229
▁tertinggal	-11.123
▁van	-11.123
ations	-11.1233
▁sampaikan	-11.1233
▁BINTI	-11.1237
▁tahniah	-11.1237
▁Mengenai	-11.1238
▁aturan	-11.1239
hrs	-11.124
▁kim	-11.1245
ino	-11.1246
▁jln	-11.1247
ax	-11.1248
▁Big	-11.1249
▁berak	-11.1252
ide	-11.1254
▁Dagang	-11.1254
▁Ran	-11.1255
▁Hy	-11.1258
▁adem	-11.1258
▁400	-11.1259
▁Live	-11.1261
▁pick	-11.1265
▁Mending	-11.1266
▁Tambahan	-11.1266
angka	-11.1268
dur	-11.1269
urut	-11.1269
▁menaikkan	-11.127
RS	-11.127
LP	-11.1271
alaikum	-11.1272
▁Sarjana	-11.1272
ima	-11.1274
Ho	-11.1274
▁penyebab	-11.1275
▁Tentu	-11.1276
▁doing	-11.1278
obor	-11.1279
▁Klu	-11.128
▁STOCK	-11.128
250	-11.1281
nanti	-11.1281
▁kubu	-11.1286
FE	-11.1286
▁Bru	-11.1288
▁defisit	-11.1289
▁Panglima	-11.1291
▁Menang	-11.1292
aki	-11.1294
br	-11.1294
▁rambutan	-11.1294
▁insecure	-11.1294
EC	-11.1296
▁Turun	-11.1296
manis	-11.1297
▁Jungkook	-11.1298
▁mengarahkan	-11.1298
▁kembar	-11.1299
ح	-11.1299
▁dibangun	-11.13
▁aiya	-11.13
▁semenjak	-11.1301
hon	-11.1302
▁sesekali	-11.1303
▁Wkwkwk	-11.1305
▁kids	-11.1306
bre	-11.1306
▁pertamanya	-11.1306
▁terbalik	-11.1309
▁tawa	-11.1312
▁Wajib	-11.1313
dol	-11.1314
▁bapanya	-11.1314
▁derma	-11.1315
▁menonton	-11.1318
row	-11.1322
▁bosen	-11.1323
▁That	-11.1323
▁postingan	-11.1324
▁government	-11.1326
mudah	-11.1326
▁Penga	-11.1327
▁BBM	-11.1327
angkat	-11.1328
wt	-11.1332
agi	-11.1336
▁Sehubungan	-11.1336
▁sapi	-11.1336
▁HR	-11.1337
▁jeruk	-11.1337
usa	-11.1343
▁peneroka	-11.1346
▁kedatangan	-11.1348
▁KLIA	-11.1348
▁studio	-11.1349
uji	-11.135
▁Coach	-11.1351
▁ribut	-11.1354
▁LGBT	-11.1354
▁ttp	-11.1356
▁Pertandingan	-11.1357
▁objek	-11.1358
pil	-11.136
▁Next	-11.136
▁kelakuan	-11.1361
▁kurma	-11.1362
▁dating	-11.1364
wing	-11.1366
▁ovo	-11.1369
▁Bur	-11.137
▁SEM	-11.137
▁deal	-11.1375
▁Sekiranya	-11.1376
▁mikro	-11.1379
▁Lembah	-11.1379
▁Solat	-11.138
▁joging	-11.1382
▁MURAH	-11.1383
▁seketika	-11.1386
▁menceritakan	-11.1388
▁ambulan	-11.1388
ese	-11.139
▁dream	-11.139
▁teras	-11.1391
▁Insya	-11.1391
▁dirawat	-11.1392
▁MEM	-11.1395
▁diperoleh	-11.1396
▁Bil	-11.1396
oto	-11.14
▁Utk	-11.1403
lic	-11.1403
▁tata	-11.1403
▁Juta	-11.1405
▁Sayur	-11.1409
▁bocor	-11.141
▁milk	-11.141
▁reka	-11.1412
▁galau	-11.1412
gin	-11.1413
house	-11.1414
He	-11.1419
nel	-11.1421
▁mematuhi	-11.1421
▁jalanan	-11.1421
rindu	-11.1425
▁SEL	-11.1427
▁penghargaan	-11.1428
▁habiskan	-11.1428
▁cost	-11.1428
▁Penjara	-11.1431
ceh	-11.1431
timbang	-11.1432
▁Detail	-11.1432
▁lawas	-11.1433
▁dikesan	-11.1434
play	-11.1436
▁aurat	-11.1437
▁penjagaan	-11.1441
▁asa	-11.1442
KK	-11.1443
▁private	-11.1443
uw	-11.1444
mani	-11.1447
▁KALO	-11.1447
MAH	-11.1448
▁Mera	-11.1448
ITE	-11.1448
▁KALAU	-11.1449
wood	-11.1452
▁meriah	-11.1453
▁uncle	-11.1454
pers	-11.1457
▁Semarang	-11.1458
▁spend	-11.1458
▁Pastikan	-11.1459
putar	-11.146
▁dikaitkan	-11.146
▁ice	-11.1464
▁bts	-11.1464
ville	-11.1467
▁deep	-11.1468
▁Plan	-11.1469
▁explain	-11.1469
enda	-11.147
▁hartanah	-11.1471
▁ijo	-11.1472
▁straight	-11.1474
ys	-11.1474
▁More	-11.1475
▁promote	-11.1477
▁GT	-11.1477
▁buruan	-11.1477
▁Mur	-11.1478
▁Dataran	-11.1481
▁text	-11.1481
solo	-11.1483
▁laugh	-11.1484
kup	-11.1486
▁Well	-11.1487
▁jem	-11.1487
tty	-11.1487
▁arti	-11.1488
▁Mc	-11.1488
▁letih	-11.1489
▁dibaca	-11.149
TN	-11.1491
▁oversea	-11.1492
▁terimakasih	-11.1493
▁sepuluh	-11.1493
For	-11.1495
nau	-11.1496
ntik	-11.1497
nggung	-11.1499
Hari	-11.1501
▁kampanye	-11.1502
▁ketidak	-11.1503
bener	-11.1503
Qur	-11.1504
▁kemasukan	-11.1504
eja	-11.1504
▁player	-11.1505
▁Parit	-11.1505
dakwa	-11.1506
▁rogol	-11.1506
▁Miri	-11.1507
▁flat	-11.1508
▁Plus	-11.1515
das	-11.1517
▁opo	-11.152
▁disaat	-11.1522
nggal	-11.1525
▁House	-11.1528
▁tentunya	-11.1528
▁berkurang	-11.1529
▁ker	-11.153
▁Tangerang	-11.1535
▁takdir	-11.1536
▁mudik	-11.1541
▁ago	-11.1542
▁Bau	-11.1545
▁bb	-11.1545
sana	-11.1545
not	-11.1546
▁ever	-11.1547
▁perayaan	-11.1548
▁kompleks	-11.1554
▁jagung	-11.1554
▁jentera	-11.1555
▁Tukang	-11.1556
▁tumbuhan	-11.1557
jong	-11.1559
gala	-11.1562
▁delivery	-11.1562
Ca	-11.1563
▁Takpe	-11.1564
sua	-11.1564
▁lumba	-11.1564
pl	-11.1566
▁BGT	-11.1566
ungu	-11.1568
▁intern	-11.1569
sky	-11.1569
▁Sedang	-11.157
riz	-11.1573
▁kre	-11.1575
▁rase	-11.1575
▁biarpun	-11.1576
DAR	-11.1576
▁seragam	-11.1578
▁mengira	-11.1581
▁lupakan	-11.1581
▁jogja	-11.1583
▁1991	-11.1588
▁sele	-11.159
▁explore	-11.1592
aaaaaa	-11.1593
▁asia	-11.1593
▁Pengguna	-11.1596
▁Asas	-11.16
ttle	-11.1601
SD	-11.1603
▁handphone	-11.1605
▁yet	-11.1605
▁kunjungan	-11.1609
nic	-11.1609
▁MARA	-11.161
▁sepertinya	-11.1611
▁mencatatkan	-11.1612
▁Warisan	-11.1612
▁TIDUR	-11.1614
▁bersaing	-11.1614
town	-11.1617
▁Telur	-11.1617
▁seberapa	-11.1619
DAY	-11.1619
_**	-11.162
▁700	-11.162
▁memakan	-11.1621
▁ditempatkan	-11.1621
ANI	-11.1625
▁Huhu	-11.1628
▁kembang	-11.163
ata	-11.1631
hidup	-11.1634
▁Beri	-11.1635
▁Kuasa	-11.1636
▁Strategi	-11.1637
ges	-11.1637
▁came	-11.1638
TEN	-11.1639
▁07	-11.164
▁98	-11.1641
▁dampak	-11.1643
▁MASIH	-11.1644
▁sedemikian	-11.1646
▁hidupnya	-11.1652
▁HE	-11.1653
▁Kehidupan	-11.1655
▁sblm	-11.1655
▁mamat	-11.1655
eta	-11.1658
▁cawangan	-11.1659
bud	-11.1662
▁Saiz	-11.1662
▁menamatkan	-11.1662
▁Paul	-11.1662
▁country	-11.1663
▁Bomba	-11.1663
▁agaknya	-11.1663
▁pinggan	-11.1664
tag	-11.1664
▁sometimes	-11.1664
▁dosen	-11.1664
▁mutual	-11.1665
▁konon	-11.1665
gre	-11.1666
▁saje	-11.1666
ngin	-11.1669
faz	-11.1671
Hi	-11.1676
▁Keluar	-11.1679
▁mukim	-11.1679
dot	-11.168
kenal	-11.168
▁Bung	-11.1681
▁meet	-11.1682
ix	-11.169
▁period	-11.1691
▁Said	-11.1691
▁Jalil	-11.1693
▁tahunan	-11.1694
RAN	-11.1695
▁pain	-11.1696
OW	-11.1699
▁sekitarnya	-11.1703
▁diketuai	-11.1703
dat	-11.1703
▁berkenan	-11.1704
▁penjual	-11.1706
psi	-11.1707
buahan	-11.171
plan	-11.1711
jk	-11.1712
▁rujukan	-11.1714
Ti	-11.1715
tari	-11.1715
▁Ayu	-11.1716
▁NGO	-11.1717
▁pertukaran	-11.1717
▁1980	-11.1718
ARAN	-11.172
▁gtu	-11.1723
▁menambahkan	-11.1724
▁Giveaway	-11.1724
▁Rahim	-11.1725
▁ON	-11.1726
▁Chen	-11.1727
▁Awang	-11.1729
chang	-11.1733
▁bertentangan	-11.1734
oles	-11.1736
▁judul	-11.1737
▁moral	-11.1737
▁langsir	-11.1741
▁songkok	-11.1746
syah	-11.1747
▁ampe	-11.1748
▁massa	-11.1751
ntak	-11.1752
▁prefer	-11.1754
▁ditinggal	-11.1755
▁jenazah	-11.1755
▁sediakan	-11.1756
▁Seluruh	-11.1756
▁kasur	-11.1757
▁Jujur	-11.1758
buka	-11.1758
▁wajahnya	-11.1758
▁Guna	-11.1758
▁dukungan	-11.1759
▁ID	-11.1761
star	-11.1764
▁Rancangan	-11.1764
zat	-11.1764
▁KURUS	-11.1766
▁akhlak	-11.1766
▁kerjaan	-11.1769
dit	-11.1772
115	-11.1773
▁menciptakan	-11.1774
▁Yaudah	-11.1776
rea	-11.1777
▁ngam	-11.1779
▁af	-11.1782
▁Menara	-11.1782
ك	-11.1784
▁pencegahan	-11.1788
care	-11.1788
END	-11.1788
ale	-11.1788
135	-11.1791
berang	-11.1791
aksi	-11.1791
DO	-11.1792
▁spa	-11.1794
baris	-11.1794
▁Petronas	-11.1797
▁cop	-11.1799
ashi	-11.1802
▁Bor	-11.1803
cs	-11.1803
ska	-11.1804
▁Com	-11.1805
▁ا	-11.1805
▁expect	-11.1805
▁tetamu	-11.1808
▁Hol	-11.181
▁mung	-11.181
▁mengeluh	-11.181
SEN	-11.1811
urus	-11.1811
▁kebersihan	-11.1812
post	-11.1817
▁malay	-11.1818
▁kemanusiaan	-11.1819
▁Dengar	-11.1824
▁knn	-11.1825
▁excited	-11.1826
ayu	-11.1828
▁secukupnya	-11.183
▁gausah	-11.183
▁smlm	-11.1831
▁DS	-11.1834
▁Kayu	-11.1835
SIA	-11.1835
▁Mulia	-11.1836
▁Mantap	-11.1836
▁wak	-11.1837
▁RO	-11.1838
▁macet	-11.1844
▁jurulatih	-11.1844
▁Kek	-11.1847
▁miliar	-11.1848
▁drink	-11.1848
▁future	-11.1848
▁sushi	-11.1848
▁sak	-11.185
▁Jenayah	-11.185
bina	-11.1851
▁Labuh	-11.1851
ARI	-11.1852
▁Hijau	-11.1853
guh	-11.1855
▁Not	-11.1855
▁kesilapan	-11.1855
▁Kondisi	-11.1857
SL	-11.1858
Raja	-11.1859
▁Ruang	-11.186
LEM	-11.186
mpul	-11.1863
▁jambatan	-11.1866
▁Kaki	-11.1866
▁ideologi	-11.1869
▁Sabu	-11.1869
▁penilaian	-11.187
▁melarikan	-11.1872
▁amalkan	-11.1872
▁liter	-11.1874
▁pembantu	-11.1874
▁lahan	-11.1876
▁Melihat	-11.1877
▁Bodo	-11.1881
▁sunyi	-11.1882
filem	-11.1883
▁Sebanyak	-11.1883
We	-11.1883
▁Nepal	-11.1884
▁bercuti	-11.1885
ISI	-11.1885
▁Fat	-11.1887
mbung	-11.1892
▁penjaga	-11.1892
▁rock	-11.1893
▁rundingan	-11.1893
▁ARMY	-11.1894
▁Kah	-11.1895
▁HI	-11.1897
cau	-11.1901
tre	-11.1901
▁hatimu	-11.1901
salam	-11.1906
KT	-11.1908
lepas	-11.1909
▁bersiap	-11.1911
▁Ustadz	-11.1912
▁camera	-11.1912
▁kearah	-11.1916
WAN	-11.1917
ال	-11.1918
▁skrng	-11.1922
▁Bener	-11.1924
▁dilarang	-11.1925
▁Maybank	-11.1925
▁uols	-11.1926
▁Hehehe	-11.1926
usan	-11.1929
burg	-11.1931
▁three	-11.1934
▁memimpin	-11.1934
▁huhuhu	-11.1934
▁dipasang	-11.1937
▁MCA	-11.1937
▁gedung	-11.194
uz	-11.1941
OC	-11.1943
▁menemani	-11.1944
soo	-11.1944
hang	-11.1945
▁called	-11.1945
eni	-11.1948
▁pembukaan	-11.195
oot	-11.195
▁Premium	-11.1951
cont	-11.1951
pg	-11.1951
▁temu	-11.1951
▁Benar	-11.1953
▁ayahnya	-11.196
▁peluru	-11.196
▁Myanmar	-11.196
yak	-11.1961
▁Yah	-11.1961
ius	-11.1962
▁kusam	-11.1964
▁Cor	-11.1964
▁Mengulas	-11.1966
▁believe	-11.1967
▁Mahkota	-11.1968
▁Skrg	-11.1968
▁quote	-11.197
▁menghadap	-11.1972
▁Sup	-11.1972
UNI	-11.1973
▁Quran	-11.1973
▁hape	-11.1974
▁Abi	-11.1975
▁berbunyi	-11.1975
▁pengantin	-11.1976
▁Hot	-11.1977
cung	-11.1977
temp	-11.1977
▁base	-11.1981
▁Trafik	-11.1982
AY	-11.1983
▁hit	-11.1985
▁komersial	-11.1985
▁asasi	-11.1986
▁shit	-11.1987
▁berjanji	-11.1987
▁Karya	-11.1994
meter	-11.1994
▁Kad	-11.1996
sport	-11.1996
▁News	-11.1996
▁senja	-11.1998
▁anjuran	-11.1998
▁ternampak	-11.1999
▁didepan	-11.1999
▁Stok	-11.1999
▁Bos	-11.2002
▁menghampiri	-11.2002
saya	-11.2004
▁Pasal	-11.2004
▁ADUN	-11.2005
salah	-11.2006
hum	-11.2007
▁coach	-11.2008
tain	-11.2011
▁pengganti	-11.2012
fc	-11.2013
о	-11.2015
▁seputar	-11.2018
▁corak	-11.2019
▁PBB	-11.2021
lahan	-11.2021
▁Lengkap	-11.2022
▁kmu	-11.2023
▁م	-11.2024
▁common	-11.2024
sukan	-11.2027
▁SANGAT	-11.2027
▁happen	-11.2029
▁bales	-11.203
▁pengenalan	-11.203
▁Gratis	-11.2031
▁cc	-11.2032
▁pertuduhan	-11.2032
▁jaket	-11.2034
▁atlet	-11.2035
eli	-11.2036
BE	-11.2037
▁stand	-11.2037
▁takpa	-11.2038
style	-11.2038
▁Mandi	-11.204
▁visit	-11.2041
▁mengenali	-11.2041
▁dipenuhi	-11.2044
▁Metro	-11.2044
lovers	-11.2047
▁sl	-11.2048
▁Kejohanan	-11.2049
ters	-11.205
▁Kacang	-11.2051
▁deng	-11.2053
▁Lampu	-11.2053
▁umrah	-11.2057
▁ALAM	-11.2061
▁kanker	-11.2061
CU	-11.2062
▁Pekerja	-11.2062
nom	-11.2065
REA	-11.2067
▁fine	-11.2068
▁mengatur	-11.2068
luar	-11.2068
▁Mbak	-11.2069
▁mangga	-11.2071
▁Zahir	-11.2072
▁Jd	-11.2072
▁Buloh	-11.2072
ast	-11.2075
▁bersabar	-11.2077
▁dini	-11.2078
▁dimsum	-11.2079
▁debut	-11.2079
▁Stesen	-11.208
▁iri	-11.2081
▁BU	-11.2082
▁oppa	-11.2083
▁Ganti	-11.2084
▁ride	-11.2085
▁MESYUARAT	-11.2086
▁screen	-11.2087
▁deg	-11.2088
▁Saja	-11.2089
Fatihah	-11.209
jj	-11.209
▁1996	-11.209
RIS	-11.2092
▁PUTRAJAYA	-11.2094
py	-11.2094
▁menafikan	-11.2096
▁beauty	-11.2096
▁tiri	-11.2096
kaya	-11.2097
▁kne	-11.2099
▁women	-11.2099
▁Shu	-11.21
bandar	-11.2101
cup	-11.2102
▁hello	-11.2103
▁keganasan	-11.2103
▁sotong	-11.2104
▁komited	-11.2107
▁psl	-11.2107
▁Pinggang	-11.2109
▁tmpt	-11.211
▁dunno	-11.2113
wangi	-11.2113
▁pompuan	-11.2113
▁Ladang	-11.2114
As	-11.2117
hor	-11.2118
▁lek	-11.2119
▁tq	-11.2122
▁juak	-11.2124
▁Kri	-11.213
llow	-11.2131
▁Peringkat	-11.2133
▁robot	-11.2133
TING	-11.214
▁mencatat	-11.214
▁gold	-11.2141
sea	-11.2141
dup	-11.2142
sn	-11.2142
turut	-11.2142
▁menaiki	-11.2143
nggo	-11.2144
▁Pasangan	-11.2144
KB	-11.2148
sma	-11.2148
▁lutut	-11.2149
▁nyo	-11.2149
▁mengalahkan	-11.2149
padu	-11.2151
cuk	-11.2152
down	-11.2153
EP	-11.2153
▁Merdeka	-11.2154
▁berlainan	-11.2156
uma	-11.2156
▁understand	-11.2156
▁haaa	-11.2156
▁Nusantara	-11.2157
▁ceritanya	-11.2158
▁1995	-11.2159
▁touch	-11.2159
ien	-11.2159
▁kesini	-11.216
▁hikmah	-11.2161
▁runcit	-11.2162
▁Lanjut	-11.2164
los	-11.2164
cover	-11.2164
▁pack	-11.2167
KER	-11.2168
▁sebegini	-11.2171
▁lautan	-11.2171
▁Mampu	-11.2172
ista	-11.2173
mina	-11.2173
amin	-11.2175
tsu	-11.2177
▁komp	-11.2178
RC	-11.2178
▁Kemen	-11.218
▁Jer	-11.2181
▁BT	-11.2182
ICE	-11.2182
ular	-11.2184
▁relationship	-11.2186
▁rasakan	-11.2187
▁menempatkan	-11.2188
▁selalunya	-11.2191
▁Kepulauan	-11.2191
▁masalahnya	-11.2192
▁memulai	-11.2193
▁sempet	-11.2193
lawan	-11.2198
UB	-11.2199
▁telat	-11.2199
2%	-11.22
▁Surah	-11.2201
▁BUMN	-11.2201
CON	-11.2201
▁terke	-11.2202
▁awet	-11.2204
mbong	-11.2206
▁menetap	-11.2206
rani	-11.2206
▁diarahkan	-11.2207
Untuk	-11.2208
▁kayanya	-11.221
▁Fo	-11.2213
▁diharapkan	-11.2213
awat	-11.2214
▁Konsultasi	-11.2214
▁imej	-11.2214
▁Format	-11.2215
▁BR	-11.2215
▁kecederaan	-11.2216
▁Mobil	-11.2217
▁UK	-11.2219
sco	-11.2219
▁menyiapkan	-11.222
▁Jasa	-11.222
▁013	-11.2221
Ri	-11.2222
pelajar	-11.2224
▁HAJI	-11.2225
▁hadapi	-11.2225
▁konten	-11.2227
puluh	-11.2227
▁Keadaan	-11.2227
cit	-11.2228
cas	-11.2229
▁See	-11.2232
cul	-11.2233
▁confess	-11.2233
▁Sidang	-11.2235
▁varian	-11.2235
▁mencuri	-11.2236
ringan	-11.2239
sangat	-11.2239
▁menyebarkan	-11.224
▁Mara	-11.2242
▁Aplikasi	-11.2243
▁otot	-11.2243
▁Zain	-11.2244
▁tisu	-11.2245
kos	-11.2248
fik	-11.2249
▁Thread	-11.225
pung	-11.2251
▁Kantor	-11.2252
▁autonomi	-11.2252
▁tulah	-11.2253
▁puan	-11.2257
▁diganti	-11.2258
▁Why	-11.226
▁pingat	-11.226
▁Cream	-11.2261
▁ngopi	-11.2262
▁eksport	-11.2264
▁menukar	-11.2266
▁dendam	-11.2267
▁tuju	-11.2269
▁kaunter	-11.2273
▁THREAD	-11.2275
▁against	-11.2275
▁skit	-11.2277
udi	-11.2277
▁shalat	-11.2278
▁Cyberjaya	-11.2279
verse	-11.228
▁miliki	-11.228
mn	-11.2281
park	-11.2281
▁tingkah	-11.2282
ero	-11.2283
▁bocah	-11.2284
▁melupakan	-11.2286
▁membantah	-11.2287
▁shawl	-11.2287
▁pemantauan	-11.2288
▁bile	-11.2289
▁fact	-11.2289
▁teksi	-11.2294
tuhan	-11.2295
▁pgn	-11.2296
▁uia	-11.2297
▁||	-11.2297
▁Bayi	-11.2297
▁beraksi	-11.2298
mpo	-11.2298
▁berjudul	-11.23
aji	-11.2301
fm	-11.2302
▁pembunuhan	-11.2303
▁label	-11.2304
▁looking	-11.2305
▁PPBM	-11.2306
▁Cap	-11.2311
▁menyakitkan	-11.2311
▁Street	-11.2315
▁peperangan	-11.2315
▁Game	-11.2315
▁fix	-11.2315
▁Lin	-11.2316
▁menda	-11.2317
▁siaran	-11.232
▁Sch	-11.2321
▁kol	-11.2321
syarikat	-11.2322
▁uwu	-11.2323
Mar	-11.2323
produk	-11.2325
▁mengemukakan	-11.2326
▁AB	-11.2328
goreng	-11.2328
▁Dewasa	-11.2329
▁gabung	-11.2329
zul	-11.2329
▁mengembalikan	-11.233
▁Blue	-11.2331
▁mer	-11.2331
▁Kenyataan	-11.2332
▁gigit	-11.2333
zone	-11.2333
ilang	-11.2334
▁Sul	-11.2335
▁Semuanya	-11.2337
Lo	-11.2337
▁keju	-11.2339
▁Gel	-11.2339
▁Pener	-11.234
▁ver	-11.234
▁mac	-11.2343
zai	-11.2343
370	-11.2345
▁kantoi	-11.2345
DER	-11.2347
▁chinese	-11.2347
▁GILA	-11.2348
▁Cakap	-11.235
▁dpn	-11.235
▁fe	-11.2351
▁Pin	-11.2351
▁diwujudkan	-11.2351
▁Kebun	-11.2353
▁Tam	-11.2354
▁highway	-11.2354
▁ATAU	-11.2355
▁ditinggalkan	-11.2357
▁Tandas	-11.2357
▁rmh	-11.2358
▁SHAH	-11.2358
mpi	-11.236
▁pkai	-11.2362
▁Besi	-11.2362
▁aroma	-11.2363
▁vcs	-11.2364
kut	-11.2368
GER	-11.237
▁gombak	-11.2372
unjuk	-11.2373
eks	-11.2373
marah	-11.2375
▁dibanding	-11.2375
kad	-11.2375
▁kuku	-11.2376
▁penah	-11.2376
▁lepaskan	-11.2376
imbang	-11.2378
TRA	-11.2378
▁David	-11.2379
peri	-11.2382
▁umno	-11.2384
▁Development	-11.2384
▁jadual	-11.2384
shirt	-11.2385
▁dialami	-11.2385
masak	-11.2387
haha	-11.2387
▁Syawal	-11.2387
▁Aisyah	-11.2388
▁Kesan	-11.239
▁Saudara	-11.239
jd	-11.2391
▁diserahkan	-11.2392
rif	-11.2392
▁basikal	-11.2393
▁Informasi	-11.2394
▁Butuh	-11.2396
▁tikus	-11.2397
▁National	-11.2398
▁Kesehatan	-11.2401
ical	-11.2402
Apa	-11.2404
▁Ayat	-11.2406
▁Comel	-11.2408
▁kencang	-11.2408
tubuh	-11.241
▁Komunis	-11.2411
NK	-11.2413
▁dalaman	-11.2414
▁Sejuk	-11.2415
▁stasiun	-11.2415
▁Borneo	-11.2418
▁seimbang	-11.2419
lapang	-11.2419
Go	-11.2421
▁pl	-11.2421
idah	-11.2421
▁fr	-11.2427
▁Setuju	-11.2428
▁igt	-11.2429
▁peta	-11.2431
lima	-11.2432
▁akn	-11.2433
▁pg	-11.2435
ampang	-11.2436
▁Ibnu	-11.2436
ator	-11.244
▁Ste	-11.2441
▁relevan	-11.2442
▁wall	-11.2443
kol	-11.2443
▁WE	-11.2444
2,000	-11.2448
non	-11.2448
▁Sur	-11.245
rl	-11.2451
▁funny	-11.2451
▁Daun	-11.2452
▁silakan	-11.2453
▁cape	-11.2453
▁berpotensi	-11.2453
▁Bun	-11.2455
▁ponsel	-11.2455
▁perkongsian	-11.2455
met	-11.2458
young	-11.2458
kiri	-11.2458
▁bucin	-11.246
▁berlian	-11.246
▁Ay	-11.2461
▁anyone	-11.2463
▁Memper	-11.2463
PL	-11.2464
▁ditanggung	-11.2464
ERA	-11.2464
▁TWITTER	-11.2465
▁poster	-11.2465
▁gereja	-11.2467
▁diraja	-11.2468
▁Hebat	-11.2468
NER	-11.2469
▁William	-11.2471
▁apatah	-11.2472
▁kandung	-11.2474
▁guess	-11.2475
▁reaksi	-11.2475
fur	-11.2475
▁UDAH	-11.2478
▁Mel	-11.248
▁Taehyung	-11.2481
▁mulanya	-11.2481
▁gurau	-11.2483
▁dimaklumkan	-11.2483
▁mendalam	-11.2484
▁pubg	-11.2485
▁JALAN	-11.2485
▁kesabaran	-11.2487
gai	-11.2487
▁George	-11.2488
▁kawal	-11.249
▁official	-11.2491
▁terperinci	-11.2492
▁syok	-11.2494
▁From	-11.2495
stu	-11.2495
▁Share	-11.2495
dhi	-11.2496
▁PRODUK	-11.2498
▁pemulihan	-11.2502
ath	-11.2503
▁sobat	-11.2504
perlu	-11.2504
▁beralih	-11.2504
▁warisan	-11.2505
sto	-11.2507
▁Geng	-11.2508
bumi	-11.2508
hwa	-11.2509
▁tersebar	-11.2509
▁Syria	-11.2514
▁port	-11.2514
▁max	-11.2517
▁bersalin	-11.2518
▁ipoh	-11.252
▁puluhan	-11.252
▁usus	-11.2522
▁Memba	-11.2523
▁Perusahaan	-11.2523
takan	-11.2524
▁Sesi	-11.2524
fri	-11.2524
▁Us	-11.2525
▁JDT	-11.2526
▁kode	-11.2527
▁mira	-11.2527
AZ	-11.2529
api	-11.253
▁Rendang	-11.2532
▁Run	-11.2533
▁Harun	-11.2535
▁bnyak	-11.2538
gis	-11.2538
aktif	-11.2538
▁beranak	-11.2542
▁semulajadi	-11.2543
▁akta	-11.2545
▁Zainal	-11.2545
▁roda	-11.2546
▁Alang	-11.2546
▁follback	-11.2547
▁Den	-11.2547
TOP	-11.2548
nto	-11.2549
▁penelitian	-11.255
dem	-11.2554
▁Banten	-11.2554
▁penyertaan	-11.2555
hong	-11.2559
ramah	-11.2559
▁Mie	-11.2561
▁tingkap	-11.2561
▁TERUS	-11.2561
▁0852	-11.2562
case	-11.2564
yal	-11.2565
▁mekanisme	-11.2567
▁UM	-11.2568
syari	-11.2572
▁pengurus	-11.2573
gulung	-11.2574
dian	-11.2575
▁1994	-11.2576
▁radikal	-11.2578
▁JPenerangan	-11.2578
▁teknikal	-11.2579
odo	-11.258
▁Had	-11.2581
▁club	-11.2581
awai	-11.2585
▁menoleh	-11.2585
seng	-11.2586
▁cut	-11.2586
jauh	-11.2586
▁berdarah	-11.2586
▁peran	-11.2587
▁Siasatan	-11.2589
▁mega	-11.259
PAT	-11.2592
▁isterinya	-11.2592
▁kepikiran	-11.2594
▁macamni	-11.2596
▁inovasi	-11.26
▁nyanyian	-11.26
▁kentang	-11.26
▁giler	-11.2601
▁konsumsi	-11.2604
▁rahmat	-11.2605
dg	-11.2606
agak	-11.2606
▁gempa	-11.2607
▁Luas	-11.2608
▁larangan	-11.2608
▁Ap	-11.2609
▁ditentukan	-11.261
▁munisipaliti	-11.2612
▁zip	-11.2612
isa	-11.2612
▁tri	-11.2613
▁cium	-11.2614
▁budi	-11.2615
mpit	-11.2615
▁lompat	-11.2616
▁Dress	-11.2617
▁Cup	-11.2617
▁Alex	-11.2618
▁Kurung	-11.2618
ANGAN	-11.2619
boo	-11.2621
▁smartphone	-11.2624
▁Pur	-11.2625
mpat	-11.2627
▁ngeri	-11.2627
▁Lampung	-11.2628
▁pasien	-11.2629
120	-11.2629
body	-11.2631
▁bercampur	-11.2632
▁Bulu	-11.2632
▁jomblo	-11.2632
▁hahahha	-11.2633
lock	-11.2633
▁mengharapkan	-11.2633
▁berupaya	-11.2634
▁oi	-11.2635
▁PERTAMA	-11.2635
▁forum	-11.2635
▁TK	-11.2637
GE	-11.2637
▁Sampe	-11.2638
▁kejam	-11.2638
▁tambang	-11.2638
kampung	-11.2638
vy	-11.2639
▁dipaksa	-11.2641
▁penyelenggaraan	-11.2641
▁green	-11.2641
▁Komuniti	-11.2643
▁seribu	-11.2644
▁Bayar	-11.2644
▁Soalnya	-11.2645
▁SPR	-11.2645
▁Acara	-11.2646
▁mengurus	-11.2647
▁merasmikan	-11.2651
▁Teringat	-11.2656
gitu	-11.2658
▁mencabar	-11.2658
▁SMS	-11.2659
▁saing	-11.2659
▁ujarnya	-11.2661
▁batal	-11.2663
▁city	-11.2663
▁Hat	-11.2664
▁manifesto	-11.2665
vis	-11.2665
▁taik	-11.2666
▁asalkan	-11.2667
▁Tom	-11.2667
hadi	-11.2668
▁Bah	-11.2668
170	-11.2671
▁goblok	-11.2674
▁Taknak	-11.2675
yra	-11.2676
▁Ash	-11.2676
▁Kampus	-11.2677
▁Pakar	-11.2681
▁bumiputera	-11.2681
▁nyampe	-11.2682
▁Wira	-11.2682
njang	-11.2683
▁sewajarnya	-11.2683
▁fu	-11.2684
karya	-11.2684
she	-11.2687
Ia	-11.2688
▁mark	-11.2689
▁melewati	-11.2689
▁bat	-11.269
▁Gabungan	-11.2693
▁Nusa	-11.2693
▁Mobile	-11.2697
rim	-11.2698
▁Penuh	-11.2699
▁Duduk	-11.27
besaran	-11.2701
▁koe	-11.2704
▁mng	-11.2704
▁dicari	-11.2705
▁wehh	-11.2707
▁pengu	-11.2708
▁Api	-11.2709
▁ECRL	-11.2709
▁Serdang	-11.271
▁Morning	-11.2711
▁teng	-11.2715
▁penulisan	-11.2718
hani	-11.2719
night	-11.272
▁iso	-11.272
▁95	-11.2722
Vi	-11.2722
▁tuuu	-11.2723
▁sikat	-11.2724
▁konsultasi	-11.2725
▁Rupanya	-11.2725
IB	-11.2729
▁SH	-11.2729
▁pernyataan	-11.2731
elo	-11.2733
▁melantik	-11.2733
benda	-11.2733
▁Bentuk	-11.2734
▁loan	-11.2734
▁print	-11.2736
▁Dong	-11.2736
pant	-11.2739
kena	-11.2739
lion	-11.2741
▁segan	-11.2744
▁catatan	-11.2745
▁Payudara	-11.2747
FL	-11.275
▁gugur	-11.2751
▁rahim	-11.2752
deg	-11.2754
▁brain	-11.2755
▁Kamar	-11.2758
▁liberal	-11.2758
▁klasik	-11.276
urai	-11.2762
Ko	-11.2763
▁JOM	-11.2764
GM	-11.2765
▁Dok	-11.2766
▁police	-11.2767
▁petunjuk	-11.2769
▁facebook	-11.2769
some	-11.2769
▁lgsg	-11.2773
AWA	-11.2775
nggi	-11.2775
▁Galaxy	-11.2777
▁mencuba	-11.2777
kecil	-11.2778
▁serendah	-11.2781
taq	-11.2783
▁125	-11.2784
▁thai	-11.2784
▁Virus	-11.2786
▁kemain	-11.2787
▁Band	-11.2787
7%	-11.2788
▁income	-11.2788
bik	-11.2788
ory	-11.279
▁Madu	-11.2792
▁Anis	-11.2793
dil	-11.2794
▁laper	-11.2795
▁protes	-11.2797
▁coming	-11.2798
suke	-11.2799
▁jersi	-11.28
▁bakso	-11.2801
▁spread	-11.2803
▁Brown	-11.2804
▁Peti	-11.2808
ric	-11.2809
▁mengamuk	-11.2809
▁Kas	-11.2811
▁Tadika	-11.2814
▁staf	-11.2816
sayang	-11.2816
▁Termasuk	-11.2818
▁kabur	-11.282
▁Haaa	-11.2822
▁lt	-11.2825
▁SUPER	-11.2826
trol	-11.2828
▁karoke	-11.2831
▁mang	-11.2834
ggg	-11.2839
▁sian	-11.284
▁cukur	-11.284
bantu	-11.2842
▁pijak	-11.2843
you	-11.2844
lil	-11.2846
dekat	-11.2847
▁kebudayaan	-11.2849
rab	-11.2851
▁menjatuhkan	-11.2855
▁students	-11.2862
akh	-11.2862
▁gantung	-11.2866
▁berpisah	-11.2866
▁Lip	-11.2868
▁Vo	-11.287
▁kalori	-11.2871
▁AKAN	-11.2872
▁sebaiknya	-11.2875
▁Bidang	-11.2875
cerita	-11.2877
▁Bukannya	-11.2879
eun	-11.2881
▁menyanyi	-11.2882
▁baja	-11.2885
▁Revolusi	-11.2885
▁SAMPAI	-11.2888
stro	-11.2888
▁Haute	-11.2889
DM	-11.2889
▁rp	-11.2889
▁snack	-11.2889
▁celcom	-11.289
▁myself	-11.2894
▁english	-11.2895
▁ramah	-11.2896
▁Pemain	-11.2896
▁Yassin	-11.2898
▁licin	-11.2898
▁Pemba	-11.2898
▁pameran	-11.2898
▁minister	-11.2899
▁kehabisan	-11.2901
▁Haah	-11.2901
▁PERHATIAN	-11.2901
▁citer	-11.2902
▁III	-11.2904
Ya	-11.2907
▁Duh	-11.2907
ucap	-11.2909
sup	-11.2911
▁shu	-11.2911
▁else	-11.2911
▁Pizza	-11.2913
▁seb	-11.2914
▁menawan	-11.2916
▁act	-11.2917
rna	-11.2924
▁Tour	-11.2924
Jika	-11.2924
▁ketakutan	-11.2924
▁kp	-11.2927
▁cerdas	-11.2928
yat	-11.2928
▁station	-11.293
▁Gunakan	-11.2931
▁YouTube	-11.2932
▁internasional	-11.2932
▁dianjurkan	-11.2932
▁jan	-11.2933
▁melu	-11.2935
▁umi	-11.2936
▁menghina	-11.2938
▁Polres	-11.2938
▁terputus	-11.2938
▁might	-11.294
127	-11.2941
▁Ch	-11.2942
▁Habib	-11.2943
▁penghuni	-11.2944
LAT	-11.2945
▁kit	-11.2945
▁wifi	-11.2945
▁kabinet	-11.2946
hijab	-11.2947
▁kandar	-11.2951
▁diperbuat	-11.2952
cet	-11.2952
hair	-11.2953
▁Eks	-11.2958
▁Rama	-11.2958
▁menjerit	-11.2959
▁penipuan	-11.296
▁Reply	-11.296
▁suay	-11.296
▁kerosakan	-11.296
fal	-11.2961
▁ntah	-11.2963
▁CEO	-11.2964
▁erat	-11.2965
▁berturut	-11.2965
▁niii	-11.2967
▁warganegara	-11.2968
OB	-11.2973
▁demand	-11.2975
hel	-11.2976
▁Tua	-11.2976
▁sister	-11.2979
▁ABDUL	-11.2979
▁Yaa	-11.2979
▁tabah	-11.2982
ncing	-11.2982
▁nyu	-11.2983
▁110	-11.2985
Kalau	-11.2985
campur	-11.2985
▁Hungary	-11.2985
Gu	-11.2988
ND	-11.2989
seri	-11.299
▁sell	-11.2991
▁OKU	-11.2991
▁pasca	-11.2992
undur	-11.2993
▁pertempuran	-11.2993
▁taun	-11.2994
▁Water	-11.2997
▁dikemukakan	-11.2997
KET	-11.2998
tp	-11.2999
▁karet	-11.3
▁Johan	-11.3
▁tnya	-11.3
OF	-11.3
NP	-11.3001
▁Kay	-11.3001
▁bae	-11.3002
▁Mang	-11.3003
▁Andai	-11.3004
jil	-11.3007
▁pondok	-11.3009
▁English	-11.301
TION	-11.301
▁kebencian	-11.3012
▁sedara	-11.3013
▁kontraktor	-11.3014
▁Paris	-11.3015
▁landasan	-11.3018
▁Bersih	-11.3018
▁Abg	-11.3019
▁panggung	-11.3019
LING	-11.3021
▁PERCUMA	-11.3022
▁benih	-11.3022
▁masanya	-11.3022
▁persetujuan	-11.3024
▁leader	-11.3028
▁Huawei	-11.3028
▁bersamaan	-11.3029
▁Tre	-11.303
▁Land	-11.3032
cro	-11.3032
lep	-11.3032
▁clean	-11.3032
▁kill	-11.3033
▁weyh	-11.3033
well	-11.3035
▁basic	-11.3035
▁yi	-11.3035
Unit	-11.3036
Mak	-11.3037
▁till	-11.3037
▁Penggunaan	-11.3037
bunga	-11.304
▁Bandaraya	-11.304
▁mencecah	-11.3041
▁UP	-11.3041
▁Qur	-11.3043
▁menjaringkan	-11.3044
ugh	-11.3045
▁cleanser	-11.3045
▁PENG	-11.3047
▁insentif	-11.3049
▁Dada	-11.305
▁nakal	-11.3051
▁stalk	-11.3053
▁duh	-11.3054
budak	-11.3054
▁Maybe	-11.3054
▁profile	-11.3055
nc	-11.3055
▁Nomor	-11.3058
pra	-11.3059
▁saatnya	-11.3059
▁bersa	-11.3059
▁Pengalaman	-11.3061
ato	-11.3062
NU	-11.3064
Fi	-11.3064
▁Road	-11.3066
▁using	-11.3066
▁Budi	-11.3066
masuk	-11.3067
▁pindaan	-11.3069
▁Terlalu	-11.307
rina	-11.3072
▁perbedaan	-11.3073
▁note	-11.3075
▁kesedihan	-11.3075
▁600	-11.3076
▁saldo	-11.3076
tech	-11.3077
Ge	-11.3079
YU	-11.3081
PRU	-11.3081
▁LAH	-11.3083
▁bermasalah	-11.3083
▁Laluan	-11.3084
▁maksimum	-11.3086
▁Menge	-11.3086
▁accident	-11.3088
▁penuaan	-11.309
HE	-11.3093
▁diorder	-11.3093
▁beratur	-11.3093
▁formal	-11.3094
▁Sejadah	-11.3094
▁together	-11.3094
AKAN	-11.3097
Jadi	-11.3097
▁mustahil	-11.3098
▁Bakal	-11.3099
IYA	-11.3102
▁Hafiz	-11.3103
▁IT	-11.3104
▁peka	-11.3105
▁Pesta	-11.3106
▁SUKA	-11.3106
▁sepeda	-11.3106
viral	-11.3106
kalau	-11.3107
▁Tutup	-11.3108
▁Tentang	-11.3109
▁berebut	-11.311
nut	-11.3113
SN	-11.3114
▁cake	-11.3115
▁Bel	-11.3117
▁kelima	-11.3117
▁raga	-11.3118
▁KPM	-11.3118
▁kaka	-11.3118
sungguh	-11.3119
▁IS	-11.312
▁iHeartAwards	-11.3121
ALA	-11.3122
▁Tulis	-11.3123
▁BEST	-11.3123
▁They	-11.3124
▁Chelsea	-11.3125
▁hbis	-11.3125
gem	-11.3126
ins	-11.3126
▁Asy	-11.3128
tos	-11.3132
▁ingatan	-11.3135
▁bandara	-11.3136
▁upacara	-11.3136
rad	-11.3138
5%;	-11.3138
▁Fakta	-11.3138
PB	-11.3139
▁SEBELUM	-11.3142
4%	-11.3143
▁kagak	-11.3143
▁booking	-11.3145
LAK	-11.3147
WE	-11.3147
cai	-11.3147
▁simbol	-11.3147
▁membiarkan	-11.3148
▁direka	-11.3148
▁Ehh	-11.3148
▁kor	-11.3149
▁West	-11.3152
▁wis	-11.3152
▁berenang	-11.3153
▁Bupati	-11.3154
▁Art	-11.3154
henti	-11.3155
▁Pandan	-11.3155
▁agent	-11.3156
▁Fit	-11.3156
▁pegangan	-11.3157
▁Bapa	-11.3158
▁isyarat	-11.3159
▁KERJA	-11.316
▁Pondok	-11.3161
▁Tawar	-11.3165
▁Ngga	-11.3167
▁COVID	-11.3169
emp	-11.3169
▁Tiket	-11.3169
baya	-11.3169
▁Kegiatan	-11.3171
▁disimpan	-11.3172
lent	-11.3173
▁temui	-11.3176
▁Knp	-11.3177
▁especially	-11.3177
▁dirancang	-11.3177
▁Kebudayaan	-11.3181
mpe	-11.3183
▁stuff	-11.3184
TRI	-11.3185
▁Pahat	-11.3186
▁erti	-11.3188
▁Batin	-11.319
gro	-11.3191
iye	-11.3192
▁taktahu	-11.3193
▁Law	-11.3195
▁Jimin	-11.3196
▁dibakar	-11.3199
print	-11.3199
▁finish	-11.3199
▁tempe	-11.3199
▁mek	-11.3199
ica	-11.32
▁ptg	-11.32
bay	-11.3201
▁guling	-11.3203
▁tele	-11.3204
dri	-11.3205
laksana	-11.3205
▁Tapak	-11.3208
▁Qi	-11.3208
▁POSTAGE	-11.3208
NS	-11.3209
order	-11.321
▁gigih	-11.3211
▁sex	-11.3211
lli	-11.3214
▁Ayuh	-11.3214
ngah	-11.3215
larang	-11.3215
▁Sta	-11.3215
▁lembar	-11.3218
▁keuangan	-11.3219
▁malaikat	-11.3221
▁Serum	-11.3222
▁Milo	-11.3223
temu	-11.3224
▁bara	-11.3226
▁hahahahah	-11.3226
reh	-11.3226
▁terluka	-11.3231
▁PARLIMEN	-11.3233
var	-11.3235
KAL	-11.3238
JKT	-11.3238
KM	-11.3241
▁past	-11.3242
kelas	-11.3243
▁Diam	-11.3247
soal	-11.3247
▁dibunuh	-11.3248
▁Hendak	-11.3249
▁menja	-11.3251
▁bujang	-11.3252
dj	-11.3252
▁keluasan	-11.3254
▁Stock	-11.3255
▁murni	-11.3256
▁Maria	-11.3256
minggu	-11.3256
▁sosiologi	-11.3256
wen	-11.3257
▁Mene	-11.3261
ph	-11.3262
▁relax	-11.3263
onal	-11.3263
ging	-11.3263
▁Woo	-11.3265
zir	-11.3265
▁membuatku	-11.3267
▁Niat	-11.3268
vie	-11.3269
iman	-11.3271
hr	-11.3272
CP	-11.3273
▁pener	-11.3275
с	-11.3276
▁TAHUN	-11.3278
▁Suatu	-11.328
▁Lebar	-11.3281
▁Perbadanan	-11.3282
▁peringatan	-11.3282
▁dijumpai	-11.3282
▁perkampungan	-11.3284
▁tante	-11.3285
▁Robert	-11.3285
▁anime	-11.3285
▁HD	-11.3285
Sport	-11.3286
▁dolar	-11.3286
▁After	-11.3287
▁suaranya	-11.3288
▁TERBAIK	-11.3288
▁Lemak	-11.3288
▁Zakir	-11.3289
stor	-11.3289
halang	-11.3292
▁include	-11.3294
▁Maszlee	-11.3294
▁cotton	-11.3294
▁Kemarin	-11.3295
▁hy	-11.3295
▁alaihi	-11.3296
card	-11.3298
▁AND	-11.3298
▁sawah	-11.3299
▁NEW	-11.3299
▁seksyen	-11.3299
▁kabupaten	-11.3301
ddy	-11.3302
DN	-11.3303
▁Station	-11.3303
putih	-11.3306
GAR	-11.3308
ikal	-11.331
▁exo	-11.3312
alah	-11.3312
▁1970	-11.3312
▁ASLI	-11.3313
▁action	-11.3313
▁trending	-11.332
▁0878	-11.3321
▁Kelab	-11.3321
▁dalem	-11.3323
▁BATU	-11.3324
▁others	-11.3327
▁ser	-11.3328
▁persepsi	-11.3328
▁blg	-11.3329
▁Jati	-11.3329
▁Mengikut	-11.3333
▁merayu	-11.3335
ganti	-11.3336
hay	-11.3337
▁angkatan	-11.3338
store	-11.334
▁seger	-11.334
▁Kitab	-11.3341
▁kopiah	-11.3343
▁dianggarkan	-11.3343
▁pengembangan	-11.3343
qq	-11.3343
▁elak	-11.3344
▁having	-11.3344
▁identiti	-11.3344
geng	-11.3348
▁ceria	-11.335
▁Terdahulu	-11.335
kemas	-11.3351
cher	-11.3352
rti	-11.3354
▁king	-11.3354
▁search	-11.3356
▁learn	-11.3357
ukan	-11.3357
▁tertera	-11.3359
▁belakangan	-11.3359
Th	-11.3361
▁kontroversi	-11.3362
▁Asam	-11.3362
▁idola	-11.3363
▁sesat	-11.3364
WAR	-11.3369
▁looks	-11.3369
▁64	-11.337
▁ALAN	-11.3372
▁Kam	-11.3374
ess	-11.3374
▁mengesan	-11.3379
▁Coklat	-11.3379
indah	-11.3382
▁helai	-11.3382
zali	-11.3384
▁Wu	-11.3385
mbing	-11.3386
▁2017,	-11.3387
▁mikirin	-11.3388
▁pang	-11.339
olo	-11.3391
▁Thai	-11.3391
▁Join	-11.3392
cukup	-11.3393
bakar	-11.3394
aba	-11.3394
▁penca	-11.3395
DC	-11.3397
▁Lang	-11.3397
▁Selat	-11.3402
▁Price	-11.3404
▁fat	-11.3405
YO	-11.3406
▁SY	-11.3406
▁Mena	-11.3407
▁aing	-11.3408
▁paiseh	-11.3409
▁seen	-11.3411
▁Villa	-11.3412
Mi	-11.3412
ulasi	-11.3413
city	-11.3415
▁keindahan	-11.3415
▁Simpan	-11.3418
▁balai	-11.3418
999	-11.3418
▁Pulang	-11.3422
pikir	-11.3423
▁disiplin	-11.3423
▁padat	-11.3423
▁meneliti	-11.3424
▁KOK	-11.3424
▁Pilpres	-11.3424
TAM	-11.3425
▁testimoni	-11.3427
jib	-11.3428
▁terjatuh	-11.3428
BD	-11.3431
▁Tugas	-11.3432
IF	-11.3432
▁Retweet	-11.3433
girl	-11.3436
bungkus	-11.3436
kawasan	-11.3441
▁kee	-11.3442
▁bacot	-11.3447
▁handle	-11.3447
▁mengundang	-11.3448
▁tumpang	-11.345
▁2016,	-11.345
rail	-11.345
▁elaun	-11.345
▁Walk	-11.3455
harga	-11.3455
▁melanda	-11.3455
Syiah	-11.3455
105	-11.3456
▁180	-11.3456
▁North	-11.3459
▁++	-11.3459
▁dijaga	-11.3459
ihan	-11.3459
▁iku	-11.3462
fak	-11.3464
▁Datin	-11.3464
home	-11.3464
▁SRI	-11.3465
TY	-11.3466
▁struggle	-11.3467
▁NGE	-11.3467
▁Tanggal	-11.3468
▁tunduk	-11.3468
▁Hani	-11.3469
▁tekak	-11.3471
Shop	-11.3472
▁due	-11.3472
▁Song	-11.3473
ALI	-11.3473
▁nipis	-11.3476
cipta	-11.3477
MR	-11.3478
▁101	-11.3478
▁hantaran	-11.348
▁Tubuh	-11.348
zak	-11.348
nat	-11.3482
▁early	-11.3482
zin	-11.3483
▁decide	-11.3486
Tak	-11.3489
ole	-11.3489
▁Paya	-11.349
▁Muzium	-11.349
▁Adu	-11.3491
mban	-11.3493
sudah	-11.3494
sho	-11.3494
▁Pink	-11.3495
▁Zip	-11.3496
▁asked	-11.3498
▁sho	-11.3498
▁getting	-11.3499
▁dituduh	-11.3499
▁jati	-11.3502
tafsir	-11.3505
▁mei	-11.3505
▁ayu	-11.3505
▁jumat	-11.3507
▁DAPAT	-11.3508
ADI	-11.3508
▁exp	-11.3513
▁fasilitas	-11.3514
▁takdak	-11.3516
▁sofa	-11.3523
▁Cukai	-11.3523
▁keluaran	-11.3524
▁Perubahan	-11.3525
vers	-11.3526
%	-11.3526
▁CANTIK	-11.3526
▁beres	-11.3527
▁Sobat	-11.3528
serv	-11.3529
▁Utusan	-11.3529
▁KULIT	-11.3531
▁scrub	-11.3531
▁Rak	-11.3531
ground	-11.3535
▁lena	-11.3535
▁garang	-11.3536
▁membahas	-11.3537
ة	-11.3538
▁BANK	-11.3539
▁kewujudan	-11.354
▁apps	-11.3542
▁beautiful	-11.3542
▁menyedari	-11.3543
199	-11.3543
▁hawa	-11.3544
gs	-11.3544
▁wash	-11.3545
BUR	-11.3546
▁multi	-11.3547
JE	-11.3548
▁Sea	-11.3548
▁Ingatkan	-11.355
▁ending	-11.3552
minimalis	-11.3552
▁zahir	-11.3553
▁berniaga	-11.3553
▁Bernama	-11.3553
▁jutaan	-11.3553
▁mal	-11.3556
AAN	-11.3557
▁bersabda	-11.3557
▁Biru	-11.3557
▁dikendalikan	-11.3559
▁Penduduk	-11.356
pie	-11.356
▁1993	-11.3561
▁daddy	-11.3562
sembunyi	-11.3563
wer	-11.3566
medan	-11.3566
cra	-11.3567
▁push	-11.3567
Man	-11.3569
▁semakan	-11.3569
unik	-11.3569
▁kantong	-11.357
▁baper	-11.357
loss	-11.3574
ayah	-11.3575
JAK	-11.3575
▁Rad	-11.3576
▁kemunculan	-11.3577
▁jendela	-11.3577
shah	-11.358
UD	-11.3582
alis	-11.3582
pop	-11.3583
▁pojok	-11.3584
▁Kara	-11.3584
▁Selagi	-11.3585
▁Pelancongan	-11.3585
▁gemok	-11.3586
▁ajaa	-11.3587
▁Belanja	-11.3589
jae	-11.3591
▁Hay	-11.3591
▁BAIK	-11.3593
▁judge	-11.3594
▁kuala	-11.3598
▁baka	-11.3598
6%	-11.36
kus	-11.3603
aj	-11.3604
▁maghrib	-11.3605
▁disiasat	-11.3605
▁craving	-11.3607
▁psikologi	-11.3607
ambang	-11.3612
▁membesar	-11.3615
▁penya	-11.3615
▁mestilah	-11.3618
▁menyusahkan	-11.362
DP	-11.3621
▁tida	-11.3622
▁Adib	-11.3622
▁Sebaliknya	-11.3622
▁automatik	-11.3622
▁menanggung	-11.3623
▁tenggelam	-11.3624
▁Shin	-11.3625
gut	-11.3626
▁pdhl	-11.3627
▁matter	-11.3627
▁Jak	-11.3628
keh	-11.3628
ngi	-11.3628
▁ahad	-11.3628
▁HAHAHAHAHA	-11.363
▁LIVE	-11.363
▁tercinta	-11.363
▁telor	-11.3631
▁neh	-11.3633
dasar	-11.3633
▁ditunggu	-11.3633
▁blah	-11.3633
wani	-11.3635
▁fenomena	-11.3635
▁bokep	-11.3636
rp	-11.3637
▁portal	-11.3639
▁effect	-11.3639
▁kado	-11.364
Kanak	-11.3641
▁dikawal	-11.3643
▁sticker	-11.3643
▁Pancasila	-11.3643
hitam	-11.3644
▁Soviet	-11.3644
▁Ky	-11.3644
▁Peraturan	-11.3645
▁sales	-11.3645
▁Hallo	-11.3645
AC	-11.3646
▁mk	-11.3648
oq	-11.3649
▁PUNYA	-11.365
bangsa	-11.3653
rga	-11.3654
450	-11.3654
▁Sweet	-11.3655
▁Bawah	-11.3656
▁Tokyo	-11.3656
▁Pertanyaan	-11.3657
gum	-11.3659
▁Peter	-11.366
▁gik	-11.366
▁Liat	-11.366
lawat	-11.3662
vent	-11.3663
▁iktibar	-11.3664
▁hormon	-11.3665
▁Mahmud	-11.3665
▁pesta	-11.3666
▁Col	-11.3666
ile	-11.3667
▁Rose	-11.3667
▁56	-11.3667
▁Gelar	-11.3668
▁Perubatan	-11.3669
bahagian	-11.367
▁Ven	-11.3672
▁Ais	-11.3672
▁Ramli	-11.3672
tensi	-11.3672
▁Din	-11.3673
▁Seru	-11.3674
JAN	-11.3675
▁panel	-11.3676
▁sempit	-11.3678
▁amaran	-11.3678
▁Hana	-11.3682
bangun	-11.3683
▁sela	-11.3686
▁aiskrim	-11.3688
▁Apapun	-11.3689
itan	-11.3689
▁Mom	-11.369
▁Olahraga	-11.369
TC	-11.3691
▁cetak	-11.3694
▁famous	-11.3696
▁korporat	-11.3697
▁gelombang	-11.3697
▁merusak	-11.3699
▁digantikan	-11.3699
▁gym	-11.37
▁lai	-11.3702
hahahahha	-11.3703
▁Misi	-11.3704
▁Mary	-11.3705
▁keping	-11.3706
▁jago	-11.3707
▁gem	-11.3708
▁Sedikit	-11.3709
▁mendidik	-11.3709
▁ucapkan	-11.371
▁terharu	-11.3711
arang	-11.3712
▁komunitas	-11.3713
▁ide	-11.3713
▁Ohh	-11.3715
stat	-11.3718
▁Pemenang	-11.3718
▁persidangan	-11.3719
▁memelihara	-11.3721
▁Yakin	-11.3722
▁Daya	-11.3723
ire	-11.3723
▁kantin	-11.3724
▁DULU	-11.3725
▁Tea	-11.3726
NGGA	-11.3728
HAM	-11.3729
JUTA	-11.3731
▁jaya	-11.3731
▁statistik	-11.3732
sub	-11.3736
▁track	-11.3737
▁Pet	-11.3738
▁dihadiri	-11.3743
HH	-11.3744
contoh	-11.3748
▁gmbr	-11.3751
▁Laki	-11.3751
▁mendirikan	-11.3754
▁lapor	-11.3755
gian	-11.3755
ln	-11.3757
▁dinilai	-11.3759
▁1992	-11.376
▁hemat	-11.376
▁Rohingya	-11.376
tttt	-11.3761
▁Rus	-11.3762
opi	-11.3763
▁latitude	-11.3764
▁instead	-11.3765
▁jadwal	-11.3765
dagang	-11.3765
lupa	-11.3766
▁Ciri	-11.3766
NT	-11.3768
▁Hubungan	-11.377
afi	-11.3771
dium	-11.3772
elok	-11.3772
▁ketuk	-11.3773
▁trying	-11.3775
pihak	-11.3776
▁Osman	-11.3777
tation	-11.3779
▁Ulang	-11.3779
▁eye	-11.3779
▁sms	-11.3779
Aja	-11.3781
▁Nam	-11.3782
▁pemaju	-11.3785
▁Pls	-11.3785
▁140	-11.3787
▁dinaikkan	-11.3787
▁deras	-11.3788
▁terjangkau	-11.3791
▁rupiah	-11.3792
▁bersara	-11.3792
▁Peluang	-11.3794
bert	-11.3794
▁Taiping	-11.3796
luas	-11.3797
▁blouse	-11.3797
hasil	-11.3797
▁mur	-11.3799
▁Boy	-11.3801
▁based	-11.3803
▁Cla	-11.3803
▁Sambal	-11.3804
▁door	-11.3805
▁Sebelah	-11.3811
▁Bayan	-11.3811
▁ay	-11.3812
▁FOR	-11.3812
▁melayan	-11.3814
▁putri	-11.3814
▁eyes	-11.3815
▁perwakilan	-11.3816
ilan	-11.3817
oe	-11.3818
▁ato	-11.3819
▁kepemimpinan	-11.382
sut	-11.3824
yon	-11.3827
▁Moh	-11.3828
nun	-11.3832
▁Bandara	-11.3833
ching	-11.3834
▁XS	-11.3836
▁tubuhnya	-11.3838
▁Paduka	-11.3842
sch	-11.3842
▁With	-11.3843
▁Fungsi	-11.3845
▁bekasi	-11.3846
▁Harry	-11.3847
▁Non	-11.3848
▁barai	-11.3848
MBA	-11.3849
▁bende	-11.385
▁Promosi	-11.3851
▁Empayar	-11.3851
▁kekerasan	-11.3851
▁worth	-11.3852
▁lee	-11.3852
▁sharing	-11.3853
▁LD	-11.3854
▁PROMOSI	-11.3855
▁store	-11.3855
Rakyat	-11.3856
sos	-11.3856
▁tiang	-11.3858
▁Harta	-11.3858
deng	-11.3859
tiap	-11.3859
▁bercadang	-11.386
▁PD	-11.3863
▁attack	-11.3864
▁Perniagaan	-11.3865
▁BULAN	-11.3865
▁0896	-11.3867
bagus	-11.3867
▁gosok	-11.3867
Dalam	-11.3867
▁butter	-11.3868
▁Marah	-11.3868
uar	-11.3869
▁Ong	-11.3871
▁borneo	-11.3872
▁bln	-11.3872
▁merdeka	-11.3873
MAL	-11.3874
▁kebanyakannya	-11.3874
nen	-11.3875
▁sekeluarga	-11.3875
▁Penge	-11.3878
ORI	-11.3879
stik	-11.3879
▁Hor	-11.3882
▁bgi	-11.3884
▁Celana	-11.3886
▁Reformasi	-11.3886
▁menenangkan	-11.3892
▁del	-11.3892
rh	-11.3892
KG	-11.3893
▁thinking	-11.3893
pam	-11.3894
▁menantu	-11.3894
▁gelang	-11.3896
▁54	-11.3898
▁Batam	-11.3899
leg	-11.39
▁keatas	-11.3902
10,000	-11.3902
▁Special	-11.3903
▁setinggi	-11.3905
oksida	-11.3907
UANG	-11.3907
▁langgor	-11.3908
▁Reg	-11.3908
▁seiring	-11.3909
▁Jeneral	-11.391
▁Kualitas	-11.391
▁terlambat	-11.3913
▁Bay	-11.3913
▁misteri	-11.3918
jumbo	-11.3918
▁Formula	-11.3919
▁feb	-11.3919
beng	-11.3919
▁alarm	-11.392
▁nyi	-11.392
▁Serikat	-11.3922
bt	-11.3923
cis	-11.3924
▁mengo	-11.3925
▁James	-11.3926
SAH	-11.3927
SING	-11.3931
▁berka	-11.3931
runding	-11.3931
Do	-11.3932
▁Menggunakan	-11.3933
▁upah	-11.3934
▁ikat	-11.3935
bagai	-11.3935
▁jaa	-11.3935
▁App	-11.3938
STI	-11.3938
▁continue	-11.3939
ev	-11.394
▁turunkan	-11.394
aah	-11.3941
ere	-11.3943
▁saying	-11.3943
▁pelancaran	-11.3943
tot	-11.3945
▁Apple	-11.3946
▁Gar	-11.3947
▁wad	-11.3948
▁working	-11.3951
ili	-11.3951
rid	-11.3952
▁musnah	-11.3953
▁Palembang	-11.3953
harap	-11.3954
2018	-11.3954
▁Jadual	-11.3954
▁SAHAJA	-11.3955
GET	-11.3956
▁longtitud	-11.3956
▁mempelajari	-11.3957
▁COM	-11.3958
▁didik	-11.3963
▁prihatin	-11.3964
▁Taiwan	-11.3965
WO	-11.3967
▁sunnah	-11.3968
▁late	-11.3969
▁bwk	-11.3969
geh	-11.397
▁terkesan	-11.3972
▁mb	-11.3973
▁khasiat	-11.3977
PAS	-11.3978
▁santan	-11.3979
▁dara	-11.3979
▁Mencegah	-11.3979
▁Hamzah	-11.3982
tom	-11.3982
▁Tae	-11.3982
▁seawal	-11.3984
▁askar	-11.3984
▁SUDAH	-11.3986
▁gerai	-11.3986
▁Pelbagai	-11.3988
▁dipindahkan	-11.3989
cial	-11.3989
▁Kaum	-11.3989
wajah	-11.3992
▁Switzerland	-11.3993
▁melarang	-11.3993
▁Gal	-11.3993
▁utang	-11.3995
beda	-11.3995
▁Music	-11.3995
▁Penerangan	-11.3996
▁Honda	-11.3996
▁melekat	-11.3998
GH	-11.3998
▁galak	-11.3999
▁ingt	-11.4
▁kritikal	-11.4
edu	-11.4001
news	-11.4002
▁Gereja	-11.4002
▁kut	-11.4004
bentuk	-11.4005
▁Boss	-11.4005
▁rumput	-11.4007
TIK	-11.4009
▁sepasang	-11.4009
▁PEM	-11.401
ned	-11.4011
▁Fan	-11.4013
▁pabrik	-11.4013
▁Singh	-11.4018
▁pelarian	-11.4018
▁Scarynya	-11.402
▁praktikal	-11.4022
▁tulus	-11.4027
▁pekat	-11.4028
▁responden	-11.4029
jas	-11.403
▁Putri	-11.403
▁mne	-11.4031
▁pesat	-11.4031
rma	-11.4032
▁Shari	-11.4034
▁Era	-11.4036
LS	-11.4037
tz	-11.4042
ngg	-11.4043
▁Tra	-11.4044
▁Mujahid	-11.4047
▁Sukses	-11.4047
cos	-11.4049
▁bedak	-11.4049
▁diter	-11.4049
▁Laksa	-11.405
sau	-11.405
▁hijrah	-11.405
pilih	-11.4051
▁credit	-11.4052
▁ish	-11.4054
▁Suci	-11.4055
ain	-11.4055
hulu	-11.4056
▁hero	-11.4057
▁Penyelidikan	-11.4058
cell	-11.4058
▁bleh	-11.4059
janji	-11.4059
doh	-11.4062
hut	-11.4063
▁coz	-11.4064
ier	-11.4065
▁quality	-11.4065
▁poslaju	-11.4066
▁membenci	-11.4066
▁Come	-11.4067
ngkal	-11.407
▁diangkat	-11.407
▁cem	-11.4072
▁organik	-11.4073
▁bengkel	-11.4073
▁mulakan	-11.4073
▁Center	-11.4074
merta	-11.4079
▁safe	-11.408
▁ciptaan	-11.408
▁PS	-11.4084
tet	-11.4085
▁pretty	-11.4087
▁piala	-11.4089
▁tmn	-11.409
▁Zai	-11.409
▁pat	-11.409
ESS	-11.409
▁nikmati	-11.4091
ass	-11.4092
▁sebutan	-11.4093
ingan	-11.4093
AME	-11.4093
▁menyadari	-11.4093
kopi	-11.4097
▁kurangkan	-11.4098
alun	-11.4098
▁samsung	-11.4098
▁diiktiraf	-11.4098
▁Ish	-11.4099
▁Ratu	-11.4099
▁penghantaran	-11.41
ash	-11.41
▁undangan	-11.4101
imi	-11.4102
▁toxic	-11.4102
bala	-11.4102
▁Ijazah	-11.4104
▁orangnya	-11.4105
pir	-11.4105
aziz	-11.4105
kait	-11.4105
vas	-11.4107
▁colour	-11.4107
▁Undi	-11.4109
▁bed	-11.411
▁ortu	-11.4111
▁mostly	-11.4113
▁gambaran	-11.4114
▁balasan	-11.4114
▁ular	-11.4115
▁memperjuangkan	-11.4116
▁trauma	-11.4116
▁tersayang	-11.4116
▁2015,	-11.4117
▁ditarik	-11.4118
745	-11.412
MK	-11.4121
▁Penasihat	-11.4121
▁kera	-11.4123
ulu	-11.4125
▁gabut	-11.4125
cir	-11.4125
Pada	-11.4125
asih	-11.4126
tive	-11.4127
▁peri	-11.4127
▁Percaya	-11.4128
▁herbal	-11.4129
▁Kadar	-11.4129
alik	-11.4131
▁Koperasi	-11.4134
▁Tel	-11.4134
▁AR	-11.4136
▁praktis	-11.4136
▁Cendol	-11.4137
anjing	-11.4137
Is	-11.4138
▁sudu	-11.4138
masalah	-11.4138
isha	-11.414
APA	-11.4142
rey	-11.4145
▁lantas	-11.4147
▁teka	-11.4148
▁Gojek	-11.4148
▁diuji	-11.4148
▁BODOH	-11.4149
▁dekad	-11.415
▁Masker	-11.4151
▁minda	-11.4154
▁release	-11.4155
▁Body	-11.4156
▁surprise	-11.4157
▁renang	-11.4157
▁Cal	-11.4159
langka	-11.416
▁accept	-11.4162
▁build	-11.4162
▁Keadilan	-11.4163
beri	-11.4163
TOK	-11.4163
▁beribu	-11.4164
▁lh	-11.4164
ugut	-11.4165
212	-11.4166
▁Kasian	-11.4168
▁NAMA	-11.4168
▁hisap	-11.4169
▁kui	-11.417
▁PJ	-11.417
▁Gol	-11.417
▁jeans	-11.4171
▁sarang	-11.4172
▁Alias	-11.4175
▁Sale	-11.4175
▁sejahtera	-11.4178
▁Garden	-11.4179
▁Serious	-11.418
boh	-11.4181
▁rem	-11.4181
▁henti	-11.4181
▁terminal	-11.4182
▁kecemasan	-11.4182
▁Wisma	-11.4184
▁curhat	-11.4185
alisasi	-11.4187
ace	-11.4189
AWAL	-11.419
▁bantuin	-11.4192
▁kabel	-11.4193
▁Duta	-11.4193
atta	-11.4193
▁bon	-11.4194
Dia	-11.4194
SIN	-11.4194
yh	-11.4201
▁Fokus	-11.4201
nusantara	-11.4203
▁fall	-11.4203
▁Seb	-11.4203
▁penambahbaikan	-11.4205
▁rejeki	-11.4205
PUN	-11.4206
wee	-11.4207
▁aiyo	-11.4207
mie	-11.4209
▁melampau	-11.4209
▁Olimpik	-11.421
▁PADA	-11.4212
▁58	-11.4213
ating	-11.4216
▁series	-11.4216
fiq	-11.4218
ware	-11.422
▁NKRI	-11.4222
▁Thomas	-11.4222
▁1,000	-11.4223
uru	-11.4223
▁menanam	-11.4225
▁Sing	-11.4225
▁nyamuk	-11.4227
▁Maya	-11.423
mia	-11.4231
▁Mencari	-11.4232
▁Status	-11.4236
hem	-11.4236
▁Tangga	-11.4236
▁health	-11.4239
hahaha	-11.424
zon	-11.424
▁Cr	-11.4241
bayang	-11.4241
tn	-11.4242
▁million	-11.4243
▁mendesak	-11.4243
▁penghujung	-11.4248
gila	-11.4248
▁pedalaman	-11.4252
DAH	-11.4252
▁Disini	-11.4253
▁sugar	-11.4253
▁Via	-11.4255
awang	-11.4258
▁Rasul	-11.4259
enteng	-11.426
▁berpuas	-11.4263
▁terancam	-11.4268
▁1960	-11.4269
▁tega	-11.427
▁meluluskan	-11.427
▁Idul	-11.4271
dara	-11.4274
▁Tha	-11.4276
sema	-11.4276
▁berdosa	-11.4278
grafi	-11.4278
KLIA	-11.4278
kilo	-11.4279
wit	-11.4281
▁Tanda	-11.4284
kang	-11.4284
▁Rules	-11.4285
SEL	-11.4287
▁TPS	-11.4287
uf	-11.4289
▁memasukkan	-11.4291
▁Rang	-11.4292
bing	-11.4293
▁Dukung	-11.4294
Rp	-11.4296
▁Rock	-11.4299
▁terkadang	-11.43
GAN	-11.43
▁Daging	-11.4301
▁sai	-11.4301
ayam	-11.4302
LIN	-11.4302
▁Keterangan	-11.4303
osis	-11.4303
▁meri	-11.4304
▁ngi	-11.4305
▁Minuman	-11.4307
PIN	-11.4307
▁Fast	-11.4307
▁Sulaiman	-11.4308
mur	-11.4308
▁pedih	-11.4309
lf	-11.4312
▁Toyota	-11.4312
gging	-11.4313
▁sentimen	-11.4313
▁Ust	-11.4314
▁dapetin	-11.4315
▁LINK	-11.4316
▁tek	-11.4317
▁Isa	-11.4318
▁Win	-11.4318
promo	-11.4318
▁jangkitan	-11.4318
▁hey	-11.4322
▁Persidangan	-11.4324
▁sememangnya	-11.4324
▁focus	-11.4324
▁hafal	-11.4327
▁analisis	-11.4329
▁gang	-11.4329
▁present	-11.433
▁Radio	-11.4331
▁billion	-11.4333
▁BANDAR	-11.4333
▁USD	-11.4335
▁menjana	-11.4336
ene	-11.4337
Du	-11.4337
▁huh	-11.4338
▁tertakluk	-11.4338
▁zat	-11.4338
has	-11.434
▁lemon	-11.4341
▁beracun	-11.4343
▁sambut	-11.4343
▁mahukan	-11.4344
▁falsafah	-11.4347
pisah	-11.4348
▁Bosan	-11.4349
▁setidaknya	-11.435
▁Engineer	-11.435
bad	-11.4351
▁Oil	-11.4351
sty	-11.4352
▁XXL	-11.4353
sahkan	-11.4353
1%	-11.4354
▁function	-11.4355
▁serentak	-11.4357
▁Bermula	-11.436
▁pakatan	-11.4362
▁lembab	-11.4364
▁korupsi	-11.4364
nyaaaa	-11.4365
▁picture	-11.4372
firm	-11.4372
▁standar	-11.4372
▁consider	-11.4373
kakak	-11.4373
▁denggi	-11.4373
▁PAKAI	-11.4373
▁peme	-11.4375
▁Federal	-11.4378
3%	-11.4379
▁pene	-11.438
duct	-11.4382
а	-11.4382
bam	-11.4385
▁bossku	-11.4387
nal	-11.4389
fen	-11.4391
▁beliin	-11.4391
▁Buang	-11.4391
ahaha	-11.4392
▁toh	-11.4392
▁<	-11.4393
▁Baba	-11.4395
▁Max	-11.4395
▁Mele	-11.4397
▁Mintak	-11.4398
▁Start	-11.44
karan	-11.4401
▁\	-11.4403
lanjut	-11.4404
▁dadi	-11.4405
▁paru	-11.4405
▁mrk	-11.4405
▁Sambutan	-11.4407
▁52	-11.4408
▁periode	-11.441
110	-11.4411
▁pengganas	-11.4415
▁kalu	-11.4416
▁Peri	-11.4418
▁deposit	-11.4419
▁complain	-11.4419
▁berdikari	-11.4423
▁mel	-11.4423
lokasi	-11.4423
▁piring	-11.4424
▁cheap	-11.4424
katan	-11.4424
▁perihal	-11.4425
▁glowing	-11.4426
fatihah	-11.4426
▁Maksudnya	-11.4428
ambil	-11.4429
program	-11.443
▁bri	-11.4431
▁narkoba	-11.4432
▁bubar	-11.4433
▁planet	-11.4433
▁Latitud	-11.4434
▁MELAYU	-11.4434
▁halo	-11.4434
▁flash	-11.4435
With	-11.4436
▁mrt	-11.4437
▁pengikut	-11.4438
▁konsert	-11.444
▁goyang	-11.4442
▁ISLAM	-11.4444
▁betina	-11.4447
▁Ucap	-11.4447
▁mukanya	-11.4449
▁BRI	-11.4451
▁channel	-11.4453
KATA	-11.4454
▁Play	-11.4455
▁penyebaran	-11.4457
▁Rok	-11.4459
▁skip	-11.4459
▁mine	-11.4459
▁Sena	-11.446
polis	-11.4461
▁Dus	-11.4462
▁panda	-11.4467
Jakarta	-11.4468
geser	-11.4468
▁Mega	-11.4469
▁mencerahkan	-11.447
cuba	-11.447
▁capai	-11.4471
▁Out	-11.4472
▁pk	-11.4472
▁Imigresen	-11.4475
cake	-11.4479
▁rais	-11.4481
▁pengorbanan	-11.4482
▁seminar	-11.4483
▁Konsep	-11.4483
ote	-11.4483
▁Life	-11.4484
▁Padi	-11.4486
▁Kebajikan	-11.4486
▁beredar	-11.4487
▁Aksi	-11.4488
50,000	-11.4489
▁bimbingan	-11.4489
▁Tema	-11.4491
▁Ayer	-11.4492
alukan	-11.4492
free	-11.4492
▁Pariwisata	-11.4494
▁Angel	-11.4497
▁Akun	-11.4497
moto	-11.4498
▁eksklusif	-11.4498
▁caj	-11.4499
mok	-11.45
▁peperiksaan	-11.4501
jum	-11.4502
▁menyiasat	-11.4503
▁dipandang	-11.4503
▁videonya	-11.4505
HAH	-11.4508
▁machiam	-11.4508
▁mam	-11.4509
▁manual	-11.451
▁ukm	-11.451
▁Menerima	-11.451
▁takziah	-11.451
▁dibintangi	-11.451
▁Alhamdulilah	-11.4513
dengan	-11.4513
▁caption	-11.4514
▁adu	-11.4514
▁tao	-11.4516
rene	-11.4517
▁Longitud	-11.4517
▁diturunkan	-11.4518
▁disambut	-11.4518
▁bella	-11.4518
▁blog	-11.4519
▁Lam	-11.4523
▁Tata	-11.4524
▁pizza	-11.4524
▁Dam	-11.4525
▁par	-11.4526
vision	-11.4526
▁Xiaomi	-11.453
▁Lengan	-11.453
▁kid	-11.4533
▁Brand	-11.4534
▁peminjam	-11.4536
▁perlumbaan	-11.4537
endra	-11.4538
GP	-11.4539
▁bergelar	-11.4539
▁though	-11.454
▁gun	-11.4541
DUN	-11.4541
▁MIC	-11.4542
iring	-11.4545
sui	-11.4546
▁kepadanya	-11.4546
▁Chong	-11.4546
Pem	-11.4547
▁MV	-11.4547
▁materi	-11.4549
▁Syiah	-11.4551
▁tggu	-11.4551
▁kemasan	-11.4551
▁apo	-11.4552
▁Poland	-11.4552
▁porsi	-11.4553
TM	-11.4553
fashion	-11.4554
▁ikon	-11.4554
▁Ih	-11.4557
▁menyakiti	-11.456
▁Proton	-11.456
▁months	-11.4561
▁Warung	-11.4561
▁mengunjungi	-11.4563
▁Kelebihan	-11.4563
▁comeback	-11.4564
▁Kari	-11.4565
▁worry	-11.4565
▁BANTU	-11.4567
▁Poli	-11.4567
▁JOHOR	-11.4568
▁pamer	-11.4569
▁dagangan	-11.4569
▁dibutuhkan	-11.4572
RAH	-11.4573
▁DONG	-11.4575
▁Travel	-11.4576
▁batam	-11.4577
▁buru	-11.4578
▁inside	-11.4579
▁pam	-11.458
▁Saifuddin	-11.458
▁Farid	-11.458
leb	-11.4581
▁Bon	-11.4584
uang	-11.4586
▁perhimpunan	-11.4587
bye	-11.4588
▁pengasas	-11.4589
▁bengkak	-11.4592
vit	-11.4593
▁patung	-11.4593
▁astaga	-11.4595
LK	-11.4596
▁serabut	-11.4599
enti	-11.4602
▁SIZE	-11.4603
▁Ming	-11.4603
▁terbentuk	-11.4603
▁PRE	-11.4604
thn	-11.4604
▁suggest	-11.4604
▁kutu	-11.4604
▁semesta	-11.4605
cream	-11.4607
▁revolusi	-11.4608
umi	-11.4608
▁wey	-11.4609
▁pencuri	-11.461
▁putra	-11.461
▁kian	-11.4612
him	-11.4612
▁Bag	-11.4612
▁Fer	-11.4612
▁sejenak	-11.4613
▁Ray	-11.4614
ford	-11.4615
▁Asyik	-11.4615
kunci	-11.4617
sian	-11.4617
▁senin	-11.4618
▁menaik	-11.4619
▁YOU	-11.462
▁Akak	-11.462
▁poin	-11.4622
tina	-11.4622
▁Seterusnya	-11.4623
▁Britain	-11.4623
▁kerjanya	-11.4623
▁Sebut	-11.4624
▁Cur	-11.4624
▁lukisan	-11.4628
ML	-11.4628
▁berdaya	-11.463
Bangsa	-11.4632
▁mimin	-11.4633
load	-11.4633
▁kekalahan	-11.4638
ded	-11.4639
▁Airlines	-11.4641
PAR	-11.4641
▁berpa	-11.4641
▁fish	-11.4643
sampai	-11.4644
inda	-11.4644
avi	-11.4644
▁gopay	-11.4644
▁Diskon	-11.4646
lusi	-11.4646
▁Golden	-11.4647
▁dibalik	-11.4647
▁Akibat	-11.4647
▁manager	-11.4648
▁Gun	-11.4648
struktur	-11.4649
▁Tai	-11.465
iris	-11.4651
av	-11.4658
▁Jap	-11.4659
▁STATUS	-11.4659
▁klia	-11.4659
lala	-11.4659
▁rules	-11.466
750	-11.4661
▁lagunya	-11.4661
▁Kai	-11.4663
▁berlakunya	-11.4664
bg	-11.4664
▁Tambun	-11.4665
3,000	-11.4666
hoo	-11.4666
▁Remaja	-11.4666
▁dimulakan	-11.4667
REN	-11.4669
▁Yunani	-11.467
▁skala	-11.467
▁Wangsa	-11.4671
▁People	-11.4672
▁india	-11.4673
▁ank	-11.4674
▁lajur	-11.4676
bie	-11.4679
ute	-11.468
▁insurans	-11.4681
▁MAK	-11.4684
hala	-11.4685
▁attention	-11.4686
▁sekar	-11.4688
▁Disney	-11.4689
▁dialog	-11.4689
▁diduga	-11.469
▁merk	-11.4691
▁Stay	-11.4691
▁syiah	-11.4691
▁Gadis	-11.4692
▁Memiliki	-11.4693
▁ac	-11.4693
disi	-11.4694
cucuk	-11.4695
jet	-11.4695
num	-11.4697
▁Idol	-11.4698
▁muslimah	-11.4699
▁Keempat	-11.47
▁mengerjakan	-11.47
buah	-11.4701
mbus	-11.4702
в	-11.4702
▁mempromosikan	-11.4703
▁Ikuti	-11.4704
nation	-11.4705
▁menyifatkan	-11.4705
▁Solusi	-11.4713
SPRM	-11.4716
▁annoying	-11.472
▁kedaulatan	-11.472
▁Perut	-11.4723
▁bersedih	-11.4724
▁Mela	-11.4724
▁inti	-11.4725
▁MACAM	-11.4725
ANDA	-11.4725
▁telan	-11.4726
▁Usahawan	-11.4727
▁liddat	-11.4727
tuan	-11.4729
▁Legend	-11.473
▁Karim	-11.4732
▁tertidur	-11.4733
▁mandiri	-11.4734
▁Sempat	-11.4734
▁YUK	-11.4734
▁kotoran	-11.4735
▁rompak	-11.4736
▁Lawa	-11.4736
▁JB	-11.4736
lun	-11.4736
tup	-11.4739
ava	-11.4739
▁menyeru	-11.4739
een	-11.474
▁Zo	-11.4741
▁dipegang	-11.4744
▁Polda	-11.4745
▁waris	-11.4745
▁kelar	-11.4749
▁mesjid	-11.4749
kay	-11.4749
HAR	-11.475
▁cun	-11.4753
▁ajib	-11.4754
▁pemahaman	-11.4754
▁Tokopedia	-11.4754
▁junior	-11.4757
teria	-11.4758
rupa	-11.4758
▁tio	-11.4758
video	-11.4759
▁ditanam	-11.4759
▁tar	-11.4762
▁Abidin	-11.4763
▁kejut	-11.4765
▁penglibatan	-11.4766
▁Othman	-11.4766
▁general	-11.4767
▁mendoakan	-11.4769
belakang	-11.4769
▁orangtua	-11.4769
▁Ras	-11.477
rol	-11.4771
▁Alif	-11.4771
▁dimainkan	-11.4774
▁babe	-11.4774
▁sent	-11.4776
▁resepi	-11.4777
ambi	-11.4777
▁alone	-11.4782
▁took	-11.4783
BAB	-11.4783
raj	-11.4783
▁mother	-11.4784
▁menjemput	-11.4784
lukis	-11.4787
▁bantahan	-11.4787
▁adab	-11.4787
▁Dinas	-11.4788
▁keta	-11.4789
ngka	-11.4792
▁najib	-11.4792
▁Maz	-11.4792
▁pemindahan	-11.4793
▁Matahari	-11.4794
▁Camp	-11.4795
▁penutup	-11.4797
▁WHATSAPP	-11.4798
▁menandakan	-11.4798
▁ten	-11.4799
▁barusan	-11.4799
▁Samad	-11.4799
▁kiamat	-11.4803
▁dipimpin	-11.4805
▁sim	-11.4805
▁pemasangan	-11.4805
▁april	-11.4806
zaman	-11.4806
▁Pop	-11.4807
▁Lum	-11.4807
▁His	-11.4807
▁Kandar	-11.4807
▁nyoba	-11.4808
▁2008,	-11.4809
▁KALIAN	-11.4809
▁jawi	-11.481
rent	-11.4811
▁mulus	-11.4812
▁untukmu	-11.4813
▁51	-11.4814
CAR	-11.4814
▁Perhimpunan	-11.4815
▁genre	-11.4815
source	-11.4816
▁does	-11.4817
▁mengga	-11.4819
▁Naim	-11.482
pay	-11.4822
dho	-11.4824
▁Banjar	-11.4824
▁2014,	-11.4826
▁color	-11.4827
▁milo	-11.4829
BAK	-11.4831
▁says	-11.4831
▁Direktur	-11.4832
▁sebar	-11.4833
dih	-11.4835
▁Azhar	-11.4836
▁pengedar	-11.4836
▁satay	-11.4836
TB	-11.4837
▁doctor	-11.4838
▁dijalan	-11.4838
▁53	-11.4838
MIS	-11.4839
▁tren	-11.484
▁CariAkuDiSyurga	-11.4842
▁KAT	-11.4843
▁Bat	-11.4843
▁AK	-11.4844
▁doesn	-11.4845
ox	-11.4845
▁Kertas	-11.4847
▁Tab	-11.4848
▁Pasifik	-11.4849
▁diatur	-11.485
▁Maharaja	-11.4851
▁Les	-11.4851
Bukhari	-11.4852
▁mendatang	-11.4853
tanah	-11.4854
inter	-11.4854
▁Lapar	-11.4854
▁dirujuk	-11.4854
▁Perasaan	-11.4854
▁2011,	-11.4854
▁Bella	-11.4855
▁delay	-11.4856
▁anj	-11.4856
bayi	-11.4856
▁Fakulti	-11.4857
kumpulan	-11.4858
▁Sehari	-11.4859
▁temerloh	-11.4859
ado	-11.4859
▁Arief	-11.486
▁stage	-11.486
▁ip	-11.4861
suit	-11.4862
▁Pena	-11.4863
▁unggul	-11.4863
tulis	-11.4864
▁professional	-11.4864
▁Seronok	-11.4864
hap	-11.4867
▁ikatan	-11.4868
paru	-11.487
▁Hand	-11.4874
biar	-11.4875
▁rilek	-11.4876
usi	-11.4878
▁skirt	-11.4879
▁ANJING	-11.488
max	-11.4883
eeeee	-11.4885
▁Bis	-11.4887
▁liputan	-11.4887
▁qu	-11.4889
190	-11.4891
wana	-11.4891
▁musibah	-11.4891
▁Kandungan	-11.4891
▁Mutualan	-11.4895
▁Omg	-11.4895
gia	-11.4895
▁herba	-11.4895
▁kosmetik	-11.4896
▁momen	-11.4902
▁wali	-11.4903
▁PL	-11.4903
parent	-11.4905
▁geran	-11.4908
▁KK	-11.4908
▁Kala	-11.4909
habis	-11.491
▁Bawang	-11.4911
▁Tetiba	-11.4912
▁cerai	-11.4913
▁Arsenal	-11.4914
▁mendaftar	-11.4914
▁SENDIRI	-11.4914
▁beritahu	-11.4914
▁penggal	-11.4914
▁tekstur	-11.4914
▁Bangkok	-11.4915
▁Hashim	-11.4915
▁Kanun	-11.4918
▁insyaAllah	-11.4919
istik	-11.492
▁Kasi	-11.4925
▁permudahkan	-11.4926
▁Sepatu	-11.4927
▁babak	-11.4928
HS	-11.4928
▁disamping	-11.4928
▁Leon	-11.493
▁Zam	-11.4931
spect	-11.4932
▁Cameron	-11.4936
▁UTC	-11.4936
pele	-11.4937
▁Korban	-11.4938
▁aktivis	-11.4938
▁kmrn	-11.4939
▁ootd	-11.4939
▁Yan	-11.4941
haya	-11.4944
▁mod	-11.4944
▁BB	-11.4946
▁wudhu	-11.4946
jad	-11.4947
▁Mis	-11.4947
baby	-11.4949
▁kam	-11.495
▁perikanan	-11.4953
▁tasik	-11.4954
▁DUIT	-11.4954
▁GUA	-11.4955
uti	-11.4955
▁rahasia	-11.4956
▁tdi	-11.4956
▁persahabatan	-11.4958
▁aamiin	-11.4958
Car	-11.496
▁berucap	-11.4961
TIM	-11.4961
libat	-11.4961
▁celah	-11.4962
rrrr	-11.4963
▁Desain	-11.4964
▁47	-11.4964
jawab	-11.4966
keluarga	-11.4968
BC	-11.4968
tanding	-11.4969
▁iftar	-11.497
▁BADAN	-11.4971
▁1985	-11.4971
▁maya	-11.4972
▁logam	-11.4972
tter	-11.4978
▁dibincangkan	-11.4978
▁mengancam	-11.4979
▁futsal	-11.4981
▁sampingan	-11.4983
▁Ujian	-11.4983
128	-11.4983
▁PKI	-11.4988
muslim	-11.4988
▁Konvensyen	-11.4988
ternak	-11.4988
▁JomKita	-11.499
▁Kasus	-11.499
hand	-11.4992
▁Stra	-11.4992
▁terdiam	-11.4993
▁Pembelian	-11.4993
▁syak	-11.4993
▁wakaf	-11.4993
▁Depok	-11.4994
▁berkunjung	-11.4996
asia	-11.4998
▁Smartphone	-11.4998
eva	-11.4999
▁assalamualaikum	-11.4999
▁Kangen	-11.4999
gger	-11.4999
▁yourself	-11.5
▁SEMASA	-11.5001
▁penganut	-11.5001
▁persediaan	-11.5003
▁KEDUA	-11.5003
▁Mont	-11.5003
▁larat	-11.5004
ENANG	-11.5005
diam	-11.5005
▁UU	-11.5005
▁topi	-11.5005
▁pengawal	-11.5006
ITA	-11.5006
▁ayang	-11.5007
▁semi	-11.5007
▁NIH	-11.5009
rk	-11.5009
dengar	-11.5009
▁diserang	-11.501
▁Romania	-11.5011
crepe	-11.5011
▁jala	-11.5012
▁CS	-11.5013
▁rok	-11.5013
▁Your	-11.5014
▁Mahal	-11.5015
▁Studio	-11.5015
▁ujan	-11.5017
▁gan	-11.5018
▁Tpi	-11.5018
▁kemaman	-11.5018
▁Cc	-11.5018
▁angkasa	-11.5018
riah	-11.5018
▁Bai	-11.5019
▁Mimpi	-11.5019
▁meli	-11.502
▁saingan	-11.5021
gaga	-11.5021
▁pemakanan	-11.5023
360	-11.5024
sial	-11.5024
▁kafe	-11.5025
▁Penting	-11.5026
gul	-11.5027
▁Puteh	-11.5028
js	-11.5028
▁Mere	-11.5028
Juara	-11.5029
ikh	-11.5032
▁JABATAN	-11.5033
iiiii	-11.5034
▁tembok	-11.5034
▁ketahui	-11.5034
▁riwayat	-11.5036
▁pil	-11.5039
▁tax	-11.504
▁Tawau	-11.5042
RIP	-11.5043
flower	-11.5043
▁Tong	-11.5043
road	-11.5044
▁Hall	-11.5045
▁menyebutkan	-11.5045
▁Cawangan	-11.5045
▁menekankan	-11.5045
▁Nye	-11.5045
rag	-11.5047
▁berkait	-11.5047
▁terbiasa	-11.5048
▁limit	-11.5049
say	-11.5049
ANTI	-11.505
ols	-11.5051
▁karyawan	-11.5052
ree	-11.5054
election	-11.5054
▁saf	-11.5057
▁Sektor	-11.5058
siapa	-11.5059
Jangan	-11.506
sebut	-11.506
▁bill	-11.506
▁Kun	-11.5061
▁HAM	-11.5061
▁Cadangan	-11.5061
▁misal	-11.5064
sembur	-11.5067
▁ONLINE	-11.5069
▁Haram	-11.507
▁challenge	-11.507
▁keluhan	-11.507
late	-11.5072
▁baring	-11.5072
▁Gus	-11.5073
market	-11.5073
eka	-11.5074
▁lempar	-11.5076
▁Barcelona	-11.5076
▁Menjelang	-11.5076
▁Pelaksanaan	-11.5076
▁parfum	-11.5076
▁pertimbangan	-11.5076
thing	-11.5077
▁Kembangan	-11.5078
ial	-11.5078
isti	-11.5082
▁round	-11.5083
▁Perse	-11.5083
nyi	-11.5084
lover	-11.5084
▁berpunca	-11.5086
▁fuh	-11.5089
▁berbau	-11.509
▁Argentina	-11.5091
▁bertempat	-11.5092
▁Senarai	-11.5092
Mereka	-11.5092
real	-11.5093
▁Almarhum	-11.5094
▁speed	-11.5095
▁halangan	-11.5096
nnnn	-11.5096
prak	-11.5097
DS	-11.5099
▁friendly	-11.5099
Hu	-11.5101
▁version	-11.5102
▁gadget	-11.5103
▁kapasiti	-11.5104
Bagi	-11.5107
III	-11.5108
▁JNE	-11.511
▁kul	-11.5111
▁berbangsa	-11.5111
▁BBMAsTopSocial	-11.5111
Ghazali	-11.5114
▁PC	-11.5114
rajin	-11.5114
▁White	-11.5115
▁ratus	-11.5115
Jo	-11.5115
▁sngt	-11.5116
hp	-11.5119
▁NGA	-11.512
▁Jerawat	-11.5123
▁mencetuskan	-11.5124
▁poket	-11.5124
▁fee	-11.5126
▁diisi	-11.5127
▁lead	-11.5127
▁There	-11.5128
▁putrajaya	-11.5129
ova	-11.513
▁Jiwa	-11.5132
▁Chang	-11.5132
▁paha	-11.5132
▁sekumpulan	-11.5133
▁YOUR	-11.5135
zzz	-11.5135
minta	-11.5136
▁~~	-11.5137
▁Young	-11.5139
▁Lai	-11.514
▁dewa	-11.5141
▁Petang	-11.5143
▁cri	-11.5143
▁RAMADHAN	-11.5144
bodoh	-11.5145
▁gapernah	-11.515
kamu	-11.5152
opo	-11.5153
▁vol	-11.5154
▁HAHA	-11.5155
▁Pesawat	-11.5157
timur	-11.5159
▁mengha	-11.5159
▁followan	-11.516
telan	-11.5163
▁yuran	-11.5164
4,000	-11.5165
lewat	-11.5165
▁Rem	-11.5165
You	-11.5166
gula	-11.5166
▁Pekerjaan	-11.5166
ration	-11.5166
▁menggelar	-11.5167
▁umumin	-11.5167
▁murtabak	-11.5167
▁Sp	-11.5169
▁gile	-11.5169
▁Generasi	-11.517
▁WARNA	-11.5171
NN	-11.5171
ious	-11.5173
▁diajar	-11.5174
▁Tingkat	-11.5176
▁Sesiapa	-11.5177
▁aih	-11.5177
▁MAGIC	-11.5177
▁pengawasan	-11.5179
▁BELAS	-11.5179
▁konservatif	-11.518
gli	-11.5182
▁Total	-11.5184
▁Kartu	-11.5187
born	-11.5187
▁refer	-11.5187
syi	-11.5188
hamba	-11.5189
▁finally	-11.5192
▁ditangani	-11.5194
masi	-11.5194
▁perfect	-11.5195
Ji	-11.5195
▁survey	-11.5198
ema	-11.5198
▁sta	-11.5198
▁Marang	-11.5198
▁ado	-11.52
▁site	-11.52
▁Spa	-11.5201
ART	-11.5202
hina	-11.5202
▁sayuran	-11.5202
▁Doktor	-11.5204
ged	-11.5204
▁Suri	-11.5204
▁Dor	-11.5206
▁Jho	-11.5207
▁iklim	-11.5209
▁return	-11.5212
▁pensyarah	-11.5213
▁Selayang	-11.5214
rusak	-11.5214
▁four	-11.5214
▁1989	-11.5216
▁objektif	-11.5216
▁memori	-11.5217
sey	-11.5217
▁temenku	-11.5221
▁kelajuan	-11.5221
etan	-11.5224
▁Cuti	-11.5224
▁menari	-11.5225
▁Gatau	-11.5226
rib	-11.5226
▁berku	-11.5226
▁1987	-11.5227
▁lim	-11.5228
▁FOTO	-11.523
▁dilindungi	-11.5232
▁hour	-11.5232
▁terlupa	-11.5233
▁MASA	-11.5235
▁shj	-11.5237
edar	-11.5238
dent	-11.5239
▁SALE	-11.524
antas	-11.5241
▁teliti	-11.5241
vasi	-11.5242
bike	-11.5244
TUR	-11.5244
▁trafik	-11.5246
robo	-11.5247
RB	-11.5247
khi	-11.5247
▁Pengurus	-11.5247
▁dahi	-11.525
▁NASI	-11.525
▁JPJ	-11.5253
▁ekoran	-11.5253
zh	-11.5255
▁mala	-11.5256
▁traffic	-11.5257
▁sirap	-11.5258
▁memaparkan	-11.5259
clo	-11.526
populer	-11.5262
▁wisuda	-11.5263
▁komik	-11.5265
▁Photo	-11.5266
ology	-11.5267
▁pertolongan	-11.5269
▁terhibur	-11.527
▁diubah	-11.5272
Or	-11.5273
▁Master	-11.5274
▁gonna	-11.5275
▁Youtube	-11.5275
▁Cover	-11.5276
▁SEA	-11.5277
▁Bangladesh	-11.5277
data	-11.5277
▁pendatang	-11.5278
▁macem	-11.5278
▁ente	-11.528
8%	-11.528
▁front	-11.528
rebut	-11.528
▁tercapai	-11.5282
▁Resmi	-11.5282
▁Tangkap	-11.5283
▁mengh	-11.5283
▁started	-11.5287
gate	-11.5287
sabar	-11.5287
▁March	-11.5289
▁Jualan	-11.5289
▁jl	-11.5295
▁botak	-11.5295
▁Wat	-11.5295
▁furniture	-11.5295
▁RASA	-11.5296
▁perpustakaan	-11.5298
▁koko	-11.53
▁tayang	-11.5301
trak	-11.5302
gama	-11.5302
▁AYO	-11.5306
▁bebanan	-11.5306
SAR	-11.5307
jaja	-11.5309
SYA	-11.531
kem	-11.5311
BEL	-11.5313
▁wear	-11.5314
▁segitu	-11.5316
▁bercanda	-11.5316
▁menara	-11.5319
▁pembedahan	-11.5321
▁taste	-11.5322
right	-11.5322
part	-11.5325
▁debu	-11.5325
dz	-11.5326
▁Gem	-11.5326
▁holiday	-11.5326
▁atasan	-11.533
▁tauk	-11.533
▁Aset	-11.5331
▁Michael	-11.5331
▁heard	-11.5334
▁jadilah	-11.5335
▁Bazar	-11.5336
▁KON	-11.5336
▁kakinya	-11.5337
▁menca	-11.5337
syu	-11.5337
▁Campur	-11.5338
pod	-11.5338
bayar	-11.5339
▁MALAM	-11.5339
gantung	-11.5339
▁Stress	-11.534
▁gebu	-11.5342
reen	-11.5343
▁Amar	-11.5343
AHA	-11.5347
▁Kongres	-11.5349
▁merampas	-11.5349
▁pelayanan	-11.535
▁gubernur	-11.5352
▁amatlah	-11.5353
▁Berke	-11.5354
SHA	-11.5356
▁Jamal	-11.5356
phy	-11.5357
▁menghubungkan	-11.5357
beradik	-11.5359
▁Madrid	-11.536
▁nafkah	-11.5362
ATE	-11.5364
cli	-11.5364
uuuuu	-11.5366
elle	-11.5366
RY	-11.5367
104	-11.5367
▁pisau	-11.537
lk	-11.5371
ident	-11.5372
CHE	-11.5373
▁menghilang	-11.5374
▁pembe	-11.5376
▁bua	-11.5377
▁count	-11.5378
GEL	-11.5378
▁menyambung	-11.5378
▁mid	-11.538
▁berterima	-11.538
220	-11.538
▁Diploma	-11.538
▁memuaskan	-11.538
▁asin	-11.5384
perta	-11.5385
▁Mesin	-11.5385
▁dicadangkan	-11.5386
▁Mexico	-11.5388
▁diabetes	-11.5388
▁Aeon	-11.5389
bh	-11.5389
▁Ag	-11.5389
▁Pema	-11.539
eti	-11.5391
▁menyalahkan	-11.5394
jab	-11.5394
RES	-11.5395
▁laaaa	-11.5395
▁Garansi	-11.5396
fee	-11.5397
▁wabak	-11.5398
▁bully	-11.5399
urang	-11.5403
▁puteri	-11.5405
▁Gara	-11.5405
▁sume	-11.5405
▁menderita	-11.5409
beh	-11.541
▁bagaikan	-11.5411
▁Assalamu	-11.5413
omi	-11.5413
▁gegara	-11.5417
▁roll	-11.5418
xy	-11.5419
▁Makassar	-11.542
▁Lucu	-11.542
jaan	-11.542
▁research	-11.5422
▁lalui	-11.5422
tte	-11.5424
▁korek	-11.5427
▁opinion	-11.5427
▁Pulsa	-11.5428
▁prepare	-11.5429
mandi	-11.5429
Loire	-11.5431
▁terjebak	-11.5432
tent	-11.5435
▁Rashid	-11.5436
▁lepasni	-11.5437
▁kecerdasan	-11.5438
kelurahan	-11.5438
▁Transformasi	-11.5438
KING	-11.5439
▁Khazanah	-11.544
juga	-11.5441
▁kriteria	-11.5443
▁Nenek	-11.5443
brak	-11.5443
▁zon	-11.5443
▁Harimau	-11.5444
▁tgn	-11.5445
▁kagum	-11.5446
▁bersihkan	-11.5447
▁jun	-11.5447
yl	-11.5449
▁mw	-11.5449
▁perkasa	-11.5451
▁nulis	-11.5452
▁Alamak	-11.5453
▁integriti	-11.5454
▁dibangkitkan	-11.5454
▁Cas	-11.5455
ografi	-11.5455
▁Shafie	-11.5455
vil	-11.5456
▁memperhatikan	-11.5456
▁menganjurkan	-11.5459
▁popcorn	-11.5459
ASAN	-11.546
▁yan	-11.5461
▁Perai	-11.5465
▁persegi	-11.5465
▁gm	-11.5466
▁bergambar	-11.5467
▁sambel	-11.5468
mbun	-11.5468
▁yh	-11.5471
Raya	-11.5471
▁riba	-11.5472
▁PAGI	-11.5472
▁Jawi	-11.5473
ulus	-11.5473
▁Final	-11.5474
▁Say	-11.5476
▁Bala	-11.5476
▁Serta	-11.5477
▁Musang	-11.5477
▁bestnya	-11.5477
oid	-11.5478
▁tsb	-11.5479
▁Gas	-11.5479
▁pok	-11.5481
lib	-11.5482
Property	-11.5482
▁bongsu	-11.5483
▁sendi	-11.5487
▁Internasional	-11.5488
▁tular	-11.5489
LANG	-11.5489
tiv	-11.549
▁KWSP	-11.549
▁Kamal	-11.5493
▁marketing	-11.5494
BK	-11.5495
madi	-11.5497
▁kya	-11.5498
SMA	-11.5498
ahahaha	-11.5499
design	-11.55
▁Dickson	-11.5501
wear	-11.5508
EMAS	-11.5509
▁BARANG	-11.5509
ano	-11.5512
▁separa	-11.5513
rita	-11.5513
hehe	-11.5515
are	-11.5515
▁KTM	-11.5516
▁When	-11.5516
▁mengecewakan	-11.5516
▁idaman	-11.5519
▁ultah	-11.552
gir	-11.5521
▁Ira	-11.5521
▁dikurniakan	-11.5524
▁DISKON	-11.5524
▁kerumah	-11.5525
vic	-11.5526
▁Jawatan	-11.5526
bed	-11.5526
▁Kunci	-11.5527
St	-11.5527
hayu	-11.553
▁xleh	-11.5531
▁pencarian	-11.5532
▁lipstick	-11.5533
▁hub	-11.5533
▁AirAsia	-11.5533
▁Get	-11.5533
▁mager	-11.5533
▁Lari	-11.5534
▁impor	-11.5536
▁volume	-11.5538
▁plat	-11.5539
wara	-11.5539
▁Hei	-11.554
▁peralihan	-11.554
▁Merawat	-11.5541
▁menggesa	-11.5541
▁kesakitan	-11.5543
▁Tengoklah	-11.5544
terus	-11.5544
▁induk	-11.5547
▁Karawang	-11.5547
▁snap	-11.5547
▁padamu	-11.5547
▁kmk	-11.5549
▁dicipta	-11.555
sop	-11.555
▁hahahahahaha	-11.555
buh	-11.5551
▁audit	-11.5551
cewek	-11.5552
▁berhubungan	-11.5554
ions	-11.5557
▁Dgn	-11.5561
▁pedagang	-11.5562
▁Tgk	-11.5562
▁tho	-11.5562
▁nature	-11.5562
▁menewaskan	-11.5569
▁dijemput	-11.557
▁2012,	-11.557
▁Sum	-11.5571
▁relate	-11.5572
▁Public	-11.5574
ntap	-11.5575
▁160	-11.5577
▁Dm	-11.5578
langgar	-11.5579
cang	-11.558
▁menolong	-11.558
▁WANITA	-11.558
▁berniat	-11.558
▁usai	-11.558
▁SIAP	-11.5581
▁ditukar	-11.5581
tea	-11.5584
▁LAIN	-11.5584
▁Restaurant	-11.5585
jor	-11.5586
eem	-11.5589
▁Mengatasi	-11.5591
▁agree	-11.5593
▁cpt	-11.5593
▁tambun	-11.5594
▁pengerusi	-11.5596
▁Kra	-11.5597
ify	-11.5599
yut	-11.5601
▁menunjuk	-11.5604
▁pilpres	-11.5604
▁pecahan	-11.5604
▁Muk	-11.5606
▁Gil	-11.5606
▁inform	-11.5607
▁PASTI	-11.5608
ics	-11.5609
ngkok	-11.5609
▁penyediaan	-11.5611
▁ngapa	-11.5611
▁Syaratnya	-11.5612
▁unifi	-11.5612
andra	-11.5613
▁lucky	-11.5613
▁berpeluang	-11.5613
085	-11.5614
▁membatalkan	-11.5614
hebat	-11.5616
▁menguatkan	-11.5618
▁Rahmat	-11.5619
yoo	-11.5624
▁kaji	-11.5624
▁segelintir	-11.5628
▁Sentral	-11.5628
mma	-11.5628
▁Dewi	-11.5631
▁sndiri	-11.5633
nies	-11.5633
▁Pon	-11.5633
▁ptptn	-11.5636
integrasi	-11.5636
hub	-11.5636
▁Aw	-11.5636
Ni	-11.5638
▁BAHAN	-11.564
▁berpengalaman	-11.5641
agama	-11.5641
▁Berbuka	-11.5643
sure	-11.5644
▁IV	-11.5644
▁unless	-11.5647
tle	-11.5647
▁Bri	-11.565
▁kapitalisme	-11.5651
▁god	-11.5651
laaa	-11.5652
▁Corporation	-11.5652
oa	-11.5655
▁bubuk	-11.5656
▁Update	-11.5656
▁tap	-11.5656
▁Normal	-11.5657
▁disyaki	-11.5657
▁cabe	-11.5658
▁click	-11.5658
EA	-11.5659
▁persaingan	-11.5665
▁available	-11.5666
dangan	-11.5666
▁woman	-11.5667
▁bergaya	-11.5667
▁pengiktirafan	-11.5668
▁RUU	-11.5668
inci	-11.567
▁Jambi	-11.5671
duri	-11.5671
▁Pelakon	-11.5672
▁fire	-11.5673
▁keseluruhannya	-11.5675
▁surabaya	-11.5675
ille	-11.5677
▁RETWEET	-11.5678
▁Paytren	-11.5678
▁perbankan	-11.5679
hip	-11.5679
ISBN	-11.568
▁DIY	-11.568
ELA	-11.5681
▁GOOD	-11.5681
▁terapi	-11.5683
jir	-11.5684
yek	-11.5686
mimpi	-11.5688
▁Fasa	-11.5688
▁Usia	-11.5689
RON	-11.569
▁camp	-11.5691
▁everyday	-11.5691
chin	-11.5693
punya	-11.5694
▁Kerjasama	-11.5694
▁voice	-11.5695
▁biarlah	-11.5695
kurung	-11.5697
▁sepe	-11.5698
anjur	-11.5699
HM	-11.57
▁certain	-11.57
Yang	-11.5702
cess	-11.5702
▁Rice	-11.5703
▁Efek	-11.5705
agen	-11.5705
pori	-11.5705
tho	-11.5705
▁Bina	-11.5706
▁IC	-11.5706
▁Baha	-11.5707
▁Semenyih	-11.5708
▁duka	-11.5709
▁gasuka	-11.571
▁kening	-11.571
logi	-11.5711
pend	-11.5712
▁diperolehi	-11.5713
▁Jasin	-11.5713
▁ultra	-11.5718
▁membakar	-11.5719
URI	-11.5719
▁UV	-11.572
BUN	-11.5721
▁seriously	-11.5722
▁bokap	-11.5723
▁prabowo	-11.5723
self	-11.5723
▁terpisah	-11.5724
▁emo	-11.5724
▁pray	-11.5726
▁Tukar	-11.5727
▁membuatnya	-11.5727
organ	-11.5728
▁op	-11.5728
▁Var	-11.5729
▁REP	-11.5731
▁Box	-11.5732
▁terserah	-11.5734
official	-11.5734
▁hours	-11.5735
▁VIDEO	-11.574
▁boneka	-11.5741
lampau	-11.5741
▁disalah	-11.5741
▁LANGSUNG	-11.5743
its	-11.5744
▁kedepan	-11.5744
▁Bengkulu	-11.5746
▁diskaun	-11.5748
ities	-11.5748
▁mangkuk	-11.5749
▁behind	-11.5751
▁monyet	-11.5751
▁Masukkan	-11.5751
▁Nek	-11.5752
▁Umat	-11.5754
▁Myvi	-11.5754
▁Lot	-11.5757
▁input	-11.5757
▁Try	-11.5758
▁sebalik	-11.5758
▁dibentangkan	-11.5759
▁Iz	-11.5761
nggak	-11.5761
vac	-11.5763
▁meman	-11.5765
may	-11.5765
▁ngerasain	-11.5765
▁blur	-11.5765
pool	-11.5768
▁Sendiri	-11.577
▁Mantan	-11.5772
▁Dol	-11.5773
▁Jadilah	-11.5775
▁Tahap	-11.5775
▁campak	-11.5775
▁ketenteraan	-11.5775
▁datuk	-11.5777
▁Perikanan	-11.5778
▁Teringin	-11.5779
▁mencintaimu	-11.5779
ette	-11.578
▁napa	-11.5782
▁pekebun	-11.5783
▁Dak	-11.5783
▁berpatutan	-11.5783
▁bala	-11.5784
▁diesel	-11.5784
▁nihh	-11.5784
▁Hub	-11.5784
▁TL	-11.5785
▁hastag	-11.5785
▁Geram	-11.5786
▁Silat	-11.5786
bow	-11.5787
▁disiapkan	-11.5789
▁Terkadang	-11.5789
▁ball	-11.579
FAM	-11.579
▁sekilo	-11.5791
▁kebimbangan	-11.5791
▁Cincin	-11.5794
▁KAW	-11.5795
▁pai	-11.5796
iga	-11.5797
▁sekelas	-11.5797
▁komedi	-11.5797
▁bekal	-11.58
▁ibn	-11.5801
▁atuh	-11.5802
lempang	-11.5803
▁KLIK	-11.5803
▁KAK	-11.5804
▁kesana	-11.5806
▁klang	-11.5806
politik	-11.5808
▁sumbang	-11.5808
▁berganti	-11.5808
▁disalurkan	-11.5811
▁Spesifikasi	-11.5813
▁memperlihatkan	-11.5813
▁Exco	-11.5814
▁Cre	-11.5815
▁vid	-11.5816
Selain	-11.5816
▁Infrastruktur	-11.5819
▁memb	-11.5819
PD	-11.582
▁mengalah	-11.5821
sio	-11.5822
▁janda	-11.5824
▁maybank	-11.5825
▁lose	-11.5826
lekat	-11.5829
▁Urusan	-11.5831
RANG	-11.5831
▁Service	-11.5831
▁terkandung	-11.5832
▁dihukum	-11.5833
▁ain	-11.5834
▁saving	-11.5835
▁selam	-11.5835
gini	-11.5835
▁berasingan	-11.5836
eve	-11.5836
▁kepakaran	-11.5838
PIC	-11.584
DY	-11.5841
▁wtf	-11.5842
▁menjayakan	-11.5843
▁enaknya	-11.5843
▁lolos	-11.5844
wali	-11.5844
ppp	-11.5845
▁penyampaian	-11.5845
▁ticket	-11.5846
langsing	-11.5847
▁sj	-11.5847
ayy	-11.5849
▁probably	-11.5851
▁Kahkahkah	-11.5852
core	-11.5853
▁mil	-11.5853
▁serang	-11.5854
gasi	-11.5856
▁batch	-11.5858
▁xda	-11.5858
than	-11.586
▁Jantung	-11.586
tidur	-11.586
kim	-11.5861
▁1986	-11.5862
▁PENGGAL	-11.5862
▁Koleksi	-11.5863
▁signal	-11.5863
▁aduk	-11.5864
▁Salahuddin	-11.5865
UAS	-11.5865
▁menyampah	-11.5865
view	-11.5867
▁canggih	-11.5868
▁court	-11.5868
nch	-11.5869
▁bebel	-11.587
▁krna	-11.5872
▁SETIAP	-11.5873
▁Kluang	-11.5877
▁hao	-11.5879
fect	-11.5879
▁uolls	-11.5881
ndak	-11.5883
▁Akbar	-11.5883
▁reach	-11.5884
dog	-11.5887
▁ayaq	-11.5887
▁oppo	-11.5888
▁periuk	-11.5888
▁anu	-11.589
▁lock	-11.5891
▁jurang	-11.5893
motor	-11.5895
rabi	-11.5896
▁blender	-11.5897
▁Kenal	-11.5898
bahagia	-11.5899
MON	-11.59
lapis	-11.5901
▁kuar	-11.5903
▁Krn	-11.5903
▁omongan	-11.5904
▁Pertumbuhan	-11.5904
▁mendatangkan	-11.5905
▁transport	-11.5905
▁triliun	-11.5906
▁bisik	-11.5907
▁2019,	-11.5908
▁hate	-11.5909
▁musang	-11.591
MENT	-11.5911
▁Mam	-11.5912
▁Fun	-11.5913
▁spec	-11.5913
ambu	-11.5914
▁PLUS	-11.5915
▁Hahahha	-11.5917
▁astu	-11.5918
▁bertanggung	-11.592
▁bgtau	-11.5922
▁beruang	-11.5922
AJ	-11.5924
▁jbjb	-11.5925
▁perbicaraan	-11.5925
▁mutu	-11.5925
▁Tele	-11.5928
▁Press	-11.5928
▁kay	-11.5928
gau	-11.5929
▁Seminar	-11.593
▁Pesuruhjaya	-11.593
▁Pala	-11.5931
jati	-11.5932
▁menghala	-11.5933
▁copy	-11.5934
▁menular	-11.5936
guk	-11.5936
▁Dur	-11.5937
▁Perjalanan	-11.5939
▁Gelang	-11.5939
▁ngamuk	-11.5939
▁Tur	-11.5941
▁kdg	-11.5942
▁Sijil	-11.5943
▁kalendar	-11.5944
▁diskusi	-11.5944
▁miliknya	-11.5946
mena	-11.5947
▁menghindari	-11.5947
▁SB	-11.5947
▁Sky	-11.5948
▁jga	-11.5948
▁ky	-11.5952
▁selamatkan	-11.5952
▁TTDI	-11.5953
▁BERSATU	-11.5953
▁Teknik	-11.5954
▁Kemas	-11.5955
Bukan	-11.5957
▁rumit	-11.5959
NGO	-11.5959
▁MIN	-11.596
▁menerangkan	-11.5961
▁Komp	-11.5962
▁kesukaan	-11.5967
▁pure	-11.5968
▁KALI	-11.5971
▁Andre	-11.5971
▁MINI	-11.5972
▁Fitnah	-11.5972
▁forget	-11.5973
ndong	-11.5973
▁lusa	-11.5974
▁Sai	-11.5975
▁ktk	-11.5977
tutup	-11.5977
▁budget	-11.5977
▁Elok	-11.5979
▁Pengkalan	-11.5981
▁swa	-11.5982
▁patuh	-11.5983
▁Batang	-11.5986
▁STOK	-11.5988
▁Jemput	-11.5989
▁tender	-11.5989
▁kecoh	-11.599
jari	-11.5991
▁hear	-11.5992
▁dsb	-11.5994
BR	-11.5994
▁Mid	-11.5996
arif	-11.5996
▁value	-11.5997
jap	-11.5998
▁penerimaan	-11.5999
NAS	-11.5999
RAT	-11.5999
▁charger	-11.6001
▁Bye	-11.6001
▁positive	-11.6002
▁kacamata	-11.6004
▁pengurangan	-11.6005
▁gendut	-11.6006
poh	-11.6006
law	-11.6007
▁OLEH	-11.6007
▁Rawa	-11.601
▁terkawal	-11.6011
▁tadbir	-11.6011
pr	-11.6011
hae	-11.6016
Mustafa	-11.6019
▁dijadiin	-11.6019
▁^	-11.6019
▁bata	-11.6021
▁Perlindungan	-11.6021
▁BCA	-11.6022
▁130	-11.6022
▁hok	-11.6022
RING	-11.6023
▁father	-11.6023
▁berte	-11.6025
lindung	-11.6026
▁Pembinaan	-11.6027
▁kejahatan	-11.6027
▁bay	-11.6028
▁sembari	-11.6028
rio	-11.6031
▁Jong	-11.6033
▁Letak	-11.6034
▁Mad	-11.6036
▁berperang	-11.6038
▁Istilah	-11.6039
cca	-11.604
▁Beauty	-11.6042
skin	-11.6043
9%	-11.6044
▁mengukuhkan	-11.6044
▁Antaranya	-11.6044
▁term	-11.6045
▁stupid	-11.6046
perkara	-11.6047
▁Nana	-11.6048
▁Nutrisi	-11.6048
head	-11.6048
naik	-11.6048
enta	-11.6049
▁Card	-11.605
▁Hill	-11.605
▁Roman	-11.6051
▁tidaklah	-11.6051
▁Bagan	-11.6053
undi	-11.6054
▁adiknya	-11.6055
▁Menarik	-11.6055
▁produktif	-11.6056
▁prioritas	-11.6058
rusuh	-11.6058
▁Bagian	-11.6058
adah	-11.6058
▁menyerap	-11.6061
BAS	-11.6062
▁mengirim	-11.6063
▁jeli	-11.6065
▁KEK	-11.6066
▁rich	-11.6067
read	-11.6067
OD	-11.6067
under	-11.6068
▁merem	-11.6069
▁grand	-11.607
▁pangan	-11.607
▁berperingkat	-11.6071
▁pendam	-11.6072
putra	-11.6073
zina	-11.6073
nji	-11.6074
▁usually	-11.6074
▁Dlm	-11.6076
face	-11.6076
2017	-11.6077
▁kris	-11.6077
▁seka	-11.6078
gesa	-11.6079
abah	-11.6079
▁Muzik	-11.608
▁profil	-11.6081
▁Ketupat	-11.6083
▁nad	-11.6083
▁sese	-11.6083
cycle	-11.6083
CAM	-11.6083
rate	-11.6083
▁kejutan	-11.6085
▁tumpah	-11.6087
▁menegur	-11.6089
▁hilangkan	-11.6092
▁JPN	-11.6093
▁bego	-11.6095
▁quotes	-11.6097
▁Town	-11.6099
dos	-11.61
▁Sala	-11.61
maaf	-11.6101
▁joget	-11.6102
yai	-11.6102
etik	-11.6103
▁Novel	-11.6103
▁kilat	-11.6103
▁haid	-11.6104
PRK	-11.6104
balang	-11.6105
▁pentingnya	-11.6105
▁jungkook	-11.6105
▁PI	-11.6105
▁Okey	-11.6105
▁map	-11.6106
iko	-11.6107
atul	-11.6108
phone	-11.6109
▁plk	-11.6109
hkan	-11.6109
sko	-11.6109
▁Aktiviti	-11.6111
▁2013,	-11.6112
▁Azman	-11.6112
▁Ori	-11.6113
▁Back	-11.6115
▁Sudirman	-11.6116
▁maxis	-11.612
semua	-11.612
▁flop	-11.612
▁tuduh	-11.612
▁Gri	-11.6121
▁Juventus	-11.6122
▁timeline	-11.6122
▁bual	-11.6122
▁Parade	-11.6123
▁pelepasan	-11.6124
untut	-11.6126
▁empuk	-11.6127
oz	-11.6127
ape	-11.6128
▁Care	-11.6128
▁sendok	-11.6128
▁Edisi	-11.6129
fli	-11.613
▁PENDIDIKAN	-11.613
▁flu	-11.613
▁tempatnya	-11.6131
sof	-11.6134
▁sold	-11.6134
▁membangkitkan	-11.6136
▁selengkapnya	-11.6136
▁secret	-11.6136
▁bw	-11.6137
▁prove	-11.6137
▁Johari	-11.6138
▁alu	-11.6138
DBKL	-11.6139
▁simpati	-11.6139
hehehe	-11.614
depan	-11.614
sakit	-11.614
▁tadika	-11.6141
lebaran	-11.6141
▁Penyelamat	-11.6141
▁ass	-11.6141
▁Lahir	-11.6142
▁cer	-11.6142
▁susun	-11.6142
▁ana	-11.6143
fro	-11.6144
▁Maritim	-11.6144
oso	-11.6144
▁rayuan	-11.6145
▁tonton	-11.6146
▁seringkali	-11.6148
▁parit	-11.6148
▁labuh	-11.6149
	-11.615
▁oren	-11.615
hhhhhh	-11.615
▁jilbab	-11.6151
▁Wakaf	-11.6152
ound	-11.6153
▁Kualiti	-11.6153
▁smpi	-11.6153
modern	-11.6154
iza	-11.6154
▁role	-11.6155
sindir	-11.6155
▁Sleman	-11.6156
▁Jalur	-11.6158
▁qi	-11.6158
▁menyalurkan	-11.6158
▁twt	-11.6158
nim	-11.6163
▁AP	-11.6164
uff	-11.6167
▁thr	-11.6168
▁Getah	-11.6168
hou	-11.6168
▁reseller	-11.6169
ons	-11.6172
▁ati	-11.6173
nus	-11.6173
▁Mee	-11.6175
▁tembakan	-11.6177
▁petronas	-11.6178
▁Cotton	-11.6178
▁BPOM	-11.6178
▁018	-11.6178
▁sepenuh	-11.618
▁medis	-11.618
▁answer	-11.6181
▁melakukannya	-11.6183
▁Kuning	-11.6184
▁sdm	-11.6185
▁flek	-11.6186
▁dkat	-11.6187
▁astro	-11.6187
glo	-11.6187
LH	-11.6188
parti	-11.6189
coblos	-11.6189
▁Pentadbiran	-11.6192
▁Highlands	-11.6192
▁deserve	-11.6192
▁mendengarkan	-11.6193
▁tayangan	-11.6193
▁Buruan	-11.6194
▁menghancurkan	-11.6195
▁voucher	-11.6195
PEN	-11.6197
▁chow	-11.6199
▁pantes	-11.62
siswi	-11.6202
Pi	-11.6202
kisah	-11.6203
[...]
