<pad>	0
</s>	0
<unk>	0
.	0
(	0
)	0
"	0
-	0
–	0
£	0
€	0
#	0
'	0
a	-2.23184
,	-3.20516
▁	-3.7444
▁di	-3.89763
▁yang	-3.91966
▁dan	-3.96063
▁dalam	-4.93196
▁pada	-4.93375
▁dengan	-5.05012
▁merupakan	-5.05483
▁sebuah	-5.09106
▁untuk	-5.17085
▁ini	-5.24669
▁terletak	-5.395
▁tahun	-5.43984
▁oleh	-5.52462
▁dari	-5.54235
▁telah	-5.58072
▁adalah	-5.61236
▁sebagai	-5.62297
▁ke	-5.65932
nya	-5.66603
an	-5.81972
▁ialah	-5.8403
s	-5.84746
▁itu	-5.93458
▁juga	-6.01915
▁kepada	-6.02254
▁Pada	-6.04151
▁atau	-6.07427
▁tidak	-6.07888
▁kawasan	-6.08816
▁daripada	-6.12976
▁orang	-6.21889
▁mereka	-6.25697
▁satu	-6.29037
▁Malaysia	-6.30203
i	-6.37345
▁beliau	-6.40954
▁menjadi	-6.41304
e	-6.43981
▁mempunyai	-6.52224
▁lebih	-6.52357
:	-6.53545
▁bagi	-6.54503
▁Sekolah	-6.55054
▁daerah	-6.57209
kan	-6.60847
▁Ia	-6.64548
▁negara	-6.66267
▁digunakan	-6.66667
▁seperti	-6.68581
▁akan	-6.70557
▁seorang	-6.72013
▁lain	-6.72185
▁komun	-6.72952
▁tersebut	-6.75855
▁Indonesia	-6.77982
▁negeri	-6.7812
▁Perancis	-6.79582
▁Beliau	-6.80271
▁bahawa	-6.80713
▁wilayah	-6.81911
▁bandar	-6.8202
▁boleh	-6.83013
▁pertama	-6.88111
;	-6.88244
▁kampung	-6.88622
▁filem	-6.89014
▁iaitu	-6.89987
▁the	-6.91293
▁ia	-6.91314
▁kerana	-6.93877
▁memiliki	-6.94596
▁secara	-6.95139
▁Kebangsaan	-6.98754
▁beberapa	-6.99083
▁Di	-7.00769
▁nama	-7.02264
▁kecamatan	-7.03959
▁tetapi	-7.04174
▁dua	-7.05231
n	-7.0881
▁of	-7.11656
▁Amerika	-7.1166
▁seramai	-7.11863
▁Kampung	-7.11992
▁antara	-7.12018
t	-7.1285
▁jabatan	-7.13097
▁bawah	-7.13279
▁pelajar	-7.15173
▁buah	-7.157
▁lelaki	-7.15769
▁selepas	-7.2009
o	-7.20486
▁mana	-7.20765
▁desa	-7.21953
▁India	-7.22043
▁masa	-7.22846
▁banyak	-7.22943
▁jumlah	-7.2317
▁besar	-7.24354
▁perbandaran	-7.25779
▁sama	-7.26257
▁serta	-7.26689
▁Lapangan	-7.26851
▁1	-7.26893
▁bahasa	-7.27188
▁Terbang	-7.27931
▁dikenali	-7.28082
▁bersama	-7.28314
▁atas	-7.28403
▁tempat	-7.29655
▁kedua	-7.31382
k	-7.31912
▁A	-7.31977
▁2	-7.33392
▁sehingga	-7.33576
▁salah	-7.34639
▁termasuk	-7.35223
▁lagi	-7.3531
▁utama	-7.36313
▁S	-7.3675
▁sekolah	-7.36911
▁hari	-7.37051
▁Dalam	-7.37445
d	-7.37471
▁menggunakan	-7.38825
▁Jerman	-7.38847
▁baru	-7.39031
▁Melayu	-7.4003
▁ketika	-7.40735
▁dunia	-7.41693
▁Syarikat	-7.42231
▁Iran	-7.42562
/	-7.42595
2	-7.43493
▁bahagian	-7.43618
▁Selatan	-7.4509
▁pasukan	-7.45098
▁utara	-7.46368
m	-7.4668
▁and	-7.4688
y	-7.47732
▁Islam	-7.47995
▁hanya	-7.48125
▁3	-7.49508
▁Jepun	-7.49675
▁kumpulan	-7.49698
▁ahli	-7.49804
▁Kabupaten	-7.50558
▁sebelum	-7.51085
▁barat	-7.51541
▁hingga	-7.51921
▁laut	-7.52154
▁apabila	-7.52189
▁kerajaan	-7.52399
▁melalui	-7.54622
▁Negeri	-7.55155
▁terdapat	-7.55284
▁anak	-7.55995
▁dapat	-7.56292
▁kemudian	-7.56348
▁Terdapat	-7.56408
1	-7.56592
▁ada	-7.5694
▁Barat	-7.57396
u	-7.58345
▁penduduk	-7.59152
▁wanita	-7.59234
▁Pulau	-7.62142
▁tentera	-7.62613
▁Filem	-7.6296
▁6	-7.63082
▁Timur	-7.64035
▁bulan	-7.64417
▁Al	-7.64526
▁paling	-7.64848
▁pemain	-7.64891
▁N	-7.65268
▁mula	-7.65605
▁keseluruhan	-7.66109
▁timur	-7.66191
▁lagu	-7.66656
▁tiga	-7.67223
▁semasa	-7.67544
A	-7.6828
▁4	-7.69141
▁setiap	-7.6992
▁Poskod	-7.70302
3	-7.70366
C	-7.70453
▁semula	-7.7072
▁The	-7.71177
▁M	-7.71272
h	-7.71514
▁kebangsaan	-7.7195
▁Sungai	-7.73822
▁ber	-7.75045
▁Kuala	-7.75446
▁sistem	-7.7698
in	-7.77027
▁in	-7.771
▁terhadap	-7.77427
▁membuat	-7.77825
▁kecil	-7.7836
▁pernah	-7.78385
▁I	-7.78856
S	-7.78936
▁mendapat	-7.79739
▁masih	-7.80418
▁syarikat	-7.80449
▁Utara	-7.8067
▁terkenal	-7.80719
▁kali	-7.80777
▁E	-7.81023
▁rumah	-7.81551
▁semua	-7.81603
▁sendiri	-7.8171
▁awal	-7.81746
▁air	-7.82452
di	-7.83098
▁pelbagai	-7.83484
▁musim	-7.83604
▁10	-7.83978
▁5	-7.84351
▁kini	-7.84639
▁tinggi	-7.84692
▁bola	-7.84803
▁perempuan	-7.84877
er	-7.85439
en	-7.85925
▁B	-7.86037
▁de	-7.86304
▁kapal	-7.86354
▁tanah	-7.86389
▁bermula	-7.86421
▁Menteri	-7.87381
▁Itali	-7.87429
▁Menurut	-7.87816
▁guru	-7.88068
5	-7.88144
▁turut	-7.88568
▁Dia	-7.88844
▁menjadikan	-7.89594
▁bentuk	-7.89669
de	-7.89958
▁murid	-7.90561
▁kedudukan	-7.91424
▁pula	-7.91999
▁Provinsi	-7.92029
▁berjaya	-7.92491
▁sepak	-7.93895
▁Kedah	-7.93904
▁diri	-7.9485
▁album	-7.94891
▁mengambil	-7.9549
r	-7.95761
▁to	-7.96631
▁China	-7.96908
▁terbang	-7.97483
▁bermain	-7.97905
▁pihak	-7.97949
▁Raja	-7.98058
▁P	-7.98438
▁suatu	-7.98632
▁Inggeris	-7.98738
▁akhir	-7.98944
ing	-7.99689
▁menerima	-7.99873
▁Tentera	-8.0005
et	-8.00686
l	-8.00845
4	-8.00945
▁jenis	-8.00994
▁se	-8.01319
▁selama	-8.01876
▁kadar	-8.01887
▁Mac	-8.02139
▁Dunia	-8.02218
▁luar	-8.02936
al	-8.02981
▁kuasa	-8.03042
▁sekitar	-8.03173
▁para	-8.03371
▁12	-8.03395
▁terdiri	-8.03883
▁sejak	-8.03957
▁Jun	-8.04019
▁Mei	-8.04055
▁membentuk	-8.04152
▁meter	-8.04742
▁raya	-8.0475
▁Selepas	-8.04983
▁15	-8.05304
▁Januari	-8.05359
▁Aceh	-8.0563
ed	-8.06019
▁empat	-8.06108
daerah	-8.06206
li	-8.06863
▁seluruh	-8.06904
▁Sultan	-8.07445
▁Terengganu	-8.07598
▁populasi	-8.08029
▁7	-8.08261
▁8	-8.08405
▁diterbitkan	-8.08436
▁kereta	-8.08451
▁sebahagian	-8.08491
▁pelakon	-8.09141
▁Republik	-8.09164
▁biasa	-8.09281
▁kembali	-8.09348
▁membawa	-8.09411
▁Asia	-8.09453
▁Menengah	-8.09528
▁Sepanyol	-8.09563
▁D	-8.09857
▁Cina	-8.10238
▁16	-8.10327
▁juta	-8.10524
le	-8.1067
▁sebanyak	-8.10716
▁Eropah	-8.10959
▁bangunan	-8.11013
▁September	-8.11154
p	-8.11289
es	-8.11299
▁Ogos	-8.11488
▁politik	-8.11699
▁berlaku	-8.11767
M	-8.11789
▁terbesar	-8.1187
▁mungkin	-8.12357
▁mampu	-8.12627
dua	-8.12706
▁Ini	-8.12845
▁K	-8.13171
▁biasanya	-8.13241
▁selatan	-8.13566
▁Disember	-8.1421
▁lama	-8.14512
▁C	-8.14753
▁New	-8.15772
▁Julai	-8.16129
▁siri	-8.16244
▁sering	-8.16304
▁British	-8.16354
T	-8.16437
▁bukan	-8.16523
▁Perang	-8.16562
▁dibina	-8.16882
▁menyebabkan	-8.16884
▁abad	-8.16976
▁muzik	-8.16983
▁Oktober	-8.17133
lah	-8.17196
▁Daerah	-8.17207
▁April	-8.17365
▁pendidikan	-8.17522
▁membaca	-8.17566
▁Turki	-8.17831
▁[[	-8.18066
▁masyarakat	-8.1812
si	-8.18152
▁ringkasnya	-8.18558
▁2009,	-8.18718
▁manusia	-8.18924
▁Mereka	-8.18944
▁Masjid	-8.1908
b	-8.1916
▁menghasilkan	-8.19233
▁pusat	-8.19535
▁al	-8.19585
▁Bandar	-8.19946
▁11	-8.20097
▁keluarga	-8.20294
▁Perak	-8.20859
▁Negara	-8.20893
▁Taman	-8.20994
▁kaum	-8.21113
▁9	-8.21167
▁sangat	-8.2127
▁November	-8.2129
▁perlawanan	-8.21614
▁mengenai	-8.21664
▁T	-8.22052
▁kurang	-8.22379
*	-8.22406
▁tanpa	-8.22555
man	-8.2317
▁sahaja	-8.2344
▁Se	-8.23443
▁makanan	-8.23541
▁lapangan	-8.23546
on	-8.23775
▁baik	-8.23798
▁berada	-8.23948
▁Besar	-8.24568
▁memberi	-8.24756
▁bahan	-8.24912
▁Korea	-8.25099
▁Abdul	-8.25189
▁F	-8.2544
▁Australia	-8.25532
▁20	-8.25701
▁13	-8.25941
▁Wilayah	-8.26103
undang	-8.2662
▁penting	-8.26718
▁Tengah	-8.26836
▁bin	-8.27011
▁hasil	-8.27159
▁Jawa	-8.274
▁Bahasa	-8.27548
]]	-8.27657
▁tentang	-8.27881
▁hidup	-8.27922
▁14	-8.28157
▁bidang	-8.2884
▁ketinggian	-8.28914
▁bancian	-8.2941
kira	-8.2944
B	-8.29474
6	-8.29498
▁Ke	-8.29775
▁Kota	-8.29826
▁dikeluarkan	-8.29989
▁W	-8.30091
▁ibu	-8.30211
▁G	-8.30342
The	-8.30596
▁Jalan	-8.31422
▁Dari	-8.31862
▁La	-8.31961
▁2010	-8.32005
▁kemudiannya	-8.32336
us	-8.32436
▁Piala	-8.32532
▁agama	-8.32826
▁peringkat	-8.32884
▁watak	-8.32909
▁Presiden	-8.32923
▁Datuk	-8.33014
▁17	-8.33036
▁Kerajaan	-8.33179
▁kota	-8.33372
▁sepanjang	-8.33387
▁Universiti	-8.33577
▁zaman	-8.33589
▁Singapura	-8.33844
▁muncul	-8.33888
is	-8.33939
kanak	-8.33962
▁rasmi	-8.34166
7	-8.34185
g	-8.34332
▁Februari	-8.34354
ri	-8.34465
▁manakala	-8.3462
▁berbeza	-8.34652
▁Bukit	-8.34721
▁memenangi	-8.34982
▁sejarah	-8.35268
▁bilangan	-8.35518
▁tengah	-8.35603
▁bekas	-8.35894
▁nombor	-8.36305
▁aras	-8.36445
▁sekali	-8.36452
▁lalu	-8.36473
▁tempatan	-8.36977
▁Kelantan	-8.37005
c	-8.37458
▁Laut	-8.37643
z	-8.38154
▁Perdana	-8.38328
▁Arab	-8.38486
▁jalan	-8.38768
▁terus	-8.38794
▁&	-8.39077
▁berasal	-8.39144
▁menentang	-8.3915
▁dianggap	-8.39775
▁ramai	-8.39833
▁terutamanya	-8.40012
▁setelah	-8.40224
▁walaupun	-8.40832
▁kira	-8.41259
▁namun	-8.41358
0	-8.41523
▁menunjukkan	-8.41849
▁Anugerah	-8.4194
▁30	-8.42347
▁diadakan	-8.42424
▁lima	-8.4285
▁menyertai	-8.42951
▁RM	-8.43103
▁pesawat	-8.43175
▁Selain	-8.43858
▁memberikan	-8.4415
▁tempoh	-8.44736
▁H	-8.44912
f	-8.44988
▁perang	-8.45383
▁menyatakan	-8.46015
▁Walaupun	-8.46117
▁2001	-8.46283
▁pilihan	-8.46398
8	-8.46534
▁buku	-8.4662
▁bagaimanapun	-8.46639
▁kebanyakan	-8.46777
D	-8.46791
▁ketiga	-8.47105
▁keadaan	-8.47106
▁Namun	-8.47374
▁Saint	-8.47446
▁Ketua	-8.47922
▁berusia	-8.48124
ke	-8.48308
▁Seri	-8.48414
▁II	-8.48957
▁Johor	-8.48961
P	-8.49573
▁haiwan	-8.50062
▁perkhidmatan	-8.50144
▁akhirnya	-8.50254
▁R	-8.50413
▁drama	-8.50479
no	-8.50486
ly	-8.50887
▁api	-8.50913
▁pentadbiran	-8.5114
▁undang	-8.51152
▁asal	-8.51283
▁km	-8.5135
to	-8.51529
▁Batu	-8.5154
se	-8.51683
▁Kumpulan	-8.51715
▁Pinang	-8.51822
▁ekonomi	-8.51938
▁ditubuhkan	-8.52104
▁kelas	-8.52311
▁2008	-8.52397
▁Selangor	-8.52457
lahir	-8.52559
▁Belanda	-8.528
ku	-8.53106
▁sementara	-8.53189
▁Sri	-8.53313
▁Lumpur	-8.53317
▁batu	-8.53412
▁serangan	-8.53647
9	-8.53858
te	-8.54043
▁Ber	-8.54269
▁anggota	-8.54364
▁Yang	-8.54794
▁kelab	-8.54953
▁membantu	-8.55277
▁Dr	-8.55294
▁mata	-8.55457
ah	-8.55497
▁awam	-8.55598
▁Dengan	-8.55692
▁hampir	-8.55696
▁Darul	-8.55744
▁dipanggil	-8.55755
▁Tanah	-8.55756
▁pulau	-8.55924
▁amat	-8.56002
▁rendah	-8.56273
▁cara	-8.56566
▁berdasarkan	-8.56807
▁perlu	-8.5714
▁waktu	-8.57207
▁Majlis	-8.57253
▁TV	-8.57362
▁dihasilkan	-8.57622
▁terakhir	-8.57663
▁kerja	-8.57671
K	-8.57993
ki	-8.58072
▁Ahmad	-8.58306
▁seni	-8.58376
▁penyanyi	-8.58405
ar	-8.58767
▁mencapai	-8.58819
▁dilakukan	-8.58862
ni	-8.58947
▁Dewan	-8.59454
▁tinggal	-8.59559
▁Thailand	-8.596
la	-8.59695
▁2011	-8.59742
▁J	-8.59841
▁badan	-8.59928
▁memulakan	-8.60145
▁berbanding	-8.60204
▁bersempadan	-8.60349
▁Baru	-8.60518
re	-8.60657
▁umum	-8.60856
▁O	-8.60891
▁mengandungi	-8.60896
▁disebabkan	-8.60932
▁18	-8.61435
10	-8.61527
▁Shah	-8.61647
▁2009	-8.61865
▁antarabangsa	-8.61909
▁diberikan	-8.62019
▁U	-8.62276
▁Satu	-8.62284
▁panjang	-8.62307
▁apa	-8.62781
▁udara	-8.62994
▁Jakarta	-8.63046
▁melakukan	-8.63147
▁Parti	-8.63238
▁mengikut	-8.63683
▁komuniti	-8.63747
▁dibuat	-8.63918
▁sudah	-8.63989
▁permainan	-8.64248
el	-8.64254
▁spesies	-8.64263
18	-8.6437
▁jawatan	-8.64501
▁gol	-8.64813
▁jam	-8.64936
▁parti	-8.65001
▁arahan	-8.65071
ti	-8.65439
▁United	-8.65555
▁jika	-8.65695
▁ter	-8.65879
▁No	-8.65997
▁Jenis	-8.66024
th	-8.66253
▁Azerbaijan	-8.66318
sama	-8.66586
▁per	-8.66694
▁bekerja	-8.66724
▁25	-8.66731
▁St	-8.66734
ik	-8.66789
▁2007	-8.66843
▁popular	-8.66869
▁purata	-8.67062
▁televisyen	-8.67226
▁V	-8.67344
▁dilantik	-8.67361
▁Nama	-8.67375
▁Walau	-8.674
▁24	-8.675
@	-8.67816
▁21	-8.67827
x	-8.67951
▁kaki	-8.68691
▁Apabila	-8.68731
▁daya	-8.68739
▁:	-8.68826
▁Gunung	-8.68931
▁rancangan	-8.69077
or	-8.69134
laut	-8.6921
▁peranan	-8.69391
▁mudah	-8.69564
H	-8.69618
▁stesen	-8.70102
▁rakyat	-8.70437
▁sumber	-8.70793
▁Afrika	-8.70816
ne	-8.71076
▁Oleh	-8.7117
il	-8.71332
▁Melaka	-8.71487
▁ditayangkan	-8.71518
▁malam	-8.71685
N	-8.71763
▁belakang	-8.71779
▁pantai	-8.72216
orang	-8.72335
!	-8.72422
▁Raya	-8.72943
▁masjid	-8.72997
▁datang	-8.73055
▁hubungan	-8.73167
lu	-8.73409
▁Sarawak	-8.73579
▁merujuk	-8.73599
E	-8.73644
▁Le	-8.73669
▁bernama	-8.73712
▁kata	-8.73915
▁Czech	-8.73928
me	-8.74106
▁Haji	-8.74109
un	-8.74477
▁San	-8.74679
▁melebihi	-8.74927
F	-8.75084
▁2014	-8.7509
▁bilik	-8.75197
▁Muhammad	-8.7533
▁Liga	-8.75512
▁pemerintahan	-8.75527
▁padi	-8.75672
▁ketua	-8.75864
negara	-8.76075
ce	-8.76113
ang	-8.76333
▁sedang	-8.76447
▁2006	-8.7659
▁Tan	-8.76675
▁2012	-8.76694
▁Ali	-8.76705
▁begitu	-8.76829
▁penggunaan	-8.77158
▁Sebagai	-8.77179
G	-8.7718
▁video	-8.77181
▁masalah	-8.77202
▁program	-8.77268
▁enam	-8.77328
▁akibat	-8.77973
▁dinamakan	-8.78075
▁Antarabangsa	-8.78222
▁23	-8.78473
▁sejenis	-8.78697
▁diberi	-8.78734
▁proses	-8.78753
▁moden	-8.7893
5%	-8.79015
▁Norway	-8.79053
▁Burung	-8.79171
▁menerusi	-8.79327
▁menarik	-8.79333
▁Rusia	-8.79358
I	-8.79485
▁semakin	-8.79666
▁ditulis	-8.80004
R	-8.80022
▁19	-8.80126
▁menulis	-8.8019
▁meninggal	-8.80289
▁industri	-8.80372
▁pembangunan	-8.80409
▁2010,	-8.80439
▁dipilih	-8.80453
▁Mohd	-8.80488
▁keputusan	-8.8077
▁22	-8.81129
▁meninggalkan	-8.81216
▁berhampiran	-8.81574
▁Pusat	-8.81596
▁segi	-8.81689
ul	-8.81697
▁59	-8.81914
▁Kedua	-8.81966
ton	-8.82394
ter	-8.82452
mi	-8.82484
▁Mukim	-8.82818
19	-8.82935
▁pengarah	-8.82937
▁Antara	-8.82944
▁masuk	-8.83
▁2001,	-8.83004
▁Sabah	-8.83112
▁De	-8.83132
yang	-8.83148
▁tradisi	-8.83408
20	-8.83442
▁pokok	-8.83502
▁Persekutuan	-8.83506
▁hak	-8.83647
▁maka	-8.83969
▁hutan	-8.84158
▁Setelah	-8.84183
▁Ketika	-8.84313
ng	-8.84388
▁Orang	-8.84546
▁26	-8.84577
▁karya	-8.84754
▁Dato	-8.84939
▁2013	-8.8497
▁tertentu	-8.85189
SK	-8.85218
▁dilahirkan	-8.85256
▁pengeluaran	-8.85397
▁asli	-8.85526
▁mengalami	-8.85696
▁Untuk	-8.85869
▁In	-8.85897
▁Semasa	-8.85965
▁Serbia	-8.86004
▁for	-8.86226
▁unit	-8.86357
▁Pasukan	-8.86503
▁27	-8.86511
▁bebas	-8.86565
▁pegawai	-8.86707
bahasa	-8.86872
▁arah	-8.87012
▁28	-8.87186
▁keluar	-8.87488
▁Kanada	-8.87504
▁Jaya	-8.87513
ber	-8.87518
ro	-8.87682
▁gelaran	-8.87869
▁penuh	-8.87906
▁budaya	-8.88029
▁versi	-8.88049
J	-8.88078
▁dilihat	-8.88104
▁tenggara	-8.88122
▁Rakyat	-8.88223
▁tetap	-8.88292
▁mencari	-8.88443
▁tiada	-8.88522
ye	-8.88592
▁mati	-8.88597
▁2016	-8.88655
▁tangan	-8.88947
▁jauh	-8.88982
sur	-8.8914
ur	-8.89374
▁anjing	-8.89389
ra	-8.8941
▁Jabatan	-8.89511
▁Rom	-8.89551
13	-8.89683
▁0	-8.89695
15	-8.89853
▁tenaga	-8.90125
▁kalangan	-8.90212
17	-8.90272
▁perkataan	-8.90385
▁warna	-8.90431
▁memegang	-8.90435
▁kekal	-8.90699
▁sedikit	-8.9074
▁Sukan	-8.90759
▁kuat	-8.91042
▁wujud	-8.91114
▁Perlis	-8.91129
▁Terbaik	-8.91339
W	-8.91485
▁2004	-8.91543
▁Pahang	-8.9174
▁kod	-8.91803
▁pertanian	-8.91856
▁panas	-8.91895
▁saat	-8.91935
▁sebelah	-8.92341
▁langsung	-8.92479
um	-8.92737
▁putih	-8.92895
▁usaha	-8.9306
▁pejabat	-8.9323
▁melihat	-8.93254
▁provinsi	-8.93261
▁baginda	-8.93287
▁Tun	-8.93297
do	-8.93321
▁laluan	-8.93486
▁Parlimen	-8.93521
du	-8.93534
▁seterusnya	-8.93634
▁senjata	-8.93863
▁London	-8.93906
16	-8.93928
▁berkaitan	-8.93936
▁mukim	-8.94026
▁berkhidmat	-8.94028
▁sungai	-8.9418
▁Si	-8.9421
▁terlibat	-8.94348
▁tambahan	-8.94352
▁Air	-8.94354
▁kanak	-8.945
▁raja	-8.94635
00	-8.94658
▁sesuatu	-8.94745
▁L	-8.95102
les	-8.95178
▁alam	-8.95201
▁asas	-8.95324
▁Mas	-8.95381
▁2015	-8.9564
ir	-8.95723
ko	-8.95767
▁khas	-8.95813
▁muda	-8.96005
at	-8.96047
▁31	-8.96057
▁[	-8.9613
j	-8.96216
▁agar	-8.96513
▁kes	-8.96602
▁2005	-8.96651
▁minit	-8.96785
▁munisipaliti	-8.9709
▁/	-8.97131
▁mengeluarkan	-8.97142
dan	-8.97236
tan	-8.97331
▁men	-8.97428
▁cuba	-8.97532
▁kematian	-8.97665
▁kesan	-8.97766
▁dibahagikan	-8.97956
go	-8.98334
▁berkata	-8.98363
ch	-8.98399
▁sekarang	-8.98586
▁John	-8.98631
▁aktiviti	-8.98869
▁as	-8.98882
▁mendapatkan	-8.9895
▁buat	-8.99146
▁bantuan	-8.99181
▁sebarang	-8.994
▁diketahui	-8.99488
O	-8.99496
▁pertandingan	-8.99621
w	-8.99816
▁is	-8.99829
kebolehan	-8.99883
▁Man	-9.00011
ge	-9.00041
▁perniagaan	-9.00257
▁diambil	-9.00306
▁kejohanan	-9.00333
▁istilah	-9.00404
L	-9.00412
▁Filipina	-9.00486
▁Buku	-9.00524
▁tertinggi	-9.00702
▁asalnya	-9.00856
▁polis	-9.01038
▁m	-9.01109
▁membina	-9.01447
▁Ahli	-9.01471
▁Per	-9.01553
▁penyakit	-9.01937
▁dikatakan	-9.01988
▁dibuka	-9.02242
bi	-9.02343
▁29	-9.02357
▁Lagu	-9.02639
▁Hari	-9.02655
ok	-9.02698
▁berpindah	-9.02743
it	-9.02803
▁harga	-9.02884
▁anugerah	-9.0292
▁Abu	-9.03067
▁Brazil	-9.03293
▁contoh	-9.03471
▁dirinya	-9.03524
▁Ar	-9.03684
▁was	-9.03854
▁pembinaan	-9.03899
han	-9.03927
12	-9.0401
▁berikut	-9.04024
▁berat	-9.04039
▁ciri	-9.04087
men	-9.04091
▁Kalimantan	-9.04213
▁England	-9.04244
▁menggantikan	-9.04309
▁Hungary	-9.04532
▁aktif	-9.04752
▁operasi	-9.04756
▁minyak	-9.04799
▁wang	-9.04867
▁menyediakan	-9.04887
▁membolehkan	-9.0492
▁saluran	-9.05044
lain	-9.05223
▁sesetengah	-9.05278
▁projek	-9.05294
▁meng	-9.05336
▁kebal	-9.05369
▁penulis	-9.05381
▁darjah	-9.05539
▁model	-9.05586
▁terbaik	-9.05628
▁Nepal	-9.05727
▁rakan	-9.05789
▁perubahan	-9.05884
mana	-9.0597
▁kehidupan	-9.05982
▁tahap	-9.06009
▁2017	-9.06274
▁komputer	-9.06311
]	-9.06318
▁autonomi	-9.06389
▁dahulu	-9.06405
11	-9.06608
▁mengumumkan	-9.06611
▁bintang	-9.06633
pur	-9.06661
▁disebut	-9.06735
▁AS	-9.0682
14	-9.07077
ry	-9.07118
▁tapak	-9.07153
▁Bagaimanapun	-9.072
▁berkembang	-9.07364
▁mewakili	-9.07587
▁ikan	-9.07688
▁burung	-9.07756
▁cerita	-9.07991
abad	-9.08078
▁terpaksa	-9.0814
▁supaya	-9.08141
▁pemimpin	-9.08196
per	-9.08206
▁Dan	-9.08299
▁agak	-9.08328
ka	-9.08415
▁acara	-9.08434
▁hadapan	-9.08451
▁sebab	-9.08467
▁bermaksud	-9.08542
▁Kingdom	-9.08682
▁100	-9.08698
▁tradisional	-9.0885
▁nilai	-9.08884
gi	-9.08935
▁single	-9.0908
▁hitam	-9.0929
▁Salah	-9.0943
▁sosial	-9.09452
▁latitude	-9.09507
30	-9.09636
▁didapati	-9.09651
pe	-9.09671
▁SM	-9.0977
▁longtitud	-9.0983
▁2018	-9.09914
os	-9.09989
▁Tanjung	-9.10042
▁Mesir	-9.10304
▁Lee	-9.10308
masing	-9.10324
▁pertamanya	-9.10646
▁persembahan	-9.10791
▁hati	-9.10805
▁pun	-9.1082
mu	-9.10935
▁menang	-9.11033
▁Me	-9.11095
▁berkahwin	-9.11122
▁memerlukan	-9.11142
▁Sebelum	-9.11188
▁milik	-9.11275
ung	-9.11659
▁melibatkan	-9.11737
▁sokongan	-9.1178
▁Nasional	-9.11798
▁Persatuan	-9.11884
▁Dasar	-9.11936
▁disiarkan	-9.11972
▁Kebanyakan	-9.12441
▁bumi	-9.12526
▁Kemudian	-9.12542
▁Hal	-9.12566
wa	-9.12643
▁Album	-9.12722
▁Pertama	-9.12744
▁sains	-9.12764
▁dasar	-9.12775
▁peng	-9.1278
▁hal	-9.12939
▁memasuki	-9.13152
▁tujuan	-9.13207
▁maju	-9.13245
▁Teluk	-9.13359
▁gaya	-9.13435
▁berkenaan	-9.13498
▁1990	-9.13621
▁Go	-9.13734
▁Re	-9.13863
▁merah	-9.14024
▁El	-9.14243
▁Sejak	-9.14288
▁sepenuhnya	-9.14384
▁2000	-9.14427
st	-9.14457
▁Tenggara	-9.145
▁Kanak	-9.14816
▁minggu	-9.15079
▁Abdullah	-9.15166
▁seseorang	-9.15184
|	-9.15561
▁Allah	-9.15618
▁Haute	-9.15752
▁masing	-9.15753
▁Ibrahim	-9.15759
V	-9.1577
▁Tinggi	-9.15802
ya	-9.15849
▁menyokong	-9.15889
▁tiba	-9.16051
▁Latitud	-9.16067
▁golongan	-9.16166
▁pusingan	-9.162
▁maklumat	-9.16303
▁Empayar	-9.16372
▁be	-9.16454
▁Longitud	-9.16467
▁on	-9.16501
▁pasaran	-9.16517
▁pengguna	-9.16517
▁meningkat	-9.16556
▁presiden	-9.16657
▁Padang	-9.16667
▁pengeluar	-9.16831
son	-9.16909
▁balas	-9.17143
▁ruang	-9.17163
▁luas	-9.17216
ji	-9.17308
▁kejayaan	-9.17318
▁sukan	-9.17538
▁Israel	-9.17655
▁En	-9.17658
▁Pe	-9.17757
▁lahir	-9.17777
ut	-9.17858
ong	-9.18013
?	-9.18065
▁jadi	-9.18277
▁Brunei	-9.18407
▁kayu	-9.18584
▁media	-9.18611
▁Beberapa	-9.18702
▁gagal	-9.18795
ca	-9.1881
▁Sistem	-9.18975
▁membunuh	-9.19067
▁pen	-9.19448
▁re	-9.19749
▁menjaringkan	-9.19804
co	-9.19928
▁sesuai	-9.20327
▁50	-9.20346
▁Kawasan	-9.2055
▁Su	-9.20581
▁pertempuran	-9.20755
▁Muslim	-9.2077
▁tujuh	-9.20814
▁dijadikan	-9.20965
▁Soviet	-9.21185
▁bergerak	-9.21391
▁selain	-9.21563
▁pergi	-9.21627
▁ditemui	-9.21645
▁York	-9.21669
▁berubah	-9.21724
▁jatuh	-9.21745
▁ataupun	-9.21791
▁dibintangi	-9.21906
▁Dua	-9.21908
▁pertengahan	-9.22333
▁senarai	-9.22416
▁Para	-9.22439
▁by	-9.22583
▁gunung	-9.22642
▁suku	-9.22685
▁bertindak	-9.22733
▁Pendidikan	-9.2279
▁sel	-9.22884
▁usia	-9.22985
▁Bagi	-9.22995
▁berkuasa	-9.23173
▁kajian	-9.23213
▁diterima	-9.2336
▁Romania	-9.23415
▁alat	-9.2345
▁kita	-9.23558
▁Ismail	-9.23569
▁Kementerian	-9.23614
▁Pilihan	-9.23825
▁meningkatkan	-9.2388
▁teknologi	-9.23956
lan	-9.24074
▁tindakan	-9.24189
▁alih	-9.24201
san	-9.24453
▁ingin	-9.24622
der	-9.24762
▁2003	-9.24805
▁mengatakan	-9.24821
▁Pokok	-9.24935
▁perubatan	-9.24985
▁Ku	-9.25141
▁menengah	-9.25161
▁anti	-9.25222
▁perdagangan	-9.25377
▁Tidak	-9.25403
▁Muda	-9.25427
▁bergantung	-9.25725
▁episod	-9.25733
▁beroperasi	-9.25776
▁memilih	-9.25968
▁saya	-9.26091
▁Kristian	-9.26107
▁kimia	-9.26169
▁Bin	-9.26262
ran	-9.26349
▁Ci	-9.26428
▁khusus	-9.26514
▁with	-9.26549
▁An	-9.26566
▁cukup	-9.2666
▁permukaan	-9.26678
▁Switzerland	-9.26714
▁novel	-9.26719
▁menyerang	-9.26957
▁Ibu	-9.26978
▁sebenarnya	-9.2711
▁Aman	-9.27135
ian	-9.27229
▁rangkaian	-9.27336
▁Darat	-9.27353
▁Tahun	-9.2743
▁elektrik	-9.27453
▁perkara	-9.27469
daya	-9.27486
▁perjalanan	-9.27488
▁Vietnam	-9.27618
▁dilancarkan	-9.27664
q	-9.27793
▁produk	-9.27802
▁jarak	-9.27821
▁enjin	-9.27943
▁d	-9.27947
▁darah	-9.27964
▁Li	-9.27968
▁termasuklah	-9.28172
▁mengekalkan	-9.28177
▁jelas	-9.28179
=	-9.28202
▁suara	-9.28346
▁separuh	-9.28478
▁berikutnya	-9.28567
▁bunyi	-9.28628
▁berakhir	-9.28687
▁Yahudi	-9.28702
▁that	-9.28808
▁Sembilan	-9.28814
▁mahu	-9.28833
▁asing	-9.28929
▁Pasir	-9.29031
▁1980	-9.29243
▁belajar	-9.2934
▁la	-9.29495
▁individu	-9.29566
▁kemudahan	-9.2959
tu	-9.29664
▁sana	-9.29701
▁40	-9.2984
▁me	-9.29898
▁berwarna	-9.29932
▁pertahanan	-9.2995
ja	-9.29954
▁bapa	-9.30137
▁majlis	-9.30193
▁sempadan	-9.30354
ci	-9.30397
▁kerusi	-9.30551
▁2002	-9.30655
▁penerbangan	-9.30675
▁membenarkan	-9.30709
▁Bahagian	-9.30726
▁struktur	-9.30754
filem	-9.30755
▁s	-9.30867
▁pekerja	-9.31046
▁sebenar	-9.31084
chi	-9.31146
▁kaedah	-9.31254
▁Ter	-9.31352
▁tumbuhan	-9.31458
▁Guru	-9.3161
▁harus	-9.31649
▁Pekan	-9.31663
▁Semenanjung	-9.3176
▁Poland	-9.31785
▁tanda	-9.31789
▁sampai	-9.31859
▁latihan	-9.31885
▁pe	-9.31912
▁bertemu	-9.32019
▁Diraja	-9.32041
▁kulit	-9.3207
▁radio	-9.32128
anak	-9.32195
▁Stesen	-9.3233
▁cahaya	-9.32375
▁belum	-9.32436
▁dimana	-9.32625
▁As	-9.32736
▁data	-9.32878
▁bertanding	-9.32984
▁sini	-9.33029
▁kedai	-9.33073
▁rasa	-9.33073
▁UMNO	-9.33089
▁Ya	-9.33153
▁Wan	-9.33202
▁Nabi	-9.33364
▁FIFA	-9.33381
50	-9.33417
▁Udara	-9.33542
lo	-9.33556
ek	-9.33677
be	-9.33884
▁diarahkan	-9.34163
▁keselamatan	-9.34363
eh	-9.34506
▁Pejabat	-9.3458
▁tak	-9.34602
▁puluh	-9.34605
satunya	-9.34643
U	-9.34798
▁unsur	-9.34806
ic	-9.34868
▁sempena	-9.34951
▁calon	-9.3513
▁Be	-9.35152
▁Hulu	-9.35181
▁membeli	-9.35197
▁pendek	-9.35238
▁perjanjian	-9.35377
▁Istana	-9.35429
tengah	-9.35474
▁aliran	-9.35533
▁layak	-9.35583
▁2008,	-9.35719
▁Alam	-9.35905
▁kawalan	-9.35913
▁SMK	-9.36054
▁Kesatuan	-9.36094
▁Sdn	-9.36229
>	-9.36381
▁keempat	-9.364
▁ilmu	-9.36432
▁artis	-9.3645
▁kewangan	-9.36468
▁gas	-9.36515
▁meminta	-9.36597
▁makan	-9.36621
▁Mahkamah	-9.36739
▁surat	-9.36874
▁merangkumi	-9.3688
▁Sains	-9.36891
atau	-9.36922
▁penampilan	-9.37062
▁Yunani	-9.37094
▁meluas	-9.37291
▁edisi	-9.37392
▁Bangunan	-9.3763
▁menubuhkan	-9.3773
▁Kong	-9.37839
▁menghantar	-9.37841
lagu	-9.37856
▁Agung	-9.37884
▁kenderaan	-9.38141
▁peristiwa	-9.38218
▁kategori	-9.38259
▁dibawa	-9.38325
▁City	-9.38349
▁majalah	-9.3842
▁2011,	-9.38472
▁Bumi	-9.38631
▁melancarkan	-9.38646
▁kehilangan	-9.38669
ciri	-9.38692
▁Timbalan	-9.38733
▁taman	-9.38743
▁mulai	-9.38911
sh	-9.39025
lin	-9.39089
ten	-9.39109
▁tingkat	-9.39387
▁bangsa	-9.39478
▁menduduki	-9.39597
▁gampong	-9.39654
▁diikuti	-9.3971
▁terutama	-9.39755
▁mengadakan	-9.39794
wan	-9.39915
▁teori	-9.39956
▁sebelumnya	-9.39986
▁pemerintah	-9.40012
▁lakonan	-9.40025
gan	-9.40129
▁Rahman	-9.40157
▁Mar	-9.40268
▁istana	-9.40308
▁Baginda	-9.40333
▁Agama	-9.4045
▁1999	-9.40468
▁mencipta	-9.40472
▁menjalankan	-9.40473
▁terbuka	-9.40504
▁Zealand	-9.40558
▁kemenangan	-9.40583
min	-9.40625
▁Tengku	-9.40734
▁lapan	-9.40817
▁samping	-9.40851
▁suhu	-9.41022
isme	-9.41035
▁Kejohanan	-9.41061
▁emas	-9.41303
▁Hong	-9.41313
▁menurut	-9.41395
hi	-9.41577
su	-9.41645
▁peluru	-9.41662
▁kalendar	-9.41752
▁Mi	-9.41885
ba	-9.41921
▁berlangsung	-9.4202
ol	-9.42064
▁He	-9.42078
ling	-9.42139
▁Mu	-9.42205
▁menawarkan	-9.4222
▁Secar	-9.42237
bu	-9.42251
▁berasaskan	-9.42374
▁tarikh	-9.42468
▁Men	-9.42518
▁Akta	-9.42543
▁Sumatera	-9.42594
▁terbitan	-9.42714
▁diperkenalkan	-9.42791
▁direka	-9.43127
▁Slovakia	-9.43178
▁X	-9.43193
▁Tetapi	-9.43254
▁laman	-9.43317
mo	-9.435
▁memperoleh	-9.4356
▁undi	-9.43637
▁hilang	-9.43645
▁hidangan	-9.43645
▁kelihatan	-9.43681
▁dijalankan	-9.4388
▁Sebuah	-9.43996
▁mendapati	-9.44063
▁kesemua	-9.44068
▁bunga	-9.44145
▁dipercayai	-9.44262
▁tunggal	-9.44282
▁lokasi	-9.44824
▁berbahasa	-9.44931
25	-9.45015
▁Setiap	-9.45033
▁perlumbaan	-9.45061
▁Castile	-9.45076
▁rakaman	-9.45151
▁kerjaya	-9.45263
▁sentiasa	-9.45388
▁Kepulauan	-9.45497
▁belas	-9.45645
▁siap	-9.45728
tik	-9.45737
vi	-9.45809
▁Musim	-9.45823
▁akhbar	-9.45836
▁Iman	-9.45888
▁pagi	-9.45898
▁si	-9.46081
▁dijual	-9.46134
▁memainkan	-9.46166
▁keperluan	-9.46237
▁isu	-9.46266
▁bilion	-9.46278
▁era	-9.46294
▁sifat	-9.46402
▁Bhd	-9.4647
▁Mo	-9.46498
▁pangkat	-9.46555
▁Mexico	-9.46631
bo	-9.46656
ru	-9.46694
▁Do	-9.46765
▁tekanan	-9.46796
▁2019	-9.46799
▁kontrak	-9.47099
▁So	-9.4712
▁antaranya	-9.47143
▁perkembangan	-9.47224
sen	-9.47228
id	-9.47244
▁memutuskan	-9.47345
▁profesional	-9.47348
▁Cinta	-9.47369
▁konsep	-9.47422
▁rekod	-9.47451
▁juara	-9.47565
▁kanan	-9.47629
▁Park	-9.47646
▁FC	-9.47683
▁tepat	-9.47748
▁digantikan	-9.47813
▁keturunan	-9.4791
▁berbentuk	-9.48057
▁mengurangkan	-9.48077
▁pengurusan	-9.48086
▁pengaruh	-9.48115
▁Am	-9.48214
▁Akademi	-9.48354
▁Te	-9.48402
▁Siti	-9.48415
▁sub	-9.48423
▁Bank	-9.48438
▁Olimpik	-9.48476
▁web	-9.48516
bertanggungjawab	-9.48546
▁kos	-9.48584
lar	-9.48629
▁Grand	-9.48662
uk	-9.48663
▁Tamil	-9.48734
▁Bar	-9.4877
pan	-9.48816
tahun	-9.48977
La	-9.49144
▁Maharaja	-9.49172
▁meneruskan	-9.49254
▁isteri	-9.49258
▁World	-9.49359
▁diperlukan	-9.49403
▁liga	-9.49422
▁khususnya	-9.49452
▁kepala	-9.49542
▁bapanya	-9.49668
▁meletakkan	-9.4969
▁Tuan	-9.49855
▁Sementara	-9.49901
▁pasti	-9.49953
▁pekan	-9.5003
▁perhatian	-9.50057
▁keluasan	-9.50213
▁kadang	-9.50218
▁musuh	-9.50218
▁Kecil	-9.5025
▁adik	-9.5028
▁To	-9.50302
▁kejadian	-9.50327
▁Ireland	-9.50331
▁Bi	-9.50362
zi	-9.50572
▁sayap	-9.50572
▁$	-9.50606
▁penonton	-9.50647
▁Ada	-9.50769
ud	-9.50859
▁sejuk	-9.51063
▁kesihatan	-9.51093
▁daging	-9.51137
▁Ki	-9.51291
▁keras	-9.51296
▁Bo	-9.51331
▁2007,	-9.51375
▁mem	-9.51422
▁2012,	-9.51495
im	-9.51584
tar	-9.51661
Alpes	-9.51717
▁PAS	-9.51794
▁Jika	-9.52267
▁berterusan	-9.52344
▁studio	-9.52382
▁huruf	-9.52389
▁Pengarah	-9.52431
▁1998	-9.52469
▁dihantar	-9.52495
▁universiti	-9.52515
▁Bu	-9.52523
▁Han	-9.52566
▁Britain	-9.52588
▁Sam	-9.52613
▁pergerakan	-9.52687
mar	-9.52787
21	-9.52788
▁Anak	-9.52802
▁demikian	-9.52844
▁1970	-9.52864
kar	-9.52932
▁Tiga	-9.53015
▁berlakon	-9.53039
▁mulanya	-9.53064
▁Pelajaran	-9.53101
▁hujan	-9.53375
▁terlalu	-9.53488
▁bertujuan	-9.53588
▁tuan	-9.53604
▁Ko	-9.53616
va	-9.53699
▁pulang	-9.53732
▁organisasi	-9.53774
ahli	-9.53861
den	-9.54129
▁Z	-9.54193
▁terhad	-9.54239
ban	-9.54244
▁Polis	-9.54268
▁Pertubuhan	-9.54387
ler	-9.54395
▁1960	-9.54464
land	-9.54482
▁angin	-9.54664
▁kemerdekaan	-9.54722
ga	-9.54884
eng	-9.54914
▁Pertempuran	-9.55021
▁Jeneral	-9.55043
▁Sulawesi	-9.55075
▁Pen	-9.553
▁blok	-9.55348
ju	-9.55354
▁menentukan	-9.55426
▁Disney	-9.55439
ram	-9.55453
▁Mat	-9.55467
▁Juara	-9.55478
▁memerintah	-9.55489
▁membuka	-9.55524
▁pakaian	-9.55537
▁Kini	-9.55809
▁Sar	-9.55841
▁Long	-9.5616
▁serupa	-9.56236
▁sewaktu	-9.56244
▁reka	-9.56317
▁Swasta	-9.56374
▁Aziz	-9.56379
ting	-9.56399
▁cinta	-9.56484
▁gambar	-9.56544
▁fungsi	-9.56571
▁George	-9.56612
▁ibunya	-9.56664
▁gabungan	-9.56674
Malaysia	-9.56686
▁mengawal	-9.56711
▁titik	-9.56758
▁dilengkapi	-9.56841
▁Setiausaha	-9.56861
▁Zaman	-9.56881
▁komedi	-9.56899
▁mendakwa	-9.57008
▁Leon	-9.5705
▁peperangan	-9.57139
▁William	-9.57144
▁berjudul	-9.5728
▁diletakkan	-9.57383
▁parlimen	-9.57394
Z	-9.57433
ve	-9.57538
▁Khan	-9.57603
▁dekat	-9.57729
Y	-9.57837
▁Tu	-9.58046
▁Merah	-9.58081
▁Sesetengah	-9.58086
▁Angkatan	-9.5821
ers	-9.58274
▁Pengerusi	-9.58275
▁saudara	-9.58357
▁tua	-9.58385
jo	-9.584
▁menolak	-9.5842
▁daun	-9.58539
mer	-9.58571
▁berdekatan	-9.58629
kurangnya	-9.58662
▁Ulu	-9.58751
bar	-9.58753
▁penerbit	-9.58849
▁Kapal	-9.58864
▁depan	-9.58877
▁kilometer	-9.59106
▁mahupun	-9.59115
pen	-9.59156
▁hujung	-9.59207
▁Bola	-9.59334
▁James	-9.5938
▁menggambarkan	-9.59483
▁2013,	-9.59525
v	-9.59755
▁tugas	-9.59756
bat	-9.5991
tal	-9.59931
rin	-9.59965
▁kisah	-9.60124
▁Co	-9.60144
▁ujian	-9.60161
▁perkahwinan	-9.60346
▁menerbitkan	-9.60351
▁Tok	-9.60357
apa	-9.60358
▁menamatkan	-9.60518
▁Semua	-9.60526
▁Muzik	-9.60564
▁dicipta	-9.60659
▁set	-9.60775
▁kecuali	-9.60787
▁Tuhan	-9.60892
ley	-9.60898
▁pintu	-9.60906
▁sejumlah	-9.61147
▁melaksanakan	-9.6118
X	-9.61192
▁peserta	-9.61219
▁2006,	-9.61223
▁muka	-9.61288
▁menampilkan	-9.6139
▁peluang	-9.61475
ny	-9.61637
▁Peng	-9.61678
▁masakan	-9.61692
▁b	-9.6171
▁umumnya	-9.61879
▁Jawatankuasa	-9.62008
gar	-9.62037
▁penyelidikan	-9.62073
▁diumumkan	-9.62126
▁berikutan	-9.62273
▁Rumah	-9.62313
▁Che	-9.62454
▁dibangunkan	-9.62488
▁1997	-9.62507
▁menandatangani	-9.6255
▁berlainan	-9.6255
▁peribadi	-9.62588
▁saiz	-9.62591
pa	-9.62693
hu	-9.62739
▁majoriti	-9.62895
gu	-9.62897
▁60	-9.63058
▁Perjanjian	-9.63091
▁2014,	-9.63122
▁puak	-9.63187
▁baka	-9.63192
▁warga	-9.63307
▁teruk	-9.63374
▁Banyak	-9.63405
PSN	-9.63414
▁penerbitan	-9.63427
▁permulaan	-9.63447
▁bersetuju	-9.63475
sebuah	-9.63656
ham	-9.63657
▁kelayakan	-9.63689
nd	-9.63797
kadang	-9.63821
▁cepat	-9.63842
▁kegunaan	-9.63857
23	-9.64054
▁Sehingga	-9.64129
▁from	-9.64157
gen	-9.64189
ner	-9.64295
▁Hospital	-9.64345
▁digelar	-9.64354
▁Siri	-9.64445
0000	-9.64543
▁turun	-9.64545
▁70%	-9.6456
▁laporan	-9.64611
▁Ho	-9.64794
40	-9.64794
sar	-9.64821
▁Wanita	-9.64846
▁berita	-9.6487
▁Wales	-9.64964
▁konsert	-9.64979
▁are	-9.64994
▁disediakan	-9.65131
▁laksa	-9.65164
▁Rhone	-9.65209
▁etnik	-9.65224
▁Yu	-9.65329
▁pasangan	-9.65391
dar	-9.65473
▁Hassan	-9.65501
so	-9.65577
▁Pantai	-9.65597
▁formula	-9.65619
▁Pi	-9.65771
▁terjadi	-9.65884
▁South	-9.65903
48	-9.66123
▁Latin	-9.66129
▁Du	-9.66205
▁dilaporkan	-9.66227
▁perkampungan	-9.663
▁tokoh	-9.6633
ty	-9.66448
▁sukar	-9.66515
▁askar	-9.66516
▁segala	-9.6655
▁Chi	-9.6656
▁berfungsi	-9.66601
▁p	-9.66659
▁sebaliknya	-9.66681
▁Kim	-9.66771
▁setahun	-9.66783
▁Parsi	-9.66843
▁Barisan	-9.66865
ine	-9.66866
▁menjual	-9.66891
▁kempen	-9.66936
▁istimewanya	-9.66943
▁Seni	-9.66957
▁kerap	-9.66981
▁mangsa	-9.66988
▁kebanyakannya	-9.67022
▁baharu	-9.67047
Mu	-9.67211
▁bekalan	-9.67262
▁sisi	-9.67341
▁diketuai	-9.67484
ion	-9.67651
▁langkah	-9.67697
▁memastikan	-9.67707
▁garis	-9.67878
▁Ti	-9.68007
Se	-9.68084
▁sembilan	-9.68135
▁mahkamah	-9.68169
▁namanya	-9.68176
▁Pakistan	-9.68258
▁bertajuk	-9.68269
24	-9.68284
▁Malaya	-9.68293
▁Razak	-9.68344
▁kepentingan	-9.68389
▁objek	-9.68425
▁Pan	-9.68445
▁no	-9.68459
▁sulung	-9.68564
▁komersial	-9.68567
▁mempertahankan	-9.68567
pun	-9.68668
▁peratus	-9.68702
▁pengajian	-9.68863
▁tanaman	-9.68896
▁perbezaan	-9.68939
sel	-9.69138
▁memenuhi	-9.69208
▁benar	-9.69287
▁1996	-9.69468
▁menghadapi	-9.69603
▁Drama	-9.69647
▁at	-9.6974
▁ringan	-9.69852
▁45	-9.69882
▁dimiliki	-9.69892
▁1994	-9.69899
▁peningkatan	-9.70006
▁Bersatu	-9.70016
▁Lo	-9.70161
▁Ji	-9.70177
▁bukti	-9.70325
▁mengubah	-9.70355
▁menyaksikan	-9.70388
▁Hitam	-9.70428
▁Sydney	-9.70431
shi	-9.70442
▁or	-9.70488
▁Alor	-9.70549
▁meriam	-9.7055
22	-9.70562
▁jarang	-9.70567
yu	-9.70601
▁melarikan	-9.70656
▁kelompok	-9.70703
▁kalah	-9.70777
▁2015,	-9.70811
com	-9.7086
▁sekurang	-9.70937
▁persekutuan	-9.71002
▁kuda	-9.71091
▁pakar	-9.71094
▁bagaimana	-9.71113
▁III	-9.71159
▁planet	-9.71217
▁diasaskan	-9.71218
▁School	-9.71228
▁kandungan	-9.71242
▁Y	-9.71245
▁Gregory	-9.71272
▁percaya	-9.71285
▁matahari	-9.7133
▁mengikuti	-9.71332
▁bertambah	-9.71361
ie	-9.71391
▁ketenteraan	-9.71499
▁kami	-9.71601
▁peminat	-9.71651
▁teknik	-9.71652
▁genre	-9.71686
des	-9.71738
▁Bas	-9.71757
▁dibentuk	-9.71775
ron	-9.71786
hari	-9.71838
▁Ge	-9.71861
▁1995	-9.71988
▁kelajuan	-9.7211
▁keupayaan	-9.72169
▁kaya	-9.7232
▁Pembangunan	-9.724
▁keluaran	-9.72444
je	-9.7249
hal	-9.72504
▁kegiatan	-9.72637
▁malah	-9.72693
▁misi	-9.72739
ger	-9.72808
tak	-9.72866
▁ditetapkan	-9.72868
▁gerakan	-9.72892
▁Harry	-9.72929
▁memakai	-9.72986
▁mewujudkan	-9.73065
▁sesi	-9.7318
▁David	-9.73219
▁pandangan	-9.73393
▁harta	-9.73403
▁Istilah	-9.7342
▁Stadium	-9.73472
26	-9.73504
lam	-9.7354
▁kiri	-9.73694
▁Seorang	-9.73888
▁Perlembagaan	-9.73888
▁California	-9.73899
▁setempat	-9.73919
27	-9.73995
yo	-9.74079
rat	-9.74139
yan	-9.74157
▁generasi	-9.74157
▁Bavaria	-9.74411
▁fizikal	-9.74495
▁berjalan	-9.74513
▁Pegawai	-9.74516
▁disertai	-9.7453
▁ketara	-9.74575
ver	-9.74636
▁aksi	-9.74639
▁mencadangkan	-9.7465
▁Kolej	-9.7471
rah	-9.74718
▁Tak	-9.74758
▁dibawah	-9.74766
▁dipindahkan	-9.74779
▁Putera	-9.74812
▁kekuatan	-9.74851
▁Charles	-9.74901
▁gelombang	-9.74981
▁Kor	-9.75036
▁bulu	-9.75061
▁menganggap	-9.75106
▁Paris	-9.75109
▁tamat	-9.75151
▁balik	-9.75165
▁penubuhan	-9.75227
▁dijumpai	-9.75291
▁Ben	-9.75333
▁Ju	-9.75334
▁Min	-9.7534
]],	-9.75438
▁Kecamatan	-9.75452
▁bertukar	-9.75496
nama	-9.75566
ts	-9.75625
▁rantau	-9.75683
lang	-9.75701
▁Bintang	-9.75793
▁mm	-9.7581
▁hijau	-9.75839
▁memperkenalkan	-9.75936
▁mengetahui	-9.75977
▁remaja	-9.76019
▁Pihak	-9.76103
▁Star	-9.7611
▁selalu	-9.76164
▁Pu	-9.76232
▁Pas	-9.76236
▁Austria	-9.76262
▁demi	-9.7627
▁menemui	-9.76301
▁ISBN	-9.76329
▁Mohamad	-9.76426
▁Pak	-9.76456
▁bas	-9.76463
▁segera	-9.76527
▁sederhana	-9.76614
▁perasaan	-9.76687
28	-9.76689
▁jajahan	-9.76707
sari	-9.76742
▁Algeria	-9.7679
▁meliputi	-9.76831
▁rapat	-9.77032
ot	-9.7708
▁Puteri	-9.77083
van	-9.77122
ze	-9.77127
▁animasi	-9.77202
▁Q	-9.77289
▁pertubuhan	-9.77324
▁Paul	-9.77357
iah	-9.7743
▁darat	-9.77476
▁Nor	-9.77538
▁1991	-9.77636
▁Undang	-9.77738
em	-9.77863
▁My	-9.77888
▁Sir	-9.78022
▁mengarahkan	-9.78105
▁jenayah	-9.78133
▁kekurangan	-9.78143
90	-9.78172
▁Rendah	-9.78189
▁Astro	-9.78192
▁Shi	-9.78197
▁angkatan	-9.78207
▁pengangkutan	-9.78355
▁Lembaga	-9.78369
▁dimasukkan	-9.78435
▁ladang	-9.78446
▁hospital	-9.78475
▁Lu	-9.7852
▁tahu	-9.78604
che	-9.78663
▁1992	-9.78753
ster	-9.78763
▁melindungi	-9.7881
▁didirikan	-9.78846
▁Argentina	-9.78912
▁telefon	-9.78986
▁Pelakon	-9.78996
▁Berikut	-9.79143
▁Super	-9.79181
▁persekitaran	-9.79189
▁had	-9.79215
▁upacara	-9.79238
▁dibenarkan	-9.7927
▁menguasai	-9.79394
om	-9.79404
▁teks	-9.79426
kini	-9.79475
tor	-9.79477
▁2016,	-9.79479
▁=	-9.79605
▁perisian	-9.79642
▁Lama	-9.79696
kal	-9.79775
▁Gereja	-9.79806
▁Imam	-9.79867
Quran	-9.79868
▁tindak	-9.79895
ari	-9.80024
▁tulisan	-9.80045
nombor	-9.80113
▁naik	-9.80157
▁pelajaran	-9.80189
▁tangga	-9.80286
▁Festival	-9.80337
▁Jl	-9.80375
▁amalan	-9.80428
▁UEFA	-9.80443
▁Dinasti	-9.80573
▁pembunuhan	-9.80579
▁80	-9.80625
▁tumbuh	-9.80666
▁campuran	-9.8068
▁Institut	-9.80689
▁gereja	-9.80885
▁hebat	-9.80952
▁kerjasama	-9.81059
▁Sepak	-9.81115
▁Syed	-9.81135
▁mengakibatkan	-9.81169
▁Sweden	-9.81237
▁menteri	-9.813
▁perlindungan	-9.8151
▁2004,	-9.81616
▁penumpang	-9.81778
▁gadis	-9.81792
▁pemenang	-9.81839
▁hukuman	-9.81845
deg	-9.81896
▁angkasa	-9.81913
▁Tunku	-9.81987
tra	-9.82052
po	-9.82062
▁35	-9.82123
Ke	-9.82173
▁berbagai	-9.82178
▁Mer	-9.82231
juga	-9.82271
▁Seperti	-9.82277
▁dikaitkan	-9.82327
▁dewan	-9.82344
fi	-9.82357
▁tayangan	-9.82372
▁petang	-9.82385
▁tubuh	-9.82451
bahan	-9.82456
▁menghalang	-9.8255
▁Teknologi	-9.82586
▁kelahiran	-9.82621
▁1989	-9.82657
▁kepercayaan	-9.82689
▁membintangi	-9.8276
▁menyelamatkan	-9.82783
06	-9.8283
▁medan	-9.82846
▁perdana	-9.8285
▁dibunuh	-9.82878
▁Tokyo	-9.82886
▁digital	-9.82899
29	-9.82973
▁menambah	-9.83009
08	-9.8305
▁sudut	-9.83199
▁peralatan	-9.83244
▁menandakan	-9.83246
▁kebudayaan	-9.83373
▁Street	-9.83441
▁melahirkan	-9.83455
▁Encik	-9.83546
▁lautnya	-9.83559
▁Ri	-9.83607
▁32	-9.8364
▁idea	-9.83753
▁falsafah	-9.83755
▁memberitahu	-9.83828
▁ditambah	-9.83872
▁institusi	-9.8389
▁1993	-9.84011
▁Robert	-9.8407
▁sah	-9.84223
▁Ladang	-9.84261
▁melaporkan	-9.84297
▁peraturan	-9.84357
jan	-9.84392
35	-9.84405
▁menjalani	-9.84419
▁menjaga	-9.84422
▁dewasa	-9.84588
▁kelima	-9.84593
▁sekiranya	-9.8464
▁terkini	-9.84702
▁SK	-9.84715
▁Laluan	-9.84798
▁wakil	-9.84892
52	-9.84916
▁2005,	-9.84975
▁benua	-9.85006
▁anaknya	-9.85088
▁Bharu	-9.85096
▁1950	-9.85256
▁Portugal	-9.85263
▁meraih	-9.85304
▁nasi	-9.85333
▁KRI	-9.85447
▁pelabuhan	-9.85486
▁mengalahkan	-9.85491
▁pra	-9.8556
▁Sejarah	-9.85569
▁sambil	-9.8557
▁padang	-9.85583
har	-9.85619
▁bertugas	-9.85717
▁ratus	-9.85764
▁Akhirnya	-9.85807
kh	-9.85864
▁berusaha	-9.86077
▁atom	-9.86108
kerja	-9.86188
▁Atas	-9.8621
▁Kampong	-9.86243
▁membangunkan	-9.86275
▁tewas	-9.86332
▁Lim	-9.86338
▁pentas	-9.86455
ser	-9.86481
▁pengurus	-9.86561
▁sepuluh	-9.86585
Loire	-9.86618
▁Bengkulu	-9.86645
dy	-9.86691
▁Bakar	-9.86824
▁1986	-9.86858
ov	-9.86869
▁ayam	-9.86892
▁swasta	-9.86913
▁teater	-9.86945
▁Internet	-9.86973
pi	-9.86982
▁Michael	-9.87018
pu	-9.87127
▁Perhentian	-9.87187
▁Perkhidmatan	-9.87285
▁asid	-9.87294
▁UK	-9.87326
▁Ni	-9.87339
▁kemungkinan	-9.87362
▁dimainkan	-9.87415
▁jangka	-9.87419
2010	-9.8747
▁bank	-9.87487
▁diraja	-9.87487
▁pengasas	-9.8752
▁hadir	-9.87539
▁Jambi	-9.87559
▁tema	-9.87699
up	-9.87799
▁Program	-9.87819
Normandie	-9.87824
▁kurun	-9.87843
▁rock	-9.87927
▁Maka	-9.87965
▁Bangsa	-9.88074
▁200	-9.88083
▁menuntut	-9.88098
▁Car	-9.88194
ven	-9.88232
▁kabupaten	-9.88247
▁sedia	-9.88267
din	-9.88345
▁pro	-9.88402
▁hiburan	-9.88417
▁faktor	-9.88515
▁36	-9.88544
▁logam	-9.88609
▁menuju	-9.88651
▁awalnya	-9.88667
▁pemandu	-9.88727
▁matematik	-9.88749
▁Kar	-9.88795
▁kering	-9.88828
▁berpandu	-9.88922
ker	-9.88959
▁Umum	-9.88999
▁berasingan	-9.89201
▁suka	-9.89208
▁lengkap	-9.89369
60	-9.89383
▁kertas	-9.89386
▁Senarai	-9.89404
▁keluarganya	-9.89592
▁<	-9.89598
▁kakitangan	-9.89622
▁barangan	-9.89825
kura	-9.89876
duanya	-9.90239
▁Peter	-9.90293
bandar	-9.90302
▁Hindu	-9.90404
▁bukannya	-9.90411
by	-9.90426
▁dikenal	-9.9043
▁diperbuat	-9.90503
▁selamat	-9.90551
▁Entertainment	-9.90579
▁Taiwan	-9.90658
▁Rhineland	-9.90693
▁jualan	-9.90766
Palatinate	-9.90877
mon	-9.90919
▁ayat	-9.91003
zo	-9.91034
▁North	-9.91284
laku	-9.91361
▁Sin	-9.91363
▁imej	-9.9139
▁pem	-9.91454
▁saham	-9.91532
▁dimakan	-9.91569
▁Desa	-9.91609
▁Po	-9.91644
▁Pertahanan	-9.91679
▁kompleks	-9.91682
▁komponen	-9.91693
ville	-9.91708
dong	-9.91727
▁status	-9.91808
▁ditukar	-9.91817
▁isterinya	-9.91829
▁rawatan	-9.9183
▁Ram	-9.91839
the	-9.91843
▁Banten	-9.91848
▁Manakala	-9.9187
▁benda	-9.91891
ho	-9.91928
▁sakit	-9.91989
▁Muzium	-9.9199
▁pecahan	-9.92048
▁1988	-9.92087
▁menjelaskan	-9.92106
mat	-9.92249
▁Har	-9.92287
▁dilaksanakan	-9.92344
▁2017,	-9.92347
▁tropika	-9.92368
ey	-9.92438
raja	-9.92484
▁Is	-9.92525
▁pukul	-9.92548
▁sasaran	-9.9262
▁positif	-9.92754
▁judul	-9.92769
SMK	-9.92773
▁tumpuan	-9.92774
▁70	-9.92775
ada	-9.92862
▁dianugerahkan	-9.9287
tin	-9.92897
ation	-9.92905
▁Hadiah	-9.92944
▁bertahan	-9.92975
▁he	-9.92979
▁vokal	-9.92993
▁kad	-9.93007
▁tersendiri	-9.93015
▁Music	-9.93122
▁am	-9.93141
▁pengetahuan	-9.93193
ll	-9.93385
▁digambarkan	-9.93399
▁del	-9.93407
▁not	-9.93444
▁pembukaan	-9.93476
▁Katolik	-9.93501
dah	-9.93698
▁Or	-9.93704
▁berhadapan	-9.93738
▁bergabung	-9.93741
▁mengelakkan	-9.93882
▁lebar	-9.93915
▁Ro	-9.93942
▁Ratu	-9.93991
Al	-9.94012
▁permintaan	-9.94027
▁menempatkan	-9.94081
▁menetap	-9.94275
oh	-9.94331
lak	-9.94374
▁mesin	-9.94392
▁Kereta	-9.94443
▁Maha	-9.9448
▁Putih	-9.94526
ini	-9.94625
za	-9.94641
▁Bali	-9.94672
▁Ab	-9.94722
▁Colombia	-9.94806
▁Van	-9.9483
kah	-9.94831
▁besi	-9.9486
▁pembentukan	-9.94865
▁berkesan	-9.94868
▁his	-9.95005
▁Khas	-9.95019
▁kilang	-9.95029
▁duduk	-9.95029
▁Nur	-9.9503
▁Pasifik	-9.95115
▁1985	-9.95132
▁unik	-9.95135
▁Gu	-9.95181
▁pendapatan	-9.95189
▁Ne	-9.95256
▁semangat	-9.95433
▁dipasang	-9.9554
▁International	-9.95679
▁Mont	-9.95724
▁Bay	-9.9589
▁ekor	-9.95916
▁Iraq	-9.95964
▁Tri	-9.96035
▁nuklear	-9.96123
▁c	-9.96155
▁lembu	-9.96194
38	-9.96226
▁lawan	-9.96263
kawasan	-9.96412
▁Cha	-9.9643
▁kemunculan	-9.96533
▁siaran	-9.96537
rak	-9.96554
▁Hj	-9.96584
▁Disebabkan	-9.96829
▁Luar	-9.96872
▁akademik	-9.96898
▁takhta	-9.96979
▁Prix	-9.9699
▁menewaskan	-9.97029
▁Lebih	-9.9707
▁umur	-9.97073
▁lewat	-9.97082
▁Vi	-9.97093
ck	-9.97121
▁sebilangan	-9.97131
▁melawat	-9.97148
▁kuning	-9.97152
seperti	-9.97171
▁melepaskan	-9.97179
▁dekad	-9.97199
que	-9.97233
baru	-9.97319
▁Putra	-9.97332
▁jenama	-9.97333
▁Red	-9.97368
▁pimpinan	-9.9738
▁menghadiri	-9.97385
▁skuad	-9.97423
▁Bohemia	-9.9743
▁Ekonomi	-9.9743
▁penjara	-9.97613
tiga	-9.97622
▁Sang	-9.97632
▁sektor	-9.97665
▁kediaman	-9.97789
▁selam	-9.97804
▁disahkan	-9.9793
▁mendedahkan	-9.97932
don	-9.98016
▁Omar	-9.98025
▁aspek	-9.98119
ist	-9.98154
▁Mor	-9.9816
▁Borneo	-9.98177
▁lemah	-9.98239
▁perintah	-9.98263
▁Belgium	-9.98336
▁bermakna	-9.98339
ment	-9.98378
▁Bad	-9.98386
000	-9.98392
▁pertumbuhan	-9.98395
▁putera	-9.98553
▁1984	-9.98572
▁Gajah	-9.98643
▁dirujuk	-9.98755
▁pengalaman	-9.98862
▁menggalakkan	-9.98895
▁Kongres	-9.98914
45	-9.98987
▁umat	-9.99101
▁talian	-9.99122
lon	-9.99143
▁genus	-9.99162
▁were	-9.99208
▁Gabenor	-9.99208
▁berhenti	-9.99208
▁buatan	-9.99259
▁elektronik	-9.9929
▁Scotland	-9.99297
▁it	-9.99444
▁Uthmaniyyah	-9.99456
▁ditangkap	-9.99456
▁situ	-9.99458
100	-9.99503
▁Utama	-9.9958
▁It	-9.99612
▁Adam	-9.998
▁Undangan	-9.99839
nagar	-9.99839
▁puncak	-9.9987
▁mara	-9.99905
▁Panglima	-9.99956
hak	-10.0001
kat	-10.0003
ras	-10.001
▁tulang	-10.0014
▁1987	-10.0015
▁Ban	-10.0022
▁Pra	-10.0024
▁King	-10.0028
▁berkongsi	-10.0033
▁bersifat	-10.0035
bel	-10.0042
▁sambutan	-10.0059
▁tepi	-10.006
od	-10.0063
▁Simpang	-10.0066
▁barang	-10.0076
▁dewa	-10.0099
▁persegi	-10.0101
tif	-10.0109
▁menghabiskan	-10.0111
▁Victoria	-10.0113
▁University	-10.0113
70	-10.0117
▁Group	-10.0118
negeri	-10.0131
▁Martin	-10.0143
▁menukar	-10.0145
▁Mark	-10.0149
▁klasik	-10.0155
▁melawan	-10.0158
▁tan	-10.016
▁Buddha	-10.0161
br	-10.0166
▁Portugis	-10.0168
▁purba	-10.0168
▁Tom	-10.0173
▁mendirikan	-10.0174
▁Afghanistan	-10.0179
▁Empat	-10.0179
▁jantung	-10.0184
▁Jumlah	-10.0184
80	-10.0185
kapal	-10.0192
▁diiktiraf	-10.0194
▁50%	-10.0196
▁Denmark	-10.0199
▁pelanggan	-10.0204
▁Bal	-10.021
▁Lembah	-10.0211
▁terawal	-10.0211
▁nyanyian	-10.0214
▁telur	-10.0216
▁Jumaat	-10.0224
▁x	-10.0226
▁pencalonan	-10.0226
▁solat	-10.0237
dal	-10.0242
gh	-10.0245
▁Kal	-10.0249
res	-10.0253
▁Pagi	-10.0253
▁biru	-10.0254
▁sultan	-10.0256
▁mesti	-10.0256
▁perumahan	-10.0256
▁kehadiran	-10.026
▁34	-10.0261
▁barisan	-10.0288
▁Sari	-10.0295
▁Syria	-10.0302
▁kecederaan	-10.0305
▁dijangka	-10.0306
▁dinding	-10.0325
▁Val	-10.0332
▁cabang	-10.0332
sin	-10.0334
nes	-10.0335
▁which	-10.0338
▁latar	-10.0339
▁Hu	-10.0359
▁berumur	-10.0359
▁90	-10.0359
03	-10.0362
▁ditutup	-10.037
▁persatuan	-10.0383
▁menyumbang	-10.0388
▁West	-10.0392
33	-10.04
▁kuil	-10.0403
▁pesakit	-10.0419
ring	-10.0422
▁Anwar	-10.0424
▁Fu	-10.0425
▁menampung	-10.0428
▁Panjang	-10.0429
▁Klang	-10.0429
▁pembantu	-10.0438
36	-10.0439
▁Menjelang	-10.0444
▁2018,	-10.0449
▁terbunuh	-10.045
▁menetapkan	-10.0465
▁perlembagaan	-10.0473
▁kitab	-10.0482
▁Sun	-10.0482
▁1982	-10.0486
▁FA	-10.0488
Daerah	-10.0489
jar	-10.0505
▁sekumpulan	-10.0512
▁mengendalikan	-10.0522
kata	-10.053
▁You	-10.0531
▁Puan	-10.0539
ologi	-10.054
▁Thomas	-10.054
▁lapisan	-10.054
▁seks	-10.0554
▁pantas	-10.0558
▁pemilihan	-10.0563
▁mengesahkan	-10.0563
▁seluas	-10.0564
▁pinggir	-10.0567
09	-10.057
▁arus	-10.0578
Per	-10.0579
▁Suruhanjaya	-10.0585
▁menyampaikan	-10.0585
Or	-10.0589
▁Rancangan	-10.0602
▁tajuk	-10.0606
▁format	-10.0607
▁Meng	-10.0617
wi	-10.0626
▁rasminya	-10.0635
▁Nobel	-10.0636
▁diarah	-10.0637
▁38	-10.064
mah	-10.0643
▁pekerjaan	-10.0647
▁pemilik	-10.065
▁makhluk	-10.0653
▁membayar	-10.0656
▁Jan	-10.0663
▁terpilih	-10.0667
▁mengajar	-10.0668
▁taraf	-10.0675
▁cemerlang	-10.0678
▁Love	-10.0681
▁gula	-10.0686
▁memakan	-10.0687
▁Felda	-10.0691
▁Hanya	-10.0692
▁menara	-10.0695
▁pendaftaran	-10.0708
▁letupan	-10.0711
▁cadangan	-10.0721
tas	-10.0738
▁kebebasan	-10.0739
▁Milan	-10.0742
mal	-10.0743
▁pelancong	-10.0747
04	-10.0748
▁Amir	-10.075
▁kenyataan	-10.0754
▁bandaraya	-10.0757
▁Muara	-10.0759
fa	-10.076
▁jambatan	-10.0767
▁bukit	-10.077
▁isyarat	-10.0783
▁tertua	-10.0789
ris	-10.079
kin	-10.079
▁Hutan	-10.0811
▁nad	-10.0836
07	-10.0837
▁hukum	-10.0839
▁syarat	-10.0848
▁Gi	-10.085
▁menimbulkan	-10.085
▁penyokong	-10.0852
▁susu	-10.0856
05	-10.0857
ib	-10.0857
▁Tibet	-10.086
▁Black	-10.0862
▁War	-10.0864
▁Sal	-10.0868
▁Sha	-10.0872
▁At	-10.0877
▁Industri	-10.0888
▁Ad	-10.089
▁penempatan	-10.089
▁Palestin	-10.089
▁Unit	-10.0893
jaya	-10.09
37	-10.0901
cu	-10.0901
▁skrip	-10.0901
he	-10.0902
▁ayahnya	-10.0903
▁33	-10.0904
▁Operasi	-10.0907
▁Ce	-10.0908
▁tergolong	-10.0912
tion	-10.0919
▁carta	-10.0919
▁fizik	-10.0924
kon	-10.0925
▁Selat	-10.0927
▁Armenia	-10.0928
ks	-10.093
▁pejuang	-10.0936
▁pop	-10.0939
belah	-10.0944
▁pawagam	-10.0953
▁dikurniakan	-10.0958
▁Bulan	-10.0962
▁konflik	-10.0974
io	-10.098
▁Los	-10.0983
uh	-10.0988
nan	-10.099
▁memaksa	-10.0991
▁persamaan	-10.0996
▁rahsia	-10.1004
long	-10.1016
▁dikarang	-10.102
▁kemalangan	-10.1026
▁betul	-10.1027
▁disenaraikan	-10.1031
▁gelap	-10.1033
▁sumbangan	-10.1037
▁suci	-10.1049
▁Lautan	-10.1058
▁Media	-10.106
▁helikopter	-10.1064
▁menjadikannya	-10.1069
34	-10.107
▁jurulatih	-10.1077
▁bahwa	-10.1077
▁mendengar	-10.1077
▁beraksi	-10.1079
▁ulasan	-10.1079
▁ubat	-10.1081
▁Surat	-10.1082
▁pemuzik	-10.1083
▁selalunya	-10.1084
mata	-10.1098
▁do	-10.11
▁merancang	-10.11
▁diubah	-10.1104
bal	-10.1106
▁melanjutkan	-10.1112
ard	-10.1114
▁Ver	-10.1116
▁bersara	-10.1128
▁penghujung	-10.1129
▁peranti	-10.1131
▁utamanya	-10.1137
▁lukisan	-10.1145
bin	-10.1148
▁cecair	-10.1148
ez	-10.1153
▁penulisan	-10.1158
jang	-10.1163
▁betina	-10.1164
▁Mahathir	-10.1173
▁enggan	-10.1178
▁Les	-10.118
ken	-10.1182
▁agensi	-10.1189
▁restoran	-10.1192
▁manis	-10.1193
▁bakat	-10.12
▁cukai	-10.1203
▁banci	-10.1206
▁pelancongan	-10.1213
▁Gar	-10.1217
▁menyelesaikan	-10.1222
▁bersaing	-10.1222
▁bakal	-10.1223
▁Projek	-10.1224
▁seekor	-10.1228
32	-10.1228
▁Bersama	-10.123
▁Pradesh	-10.1233
▁Pro	-10.1239
65	-10.1242
85	-10.1244
▁Corporation	-10.1251
▁papan	-10.1252
▁Henry	-10.1254
con	-10.1259
47	-10.1263
▁empayar	-10.1265
annya	-10.1266
▁sekaligus	-10.1287
▁alasan	-10.1293
▁zon	-10.1299
turut	-10.1299
cho	-10.1303
▁minuman	-10.1303
▁Windows	-10.1305
▁berturut	-10.1308
▁tarian	-10.1308
▁Dar	-10.1314
▁biji	-10.1319
▁nelayan	-10.1321
▁48	-10.1321
bang	-10.1327
▁hamba	-10.1327
▁sebagainya	-10.1328
▁ancaman	-10.1333
▁dikendalikan	-10.1334
▁May	-10.1335
▁simbol	-10.1335
▁46	-10.1336
▁terbentuk	-10.134
tempat	-10.1344
vo	-10.1346
▁kerosakan	-10.135
▁Saudi	-10.1353
▁1930	-10.1355
kumpulan	-10.1357
▁Kan	-10.136
▁jalur	-10.1364
▁Kali	-10.1365
▁dipakai	-10.1373
▁Meskipun	-10.1374
rang	-10.1375
▁l	-10.1375
▁Kem	-10.1381
▁fasa	-10.1383
▁iklim	-10.1386
Bahasa	-10.1386
est	-10.1391
▁menggabungkan	-10.1392
tur	-10.1404
▁dimulakan	-10.1416
▁Daftar	-10.1421
▁memusnahkan	-10.1433
▁Pem	-10.1439
▁prinsip	-10.1443
▁tanggal	-10.145
ted	-10.1453
▁Tambahan	-10.1453
▁Ru	-10.146
▁Ham	-10.1462
▁Menara	-10.1471
49	-10.1473
▁berjumlah	-10.1475
▁Revolusi	-10.1476
▁lainnya	-10.1477
ino	-10.1477
Di	-10.1477
▁simpanan	-10.1482
▁rata	-10.1492
ren	-10.1498
86	-10.1505
▁jantan	-10.1505
var	-10.1505
▁Pentadbiran	-10.1506
▁bangsawan	-10.1506
▁1978	-10.1513
▁Miss	-10.1529
▁Sepanjang	-10.1529
▁kasar	-10.1531
▁perpustakaan	-10.1541
off	-10.1542
▁MY	-10.1549
dalam	-10.1551
▁binti	-10.1551
▁penjaga	-10.1552
▁Juga	-10.1552
▁pingat	-10.1553
▁molekul	-10.1553
▁ditahan	-10.1558
▁1979	-10.1559
▁ditempatkan	-10.1559
▁42	-10.1569
▁Er	-10.1571
Q	-10.1571
▁Parit	-10.1572
▁1945	-10.1574
▁kelurahan	-10.1575
par	-10.1578
▁pangkalan	-10.1579
▁Chan	-10.1579
car	-10.1581
tel	-10.1581
46	-10.1581
▁gigi	-10.1582
▁liar	-10.1584
67	-10.1584
▁berdiri	-10.1598
▁kon	-10.1601
▁global	-10.1601
▁tembakan	-10.1605
▁Maria	-10.1608
dik	-10.1608
▁menyimpan	-10.1609
▁Berhad	-10.161
mm	-10.161
▁Kerja	-10.1611
bak	-10.1618
▁cenderung	-10.1618
▁solo	-10.1622
▁Sumber	-10.1626
ent	-10.1627
▁Coast	-10.1635
▁Mal	-10.1638
▁pertukaran	-10.1649
if	-10.1654
▁Hamid	-10.1656
▁Channel	-10.1656
iyah	-10.1661
▁berdarah	-10.1662
▁menghubungkan	-10.1662
Juara	-10.1663
iz	-10.1666
55	-10.1666
uddin	-10.1669
99	-10.167
iya	-10.1674
▁pendapat	-10.1675
▁puisi	-10.1682
▁but	-10.1683
▁Je	-10.1686
my	-10.1688
ff	-10.1696
▁Santa	-10.1699
▁kemahiran	-10.1699
▁risiko	-10.17
▁adat	-10.17
▁perundangan	-10.171
▁Jin	-10.1717
bah	-10.1722
SJK	-10.1727
lik	-10.1732
▁seksual	-10.1735
▁Abd	-10.1736
gal	-10.1737
▁hendak	-10.1738
▁Sen	-10.1743
tes	-10.1745
▁kontroversi	-10.1753
▁Cor	-10.176
▁Siam	-10.1762
54	-10.1766
▁memaparkan	-10.1771
iti	-10.1776
▁Remaja	-10.1778
bit	-10.1779
▁Mahmud	-10.1788
row	-10.1789
▁Naib	-10.1791
▁jisim	-10.1794
▁;	-10.1797
▁minat	-10.1808
▁cawangan	-10.1809
▁bekerjasama	-10.1816
▁bendera	-10.1823
62	-10.1826
01	-10.1839
▁PS	-10.1848
▁membuatkan	-10.1853
▁lepas	-10.1853
▁dagang	-10.1854
▁1968	-10.1855
▁Kelab	-10.1858
▁Ain	-10.1863
▁eksekutif	-10.187
▁1983	-10.1872
▁melantik	-10.1877
sis	-10.1884
og	-10.1893
▁Can	-10.1903
▁sebagaimana	-10.1904
berg	-10.1909
▁selesai	-10.1912
▁salinan	-10.1918
▁debut	-10.1919
▁1981	-10.1921
88	-10.1922
▁Tasik	-10.1926
▁37	-10.1934
▁Kas	-10.1935
ity	-10.1935
▁Bandaraya	-10.194
▁Radio	-10.195
▁Mohamed	-10.1951
▁halaman	-10.1952
▁ASEAN	-10.1955
▁Par	-10.1955
▁ditentukan	-10.1957
▁Richard	-10.197
▁Yusof	-10.1974
▁berhubung	-10.1977
▁berkait	-10.1978
▁sebesar	-10.199
▁separa	-10.1991
▁Za	-10.1994
nam	-10.1999
▁Kelas	-10.2001
▁kelapa	-10.2003
▁mengisytiharkan	-10.2008
▁Tang	-10.2009
▁Ak	-10.2011
▁mengembangkan	-10.2016
▁dokumen	-10.2019
▁bayi	-10.2027
▁angka	-10.203
▁menjelang	-10.2033
mula	-10.2033
▁pemberontakan	-10.2036
▁panchayat	-10.2039
▁lanjut	-10.2044
51	-10.2048
▁doktor	-10.2059
▁dalaman	-10.206
▁aplikasi	-10.2065
uan	-10.207
las	-10.2075
▁pasar	-10.2076
▁menyerupai	-10.2077
▁Lan	-10.2079
▁bernilai	-10.208
▁menyerahkan	-10.2081
▁Karya	-10.2084
▁2003,	-10.2085
▁Bunga	-10.2089
▁Iskandar	-10.2089
▁Sebaliknya	-10.209
▁dikenakan	-10.209
tidak	-10.2098
▁pengkritik	-10.2103
▁sedangkan	-10.2103
peng	-10.2103
▁komunis	-10.2109
▁band	-10.2109
▁istimewa	-10.2113
▁1974	-10.2115
▁hadiah	-10.2117
▁tingkatan	-10.2121
▁te	-10.2122
▁Jam	-10.2139
ding	-10.2146
sy	-10.2148
▁500	-10.2159
▁Balai	-10.2164
mel	-10.2174
▁Jo	-10.2181
▁1963	-10.2183
one	-10.219
op	-10.2194
nu	-10.2195
▁Yogyakarta	-10.2201
▁1965	-10.2205
mus	-10.2206
▁Tar	-10.2208
56	-10.2216
▁wartawan	-10.2217
▁ditugaskan	-10.2218
▁dinyatakan	-10.2218
▁Kon	-10.2221
▁prestasi	-10.223
▁pasir	-10.2231
▁perayaan	-10.2234
▁mengatasi	-10.2237
▁Records	-10.224
De	-10.2241
▁jawatankuasa	-10.2245
▁sehari	-10.2254
ish	-10.2262
95	-10.2263
▁ibn	-10.2265
▁sastera	-10.2265
▁Asli	-10.2266
▁Mon	-10.2271
▁PBB	-10.2272
▁dicapai	-10.2274
▁langit	-10.228
▁town	-10.2281
▁pencapaian	-10.2282
▁kebenaran	-10.2283
▁kuno	-10.2284
▁Berikutan	-10.2289
▁landasan	-10.2295
▁Musa	-10.2298
tang	-10.2298
▁Land	-10.2298
▁menawan	-10.2302
bahagian	-10.2308
▁seri	-10.2312
▁Lang	-10.2316
war	-10.2317
▁kebakaran	-10.2321
▁perlahan	-10.2322
gon	-10.2326
200	-10.2332
▁kegagalan	-10.2338
▁meskipun	-10.2338
▁Company	-10.234
tri	-10.2342
▁Akhir	-10.2346
96	-10.2346
tis	-10.2353
dang	-10.2354
dari	-10.2361
▁diper	-10.2368
▁teratas	-10.2373
TV	-10.2374
▁bererti	-10.2381
▁hotel	-10.2384
▁Perkataan	-10.2386
▁Paya	-10.2386
eri	-10.239
▁sedemikian	-10.2392
▁Seine	-10.2396
▁berapi	-10.2396
▁dikawal	-10.2399
▁komunikasi	-10.2401
▁con	-10.241
▁punca	-10.2411
vin	-10.2412
sing	-10.2413
hara	-10.2415
sk	-10.2417
▁bersejarah	-10.2419
▁mengalir	-10.2424
▁Cho	-10.2424
▁posisi	-10.2424
▁dianjurkan	-10.2425
▁buruk	-10.2425
▁Centre	-10.2426
▁Hakim	-10.2428
▁disokong	-10.2428
&	-10.2432
▁Road	-10.2433
▁Hussein	-10.2437
44	-10.2439
▁kekalahan	-10.2446
▁rujukan	-10.2448
besaran	-10.2449
▁harafiah	-10.2451
gun	-10.2452
64	-10.246
▁AFC	-10.2463
benar	-10.2463
▁Mak	-10.2472
▁Con	-10.2472
▁1969	-10.2474
ant	-10.2476
▁co	-10.2479
▁Port	-10.2484
▁Perpustakaan	-10.2489
▁1976	-10.2494
▁kubu	-10.2495
▁batang	-10.2498
ou	-10.25
▁ditawarkan	-10.2504
▁perjuangan	-10.2516
▁Loire	-10.2517
▁automatik	-10.2517
▁pembangkang	-10.2537
▁platform	-10.2537
▁penerima	-10.255
75	-10.2551
▁penghasilan	-10.2554
dak	-10.2559
▁karena	-10.2563
▁terkemuka	-10.2564
▁layar	-10.257
▁ditanam	-10.2571
▁39	-10.2572
▁perisai	-10.2576
▁saintifik	-10.2576
▁bar	-10.2582
▁keenam	-10.2595
▁Google	-10.2597
58	-10.2606
▁pengenalan	-10.2612
98	-10.2614
▁Bahru	-10.2617
▁makmal	-10.262
▁skala	-10.2621
let	-10.2623
Re	-10.2629
▁teras	-10.2631
▁Kesultanan	-10.2637
▁geografi	-10.2638
31	-10.2641
76	-10.2643
▁Awam	-10.2651
▁Masyarakat	-10.2655
▁Thai	-10.2655
▁dianggarkan	-10.2657
▁berpusat	-10.2673
▁51%	-10.2673
▁Hindi	-10.2675
▁disimpan	-10.2678
Maritime	-10.2679
▁dipimpin	-10.2685
▁biologi	-10.269
▁Don	-10.2696
▁kerjayanya	-10.2702
▁Ken	-10.2704
▁Fi	-10.2704
pelajar	-10.271
▁Keselamatan	-10.2711
▁koleksi	-10.2711
▁Zi	-10.2713
ow	-10.2713
▁49%	-10.2714
▁tahunan	-10.2717
▁Sony	-10.2717
▁label	-10.2719
▁adanya	-10.2722
▁Sulaiman	-10.2725
▁dipengaruhi	-10.2725
▁Mulia	-10.2728
▁Schleswig	-10.2732
▁Khalid	-10.2735
▁opera	-10.2736
amp	-10.2737
▁sengaja	-10.2739
▁timbul	-10.2745
▁mempengaruhi	-10.2745
▁mesyuarat	-10.2753
▁Formula	-10.2753
▁pesat	-10.2753
▁Az	-10.2755
mas	-10.2766
ros	-10.2766
ori	-10.2769
▁has	-10.2772
▁Warna	-10.2776
▁Mahkota	-10.2779
▁Nu	-10.2786
▁Gerakan	-10.2801
▁1940	-10.2801
▁Kanan	-10.2807
▁memudahkan	-10.2813
53	-10.2816
▁peguam	-10.282
▁Penduduk	-10.2822
nik	-10.2823
cy	-10.2825
39	-10.2836
▁Bor	-10.284
▁bertentangan	-10.284
▁Contohnya	-10.2847
▁menyedari	-10.2848
▁tempur	-10.2851
▁ulang	-10.2851
▁mengetuai	-10.2861
▁Royal	-10.2862
▁berasa	-10.2863
▁Tuanku	-10.2865
▁suaminya	-10.2865
▁Banjar	-10.2869
unsur	-10.2869
▁Union	-10.287
▁harian	-10.288
▁Rock	-10.2881
fe	-10.2881
▁Louis	-10.2884
▁Lelaki	-10.2886
pak	-10.2893
▁Allahyarham	-10.2895
▁percubaan	-10.2895
▁gempa	-10.2896
▁53%	-10.2898
▁bersebelahan	-10.2902
▁Anjing	-10.2903
▁kesalahan	-10.2905
▁Zainal	-10.2906
▁Nik	-10.2908
▁Contoh	-10.2908
▁Idris	-10.2909
▁tanggungjawab	-10.2913
low	-10.2913
▁Setar	-10.2916
▁dibebaskan	-10.2916
▁menangkap	-10.2917
▁ku	-10.2919
▁Sel	-10.2921
lebih	-10.2922
71	-10.2926
▁1971	-10.2927
▁Ipoh	-10.2931
▁membiak	-10.2937
lat	-10.2941
▁berketurunan	-10.2944
57	-10.2944
▁Suka	-10.2952
▁lazimnya	-10.2952
▁penyerang	-10.2954
▁Karang	-10.2957
▁berhijrah	-10.2958
▁virus	-10.2959
▁47	-10.2961
▁Ramai	-10.2963
▁terbahagi	-10.2965
▁1975	-10.2966
▁*	-10.2973
▁percuma	-10.2978
uri	-10.298
▁Tiada	-10.298
▁Batang	-10.2982
▁mengisahkan	-10.2985
▁banjir	-10.2985
▁karbon	-10.2986
▁bina	-10.2991
▁kawan	-10.2992
▁anime	-10.2992
▁Bel	-10.2996
▁Selama	-10.3004
▁Aquitaine	-10.3006
▁manga	-10.3008
▁Makanan	-10.3011
▁stadium	-10.3013
pada	-10.3015
▁Mohammad	-10.3019
▁Hak	-10.3023
▁Sch	-10.3026
▁Mengikut	-10.3034
▁terdahulu	-10.3035
▁kepulauan	-10.3041
len	-10.3044
▁bukanlah	-10.3051
▁semulajadi	-10.3056
72	-10.3058
▁kucing	-10.3061
▁sebatian	-10.3063
▁pinjaman	-10.3067
▁Lebuhraya	-10.3069
▁dicalonkan	-10.3076
79	-10.3078
▁Eksekutif	-10.3083
lihat	-10.3089
▁setinggi	-10.3097
▁pendatang	-10.3101
▁pembuatan	-10.3101
68	-10.3103
▁ular	-10.3103
66	-10.3105
▁Film	-10.3115
▁pembelajaran	-10.3118
Ar	-10.3118
▁iklan	-10.312
▁satelit	-10.3135
ure	-10.3136
▁Api	-10.3138
▁Nan	-10.314
zan	-10.3143
▁Medan	-10.315
▁diluluskan	-10.3153
▁tiket	-10.3153
▁Yayasan	-10.3155
Pertuan	-10.3157
▁bersedia	-10.3161
▁contohnya	-10.3166
▁memimpin	-10.3167
▁beras	-10.3172
▁tali	-10.3178
▁kejuaraan	-10.3181
▁43	-10.3182
pang	-10.3182
▁ijazah	-10.3183
▁mengamalkan	-10.3188
▁teman	-10.3188
val	-10.3206
▁dahulunya	-10.321
▁Edward	-10.3211
▁52%	-10.3212
▁Panas	-10.3213
▁Kos	-10.3213
▁misalnya	-10.3219
▁FM	-10.3222
▁kutipan	-10.3224
▁53	-10.3226
▁g	-10.323
▁maksud	-10.3234
▁mi	-10.3237
sekolah	-10.3239
▁pelaburan	-10.3239
▁bom	-10.324
▁Cer	-10.3245
▁Lin	-10.325
63	-10.3251
▁diwujudkan	-10.3252
▁House	-10.3258
▁kualiti	-10.326
▁Joseph	-10.3267
▁ringkas	-10.3267
02	-10.3269
▁One	-10.3271
▁ajaran	-10.3273
▁ciptaan	-10.3276
ning	-10.3277
▁pemegang	-10.3281
▁Rio	-10.3282
hat	-10.3286
▁berpendapat	-10.3286
Le	-10.3289
▁halus	-10.3293
▁genetik	-10.3295
▁Komunis	-10.3297
▁kewujudan	-10.3299
nas	-10.33
▁Mary	-10.3305
▁bot	-10.3308
In	-10.3311
▁lesen	-10.3318
▁47%	-10.332
▁Ikan	-10.3327
can	-10.3329
▁perbuatan	-10.3334
her	-10.3334
▁haba	-10.3335
89	-10.3336
▁tidur	-10.3338
▁Song	-10.3343
▁Pemain	-10.3344
▁sedar	-10.3349
92	-10.3352
43	-10.3356
▁pengerusi	-10.3361
▁teknikal	-10.3366
pal	-10.3368
▁DVD	-10.3369
kelurahan	-10.3369
▁48%	-10.337
▁serius	-10.337
▁cuaca	-10.3374
kes	-10.3384
▁Kutai	-10.3389
▁Pesawat	-10.3393
▁Perkara	-10.3394
▁Times	-10.3395
▁Inc	-10.3402
▁realiti	-10.3403
▁naib	-10.3403
▁aku	-10.3408
▁55	-10.341
▁panggilan	-10.3413
▁Hotel	-10.3415
Comte	-10.3415
▁Kesihatan	-10.3417
▁memanggil	-10.3419
▁Mah	-10.342
▁Manchester	-10.3425
tic	-10.3427
84	-10.3428
▁komik	-10.3432
▁Kesemua	-10.3433
dam	-10.3435
▁Kuasa	-10.3435
▁Chu	-10.3438
▁penemuan	-10.344
▁Indera	-10.344
▁1967	-10.3442
▁Bern	-10.3443
satu	-10.3448
87	-10.3448
▁Club	-10.345
▁Agong	-10.3457
▁mengakui	-10.3459
rakan	-10.3461
▁mulut	-10.3463
ges	-10.3465
xi	-10.3467
▁gangguan	-10.3468
▁East	-10.347
▁tawaran	-10.3475
▁Bulgaria	-10.3476
▁lawatan	-10.3476
▁mengundi	-10.3476
▁Nord	-10.3481
ite	-10.349
▁terbaru	-10.3495
we	-10.3499
▁tahanan	-10.35
▁Perubatan	-10.3505
had	-10.3507
subdaerah	-10.3508
census	-10.3512
▁tuntutan	-10.3512
mun	-10.3513
ig	-10.3518
▁perak	-10.352
kas	-10.3521
▁Ahad	-10.3522
▁dinasti	-10.3522
▁Emas	-10.3527
▁puteri	-10.3528
▁Baden	-10.3529
▁Elizabeth	-10.3534
▁getah	-10.3535
▁kala	-10.3535
▁Pelabuhan	-10.3537
▁lirik	-10.3537
▁Lima	-10.3543
▁saja	-10.3543
▁dipasarkan	-10.3549
▁Nazi	-10.3555
▁Madrasah	-10.3556
rumah	-10.3559
77	-10.3559
▁ka	-10.356
▁menaiki	-10.3562
▁Euro	-10.3569
▁cedera	-10.3571
▁menyebut	-10.3574
▁300	-10.3592
42	-10.3598
▁1977	-10.3598
set	-10.3606
karya	-10.3608
▁saling	-10.361
tz	-10.3613
▁Angeles	-10.3616
▁mini	-10.3617
▁Ng	-10.362
▁Model	-10.3625
83	-10.3636
▁bayaran	-10.3637
▁beribu	-10.3641
▁tasik	-10.3642
▁ianya	-10.3643
▁Piedmont	-10.3644
▁yakni	-10.3649
▁melambangkan	-10.3652
▁1972	-10.3652
▁mendorong	-10.3652
▁garam	-10.3656
subdistrict	-10.3659
▁membekalkan	-10.366
▁Hasil	-10.3664
pin	-10.3672
▁also	-10.3673
▁Mel	-10.3673
▁Seterusnya	-10.3674
▁gitar	-10.368
▁Mc	-10.3682
Holstein	-10.3682
▁suami	-10.3685
▁Kerana	-10.3687
▁keuntungan	-10.3689
▁tersebar	-10.3689
▁Lombardy	-10.369
ary	-10.369
▁Bermula	-10.3694
▁Mata	-10.3698
▁khidmat	-10.3701
▁negatif	-10.3701
▁Salleh	-10.3705
▁jaringan	-10.3711
▁On	-10.3712
▁52	-10.3716
pel	-10.3718
▁membuktikan	-10.3719
▁isi	-10.372
59	-10.372
▁Her	-10.3721
▁so	-10.3723
▁Ang	-10.373
▁pengawal	-10.3733
▁Pat	-10.3735
olah	-10.3739
▁Single	-10.3741
tum	-10.3749
▁menceritakan	-10.3749
▁memohon	-10.3749
sch	-10.3756
▁Washington	-10.3757
▁Kazakhstan	-10.3764
▁fail	-10.3764
▁bersamaan	-10.3766
isu	-10.3768
▁hayat	-10.377
▁Najib	-10.3771
▁bahkan	-10.3772
▁mempelajari	-10.3779
▁didakwa	-10.3779
▁patung	-10.3779
78	-10.3785
▁Ser	-10.3786
▁hektar	-10.3786
▁ekar	-10.3788
▁undian	-10.379
▁diserang	-10.3791
▁keretapi	-10.3791
69	-10.3792
▁sesiapa	-10.3796
dor	-10.3801
▁Sebahagian	-10.3804
▁kaca	-10.3804
▁Kajian	-10.3813
▁Niedersachsen	-10.3816
▁1973	-10.3822
▁Sungguhpun	-10.3824
▁Ukraine	-10.3827
▁Peti	-10.3829
▁kepadanya	-10.3831
▁tebal	-10.3837
▁Aku	-10.3848
▁pengacara	-10.3855
▁rencana	-10.3864
▁menamakan	-10.3865
▁mu	-10.3866
▁2000,	-10.387
▁haram	-10.387
▁Bre	-10.3871
▁44	-10.3872
▁petani	-10.3872
▁lembut	-10.3874
▁ko	-10.3877
▁penganut	-10.3878
▁cm	-10.3883
▁kamera	-10.3885
▁Bandung	-10.3886
▁kacang	-10.3888
rus	-10.389
▁Ai	-10.3898
▁Bang	-10.39
▁menerangkan	-10.39
▁semenjak	-10.39
▁National	-10.39
▁Cu	-10.3902
nar	-10.3914
▁mamalia	-10.3915
▁Es	-10.3917
▁cakera	-10.3917
▁da	-10.3921
▁1959	-10.3921
▁Ran	-10.3922
▁dibantu	-10.3923
▁Pelajar	-10.3924
▁sarjana	-10.3927
▁pengarang	-10.3929
▁ais	-10.393
▁astronomi	-10.393
97	-10.3932
kai	-10.3932
▁Tempat	-10.3933
hir	-10.3945
tasi	-10.3946
age	-10.3952
▁penyelesaian	-10.3953
▁Hashim	-10.3957
▁dibesarkan	-10.3963
▁Cal	-10.3963
▁Said	-10.3964
▁lampu	-10.3972
▁tarikan	-10.3977
▁aksara	-10.3978
ice	-10.3979
▁Hang	-10.3981
jalan	-10.3984
▁disusun	-10.3984
sam	-10.3988
▁Kara	-10.399
▁Qu	-10.3994
▁ditunjukkan	-10.4
▁berulang	-10.4001
▁v	-10.4002
▁Hilir	-10.4007
▁kem	-10.4011
▁Nam	-10.4012
▁corak	-10.4013
▁Inter	-10.4015
▁Eure	-10.4017
▁bersenjata	-10.4017
ramai	-10.403
kala	-10.4036
buku	-10.4038
▁Gol	-10.4041
▁have	-10.4048
▁tapi	-10.4051
▁sulungnya	-10.4054
▁All	-10.4054
▁setengah	-10.4055
▁Ketiga	-10.4057
▁kepimpinan	-10.4061
▁le	-10.4064
▁Mun	-10.4067
▁nyata	-10.4071
▁diperolehi	-10.4072
▁For	-10.4074
▁du	-10.4074
▁subjek	-10.4077
rum	-10.4077
AS	-10.4083
▁Versi	-10.4086
▁peta	-10.4093
Marne	-10.4098
jam	-10.41
▁Has	-10.4107
▁Intan	-10.4111
94	-10.4112
kam	-10.4123
aq	-10.4124
▁ingatan	-10.4127
▁Yan	-10.4129
▁Ren	-10.413
▁Petaling	-10.4131
▁Komanwel	-10.4138
▁merentasi	-10.4141
▁berundur	-10.4147
kap	-10.4149
▁k	-10.4152
▁Ayer	-10.4156
▁lautan	-10.4157
▁laku	-10.4158
▁dinaikkan	-10.4161
▁Liverpool	-10.4169
▁Pri	-10.4179
▁ulama	-10.418
tiba	-10.4182
▁Wang	-10.4183
▁Papua	-10.4185
▁kekuasaan	-10.419
▁elektron	-10.419
▁41	-10.4192
bus	-10.4197
▁alternatif	-10.4201
▁Johan	-10.4201
▁piawai	-10.4205
eb	-10.4213
▁Chung	-10.4216
▁Seksyen	-10.4217
▁Band	-10.4222
buk	-10.4224
▁49	-10.4226
▁keganasan	-10.4228
▁menguruskan	-10.4231
▁kemasukan	-10.4232
▁pelancaran	-10.4233
▁IV	-10.4234
▁dirancang	-10.4239
▁matlamat	-10.4242
▁Berdasarkan	-10.4248
▁Franche	-10.4248
▁1957	-10.425
▁Hor	-10.4253
▁pemburu	-10.4256
▁krisis	-10.4256
▁dirasmikan	-10.4256
▁Kewangan	-10.4264
▁berbangsa	-10.4266
▁amnya	-10.4267
bagai	-10.4269
▁paras	-10.427
beza	-10.4273
▁kolej	-10.4277
▁induk	-10.428
▁Malah	-10.4287
▁College	-10.4288
▁Villa	-10.4288
▁Cat	-10.4291
▁Serie	-10.4292
ix	-10.4292
▁We	-10.4302
Si	-10.4303
▁warisan	-10.4303
▁Seoul	-10.4304
41	-10.4305
▁Em	-10.431
▁terbabit	-10.4311
▁Peru	-10.4318
▁peranginan	-10.4319
▁Hitler	-10.4319
Pe	-10.4331
▁bercakap	-10.4335
▁Pays	-10.4335
▁Kubang	-10.4336
▁amaran	-10.434
▁sisa	-10.4342
▁Hindia	-10.4343
▁mengumpul	-10.4344
▁Seberang	-10.4351
▁Big	-10.4355
▁Sarjana	-10.4356
cher	-10.4357
81	-10.4358
▁Manusia	-10.436
▁hiasan	-10.4361
▁bila	-10.4361
sha	-10.4362
▁Keluarga	-10.4362
▁rekaan	-10.4365
qu	-10.4366
▁Tor	-10.4368
▁US	-10.437
gat	-10.4372
▁didalam	-10.4373
termasuk	-10.4375
▁Shu	-10.4377
▁1920	-10.438
▁mencecah	-10.4383
▁penghormatan	-10.439
▁konteks	-10.4391
73	-10.4392
▁Laksamana	-10.4395
qui	-10.4396
▁mengesan	-10.4399
Man	-10.4403
▁diserahkan	-10.4407
▁Gua	-10.441
▁Hill	-10.4414
▁lemak	-10.4417
▁Sekitar	-10.4423
duk	-10.4429
▁She	-10.4434
Wurttemberg	-10.4438
▁dadah	-10.4442
▁kamu	-10.4443
ism	-10.4444
▁Kuching	-10.4447
▁ditolak	-10.4455
74	-10.4455
▁Valencia	-10.4463
▁Fe	-10.4467
▁Perhimpunan	-10.4471
▁Publications	-10.448
82	-10.4481
▁singkat	-10.4481
▁Kami	-10.4484
▁Great	-10.4485
▁maharaja	-10.4488
▁film	-10.4489
Pyrenees	-10.4493
▁penggambaran	-10.4495
▁Osman	-10.45
▁Pondok	-10.4503
▁Harapan	-10.4503
▁Matahari	-10.4504
lay	-10.4507
▁Bur	-10.451
▁Guinea	-10.4511
▁Pembinaan	-10.4512
▁Tam	-10.4514
▁Olya	-10.4514
▁sikap	-10.4518
▁Biasanya	-10.4518
▁peperiksaan	-10.4519
▁terjun	-10.4525
▁sejauh	-10.4528
▁Kata	-10.4528
▁Daniel	-10.4529
fer	-10.453
61	-10.4531
bung	-10.4532
lis	-10.4533
▁dicadangkan	-10.4535
▁Setia	-10.4541
▁BELLA	-10.4543
▁van	-10.4548
An	-10.4548
ani	-10.4552
ies	-10.4557
▁sepatutnya	-10.456
ft	-10.4561
▁pengganti	-10.4565
▁PTS	-10.4567
▁pecah	-10.457
▁Chile	-10.4571
▁Var	-10.4573
ikan	-10.4578
▁Pictures	-10.458
▁zarah	-10.4595
▁Kemboja	-10.4598
▁DAP	-10.4598
▁stabil	-10.461
▁1948	-10.4615
▁56	-10.4615
▁sebegini	-10.4617
▁Gabungan	-10.4617
▁Awang	-10.4623
▁dialek	-10.4638
ky	-10.4639
▁Tenaga	-10.4642
▁sihir	-10.4642
▁daripadanya	-10.4643
▁Badan	-10.4647
▁jadual	-10.4647
▁Sabtu	-10.465
ih	-10.4652
▁kain	-10.4659
▁Pengurusan	-10.466
▁kemajuan	-10.4666
idae	-10.4667
▁sempat	-10.4668
▁Pasar	-10.4671
▁memasukkan	-10.4674
oi	-10.4678
pit	-10.4682
untuk	-10.4688
▁anggaran	-10.469
▁keagamaan	-10.469
bon	-10.4691
tah	-10.4693
▁serangga	-10.4699
▁lubang	-10.4702
▁pengikut	-10.4703
bas	-10.4706
▁Kinabalu	-10.4707
▁melakonkan	-10.4707
▁Makmur	-10.4707
sang	-10.4707
▁orbit	-10.4709
tro	-10.471
▁menembak	-10.4711
▁Profesor	-10.4715
▁susunan	-10.4717
▁membangun	-10.4718
▁peruntukan	-10.4719
▁tri	-10.4721
cal	-10.4728
▁Keputusan	-10.4732
▁ditakrifkan	-10.4732
▁Timor	-10.4733
▁memang	-10.4733
hor	-10.4739
▁Keadaan	-10.474
▁Cik	-10.4748
▁pertemuan	-10.4748
▁their	-10.4751
field	-10.4753
kel	-10.4754
▁Sofla	-10.4757
▁Frank	-10.4758
▁menikmati	-10.4765
▁menunggu	-10.4765
▁tiang	-10.4781
ret	-10.4791
▁Bala	-10.4796
gas	-10.48
isi	-10.4801
▁2002,	-10.4804
▁Kam	-10.4805
▁Suci	-10.4806
▁perhubungan	-10.4806
▁Sub	-10.4807
▁Sho	-10.4808
▁mempromosikan	-10.4808
▁Paduka	-10.4812
▁berdua	-10.4814
▁mengkaji	-10.4815
▁berpengaruh	-10.4815
▁Kayu	-10.4818
▁51	-10.4818
▁sahabat	-10.4821
▁menghentikan	-10.4823
▁lihat	-10.4829
▁identiti	-10.483
▁merasa	-10.4836
▁Muar	-10.4838
kuasa	-10.4838
▁lompat	-10.4843
tus	-10.4846
▁pedalaman	-10.4856
▁Finland	-10.4857
▁Fox	-10.4858
▁1964	-10.4862
▁Far	-10.4868
▁maksimum	-10.4872
▁mengangkat	-10.4873
ub	-10.4878
▁mengasaskan	-10.4882
▁standard	-10.4882
Be	-10.4887
▁ganti	-10.4888
▁digabungkan	-10.4892
murid	-10.4896
▁Masa	-10.4898
zu	-10.4903
91	-10.4905
hr	-10.4906
▁Ivory	-10.4907
▁Halim	-10.4907
▁bersaiz	-10.4907
▁Noor	-10.4908
▁Kapas	-10.491
▁elemen	-10.4918
▁54	-10.4925
▁Video	-10.4925
▁Hua	-10.4928
▁babi	-10.4931
rit	-10.4935
▁Lam	-10.4935
▁kelebihan	-10.494
able	-10.494
300	-10.4941
pulau	-10.4942
ec	-10.4948
▁konsol	-10.4949
▁inilah	-10.4949
▁Mem	-10.4949
▁Ros	-10.4952
cer	-10.4956
jak	-10.4956
▁menghapuskan	-10.4957
▁bergelar	-10.4958
▁nasib	-10.4958
▁sebutan	-10.4959
▁tuduhan	-10.4965
▁Jambatan	-10.4974
gam	-10.4978
▁senyap	-10.4979
Raja	-10.4981
▁Beijing	-10.4989
kov	-10.499
▁akar	-10.4991
▁Chin	-10.4991
▁kursus	-10.4993
mis	-10.4994
▁Distributors	-10.4999
▁Yi	-10.5002
nowi	-10.5005
▁58	-10.5005
▁ribu	-10.5005
▁sempurna	-10.5005
▁beli	-10.5005
ero	-10.5007
▁kejuruteraan	-10.501
nt	-10.5012
▁lingkungan	-10.5012
▁setia	-10.5017
angan	-10.502
▁75	-10.5021
▁Keadilan	-10.5026
▁Tour	-10.5027
▁lebuh	-10.5033
▁Fars	-10.5038
▁Tai	-10.5041
▁1941	-10.5043
▁ikatan	-10.5044
▁Penggunaan	-10.5048
sal	-10.5053
▁memper	-10.5057
▁Isnin	-10.5059
▁von	-10.5061
▁lambang	-10.5065
▁150	-10.5067
watak	-10.5082
▁memperolehi	-10.5084
▁kejatuhan	-10.5085
▁urusan	-10.5085
▁ribut	-10.5089
▁gen	-10.5089
Mar	-10.509
▁mencukupi	-10.5093
dengan	-10.5098
▁Ker	-10.5099
▁pengganas	-10.5099
▁Pertengahan	-10.5102
▁pembedahan	-10.511
▁Jadi	-10.5111
▁978	-10.5114
▁Bou	-10.5115
wat	-10.5118
▁gay	-10.5119
▁Croatia	-10.5121
▁dibuang	-10.5124
▁sawit	-10.5128
▁1966	-10.5129
▁Belia	-10.5129
ney	-10.5134
▁Lord	-10.5141
thi	-10.5142
ius	-10.5148
way	-10.5148
▁jantina	-10.5151
▁roda	-10.5152
▁mencetuskan	-10.5155
ep	-10.516
▁mengenal	-10.516
▁serigala	-10.5161
▁merakamkan	-10.5161
▁pemindahan	-10.5162
▁Hi	-10.5162
▁rangka	-10.5166
▁memahami	-10.5171
▁persetujuan	-10.5176
▁Perlawanan	-10.5179
▁kalinya	-10.5179
▁kesusasteraan	-10.5183
▁cantik	-10.5186
▁Ger	-10.5192
meng	-10.5205
▁mentah	-10.5207
wilayah	-10.5212
▁penjajahan	-10.5215
▁der	-10.5219
▁adaptasi	-10.5221
mir	-10.5221
▁Kg	-10.5222
Bangsa	-10.5224
tai	-10.5229
tre	-10.523
jin	-10.523
▁serentak	-10.524
▁Dewa	-10.5241
▁terlebih	-10.5242
▁Nadu	-10.5243
ef	-10.5244
▁bela	-10.5245
▁Paus	-10.5248
▁buruh	-10.5249
▁Berlin	-10.5252
▁rupa	-10.5257
▁1962	-10.5269
▁nyawa	-10.527
▁Lot	-10.5271
yn	-10.5273
▁cabaran	-10.5275
▁Suatu	-10.5275
▁Serangan	-10.5276
▁Tingkatan	-10.5278
del	-10.5279
▁Bilangan	-10.5284
▁atmosfera	-10.5292
▁keropok	-10.5292
▁terselamat	-10.5292
▁Un	-10.5293
▁Mil	-10.5296
oc	-10.5297
▁Penerbangan	-10.5301
Ber	-10.5303
▁keduanya	-10.5306
▁Golden	-10.5307
▁Merdeka	-10.531
▁Proses	-10.531
▁korban	-10.5319
▁menumpukan	-10.5321
▁persahabatan	-10.5336
▁penalti	-10.5336
▁otak	-10.5337
lli	-10.534
▁Gun	-10.5356
▁dibeli	-10.536
▁1999,	-10.5361
pat	-10.5365
kir	-10.5368
▁piawaian	-10.5371
▁Tindakan	-10.5371
▁Tawau	-10.5371
▁ketujuh	-10.5372
▁murah	-10.5372
▁sesama	-10.5377
▁penduduknya	-10.5383
fo	-10.5388
▁Perbandaran	-10.5389
▁menyanyi	-10.5392
uz	-10.5396
▁Warisan	-10.5398
yah	-10.5398
▁Shin	-10.5404
Garonne	-10.5415
▁Demokratik	-10.5416
▁bulat	-10.5417
▁semuanya	-10.5419
stra	-10.5423
TK	-10.5423
▁Pop	-10.5423
▁pembaharuan	-10.5432
▁demokrasi	-10.5433
▁berpangkalan	-10.5433
▁Ah	-10.5439
▁Ron	-10.5444
▁campur	-10.5446
▁Wong	-10.545
▁Mag	-10.5453
▁Bosnia	-10.5455
▁Penyelidikan	-10.5455
▁kampus	-10.5456
▁terang	-10.5458
▁belah	-10.5461
eli	-10.5464
▁indah	-10.5464
▁57	-10.5465
▁na	-10.5466
▁merampas	-10.5468
ray	-10.5471
▁Ten	-10.5476
▁mendarat	-10.5478
▁this	-10.5479
▁Redang	-10.5482
▁120	-10.5483
▁bersih	-10.5486
▁membincangkan	-10.5487
▁muzium	-10.5488
▁Jawi	-10.5488
▁Day	-10.5502
▁Hall	-10.5503
▁Yusuf	-10.5504
net	-10.5506
▁menyambung	-10.5507
gol	-10.5509
▁miskin	-10.5513
▁diwakili	-10.5513
guru	-10.5515
kot	-10.5516
▁2019,	-10.5522
▁Seremban	-10.5522
▁Kapten	-10.5523
▁memuatkan	-10.5528
▁Pengkalan	-10.5531
▁mer	-10.554
Nya	-10.5542
▁Bani	-10.5544
▁Hati	-10.5552
▁hendaklah	-10.5553
▁Bilik	-10.5554
ct	-10.5556
sak	-10.5563
▁Jati	-10.5567
hy	-10.557
▁kesatuan	-10.5571
▁Divisyen	-10.5573
ium	-10.5576
▁pakai	-10.5577
▁dilindungi	-10.5577
ves	-10.5583
▁Rahim	-10.5587
▁menganjurkan	-10.5587
▁jiwa	-10.5591
album	-10.5595
▁Silat	-10.5596
▁beragama	-10.5597
▁Kira	-10.5603
▁Kai	-10.5605
2006	-10.5617
ex	-10.5618
ben	-10.5618
nah	-10.5623
▁Jean	-10.5632
▁hidrogen	-10.5632
▁merdeka	-10.5634
▁bersiaran	-10.5642
▁khabar	-10.5648
▁2020	-10.5651
▁Son	-10.5657
▁cuma	-10.5658
▁harapan	-10.566
▁sambungan	-10.5661
▁menegaskan	-10.5666
▁menyanyikan	-10.5672
▁ditinggalkan	-10.5675
▁Tapak	-10.5676
▁Majalah	-10.5684
rata	-10.5684
▁Othman	-10.5684
▁aset	-10.5695
▁Proton	-10.5701
▁Pengajian	-10.5702
▁mewah	-10.5703
▁Real	-10.5705
Su	-10.5707
▁sayur	-10.5708
ita	-10.5708
▁strategi	-10.5709
▁Top	-10.571
▁formal	-10.5715
▁memandangkan	-10.5717
▁meluluskan	-10.5721
ns	-10.5723
pem	-10.5723
▁Sur	-10.5724
Saint	-10.5726
▁Blok	-10.5727
▁Pol	-10.5728
▁Bahan	-10.5731
▁ukuran	-10.5732
▁kematiannya	-10.5736
▁gua	-10.5742
▁terjejas	-10.5748
▁perairan	-10.5748
heim	-10.5749
▁Daripada	-10.5751
▁Kes	-10.5753
▁diedarkan	-10.5757
▁kekayaan	-10.5757
▁membalas	-10.5758
▁musnah	-10.576
▁sebaik	-10.576
▁dikesan	-10.5761
▁kepelbagaian	-10.5762
▁pemberontak	-10.5763
▁mengelilingi	-10.5766
▁pengendalian	-10.5767
▁Pre	-10.5767
ous	-10.577
▁Akan	-10.5772
▁DUN	-10.5773
▁pemikiran	-10.5774
▁rambut	-10.5774
▁dipegang	-10.5776
▁kasih	-10.5776
dai	-10.578
▁Ibn	-10.5783
▁ucapan	-10.5783
▁jurutera	-10.5784
▁pos	-10.5785
▁Kepala	-10.5785
▁hidupnya	-10.5789
▁babak	-10.5794
▁983	-10.5808
▁Gen	-10.5809
▁inci	-10.5809
rap	-10.5811
▁berjumpa	-10.5812
isasi	-10.5816
2000	-10.582
▁pre	-10.5822
2008	-10.5823
▁situasi	-10.5829
▁terbanyak	-10.5831
▁rasuah	-10.5832
Li	-10.5837
▁perhimpunan	-10.584
▁Rantau	-10.584
▁gergasi	-10.5844
ble	-10.5846
▁rosak	-10.5847
▁Hoki	-10.5848
▁republik	-10.5849
▁1942	-10.5855
▁pengunjung	-10.5859
▁dikuasai	-10.5859
▁diperoleh	-10.5859
mont	-10.5863
93	-10.5864
▁makna	-10.5865
▁Syeikh	-10.5865
▁berjuang	-10.5869
nis	-10.5879
▁tu	-10.5882
▁Ampang	-10.5893
▁AB	-10.5895
▁1961	-10.5897
▁Bell	-10.5898
▁Green	-10.59
lai	-10.5902
uli	-10.5903
cik	-10.5905
▁terhasil	-10.5905
tam	-10.5907
▁memindahkan	-10.5915
hati	-10.5917
▁Char	-10.5918
▁penjagaan	-10.5923
▁ditandatangani	-10.5923
▁Charente	-10.5924
▁bersalah	-10.5925
▁pedang	-10.593
rd	-10.5932
▁Abidin	-10.5934
▁nasional	-10.5936
▁Umar	-10.5939
▁melanggar	-10.5942
▁super	-10.5943
▁bersatu	-10.5946
▁Zon	-10.5947
▁pemuda	-10.5949
▁Raj	-10.595
▁Amin	-10.5957
anda	-10.596
▁tetamu	-10.5961
▁kembar	-10.5962
▁Roman	-10.5963
yl	-10.5965
▁perancangan	-10.5966
▁organ	-10.5968
2009	-10.5975
▁Rasulullah	-10.5976
▁terdedah	-10.5979
▁diturunkan	-10.5986
▁asasi	-10.5986
ev	-10.5987
▁strategik	-10.5987
▁Kompleks	-10.5991
▁tahan	-10.5996
▁diisytiharkan	-10.5998
▁roti	-10.6004
▁Naruto	-10.6007
▁variasi	-10.6007
▁Permainan	-10.6008
▁its	-10.601
▁seolah	-10.6012
▁Young	-10.6012
▁lekor	-10.6017
▁berharga	-10.6017
▁Isa	-10.6021
Ku	-10.6025
▁Queensland	-10.6027
▁1943	-10.6027
▁Moravia	-10.6027
▁jahat	-10.6029
▁Naga	-10.6033
▁Gorontalo	-10.6036
▁menjejaskan	-10.6045
▁|	-10.6051
▁can	-10.6053
▁domestik	-10.6054
▁diduduki	-10.6055
Mo	-10.6055
▁02	-10.6065
▁kritikan	-10.6069
▁merasakan	-10.607
▁Jaafar	-10.6073
▁bawang	-10.6074
▁Hubungan	-10.6083
▁berguna	-10.6085
▁American	-10.6085
▁evolusi	-10.6089
▁101	-10.6092
▁Pemuda	-10.6094
bur	-10.6095
▁Ming	-10.6098
▁produksi	-10.6101
▁mengiktiraf	-10.6102
dis	-10.6102
▁Bentuk	-10.6102
Masjid	-10.6103
gin	-10.6108
2005	-10.6111
▁terbukti	-10.6112
▁ketat	-10.6112
luk	-10.6113
▁Jack	-10.6115
▁Greek	-10.6119
▁motosikal	-10.6121
▁Gan	-10.6123
▁perindustrian	-10.613
▁dakwaan	-10.6131
▁hanyalah	-10.6138
▁pendekatan	-10.614
▁menangani	-10.6142
▁menurun	-10.6144
▁Island	-10.6145
▁semata	-10.6146
▁gambaran	-10.6149
▁kitaran	-10.6149
▁bertelur	-10.615
▁saudaranya	-10.6151
▁Penerbit	-10.6154
▁Rhine	-10.6157
▁Hollywood	-10.6159
▁membesar	-10.616
▁Pakatan	-10.6162
▁dikelilingi	-10.6168
▁Tenggol	-10.6168
▁cuti	-10.6169
▁Ash	-10.6171
▁pemulihan	-10.6172
▁1958	-10.6175
▁asrama	-10.6179
▁lembaga	-10.618
▁garisan	-10.618
▁baki	-10.6182
cita	-10.6184
ach	-10.6185
▁menyiarkan	-10.6187
ee	-10.6192
▁Jose	-10.6196
▁pengiktirafan	-10.6197
▁play	-10.6199
▁Town	-10.6205
▁mencuba	-10.6207
▁Carl	-10.6209
2007	-10.6212
▁01	-10.6216
▁protein	-10.6217
▁Peringkat	-10.6226
lus	-10.6226
kerajaan	-10.623
▁who	-10.6233
hin	-10.6233
▁dipenuhi	-10.6235
▁CD	-10.6238
▁coklat	-10.6244
Rhin	-10.6244
▁beralih	-10.6246
oni	-10.6248
ther	-10.6253
400	-10.6254
▁audio	-10.6255
ence	-10.6262
▁nasihat	-10.6266
▁Cher	-10.6271
▁Melalui	-10.6274
▁Bourgogne	-10.6274
fin	-10.6277
▁Ye	-10.6282
▁Dam	-10.6284
▁Gong	-10.6285
but	-10.6289
▁Mir	-10.629
▁Somme	-10.629
▁pameran	-10.6293
▁menutup	-10.6294
pp	-10.6298
▁Monte	-10.6298
▁Studio	-10.6303
▁sungguhpun	-10.6303
▁oksigen	-10.6305
▁Persidangan	-10.631
▁dibatalkan	-10.6312
▁menjayakan	-10.6312
▁Bangka	-10.6313
▁Mur	-10.6314
▁Qeshlaq	-10.6315
▁famili	-10.6318
▁penghantaran	-10.6319
▁Mongol	-10.6327
pro	-10.6329
▁1946	-10.6329
▁litar	-10.633
▁misteri	-10.6332
esti	-10.6336
▁Darjah	-10.6338
▁panduan	-10.6339
▁peralihan	-10.6341
▁berbahaya	-10.6342
Calais	-10.6342
MA	-10.6345
km	-10.6346
▁Sim	-10.6349
ses	-10.6351
▁organik	-10.6353
▁keseluruhannya	-10.6354
▁09	-10.6355
sat	-10.6355
line	-10.6356
▁diantara	-10.6357
▁Kebudayaan	-10.6361
▁disiapkan	-10.6361
▁penghargaan	-10.6371
▁Microsoft	-10.6371
▁Atlantik	-10.6371
▁Pelbagai	-10.6371
▁mengenakan	-10.6371
▁Albania	-10.6371
▁Apa	-10.6374
gang	-10.6376
▁Leftenan	-10.6377
▁fenomena	-10.638
▁membebaskan	-10.638
▁runtuh	-10.6386
▁Myanmar	-10.6389
▁besarnya	-10.6391
▁Smith	-10.6391
▁setakat	-10.6391
pati	-10.6392
▁perwakilan	-10.64
▁Singh	-10.6401
pet	-10.6401
▁Hai	-10.6405
siri	-10.6409
▁hakim	-10.641
▁Budaya	-10.6413
▁menekankan	-10.6414
▁Il	-10.6419
tsu	-10.6421
kali	-10.6426
▁perut	-10.6428
syarikat	-10.6428
▁pasukannya	-10.6434
▁Wu	-10.6436
▁sarang	-10.644
▁Kuantan	-10.6449
▁Francisco	-10.645
▁Alexander	-10.6455
▁Ve	-10.646
▁dibandingkan	-10.6463
ansur	-10.6463
▁baris	-10.6464
▁kesemuanya	-10.6466
▁08	-10.6467
▁Pos	-10.6471
▁suria	-10.6472
▁dikebumikan	-10.6488
▁serantau	-10.6488
▁Osaka	-10.6488
▁kukuh	-10.649
bir	-10.6494
▁persidangan	-10.6498
▁lulus	-10.6502
▁meja	-10.6502
▁Kom	-10.6505
▁ganda	-10.6507
▁1949	-10.6514
▁General	-10.6516
▁Sewaktu	-10.6518
iri	-10.6519
empat	-10.652
▁Berita	-10.6524
▁runut	-10.6524
Saya	-10.6526
▁seram	-10.6531
▁her	-10.6534
anti	-10.6535
▁Kitab	-10.6536
▁54%	-10.6541
▁pelayan	-10.6549
▁Indah	-10.655
▁modal	-10.6555
▁Nasir	-10.6555
▁magnet	-10.6555
▁Zain	-10.6564
sik	-10.6566
▁berlakunya	-10.6567
▁kugiran	-10.6567
▁Almarhum	-10.6567
▁skrin	-10.6567
▁terikat	-10.6568
▁Ustaz	-10.6572
▁Mr	-10.6581
▁Wikipedia	-10.6587
▁Penolong	-10.6588
kul	-10.6592
▁rumahnya	-10.6592
til	-10.6594
ografi	-10.6598
▁Kisah	-10.6604
▁Mecklenburg	-10.6607
▁Perdagangan	-10.6607
▁Sekiranya	-10.6607
▁firma	-10.6609
▁penglihatan	-10.6616
▁mengejar	-10.6616
▁seringkali	-10.662
▁berperanan	-10.6631
ens	-10.6632
▁Mai	-10.6642
yam	-10.6642
▁ditembak	-10.6643
▁revolusi	-10.6645
ska	-10.6647
▁panggung	-10.6647
▁Hasan	-10.6649
▁berupaya	-10.6649
▁County	-10.6659
▁catatan	-10.666
gah	-10.6664
▁penggal	-10.6665
▁penyiaran	-10.6669
▁tebing	-10.6673
▁tukang	-10.6674
▁Dewi	-10.6675
▁memasak	-10.6677
▁bertempur	-10.6677
▁bumbung	-10.6682
▁pengundi	-10.6687
▁Terbuka	-10.6687
▁marah	-10.6687
▁1955	-10.6689
▁mengira	-10.669
▁Malam	-10.669
7%	-10.6692
▁habitat	-10.6696
▁Albert	-10.6698
seribu	-10.6707
▁Subang	-10.6711
ille	-10.6713
rn	-10.6713
Undang	-10.6713
▁dataran	-10.6714
bert	-10.6716
dra	-10.6718
▁perusahaan	-10.6719
zar	-10.6721
▁Hot	-10.6721
▁persekolahan	-10.6723
▁dimenangi	-10.6727
▁keamanan	-10.6727
mad	-10.6728
▁Chen	-10.673
ida	-10.6737
▁jangkitan	-10.6737
▁armada	-10.6737
▁Kh	-10.6738
▁kura	-10.6743
▁Thuringen	-10.6747
▁pengetua	-10.6748
▁Oxford	-10.6751
▁penjajah	-10.6751
▁gajah	-10.6754
unit	-10.6757
▁Cap	-10.6759
▁ex	-10.6761
▁bi	-10.6764
▁News	-10.6765
mit	-10.6766
pt	-10.6772
▁1998,	-10.6773
▁kopi	-10.6776
▁Francis	-10.6777
▁artikel	-10.6779
▁lakonannya	-10.678
▁Sem	-10.6786
▁kotak	-10.6787
▁mayat	-10.679
▁diganti	-10.679
olo	-10.679
ins	-10.6792
▁America	-10.6794
▁pengangkut	-10.6794
▁Maya	-10.6794
▁10%	-10.6795
▁bercampur	-10.68
▁sen	-10.6801
sco	-10.6807
▁Ehwal	-10.6807
rim	-10.6816
▁Ay	-10.6816
▁berbilang	-10.6818
▁first	-10.6818
▁kedatangan	-10.6818
▁sos	-10.6819
▁memburu	-10.682
gy	-10.6822
▁bisa	-10.6823
▁Sheikh	-10.6824
▁sekeliling	-10.6825
mes	-10.6826
▁rumit	-10.6829
▁berbuat	-10.6831
hai	-10.6832
bis	-10.6836
Bu	-10.6837
▁dikira	-10.6839
▁mempercayai	-10.6839
▁internet	-10.6839
lur	-10.684
met	-10.6841
▁kebolehan	-10.6846
▁Undi	-10.6847
▁Pemerintah	-10.6851
yi	-10.6854
wang	-10.6855
▁Kedudukan	-10.6855
mak	-10.6867
▁Peguam	-10.6869
▁tampil	-10.6869
▁Putrajaya	-10.6871
▁Cuba	-10.6873
▁normal	-10.6874
masa	-10.6875
▁Life	-10.6875
▁lazim	-10.6877
▁PKR	-10.6879
▁Daya	-10.6879
▁all	-10.688
buahan	-10.688
tta	-10.6886
▁perbincangan	-10.689
▁hoki	-10.6891
▁palsu	-10.6892
▁River	-10.6896
▁meletak	-10.6898
▁Mancha	-10.6899
ance	-10.6907
pura	-10.6908
▁Saya	-10.6911
▁jari	-10.6912
koy	-10.6912
▁Manila	-10.6913
▁bahaya	-10.6913
[	-10.6919
▁Tin	-10.6919
▁Naim	-10.692
▁1956	-10.692
▁potensi	-10.6921
▁Masihi	-10.6926
▁Malik	-10.693
▁yaitu	-10.6931
▁fi	-10.6933
▁Cam	-10.6935
▁Teknik	-10.6935
▁luaran	-10.6935
▁Darussalam	-10.6941
lum	-10.6949
▁frekuensi	-10.6954
▁juri	-10.6956
▁Metro	-10.6961
No	-10.6962
▁baju	-10.6962
▁Georgia	-10.6969
▁dicetak	-10.6972
qi	-10.6975
▁menyerah	-10.6978
yr	-10.6978
▁pelaksanaan	-10.6978
nilai	-10.6982
▁Pertanian	-10.6983
gg	-10.6987
lau	-10.6995
▁ta	-10.7001
rik	-10.7002
▁Tong	-10.7002
▁Bogor	-10.7005
▁BBC	-10.7005
▁400	-10.701
▁Ol	-10.7016
▁Rashid	-10.7017
▁diterjemahkan	-10.7017
▁ayah	-10.7018
▁bencana	-10.7024
▁dikehendaki	-10.7024
▁Bersekutu	-10.7025
▁sainsnya	-10.7025
▁Dong	-10.7031
▁peranannya	-10.7032
rs	-10.7044
▁dihukum	-10.7051
▁ditadbir	-10.7054
▁Bab	-10.7056
▁sebulan	-10.7058
▁46%	-10.706
▁Pertandingan	-10.7066
▁Pengetua	-10.7073
▁kebangkitan	-10.7076
▁menahan	-10.7077
▁komersil	-10.7078
beradik	-10.7081
▁Cote	-10.7083
▁membezakan	-10.7083
▁BN	-10.7085
▁ditarik	-10.7087
barang	-10.7091
rai	-10.7095
▁Kura	-10.7097
▁seakan	-10.7098
▁Kang	-10.7099
▁mengaku	-10.7102
▁juruterbang	-10.7108
▁singkatan	-10.711
▁Lanka	-10.7115
▁Kelayakan	-10.7118
red	-10.712
▁Os	-10.712
jah	-10.7128
▁Boy	-10.7135
▁Sol	-10.7136
▁legenda	-10.7139
▁Khamis	-10.714
▁berupa	-10.714
▁pedagang	-10.7141
6%	-10.7142
▁takut	-10.7145
esh	-10.7146
▁Ch	-10.7153
▁Cross	-10.7153
▁pengajaran	-10.7154
▁Bag	-10.7158
▁destinasi	-10.7162
▁pelan	-10.7164
▁penciptaan	-10.7165
▁Bagan	-10.7166
▁wajib	-10.717
▁julat	-10.7171
▁beransur	-10.7175
▁Pangkalan	-10.7179
▁Cas	-10.7179
▁tingkah	-10.7181
▁Pin	-10.7184
hl	-10.7185
▁bersiri	-10.7187
▁Ibrani	-10.719
ier	-10.7192
▁Langkawi	-10.7192
▁bakteria	-10.7192
▁minoriti	-10.7192
▁Marin	-10.7193
▁Permaisuri	-10.7198
▁masak	-10.7199
▁1944	-10.7199
▁fiksyen	-10.7202
▁Potter	-10.7203
▁64	-10.7203
sah	-10.7208
▁berani	-10.7214
▁pengambilan	-10.7215
▁dendam	-10.7216
tun	-10.7218
▁mahal	-10.7219
cat	-10.7223
fu	-10.7223
▁Studios	-10.7223
gel	-10.7236
▁berhasil	-10.7236
▁segar	-10.7237
▁Baharu	-10.7237
▁menaikkan	-10.7241
dung	-10.7248
▁High	-10.7249
▁Mediterranean	-10.7255
▁Picardy	-10.7255
▁menafikan	-10.7255
▁kambing	-10.7255
▁serba	-10.7256
▁Sor	-10.7263
▁Puchong	-10.7267
▁Jura	-10.7272
▁up	-10.7272
▁YouTube	-10.7277
▁05	-10.7278
2004	-10.7283
▁Kita	-10.7286
ore	-10.729
▁kosong	-10.7291
▁terjemahan	-10.7292
yar	-10.7292
▁Antaranya	-10.7294
rut	-10.7295
▁radar	-10.7298
▁Wei	-10.7301
▁rumput	-10.7303
▁berperang	-10.7304
▁selari	-10.7304
▁mendalam	-10.7305
Negara	-10.7308
▁mencatatkan	-10.7322
▁Datin	-10.7325
▁Manis	-10.7327
burg	-10.733
▁kabinet	-10.7331
▁Telur	-10.7332
vik	-10.7341
▁Tel	-10.7343
DA	-10.7344
▁hutang	-10.7348
▁Harun	-10.7349
court	-10.7349
▁goreng	-10.7351
▁memandu	-10.7352
▁visual	-10.7353
▁Kamal	-10.7353
bul	-10.736
▁pelepah	-10.7362
▁Puteh	-10.7362
▁Ray	-10.7365
▁Dataran	-10.7367
oy	-10.7372
of	-10.7379
▁korporat	-10.738
▁Tanjong	-10.7385
▁menge	-10.7393
▁mencatat	-10.7402
uc	-10.7403
▁Ag	-10.7403
far	-10.7403
▁menjawab	-10.7406
▁Uttar	-10.7406
▁trek	-10.7415
▁merosot	-10.7416
das	-10.7421
▁Enam	-10.7424
ski	-10.7427
ubah	-10.743
log	-10.743
▁lantai	-10.7438
▁penasihat	-10.7438
3%	-10.7438
▁Ciri	-10.7439
▁penurunan	-10.744
▁Chang	-10.7441
▁organisma	-10.7445
▁been	-10.7447
cc	-10.7448
▁Alsace	-10.7449
▁sampingan	-10.7453
▁Daun	-10.7453
▁Press	-10.7455
▁Besi	-10.7457
▁Cerita	-10.7458
▁Mad	-10.7462
▁kadangkala	-10.747
▁pertarungan	-10.747
▁mencegah	-10.747
▁dolar	-10.7472
▁koloni	-10.7472
nay	-10.7481
▁1947	-10.7484
nat	-10.7485
bor	-10.7487
▁ga	-10.7488
▁Dusun	-10.749
▁Nurul	-10.7491
▁infrastruktur	-10.7492
▁membuang	-10.7493
▁God	-10.7494
▁Mau	-10.7499
▁Laporan	-10.7503
▁pendudukan	-10.7505
▁1954	-10.751
▁nenek	-10.7512
paru	-10.7513
▁diteruskan	-10.7514
▁pelukis	-10.7515
nai	-10.752
▁siasatan	-10.7523
▁Moscow	-10.7525
▁kabel	-10.7526
ovice	-10.7527
lim	-10.7527
▁one	-10.7532
▁binaan	-10.7535
pas	-10.7535
▁Greece	-10.7536
▁diamalkan	-10.7547
▁Bendera	-10.7547
▁Telok	-10.7549
▁Baba	-10.7551
▁1952	-10.7554
▁Wi	-10.7557
▁Begitu	-10.7558
▁Hamzah	-10.7558
▁Jackson	-10.7559
▁nisbah	-10.7566
▁persaingan	-10.7568
▁Rejimen	-10.7569
▁Baling	-10.7572
▁Nar	-10.7573
Me	-10.7574
wood	-10.7577
▁berpecah	-10.758
▁Pyrenees	-10.7594
▁akaun	-10.76
▁dibubarkan	-10.7601
▁pesisir	-10.7603
▁Ltd	-10.7603
▁analisis	-10.7604
uv	-10.7605
▁Kaum	-10.7606
▁dinyanyikan	-10.7612
▁fesyen	-10.7613
▁Lampung	-10.7614
▁03	-10.7619
▁bau	-10.7621
tumbuhan	-10.7625
▁dijadualkan	-10.7626
gil	-10.7632
▁Suria	-10.7634
▁Saxony	-10.7635
▁Im	-10.7635
▁Bill	-10.7636
▁Byzantine	-10.7636
our	-10.764
▁gaji	-10.7642
▁Daud	-10.7644
▁Popular	-10.7645
▁tertutup	-10.7646
▁memuji	-10.7646
rong	-10.7655
▁Joe	-10.7657
▁berukuran	-10.7657
▁Sik	-10.7658
▁sup	-10.7659
▁Buruh	-10.7659
hb	-10.7662
▁sekatan	-10.7671
▁Hwa	-10.7671
pus	-10.7674
▁Dor	-10.7675
▁65	-10.7676
▁mod	-10.7678
▁sempit	-10.7679
▁Bangkok	-10.7679
▁komander	-10.768
ui	-10.7683
udin	-10.7684
▁usul	-10.7686
oli	-10.7686
▁dipersembahkan	-10.7688
▁mutlak	-10.7689
▁permohonan	-10.769
▁persendirian	-10.769
▁kapten	-10.769
▁tersedia	-10.769
ford	-10.7691
▁dimusnahkan	-10.7699
▁menyatukan	-10.7702
▁Bukan	-10.7707
700	-10.7707
▁Kol	-10.7712
ST	-10.773
▁daratan	-10.7732
▁kesedaran	-10.7734
▁syiling	-10.7734
▁binatang	-10.7737
▁pereka	-10.7744
▁beradik	-10.7747
▁Nokia	-10.7747
yak	-10.7754
St	-10.7759
raj	-10.7762
king	-10.7763
▁system	-10.7764
▁Kabinet	-10.7766
▁other	-10.7767
▁walau	-10.7768
▁dipisahkan	-10.7768
▁grafik	-10.7768
▁abang	-10.7772
So	-10.7772
▁senior	-10.7773
bulan	-10.7775
lit	-10.7776
▁Yong	-10.778
▁1939	-10.7783
▁adiknya	-10.7791
▁sekadar	-10.7791
iaitu	-10.7791
▁seminggu	-10.7791
▁penggabungan	-10.7792
▁maut	-10.7793
▁Sing	-10.7796
▁Lake	-10.7802
▁dimasak	-10.7802
▁Saudara	-10.7802
▁Agensi	-10.7802
▁Sah	-10.7803
leh	-10.7807
▁Imperial	-10.7813
▁1000	-10.7816
▁logo	-10.782
▁Edisi	-10.7824
gue	-10.7829
▁Kin	-10.7831
led	-10.7833
▁Novel	-10.7837
cha	-10.784
mann	-10.7842
▁padat	-10.7842
rab	-10.7843
▁penge	-10.7845
▁Walt	-10.7847
▁Jesus	-10.7847
▁entiti	-10.7851
▁mela	-10.7851
▁Tertinggi	-10.7858
▁Rose	-10.7862
▁Jalil	-10.7864
▁Rabu	-10.7866
▁pelayaran	-10.7866
wah	-10.7867
▁Gor	-10.7868
▁dikekalkan	-10.7869
▁Delhi	-10.787
▁Surah	-10.7877
▁Bon	-10.7879
eu	-10.788
▁berminat	-10.7882
ket	-10.7884
▁Din	-10.7887
▁matang	-10.7892
▁wajah	-10.7892
▁KL	-10.7894
▁Kangar	-10.7895
▁Best	-10.79
usul	-10.7902
▁Bebas	-10.7903
▁Ijazah	-10.7903
▁TK	-10.7904
eni	-10.791
▁60%	-10.7919
▁Mari	-10.7919
▁lari	-10.7923
Atlantique	-10.7926
▁eksport	-10.7926
tt	-10.793
ide	-10.793
▁pulih	-10.793
▁laju	-10.793
▁aman	-10.7932
▁Kandi	-10.7934
▁Pahat	-10.7939
▁Productions	-10.7942
▁1953	-10.7945
▁bertarikh	-10.795
▁tisu	-10.795
▁badminton	-10.796
2%	-10.7964
▁Pang	-10.7968
▁Jordan	-10.7969
▁kerabat	-10.797
▁geometri	-10.7973
1*	-10.7976
▁pertikaian	-10.7979
▁semesta	-10.7983
▁memeluk	-10.7983
Ro	-10.799
▁gabenor	-10.7992
▁mempelam	-10.7994
▁Kangsar	-10.7995
▁%	-10.8003
▁penye	-10.8003
out	-10.8003
▁Permatang	-10.8007
ste	-10.8007
▁Tra	-10.8011
▁terdekat	-10.8018
4%	-10.8018
▁segmen	-10.8019
▁promosi	-10.8022
awan	-10.8023
▁Cara	-10.8023
▁terperinci	-10.8029
▁pupus	-10.8032
▁06	-10.8032
ral	-10.8032
▁Yo	-10.8036
▁pi	-10.8037
ys	-10.8041
rid	-10.8044
▁warganegara	-10.8045
▁penutur	-10.8051
pah	-10.8051
▁sekitarnya	-10.8051
▁arkitek	-10.8052
▁pahlawan	-10.8057
aux	-10.8058
SM	-10.8059
▁kaitan	-10.8059
▁Global	-10.8062
▁kapasiti	-10.8063
▁jiran	-10.8065
▁konsonan	-10.8072
jat	-10.8073
▁Narathiwat	-10.8075
▁Yoshi	-10.8075
▁Seng	-10.8079
▁Chong	-10.8079
bab	-10.8081
sai	-10.8095
▁Miri	-10.8095
▁Senat	-10.8099
▁Petani	-10.81
▁Rai	-10.8103
▁foto	-10.8105
▁benih	-10.8106
▁ibadat	-10.8109
▁dikembangkan	-10.811
▁peringatan	-10.811
win	-10.8113
2011	-10.8114
gor	-10.8118
▁tertumpu	-10.8121
ld	-10.8123
▁penguasaan	-10.8123
▁disambut	-10.8124
Do	-10.8127
▁Col	-10.8131
▁pinggang	-10.8134
▁Bapa	-10.8136
▁penaklukan	-10.8138
▁Bob	-10.8139
▁penilaian	-10.8144
▁Trans	-10.8146
▁Gra	-10.8147
iran	-10.8147
▁agen	-10.815
day	-10.815
▁peneroka	-10.8151
tong	-10.8152
▁fakta	-10.8153
tanda	-10.8154
Te	-10.8158
▁Yahya	-10.816
▁Jajahan	-10.8168
▁tepung	-10.8168
cak	-10.8169
▁abjad	-10.817
▁barah	-10.8172
tek	-10.8174
▁Nurhaliza	-10.8179
▁White	-10.818
▁mikro	-10.8183
Pen	-10.8183
</	-10.8186
▁kolam	-10.8189
▁komposer	-10.8191
▁pergunungan	-10.8191
▁pujian	-10.8191
▁Camp	-10.8193
▁1997,	-10.8196
2013	-10.82
▁Ilmu	-10.82
▁pertunjukan	-10.8203
▁Buah	-10.8203
▁budak	-10.8205
▁pencipta	-10.8214
▁Persembahan	-10.8217
▁Neu	-10.8217
▁Apple	-10.8219
was	-10.8221
Amerika	-10.8224
▁selanjutnya	-10.8226
▁Angkasa	-10.8226
▁Arthur	-10.8226
▁elit	-10.8229
▁gerak	-10.823
▁kunci	-10.8231
PP	-10.8231
▁ad	-10.8232
19,	-10.8235
▁sekutu	-10.8238
▁mencerminkan	-10.8238
well	-10.8241
▁dibakar	-10.8242
▁Up	-10.8248
▁Jen	-10.8255
▁1937	-10.8259
▁Of	-10.826
▁kg	-10.826
▁Hamilton	-10.8261
▁terbakar	-10.8262
▁mazhab	-10.8266
▁berkumpul	-10.8266
non	-10.8268
tions	-10.8271
▁terkorban	-10.8273
▁Rang	-10.8275
ei	-10.8278
▁04	-10.828
▁ditukarkan	-10.8283
▁Tempatan	-10.8284
▁Kemajuan	-10.8285
▁Show	-10.8285
▁diangkat	-10.8286
▁staf	-10.8287
▁jeneral	-10.829
▁teh	-10.8292
▁Anti	-10.8295
▁Perbadanan	-10.8297
sus	-10.8297
▁pengaturcaraan	-10.8301
▁Nusa	-10.8302
lahan	-10.8302
illa	-10.8303
eg	-10.8306
▁Lar	-10.8306
▁aktivis	-10.8307
▁Barcelona	-10.8308
▁mengancam	-10.8308
▁melepasi	-10.8308
▁Abang	-10.831
vel	-10.8315
▁pengembangan	-10.832
lip	-10.8321
sky	-10.8322
gur	-10.8323
▁erti	-10.8325
ue	-10.8329
▁mengumpulkan	-10.8329
To	-10.8333
▁Had	-10.8341
▁eksklusif	-10.8344
▁Melbourne	-10.8344
apan	-10.8354
▁penyertaan	-10.8356
▁Kaedah	-10.8356
▁ditawan	-10.8356
▁tulen	-10.8356
▁style	-10.8359
ps	-10.836
500	-10.836
▁kelabu	-10.8361
bach	-10.8363
▁Time	-10.8364
▁ni	-10.8365
▁Konvensyen	-10.8365
▁atur	-10.8367
▁diperintah	-10.8367
▁Angola	-10.8368
mos	-10.8377
▁Lubuk	-10.8381
▁dimensi	-10.8384
▁racun	-10.8385
ward	-10.8388
5,000	-10.8389
▁romantik	-10.8391
sti	-10.8391
teri	-10.8397
▁Peristiwa	-10.8402
▁saingan	-10.8402
▁disampaikan	-10.8403
▁Dilahirkan	-10.8403
▁berputar	-10.8405
▁duit	-10.8406
Westphalia	-10.8415
▁Sara	-10.8416
▁pengedaran	-10.8421
bre	-10.8422
▁Usaha	-10.8427
▁roket	-10.8427
▁gelanggang	-10.8427
▁Kasih	-10.8428
Bi	-10.8429
▁pembahagian	-10.8431
Bo	-10.8434
▁harimau	-10.8439
▁kehendak	-10.844
▁Las	-10.8441
▁Harian	-10.8451
▁Jung	-10.8451
▁cucu	-10.8454
▁Ph	-10.8454
▁Waktu	-10.8457
▁DNA	-10.8458
▁perbelanjaan	-10.8463
▁suasana	-10.8463
▁mangkat	-10.8464
▁penambahan	-10.8466
kha	-10.8473
▁dipaksa	-10.8475
kom	-10.8481
▁EUR	-10.8486
▁penari	-10.8487
▁perintis	-10.8487
▁saraf	-10.8488
▁beramai	-10.849
Vi	-10.849
gai	-10.8491
▁Bol	-10.8494
put	-10.8496
▁Gaya	-10.8498
▁lembah	-10.8499
sumber	-10.8501
▁pembaca	-10.8502
etakat	-10.8504
▁Bil	-10.8506
▁menonjol	-10.8509
600	-10.851
▁Kuning	-10.851
▁mengganggu	-10.8511
▁55%	-10.8519
▁1951	-10.852
▁Kur	-10.852
dha	-10.8522
▁kartun	-10.8523
▁melarang	-10.8524
▁dihidangkan	-10.8526
▁Dur	-10.8527
▁penjualan	-10.853
kampung	-10.853
▁Post	-10.8533
▁Matang	-10.8533
▁Ur	-10.8543
▁arkeologi	-10.8547
▁mirip	-10.8548
dur	-10.8554
▁Tanpa	-10.8555
▁keju	-10.8557
▁menyambut	-10.856
▁bantahan	-10.856
▁dikurangkan	-10.856
zen	-10.8565
▁Live	-10.8565
cara	-10.8566
▁Kod	-10.8569
MB	-10.8571
▁over	-10.8572
▁siang	-10.8573
▁Bugis	-10.8573
▁Sastera	-10.8583
▁diselesaikan	-10.8584
$	-10.8584
▁Zu	-10.8584
▁Sao	-10.8588
2*	-10.8591
▁makam	-10.8592
▁dikelaskan	-10.8596
▁RTM	-10.8597
▁Duke	-10.86
ell	-10.8601
cin	-10.8604
▁pengembaraan	-10.8606
▁insiden	-10.8608
▁This	-10.8611
▁Bat	-10.8612
▁PT	-10.8612
▁Ari	-10.8613
Du	-10.8614
▁menghadap	-10.8615
ping	-10.8619
3*	-10.8621
▁Jln	-10.8621
▁Sala	-10.8624
▁mengisi	-10.8625
▁MRT	-10.8629
▁slot	-10.8635
▁sayang	-10.8641
▁Tre	-10.8644
▁Texas	-10.8645
▁menye	-10.865
pegawai	-10.8653
mor	-10.8653
▁domain	-10.8657
▁Madrid	-10.8669
▁Moselle	-10.8671
▁melanda	-10.8672
iyyah	-10.8673
▁Vol	-10.8687
▁psikologi	-10.8691
▁ketiadaan	-10.8694
▁berjanji	-10.8695
▁sidang	-10.8696
▁Datu	-10.8696
▁awan	-10.8702
▁jasad	-10.8705
▁infantri	-10.8706
▁bersempena	-10.8706
New	-10.8707
▁masyhur	-10.8713
▁ternyata	-10.8718
▁Madinah	-10.8718
▁metal	-10.8722
▁bunuh	-10.8725
▁pengajar	-10.8726
▁senang	-10.8726
SS	-10.873
▁bimbit	-10.8731
▁Kyoto	-10.8731
2015	-10.874
▁Shanghai	-10.8742
▁mencabar	-10.8743
▁Burma	-10.8749
▁fa	-10.8749
1%	-10.8751
▁Gal	-10.8752
▁Km	-10.8753
iv	-10.8756
▁Mus	-10.8757
▁Samad	-10.8766
800	-10.8767
▁Calvados	-10.8768
▁kemusnahan	-10.8768
▁Kejayaan	-10.8768
less	-10.8768
itan	-10.8769
▁Andre	-10.8771
▁Kulim	-10.8771
▁mengembara	-10.878
port	-10.878
▁Art	-10.8781
tung	-10.8782
▁disiplin	-10.8783
▁Kubu	-10.8785
▁MCA	-10.8791
sayuran	-10.8792
▁merosakkan	-10.8792
▁saintis	-10.8792
▁Durian	-10.8801
▁cubaan	-10.8802
▁Ed	-10.8802
▁12%	-10.8802
[[	-10.8804
▁Plzen	-10.8805
▁berpunca	-10.8808
▁degC	-10.8817
▁Mall	-10.8817
pertanian	-10.8817
▁Com	-10.8819
▁bersuara	-10.8819
▁kaji	-10.8819
8%	-10.8822
▁Hat	-10.8824
mur	-10.8826
▁bacaan	-10.8827
nal	-10.8828
for	-10.8832
▁kotanya	-10.8836
▁penyebaran	-10.8842
▁Maktab	-10.8842
▁Juan	-10.8843
▁mitos	-10.8843
▁penubuhannya	-10.8849
▁Utusan	-10.8853
▁Picardie	-10.8855
▁menyiasat	-10.8855
▁tiub	-10.8855
▁Del	-10.8856
▁Saluran	-10.8859
batu	-10.8861
▁agung	-10.8864
▁English	-10.8866
Vorpommern	-10.8868
sekarang	-10.8868
▁selatannya	-10.8869
▁Kat	-10.8872
mem	-10.8872
pop	-10.8873
▁Type	-10.8874
▁Amy	-10.8882
▁Nilai	-10.8882
▁uji	-10.8883
▁beban	-10.8887
▁Network	-10.8887
▁Midi	-10.8889
▁kenaikan	-10.8892
▁sihat	-10.8894
alat	-10.8894
▁panglima	-10.8896
▁Sebanyak	-10.8906
▁kemampuan	-10.8908
▁hadis	-10.8914
▁11%	-10.8914
▁Md	-10.8914
rie	-10.8916
▁naga	-10.8916
▁Project	-10.8921
illy	-10.8923
▁out	-10.8925
▁Ramli	-10.8927
▁Karl	-10.8928
▁kebimbangan	-10.893
▁dikalahkan	-10.893
hid	-10.8931
bai	-10.8934
▁kelulusan	-10.8938
▁Lubnan	-10.8938
▁bijih	-10.8939
kannya	-10.8942
▁Rin	-10.8943
stan	-10.8944
kol	-10.8946
▁soalan	-10.8948
▁Nusantara	-10.8951
rama	-10.8952
▁Awal	-10.8953
▁mengembalikan	-10.8955
▁profesor	-10.8955
▁galaksi	-10.8955
▁kolonial	-10.8955
▁Xi	-10.8957
▁Selasa	-10.896
▁dulu	-10.8964
▁Dun	-10.8967
▁menjuarai	-10.8967
▁Kuta	-10.8968
▁mekanik	-10.8968
▁Kampus	-10.8969
▁Rama	-10.8969
▁1,000	-10.8972
won	-10.8975
▁mengutip	-10.898
▁bio	-10.8981
▁plat	-10.8982
PS	-10.8984
▁Presov	-10.8986
▁Kajang	-10.8988
▁kecemasan	-10.8993
▁panel	-10.8995
▁Mala	-10.8995
▁diubahsuai	-10.8999
▁guna	-10.8999
zin	-10.9
▁dinobatkan	-10.9005
▁mengkritik	-10.9006
▁mesra	-10.9006
▁45%	-10.9006
▁Kap	-10.9008
▁diuruskan	-10.9009
▁ion	-10.901
▁Hikayat	-10.9014
ayat	-10.9017
▁mengahwini	-10.9018
▁merawat	-10.9018
▁otot	-10.9025
▁Napoleon	-10.9027
sum	-10.9027
▁Basse	-10.9028
▁Konsep	-10.9031
▁basikal	-10.9031
bol	-10.9032
▁Bai	-10.9037
nder	-10.9038
▁kebajikan	-10.9039
ew	-10.9039
usi	-10.9043
▁agraria	-10.9043
▁wayang	-10.9046
▁Pengangkutan	-10.9046
rad	-10.9055
▁ibadah	-10.9056
▁Sunda	-10.9057
▁menyebarkan	-10.9061
▁Bursa	-10.9061
▁fe	-10.9062
▁Kun	-10.9063
nica	-10.9063
US	-10.9067
▁Mesyuarat	-10.9069
nak	-10.9071
kur	-10.9073
▁dituduh	-10.908
▁sanggup	-10.9082
▁Mazraeh	-10.9082
▁Latihan	-10.9082
▁naungan	-10.9082
▁Asal	-10.9083
▁Ibnu	-10.9086
▁56%	-10.9087
▁Gold	-10.9089
▁cetakan	-10.9091
▁Santo	-10.9092
▁emosi	-10.9094
▁Kemerdekaan	-10.9094
▁membatalkan	-10.9094
▁they	-10.9095
▁timah	-10.9096
wati	-10.9099
▁Maz	-10.9099
▁moral	-10.91
udi	-10.9101
dh	-10.9105
▁runcit	-10.9107
▁Stephen	-10.9107
▁Warner	-10.9109
▁Sky	-10.911
▁Ayu	-10.911
▁Vaud	-10.911
▁Amar	-10.9111
▁SDN	-10.9112
▁amal	-10.9115
▁Onn	-10.9117
▁Sicily	-10.912
▁Watak	-10.9121
▁roh	-10.9123
▁Honda	-10.9126
▁into	-10.9129
▁terancam	-10.9133
▁Teng	-10.9133
▁serbuk	-10.9133
bay	-10.9136
▁Ul	-10.9138
▁Anna	-10.9144
▁Damansara	-10.9146
▁telinga	-10.9146
▁berkurangan	-10.9146
bangsa	-10.9147
▁penggubah	-10.9153
▁1996,	-10.9154
▁perfileman	-10.9159
▁meraikan	-10.9159
▁merebut	-10.9159
KL	-10.916
▁pelarian	-10.9164
▁Movie	-10.9166
▁mekanisme	-10.9172
vis	-10.9172
▁membakar	-10.9172
▁moyang	-10.9173
▁dilarang	-10.9173
baik	-10.9176
▁Khalifah	-10.918
▁polisi	-10.918
▁memulihkan	-10.9184
▁perpindahan	-10.9184
▁more	-10.9187
sifat	-10.919
▁akses	-10.9197
▁nipis	-10.9197
ole	-10.9198
rio	-10.9198
▁optik	-10.92
00/	-10.9204
IM	-10.9204
▁niat	-10.9204
▁hantu	-10.9205
▁Mut	-10.921
▁kamar	-10.9212
▁mengenali	-10.9214
▁Kesan	-10.9214
pol	-10.9216
▁10,000	-10.9218
ric	-10.922
▁des	-10.922
▁JOJO	-10.9223
▁berke	-10.9223
▁kemuncak	-10.9224
▁itulah	-10.9224
▁wa	-10.9229
▁Sosial	-10.9231
▁didedahkan	-10.9236
▁menyifatkan	-10.9236
▁Indo	-10.9241
ator	-10.9242
▁Pn	-10.9244
rasi	-10.9247
▁DI	-10.9248
▁Hautes	-10.9252
▁1933	-10.9254
oid	-10.9256
usaha	-10.9257
▁Fakulti	-10.9262
▁berlebihan	-10.9262
▁Brown	-10.9262
▁sebatang	-10.9263
▁salji	-10.9263
▁Adnan	-10.9268
rian	-10.927
▁YB	-10.9271
▁memecahkan	-10.9272
int	-10.9273
sil	-10.9273
▁Lain	-10.9275
▁mono	-10.928
▁poli	-10.9281
▁Lat	-10.9294
eo	-10.9295
ss	-10.9299
2012	-10.9299
▁pepejal	-10.9301
▁semenanjung	-10.9301
▁Bendahara	-10.9301
▁angkat	-10.9302
dol	-10.9304
pasukan	-10.9306
▁1900	-10.9309
▁Pengurus	-10.931
▁Perwakilan	-10.9314
▁Sai	-10.9314
▁pintar	-10.9315
▁EP	-10.9315
▁plastik	-10.9318
▁bulatan	-10.932
▁belia	-10.9321
▁seragam	-10.9323
▁kesempatan	-10.9327
▁motor	-10.9327
▁Ras	-10.9332
▁dipaparkan	-10.934
▁menuduh	-10.934
▁Minyak	-10.9341
▁menyusun	-10.9342
▁go	-10.9349
▁direkodkan	-10.9354
▁Tempoh	-10.9354
▁halangan	-10.9355
▁Azlan	-10.9356
lem	-10.9356
▁menambahkan	-10.9356
▁Tujuh	-10.9357
AN	-10.9362
▁kesembilan	-10.9362
▁un	-10.9363
▁difahami	-10.9367
▁diiringi	-10.9367
contoh	-10.9373
▁pasca	-10.9375
▁Deh	-10.9377
▁Bekas	-10.9378
▁14,922	-10.938
▁Terletak	-10.938
▁cereka	-10.938
▁Yaman	-10.938
▁two	-10.9382
▁bertahun	-10.9385
2003	-10.9386
▁Tim	-10.9387
▁Rud	-10.9388
Fi	-10.9389
Hu	-10.939
wo	-10.9393
▁agregat	-10.9394
▁bab	-10.9395
zy	-10.9396
▁paus	-10.94
▁kecewa	-10.9406
▁mempersembahkan	-10.9406
▁hidupan	-10.9408
him	-10.9411
▁dada	-10.9413
▁divisyen	-10.9417
▁gerbang	-10.9419
▁jemaah	-10.9419
▁lucah	-10.9419
bintang	-10.9419
▁kelapan	-10.942
▁KD	-10.942
▁Cham	-10.9421
rac	-10.9421
fan	-10.9425
▁paparan	-10.9433
▁Besut	-10.9433
▁kanser	-10.9433
band	-10.9436
▁Bangladesh	-10.9439
2014	-10.9444
nin	-10.9446
▁Perikatan	-10.9446
▁Lebuh	-10.9446
▁Prof	-10.9447
▁Libya	-10.9448
ob	-10.9451
▁hangat	-10.9453
▁Awards	-10.9453
mati	-10.9454
▁Qi	-10.9456
▁1938	-10.9457
cap	-10.9458
▁pendaratan	-10.9464
▁Morning	-10.9468
Mi	-10.947
▁perlombongan	-10.9472
▁Penghulu	-10.9472
▁tajam	-10.9473
Saone	-10.9476
ls	-10.9486
▁mengikat	-10.9487
▁sumpah	-10.9489
▁Den	-10.949
yer	-10.9495
▁mengapa	-10.9495
▁mengemukakan	-10.9499
▁Makkah	-10.95
lot	-10.9503
cul	-10.951
▁graviti	-10.9512
▁menghancurkan	-10.9512
▁dihentikan	-10.9512
▁abangnya	-10.9513
▁pembuat	-10.9517
langkah	-10.9519
▁Puy	-10.952
▁Wal	-10.9521
MP	-10.9524
▁ekspedisi	-10.9525
▁Pembantu	-10.9525
▁terjual	-10.9526
rk	-10.9526
▁Perubahan	-10.9526
▁69	-10.9526
▁Cikgu	-10.9526
▁Yeh	-10.9527
▁buluh	-10.9527
▁Eng	-10.9529
ISBN	-10.953
▁pondok	-10.9535
fen	-10.9536
▁Penasihat	-10.9539
▁menjalin	-10.9539
▁SA	-10.9541
▁rang	-10.9545
und	-10.9548
pra	-10.9549
mai	-10.9549
9%	-10.9552
▁mengukur	-10.9553
▁mandi	-10.9553
sor	-10.9553
▁seawal	-10.9556
▁Teori	-10.9556
BN	-10.956
▁asteroid	-10.9565
lima	-10.9567
▁padu	-10.957
▁Andrew	-10.9571
utan	-10.9572
oon	-10.9577
▁Sena	-10.9579
▁some	-10.958
▁Christian	-10.958
▁perahu	-10.9581
▁pembakaran	-10.9583
▁Queen	-10.9584
▁sebahagiannya	-10.9584
text	-10.9585
▁pencerobohan	-10.9586
▁Power	-10.9588
jal	-10.9589
▁perkongsian	-10.9592
▁1995,	-10.9593
▁Kho	-10.9595
▁paru	-10.9595
▁Qing	-10.9596
▁yakin	-10.9598
▁Sav	-10.9601
▁membabitkan	-10.9606
▁tangki	-10.9606
▁lisan	-10.9608
▁Reka	-10.9609
nie	-10.9611
▁kredit	-10.9612
▁85	-10.962
▁Dal	-10.9621
▁Akibatnya	-10.9622
▁penglibatan	-10.9625
▁rempah	-10.9631
▁Alex	-10.9632
▁memelihara	-10.9633
▁1910	-10.9637
▁Ann	-10.9639
cus	-10.9642
▁Kuil	-10.9642
los	-10.9644
▁SE	-10.9646
▁rampasan	-10.9646
▁terpenting	-10.9646
▁dokumentari	-10.9647
▁dibayar	-10.9652
▁Ex	-10.9652
ip	-10.9654
▁bersekolah	-10.9654
▁72	-10.9655
▁Yokohama	-10.966
▁menjawat	-10.966
▁Qatar	-10.966
▁diukur	-10.966
▁Mulai	-10.9661
Bar	-10.9664
▁110	-10.9664
▁manfaat	-10.9664
▁mestilah	-10.9667
▁berkualiti	-10.9673
▁eletrik	-10.9673
▁berharap	-10.9674
▁Peranan	-10.9676
▁Pir	-10.9676
▁Taib	-10.9677
bentuk	-10.9678
▁pembiakan	-10.9678
▁Bun	-10.9679
stad	-10.9679
▁Columbia	-10.9684
mbo	-10.9687
▁memisahkan	-10.9687
▁menghormati	-10.9687
▁Anggota	-10.9687
▁menyentuh	-10.9687
▁rekabentuk	-10.9687
IT	-10.9688
▁putaran	-10.9688
kawa	-10.9689
▁bertulis	-10.9691
▁Pusingan	-10.9691
▁Penulis	-10.9692
▁duta	-10.9695
▁1945,	-10.9697
tos	-10.9697
sir	-10.9698
bad	-10.9702
▁Tarn	-10.9705
▁menurunkan	-10.9708
ele	-10.971
sistem	-10.9712
▁terminal	-10.9714
▁sibuk	-10.9715
▁Marne	-10.9716
▁Sama	-10.9717
▁57%	-10.972
▁diakui	-10.9721
▁Der	-10.9726
▁meletus	-10.9728
▁Musi	-10.9729
▁Cape	-10.9729
▁And	-10.9729
end	-10.973
▁suai	-10.973
▁Sand	-10.9732
▁muzikal	-10.9732
chan	-10.9737
▁Bir	-10.9741
▁digantung	-10.9741
▁melayakkan	-10.9741
▁Hampir	-10.9741
▁cekap	-10.9741
▁Airlines	-10.9742
▁Tuah	-10.9742
▁Sibu	-10.9747
▁kedaulatan	-10.9755
▁Kak	-10.9757
▁tenteranya	-10.9764
SDN	-10.9767
▁Society	-10.9768
▁melainkan	-10.9768
▁Pergerakan	-10.9769
▁sinaran	-10.9771
▁melintasi	-10.9771
▁SS	-10.9771
▁Grande	-10.9772
▁silam	-10.9774
▁populariti	-10.9779
▁melengkapkan	-10.9782
▁Hawaii	-10.9782
SI	-10.9784
ratus	-10.9786
▁time	-10.9787
▁kar	-10.9792
▁Old	-10.9792
▁kesilapan	-10.9793
▁Cheng	-10.9795
▁MP	-10.9798
ulang	-10.9801
▁Rod	-10.9801
bot	-10.9803
▁Majoriti	-10.9805
▁Brittany	-10.981
▁Pesuruhjaya	-10.981
▁kerugian	-10.981
▁terpisah	-10.981
▁diminta	-10.981
bangunan	-10.981
▁peti	-10.9811
▁penerimaan	-10.9813
Ri	-10.9813
▁Petang	-10.9814
contohnya	-10.9815
▁Acara	-10.9819
▁Maklumat	-10.9821
▁Win	-10.9822
▁Spesies	-10.9823
▁surau	-10.9824
▁Anne	-10.9826
▁Malay	-10.9836
▁Perniagaan	-10.9837
▁memperingati	-10.9837
▁Florida	-10.9837
▁Adalah	-10.9838
▁44%	-10.9843
▁Gas	-10.9846
sebab	-10.985
▁Buloh	-10.9851
▁irama	-10.9851
▁mencuri	-10.9852
ili	-10.9852
▁Center	-10.9855
▁pencemaran	-10.9855
cle	-10.9856
▁Labuan	-10.9858
▁adil	-10.9858
▁selesa	-10.986
▁en	-10.9861
▁lo	-10.9863
▁adegan	-10.9863
Moselle	-10.9863
▁tawar	-10.9863
▁berpotensi	-10.9865
▁Ichigo	-10.9865
dir	-10.9865
▁Kidul	-10.9866
kis	-10.9868
▁AC	-10.9868
▁Tapi	-10.9874
kit	-10.9874
ribu	-10.9875
▁pemandangan	-10.9878
▁berpisah	-10.9879
▁mineral	-10.9881
ship	-10.9882
uran	-10.9883
▁relatif	-10.9886
▁Mandarin	-10.9886
▁Are	-10.9889
▁Kejuruteraan	-10.9892
▁terkejut	-10.9892
▁membantah	-10.9892
▁Riau	-10.9893
▁j	-10.9897
yeh	-10.9899
▁Good	-10.9901
▁inter	-10.9905
▁Catalonia	-10.9906
▁penyelidik	-10.991
ono	-10.9913
▁Fil	-10.9913
enberg	-10.9915
▁minimum	-10.992
▁ekoran	-10.9921
▁Syiah	-10.9921
▁Jr	-10.9924
▁Sant	-10.9925
▁insan	-10.9928
▁League	-10.993
▁mempamerkan	-10.9934
▁kemanusiaan	-10.9934
▁bercerai	-10.9934
EC	-10.9936
▁inspirasi	-10.9942
▁Stone	-10.9945
▁berkisar	-10.9948
▁dibezakan	-10.9948
bro	-10.9949
2001	-10.9954
▁cita	-10.9956
▁kepingan	-10.9956
▁Night	-10.996
Men	-10.9961
▁menyeluruh	-10.9962
▁Sijil	-10.9962
▁1994,	-10.9964
▁penutup	-10.9967
▁Jamal	-10.9968
ular	-10.9968
▁Tujuan	-10.997
Arab	-10.9972
▁Suku	-10.9973
▁under	-10.9974
ova	-10.9975
▁bersambung	-10.9976
▁mental	-10.9983
983	-10.9983
▁Surabaya	-10.999
▁Ling	-10.9995
▁dijemput	-10.9998
yama	-10.9999
awi	-11.0001
▁would	-11.0004
▁Uthmaniyah	-11.0004
▁Pemenang	-11.0004
kupu	-11.0005
▁Kau	-11.0007
pusat	-11.0013
ibu	-11.0018
▁pembelian	-11.0018
▁berdaftar	-11.0019
▁Sei	-11.0019
mpang	-11.0021
▁Fer	-11.0024
pos	-11.0025
align	-11.0027
▁Vysocina	-11.0032
▁sejagat	-11.0032
▁diplomatik	-11.0033
kut	-11.0034
▁40%	-11.0037
ph	-11.0037
▁Girl	-11.0038
CO	-11.0039
▁lumba	-11.0042
▁Lewis	-11.0046
DI	-11.0052
warna	-11.0053
ette	-11.006
▁mematuhi	-11.006
▁bersepadu	-11.006
▁Tangerang	-11.006
▁88	-11.006
▁Segamat	-11.0061
▁Ir	-11.0063
▁trofi	-11.0064
▁bahu	-11.0065
ukan	-11.0072
▁Ze	-11.0073
▁Pala	-11.0075
ux	-11.0075
bh	-11.0078
bil	-11.008
vor	-11.0084
▁Perempuan	-11.0088
▁Bapanya	-11.0088
▁Cameroon	-11.0088
▁kompilasi	-11.0088
▁menyenaraikan	-11.0088
▁lembap	-11.0088
▁kebaikan	-11.0088
▁Manche	-11.0092
▁ar	-11.0092
▁Vel	-11.0095
▁Fo	-11.0097
▁Salib	-11.0098
▁lorong	-11.0098
elle	-11.0099
▁Kolonel	-11.0099
▁Barito	-11.01
▁mesej	-11.01
▁180	-11.0101
▁mengarah	-11.0102
▁Lip	-11.0102
▁kargo	-11.0103
▁bertulang	-11.0104
ichi	-11.0105
vy	-11.011
▁pengeboman	-11.0111
tau	-11.0112
▁Central	-11.0112
▁mendiami	-11.013
▁Penyakit	-11.013
▁Kok	-11.0131
ER	-11.0134
▁tamadun	-11.0136
▁selaras	-11.0139
mb	-11.0143
▁mendesak	-11.0145
itas	-11.0145
tari	-11.0149
▁NATO	-11.015
Ko	-11.015
▁penanaman	-11.015
▁HD	-11.0152
▁Karim	-11.0156
▁Pur	-11.0157
rom	-11.0157
▁Berapi	-11.0158
▁diharamkan	-11.0159
▁Mega	-11.0164
▁Langat	-11.0165
lasi	-11.0165
▁Nova	-11.0167
▁tenggelam	-11.0173
▁Rangkaian	-11.0173
▁mesingan	-11.0175
▁karyanya	-11.0182
▁Skuad	-11.0187
▁ganas	-11.0188
▁Vo	-11.0191
gung	-11.0191
tip	-11.0194
▁Oise	-11.0195
▁Johnson	-11.0196
▁muatan	-11.0198
▁Death	-11.0199
▁Square	-11.0201
▁usahawan	-11.0202
▁Lazio	-11.0202
▁mengelak	-11.0202
▁singa	-11.0202
▁bual	-11.0207
kt	-11.0214
ight	-11.0215
sun	-11.022
▁1927	-11.022
▁dimuatkan	-11.0224
▁bertempat	-11.0226
IA	-11.0227
▁mendahului	-11.023
▁menonton	-11.023
▁persenjataan	-11.023
DP	-11.023
▁wap	-11.0233
Po	-11.0233
▁Rimba	-11.0242
komun	-11.0246
▁lengan	-11.0248
▁Mongolia	-11.0249
meter	-11.0253
▁hasrat	-11.0254
20,	-11.0255
AM	-11.0256
▁Jay	-11.0257
▁kreatif	-11.0259
▁Now	-11.0259
▁Dai	-11.026
▁kebun	-11.0261
▁Surau	-11.0262
▁Jones	-11.0263
▁Hijau	-11.0265
▁sinar	-11.0267
▁Beach	-11.0269
▁Artis	-11.0276
▁saintifiknya	-11.0276
▁Sosialis	-11.0279
ovo	-11.0286
▁Hormozgan	-11.0287
▁kesinambungan	-11.0287
▁trans	-11.0289
▁1991,	-11.0291
▁76	-11.0292
▁07	-11.0292
▁Bengal	-11.0293
▁Ramlee	-11.0293
tani	-11.0294
▁diperhatikan	-11.0294
▁Oh	-11.0297
ello	-11.0304
dasar	-11.0304
▁Sarah	-11.0309
▁Markas	-11.0312
Co	-11.0313
▁menu	-11.0316
▁patut	-11.0316
▁terpencil	-11.0316
▁r	-11.0318
▁Indian	-11.0319
▁nukleus	-11.032
▁Gro	-11.0321
Peng	-11.0325
▁pemb	-11.0326
▁Kamil	-11.0329
▁terlepas	-11.0332
▁Kala	-11.0335
▁Biro	-11.0335
▁habis	-11.0337
▁250	-11.034
▁rejim	-11.0342
▁Zul	-11.0343
▁Cirebon	-11.0345
▁PlayStation	-11.0345
▁Williams	-11.035
▁istiadat	-11.0359
▁persediaan	-11.036
▁periuk	-11.036
▁Teater	-11.036
chu	-11.0362
▁Opera	-11.0362
▁Home	-11.0364
main	-11.0365
▁main	-11.0367
▁Gard	-11.037
▁siapa	-11.0372
▁penyerahan	-11.0374
ive	-11.0374
▁dianggotai	-11.0375
▁merebak	-11.0375
▁Simon	-11.038
▁new	-11.038
Gu	-11.0382
▁99	-11.0382
▁pin	-11.0384
▁62	-11.0388
garh	-11.0388
▁Pun	-11.0388
▁kelemahan	-11.0389
▁tertarik	-11.0389
▁rotan	-11.039
2002	-11.0391
▁mengu	-11.0392
▁kuantiti	-11.0392
▁dipotong	-11.0394
rul	-11.0399
▁Hukum	-11.0399
▁1918	-11.0399
zon	-11.04
mani	-11.0401
▁Jong	-11.0401
▁dipecat	-11.0403
▁bertarung	-11.0403
▁Senjata	-11.0404
▁bimbang	-11.0405
▁Vas	-11.0406
▁Kit	-11.0406
▁58%	-11.0408
▁Minangkabau	-11.0411
ngga	-11.0412
▁herba	-11.0416
▁dikalangan	-11.0418
▁mentadbir	-11.0418
▁pemburuan	-11.0419
▁Kad	-11.042
▁Benin	-11.0421
▁gemar	-11.0422
▁Sulu	-11.0424
▁Pierre	-11.0427
▁metropolitan	-11.0433
▁gandum	-11.0433
▁memotong	-11.0433
▁kritikal	-11.0433
zer	-11.0438
cent	-11.0438
▁Um	-11.044
kus	-11.044
dhi	-11.0441
▁kakak	-11.0442
▁berse	-11.0443
Lu	-11.0445
▁jalanan	-11.0446
▁dilepaskan	-11.0447
▁pemangsa	-11.0448
▁such	-11.0451
shan	-11.0452
▁Turut	-11.0453
teks	-11.0456
▁inisiatif	-11.0456
▁latitud	-11.046
▁VI	-11.0461
get	-11.0471
▁74	-11.0472
▁pu	-11.0474
▁f	-11.0475
▁Tol	-11.0476
▁statistik	-11.0476
▁Petronas	-11.0477
▁mahir	-11.0477
▁Scott	-11.048
▁menyeru	-11.048
▁pelawak	-11.048
▁Sk	-11.0481
sey	-11.0483
▁Fort	-11.0485
▁Bri	-11.0487
▁kalau	-11.0487
▁Bone	-11.0491
▁Toronto	-11.0491
▁Komuniti	-11.0491
▁wabak	-11.0492
ern	-11.0499
▁Tony	-11.0499
ibni	-11.05
hen	-11.0502
▁tingkap	-11.0507
▁600	-11.0512
▁Ste	-11.0516
▁Doubs	-11.0521
▁Antonio	-11.0525
gus	-11.0526
▁mas	-11.0527
▁juru	-11.053
wal	-11.0531
gambar	-11.0532
▁pasang	-11.0534
ois	-11.0535
▁gred	-11.0535
Armor	-11.0536
▁jelajah	-11.0536
▁Moon	-11.0539
▁kongsi	-11.054
ug	-11.0541
mbi	-11.0549
▁tembaga	-11.055
▁kuih	-11.0551
▁disingkirkan	-11.0551
yon	-11.0556
▁1924	-11.0558
▁kencing	-11.0561
▁ti	-11.0566
▁bersekutu	-11.0566
▁Malangnya	-11.0567
sion	-11.0569
ise	-11.0569
▁Bis	-11.057
▁Philip	-11.0574
▁diilhamkan	-11.0574
Lo	-11.0574
▁fikiran	-11.0574
▁cili	-11.0576
▁dikategorikan	-11.058
mark	-11.0581
▁Norman	-11.0582
▁Force	-11.0585
▁tentu	-11.0586
▁tegas	-11.0586
▁Fre	-11.0587
▁janji	-11.0591
▁sebalik	-11.0592
sul	-11.0594
bong	-11.0598
▁66	-11.06
▁kubah	-11.0611
▁Mekah	-11.0614
▁Leste	-11.0616
▁1923	-11.0617
Kreis	-11.0618
▁Biru	-11.0619
▁Ford	-11.062
▁faedah	-11.0621
oz	-11.0622
▁melampau	-11.0622
▁Por	-11.0624
▁Meurthe	-11.0624
▁bertutur	-11.0624
▁rundingan	-11.0624
▁Sukarno	-11.0625
▁menyekat	-11.0625
SA	-11.0626
▁1912	-11.0629
▁Saham	-11.063
▁lombong	-11.0634
▁cipta	-11.0638
tangan	-11.064
▁Iban	-11.064
cur	-11.0641
ungan	-11.0644
parti	-11.0645
▁1926	-11.0646
▁Luc	-11.0646
▁Virginia	-11.0649
▁Jer	-11.0654
▁pensyarah	-11.0654
▁urutan	-11.0654
▁Gombak	-11.0655
▁HMS	-11.0656
▁jet	-11.0657
▁Op	-11.0662
▁Televisyen	-11.0663
▁pemprosesan	-11.0667
▁Jon	-11.0668
▁Russia	-11.0669
▁Veneto	-11.0669
▁khalifah	-11.0669
col	-11.0671
▁memperbaiki	-11.0672
▁Misi	-11.0672
4*	-11.0673
▁Wahid	-11.0673
een	-11.0674
bes	-11.0676
▁43%	-11.0676
pokok	-11.0678
▁berisi	-11.0681
▁paderi	-11.0684
▁pewaris	-11.0684
▁menjumpai	-11.0684
▁terbit	-11.0685
▁pencarian	-11.0686
▁Rad	-11.0688
▁Alat	-11.0696
biri	-11.0696
▁memuncak	-11.0699
▁persimpangan	-11.0699
▁Akhbar	-11.0699
▁menanam	-11.0699
▁ternakan	-11.0705
▁hos	-11.0706
▁gus	-11.0707
▁Wil	-11.071
▁kedudukannya	-11.0711
▁Chris	-11.0711
▁Th	-11.0712
Go	-11.0714
▁mengakhiri	-11.0714
▁silat	-11.0715
sse	-11.0716
ick	-11.0716
▁Arah	-11.0716
▁pemeriksaan	-11.0717
bok	-11.072
▁Hidup	-11.0723
▁100,000	-11.0726
▁Douglas	-11.0729
▁Sedunia	-11.073
▁Politik	-11.0731
tori	-11.0732
▁59%	-11.0735
▁]	-11.0736
▁dek	-11.0736
▁menukarkan	-11.0737
dd	-11.0738
▁Av	-11.0739
▁temu	-11.0739
nic	-11.074
bri	-11.0741
▁Chelsea	-11.0744
▁Beatles	-11.0745
▁menilai	-11.0746
▁Ishak	-11.0746
Islam	-11.0751
▁1922	-11.0752
▁Askar	-11.0755
▁mendadak	-11.0759
▁Zurich	-11.0759
▁Berikat	-11.0761
awang	-11.0761
▁Engkau	-11.0773
▁dibekalkan	-11.0774
▁kesukaran	-11.0774
▁kontemporari	-11.0774
▁Yugoslavia	-11.0775
▁Pemimpin	-11.0776
▁tembok	-11.0776
sebagai	-11.0785
pon	-11.0786
▁Ober	-11.0786
syarat	-11.0787
▁Serang	-11.0788
▁kecemerlangan	-11.0789
▁didaftarkan	-11.079
▁Boeing	-11.079
▁lanjutan	-11.0791
▁Mis	-11.0792
▁tunai	-11.0794
▁$1	-11.0807
▁mo	-11.0809
▁Sainte	-11.0811
jun	-11.0812
jong	-11.0815
▁Sum	-11.0817
▁penjelasan	-11.082
eks	-11.0823
▁1931	-11.0824
cut	-11.0825
gram	-11.0826
nang	-11.0829
kedai	-11.0829
▁bertanya	-11.0831
tap	-11.0833
▁Abbas	-11.0834
▁Dungun	-11.0836
▁Indre	-11.0838
▁menyeberangi	-11.0839
▁sinetron	-11.084
deh	-11.0842
▁Junior	-11.0848
▁perbicaraan	-11.085
▁pemasaran	-11.085
▁Semenjak	-11.085
▁diselamatkan	-11.085
▁Lubok	-11.0851
▁definisi	-11.0853
▁Rat	-11.0853
▁Max	-11.0864
▁Rawa	-11.0865
▁Conan	-11.0866
▁tercetus	-11.0866
▁maaf	-11.0866
▁tandas	-11.0869
▁mere	-11.0871
▁Paling	-11.0872
▁Sad	-11.0872
▁payung	-11.0874
▁pemerhati	-11.0874
Ni	-11.0874
▁cat	-11.0875
▁keterangan	-11.0877
▁selebihnya	-11.0881
▁Cameron	-11.0881
por	-11.0881
▁pelawat	-11.0881
▁Ross	-11.0886
▁Eric	-11.0889
▁Niger	-11.089
▁Sul	-11.0892
▁Rawas	-11.0893
▁leher	-11.0893
▁Ilir	-11.0893
▁magnitud	-11.0896
▁perbandingan	-11.0896
▁pengurangan	-11.0896
▁RAFI	-11.0897
▁Peraturan	-11.0899
wn	-11.0905
▁dirakam	-11.0905
young	-11.0906
▁Ball	-11.0907
▁terma	-11.0908
▁Konsert	-11.091
▁Armada	-11.0912
▁upaya	-11.0913
tugas	-11.0915
▁dikritik	-11.0915
▁Singapore	-11.0916
▁Jar	-11.0919
ica	-11.0919
▁Au	-11.0921
▁selebriti	-11.0922
hem	-11.0923
ries	-11.0925
▁alamat	-11.0926
▁Law	-11.0927
▁mengangkut	-11.0927
askar	-11.0928
▁makin	-11.0928
ated	-11.0928
▁kecenderungan	-11.0929
air	-11.0934
zim	-11.0935
Je	-11.0935
▁kubur	-11.0938
kota	-11.0941
▁konkrit	-11.0942
▁didiami	-11.0942
▁setiausaha	-11.0942
▁Jengka	-11.0943
▁kutub	-11.0947
▁terkena	-11.0947
AL	-11.0948
▁pemerhatian	-11.0948
▁Mara	-11.0951
▁letusan	-11.0956
▁Hokkaido	-11.0957
▁Musume	-11.0957
▁ditemukan	-11.0958
▁memasang	-11.0958
▁Nombor	-11.0958
▁1992,	-11.0959
▁Aliran	-11.0959
▁dewi	-11.096
api	-11.096
▁Episod	-11.0963
ella	-11.0967
▁Ianya	-11.0969
pok	-11.0971
oleh	-11.0972
▁Memandangkan	-11.0973
▁jagung	-11.0973
▁berkemungkinan	-11.0974
▁Paruh	-11.0974
▁Plaza	-11.0974
▁kejutan	-11.0974
▁Rt	-11.0978
0%	-11.0982
▁1934	-11.0983
▁Pemerintahan	-11.0983
kil	-11.0983
▁Ria	-11.0984
▁Uruguay	-11.0988
Pro	-11.0988
▁meyakinkan	-11.0988
▁jawapan	-11.0988
▁Syah	-11.099
9*	-11.0992
▁pembesar	-11.0992
ura	-11.0996
El	-11.0999
▁Sil	-11.1
▁Adi	-11.1002
▁haji	-11.1003
▁Komunikasi	-11.1004
▁Pengawal	-11.1004
▁78	-11.1005
hab	-11.1009
▁used	-11.101
▁damai	-11.1018
▁mengukuhkan	-11.1019
Mer	-11.1019
▁lurus	-11.102
▁Serdang	-11.102
▁hartanah	-11.102
▁Jim	-11.1021
▁1993,	-11.1022
▁dihiasi	-11.1023
▁160	-11.1028
▁Mati	-11.1034
▁memajukan	-11.1035
▁Standard	-11.1035
hun	-11.1037
▁diguna	-11.1037
1999	-11.1038
▁pesaing	-11.1038
raya	-11.104
▁lamanya	-11.1041
▁Cot	-11.1042
▁terakhirnya	-11.1047
967	-11.1048
▁Steve	-11.1048
▁ninja	-11.1049
▁Petra	-11.1055
▁pindah	-11.1055
eur	-11.1058
▁13%	-11.1063
ketua	-11.1068
▁Gre	-11.1069
MS	-11.1071
sit	-11.1076
bun	-11.1077
lt	-11.1077
▁1911	-11.1078
▁Laos	-11.1078
▁Akibat	-11.1078
▁Heart	-11.1079
bagi	-11.108
rm	-11.1081
▁rusuhan	-11.1081
▁pementasan	-11.1081
▁keluli	-11.1081
▁Pingat	-11.1083
minit	-11.1084
▁Little	-11.1084
▁vokalis	-11.1087
▁arang	-11.1093
hn	-11.1093
▁Ting	-11.1096
▁Ujian	-11.1096
▁banduan	-11.1098
▁menjana	-11.1101
▁Lady	-11.1105
▁Wira	-11.1105
▁memerintahkan	-11.1105
▁Way	-11.1105
rek	-11.1108
▁penentuan	-11.1108
▁pengiraan	-11.1113
rem	-11.1113
▁Lokasi	-11.1113
My	-11.1113
▁Blue	-11.1119
▁Maghribi	-11.1123
▁Dordogne	-11.1128
▁kejiranan	-11.1128
▁anjuran	-11.1128
▁krew	-11.1129
▁Angel	-11.1129
▁dituturkan	-11.1133
▁ukiran	-11.1144
▁Campania	-11.1144
▁menguji	-11.1146
▁Pauh	-11.1147
▁Sakti	-11.1153
▁Carlos	-11.1156
▁gejala	-11.1157
kelas	-11.1157
▁bengkel	-11.116
▁Bawah	-11.1161
▁Pelancongan	-11.1167
▁most	-11.1169
ches	-11.1171
▁mengatur	-11.1173
▁Brooke	-11.1173
▁pengawasan	-11.1174
AD	-11.1174
▁vitamin	-11.1175
▁bangkit	-11.1176
tim	-11.1177
has	-11.1178
ich	-11.118
kor	-11.1182
▁Kawa	-11.1184
▁Laman	-11.1185
▁ratu	-11.1187
▁francais	-11.1189
▁perbankan	-11.1191
▁menyukai	-11.1191
say	-11.1192
▁Series	-11.1194
▁Itu	-11.1196
dom	-11.1196
dok	-11.1197
▁jurusan	-11.1199
▁DC	-11.1199
onne	-11.1201
▁kuantum	-11.1207
▁Ericsson	-11.1207
▁pelatih	-11.1207
ness	-11.1208
▁Tunisia	-11.1208
▁1915	-11.1211
▁Donald	-11.1211
▁Yuan	-11.1214
▁geologi	-11.1216
▁lintas	-11.1217
▁paya	-11.1218
▁Namanya	-11.1218
▁Cr	-11.1219
▁man	-11.1219
▁semestinya	-11.1223
▁perlaksanaan	-11.1223
▁kilat	-11.1223
▁Aq	-11.1223
▁Pengiran	-11.1224
▁hit	-11.1224
bank	-11.1232
▁jejak	-11.1234
▁KDNK	-11.1234
▁interaksi	-11.1239
tanah	-11.1239
sol	-11.1241
▁Sat	-11.1243
shu	-11.1246
▁95	-11.1247
▁buruj	-11.1248
▁1929	-11.1249
▁Ville	-11.1251
▁penyatuan	-11.1254
▁rekreasi	-11.1254
▁melatih	-11.1255
▁voltan	-11.1255
▁Haz	-11.1256
▁Fatimah	-11.1256
▁car	-11.126
▁Purba	-11.1261
ful	-11.1266
wangi	-11.1267
▁pelepasan	-11.127
▁kecantikan	-11.127
▁petroleum	-11.127
ds	-11.127
sp	-11.1276
▁Holdings	-11.1276
▁perempuannya	-11.1277
▁68	-11.1277
Ho	-11.1281
▁than	-11.1282
▁Filmfare	-11.1286
▁gembira	-11.1286
▁kh	-11.1286
▁penunjuk	-11.1287
▁Pulai	-11.1288
▁mekanikal	-11.1291
▁Hamadan	-11.1293
AF	-11.1294
▁Kel	-11.1298
▁Rus	-11.1299
pul	-11.1301
▁Avenue	-11.1302
▁kementerian	-11.1302
SE	-11.1306
▁Hello	-11.1306
▁penguasa	-11.1307
▁96	-11.131
▁Us	-11.1313
hel	-11.1318
▁gangsa	-11.1318
▁pisang	-11.1318
▁Isere	-11.1318
▁Yonne	-11.1319
▁Harimau	-11.1324
▁plot	-11.1325
▁Abi	-11.1329
▁berpuas	-11.1334
ere	-11.1335
▁Ty	-11.1336
▁balai	-11.1339
ett	-11.1341
aga	-11.1345
▁jawab	-11.1349
▁after	-11.135
▁Munich	-11.135
▁Af	-11.1352
▁raksasa	-11.1358
▁Ong	-11.1359
cker	-11.1359
mbar	-11.136
yun	-11.1362
▁topik	-11.1363
tte	-11.1363
▁penyu	-11.1366
kos	-11.1366
▁Krismas	-11.1366
▁Bush	-11.1367
▁demam	-11.1368
▁madu	-11.1368
▁skor	-11.1368
▁Pal	-11.1369
rey	-11.137
▁mahkota	-11.1373
rani	-11.1379
enda	-11.138
▁Taiping	-11.1382
▁Kosice	-11.1383
PL	-11.1387
▁Sou	-11.1387
▁Bansk	-11.1388
▁harfiah	-11.1395
▁dirakamkan	-11.1396
▁Istimewa	-11.1398
▁mendekati	-11.1398
▁Misalnya	-11.1398
▁Vienna	-11.1398
▁Gers	-11.1398
▁Kupang	-11.14
▁ri	-11.1401
▁dominan	-11.1404
sim	-11.1409
▁Shan	-11.1412
▁dihubungkan	-11.1413
▁karier	-11.1415
▁menegak	-11.1417
▁Kand	-11.1417
tem	-11.1417
pong	-11.142
tol	-11.1421
▁Pont	-11.1421
▁diatur	-11.1421
As	-11.1423
mang	-11.1429
▁pengubahsuaian	-11.143
▁penyingkiran	-11.143
▁konsisten	-11.143
▁pemilikan	-11.1433
BM	-11.1434
▁Champagne	-11.1434
▁pegangan	-11.1435
perkara	-11.144
feld	-11.1443
▁minum	-11.1444
▁pembebasan	-11.1446
▁helium	-11.1446
cerita	-11.1448
▁Planet	-11.145
▁Puncak	-11.145
lle	-11.145
▁kepadatan	-11.1452
▁State	-11.1454
▁Masakan	-11.1454
▁dosa	-11.1454
▁Nil	-11.1456
▁dibaca	-11.1458
▁rantai	-11.1459
▁Sayang	-11.1459
▁menjatuhkan	-11.1463
chy	-11.1463
▁tenang	-11.1463
pai	-11.1464
▁1936	-11.1467
▁86	-11.1468
▁Bystrica	-11.147
▁kemas	-11.1476
▁peny	-11.1476
IN	-11.1477
ien	-11.1479
▁terkandung	-11.1479
▁1990,	-11.1481
anggota	-11.1481
▁wira	-11.1485
ovac	-11.1488
▁penukaran	-11.1489
He	-11.1493
▁Uni	-11.1494
▁jemputan	-11.1495
▁ideologi	-11.1495
▁Kempen	-11.1497
▁Shaw	-11.1498
gau	-11.1498
▁Main	-11.1499
▁Duta	-11.1504
5*	-11.1506
▁kedalam	-11.1507
▁lampau	-11.1508
▁Arsenal	-11.1511
▁berkembar	-11.1512
▁sepasang	-11.1516
▁1916	-11.1516
ute	-11.1517
▁Veda	-11.1518
▁Cre	-11.1518
▁su	-11.1522
▁bakar	-11.1525
▁Faizal	-11.1525
▁Lie	-11.1528
▁Sung	-11.1531
▁oksida	-11.1532
uhan	-11.1532
pis	-11.1533
aksi	-11.1533
▁Bagh	-11.1536
istik	-11.1539
II	-11.1543
▁Musytari	-11.1544
▁surah	-11.1545
▁Sanskrit	-11.1545
BS	-11.1552
Jo	-11.1555
ctor	-11.1555
▁mantan	-11.1555
▁diisi	-11.1559
▁Ferdinand	-11.156
AP	-11.156
lm	-11.1562
▁Era	-11.1565
ias	-11.1569
dos	-11.157
▁Kadir	-11.1571
fur	-11.1571
bb	-11.1572
igny	-11.1573
▁Kadar	-11.1576
▁Metropolitan	-11.1577
▁pengecualian	-11.1577
▁Belitung	-11.1577
▁NASA	-11.1577
▁menumpang	-11.1577
▁Bak	-11.1577
▁sang	-11.1578
▁dioksida	-11.1578
▁merakam	-11.158
biasanya	-11.1585
EM	-11.1586
▁peniaga	-11.1587
▁law	-11.1588
▁Pardubice	-11.1593
▁menyesuaikan	-11.1593
▁koko	-11.1593
▁fokus	-11.1595
▁Sedangkan	-11.1596
▁Prince	-11.16
▁keinginan	-11.1608
▁Roh	-11.1608
▁dialog	-11.1609
▁Calabria	-11.1609
▁pemasangan	-11.1609
▁liputan	-11.1609
▁Ardabil	-11.1609
▁keadilan	-11.1609
▁Berbeza	-11.1613
▁ehwal	-11.1614
▁Kedai	-11.1617
▁Peri	-11.162
▁Liberal	-11.1625
▁Brisbane	-11.1626
▁kelengkapan	-11.1626
art	-11.1628
▁Victor	-11.163
rt	-11.1633
▁Bru	-11.1635
▁logik	-11.1635
▁Tanda	-11.1635
GA	-11.1637
▁order	-11.1638
▁st	-11.1639
kup	-11.1641
▁Data	-11.1641
PM	-11.1642
▁Pandeglang	-11.1642
▁dijelaskan	-11.1642
▁mingguan	-11.1644
▁kedalaman	-11.1644
▁berfikir	-11.1646
▁mar	-11.1646
▁Ara	-11.1648
▁Sya	-11.1649
▁pembawa	-11.1651
oto	-11.1652
▁Jag	-11.1652
▁Pandan	-11.1655
▁Game	-11.1656
top	-11.1657
▁UTC	-11.1657
▁menyiapkan	-11.1659
▁subspesies	-11.1659
▁Television	-11.1659
▁telefilem	-11.166
▁samaran	-11.1661
▁Pendang	-11.1662
▁eksperimen	-11.1665
▁will	-11.1666
▁Banjaran	-11.167
▁Rem	-11.1671
▁Puerto	-11.1675
▁keyakinan	-11.1675
▁keutamaan	-11.1675
▁Asahan	-11.1676
▁berlalu	-11.1677
▁Tur	-11.1678
▁63	-11.1679
▁Mali	-11.1679
mik	-11.1681
▁His	-11.1682
ii	-11.1684
ith	-11.1685
▁Association	-11.1687
▁karang	-11.169
▁Orne	-11.1692
▁Poitou	-11.1692
▁Lau	-11.1698
▁pesta	-11.1705
▁Komputer	-11.1709
▁sejarawan	-11.1709
▁lakukan	-11.1714
▁hip	-11.1714
▁dingin	-11.1717
hee	-11.1719
mut	-11.1719
▁nafas	-11.1719
▁pengendali	-11.1724
▁telekomunikasi	-11.1725
▁fantasi	-11.1725
▁menyerap	-11.1726
▁berganda	-11.1727
▁Maine	-11.173
jenis	-11.1732
▁Prima	-11.1732
ola	-11.1733
ij	-11.1735
stein	-11.1735
ons	-11.1738
▁him	-11.1739
En	-11.1741
▁menghidupkan	-11.1742
▁membayangkan	-11.1742
▁menjamin	-11.1742
▁kebiasaannya	-11.1742
▁Salim	-11.1743
▁Fitri	-11.1745
TI	-11.1752
▁Hasilnya	-11.1753
lor	-11.1754
▁SI	-11.1755
▁Ayam	-11.1758
▁perdebatan	-11.1758
▁dihadiri	-11.1759
▁disertakan	-11.1759
▁berehat	-11.1759
▁Girls	-11.176
150	-11.1762
▁tugasan	-11.1766
▁tadi	-11.1768
pre	-11.1768
rov	-11.1772
star	-11.1772
jur	-11.1774
▁hidung	-11.1775
▁pembekal	-11.1777
▁paksi	-11.1777
▁Saleh	-11.1779
▁Pasangan	-11.1781
▁Team	-11.1782
▁Alt	-11.1785
▁subur	-11.1786
▁Abad	-11.1791
▁memperlihatkan	-11.1792
tul	-11.1793
mbang	-11.1794
▁pengundian	-11.1794
Martin	-11.1795
▁LRT	-11.1797
▁Emilia	-11.1798
alis	-11.1806
▁Kiri	-11.1807
▁Sau	-11.1808
▁diselubung	-11.1809
▁Minahasa	-11.1809
▁Makam	-11.181
▁383	-11.1811
▁menonjolkan	-11.1812
▁MARA	-11.1813
▁fosil	-11.1813
oo	-11.1815
▁1908	-11.1816
terutamanya	-11.1817
▁Ana	-11.182
▁Taylor	-11.1821
▁Sy	-11.1821
nggang	-11.1823
▁Pain	-11.1824
▁tertakluk	-11.1825
▁dirawat	-11.1826
▁Cambridge	-11.1827
▁susulan	-11.1828
▁diserap	-11.1829
▁gram	-11.183
▁Search	-11.1831
hum	-11.1833
nice	-11.1836
▁15%	-11.1839
▁saksi	-11.1839
▁Poso	-11.184
▁asap	-11.1841
▁kegemaran	-11.1841
▁Sudirman	-11.1842
▁tersingkir	-11.1842
%	-11.1843
▁Soe	-11.1843
▁Bollywood	-11.1843
nus	-11.1844
cam	-11.1845
▁Senator	-11.1846
▁Auto	-11.1848
▁laras	-11.185
sid	-11.1851
fal	-11.1854
▁atlet	-11.1855
kong	-11.1857
▁Sebenarnya	-11.1859
▁Hijrah	-11.1859
▁sp	-11.186
▁Bul	-11.186
▁Koh	-11.1864
▁berperisai	-11.1864
▁Kerjaya	-11.1864
ert	-11.1868
▁diajar	-11.1874
▁Cur	-11.1874
▁Bud	-11.1874
▁Om	-11.1875
▁Hantu	-11.1875
▁Pustaka	-11.1876
nor	-11.1876
▁Globe	-11.1877
ile	-11.188
▁bt	-11.188
▁pesanan	-11.1882
ndi	-11.1883
▁kantin	-11.1885
vat	-11.1885
▁89	-11.1888
▁Tem	-11.1892
▁Uzbekistan	-11.1893
▁Brandenburg	-11.1893
▁ge	-11.1893
▁Patrick	-11.1893
▁Budi	-11.1893
▁berapa	-11.1895
iman	-11.1897
▁Kuda	-11.1899
▁kentang	-11.1903
▁Hans	-11.1906
▁rayuan	-11.191
▁ikut	-11.1917
▁Digital	-11.1918
▁Murid	-11.1919
▁By	-11.192
▁Pesta	-11.1921
▁Ular	-11.1923
▁Penerangan	-11.1927
▁digubah	-11.1927
▁Yesus	-11.1927
ture	-11.1927
▁larangan	-11.1927
▁Rekod	-11.1928
▁mulia	-11.1928
▁Free	-11.1929
▁First	-11.1935
Star	-11.1938
▁292	-11.194
PA	-11.194
dri	-11.194
▁Fasa	-11.1943
▁Anthony	-11.1944
▁Sardinia	-11.1944
▁Doktor	-11.1944
▁sifar	-11.1945
Ne	-11.1947
▁badannya	-11.1947
▁menjangkau	-11.1948
lic	-11.195
▁Sudan	-11.1951
▁pan	-11.1952
▁persoalan	-11.1953
▁Tau	-11.1956
▁objektif	-11.1956
▁mengandung	-11.1961
▁dihormati	-11.1961
▁Wah	-11.1961
▁mendaftar	-11.1961
ovce	-11.1964
▁Hol	-11.1965
TP	-11.1965
▁Pemberontakan	-11.1965
sous	-11.1968
▁Lou	-11.1968
▁Dayang	-11.1971
▁Pengguna	-11.1971
mari	-11.1973
▁kor	-11.1976
zh	-11.1977
▁menakluk	-11.1977
▁petempatan	-11.1977
tat	-11.1979
▁42%	-11.1985
▁menelan	-11.1985
▁Inn	-11.1988
▁Vin	-11.1991
takan	-11.1992
▁77	-11.1992
ial	-11.1993
▁artileri	-11.1995
▁Kejadian	-11.1995
▁Saat	-11.1995
jen	-11.1996
awal	-11.1997
katan	-11.1997
▁Hesse	-11.2002
▁Kelapa	-11.2004
nos	-11.2005
▁Nas	-11.2006
▁end	-11.2007
mil	-11.2007
▁menemukan	-11.2012
▁bongsu	-11.2012
▁Trump	-11.2012
▁berdepan	-11.2013
lung	-11.2016
▁cermin	-11.2016
▁Mike	-11.2017
▁98	-11.202
▁Wangsa	-11.2024
▁Jas	-11.2026
Cote	-11.2028
▁min	-11.2029
▁Bireuen	-11.2029
▁Venezuela	-11.2029
▁dihadapi	-11.2029
▁komposisi	-11.2029
▁pelantikan	-11.2029
▁Bahrain	-11.2029
▁Boys	-11.2032
▁Out	-11.2032
para	-11.2032
▁Gil	-11.2033
rakannya	-11.2034
▁Roy	-11.2035
kum	-11.2039
▁Nigeria	-11.2039
▁kupu	-11.2039
▁sampel	-11.2042
▁fahaman	-11.2043
▁Lebak	-11.2043
▁kebiasaan	-11.2044
▁alkohol	-11.2046
▁Perumahan	-11.2046
▁Marsyal	-11.2046
▁protes	-11.2049
▁Tawar	-11.2049
rud	-11.205
▁jilid	-11.205
tokoh	-11.2052
▁tr	-11.2055
tag	-11.2056
bet	-11.2058
▁li	-11.2059
▁Pahlawan	-11.2059
stone	-11.2061
▁Luxembourg	-11.2063
▁Luas	-11.2064
Cha	-11.207
RT	-11.2073
▁1935	-11.2076
▁pola	-11.2078
▁lelakinya	-11.2079
ES	-11.208
▁kehakiman	-11.2081
▁MRSM	-11.2081
▁Lalu	-11.2081
▁Berang	-11.2081
▁1917	-11.2085
Dome	-11.2086
▁Rak	-11.2088
ters	-11.2089
▁Hadi	-11.209
▁Chahar	-11.2091
▁Plat	-11.2096
▁Saga	-11.2097
▁Cipinang	-11.2098
▁Jenayah	-11.2099
more	-11.21
▁Toyota	-11.21
▁pilihanraya	-11.2101
▁Kre	-11.2101
rou	-11.2102
Felda	-11.2103
▁dram	-11.2104
▁Tiger	-11.2104
▁dikumpulkan	-11.2104
▁Kevin	-11.2104
▁ketidak	-11.2106
▁Bella	-11.2107
▁Hafiz	-11.2107
▁sehinggakan	-11.2108
▁67	-11.2114
▁pengumuman	-11.2115
▁Provence	-11.2115
▁dwi	-11.2115
▁Dol	-11.2116
▁liberal	-11.2116
Aku	-11.2119
▁mengurus	-11.212
▁dialami	-11.2121
elli	-11.2124
▁Usti	-11.2124
7*	-11.2125
▁Mini	-11.2127
▁Kulon	-11.2132
▁jawatannya	-11.2132
▁diesel	-11.2135
▁Chicago	-11.2138
IP	-11.2142
vas	-11.2147
▁marin	-11.2148
ill	-11.2148
peri	-11.215
▁berpengalaman	-11.215
▁61	-11.2151
ual	-11.2151
▁Jarak	-11.2151
▁kariernya	-11.2152
▁Perai	-11.2156
▁Fantasia	-11.2157
dap	-11.2164
▁pendedahan	-11.2167
▁terowong	-11.2167
▁Perbezaan	-11.2167
zam	-11.2168
ovic	-11.217
▁Eun	-11.2172
lap	-11.2172
▁Prusia	-11.2175
▁mel	-11.2175
▁Santos	-11.2177
▁Lai	-11.2184
▁Perguruan	-11.2184
▁VII	-11.2185
▁taktik	-11.2186
▁lebat	-11.2186
▁Gin	-11.2187
▁berkuda	-11.2187
▁Jitra	-11.2187
hang	-11.2188
tom	-11.2192
▁Et	-11.2192
▁Gang	-11.2193
▁cair	-11.2193
pemain	-11.2194
▁700	-11.2196
▁Amat	-11.2196
▁wayar	-11.2197
▁End	-11.2197
▁France	-11.2197
▁laris	-11.2199
▁menghampiri	-11.2202
▁Pekerja	-11.2204
▁dikaji	-11.2207
▁beratus	-11.2208
kun	-11.2209
▁pemerintahannya	-11.2209
▁Cawangan	-11.2209
▁berhak	-11.2211
▁disebutkan	-11.2216
▁Demokrat	-11.2217
▁kesenian	-11.2219
▁datuk	-11.222
▁Makmal	-11.222
bukan	-11.2225
▁Dev	-11.2225
ullah	-11.2226
▁Khar	-11.2226
pot	-11.2231
▁flora	-11.2231
▁Azhar	-11.2233
▁Serama	-11.2237
▁radikal	-11.2237
▁dasarnya	-11.2238
▁pelantar	-11.224
▁ibukota	-11.224
suke	-11.224
Azur	-11.2244
▁dilatih	-11.2244
▁Wall	-11.2246
rif	-11.2247
▁Tarikh	-11.2248
▁pemberian	-11.225
psi	-11.2253
▁petunjuk	-11.2255
▁el	-11.2258
▁Jawatan	-11.2261
rung	-11.2264
▁1921	-11.2264
▁Sab	-11.2266
▁pemahaman	-11.2272
▁Tamiang	-11.2272
▁Harris	-11.2272
▁lantas	-11.2272
ms	-11.2274
▁Azmi	-11.2275
▁73	-11.2278
▁41%	-11.2279
enburg	-11.2281
▁kejam	-11.2281
tian	-11.2281
▁Suara	-11.2283
▁Kul	-11.2284
▁kemiskinan	-11.2289
▁reputasi	-11.229
▁Bull	-11.229
▁menembusi	-11.2292
▁mene	-11.2293
▁Meuse	-11.2293
▁Ek	-11.2295
▁1986,	-11.2298
▁luka	-11.2298
▁ha	-11.23
yong	-11.2301
Ardenne	-11.2306
▁penghuni	-11.2307
▁Christopher	-11.2307
Ge	-11.2308
▁gembala	-11.2309
SC	-11.2309
Har	-11.2312
Con	-11.2317
▁Moh	-11.2317
▁Parigi	-11.2326
▁sal	-11.2326
▁RSS	-11.233
▁Tua	-11.2331
▁Story	-11.2332
▁kerangka	-11.2332
musim	-11.2333
▁kelainan	-11.2335
▁perkakasan	-11.2335
▁Slot	-11.2335
▁w	-11.2337
▁Thi	-11.234
side	-11.2346
▁dll	-11.2346
uff	-11.2347
PD	-11.2348
▁Dog	-11.2349
▁proton	-11.235
▁beg	-11.2352
▁Nick	-11.2353
dat	-11.2355
taman	-11.2357
raz	-11.2357
▁Jadual	-11.236
▁Lawrence	-11.236
▁Saone	-11.2361
▁belayar	-11.2361
▁1913	-11.2361
▁Meriah	-11.2364
▁Sek	-11.2368
RC	-11.2368
▁Pintu	-11.237
▁ser	-11.237
▁bagian	-11.237
▁faham	-11.2371
▁Saidin	-11.2373
CC	-11.2373
▁dinamik	-11.2374
▁Buat	-11.2374
▁Koto	-11.2375
▁Juventus	-11.2378
▁perpaduan	-11.2378
▁tercatat	-11.2378
gawa	-11.2378
itz	-11.2379
▁salib	-11.2379
ved	-11.2381
alik	-11.2381
▁Gur	-11.2383
▁batuan	-11.2384
and	-11.2385
▁menyumbangkan	-11.2388
ingan	-11.2388
▁pelabur	-11.2388
▁diatas	-11.2394
▁menjemput	-11.2396
▁udang	-11.2396
▁cerah	-11.2398
▁cap	-11.2398
Cinta	-11.2398
▁Gaza	-11.2399
▁Champ	-11.24
▁Asas	-11.2402
▁puas	-11.2403
▁Kumar	-11.2405
▁inti	-11.2405
▁mencebur	-11.2407
▁800	-11.2408
▁keseimbangan	-11.2413
▁pistol	-11.2413
▁Kuno	-11.2414
▁pertambahan	-11.2414
▁kelakuan	-11.2414
▁Mumbai	-11.2414
▁peronda	-11.2414
▁berlari	-11.2416
▁Istanbul	-11.2418
▁Ton	-11.2419
chen	-11.2419
▁Chal	-11.2419
all	-11.2421
▁konservatif	-11.2421
▁Hel	-11.2422
tkan	-11.2423
▁Wahab	-11.2424
eth	-11.2425
▁87	-11.243
run	-11.2431
▁empangan	-11.2431
▁Sindang	-11.2433
▁Penyanyi	-11.2437
rup	-11.2438
▁botaninya	-11.244
▁Kra	-11.2443
cas	-11.2447
▁dipertandingkan	-11.2449
▁Organisasi	-11.2449
amba	-11.2449
▁Wilson	-11.245
▁paip	-11.245
▁masin	-11.2452
merta	-11.2454
▁Costa	-11.2454
▁sepasukan	-11.2455
▁Carta	-11.2456
▁mele	-11.2458
▁Biasa	-11.2459
▁1890	-11.2459
▁only	-11.2461
patti	-11.2466
▁Temerloh	-11.2467
▁menghidap	-11.2467
▁Bayern	-11.2471
▁po	-11.2471
▁indeks	-11.2472
▁analog	-11.2473
▁Silva	-11.2475
▁Institute	-11.2478
▁Hart	-11.2482
▁Kamar	-11.2485
▁blog	-11.2486
▁kebelakangan	-11.249
▁Tat	-11.2493
▁Musang	-11.2493
▁krim	-11.2495
▁nanti	-11.2495
▁79	-11.2495
▁aturan	-11.2498
sto	-11.2498
▁Ap	-11.2499
▁Set	-11.25
▁mahukan	-11.2502
▁sejurus	-11.2503
▁dibuktikan	-11.2503
▁Book	-11.2505
▁wajar	-11.2507
▁scope	-11.2507
ogen	-11.2507
▁cetak	-11.2508
hil	-11.251
Car	-11.2512
uw	-11.2513
▁dos	-11.2513
▁Fire	-11.2514
cor	-11.2515
▁Somalia	-11.2516
▁Tarian	-11.2517
▁mewarisi	-11.2521
▁Syariah	-11.2521
▁Infantri	-11.2521
▁Yassin	-11.2521
▁himpunan	-11.2521
betul	-11.2522
▁dipenjarakan	-11.2526
▁Ok	-11.2528
▁hatinya	-11.2529
▁1919	-11.253
▁serata	-11.2532
▁UNESCO	-11.2537
▁kekasih	-11.2537
ON	-11.2539
ming	-11.2539
▁seberang	-11.254
▁Amanah	-11.254
uji	-11.2541
▁Lok	-11.2541
▁gear	-11.2542
cari	-11.2542
▁Cahaya	-11.2545
▁Azman	-11.2546
char	-11.2546
▁many	-11.2549
ngan	-11.255
▁Raden	-11.2551
▁Canselor	-11.2551
8*	-11.2552
▁Baro	-11.2552
nee	-11.2553
ganj	-11.2553
▁cas	-11.2553
▁pembunuh	-11.2555
▁Bojong	-11.2558
rol	-11.2558
2016	-11.256
osis	-11.2562
▁pertiga	-11.2563
▁bes	-11.2564
▁Harum	-11.2565
dr	-11.2565
Ad	-11.2566
gna	-11.2572
▁3,000	-11.2573
▁kerjanya	-11.2574
tir	-11.2575
kod	-11.2575
▁Pergunungan	-11.2575
▁dikemukakan	-11.2575
▁menderita	-11.2575
▁Wakaf	-11.2575
▁Play	-11.2575
▁skim	-11.258
anna	-11.2582
ender	-11.2585
▁nabi	-11.2586
▁u	-11.2586
cing	-11.2586
▁Alfred	-11.2587
▁loghat	-11.2588
▁dibiayai	-11.2593
▁membiayai	-11.2593
▁profesionalnya	-11.2599
▁1989,	-11.26
▁Mes	-11.2601
▁mengejutkan	-11.2602
idi	-11.2605
cht	-11.2608
use	-11.2608
▁SC	-11.2609
▁Keamanan	-11.2611
▁Estonia	-11.2611
▁Majid	-11.2612
▁tebusan	-11.2612
▁ketibaan	-11.2612
▁ABC	-11.2612
▁KE	-11.2612
tuk	-11.2613
▁Talib	-11.2615
hausen	-11.2615
▁membahagikan	-11.2616
▁Bot	-11.2617
▁larutan	-11.2618
▁Bra	-11.2619
akhir	-11.2619
▁Haut	-11.2626
▁Badak	-11.2627
▁filum	-11.2628
got	-11.2629
▁mahasiswa	-11.2629
▁Universal	-11.2629
▁reaksi	-11.2631
▁Bau	-11.2631
▁berlepas	-11.2632
▁Gilan	-11.2632
OS	-11.2633
▁Nak	-11.2637
▁petak	-11.2642
▁pene	-11.2644
▁Aur	-11.2645
▁berkala	-11.2646
ose	-11.2648
illo	-11.265
▁1909	-11.2654
▁insurans	-11.2654
▁pemakanan	-11.2657
▁SMA	-11.2657
▁vi	-11.2661
▁Light	-11.2662
▁final	-11.2663
▁Tah	-11.2664
▁bu	-11.2665
▁kemarahan	-11.2666
▁Alan	-11.2666
▁sengit	-11.2666
▁penyair	-11.2666
▁protokol	-11.2666
▁Geneva	-11.2666
▁personaliti	-11.2667
kad	-11.2668
▁71	-11.267
▁Chau	-11.2671
imi	-11.2673
igne	-11.2676
▁prosedur	-11.2678
ering	-11.2679
▁diuji	-11.268
pil	-11.2683
▁Award	-11.2684
▁tsunami	-11.2684
▁spesis	-11.2684
▁1914	-11.2685
▁bertaraf	-11.2685
▁Sh	-11.2687
stik	-11.2689
▁Tokoh	-11.2691
▁harinya	-11.2691
Pi	-11.2693
▁Maju	-11.2699
hay	-11.2699
▁Limited	-11.2702
▁Kashmir	-11.2702
tok	-11.2703
▁kasut	-11.2703
▁berpakaian	-11.2703
▁ben	-11.2704
▁asasnya	-11.2705
▁Kum	-11.2706
▁Sharif	-11.2709
layang	-11.2715
▁et	-11.2716
▁Chah	-11.2718
▁Teh	-11.2719
gui	-11.272
arondissement	-11.2721
▁ejen	-11.2721
▁Badawi	-11.2722
vertebrata	-11.2722
▁sekular	-11.2723
reh	-11.2723
▁tol	-11.2724
▁Tahir	-11.2726
Mat	-11.2727
▁Soul	-11.2727
▁Kimia	-11.2729
nel	-11.273
endorf	-11.2731
sian	-11.2731
▁Chok	-11.2732
shima	-11.2732
▁keatas	-11.2733
pres	-11.2733
gno	-11.2734
nium	-11.2735
rick	-11.2735
▁Off	-11.2736
ery	-11.2738
keluarga	-11.2739
▁Binjai	-11.274
▁mengulas	-11.274
ava	-11.274
▁bergigi	-11.274
▁pembiayaan	-11.2742
▁SPM	-11.2749
▁14%	-11.2753
ese	-11.2755
▁Wat	-11.2755
▁berk	-11.2757
rot	-11.2757
▁Council	-11.2758
▁Indeks	-11.2758
▁Raffles	-11.2758
▁memujuk	-11.2758
▁Maluku	-11.2758
khan	-11.2759
▁mutu	-11.2763
▁Rob	-11.2769
town	-11.2769
Hi	-11.2771
pes	-11.2772
kemudian	-11.2774
kecuali	-11.2774
▁Hei	-11.2775
▁silinder	-11.2776
▁Struktur	-11.2776
▁Montreal	-11.2776
▁memetik	-11.2777
▁Ramadan	-11.2779
▁Sandakan	-11.2779
▁Dom	-11.278
▁Asasi	-11.278
secara	-11.2785
▁Anda	-11.2792
▁mak	-11.2792
▁membersihkan	-11.2794
▁buaya	-11.2795
▁menyamar	-11.2795
▁berhujah	-11.2796
▁rakannya	-11.2796
▁Poli	-11.2797
angka	-11.2804
▁Masalah	-11.2804
▁Angin	-11.2807
▁buangan	-11.2807
rich	-11.2807
▁festival	-11.2808
▁rohani	-11.2811
▁Line	-11.2812
▁Suharto	-11.2813
▁Protestan	-11.2813
▁ejaan	-11.2814
▁Wen	-11.2816
▁manuskrip	-11.2818
▁Marang	-11.2819
▁penangkapan	-11.2819
ech	-11.2824
▁Salam	-11.2824
▁Kelana	-11.2827
IR	-11.283
▁Ibunya	-11.283
▁March	-11.2832
▁dimajukan	-11.2832
▁Samsung	-11.2832
▁seketika	-11.2833
▁97	-11.2834
Is	-11.284
EP	-11.2848
▁Will	-11.285
▁menunaikan	-11.285
▁Meriam	-11.2851
▁tikus	-11.2851
▁Tsu	-11.2851
▁FELDA	-11.2852
▁Brian	-11.2855
moto	-11.2857
not	-11.2859
▁Hay	-11.2862
▁1925	-11.2864
▁pentadbir	-11.2864
nit	-11.2866
▁Olomouc	-11.2869
IS	-11.2873
▁Zar	-11.2875
▁1932	-11.2875
▁Mol	-11.2881
▁kapur	-11.2882
▁seksyen	-11.2886
▁Kenya	-11.2887
▁Alonso	-11.2887
▁Mokhtar	-11.2887
▁92	-11.2888
▁Qaleh	-11.2888
▁Fan	-11.2889
▁Mang	-11.2897
1998	-11.2898
▁Hen	-11.2901
▁tidaklah	-11.2902
GM	-11.2903
▁letak	-11.2905
ush	-11.2906
▁veteran	-11.2906
▁tawanan	-11.2906
▁Berhormat	-11.2907
▁ramalan	-11.2907
gne	-11.2911
▁Mars	-11.2911
▁Joseon	-11.2911
▁rel	-11.2914
▁Tek	-11.2919
suk	-11.292
sdorf	-11.2922
▁Vancouver	-11.2925
▁leluhur	-11.2925
▁muara	-11.2927
MI	-11.2928
▁Java	-11.2931
▁timbalan	-11.2934
▁Kaya	-11.2934
sz	-11.2935
sko	-11.2943
▁Diploma	-11.2943
▁Perkembangan	-11.2944
▁keberanian	-11.2944
▁frasa	-11.2944
▁Napoli	-11.2944
▁when	-11.2946
▁comp	-11.2951
wara	-11.2955
▁Blang	-11.2956
▁102	-11.2957
▁seratus	-11.2957
▁pengebom	-11.2962
▁Wallace	-11.2963
▁Aishah	-11.2963
▁Briged	-11.2964
▁Ut	-11.2964
▁meletup	-11.2966
MC	-11.2974
▁Pla	-11.298
▁Kapoor	-11.2981
▁kriteria	-11.2981
▁Empangan	-11.2981
▁Zakaria	-11.2981
▁beruang	-11.2984
▁pembayaran	-11.2984
▁loji	-11.2989
▁Jasin	-11.2995
kok	-11.2995
▁Tal	-11.2998
▁wujudnya	-11.2998
▁memihak	-11.3
▁dikenalpasti	-11.3
▁gedung	-11.3
▁seimbang	-11.3002
▁Pemilihan	-11.3003
▁Yunus	-11.3003
▁berbunga	-11.3004
gul	-11.3004
▁Ny	-11.3004
▁Duli	-11.3005
▁may	-11.3006
▁Rou	-11.3009
▁System	-11.3009
▁Point	-11.3012
▁Ob	-11.3012
▁Bro	-11.3012
IC	-11.3013
▁MTV	-11.3014
wu	-11.3017
▁prototaip	-11.3019
▁jurnal	-11.3019
▁ketahanan	-11.3019
▁Penjara	-11.302
lov	-11.302
▁bukunya	-11.3021
▁But	-11.3026
▁Franco	-11.3028
▁Steven	-11.3029
▁diameter	-11.3029
▁Anan	-11.303
▁Ly	-11.3031
uni	-11.3032
▁Bari	-11.3033
gri	-11.3033
▁Walter	-11.3038
▁membiarkan	-11.3038
▁Tajikistan	-11.3038
▁kestabilan	-11.3038
▁penekanan	-11.3038
▁bateri	-11.3038
▁tanduk	-11.3039
▁lebah	-11.3039
▁bergiat	-11.3039
▁markas	-11.304
▁keahlian	-11.304
dag	-11.3042
▁Bantuan	-11.3045
Sekolah	-11.3049
hur	-11.3052
▁Quran	-11.3057
▁melukis	-11.3057
IK	-11.3058
▁Sharifah	-11.3059
jadi	-11.306
▁Gading	-11.3061
▁Sagan	-11.3062
gra	-11.3065
sei	-11.3068
die	-11.3071
▁pakej	-11.3073
▁homoseksual	-11.3076
▁disifatkan	-11.3076
▁melangkah	-11.3077
▁teratur	-11.3078
▁there	-11.3078
▁Indra	-11.308
▁cangkerang	-11.308
▁kebesaran	-11.3082
▁Sham	-11.3083
▁Rahmat	-11.3083
ces	-11.3091
unan	-11.3093
▁Place	-11.3093
SB	-11.3093
▁kemangkatan	-11.3095
▁memperjuangkan	-11.3095
▁perosak	-11.3095
▁pagar	-11.3096
AT	-11.3096
fon	-11.3099
▁lada	-11.3102
sung	-11.3103
ikat	-11.3103
▁Selamat	-11.3104
▁Tugas	-11.3105
zel	-11.3107
▁jasa	-11.3111
▁Jal	-11.3111
▁Tas	-11.3112
vil	-11.3113
hon	-11.3113
▁kesimpulan	-11.3114
▁dijangkiti	-11.3114
▁Iceland	-11.3114
iq	-11.3115
▁lanun	-11.3115
▁sivil	-11.3115
▁Cro	-11.3118
▁Rap	-11.3119
▁Que	-11.312
pri	-11.3122
1000	-11.3122
▁Terusan	-11.3123
lf	-11.3128
ston	-11.3131
▁rombongan	-11.3133
▁memuaskan	-11.3133
▁Mischa	-11.3134
▁Sc	-11.3134
Ti	-11.3135
▁Kadang	-11.3136
enne	-11.3139
bilik	-11.3139
chin	-11.314
wr	-11.3141
ej	-11.3142
eus	-11.3145
▁unggul	-11.3146
▁massa	-11.3147
ox	-11.3148
Indonesia	-11.315
▁Caribbean	-11.3152
▁Kennedy	-11.3152
▁spektrum	-11.3152
dorf	-11.3153
▁terse	-11.3156
▁melayu	-11.3157
▁Palm	-11.3159
▁Jauh	-11.3161
▁NSS	-11.3162
▁dagangan	-11.3164
Che	-11.3164
▁serpihan	-11.3166
▁nasionalis	-11.3167
▁Bener	-11.317
jer	-11.317
▁kuasanya	-11.3171
▁Konfederasi	-11.3172
▁Lincoln	-11.3172
▁Maharashtra	-11.3172
▁Semenyih	-11.3172
▁dihapuskan	-11.3172
RE	-11.3174
jung	-11.3177
luar	-11.318
Mont	-11.3185
▁Moden	-11.3185
wiki	-11.3186
▁Rasul	-11.3187
ici	-11.3188
▁Dipterokarp	-11.3191
▁Matematik	-11.3191
▁Nad	-11.3192
▁penggunaannya	-11.3193
▁Mejar	-11.3196
▁1901	-11.3198
▁Army	-11.3199
▁Kay	-11.3203
▁rehat	-11.3206
▁imam	-11.3206
▁81	-11.3207
▁130	-11.3209
▁berunding	-11.321
▁tersenarai	-11.3211
▁petrol	-11.3213
▁See	-11.3213
▁AL	-11.3215
1995	-11.3215
▁varian	-11.3219
eau	-11.322
6*	-11.3221
▁termuda	-11.3222
▁Ngah	-11.3226
vet	-11.3227
▁resolusi	-11.3228
▁dilakonkan	-11.3229
Loir	-11.323
▁Wild	-11.3231
▁Genting	-11.3234
▁Legend	-11.3237
▁nu	-11.324
▁Buaya	-11.3241
▁dipamerkan	-11.3249
▁Seluruh	-11.3249
▁pemaju	-11.3249
ene	-11.3249
▁Diego	-11.3254
▁Mustafa	-11.3254
▁Taj	-11.3255
▁Saf	-11.3256
▁Hum	-11.3261
Ju	-11.3265
▁Hogwarts	-11.3268
▁Nanggroe	-11.3268
▁Aktiviti	-11.3268
▁Palembang	-11.3268
▁terpanjang	-11.3269
ash	-11.3273
pam	-11.3273
▁Pulo	-11.3273
▁disambung	-11.3274
▁pam	-11.3274
▁1928	-11.3276
▁Cay	-11.3276
▁Fal	-11.3279
▁Langkah	-11.328
▁Ile	-11.3284
program	-11.3285
hampir	-11.3285
tti	-11.3287
▁Tahap	-11.3289
▁Haiwan	-11.3289
▁keping	-11.3295
▁benteng	-11.3295
kung	-11.3296
▁Mira	-11.3296
uf	-11.3297
▁Demi	-11.3302
▁Kuwait	-11.3303
▁MIC	-11.3305
ubatan	-11.3305
▁Serai	-11.3305
oe	-11.3305
▁jinak	-11.3305
▁Pencapaian	-11.3307
▁menyembunyikan	-11.3307
▁bijak	-11.3307
▁Kent	-11.3309
tter	-11.3312
▁memecah	-11.3312
▁setara	-11.3312
▁Br	-11.3313
sek	-11.3315
▁PC	-11.3315
ein	-11.3316
▁Akbar	-11.3316
▁kemungkinannya	-11.3319
▁duet	-11.332
▁Lapan	-11.3322
▁Low	-11.3322
shin	-11.3324
▁kawah	-11.3327
▁bagus	-11.3327
▁ubi	-11.3329
▁Zam	-11.333
▁Turus	-11.3333
▁Ortodoks	-11.3336
▁hayatnya	-11.3338
yat	-11.3341
▁Sebagaimana	-11.3341
▁Wings	-11.3345
▁beribadat	-11.3346
▁membangkitkan	-11.3346
▁Caesar	-11.3346
▁Batalion	-11.3346
▁Ferrari	-11.3347
▁setuju	-11.3347
▁Jamek	-11.3349
▁dipecahkan	-11.3349
▁Gel	-11.3352
▁Mul	-11.3353
▁parah	-11.336
▁Baghdad	-11.3361
▁Pemb	-11.3363
chang	-11.3364
dikenali	-11.3364
aktiviti	-11.3365
▁menggerakkan	-11.3366
▁kepunyaan	-11.3366
▁persisiran	-11.3366
▁koordinat	-11.3366
▁keindahan	-11.3366
▁pelindung	-11.3366
ote	-11.3366
▁Tinggal	-11.3367
▁Sejumlah	-11.3367
▁sebelas	-11.3368
▁melakukannya	-11.3371
▁jaminan	-11.3372
▁Bela	-11.3373
▁Luis	-11.3373
sip	-11.3376
▁August	-11.3376
RA	-11.3378
▁topi	-11.3378
▁tentangan	-11.3378
ire	-11.3383
▁sepupu	-11.3385
▁pemuliharaan	-11.3385
▁Kartanegara	-11.3385
▁teliti	-11.3385
▁Bachok	-11.3386
▁Rider	-11.3391
ito	-11.3391
sho	-11.3391
▁samada	-11.3393
▁Cheras	-11.3396
Cina	-11.3402
▁Qara	-11.3403
ort	-11.3404
▁Methodist	-11.3405
▁diperuntukkan	-11.3405
▁kekerasan	-11.3405
▁Sempadan	-11.3405
gre	-11.3406
zzo	-11.3407
ensi	-11.3408
▁Panzer	-11.3408
▁84	-11.3409
▁Sebaik	-11.3409
▁menj	-11.341
▁Bekasi	-11.3411
ahkan	-11.3413
▁berangkat	-11.3413
ref	-11.3413
etik	-11.3416
gli	-11.3417
▁demonstrasi	-11.3421
▁Staf	-11.3424
▁Kemudahan	-11.3424
▁Voldemort	-11.3424
▁arnab	-11.3425
▁bit	-11.3426
▁Ulama	-11.3428
1997	-11.3429
▁hulu	-11.343
badan	-11.3432
▁Tata	-11.3432
rium	-11.3437
▁facto	-11.3438
▁sawah	-11.3439
tab	-11.344
▁Amsterdam	-11.3444
▁mengorbankan	-11.3444
▁darurat	-11.3444
▁menyuruh	-11.3444
▁Wakil	-11.3446
▁Tabung	-11.3447
▁Herzegovina	-11.3449
▁menghilangkan	-11.345
dium	-11.345
lee	-11.3451
▁Johari	-11.3452
ulu	-11.3453
▁Metal	-11.3457
enbach	-11.3457
▁diadaptasi	-11.3458
ensis	-11.346
▁Lisa	-11.3462
▁Pembebasan	-11.3464
▁seharusnya	-11.3464
▁pribumi	-11.3464
▁terperangkap	-11.3464
▁sembahyang	-11.3464
dil	-11.3465
BE	-11.3466
▁kiblatnya	-11.347
OR	-11.3473
ess	-11.3473
cs	-11.3473
▁Suhu	-11.3474
▁Mekar	-11.3474
org	-11.3477
sikan	-11.3482
▁Singa	-11.3482
ruh	-11.3483
▁ketegangan	-11.3484
▁konvensional	-11.3484
▁Peperangan	-11.3484
▁bata	-11.3484
▁Gordon	-11.3485
▁Tum	-11.3485
tara	-11.3485
▁em	-11.3485
▁Helen	-11.3486
▁nota	-11.3486
▁Rev	-11.3488
▁menggesa	-11.3488
kereta	-11.3492
▁Ple	-11.3492
France	-11.3492
▁patah	-11.3496
▁kurungan	-11.3496
▁Kir	-11.3497
num	-11.3501
OH	-11.3502
rod	-11.3502
puak	-11.3502
sed	-11.3505
▁putus	-11.3505
▁pengantar	-11.3507
▁Keempat	-11.3509
BA	-11.3511
▁Brothers	-11.3512
▁Fin	-11.3513
▁akademi	-11.3516
▁pejalan	-11.3517
cos	-11.3523
▁kemerosotan	-11.3523
filum	-11.3528
TA	-11.3528
▁210	-11.3529
TS	-11.353
▁Dragon	-11.3531
▁Ghani	-11.3531
jaran	-11.3539
ical	-11.3543
▁Howard	-11.3545
▁musik	-11.3545
dilahirkan	-11.3547
▁2,000	-11.3552
▁Baitulmuqaddis	-11.3552
▁Ves	-11.3552
raw	-11.3553
SP	-11.3554
lian	-11.3555
▁Reza	-11.356
▁selepasnya	-11.3563
▁kecekapan	-11.3563
salah	-11.3563
▁ungkapan	-11.3564
cit	-11.3565
lid	-11.3569
lab	-11.3572
▁Jang	-11.3573
▁ADUN	-11.3574
▁dinilai	-11.3575
▁non	-11.3576
▁pembikinan	-11.3578
vol	-11.3582
▁dipelihara	-11.3583
▁Facebook	-11.3583
▁Jemaah	-11.3584
▁arena	-11.3584
▁Kawalan	-11.3585
LA	-11.3585
▁Court	-11.3585
ped	-11.3586
▁Bros	-11.3588
▁Yuki	-11.3589
▁1880	-11.3593
than	-11.3593
▁AFF	-11.3593
▁Gempa	-11.3597
▁Wood	-11.3598
bek	-11.3598
▁Sg	-11.3599
▁Chee	-11.36
▁pemisahan	-11.36
lok	-11.3601
▁Sekarang	-11.3603
▁terkawal	-11.3603
▁Gurun	-11.3604
50,000	-11.3611
▁bulanan	-11.3615
▁Neo	-11.3615
▁Ou	-11.3618
wakil	-11.3618
▁jua	-11.3619
Han	-11.362
iki	-11.3622
▁Gujarat	-11.3623
RI	-11.3624
▁penyebab	-11.3625
▁akal	-11.3626
▁membela	-11.3628
▁Misha	-11.363
▁Dis	-11.3633
▁bermulanya	-11.3635
▁Bah	-11.3638
▁Mohammed	-11.3644
▁diputuskan	-11.3644
▁ditujukan	-11.3644
▁Mori	-11.3644
▁Jacob	-11.3644
▁praktikal	-11.3646
dul	-11.3646
▁KBS	-11.3648
prinsip	-11.3649
▁82	-11.365
bs	-11.365
logi	-11.365
Marhum	-11.3653
roy	-11.3654
▁Kotabaru	-11.3654
▁Len	-11.3657
song	-11.3658
▁tunjuk	-11.3658
see	-11.3659
▁Str	-11.3661
▁kalsium	-11.3664
▁dibiarkan	-11.3664
▁kontena	-11.3664
▁sulit	-11.3665
▁Bernard	-11.3665
sberg	-11.3666
AC	-11.3671
▁Valley	-11.3672
▁Gem	-11.3672
thy	-11.3676
model	-11.3678
▁Convent	-11.3682
▁Dumbledore	-11.3684
▁memaklumkan	-11.3684
▁Injil	-11.3685
ump	-11.3689
▁VIII	-11.369
▁Puak	-11.369
▁App	-11.3692
PO	-11.3693
▁Tir	-11.3694
▁Des	-11.3696
▁ribuan	-11.3697
▁Films	-11.3697
▁Khe	-11.3699
▁menari	-11.3701
▁derma	-11.3702
▁Mam	-11.3703
▁peninggalan	-11.3704
▁pernafasan	-11.3704
▁during	-11.3706
fat	-11.3707
▁Batas	-11.3707
hol	-11.3708
kem	-11.3709
▁terlihat	-11.3709
▁br	-11.3711
▁Hui	-11.3712
suku	-11.3712
667	-11.3714
▁Krishna	-11.3718
▁Penubuhan	-11.3719
perang	-11.372
▁penyediaan	-11.3721
▁Ivan	-11.3722
▁membawanya	-11.3723
plo	-11.3723
▁Tru	-11.3724
▁yatim	-11.3725
lek	-11.3728
▁Syam	-11.3733
▁104	-11.3736
▁tuhan	-11.3737
▁Titi	-11.3738
▁Kinta	-11.3738
▁Isteri	-11.3739
▁use	-11.3739
▁tiap	-11.3741
▁Master	-11.3742
▁dipersetujui	-11.3745
▁bimbingan	-11.3745
▁Pedro	-11.3745
▁Patani	-11.3747
▁Hy	-11.3747
ulus	-11.3748
batan	-11.3749
AH	-11.375
▁diikat	-11.3751
▁atasnya	-11.3752
och	-11.3753
ulasi	-11.3753
▁Malim	-11.3755
▁eks	-11.376
kkan	-11.3761
▁1941,	-11.3763
▁Cemerlang	-11.3765
▁komitmen	-11.3765
▁penamaan	-11.3765
calon	-11.3765
▁luruh	-11.3766
▁Telaga	-11.3766
▁pas	-11.3766
▁Farid	-11.3766
▁tanggapan	-11.3769
▁1987,	-11.377
▁91	-11.3775
▁Sap	-11.3775
gny	-11.3777
▁Lorraine	-11.3779
lock	-11.3779
▁Sp	-11.3782
▁Mula	-11.3782
▁sukarelawan	-11.3783
▁Jamil	-11.3784
▁Labu	-11.3785
▁Kaherah	-11.3786
▁Kayangan	-11.3786
tle	-11.3787
tr	-11.3788
▁SAW	-11.379
gerak	-11.3792
▁formasi	-11.3793
▁giat	-11.3793
kitab	-11.3795
lapan	-11.3796
2,000	-11.3797
Jawi	-11.3797
▁Hun	-11.3798
ration	-11.3804
▁romantis	-11.3806
▁bertembung	-11.3806
▁Changkat	-11.3807
▁teluk	-11.3807
▁Krisis	-11.3808
▁berserta	-11.3808
fri	-11.3809
▁kacukan	-11.3809
form	-11.3817
▁Production	-11.3818
▁lori	-11.3822
▁Marc	-11.3823
▁sentuhan	-11.3824
▁Last	-11.3826
AK	-11.3826
▁Adolf	-11.3827
▁membandingkan	-11.3827
▁disyaki	-11.3827
▁jangan	-11.3827
▁visi	-11.3831
▁biri	-11.3835
▁Service	-11.3839
TO	-11.3842
▁penyiasatan	-11.3845
ete	-11.3846
▁Vosges	-11.3847
▁menganggotai	-11.3847
▁pelanggaran	-11.3847
▁penjenayah	-11.3847
▁markah	-11.3849
▁mainan	-11.3853
▁sepenuh	-11.3855
ndang	-11.3855
▁sfera	-11.3855
▁Holland	-11.3856
▁potongan	-11.3856
▁paruh	-11.3858
▁Falsafah	-11.386
sekitar	-11.3861
GH	-11.3861
▁mengi	-11.3863
▁pita	-11.3865
▁Year	-11.3866
▁penjaring	-11.3868
▁sukarela	-11.3868
▁93	-11.3868
▁Banggai	-11.3868
▁Banggol	-11.3868
▁Kehidupan	-11.3871
▁Talang	-11.3873
sson	-11.3874
▁Cel	-11.3875
sub	-11.3877
▁94	-11.3878
▁dibahagi	-11.3878
▁</	-11.3879
▁Megat	-11.3879
▁Edo	-11.3881
▁Guan	-11.3881
▁balasan	-11.3886
▁hab	-11.3887
▁dirampas	-11.3888
▁batalion	-11.3888
▁Samuel	-11.3889
▁undangan	-11.3891
section	-11.3892
stru	-11.3893
Kar	-11.3894
▁Cruz	-11.3895
▁Iron	-11.3899
▁Kuningan	-11.3899
ans	-11.39
▁German	-11.3903
hall	-11.3905
sem	-11.3905
CP	-11.3907
eville	-11.3907
NS	-11.3908
▁Institusi	-11.3909
▁canggih	-11.3909
▁terendah	-11.3909
▁dikongsi	-11.3909
▁Idea	-11.3913
▁Linux	-11.3913
Qu	-11.3915
rel	-11.3917
▁nada	-11.3918
▁pelancar	-11.3921
▁hinggalah	-11.3921
▁Chun	-11.3922
▁Yun	-11.3925
▁takat	-11.3926
▁Bee	-11.3927
▁Pakar	-11.3928
Kami	-11.3928
lag	-11.3929
▁mustahil	-11.393
▁Kab	-11.393
cel	-11.393
py	-11.3932
▁Tho	-11.3934
MO	-11.3935
▁Rotan	-11.3935
▁kononnya	-11.3936
▁Amalan	-11.3939
hm	-11.3939
▁125	-11.3944
left	-11.3945
stedt	-11.3946
▁Padi	-11.3949
▁pisau	-11.3951
▁Sasuke	-11.3951
▁pengikutnya	-11.3953
▁being	-11.3953
▁Kid	-11.3954
▁she	-11.3959
▁Gul	-11.3966
▁Cav	-11.3966
▁Iz	-11.3968
▁Baha	-11.3968
▁Pam	-11.3969
▁Bond	-11.3969
▁multi	-11.397
med	-11.3971
▁Fred	-11.3971
▁mengaitkan	-11.3971
▁Klasik	-11.3971
▁kemaraan	-11.3971
▁setaraf	-11.3974
▁Dekad	-11.3975
She	-11.3976
▁baja	-11.3976
lla	-11.3979
▁Cons	-11.398
nim	-11.3981
▁menggunakannya	-11.3982
ilan	-11.399
▁Was	-11.399
▁berhasrat	-11.3992
▁lingkaran	-11.3992
▁Babylon	-11.3993
▁disatukan	-11.3993
▁menya	-11.3995
ongan	-11.3995
gula	-11.3997
▁Hab	-11.3998
TM	-11.3999
ever	-11.4
▁memuat	-11.4
▁Motor	-11.4003
▁Dharma	-11.4003
▁panah	-11.4004
nn	-11.4005
▁abu	-11.4006
Tulisan	-11.4006
nov	-11.4008
Pem	-11.4009
▁import	-11.4013
▁Ibtidaiyah	-11.4013
▁menolong	-11.4013
▁peredaran	-11.4013
▁pancaran	-11.4013
house	-11.4014
▁Matt	-11.4016
▁1942,	-11.4016
▁PER	-11.4017
▁Pon	-11.4022
Pierre	-11.4028
▁Fizik	-11.403
▁rantaian	-11.4032
baran	-11.4033
▁Biarpun	-11.4034
▁between	-11.4034
▁Upacara	-11.4034
▁kurikulum	-11.4036
SO	-11.4036
ally	-11.4044
▁Pokemon	-11.4047
uto	-11.4049
Negeri	-11.405
Putih	-11.405
Cher	-11.405
beri	-11.405
view	-11.405
▁aluminium	-11.4055
▁pengu	-11.4055
▁dimaksudkan	-11.4055
▁peri	-11.4056
oren	-11.4059
▁Pagar	-11.406
▁lif	-11.4062
▁61%	-11.4063
▁Hard	-11.4064
Un	-11.4065
▁gagasan	-11.4065
mara	-11.4065
▁vaksin	-11.4068
▁1988,	-11.4073
▁robot	-11.4075
▁perkuburan	-11.4076
▁dakwah	-11.4076
▁Mahalleh	-11.4076
▁berpangkat	-11.4076
▁Kassim	-11.4077
lie	-11.4077
▁paten	-11.4078
UM	-11.408
zaman	-11.4084
▁Marga	-11.4085
ock	-11.4088
SD	-11.4089
rahan	-11.409
lingen	-11.4091
▁167	-11.4095
▁memantau	-11.4097
▁taburan	-11.4097
▁Blu	-11.4097
▁Lebong	-11.4099
▁Khir	-11.41
▁Bidang	-11.41
▁Garden	-11.4102
▁sayuran	-11.4105
▁Qui	-11.4106
▁doktrin	-11.4108
▁bercadang	-11.4108
▁gila	-11.4108
▁Bernam	-11.411
▁bentuknya	-11.4112
▁tele	-11.4112
▁Arc	-11.4112
mahal	-11.4112
▁Perkuburan	-11.4118
▁Swift	-11.4118
▁khatulistiwa	-11.4118
▁dikembalikan	-11.4118
▁Fungsi	-11.4118
ller	-11.4119
itu	-11.4119
▁1905	-11.4125
lad	-11.4127
▁panjangnya	-11.413
fel	-11.413
▁Ridzuan	-11.4131
iar	-11.4133
▁pri	-11.4137
▁buta	-11.4137
▁Limousin	-11.4139
▁Rhein	-11.4139
▁Paulo	-11.414
▁Kluang	-11.414
▁sedih	-11.4141
▁Premier	-11.4142
▁memandang	-11.4147
▁Qarah	-11.415
nac	-11.4152
nad	-11.4153
ching	-11.4153
enam	-11.4154
For	-11.4156
▁Nat	-11.4158
nen	-11.4159
▁Pilah	-11.416
▁merangkul	-11.416
▁Menjadi	-11.4161
▁Aisne	-11.4161
kak	-11.4162
▁usus	-11.4162
▁Ryan	-11.4162
▁seniman	-11.4163
1996	-11.4164
▁Garis	-11.4164
mp	-11.4165
▁Hin	-11.4165
▁Lun	-11.4166
▁Turin	-11.4166
▁gurun	-11.4167
▁Eu	-11.4167
▁batas	-11.4168
▁Billboard	-11.4171
▁More	-11.4173
Ter	-11.4173
mura	-11.4173
▁Kerta	-11.4178
faktor	-11.4181
▁Pembaharuan	-11.4181
▁Jantung	-11.4182
▁Balik	-11.4183
▁Than	-11.4191
▁lancar	-11.4191
▁20%	-11.4194
▁pengumpulan	-11.4194
KK	-11.4195
▁pelik	-11.4197
▁Dayak	-11.4197
▁Gad	-11.4199
▁pengagihan	-11.4203
▁sinonim	-11.4203
▁name	-11.4203
▁jurang	-11.4203
▁Antartika	-11.4204
▁Farrel	-11.4204
pha	-11.4205
zz	-11.4214
▁war	-11.4216
wer	-11.4219
▁motif	-11.4223
ings	-11.4223
▁memeriksa	-11.4224
▁pembubaran	-11.4224
ony	-11.4224
▁gentian	-11.4224
▁capaian	-11.4225
▁medium	-11.4225
▁dicampur	-11.4225
naga	-11.4226
Bas	-11.4227
▁mengiringi	-11.4227
▁bilah	-11.4227
amat	-11.4228
Fe	-11.4228
▁kakaknya	-11.4232
▁1906	-11.4234
▁Penye	-11.4238
▁SMS	-11.4239
dad	-11.4241
▁Baka	-11.4242
pl	-11.4244
▁kek	-11.4245
▁Jurulatih	-11.4245
▁disusuli	-11.4245
▁turet	-11.4248
Shi	-11.425
▁Garut	-11.425
▁80%	-11.425
▁about	-11.4252
▁nampak	-11.4253
LO	-11.4255
▁MA	-11.4256
▁berta	-11.4257
hard	-11.4259
▁Leng	-11.4261
▁mercu	-11.4263
▁Nara	-11.4265
Sha	-11.4265
▁Met	-11.4266
▁memanjat	-11.4267
▁kordata	-11.4267
▁Sukabumi	-11.4267
▁Liu	-11.4269
▁Wolf	-11.4269
▁penyelenggaraan	-11.427
▁tambah	-11.4271
sad	-11.4272
mbu	-11.4275
▁20,000	-11.4276
▁1870	-11.4276
▁Tha	-11.4279
buat	-11.4279
▁terima	-11.428
▁140	-11.4282
▁ru	-11.4283
▁Fuji	-11.4283
▁ideal	-11.4283
▁Bran	-11.4284
▁Tasikmalaya	-11.4288
▁ditewaskan	-11.4288
▁waris	-11.4289
Jepun	-11.4289
▁menganggarkan	-11.429
▁kepalanya	-11.4291
dek	-11.4291
▁saw	-11.4294
▁1896	-11.4295
▁sensitif	-11.4302
▁ISO	-11.4304
▁83	-11.4305
▁Morowali	-11.431
▁senapang	-11.431
▁Tebing	-11.431
buru	-11.4312
▁sy	-11.4313
▁Cen	-11.4314
▁Lem	-11.4317
All	-11.4317
▁wain	-11.4321
Mas	-11.433
▁dieja	-11.433
▁keistimewaan	-11.4331
▁Madhya	-11.4333
▁Tampin	-11.4334
▁pengiklanan	-11.4336
▁pelayar	-11.4337
▁Fate	-11.4339
▁Water	-11.434
▁Ac	-11.4342
ost	-11.4343
▁Tele	-11.4344
▁Valle	-11.4352
▁Perkahwinan	-11.4353
▁mengunjungi	-11.4353
▁tragedi	-11.4353
▁kewarganegaraan	-11.4353
▁mengusir	-11.4353
▁poskod	-11.4353
▁Oscar	-11.4354
▁beri	-11.4354
▁ikon	-11.4355
git	-11.4355
▁keliling	-11.4356
▁Nerang	-11.436
▁Raz	-11.4363
▁Tag	-11.4364
▁Wak	-11.4367
▁gerai	-11.4368
umi	-11.4368
▁takrifan	-11.4368
dahulunya	-11.4368
▁pal	-11.4372
▁Janeiro	-11.4375
▁105	-11.4376
▁Kemaman	-11.4376
nggal	-11.4377
▁Vis	-11.438
versi	-11.438
▁1982,	-11.4387
▁tafsiran	-11.4388
▁bingkai	-11.4389
▁mimpi	-11.4395
jaga	-11.4395
▁Mani	-11.4396
▁dimansuhkan	-11.4396
▁longitud	-11.4396
▁tontonan	-11.4396
▁torpedo	-11.4396
▁Terminal	-11.4397
▁mendaki	-11.4398
walaupun	-11.4399
▁menaik	-11.44
RM	-11.44
▁dapur	-11.4401
▁Alkitab	-11.4401
▁Kah	-11.4402
▁Damai	-11.4402
▁dilanda	-11.4403
▁dijaga	-11.4404
▁Hero	-11.4406
▁pangkal	-11.4407
▁Sak	-11.4408
tron	-11.4409
suco	-11.441
▁rusa	-11.4416
▁malar	-11.4418
▁ruangan	-11.4418
▁Westminster	-11.4418
▁Mutiara	-11.4418
▁Fukuoka	-11.4418
▁ALLAH	-11.4418
▁sampah	-11.4418
▁kepakaran	-11.4418
▁meniru	-11.4419
▁Bukti	-11.4419
balik	-11.442
▁menyingkirkan	-11.4422
▁part	-11.4422
▁AM	-11.4422
▁Kera	-11.4423
▁apakah	-11.4423
▁Gam	-11.4427
▁show	-11.4433
▁Pet	-11.4434
inda	-11.4434
▁Punjab	-11.4435
▁Gran	-11.4438
▁editor	-11.444
▁Development	-11.444
▁sememangnya	-11.444
▁diasingkan	-11.444
▁Matlamat	-11.444
▁perarakan	-11.4441
CE	-11.4442
ors	-11.4443
elo	-11.445
▁komen	-11.445
PT	-11.4451
▁nitrogen	-11.4455
▁Gai	-11.446
▁pindaan	-11.4461
▁memikirkan	-11.4462
▁maritim	-11.4462
▁rokok	-11.4462
▁biografi	-11.4462
▁lidah	-11.4463
▁103	-11.4464
▁Marie	-11.4464
▁Nitra	-11.4464
▁paun	-11.4468
ions	-11.4469
▁cendekiawan	-11.447
▁sewa	-11.4476
bed	-11.4478
▁Earth	-11.4484
▁Kucing	-11.4485
▁mengingatkan	-11.4489
huruf	-11.4489
ntang	-11.4491
▁aneh	-11.4491
kesan	-11.4491
▁Saiful	-11.4492
▁Head	-11.4495
emp	-11.4501
▁ABS	-11.4505
riz	-11.4505
▁Cook	-11.4505
▁keranjang	-11.4505
▁membran	-11.4505
▁mentakrifkan	-11.4506
▁diwarisi	-11.4506
▁utusan	-11.4506
▁beserta	-11.4506
▁Open	-11.4507
▁Jing	-11.4508
▁Anderson	-11.4508
▁Rum	-11.451
▁NBC	-11.451
▁euro	-11.451
pemimpin	-11.4511
▁sejam	-11.4515
▁ternama	-11.4516
▁Games	-11.4518
pihak	-11.4523
▁Julia	-11.4524
▁Fair	-11.4525
▁Hussain	-11.4527
▁digemari	-11.4527
▁militan	-11.4528
▁berbakat	-11.4529
rag	-11.453
▁Teks	-11.4531
aceae	-11.4532
▁Aube	-11.4532
▁Galeri	-11.4532
oro	-11.4538
▁berhati	-11.4538
tain	-11.454
lly	-11.454
▁nampaknya	-11.4541
▁daftar	-11.4542
ball	-11.4546
▁Pela	-11.4547
▁Danau	-11.4548
▁Plan	-11.4548
▁Schumacher	-11.4549
▁menghargai	-11.4549
▁mengantikan	-11.4549
▁hormon	-11.4549
▁kesetiaan	-11.455
▁Arts	-11.4551
▁Adrian	-11.4551
▁dipertikaikan	-11.4552
▁Bible	-11.4553
▁Theatre	-11.4555
▁Minggu	-11.4555
Inggeris	-11.4556
▁isotop	-11.456
ines	-11.4561
▁Aero	-11.4561
▁made	-11.4562
▁Lalang	-11.4565
▁Kelang	-11.4566
▁Kep	-11.4567
▁kawanan	-11.4568
▁mengharamkan	-11.4572
▁sitkom	-11.4572
▁Peluru	-11.4572
▁Ahmed	-11.4572
▁bir	-11.4573
▁Knight	-11.4574
▁Enjin	-11.4574
▁liat	-11.4576
▁minda	-11.4579
▁Mare	-11.458
iu	-11.4581
1993	-11.4582
▁Vincent	-11.4582
sau	-11.4586
▁Zhu	-11.4588
▁Suri	-11.4591
▁perundingan	-11.4591
▁meluaskan	-11.4594
▁Darwin	-11.4594
▁terbina	-11.4594
▁Deli	-11.4595
▁Putri	-11.4596
▁dinamai	-11.4596
trik	-11.4597
▁seharian	-11.4597
penduduk	-11.4598
▁renang	-11.4599
peristiwa	-11.4601
iko	-11.4607
▁Panama	-11.4607
▁disamping	-11.461
▁Cup	-11.461
awai	-11.461
tebal	-11.461
▁Slovenia	-11.4616
▁memanfaatkan	-11.4616
▁hantaran	-11.4616
▁Bumiputera	-11.4616
▁171	-11.4619
▁Mansor	-11.4619
▁Most	-11.4619
part	-11.4621
▁Pacific	-11.4621
▁1985,	-11.4622
▁States	-11.4623
▁Sakura	-11.4623
fir	-11.4625
▁1984,	-11.4627
▁Stan	-11.4627
▁Massa	-11.4633
▁Kulit	-11.4633
gak	-11.4633
▁metrik	-11.4634
PN	-11.4634
hou	-11.4638
▁Frederick	-11.464
▁Boston	-11.464
▁Hujan	-11.464
▁difilemkan	-11.464
▁Vokal	-11.4641
▁deg	-11.4642
▁Sidi	-11.4644
gong	-11.4645
▁Nasi	-11.4646
CA	-11.4647
giri	-11.4648
▁tradisinya	-11.4649
yeon	-11.465
▁Goh	-11.4651
▁PIBG	-11.4651
▁Chik	-11.4651
▁klinik	-11.4657
▁Gabriel	-11.4658
▁Ekor	-11.4659
▁With	-11.466
▁Perlindungan	-11.466
▁resipi	-11.466
▁Quebec	-11.466
▁menunggang	-11.4661
▁Venice	-11.4662
▁Tegal	-11.4664
▁dihalang	-11.4664
▁Chinese	-11.4665
▁Sekali	-11.4667
mpo	-11.4668
irah	-11.4669
▁dicatatkan	-11.4669
▁Sepang	-11.467
over	-11.4675
▁Naz	-11.4677
back	-11.4678
▁atap	-11.4679
tologi	-11.4681
▁People	-11.4681
▁Ditubuhkan	-11.4683
▁natrium	-11.4683
▁mencintai	-11.4683
▁Galicia	-11.4683
▁bersaudara	-11.4686
▁teksi	-11.4686
▁Penerbitan	-11.4693
juta	-11.4697
MM	-11.4698
antara	-11.4699
▁Gross	-11.4701
UN	-11.4702
▁trak	-11.4704
▁Kemahiran	-11.4705
▁pengebumian	-11.4705
▁Assyria	-11.4705
▁Jersey	-11.4705
▁ditonton	-11.4705
mul	-11.4706
▁Terjun	-11.4706
ized	-11.4707
sca	-11.471
▁Buluh	-11.471
▁bertemakan	-11.4711
▁you	-11.4718
▁Lon	-11.4719
▁amanah	-11.472
▁Arm	-11.4722
▁bil	-11.4725
▁Jiwa	-11.4726
▁Banda	-11.4727
▁mendukung	-11.4727
▁penginapan	-11.4727
▁malaikat	-11.4727
▁kerdil	-11.4727
▁reformasi	-11.4728
gis	-11.4729
ving	-11.4729
▁brek	-11.473
seni	-11.473
▁Vent	-11.473
▁bertapak	-11.4732
▁Bus	-11.4732
▁1967,	-11.4733
right	-11.4742
▁BoBoiBoy	-11.4745
▁Thu	-11.4746
dog	-11.4748
▁Justeru	-11.475
▁tegak	-11.475
▁Perhubungan	-11.475
▁Pag	-11.4751
▁izin	-11.4751
stat	-11.4751
▁yg	-11.4753
▁Sinar	-11.4754
▁Ven	-11.4754
▁Solat	-11.4757
geri	-11.4757
AR	-11.4758
▁Shiro	-11.4758
▁merata	-11.476
PI	-11.4762
OP	-11.4763
▁Cour	-11.4764
▁Pengeluaran	-11.4764
eira	-11.4766
▁pucuk	-11.4767
nova	-11.4767
▁Academy	-11.4767
▁kru	-11.4772
▁mengajak	-11.4773
▁them	-11.4775
▁penentangan	-11.4775
Pan	-11.4779
▁Mansur	-11.4783
▁Berg	-11.4784
laman	-11.4786
▁id	-11.4789
born	-11.479
gemeente	-11.4795
▁Aidilfitri	-11.4795
▁Burgos	-11.4796
▁piano	-11.4796
▁berbunyi	-11.4798
▁Your	-11.4799
▁Saiz	-11.4805
peringkat	-11.4807
▁Jeram	-11.4807
▁belanja	-11.4811
stri	-11.4813
using	-11.4814
kelamaan	-11.4814
▁Rah	-11.4815
budaya	-11.4815
PK	-11.4817
ske	-11.4817
▁kecacatan	-11.4818
▁ketakutan	-11.4818
▁Siberia	-11.4818
▁Malaysian	-11.4819
▁seiring	-11.482
▁mengundurkan	-11.4821
▁ho	-11.4822
▁Das	-11.4823
hop	-11.4825
▁1907	-11.4825
▁modern	-11.4828
▁kristal	-11.4828
dewa	-11.4828
▁liter	-11.4828
▁pernyataan	-11.4832
▁Lane	-11.4832
▁Web	-11.4833
▁Tae	-11.4835
▁Alaska	-11.4835
law	-11.4838
▁botani	-11.4839
▁mencederakan	-11.484
▁perseorangan	-11.484
▁gerhana	-11.484
▁disesuaikan	-11.484
▁Prague	-11.4841
▁Pelan	-11.4841
▁pedas	-11.4842
▁Ghazali	-11.4844
▁Berkuasa	-11.4846
▁Zlin	-11.4846
▁Tema	-11.4847
tual	-11.4848
TE	-11.485
▁Dingin	-11.4852
▁pengantin	-11.4853
ET	-11.4854
projek	-11.4854
Selatan	-11.4855
▁Matthew	-11.4855
▁Ing	-11.4858
▁AD	-11.4861
lun	-11.4862
▁landskap	-11.4863
▁170	-11.4863
▁gerila	-11.4863
▁disukai	-11.4863
▁Cab	-11.4866
▁bonus	-11.4866
▁meneroka	-11.4869
▁Penuh	-11.487
▁Brand	-11.4874
▁pendengar	-11.4874
Com	-11.4875
▁pendirian	-11.4877
▁anakanda	-11.4877
Jerman	-11.4878
▁larut	-11.4879
▁number	-11.488
IL	-11.488
▁Ono	-11.488
saat	-11.488
▁penapisan	-11.4882
khi	-11.4882
▁bahagia	-11.4883
▁skandal	-11.4886
▁terkecil	-11.4887
▁terbatas	-11.4887
ssen	-11.4888
▁Lis	-11.4888
agama	-11.489
▁AF	-11.489
▁Lamb	-11.4892
AG	-11.4892
▁Allen	-11.4894
head	-11.4896
▁penjual	-11.4897
▁penutupan	-11.49
▁feri	-11.4901
▁berlawan	-11.4903
syen	-11.4905
▁Ecuador	-11.4909
▁Perintah	-11.4909
▁tercedera	-11.4909
bola	-11.4909
▁Calon	-11.4911
Gi	-11.4913
▁Creek	-11.4913
▁komet	-11.4913
stadt	-11.4913
▁1898	-11.4916
wak	-11.4918
▁where	-11.4918
▁AG	-11.4922
▁Universe	-11.4922
Qur	-11.4924
▁Perindustrian	-11.4932
▁pengelasan	-11.4932
▁pengesahan	-11.4932
▁Batavia	-11.4932
▁Kerinci	-11.4932
nz	-11.4933
laki	-11.4935
▁360	-11.4935
▁Kri	-11.4936
hom	-11.4937
bila	-11.4937
▁Kerjasama	-11.4938
▁Cy	-11.494
tuan	-11.4943
kawan	-11.4943
kelab	-11.4943
▁muat	-11.4951
▁1979,	-11.4952
▁kekeliruan	-11.4955
▁sekuel	-11.4955
kara	-11.4956
▁Hiro	-11.4957
▁berperingkat	-11.4959
▁penyampai	-11.4963
▁Kaki	-11.4965
▁maya	-11.4969
▁Adat	-11.4973
▁Dipertua	-11.4974
▁1969,	-11.4975
onik	-11.4975
▁kelembapan	-11.4977
▁perbualan	-11.4977
▁cincin	-11.4977
▁ganjaran	-11.4978
▁Dickson	-11.4978
▁penyimpanan	-11.4982
oux	-11.4984
▁Kil	-11.4985
▁Salak	-11.4987
▁Mamat	-11.4992
▁Daily	-11.4996
▁1983,	-11.4997
key	-11.4997
▁Perjalanan	-11.4998
▁4,000	-11.4998
▁Bundesliga	-11.5
▁Labem	-11.5001
▁tayar	-11.5001
▁Kuih	-11.5003
▁pela	-11.5006
▁taat	-11.5007
▁Rawang	-11.5007
▁OS	-11.5007
benda	-11.5008
▁Party	-11.5008
001	-11.5013
uchi	-11.5013
ID	-11.5016
▁Michel	-11.5017
▁Wai	-11.5018
sebelum	-11.502
▁Baj	-11.502
lent	-11.5021
div	-11.5022
▁Karnataka	-11.5024
▁menguntungkan	-11.5024
▁berenang	-11.5024
▁kegemilangan	-11.5024
PR	-11.5024
▁cerpen	-11.5024
Jean	-11.5025
▁Rayuan	-11.5025
juk	-11.5026
▁Maj	-11.5032
FC	-11.5033
▁ap	-11.5038
▁Gau	-11.5038
▁pengesan	-11.5041
Pulau	-11.5043
▁Produk	-11.5045
▁Med	-11.5046
cell	-11.5046
▁ditamatkan	-11.5047
▁neutron	-11.5047
▁sentimeter	-11.5047
▁pakatan	-11.5047
vic	-11.5047
▁beku	-11.505
▁Genoa	-11.505
▁Peringatan	-11.5053
1990	-11.5053
▁fo	-11.5053
▁Habib	-11.5054
▁Fra	-11.5057
▁Islamic	-11.5058
▁Mou	-11.5059
▁sejarahnya	-11.5063
eon	-11.5064
▁malu	-11.5064
Nov	-11.5065
dut	-11.5069
▁Kebajikan	-11.507
▁Kenderaan	-11.507
▁dirobohkan	-11.507
▁keesokan	-11.507
▁kerbau	-11.507
▁manual	-11.507
▁mitologi	-11.507
▁Mawar	-11.5072
▁portal	-11.5073
▁Gab	-11.5075
▁Rosli	-11.5076
▁linguistik	-11.5076
Am	-11.5077
▁Chola	-11.5079
We	-11.5079
▁Canada	-11.5079
▁1860	-11.508
▁Japan	-11.508
▁semi	-11.5082
▁Res	-11.5086
▁Say	-11.5087
uti	-11.5087
▁Griffith	-11.5093
▁Pemangku	-11.5093
▁berdaulat	-11.5093
▁takwim	-11.5093
▁dipulihkan	-11.5093
▁dilanjutkan	-11.5093
▁bersikap	-11.5093
▁dilalui	-11.5093
▁Serb	-11.5093
▁Lor	-11.5094
▁distrik	-11.5094
▁masanya	-11.5098
▁Soo	-11.5101
▁Chai	-11.5101
kim	-11.5103
▁lambat	-11.5104
▁pejabatnya	-11.5105
▁bo	-11.5107
stre	-11.5108
▁penyunting	-11.5109
▁Nagar	-11.5109
▁Leo	-11.5109
▁diterangkan	-11.5117
▁mengarang	-11.5117
▁Susu	-11.5118
▁pengulas	-11.5119
▁Basque	-11.512
▁pemanasan	-11.5125
pru	-11.5126
▁Julian	-11.5126
▁Kebun	-11.5126
▁alatan	-11.5127
▁Luna	-11.5129
$1	-11.5129
lut	-11.5132
▁Rab	-11.5136
▁lagenda	-11.514
▁pengunduran	-11.514
▁menyandang	-11.514
▁jejari	-11.514
▁kritis	-11.514
▁DiRaja	-11.5142
stro	-11.5142
▁berbulu	-11.5142
▁Chad	-11.5145
▁1974,	-11.5145
▁Hiroshima	-11.5146
▁1902	-11.5148
Ya	-11.5149
One	-11.515
▁geo	-11.5151
eck	-11.5153
▁Som	-11.5154
▁Malek	-11.5157
time	-11.5158
▁SBS	-11.5158
ize	-11.5161
▁Battle	-11.5163
▁Amazon	-11.5163
▁diberitahu	-11.5164
▁Qur	-11.5168
▁Citra	-11.517
ssi	-11.517
oba	-11.517
▁penghijrahan	-11.5172
▁62%	-11.5174
enheim	-11.5175
kaki	-11.5177
▁Inspektor	-11.5187
▁Nintendo	-11.5187
▁berprestij	-11.5187
▁bersesuaian	-11.5187
▁percintaan	-11.5187
▁Android	-11.5187
▁pencuci	-11.5187
▁Ciamis	-11.5187
rate	-11.5187
▁Khal	-11.5187
▁Darreh	-11.5187
Th	-11.5187
▁Skuadron	-11.5188
▁Republic	-11.519
▁bertingkat	-11.519
▁Bakhtiari	-11.5191
▁Artikel	-11.5195
▁Residen	-11.5196
▁Pai	-11.5196
▁ren	-11.5196
ded	-11.5196
hasil	-11.5197
▁TM	-11.5197
▁golf	-11.5201
▁Lagi	-11.5202
▁work	-11.5204
▁perisa	-11.5204
▁digelarkan	-11.5205
▁institut	-11.5206
▁Zara	-11.5206
DS	-11.5209
▁Sebastian	-11.521
▁bersendirian	-11.521
▁inovasi	-11.521
▁mengerjakan	-11.521
▁Iklim	-11.521
▁Syamsul	-11.521
▁Suzuki	-11.5211
▁enzim	-11.5211
▁susah	-11.5211
▁diingini	-11.5211
▁jersi	-11.5212
▁Porto	-11.5213
ingen	-11.5214
▁Ille	-11.5214
▁agresif	-11.5215
▁Bawang	-11.5218
▁Order	-11.5219
▁Dang	-11.5219
▁1904	-11.5222
▁peratusan	-11.5223
▁Cari	-11.5231
▁years	-11.5231
anaknya	-11.5232
▁Jane	-11.5233
▁diperbaharui	-11.5234
▁multinasional	-11.5234
▁Keluasan	-11.5234
▁lumpur	-11.5234
▁Moutong	-11.5234
▁Margaret	-11.5234
▁layanan	-11.5234
▁bercorak	-11.5235
▁Karawang	-11.5235
▁DKI	-11.5236
▁Keretapi	-11.5236
▁Logi	-11.5237
▁ombak	-11.5242
▁Beng	-11.5245
▁Penge	-11.5246
▁biara	-11.5247
core	-11.5247
▁wataknya	-11.5249
▁Aires	-11.5251
▁soal	-11.5253
▁mega	-11.5254
▁digugurkan	-11.5258
▁menumpaskan	-11.5258
▁kejahatan	-11.5258
▁Perundangan	-11.5258
▁Taufan	-11.5258
▁Barbar	-11.526
▁menghubungi	-11.526
▁syaitan	-11.5261
▁Rizal	-11.5262
▁Aaron	-11.5262
hot	-11.5262
pir	-11.5263
▁wad	-11.5265
Au	-11.5265
Mal	-11.5266
▁1981,	-11.5269
vision	-11.5272
▁hasilnya	-11.5272
▁Kl	-11.5274
▁Setiu	-11.5274
▁carian	-11.5275
▁Gri	-11.5275
▁Ant	-11.5278
cang	-11.5279
▁ratusan	-11.5279
▁berhubungan	-11.5279
RO	-11.5281
▁Siput	-11.5281
▁Zulkifli	-11.5282
▁Keramat	-11.5283
▁Manuel	-11.5284
▁Basel	-11.5284
▁Penang	-11.5285
▁berpenduduk	-11.5286
▁artifak	-11.5288
karan	-11.529
▁pekat	-11.5291
rr	-11.5292
▁budi	-11.5296
▁Down	-11.5299
▁1/2	-11.53
▁same	-11.5301
▁ra	-11.5302
▁DJ	-11.5302
▁dimuat	-11.5304
▁konvensyen	-11.5305
▁intelektual	-11.5305
▁ekologi	-11.5305
<	-11.5307
dahulu	-11.5307
▁Yew	-11.5309
▁saman	-11.5309
▁Rag	-11.5309
▁Aki	-11.531
iano	-11.5313
iel	-11.5316
▁digalakkan	-11.5319
▁menc	-11.532
▁puluhan	-11.532
nding	-11.5323
▁UiTM	-11.5323
bidang	-11.5324
▁16%	-11.5325
▁Pari	-11.5328
▁trafik	-11.5329
▁memukul	-11.5329
▁berlatih	-11.5331
▁Bujang	-11.5332
▁Yee	-11.5332
▁Marvel	-11.5334
▁epik	-11.5336
On	-11.5337
▁butang	-11.5338
▁penyusunan	-11.5339
▁we	-11.5341
▁ambil	-11.5341
▁Zin	-11.5346
masalah	-11.5347
Romagna	-11.535
▁Cyprus	-11.5353
▁Penggambaran	-11.5353
▁persiapan	-11.5353
▁tiruan	-11.5353
▁Golongan	-11.5353
hit	-11.5354
▁Bueno	-11.5355
▁Format	-11.5355
▁pek	-11.5357
Pu	-11.5359
panjang	-11.536
▁Aude	-11.5362
bos	-11.5363
▁Isi	-11.5365
ology	-11.5365
basi	-11.5365
sten	-11.5366
tical	-11.5373
▁terapi	-11.5374
daun	-11.5376
▁kepupusan	-11.5377
▁syurga	-11.5377
▁terhempas	-11.5377
▁rumpai	-11.5377
▁radiasi	-11.5377
▁fauna	-11.5377
▁sebagian	-11.5378
5000	-11.5379
▁laser	-11.5382
evo	-11.5383
ngi	-11.5383
uch	-11.5384
mini	-11.5392
▁Bulu	-11.5393
▁BC	-11.5395
▁Ghana	-11.5396
▁kian	-11.5397
▁kepekatan	-11.54
▁tebu	-11.54
▁Act	-11.54
▁Gelaran	-11.5401
▁Mario	-11.5402
▁Marikh	-11.5402
istan	-11.5402
▁Carr	-11.5403
▁1850	-11.5403
▁miliknya	-11.5407
fas	-11.541
▁339	-11.5413
Pertua	-11.5413
pung	-11.5422
tive	-11.5422
▁Isu	-11.5423
▁perpecahan	-11.5425
▁Gironde	-11.5425
▁gubahan	-11.5425
▁Pemandu	-11.5425
seorang	-11.5426
▁Chrisye	-11.5427
drama	-11.5428
cio	-11.5429
▁Cip	-11.5429
bumi	-11.5429
▁90%	-11.543
hamba	-11.5432
wh	-11.5432
▁Kee	-11.5432
▁Yus	-11.5433
▁rela	-11.5433
▁Surya	-11.5434
▁Chao	-11.5436
▁There	-11.5437
▁Phoenix	-11.5437
▁kesepuluh	-11.5437
▁major	-11.5437
▁Ry	-11.5438
▁beraja	-11.5448
▁keberkesanan	-11.5449
▁penolong	-11.5449
▁Penyiaran	-11.5449
▁diusahakan	-11.5449
▁par	-11.5453
▁betapa	-11.5453
▁1973,	-11.5454
teknik	-11.5455
kau	-11.5457
omb	-11.5457
ifikasi	-11.5459
dou	-11.5459
ged	-11.5459
trop	-11.546
▁transit	-11.5461
▁Roger	-11.5462
▁Division	-11.5463
▁Mao	-11.5464
▁gantian	-11.5466
▁linear	-11.5469
▁material	-11.547
surat	-11.547
boleh	-11.547
▁riwayat	-11.5471
▁Vettel	-11.5473
▁perasmian	-11.5473
▁Jenazah	-11.5473
▁ketinggalan	-11.5473
▁mengkhusus	-11.5473
▁Nordin	-11.5476
Din	-11.5476
▁Jambu	-11.5477
▁pengamal	-11.5481
▁1963,	-11.549
mate	-11.5492
▁Amal	-11.5494
▁kelenjar	-11.5497
▁kesakitan	-11.5497
▁setanding	-11.5497
▁Edmund	-11.5497
▁terapung	-11.5497
▁cetek	-11.5497
▁terdahulunya	-11.5498
▁Bayu	-11.5498
▁Sifat	-11.5499
▁yuran	-11.5499
▁Suk	-11.5499
roh	-11.55
uss	-11.5501
▁Bruce	-11.5501
▁Salahuddin	-11.5502
▁YA	-11.5502
kaedah	-11.5503
eum	-11.5504
▁stok	-11.5505
▁finalis	-11.5506
▁Roz	-11.5508
BR	-11.551
▁Wilhelm	-11.5512
▁neutral	-11.5512
▁Jason	-11.5513
▁any	-11.5513
2017	-11.5513
▁disambungkan	-11.5514
Sy	-11.5515
▁dinaik	-11.5517
▁gelang	-11.5519
tch	-11.552
▁Bretagne	-11.552
▁Idol	-11.552
neh	-11.5521
▁menggulingkan	-11.5521
▁sekunder	-11.5521
▁melompat	-11.5522
▁Marshall	-11.5523
▁memerangi	-11.5524
sebut	-11.5524
▁piring	-11.5524
imba	-11.5525
250	-11.5527
▁Tap	-11.5527
ders	-11.5527
som	-11.5528
light	-11.5531
▁Jump	-11.5531
ruk	-11.5533
▁Pele	-11.5534
▁Riz	-11.5539
▁Kebebasan	-11.554
▁forum	-11.5542
▁perhambaan	-11.5543
▁pertuturan	-11.5546
▁dipetik	-11.5546
▁temasya	-11.5546
▁Nibong	-11.5547
▁Monaco	-11.5547
▁Kehormat	-11.5547
▁Pavia	-11.5547
▁fotografi	-11.5547
kri	-11.5548
▁Syurga	-11.5549
▁Space	-11.5552
WA	-11.5552
▁Drome	-11.5553
▁etika	-11.5554
eux	-11.5554
mol	-11.5557
nting	-11.5557
▁Hand	-11.556
organ	-11.5569
Orang	-11.557
▁demokratik	-11.557
▁sesungguhnya	-11.557
▁Speaker	-11.557
▁berkuatkuasa	-11.557
▁dilengkapkan	-11.557
▁Hajah	-11.5571
▁Jimmy	-11.5571
▁Hisham	-11.5571
elles	-11.5571
▁Farah	-11.5575
Vilain	-11.5575
▁1895	-11.5578
stesen	-11.558
▁Kilang	-11.5581
nari	-11.5582
▁Hadis	-11.5582
yung	-11.5583
▁Hou	-11.5589
ets	-11.5591
▁Khazanah	-11.5594
▁pengakuan	-11.5595
▁meluahkan	-11.5595
▁gugur	-11.5595
▁Herault	-11.5595
▁sekian	-11.5596
▁Rambai	-11.5596
▁Gav	-11.5596
dian	-11.5596
▁berlumba	-11.5598
▁Maori	-11.5599
▁CEO	-11.5599
hah	-11.56
▁cip	-11.5602
▁AKB	-11.5603
▁Landes	-11.5604
▁Spe	-11.5604
1991	-11.5608
▁Zo	-11.5609
▁Cl	-11.561
▁Tr	-11.561
ndal	-11.5611
▁meme	-11.5615
▁Brad	-11.5616
▁Twitter	-11.5619
▁diterajui	-11.5619
▁kombinasi	-11.5619
▁Penilaian	-11.5619
▁Pameran	-11.5619
▁city	-11.5621
▁Permata	-11.5623
urai	-11.5623
▁Ani	-11.5626
▁Tian	-11.5628
Mak	-11.563
gos	-11.5631
▁perisikan	-11.5635
▁berdaya	-11.5638
▁parit	-11.5639
▁im	-11.564
▁sum	-11.564
▁Part	-11.564
▁Hon	-11.5641
eno	-11.5642
▁people	-11.5644
▁Football	-11.5644
▁serbuan	-11.5644
▁memberontak	-11.5644
▁Kantonis	-11.5644
▁Paku	-11.5644
▁Ramon	-11.5647
▁sistematik	-11.5647
▁kapas	-11.5648
▁gelung	-11.5648
peny	-11.5653
▁Ping	-11.5653
▁Ryu	-11.5653
bawah	-11.5653
kisah	-11.5654
▁Papan	-11.5655
▁penganjur	-11.5655
▁CE	-11.5657
rain	-11.5658
very	-11.5658
Love	-11.5658
dun	-11.5659
press	-11.566
garis	-11.5662
▁Loir	-11.5665
Sam	-11.5665
▁Cotes	-11.5665
▁Express	-11.5666
mpak	-11.5668
woo	-11.5668
▁Fernando	-11.5668
▁Kejuaraan	-11.5668
▁Keseluruhan	-11.5668
▁Salamanca	-11.5668
▁sutera	-11.5669
▁licin	-11.5669
ING	-11.567
▁seberat	-11.567
▁terusan	-11.5675
ngkang	-11.5677
▁Saad	-11.5679
▁Barr	-11.5686
Kha	-11.5688
▁Kr	-11.5689
▁000	-11.5691
▁Impian	-11.5693
▁Sentral	-11.5693
▁rusuk	-11.5693
▁Obama	-11.5693
San	-11.5694
tier	-11.5698
▁Pah	-11.57
kasi	-11.57
leg	-11.5701
FA	-11.5702
▁SD	-11.5702
eran	-11.5703
▁dipinjam	-11.5704
▁Pil	-11.5705
▁dipandang	-11.5708
▁menyi	-11.5715
▁Pisang	-11.5715
▁Muhyiddin	-11.5718
▁ilmiah	-11.5718
▁Arena	-11.5718
▁Bom	-11.5718
▁Bakti	-11.5719
diklasifikasikan	-11.5719
▁teologi	-11.572
diri	-11.5721
isan	-11.5722
Billboard	-11.5729
▁50,000	-11.5733
mud	-11.5734
▁Binti	-11.5734
▁penanda	-11.5739
▁109	-11.574
▁monumen	-11.5742
▁Benjamin	-11.5742
▁Extremadura	-11.5742
▁Helikopter	-11.5742
▁Mertajam	-11.5742
▁berniat	-11.5742
▁Rawatan	-11.5745
▁Dream	-11.5749
kra	-11.575
bau	-11.575
▁didorong	-11.5757
inger	-11.5757
▁Alice	-11.5758
Jun	-11.5761
ome	-11.5762
▁hormat	-11.5762
▁bon	-11.5762
▁Run	-11.5764
▁pertolongan	-11.5767
▁monarki	-11.5767
▁sesawang	-11.5767
▁terbenam	-11.5767
▁three	-11.5767
cil	-11.5767
▁Fazenda	-11.5767
ios	-11.5768
▁Liang	-11.5769
▁Tou	-11.5769
▁well	-11.577
bou	-11.577
▁Hur	-11.5771
▁Anuar	-11.5772
▁orientasi	-11.5773
ense	-11.5777
gir	-11.5777
▁Berat	-11.5779
▁BA	-11.5779
▁topeng	-11.5782
▁30,000	-11.5782
▁Sup	-11.5787
▁Penyu	-11.5788
▁Pac	-11.5788
▁Bio	-11.5791
▁Katedral	-11.5792
▁kesebelas	-11.5792
▁julung	-11.5793
▁Carolina	-11.5793
▁Emiriah	-11.5793
▁sindrom	-11.5793
guna	-11.5794
▁Box	-11.5794
▁Limau	-11.58
arch	-11.5804
▁Kerala	-11.5804
raf	-11.5809
▁Telah	-11.5811
▁majikan	-11.5817
▁Jamaluddin	-11.5818
▁sejajar	-11.5819
▁dicirikan	-11.582
▁Sejuk	-11.582
▁Khmer	-11.5823
▁Bod	-11.5825
▁Wo	-11.5828
▁bercita	-11.5829
▁1903	-11.5831
enti	-11.5833
▁Earl	-11.584
pinar	-11.584
▁bala	-11.5841
▁muktamad	-11.5842
▁sebegitu	-11.5842
▁kesesakan	-11.5842
▁Cianjur	-11.5843
▁Racing	-11.5845
▁piala	-11.5846
▁Gui	-11.5846
isteri	-11.5848
EN	-11.5848
▁Bert	-11.5851
its	-11.5851
▁1800	-11.5852
▁kuku	-11.5855
▁Lithuania	-11.5855
cip	-11.5856
▁Rico	-11.5856
sya	-11.5857
▁147	-11.5858
▁Hus	-11.5858
▁Pena	-11.586
▁Krai	-11.5861
▁rintangan	-11.5861
▁demo	-11.5861
▁Alba	-11.5862
▁Kro	-11.5862
▁1948,	-11.5867
▁kolektif	-11.5867
▁pohon	-11.5868
▁perabot	-11.5868
CBN	-11.5868
▁Sas	-11.5868
ante	-11.5869
▁surut	-11.5869
Bois	-11.5869
▁Lihat	-11.587
CH	-11.5871
mulya	-11.5871
dio	-11.5872
▁sungguh	-11.5875
▁barunya	-11.5875
yen	-11.5876
▁Bagaimana	-11.5877
▁tangannya	-11.5877
dre	-11.5878
nom	-11.5879
▁these	-11.5879
Ji	-11.5882
▁kari	-11.5883
▁auto	-11.5884
sila	-11.5884
▁pengilang	-11.5884
▁Guy	-11.5887
▁15,000	-11.589
▁Akar	-11.5891
▁Undian	-11.5893
▁nasyid	-11.5893
▁samurai	-11.5893
▁mentega	-11.5893
▁taufan	-11.5893
▁mantap	-11.5893
▁Zhou	-11.5893
▁diharapkan	-11.5894
BU	-11.5894
▁menciptakan	-11.5895
▁Ujung	-11.5895
▁Susan	-11.5897
▁Banci	-11.5899
▁1978,	-11.5899
▁Oliver	-11.59
▁karangan	-11.5901
▁NGO	-11.5902
▁USA	-11.5904
struktur	-11.5905
kaya	-11.5906
sungguh	-11.5908
BC	-11.5908
Yu	-11.5908
6,000	-11.5909
▁Rani	-11.591
ault	-11.5912
▁Newton	-11.5913
▁sepakan	-11.5913
buli	-11.5914
▁Prinsip	-11.5918
▁ventrikel	-11.5918
▁serdahana	-11.5918
▁ajaib	-11.5918
▁Lennon	-11.5918
▁sendirinya	-11.592
GB	-11.5921
Germain	-11.5921
▁Hut	-11.5921
▁Forum	-11.5924
▁1971,	-11.5924
▁Dasht	-11.5925
▁Pot	-11.5929
▁hujah	-11.5931
ido	-11.5931
▁khazanah	-11.5936
▁Shell	-11.5937
▁datangnya	-11.5939
fra	-11.5939
▁Layang	-11.5941
▁Tower	-11.5942
▁yeh	-11.5942
▁Sele	-11.5943
▁Rey	-11.5943
▁peliharaan	-11.5943
▁kilogram	-11.5943
▁ketepatan	-11.5943
▁sarung	-11.5944
AB	-11.5944
▁ditangguhkan	-11.5945
shire	-11.5945
▁sin	-11.5945
uel	-11.5946
Sevres	-11.5946
Pas	-11.5949
▁butiran	-11.5949
▁menunjuk	-11.595
▁Biji	-11.5952
uj	-11.5957
▁Ae	-11.5958
▁Jai	-11.5958
nut	-11.596
mand	-11.5961
trans	-11.5961
Harry	-11.5963
▁EU	-11.5964
▁Bac	-11.5966
shah	-11.5967
▁seumpamanya	-11.5967
etto	-11.5968
▁berkesudahan	-11.5969
▁jenazah	-11.5969
▁perjumpaan	-11.5969
▁LGBT	-11.597
▁Mid	-11.5972
unt	-11.5973
▁Sidang	-11.5975
▁Siang	-11.5976
▁Kuh	-11.5977
▁Gambar	-11.5979
▁left	-11.598
▁sul	-11.5981
▁Mod	-11.5982
fungsi	-11.5983
▁Naka	-11.5984
ksi	-11.5985
▁Sid	-11.5988
pelakon	-11.5988
▁Male	-11.599
▁Beau	-11.5994
▁diganggu	-11.5994
▁pengisytiharan	-11.5994
▁Kemenangan	-11.5994
▁banjaran	-11.5995
▁Bayan	-11.5996
▁Nunukan	-11.5999
▁pandai	-11.6
stic	-11.6
▁Europa	-11.6001
▁Faiz	-11.6001
▁Loiret	-11.6004
▁sijil	-11.601
▁Davis	-11.601
hill	-11.601
▁digoreng	-11.6011
▁Yap	-11.6011
▁keemasan	-11.602
▁Sumatra	-11.602
▁Giri	-11.602
▁bendalir	-11.602
▁plan	-11.6021
▁sedunia	-11.6021
▁Romawi	-11.6023
metri	-11.6023
▁Penya	-11.6024
▁Deux	-11.6025
▁sosialis	-11.6026
▁Lucas	-11.6026
▁pembersihan	-11.6026
mpu	-11.6027
Sal	-11.603
▁beriman	-11.603
fort	-11.6033
▁Kaur	-11.6034
,000,000	-11.6034
▁1965,	-11.6035
167	-11.6036
▁penaja	-11.6039
SL	-11.6041
▁Tani	-11.6041
▁tampak	-11.6041
▁Pennsylvania	-11.6045
▁terkumpul	-11.6045
▁Samarinda	-11.6045
▁Zilina	-11.6045
▁bibir	-11.6046
▁tubuhnya	-11.6046
Merupakan	-11.6046
▁klip	-11.6048
rok	-11.6049
▁Jeff	-11.605
laksana	-11.6051
▁mengg	-11.6052
▁Beg	-11.6053
▁mal	-11.6054
▁Corse	-11.606
▁zat	-11.6065
daripada	-11.6067
nau	-11.6067
vari	-11.607
▁Damsyik	-11.6071
▁memperuntukkan	-11.6071
▁Mustapha	-11.6071
▁galeri	-11.6071
▁Ajax	-11.6071
▁mengepung	-11.6071
▁merayu	-11.6071
▁Tumpat	-11.6071
vag	-11.6072
muk	-11.6073
▁Rahsia	-11.6074
▁Major	-11.6074
stor	-11.6074
▁ayahandanya	-11.6076
▁imp	-11.6079
▁soya	-11.6086
ngka	-11.6086
▁deria	-11.6086
putar	-11.6088
▁penguatkuasaan	-11.6093
▁hits	-11.6094
▁Wad	-11.6094
▁dilitupi	-11.6096
▁Gomez	-11.6096
▁hamil	-11.6098
banyak	-11.6102
ative	-11.6103
puk	-11.6104
▁CO	-11.6104
mbangan	-11.6108
oko	-11.6109
▁Tab	-11.611
ico	-11.6113
cipta	-11.6113
bagaimanapun	-11.6115
▁Mill	-11.6115
maupun	-11.6116
▁debu	-11.6118
▁Niigata	-11.6122
▁penunggang	-11.6122
▁Kristen	-11.6123
vid	-11.6124
▁impak	-11.6124
▁Emir	-11.6125
▁penggantian	-11.6125
zir	-11.6126
iere	-11.6127
Hari	-11.6131
▁Field	-11.6134
▁Diana	-11.6136
▁Sud	-11.6136
▁Fri	-11.6137
▁17%	-11.6144
vers	-11.6144
▁Woo	-11.6146
mendatangkan	-11.6146
▁Auvergne	-11.6148
▁menguatkan	-11.6148
▁1,500	-11.6148
▁kokurikulum	-11.6148
▁dipuji	-11.6148
▁pasport	-11.6148
▁tertulis	-11.6148
▁didasarkan	-11.6149
▁berpeluang	-11.6149
▁sepadan	-11.6149
jeh	-11.6151
▁175	-11.6151
▁Vienne	-11.6156
▁Phillip	-11.6156
▁ME	-11.6158
ord	-11.6161
▁pil	-11.6163
▁Anglo	-11.6163
▁saudagar	-11.6167
UT	-11.6168
▁diproses	-11.617
▁Jangka	-11.6171
▁Ying	-11.6174
▁perkauman	-11.6174
▁spekulasi	-11.6174
lion	-11.6174
▁dihuni	-11.6175
▁Over	-11.6176
onic	-11.6176
1994	-11.6176
▁Cad	-11.6178
▁100%	-11.6182
Val	-11.6183
bag	-11.6187
▁Mada	-11.6188
▁je	-11.6193
▁Ratna	-11.6193
Don	-11.6194
EL	-11.6195
▁Majalengka	-11.62
▁gugusan	-11.62
▁orkestra	-11.62
▁tengkorak	-11.62
▁khalayak	-11.62
▁Pontian	-11.6201
▁Kobe	-11.6202
hwa	-11.6208
▁macam	-11.6208
▁menyalahkan	-11.621
▁Bahar	-11.6215
▁Cou	-11.6215
▁Dae	-11.6216
▁Shir	-11.6217
▁143	-11.6218
laf	-11.6218
suh	-11.6219
asih	-11.6219
campur	-11.622
▁Castel	-11.6222
▁Rindu	-11.6222
▁bertanggung	-11.6223
Ki	-11.6225
▁Mauritania	-11.6226
▁Siasatan	-11.6226
▁Sumedang	-11.6226
▁perlantikan	-11.6226
▁Separuh	-11.6226
▁Swiss	-11.6226
eti	-11.6226
▁vektor	-11.6226
▁bujur	-11.6226
▁Billy	-11.6227
▁Payung	-11.6227
▁menghala	-11.6228
▁Sikh	-11.6229
▁Maran	-11.623
▁rap	-11.623
▁106	-11.6233
▁Ehsan	-11.6233
uy	-11.6233
nag	-11.6234
▁memperluaskan	-11.6234
▁Melati	-11.6235
▁Tahunan	-11.6239
8000	-11.6241
▁menyangka	-11.6241
▁kebarangkalian	-11.6243
iat	-11.6248
▁Buleleng	-11.6252
▁berinteraksi	-11.6252
▁disempurnakan	-11.6252
▁Kematian	-11.6252
▁Sebilangan	-11.6253
kle	-11.6254
Tu	-11.6255
▁Stein	-11.6257
▁kehormat	-11.6258
▁ungu	-11.6259
▁Tiong	-11.6259
Br	-11.6261
▁trend	-11.6261
▁tren	-11.6261
▁Kis	-11.6264
▁hidro	-11.6265
▁Mulya	-11.6267
endra	-11.6268
▁Jalur	-11.6268
▁Yak	-11.627
▁Asalnya	-11.6271
▁Back	-11.6272
ule	-11.6272
▁long	-11.6276
▁900	-11.6277
▁Kot	-11.6277
▁Kegiatan	-11.6278
▁berpanjangan	-11.6278
try	-11.6279
▁turbin	-11.6279
▁Malinau	-11.6279
acara	-11.6279
▁terganggu	-11.6279
NA	-11.628
▁Simpanan	-11.628
▁Ariffin	-11.6281
▁Bong	-11.6281
Asia	-11.6282
▁Lab	-11.6283
▁Sihir	-11.6283
Ru	-11.6284
▁Siva	-11.6284
sas	-11.6288
▁Solo	-11.6293
▁5,000	-11.6294
▁dicari	-11.6294
▁Jerusalem	-11.6294
nath	-11.6295
phe	-11.6298
▁Under	-11.6298
▁mubaligh	-11.6299
▁h	-11.63
▁Hijriah	-11.6305
▁mendidik	-11.6305
▁mendominasi	-11.6305
▁Muhamad	-11.6305
▁ramuan	-11.6305
▁Malayan	-11.631
ladang	-11.6313
▁pendengaran	-11.6319
thumb	-11.632
▁ob	-11.6326
▁Nota	-11.6327
▁Miller	-11.6327
▁Oz	-11.6328
▁permaisuri	-11.6331
▁spesimen	-11.6331
▁Politeknik	-11.6331
▁Michigan	-11.6331
ishi	-11.6332
▁terputus	-11.6332
▁fil	-11.6332
▁sem	-11.6332
▁seumur	-11.6333
▁sm	-11.6337
ison	-11.6338
▁Ky	-11.6344
hyun	-11.6345
▁naskah	-11.6345
nto	-11.6347
uru	-11.6348
▁Bla	-11.6349
▁pengadil	-11.6349
▁dahsyat	-11.6352
ische	-11.6355
▁through	-11.6357
▁Indramayu	-11.6357
▁Majapahit	-11.6357
▁Manhattan	-11.6357
▁kromosom	-11.6357
▁penghapusan	-11.6357
▁Montenegro	-11.6357
▁diculik	-11.6357
kk	-11.6358
▁diceritakan	-11.6358
▁tersembunyi	-11.6358
▁kuliah	-11.6358
▁Paser	-11.6358
▁1972,	-11.6359
▁bomba	-11.636
▁Bey	-11.636
▁Pembunuhan	-11.6363
mid	-11.6365
1986	-11.6365
▁Christ	-11.6368
yal	-11.637
▁Corp	-11.6372
bapa	-11.6378
▁Jem	-11.6379
▁pemancar	-11.6379
▁Juru	-11.638
▁form	-11.6382
▁dikunjungi	-11.6384
▁Secret	-11.6389
▁Nah	-11.6391
Ver	-11.6392
artis	-11.6393
uck	-11.6393
▁ditaja	-11.6394
gap	-11.6394
▁63%	-11.6396
▁memba	-11.6402
▁selang	-11.6406
▁Asid	-11.6408
3,000	-11.6408
▁Massachusetts	-11.641
▁wawancara	-11.641
▁Kehadiran	-11.641
▁Mercedes	-11.641
▁Tay	-11.6412
erti	-11.6413
▁berlayar	-11.6413
▁penyumbang	-11.6413
▁mandat	-11.6413
▁Palace	-11.6414
nge	-11.6416
▁Zaid	-11.6419
LC	-11.6422
tho	-11.6422
▁Alue	-11.6422
KO	-11.6423
▁bicara	-11.6424
haf	-11.6424
dangan	-11.6425
bani	-11.6429
ilah	-11.6429
▁Kamen	-11.643
▁impian	-11.643
BI	-11.6431
▁Toh	-11.6432
▁design	-11.6432
▁stor	-11.6435
7000	-11.6436
▁Graubunden	-11.6437
▁Kelompok	-11.6437
▁signifikan	-11.6437
▁melengkung	-11.6437
▁Kelawar	-11.6437
▁dipastikan	-11.6437
▁ekosistem	-11.6437
lec	-11.6437
▁Kartika	-11.6437
cro	-11.6439
▁amatur	-11.644
▁penindasan	-11.6441
▁Segala	-11.6442
▁mengalihkan	-11.6443
▁1897	-11.6444
cau	-11.6446
ars	-11.6448
▁jambu	-11.645
▁Hamas	-11.6451
▁subsidi	-11.6452
haru	-11.6452
▁Yuna	-11.6453
▁dibincangkan	-11.6458
▁Bridge	-11.6462
gger	-11.6463
▁hancur	-11.6463
▁Kesusasteraan	-11.6463
▁mengabaikan	-11.6463
▁pengepungan	-11.6463
▁Koleksi	-11.6464
▁large	-11.6464
▁Tasek	-11.6465
▁Hajji	-11.6466
▁Mersing	-11.6466
▁Bima	-11.6467
ndar	-11.6469
▁1899	-11.6472
Yang	-11.6473
CI	-11.6474
▁Jah	-11.6475
cation	-11.6475
dz	-11.6477
urus	-11.6479
▁Qo	-11.6479
▁known	-11.648
▁Liar	-11.6481
▁hiper	-11.6486
▁paksa	-11.6489
▁Spring	-11.649
▁mengusahakan	-11.649
▁Tolombeh	-11.649
▁menjelajah	-11.6491
▁Pertuanan	-11.6493
idah	-11.6494
inae	-11.6495
kurang	-11.6495
▁Machang	-11.6497
▁later	-11.6499
mori	-11.6503
▁off	-11.6503
▁Highlands	-11.6506
▁tiri	-11.6508
tern	-11.6509
▁katanya	-11.6512
PB	-11.6514
▁1976,	-11.6514
▁transmisi	-11.6517
▁berpegang	-11.6517
yeong	-11.652
▁Baz	-11.6521
▁Huang	-11.6521
▁seluar	-11.6522
▁pengedar	-11.6526
stin	-11.6527
▁Dum	-11.6527
▁Lahad	-11.6527
1989	-11.6528
▁Balkan	-11.6531
▁like	-11.6532
▁Nicholas	-11.6533
▁Reg	-11.6537
spek	-11.6538
▁IP	-11.6539
▁memori	-11.6542
▁jangkaan	-11.6543
▁Cordoba	-11.6544
▁Inggris	-11.6544
▁Memorial	-11.6544
▁berbincang	-11.6544
▁mengasingkan	-11.6544
▁menyimpulkan	-11.6544
▁kelopak	-11.6544
▁Borsod	-11.6544
▁pertembungan	-11.6544
Abauj	-11.6544
▁berskala	-11.6544
misi	-11.6548
▁Jab	-11.6549
maru	-11.6549
▁Og	-11.6552
FI	-11.6552
Grand	-11.6555
▁Rumi	-11.6555
▁Chapelle	-11.6557
▁tata	-11.6558
▁Torre	-11.6559
erang	-11.6561
▁Let	-11.6562
▁arak	-11.6562
▁kamus	-11.6562
▁1957,	-11.6567
▁Mengisahkan	-11.6571
▁Penemuan	-11.6571
▁fakulti	-11.6571
▁pernikahan	-11.6571
▁Butterworth	-11.6571
▁Nobunaga	-11.6571
▁jirim	-11.6571
▁Nievre	-11.6571
▁million	-11.6571
▁Pengundi	-11.6572
▁Online	-11.6572
▁estetik	-11.6572
▁Penduduknya	-11.6573
▁petikan	-11.6573
▁rugi	-11.6573
▁Sepuluh	-11.6573
▁pengajiannya	-11.6575
▁Vit	-11.6576
▁angkasawan	-11.6576
▁Arau	-11.6577
▁ditandai	-11.658
▁input	-11.6581
ikal	-11.6581
▁Nash	-11.6581
▁botol	-11.6582
▁membantunya	-11.6582
LP	-11.6582
▁Hawa	-11.6586
▁107	-11.6587
euil	-11.6589
kn	-11.659
▁Kebon	-11.6592
▁128	-11.6594
▁Reich	-11.6596
▁Bt	-11.6598
▁dipertimbangkan	-11.6598
▁pengambilalihan	-11.6598
▁perspektif	-11.6598
▁Letupan	-11.6598
▁Friedrich	-11.6598
▁Habsburg	-11.6598
▁efektif	-11.6598
▁kipas	-11.6598
▁menghina	-11.6598
▁peledak	-11.6598
▁Haf	-11.6599
▁melekat	-11.6599
▁Choi	-11.66
▁berabad	-11.6602
▁Copa	-11.6602
▁Lawak	-11.6604
▁Horn	-11.6605
▁detik	-11.6605
jai	-11.6605
▁Aminah	-11.6606
▁Macedonia	-11.6609
▁Holmes	-11.661
vent	-11.661
ngkan	-11.6612
▁Systems	-11.6612
▁gelar	-11.6615
mac	-11.6615
▁ketam	-11.6615
▁ATM	-11.6616
▁dramatik	-11.6616
gaon	-11.6617
▁kebanyakkan	-11.6618
▁Azizah	-11.6618
▁gu	-11.6621
1,000	-11.6624
▁pertimbangan	-11.6625
▁dakwat	-11.6625
▁kemarau	-11.6625
▁Telugu	-11.6625
▁tembakau	-11.6625
▁Aisyah	-11.6625
▁bercangkerang	-11.6626
▁membawakan	-11.6628
vern	-11.6628
▁kanji	-11.6629
▁114	-11.6631
▁both	-11.6632
Savoie	-11.6633
▁jus	-11.6635
▁Jel	-11.6635
indah	-11.6636
riya	-11.6637
It	-11.6637
uki	-11.6638
▁Agam	-11.6641
▁ce	-11.6643
gaya	-11.6644
▁Adik	-11.6644
rell	-11.6648
bari	-11.6649
▁pengertian	-11.6652
▁Makassar	-11.6652
▁Mufti	-11.6652
▁perikanan	-11.6652
▁Kawasaki	-11.6652
▁Grammy	-11.6652
▁Animation	-11.6653
OL	-11.666
VE	-11.6662
rand	-11.6662
▁Wali	-11.6662
borg	-11.6663
6000	-11.6664
▁bakau	-11.6665
▁Kembali	-11.6665
▁bak	-11.6666
Super	-11.6667
dus	-11.6668
▁diskriminasi	-11.6669
▁unta	-11.6672
▁Flor	-11.6673
wei	-11.6675
▁kelak	-11.6677
sign	-11.6678
puluh	-11.6678
▁pelopor	-11.6679
▁pampasan	-11.668
▁terhebat	-11.668
▁Market	-11.668
▁modul	-11.668
eve	-11.668
▁halaju	-11.668
ree	-11.6681
▁Maut	-11.6681
▁parasit	-11.6681
▁akta	-11.6685
osfera	-11.6686
▁Kembar	-11.6688
▁jentera	-11.6688
Mel	-11.6688
puh	-11.6689
▁Gum	-11.669
mph	-11.6691
wl	-11.6691
▁Pes	-11.6691
MT	-11.6693
rub	-11.6697
▁Final	-11.67
▁KTM	-11.6703
▁Apollo	-11.6703
▁After	-11.6704
▁Hills	-11.6704
Azhar	-11.6704
▁second	-11.6704
▁Languedoc	-11.6707
▁Penampilan	-11.6707
▁Perayaan	-11.6707
bekas	-11.6708
▁perikatan	-11.6708
▁kulat	-11.6708
▁berkawan	-11.6713
▁pengukuran	-11.6713
mekar	-11.6714
IF	-11.6718
▁mengejut	-11.672
ington	-11.672
▁Hee	-11.672
sungai	-11.6721
eman	-11.6724
NI	-11.6725
CD	-11.6728
▁serasi	-11.6732
▁Constantinople	-11.6734
▁Thompson	-11.6734
▁Arshad	-11.6734
▁edaran	-11.6735
lect	-11.6736
▁bermuncul	-11.6736
▁satah	-11.6737
god	-11.6738
Chi	-11.6739
▁Baby	-11.6741
▁Dj	-11.6741
rau	-11.6741
Dan	-11.6743
▁death	-11.6743
▁Tulisan	-11.6743
▁Baki	-11.6745
peraturan	-11.6745
Akta	-11.6746
▁Tetap	-11.6748
real	-11.6749
▁komoditi	-11.6752
boy	-11.6752
Drama	-11.6753
zat	-11.6753
▁Ach	-11.6758
▁Zen	-11.6759
jas	-11.676
Roussillon	-11.6762
▁Fantasy	-11.6762
▁Salvador	-11.6762
▁kehamilan	-11.6762
▁melemahkan	-11.6762
▁disedari	-11.6762
▁lilin	-11.6764
▁tugasnya	-11.6764
▁Dubai	-11.6765
▁bercirikan	-11.6766
▁AT	-11.6767
idea	-11.6768
▁Take	-11.6768
ked	-11.6772
▁Fun	-11.6772
▁Get	-11.6775
FL	-11.6778
NYA	-11.678
▁Kotawaringin	-11.6789
▁Tokugawa	-11.6789
▁mengawasi	-11.6789
▁diimport	-11.6789
▁Pati	-11.679
▁Rafael	-11.6791
▁Kemudiannya	-11.6791
▁Pilihanraya	-11.6791
royong	-11.6793
PH	-11.6795
▁Henri	-11.6797
▁MBC	-11.6799
jol	-11.6799
▁Hatta	-11.68
▁Kategori	-11.6801
Melayu	-11.6802
▁Dead	-11.6802
tentera	-11.6802
ope	-11.6803
ppe	-11.6804
sma	-11.6806
vr	-11.681
nitz	-11.6812
▁Ilam	-11.6812
▁kekadang	-11.6812
ndo	-11.6813
▁Khu	-11.6813
dere	-11.6813
▁Bos	-11.6814
▁Shima	-11.6814
▁Mesin	-11.6814
▁Epi	-11.6814
vir	-11.6815
▁Marche	-11.6815
▁Moore	-11.6816
▁UN	-11.6817
Zemplen	-11.6817
▁Abruzzo	-11.6817
▁ditampilkan	-11.6817
▁Fribourg	-11.6817
▁Ramakrishna	-11.6817
▁Athens	-11.6817
mond	-11.6817
▁1975,	-11.6818
Ex	-11.6818
▁katil	-11.6818
▁Puisi	-11.6819
▁Kampar	-11.682
siar	-11.682
ndr	-11.6821
Ali	-11.6822
ulat	-11.6823
▁kena	-11.6824
▁Ig	-11.6828
▁memanjang	-11.683
▁Mitsubishi	-11.683
majlis	-11.683
DAP	-11.6831
▁basah	-11.6832
▁ketumpatan	-11.6834
▁108	-11.6834
▁katalog	-11.6835
lier	-11.6836
tih	-11.6836
alisme	-11.6837
tingkat	-11.6839
▁syarikatnya	-11.6841
▁Luther	-11.6841
▁Juli	-11.6841
gari	-11.6841
▁Mos	-11.6841
▁Sed	-11.6842
▁Gla	-11.6843
dow	-11.6844
▁Management	-11.6844
▁Ontario	-11.6844
▁Paraguay	-11.6844
▁Srivijaya	-11.6844
▁slogan	-11.6845
▁Harvard	-11.6845
▁ngeri	-11.6845
▁hop	-11.6847
pari	-11.6847
▁jujukan	-11.6848
▁ditambahkan	-11.6849
ying	-11.6851
NO	-11.6855
▁Special	-11.6856
▁39%	-11.6857
nnya	-11.6857
tice	-11.6858
MAS	-11.6859
spesies	-11.6859
▁155	-11.686
▁rawak	-11.6861
▁team	-11.6862
operasi	-11.6863
cum	-11.6864
Sabah	-11.6864
▁Artik	-11.6865
Bal	-11.6867
▁lara	-11.6868
▁jo	-11.6869
▁Business	-11.6871
▁tong	-11.6871
HA	-11.6871
olok	-11.6872
▁Electric	-11.6872
▁Newcastle	-11.6872
▁pungutan	-11.6872
▁kesejahteraan	-11.6872
▁ranking	-11.6872
▁badak	-11.6873
kek	-11.6875
▁Lela	-11.6875
▁atasan	-11.6878
ym	-11.6879
▁Oman	-11.6879
▁Tojo	-11.6879
▁1885	-11.6882
▁berlanjutan	-11.6883
inci	-11.6883
▁CH	-11.6885
▁Insan	-11.6886
▁Pod	-11.6887
▁Ot	-11.6892
▁Mungkin	-11.6893
titik	-11.6899
▁Istiadat	-11.69
▁Palermo	-11.69
▁Tottenham	-11.69
▁Uchiha	-11.69
▁bertolak	-11.69
▁Pengarang	-11.6901
▁tongkat	-11.6901
▁idola	-11.6901
▁premis	-11.6901
▁HIV	-11.6902
▁Lumut	-11.6903
▁merekodkan	-11.6903
▁Pend	-11.6909
▁Papar	-11.6914
▁qu	-11.6914
▁negaranya	-11.6914
▁Mickey	-11.6915
▁Ey	-11.6918
▁Savoie	-11.692
▁back	-11.692
Ben	-11.692
puram	-11.6921
1992	-11.6921
tay	-11.6922
▁tambang	-11.6922
▁pendaki	-11.6924
oksida	-11.6925
▁Loji	-11.6925
▁1962,	-11.6926
wad	-11.6926
▁sat	-11.6926
nc	-11.6927
▁Guadalajara	-11.6928
▁Menerusi	-11.6928
▁dikelirukan	-11.6928
▁mendiang	-11.6928
▁lesbian	-11.6928
▁terlaris	-11.6928
▁diwajibkan	-11.6928
▁dielakkan	-11.6928
▁ab	-11.6928
▁lembangan	-11.6928
▁Narnia	-11.6929
▁belanjawan	-11.6929
leng	-11.6929
gate	-11.693
▁ju	-11.6931
▁Seseorang	-11.6931
▁Ayahnya	-11.6932
▁Unsur	-11.6933
▁Bid	-11.6934
DF	-11.6935
▁SMP	-11.6936
▁Pangkat	-11.6937
▁dibangun	-11.6937
▁1500	-11.6939
▁rakyatnya	-11.6941
lyn	-11.6942
▁MiG	-11.6943
besar	-11.6943
▁Murad	-11.6944
BB	-11.6945
els	-11.6946
teng	-11.6946
tetapi	-11.6949
▁hendap	-11.6951
oso	-11.6954
▁arca	-11.6955
▁Ruang	-11.6956
▁Tsanawiyah	-11.6956
▁kerelatifan	-11.6956
▁kosmetik	-11.6956
▁Santiago	-11.6956
▁ujibakat	-11.6956
▁umbi	-11.6958
▁Stalin	-11.6958
▁maklum	-11.6961
▁Husin	-11.6963
▁menekan	-11.6963
gali	-11.6964
▁diundi	-11.6964
▁tangkapan	-11.6966
lari	-11.6969
▁Nag	-11.6972
lir	-11.6974
▁Dark	-11.6975
▁keter	-11.6978
▁Dub	-11.6978
dewi	-11.6979
▁instrumen	-11.6979
hidup	-11.6981
▁Slim	-11.6982
▁penghibur	-11.6984
mempertimbangkan	-11.6984
▁teguh	-11.6984
▁Anatolia	-11.6984
▁Nagoya	-11.6984
▁kemasyhuran	-11.6984
▁dikreditkan	-11.6984
▁perselisihan	-11.6984
▁Nanoha	-11.6984
▁Magic	-11.6984
▁spesifikasi	-11.6985
▁dimulai	-11.6986
hiro	-11.6988
▁nasionalisme	-11.6989
▁Murung	-11.699
dit	-11.6992
▁Benua	-11.6993
vit	-11.6999
▁butir	-11.7
▁Warga	-11.7004
▁Pom	-11.7004
▁beta	-11.7005
▁Bumbu	-11.7006
▁TVB	-11.7007
▁Station	-11.7009
▁Seo	-11.7009
▁pl	-11.7009
▁Zala	-11.701
▁Thor	-11.7011
▁Esperanto	-11.7012
▁Hermione	-11.7012
▁pengasingan	-11.7012
▁Kesenian	-11.7012
zarah	-11.7012
▁Amb	-11.7013
▁dsb	-11.7013
▁Isaac	-11.7015
▁sezaman	-11.7017
▁Harga	-11.7017
▁IBM	-11.702
▁Awan	-11.702
▁135	-11.7024
▁ubah	-11.7024
▁mam	-11.7024
▁high	-11.7028
▁usahanya	-11.7028
▁Moto	-11.7031
▁sabit	-11.7031
▁Penguasa	-11.7032
▁Yasu	-11.7033
▁Shen	-11.7034
taw	-11.7034
▁iTunes	-11.7041
▁memancing	-11.7041
▁Rembau	-11.7041
▁isipadu	-11.7041
▁Sleman	-11.7041
▁anggur	-11.7041
▁against	-11.7041
lands	-11.7042
▁Emmy	-11.7042
▁Baron	-11.7043
SR	-11.7044
lindung	-11.7047
hib	-11.705
macam	-11.705
uth	-11.705
▁erat	-11.7051
ril	-11.7051
▁Not	-11.7052
bukti	-11.7053
dic	-11.7055
▁1966,	-11.7056
daran	-11.7059
gues	-11.7062
▁Gustav	-11.7062
rh	-11.7064
▁Ibni	-11.7065
▁Huda	-11.7066
▁kerak	-11.7068
▁memfailkan	-11.7069
▁menyuarakan	-11.7069
▁mengutuk	-11.7069
▁Huruf	-11.7069
▁melabur	-11.707
virus	-11.707
16,	-11.707
Allah	-11.707
wil	-11.7072
ffer	-11.7073
▁kontraktor	-11.7074
jel	-11.7076
▁Yoo	-11.7077
DC	-11.7078
▁Urusan	-11.7078
▁menjejak	-11.708
▁Bangi	-11.708
zawa	-11.7081
▁64%	-11.7081
tit	-11.7082
▁Malaka	-11.7084
▁individual	-11.7085
▁line	-11.7087
▁Kudat	-11.7087
▁berunsur	-11.7087
▁Cinema	-11.7095
▁Ner	-11.7095
▁Bolivia	-11.7097
▁Faisal	-11.7097
▁merasmikan	-11.7097
▁while	-11.7097
▁kedutaan	-11.7097
▁antropologi	-11.7097
▁Protokol	-11.7097
▁Rakaman	-11.7098
▁mendatar	-11.7098
▁Razali	-11.7098
▁Hidangan	-11.7098
▁Peningkat	-11.7098
▁berbeda	-11.7098
▁Vista	-11.7099
▁Sound	-11.7101
▁Pernah	-11.7101
▁diam	-11.7103
▁taktikal	-11.7104
▁Kids	-11.7105
▁Indi	-11.711
▁Rosa	-11.711
produk	-11.7112
chel	-11.7115
misalnya	-11.7118
zal	-11.7119
▁saiznya	-11.7119
▁memanggilnya	-11.7119
kou	-11.7121
▁Bed	-11.7121
▁Bahkan	-11.7122
▁ST	-11.7123
warni	-11.7125
▁Bintulu	-11.7126
▁platinum	-11.7126
▁graduan	-11.7126
▁Habsyah	-11.7126
▁Trencin	-11.7126
▁Vendee	-11.7126
▁pahit	-11.7126
▁menyerbu	-11.7126
▁Keris	-11.7126
PJ	-11.7127
▁Mele	-11.7127
▁Rais	-11.7127
SU	-11.7128
▁Family	-11.7128
▁disebarkan	-11.7129
▁mengawan	-11.713
▁Lei	-11.7134
▁meny	-11.7135
itis	-11.7137
▁Sahara	-11.7137
lav	-11.7137
bey	-11.7138
▁Chiang	-11.7139
dem	-11.7141
▁1944,	-11.7142
▁Pul	-11.7143
▁Pic	-11.7145
▁153	-11.7145
▁Congo	-11.7145
saudara	-11.7146
Sultan	-11.7147
▁hubungannya	-11.7149
▁Fang	-11.7151
▁lencana	-11.7154
▁Navarre	-11.7154
▁bajet	-11.7155
▁Harbour	-11.7155
▁dihidupkan	-11.7155
▁Petersburg	-11.7155
▁Golestan	-11.7155
▁pelumba	-11.7155
▁terhenti	-11.7156
▁Lirik	-11.7157
▁115	-11.7158
▁1980,	-11.7159
▁permit	-11.7159
rkan	-11.7161
▁penggantinya	-11.7162
▁Ei	-11.7162
▁FT	-11.7164
inter	-11.7165
poh	-11.7166
▁banyaknya	-11.7169
▁Four	-11.717
▁Mart	-11.7175
ggi	-11.7177
omo	-11.7178
Mac	-11.7181
▁elektromagnet	-11.7181
▁Minh	-11.7181
▁Church	-11.7183
▁Mesopotamia	-11.7183
▁menerajui	-11.7183
▁dimakamkan	-11.7183
▁tinjauan	-11.7183
▁Semarang	-11.7183
▁Pearl	-11.7183
▁berkomunikasi	-11.7184
▁Republikan	-11.7185
▁pembinasa	-11.7185
▁Mizan	-11.7186
▁Sektor	-11.7186
mukti	-11.7189
bik	-11.7195
▁Lepas	-11.7197
▁Ami	-11.7198
▁dipasangkan	-11.7205
▁hakikat	-11.7208
▁YAB	-11.7208
▁Andy	-11.7208
▁kakinya	-11.7209
▁UPSR	-11.721
▁Orange	-11.721
anne	-11.7211
▁Malaikat	-11.7212
▁Tappeh	-11.7212
▁rumpun	-11.7212
▁progresif	-11.7212
▁membenci	-11.7212
▁digerakkan	-11.7212
▁op	-11.7213
▁Rajasthan	-11.7213
▁Tunggal	-11.7213
▁Lal	-11.7214
▁lulusan	-11.7217
leu	-11.722
▁cha	-11.7222
musuh	-11.7222
taro	-11.7224
▁total	-11.7225
▁Muko	-11.7226
▁galian	-11.7226
▁Kek	-11.7229
▁Aiman	-11.7234
▁diplomat	-11.7235
tation	-11.7235
▁Tali	-11.7237
▁1964,	-11.7237
▁kafe	-11.7238
▁Perlumbaan	-11.7241
▁century	-11.7241
▁Trnava	-11.7241
▁prasarana	-11.7241
▁Komander	-11.7241
▁Russell	-11.7241
▁Donggala	-11.7241
▁Perkasa	-11.7241
zak	-11.7241
▁pautan	-11.7241
▁profil	-11.7241
▁beracun	-11.7241
▁kanta	-11.7243
▁agenda	-11.7244
▁hipotesis	-11.7245
▁1894	-11.7249
▁Office	-11.7249
Dr	-11.725
thing	-11.7253
▁Assam	-11.7257
▁rejimen	-11.7258
▁ceramah	-11.7258
▁menangis	-11.7263
▁Simpan	-11.7264
Perancis	-11.7265
▁seribu	-11.7265
ester	-11.7265
pie	-11.7266
▁Einstein	-11.7267
wall	-11.7267
▁kekunci	-11.7268
▁bangun	-11.7268
▁Broadway	-11.727
▁pembuangan	-11.727
▁Eurasia	-11.727
▁kebetulan	-11.727
atom	-11.727
pik	-11.7271
▁rubah	-11.7271
▁mengucapkan	-11.7272
▁luncur	-11.7272
▁bijirin	-11.7273
▁Button	-11.7273
sac	-11.7274
zad	-11.7276
iam	-11.7276
chem	-11.7277
iro	-11.7278
▁Castro	-11.7279
▁1867	-11.7279
▁rentak	-11.7283
lica	-11.7288
▁lapang	-11.729
thal	-11.7295
▁Bok	-11.7296
▁Rita	-11.7298
▁Zack	-11.7298
▁mementingkan	-11.7298
▁hollow	-11.7298
▁Demokrasi	-11.7298
▁Tuscany	-11.7298
▁teleskop	-11.7299
▁Pengaruh	-11.7299
gua	-11.7299
▁pasif	-11.7299
imbang	-11.73
wai	-11.73
▁Lorong	-11.7301
▁lipur	-11.7301
▁GP	-11.7303
▁Rompin	-11.7304
▁menakluki	-11.7304
▁Skrin	-11.7305
▁penipuan	-11.7305
▁Lipis	-11.7305
▁Litar	-11.7308
▁Ekoran	-11.731
tional	-11.7311
▁Murai	-11.7312
PAS	-11.7312
▁doa	-11.7312
mber	-11.7313
▁Kerian	-11.7316
buh	-11.7322
▁Nanga	-11.7322
yli	-11.7323
▁Beli	-11.7325
▁Canberra	-11.7328
▁knot	-11.7328
▁Kerabat	-11.7329
▁kabur	-11.7329
▁75%	-11.7329
▁berbayar	-11.733
▁Delta	-11.7331
▁menggelar	-11.7332
▁Mail	-11.7332
pakah	-11.7335
▁Gali	-11.7335
uro	-11.7337
lamanya	-11.7337
▁Vil	-11.7338
Haj	-11.7338
▁dilukis	-11.7339
pho	-11.7339
▁Sentul	-11.734
henti	-11.734
▁Call	-11.7343
▁ISA	-11.7344
▁Laura	-11.7346
▁berte	-11.7348
▁place	-11.735
kro	-11.735
▁Seven	-11.7351
NE	-11.7351
▁ayahanda	-11.7352
reg	-11.7354
Charente	-11.7354
▁Agra	-11.7354
als	-11.7356
▁Meunasah	-11.7357
▁Toledo	-11.7357
iers	-11.7358
▁world	-11.736
▁Bajau	-11.7363
alih	-11.7363
▁Key	-11.7363
▁Sila	-11.7364
tali	-11.7364
▁my	-11.7364
▁Guar	-11.7365
▁If	-11.7366
▁pengesanan	-11.7367
▁Zhi	-11.737
▁Nau	-11.7371
▁Sus	-11.7375
dale	-11.7375
▁Dani	-11.7377
UK	-11.7378
▁berkurang	-11.738
▁kekasihnya	-11.7384
PU	-11.7384
Kampung	-11.7384
penulis	-11.7384
▁Komun	-11.7385
▁Sebatian	-11.7386
▁bercanggah	-11.7386
▁mengecam	-11.7386
▁Cadangan	-11.7387
▁Koperasi	-11.7389
▁Asam	-11.7389
rier	-11.7391
UP	-11.7392
▁berdoa	-11.7394
she	-11.7395
▁membuatnya	-11.7395
Jalan	-11.7395
▁Berjaya	-11.7396
▁berlawanan	-11.7396
▁abadi	-11.7401
▁setem	-11.7404
EX	-11.7404
obi	-11.7405
imp	-11.7407
▁Kav	-11.7409
▁Fame	-11.7411
▁Sebab	-11.7411
puri	-11.7413
▁Trek	-11.7413
▁Tala	-11.7413
▁penembak	-11.7414
▁dikuatkuasakan	-11.7415
▁menakjubkan	-11.7415
▁menganugerahkan	-11.7415
▁muslim	-11.7415
▁longgar	-11.7416
▁pengangguran	-11.7419
mukim	-11.742
poli	-11.7423
▁Nico	-11.7423
▁Asagi	-11.7423
table	-11.7423
Air	-11.7424
meri	-11.7424
▁selera	-11.7425
▁mon	-11.7428
▁Silver	-11.7428
guk	-11.7429
eer	-11.743
kedua	-11.7431
unda	-11.7431
▁1848	-11.7431
▁Bungo	-11.7432
zhou	-11.7433
▁Phil	-11.7434
jari	-11.7434
curi	-11.7436
▁Slav	-11.7438
▁Sesi	-11.7438
▁$2	-11.7438
▁Kris	-11.7441
veral	-11.7441
bawa	-11.7444
muka	-11.7444
▁Research	-11.7445
▁kerohanian	-11.7445
▁nukilan	-11.7445
▁Moro	-11.7445
▁Bale	-11.7449
▁pencegahan	-11.7449
fly	-11.745
▁Agh	-11.745
▁65%	-11.7451
ED	-11.7452
ique	-11.7454
▁Owen	-11.7455
9,000	-11.7456
▁biarpu	-11.7456
▁Rafi	-11.746
▁Dara	-11.7461
▁Tuaran	-11.7466
▁Sato	-11.7466
oran	-11.7467
ghan	-11.7467
▁suaranya	-11.7468
cup	-11.7468
▁siber	-11.7468
ikh	-11.7469
pani	-11.7473
▁Asy	-11.7474
▁Nal	-11.7474
▁Ekspedisi	-11.7474
▁karakter	-11.7474
▁pemangku	-11.7474
▁could	-11.7474
▁penerangan	-11.7474
▁ditentang	-11.7474
DE	-11.7475
▁Broadcasting	-11.7475
▁menganut	-11.7475
Black	-11.7476
▁Comp	-11.7476
▁pengusaha	-11.7477
▁Vale	-11.7478
▁ilham	-11.7481
▁sami	-11.7481
▁memerhatikan	-11.7483
▁fr	-11.7484
▁Ris	-11.7486
▁Perancangan	-11.7486
RP	-11.7489
▁Pap	-11.7489
▁punya	-11.7489
▁Cle	-11.7489
▁Bei	-11.7493
▁bawa	-11.7494
▁Bara	-11.7497
kuda	-11.7497
▁imun	-11.7497
▁Taba	-11.7499
▁Setahun	-11.7499
yur	-11.75
▁Rasa	-11.7503
▁cemburu	-11.7504
▁menyenangkan	-11.7504
▁rizab	-11.7504
▁menyamai	-11.7504
▁port	-11.7504
▁menyelia	-11.7505
UMNO	-11.7505
▁Museum	-11.7505
PC	-11.7505
▁Terakhir	-11.7505
▁pewarna	-11.7506
▁injap	-11.7506
▁online	-11.7507
China	-11.7507
▁KM	-11.7509
110	-11.7511
▁Larut	-11.7511
meh	-11.7518
▁Rig	-11.7518
▁Virgin	-11.752
fla	-11.7521
wing	-11.7522
udara	-11.7524
lom	-11.7526
tahan	-11.7526
ktor	-11.7531
▁Sports	-11.7532
▁Madara	-11.7532
▁penyelamat	-11.7532
hani	-11.7533
▁200,000	-11.7533
▁spesifik	-11.7533
▁menyempurnakan	-11.7533
▁merangsang	-11.7533
▁memupuk	-11.7533
▁koperasi	-11.7534
▁fitnah	-11.7535
▁tenis	-11.7535
his	-11.7536
ement	-11.7536
▁jati	-11.7536
ente	-11.7537
▁post	-11.7537
▁Daging	-11.7537
seluruh	-11.7538
▁PRU	-11.7539
ments	-11.754
▁digit	-11.754
wali	-11.754
▁Rica	-11.7542
barat	-11.7542
▁power	-11.7543
▁kalium	-11.7544
▁1949,	-11.7545
▁Syarif	-11.7545
American	-11.7546
▁Sher	-11.7546
dell	-11.755
▁Alpes	-11.7554
▁diadaptasikan	-11.7554
VA	-11.7555
ode	-11.7556
▁tro	-11.7557
gs	-11.7561
▁sendi	-11.7562
▁Lopez	-11.7563
▁cendawan	-11.7563
▁disasarkan	-11.7563
▁pemecatan	-11.7563
▁Multimedia	-11.7563
▁dihoskan	-11.7563
▁nebula	-11.7564
▁bermotor	-11.7565
▁selagi	-11.7567
▁Kate	-11.757
▁Pay	-11.7574
▁Boon	-11.7574
▁1977,	-11.7576
NC	-11.7576
▁SEA	-11.7578
ogo	-11.758
pek	-11.7584
▁Mene	-11.7588
nation	-11.7589
KA	-11.7589
▁boneka	-11.7593
▁Uskup	-11.7593
▁Ticino	-11.7593
▁Banjir	-11.7594
▁Sierra	-11.7594
▁tergantung	-11.7594
mulanya	-11.7594
▁called	-11.7594
▁berjangkit	-11.7595
▁terbalik	-11.7596
▁Tingkat	-11.7596
▁350	-11.7597
▁Saman	-11.7601
▁Peta	-11.7601
ieres	-11.7605
▁operasinya	-11.7605
▁Ryo	-11.7607
▁Fla	-11.7607
▁Cao	-11.7608
▁Bungku	-11.7609
▁CONCACAF	-11.7609
▁Mae	-11.7611
▁Mann	-11.7611
▁FAM	-11.7613
llah	-11.7615
▁durian	-11.7616
▁Shahr	-11.7617
▁Pel	-11.7619
iden	-11.762
▁state	-11.762
▁pemusnah	-11.7622
▁Kehakiman	-11.7623
▁Nickelodeon	-11.7623
▁piramid	-11.7623
▁propaganda	-11.7623
▁tembikar	-11.7623
▁Kandungan	-11.7623
▁Teras	-11.7623
▁radioaktif	-11.7624
▁dihadkan	-11.7624
water	-11.7624
▁sunat	-11.7625
mie	-11.7626
General	-11.7627
▁Shar	-11.7627
▁Marina	-11.7628
▁Gudang	-11.7629
▁terlindung	-11.7631
▁simbolik	-11.7632
▁membolehkannya	-11.7633
MG	-11.7633
▁denda	-11.7633
4,000	-11.7635
anjing	-11.7638
▁Udang	-11.764
▁gun	-11.764
▁leg	-11.7641
▁urus	-11.7642
gerakan	-11.7643
cub	-11.7644
TH	-11.7645
▁Robin	-11.7646
▁lepasan	-11.7646
rar	-11.7647
▁Maru	-11.7647
▁Sr	-11.7649
enampilkan	-11.7653
ove	-11.7653
▁Merlimau	-11.7653
▁penyandang	-11.7653
▁pangsapuri	-11.7653
▁dipukul	-11.7653
▁Merbau	-11.7654
▁Stanley	-11.7654
▁Nizam	-11.7656
RAM	-11.7657
▁Kariah	-11.7659
▁mengedarkan	-11.766
▁balak	-11.7662
▁Langit	-11.7662
▁common	-11.7663
nyi	-11.7665
▁Asing	-11.7666
▁tepu	-11.7668
bio	-11.7669
▁cor	-11.7669
▁Alma	-11.7671
▁12,000	-11.7674
▁1959,	-11.7674
▁fl	-11.7678
▁9%	-11.768
Bri	-11.768
▁pelajarannya	-11.768
isse	-11.768
▁fu	-11.7681
▁bawahan	-11.7682
▁Straits	-11.7683
▁Cempaka	-11.7683
▁Konoha	-11.7683
▁Singkil	-11.7684
▁adunan	-11.7684
▁diusir	-11.7684
include	-11.7684
▁bersembunyi	-11.7685
▁Balangan	-11.7685
▁Sabak	-11.7686
▁Nuh	-11.7686
▁Sto	-11.7687
▁Ket	-11.7687
▁dipertingkatkan	-11.7688
▁Wor	-11.769
ugh	-11.769
rz	-11.7691
▁1889	-11.7692
▁Dag	-11.7692
▁Malta	-11.7693
vre	-11.7695
▁30%	-11.7698
▁Spa	-11.7699
▁Hock	-11.77
▁muziknya	-11.7701
▁1840	-11.7703
▁Remy	-11.7706
UD	-11.7706
▁TUDM	-11.7708
▁membesarkan	-11.7712
▁Illinois	-11.7713
▁perbadanan	-11.7713
▁Cyrus	-11.7714
▁bedah	-11.7716
▁subbandar	-11.7718
▁Rid	-11.7719
192	-11.7719
grad	-11.772
▁past	-11.7721
▁Terap	-11.7723
▁home	-11.7724
▁Generasi	-11.7729
▁Fir	-11.773
▁Kurau	-11.7731
Sen	-11.7731
▁naskhah	-11.7732
Anak	-11.7735
▁Cai	-11.7737
4000	-11.7741
▁aturcara	-11.7743
▁biasiswa	-11.7744
▁diangkut	-11.7744
▁melodi	-11.7744
▁Jamaica	-11.7744
▁Sos	-11.7744
▁melewati	-11.7744
▁Solomon	-11.7744
▁diukir	-11.7744
▁rapi	-11.7744
▁terlatih	-11.7745
▁265	-11.7746
▁1946,	-11.7747
▁ne	-11.7749
▁USD	-11.7749
▁haluan	-11.775
jutsu	-11.775
lk	-11.7751
▁permata	-11.7752
semua	-11.7753
kari	-11.7753
▁Hos	-11.7754
▁Trade	-11.7754
▁1888	-11.7755
▁Lucy	-11.7758
▁Yuk	-11.7758
▁box	-11.7759
▁131	-11.7763
▁18%	-11.7764
▁Lum	-11.7766
tama	-11.7767
▁kelihatannya	-11.7767
spect	-11.7769
rejo	-11.777
KT	-11.777
8,000	-11.7772
OK	-11.7774
▁Alfonso	-11.7774
▁perhentian	-11.7774
▁dongeng	-11.7774
▁1961,	-11.7774
became	-11.7775
▁giliran	-11.7775
▁awalan	-11.7775
▁Iberia	-11.7776
▁Brod	-11.7776
▁Panda	-11.7776
▁disajikan	-11.7778
▁Neg	-11.7779
▁simetri	-11.7782
reng	-11.7782
selepas	-11.7784
▁1893	-11.7785
▁Shahrak	-11.7786
▁Tomo	-11.7787
▁Malang	-11.7789
▁Cir	-11.7791
▁pembeli	-11.7791
▁Pentas	-11.7792
JK	-11.7793
▁Cast	-11.7794
▁Anggun	-11.7795
▁Johann	-11.7796
▁Ayah	-11.7799
tics	-11.78
Mon	-11.78
▁Kei	-11.7801
ringan	-11.7804
▁Ching	-11.7804
▁klorida	-11.7805
▁protagonis	-11.7805
▁lucu	-11.7806
▁bersumpah	-11.7806
▁Seluma	-11.7806
▁Pontianak	-11.7808
▁menanggung	-11.7808
▁Two	-11.781
▁Rot	-11.781
▁Jeli	-11.7812
▁diperluaskan	-11.7812
▁serat	-11.7812
▁Camar	-11.7812
▁Kolam	-11.7813
worth	-11.7824
DM	-11.7825
▁Tugu	-11.7829
rest	-11.7829
▁Sarang	-11.7829
▁/>	-11.783
▁Zoo	-11.783
▁ditanya	-11.7831
▁1958,	-11.7831
▁pencetak	-11.7831
kang	-11.7832
KU	-11.7832
▁pemer	-11.7832
▁Uthman	-11.7835
▁Dortmund	-11.7835
▁McLaren	-11.7835
▁arkib	-11.7835
▁Ampuan	-11.7835
▁rahang	-11.7836
▁tatabahasa	-11.7837
▁pendeta	-11.7839
hui	-11.7839
ely	-11.7841
▁117	-11.7843
▁Linda	-11.7848
Dewan	-11.7848
▁Oriental	-11.7854
ragu	-11.7854
▁berpe	-11.7855
▁June	-11.7856
estan	-11.7859
▁Tita	-11.7865
▁dipergunakan	-11.7866
▁kesulitan	-11.7866
▁perdamaian	-11.7866
▁Lovato	-11.7866
▁Syafiq	-11.7866
▁Cakung	-11.7867
only	-11.7867
▁Nadia	-11.7868
▁epal	-11.7868
bru	-11.7869
▁tugu	-11.7869
▁belakangnya	-11.787
▁Sime	-11.7871
▁mengulangi	-11.7872
▁1970,	-11.7872
▁Francois	-11.7872
▁menghalau	-11.7872
▁Wind	-11.7872
hukum	-11.7875
▁Diri	-11.7877
▁murni	-11.7878
17,	-11.788
▁meminjam	-11.7882
▁Tad	-11.7883
▁Tro	-11.7883
▁including	-11.7885
▁Wald	-11.7886
▁Woods	-11.7888
teori	-11.7889
wen	-11.7889
▁politiknya	-11.7892
TU	-11.7894
▁ham	-11.7896
jet	-11.7896
▁Madagascar	-11.7897
▁diperbaiki	-11.7897
▁mempersoalkan	-11.7897
▁tersusun	-11.7897
▁pembezaan	-11.7897
▁perguruan	-11.7897
▁perkapalan	-11.7897
▁senibina	-11.7898
ME	-11.7901
lash	-11.7902
18,	-11.7903
▁bers	-11.7903
▁Sulong	-11.7904
▁Tangga	-11.7905
▁Mans	-11.7906
▁UKM	-11.7906
▁1884	-11.7906
▁kahwin	-11.7907
▁Ultra	-11.7907
▁Sl	-11.791
lac	-11.7912
▁menyelamat	-11.7913
▁sintesis	-11.7919
▁Vid	-11.7919
tapak	-11.7921
▁Aji	-11.7921
▁Ayat	-11.7925
sli	-11.7927
▁DYMM	-11.7927
▁memasarkan	-11.7927
▁tersohor	-11.7927
▁Taipei	-11.7927
▁berkenalan	-11.7927
▁ghaib	-11.7927
▁Jonathan	-11.7927
▁Semangat	-11.7929
sn	-11.7929
▁Map	-11.7929
olin	-11.7932
▁rating	-11.7932
▁bergaya	-11.7933
▁Pencegahan	-11.7933
▁diingati	-11.7933
▁RA	-11.7934
▁Pendek	-11.7936
▁ski	-11.7937
▁Salman	-11.7937
National	-11.7939
▁LG	-11.7942
▁Ranau	-11.7942
▁belang	-11.7943
inya	-11.7946
bunyi	-11.7947
▁Rakan	-11.7947
▁Vir	-11.7948
▁Cau	-11.7953
▁Haram	-11.7953
LE	-11.7956
▁Waris	-11.7958
▁Cerezo	-11.7958
▁dituntut	-11.7958
▁perolehan	-11.7958
▁inflasi	-11.7958
▁logistik	-11.7959
▁ritual	-11.7959
▁dorongan	-11.7959
▁Pengasas	-11.7959
▁Tembok	-11.7959
▁tomato	-11.796
kultur	-11.796
nja	-11.7961
gut	-11.7962
▁Tapah	-11.7962
▁sebidang	-11.7963
▁silang	-11.7964
▁1,0	-11.7965
▁simptom	-11.7966
▁Kulai	-11.7967
▁pengembara	-11.7968
gitar	-11.7969
▁Johnny	-11.7969
▁Wars	-11.7969
▁kuah	-11.7971
gem	-11.7971
atur	-11.7972
tru	-11.7974
▁dijangkakan	-11.7977
▁lu	-11.7977
phi	-11.7979
▁Wol	-11.798
▁Kuan	-11.7981
Perang	-11.7981
Her	-11.7982
▁176	-11.7985
cay	-11.7986
▁live	-11.7986
Mad	-11.7987
▁Peperiksaan	-11.7989
[...]
