<unk>	0
<s>	0
</s>	0
<cls>	0
<sep>	0
<pad>	0
<mask>	0
<eod>	0
<eop>	0
.	0
(	0
)	0
"	0
-	0
–	0
£	0
€	0
#	0
'	0
▁	-1.86778
▁,	-4.20292
,	-4.29373
▁yang	-4.63752
▁di	-4.70093
▁dan	-4.72587
▁aku	-5.12336
nya	-5.23531
s	-5.50008
an	-5.54177
▁:	-5.56039
▁?	-5.58961
▁ini	-5.61364
▁ke	-5.64868
▁dengan	-5.65753
▁untuk	-5.69083
2	-5.71865
▁ni	-5.74313
kan	-5.84845
▁tak	-5.85658
▁ada	-5.88043
▁dalam	-5.91495
▁itu	-5.95237
▁dia	-5.98543
▁yg	-6.01014
▁nak	-6.02412
▁!	-6.06298
i	-6.07062
▁dari	-6.08646
▁tu	-6.20727
▁pada	-6.2178
▁orang	-6.28205
▁tidak	-6.29603
a	-6.36369
▁lagi	-6.38644
▁akan	-6.38775
k	-6.41611
▁kita	-6.42516
▁juga	-6.44627
▁dah	-6.49367
in	-6.49931
▁/	-6.50062
▁Aku	-6.50568
e	-6.51449
▁the	-6.52062
▁la	-6.55639
▁buat	-6.56845
m	-6.56853
▁boleh	-6.61836
t	-6.63306
▁apa	-6.65752
▁pun	-6.67752
▁je	-6.68065
▁kepada	-6.68464
▁tahun	-6.68877
▁adalah	-6.69231
▁to	-6.70769
▁ya	-6.72694
▁1	-6.7297
▁atau	-6.7347
▁saya	-6.75341
▁tapi	-6.75342
▁sama	-6.77692
▁hari	-6.79775
▁kau	-6.803
▁bagi	-6.81497
▁lebih	-6.82794
▁semua	-6.8323
▁oleh	-6.83695
▁mereka	-6.83858
▁lah	-6.85555
▁I	-6.86023
▁in	-6.86041
lah	-6.86408
ku	-6.87652
▁jadi	-6.88088
▁and	-6.88668
▁satu	-6.90708
▁telah	-6.91656
▁bisa	-6.92277
▁&	-6.93722
h	-6.93763
▁Malaysia	-6.96798
▁kamu	-6.985
▁sebagai	-7.0142
▁kalau	-7.03183
▁baru	-7.05204
▁lain	-7.059
▁3	-7.06749
d	-7.08621
▁merupakan	-7.09739
▁dapat	-7.11298
▁sebuah	-7.11857
▁banyak	-7.12168
▁mau	-7.12891
o	-7.12995
▁bukan	-7.14302
▁anak	-7.15913
mu	-7.16021
▁rumah	-7.16491
:	-7.16958
▁ga	-7.17295
▁a	-7.18096
n	-7.18341
▁aja	-7.18385
▁mana	-7.18893
▁;	-7.19525
▁of	-7.20398
▁kat	-7.20606
▁A	-7.21848
u	-7.23076
▁Di	-7.2401
▁makan	-7.24962
y	-7.25001
▁kena	-7.25385
▁i	-7.26249
▁menjadi	-7.26427
ing	-7.26871
▁masih	-7.27063
▁sudah	-7.28295
▁daripada	-7.29776
▁macam	-7.30952
▁2	-7.31249
▁negara	-7.31465
▁baik	-7.31548
▁seperti	-7.32999
▁masa	-7.33304
▁kami	-7.33435
▁RM	-7.3483
▁sampai	-7.37158
▁rasa	-7.38319
▁sangat	-7.38511
r	-7.3856
amp	-7.40045
▁sendiri	-7.40752
▁ber	-7.42246
▁hanya	-7.42597
▁pernah	-7.44351
▁4	-7.44872
▁terus	-7.46246
▁tau	-7.46672
▁sebab	-7.47581
▁dulu	-7.49059
▁S	-7.49858
▁is	-7.51289
▁you	-7.53832
▁5	-7.54227
▁suka	-7.54289
▁kerja	-7.55176
ed	-7.55934
▁gak	-7.56061
▁Allah	-7.56793
l	-7.56982
▁balik	-7.57972
▁atas	-7.58598
▁hati	-7.59433
A	-7.59447
▁Kalau	-7.60226
▁beli	-7.60962
▁air	-7.61199
▁tahu	-7.61496
p	-7.61551
▁Tapi	-7.6205
▁at	-7.62167
▁Yang	-7.62371
▁kata	-7.6263
▁hidup	-7.62756
▁terletak	-7.63003
1	-7.63977
▁bila	-7.64059
▁me	-7.64159
▁dgn	-7.64448
▁Tak	-7.64606
▁*	-7.65162
▁Indonesia	-7.65829
er	-7.66375
▁salah	-7.66693
▁kali	-7.66862
▁masuk	-7.6745
▁tidur	-7.67762
▁tersebut	-7.68125
S	-7.68153
la	-7.69224
▁so	-7.69545
▁kalo	-7.69604
K	-7.70738
▁for	-7.70832
▁diri	-7.71177
g	-7.72289
▁perlu	-7.73128
▁kerana	-7.74316
▁dekat	-7.74363
▁punya	-7.74445
▁jangan	-7.74488
▁secara	-7.74634
▁org	-7.74717
▁ia	-7.75798
▁sekarang	-7.76569
▁kanan	-7.77624
▁10	-7.78102
ah	-7.78328
▁be	-7.78563
▁Dia	-7.7885
al	-7.79257
▁ialah	-7.7945
▁2019	-7.7957
▁lama	-7.79959
▁dua	-7.80142
▁pakai	-7.80539
▁Ada	-7.81087
▁serta	-7.8113
▁seorang	-7.81312
▁karena	-7.81745
▁jalan	-7.81927
▁Ke	-7.82202
▁udah	-7.82256
▁x	-7.83132
▁berkata	-7.83547
▁besar	-7.83743
▁bersama	-7.84106
▁kerajaan	-7.84199
▁se	-7.84235
ta	-7.84504
▁memang	-7.84552
▁ter	-7.85414
b	-7.8591
na	-7.86059
▁kawasan	-7.86406
▁Menteri	-7.87034
▁Islam	-7.87045
▁beliau	-7.87166
▁anda	-7.87355
▁sebelum	-7.87505
▁tempat	-7.87893
▁malam	-7.88135
?	-7.88257
▁mcm	-7.88346
▁Ini	-7.88349
▁Kuala	-7.88357
▁paling	-7.88371
▁raya	-7.88442
▁lalu	-7.88543
3	-7.89007
▁nk	-7.89388
▁Pada	-7.89584
▁selalu	-7.89686
▁no	-7.90441
▁B	-7.90488
▁saja	-7.90522
▁beberapa	-7.90817
▁sini	-7.90949
▁sekolah	-7.91026
▁ketika	-7.91723
▁nanti	-7.91837
T	-7.92295
▁pergi	-7.92479
▁bulan	-7.92537
▁sekali	-7.92845
▁katanya	-7.92889
▁liao	-7.93112
di	-7.93191
▁pagi	-7.93555
▁Al	-7.9357
▁jam	-7.94849
si	-7.94936
▁my	-7.95199
▁M	-7.95278
▁[	-7.95707
▁Saya	-7.95795
▁that	-7.96046
▁Dan	-7.97048
▁Jangan	-7.97062
▁bawah	-7.97737
M	-7.97861
▁setiap	-7.97886
▁6	-7.9793
▁harus	-7.97984
▁negeri	-7.99085
▁masalah	-7.99414
▁si	-7.99467
▁belum	-7.99844
▁baju	-8.00187
▁antara	-8.00548
▁tengok	-8.00579
▁kan	-8.0065
▁Nak	-8.00994
w	-8.01526
ng	-8.01666
▁nama	-8.02824
▁lelaki	-8.03009
▁utk	-8.03046
▁mak	-8.03068
▁it	-8.03953
▁kasih	-8.04083
▁banget	-8.04212
▁depan	-8.0422
▁on	-8.04288
▁7	-8.04482
▁rakyat	-8.04564
▁ku	-8.04788
▁saat	-8.04841
B	-8.04931
x	-8.05017
▁dunia	-8.05219
ya	-8.05445
▁tadi	-8.0547
▁pertama	-8.05659
▁duit	-8.06618
at	-8.07005
▁Selangor	-8.07055
▁tanpa	-8.07194
▁Ber	-8.07325
▁gue	-8.07921
▁like	-8.08003
li	-8.0837
▁mempunyai	-8.08866
▁]	-8.09003
;	-8.09117
▁cakap	-8.09208
5	-8.09222
▁E	-8.09453
▁pake	-8.09472
▁Dalam	-8.09946
▁kenapa	-8.10174
▁not	-8.1022
▁betul	-8.10681
▁sayang	-8.10868
000	-8.10932
▁harga	-8.10934
4	-8.11259
▁Ya	-8.11446
▁Se	-8.11522
_	-8.11589
▁lepas	-8.11715
▁mata	-8.12171
▁pulak	-8.12201
▁manusia	-8.12211
▁datang	-8.12732
▁langsung	-8.12771
▁time	-8.13169
▁membuat	-8.13262
▁waktu	-8.13407
▁kawan	-8.13517
en	-8.13799
▁kulit	-8.14137
▁keluar	-8.14204
▁ibu	-8.14291
▁cuma	-8.14487
D	-8.14587
da	-8.14639
▁sih	-8.15006
▁main	-8.15177
▁selepas	-8.15273
se	-8.15453
▁hingga	-8.15461
▁P	-8.15523
ke	-8.15528
c	-8.15813
▁Apa	-8.16071
es	-8.16341
▁Kerajaan	-8.16629
on	-8.16858
C	-8.17241
▁jika	-8.17478
▁Dr	-8.17654
ka	-8.17698
▁naik	-8.17809
▁siapa	-8.17837
▁sehingga	-8.19
▁u	-8.19161
I	-8.19183
▁but	-8.19411
▁pihak	-8.19455
▁terhadap	-8.19719
▁Lumpur	-8.20293
▁tinggi	-8.20306
▁kalian	-8.20433
▁ramai	-8.20733
ri	-8.21399
▁isu	-8.21684
ar	-8.21737
▁luar	-8.22108
▁tolong	-8.22112
▁lupa	-8.22374
▁hal	-8.22386
▁mungkin	-8.22532
▁Untuk	-8.22658
is	-8.2319
f	-8.23271
▁makanan	-8.23608
@	-8.23708
ly	-8.23853
▁tp	-8.23897
▁kecil	-8.23938
▁%	-8.24069
▁melalui	-8.24077
sa	-8.24082
▁So	-8.25301
▁+	-8.25322
▁buah	-8.25851
ne	-8.25974
▁pula	-8.26043
▁kiri	-8.2616
▁bahawa	-8.26543
▁Hari	-8.26615
▁tetapi	-8.2663
▁T	-8.26643
▁biasa	-8.26675
▁cari	-8.26896
G	-8.26943
▁Ia	-8.27276
▁perempuan	-8.27326
▁can	-8.27632
▁per	-8.27862
ang	-8.2796
H	-8.28331
▁iaitu	-8.28423
ra	-8.2843
▁U	-8.29102
▁leh	-8.29124
▁Kita	-8.2954
▁this	-8.29714
ni	-8.29968
▁benda	-8.29992
▁termasuk	-8.30112
AN	-8.30346
▁mampu	-8.30454
▁kereta	-8.30667
▁J	-8.3075
▁Me	-8.30833
▁Selamat	-8.31063
▁nasi	-8.31119
ma	-8.31179
▁cerita	-8.31424
▁sakit	-8.31552
▁tentang	-8.31735
▁keluarga	-8.31847
▁he	-8.319
▁memiliki	-8.32099
▁K	-8.32249
man	-8.32432
le	-8.32779
▁sedang	-8.32885
▁penting	-8.3299
▁badan	-8.33298
▁Dah	-8.3349
▁lagu	-8.3378
▁Melayu	-8.33996
▁ingin	-8.34018
▁de	-8.34617
▁muka	-8.34862
▁with	-8.34884
▁juta	-8.35356
▁Datuk	-8.35515
▁8	-8.35574
▁C	-8.35899
▁masyarakat	-8.36056
▁minta	-8.36229
re	-8.36356
▁menggunakan	-8.36469
▁al	-8.36526
te	-8.36632
▁or	-8.36779
▁as	-8.36841
▁pasti	-8.3689
ti	-8.37003
▁awal	-8.37297
▁The	-8.37412
▁Negeri	-8.37441
▁pas	-8.37455
z	-8.3772
▁batu	-8.37931
▁Beliau	-8.38322
▁memberi	-8.38511
E	-8.38929
▁tengah	-8.3908
de	-8.39174
us	-8.39205
▁digunakan	-8.39242
▁kembali	-8.39728
▁korang	-8.39817
▁kedua	-8.40037
▁belajar	-8.40507
▁wanita	-8.40509
▁one	-8.40822
▁cara	-8.40834
or	-8.41129
▁pe	-8.4128
▁nih	-8.41504
▁Jadi	-8.41622
▁tanya	-8.41632
to	-8.41716
▁selama	-8.42015
▁para	-8.42111
▁tangan	-8.42259
j	-8.42607
P	-8.43216
▁eh	-8.43412
▁cukup	-8.43675
tu	-8.43778
▁H	-8.43888
▁tetap	-8.43994
▁RT	-8.44092
▁Sekolah	-8.44097
▁agama	-8.44148
▁b	-8.44175
me	-8.44214
pe	-8.44738
▁20	-8.44878
▁up	-8.45066
▁habis	-8.45205
▁mati	-8.45365
▁bgt	-8.45494
▁Pe	-8.45582
▁daerah	-8.4561
ter	-8.45791
6	-8.46721
▁kurang	-8.46992
▁jugak	-8.47207
▁ka	-8.4754
▁ko	-8.47551
▁Harga	-8.47632
▁D	-8.47761
▁gitu	-8.48053
▁gila	-8.48164
▁Orang	-8.4825
▁sikit	-8.49072
▁Johor	-8.49206
7	-8.49467
▁Semoga	-8.49684
▁kok	-8.49812
▁melihat	-8.49832
▁Kau	-8.50347
▁kampung	-8.50382
▁9	-8.50405
▁siap	-8.50941
▁Baru	-8.5095
/	-8.51214
▁N	-8.51258
▁adik	-8.51296
▁takut	-8.51407
▁Ni	-8.51902
▁Bila	-8.52033
▁sahaja	-8.5209
▁12	-8.52197
▁baca	-8.52262
00	-8.5274
▁sbb	-8.52755
am	-8.52831
▁O	-8.52957
lu	-8.53015
▁nampak	-8.53056
▁was	-8.53072
▁dh	-8.53101
▁pon	-8.53746
▁Alhamdulillah	-8.53765
▁your	-8.53802
▁jauh	-8.53963
▁produk	-8.53988
▁mudah	-8.5414
▁membantu	-8.54186
▁tiba	-8.5431
▁Bukan	-8.54344
▁tanah	-8.54346
ga	-8.54377
▁Rp	-8.54495
▁jenis	-8.546
▁cantik	-8.54821
▁agar	-8.54854
▁Anda	-8.55156
▁kak	-8.55393
ber	-8.55487
▁kaya	-8.55616
▁sejak	-8.55885
▁turut	-8.55935
▁ayah	-8.55944
▁sambil	-8.5595
▁video	-8.56119
ak	-8.56321
▁buku	-8.56535
un	-8.56674
▁sebanyak	-8.5668
no	-8.56691
▁do	-8.56863
▁from	-8.56873
▁Negara	-8.569
▁DI	-8.56972
▁just	-8.57233
▁program	-8.57468
▁berlaku	-8.57472
▁sedih	-8.57606
▁biar	-8.57763
▁bikin	-8.57776
▁apabila	-8.58436
▁ja	-8.5846
▁jual	-8.58464
▁media	-8.58706
▁duduk	-8.58734
▁setelah	-8.58794
th	-8.59393
st	-8.5958
L	-8.59636
▁politik	-8.59688
▁cepat	-8.59861
▁minyak	-8.60191
▁utama	-8.60356
▁nge	-8.60471
▁mah	-8.60474
N	-8.60819
ha	-8.60827
▁jumlah	-8.61039
et	-8.61086
▁bahan	-8.611
▁go	-8.61203
▁ye	-8.61357
▁tinggal	-8.61375
▁pelajar	-8.6142
▁takde	-8.61572
▁Kementerian	-8.61866
▁ayam	-8.61868
▁WA	-8.61931
▁by	-8.62154
▁susah	-8.62364
▁pasal	-8.62469
▁**	-8.62678
▁dlm	-8.62738
▁bahasa	-8.62755
▁kini	-8.62954
▁minum	-8.6311
▁all	-8.6315
▁No	-8.63158
19	-8.63239
▁100	-8.63357
▁Ga	-8.63494
8	-8.63698
▁lg	-8.63784
▁Seri	-8.63909
▁malah	-8.64054
▁then	-8.64154
▁barang	-8.64167
▁berat	-8.64272
▁berada	-8.64302
▁mengenai	-8.64638
▁ekonomi	-8.64653
go	-8.64751
▁gambar	-8.64933
▁mengambil	-8.65557
▁guna	-8.65642
▁15	-8.66047
▁lo	-8.6645
▁dr	-8.6648
▁Shah	-8.6662
▁Kami	-8.66664
q	-8.66748
wa	-8.66859
▁Kenapa	-8.66877
▁masak	-8.67037
▁bandar	-8.67466
▁gua	-8.67487
▁lor	-8.67532
▁Ter	-8.67713
▁tiga	-8.67759
▁sana	-8.67874
▁hasil	-8.68086
▁Alam	-8.68373
ca	-8.68606
▁Perdana	-8.68642
▁kuat	-8.68654
30	-8.69017
▁Raya	-8.69055
▁if	-8.69082
▁Kamu	-8.69114
▁jumpa	-8.6924
▁melakukan	-8.69264
▁seluruh	-8.6936
▁kaki	-8.69563
ur	-8.69702
▁ah	-8.69743
▁maka	-8.69865
O	-8.69963
▁11	-8.70056
▁Dari	-8.70162
el	-8.70162
▁ikut	-8.70235
▁=	-8.70543
▁Tidak	-8.70601
▁order	-8.70695
ba	-8.70702
W	-8.70825
▁Jalan	-8.70847
▁meng	-8.70931
▁mulai	-8.71001
per	-8.71026
▁kelas	-8.7119
▁kes	-8.71286
▁dong	-8.71414
▁teman	-8.71527
▁hahaha	-8.71753
v	-8.71753
▁Ketua	-8.7182
10	-8.71946
▁F	-8.72435
0	-8.72591
▁Boleh	-8.72712
ro	-8.72886
▁Jakarta	-8.72901
▁Dengan	-8.72916
F	-8.72928
▁budak	-8.72972
▁berkenaan	-8.72983
▁kt	-8.73319
▁mesti	-8.7343
▁haha	-8.73438
▁ingat	-8.73552
▁usaha	-8.73596
▁semula	-8.73608
▁kira	-8.73825
lo	-8.74233
▁gini	-8.74371
▁terbaik	-8.74535
ce	-8.74559
▁awak	-8.74683
▁Per	-8.74727
▁semakin	-8.74743
▁|	-8.74795
▁have	-8.74803
▁namun	-8.74811
▁turun	-8.74828
R	-8.74936
▁are	-8.7497
9	-8.75016
▁ahli	-8.75164
▁Si	-8.75205
▁18	-8.75291
▁mula	-8.75459
▁G	-8.75524
▁warna	-8.75545
▁30	-8.75649
▁supaya	-8.75679
▁minggu	-8.75737
▁pelbagai	-8.75764
▁menerima	-8.75799
▁kemudian	-8.75893
▁buka	-8.75936
pa	-8.75999
kah	-8.76083
▁ikan	-8.7612
▁Kota	-8.7638
▁Jika	-8.76476
▁men	-8.7666
▁g	-8.76685
▁2020	-8.76689
▁Ku	-8.76757
▁tuh	-8.76962
▁terlalu	-8.7709
▁lu	-8.77272
murah	-8.77319
▁Bagi	-8.77381
▁sekitar	-8.77666
U	-8.777
▁L	-8.77761
▁wa	-8.77783
▁sistem	-8.77889
▁syarikat	-8.7793
▁terima	-8.77934
▁sering	-8.77971
▁belakang	-8.78087
▁panjang	-8.78229
mi	-8.78332
▁sia	-8.78514
▁AKU	-8.78563
▁Terima	-8.7872
▁Sabah	-8.78729
▁we	-8.78949
▁begitu	-8.78955
▁mendapat	-8.79133
aa	-8.79295
▁bahwa	-8.79412
▁memberikan	-8.7952
gi	-8.79547
▁Mau	-8.79612
▁wilayah	-8.7982
▁puasa	-8.79894
ja	-8.80083
men	-8.8022
▁berjaya	-8.80244
▁jd	-8.80304
▁Tun	-8.8043
▁sosial	-8.80447
▁kepala	-8.80721
▁bawa	-8.80841
▁best	-8.80856
▁n	-8.81127
it	-8.81184
▁sy	-8.81229
ge	-8.81435
▁tiada	-8.81598
▁walaupun	-8.81704
▁bilik	-8.81747
▁penuh	-8.81814
▁sampe	-8.81873
▁will	-8.82153
▁makin	-8.82454
▁cinta	-8.82743
▁cuba	-8.82801
▁sedap	-8.82949
▁bakal	-8.82957
▁dilakukan	-8.82979
▁suami	-8.83105
▁mandi	-8.83222
▁pastu	-8.83378
▁rambut	-8.83478
▁re	-8.83509
▁ambil	-8.83547
▁kedai	-8.8358
▁still	-8.83606
▁marah	-8.84034
▁kucing	-8.84124
▁keadaan	-8.84136
▁KE	-8.84243
▁da	-8.84245
▁they	-8.8427
▁pilihan	-8.84358
▁hilang	-8.84523
▁warga	-8.84547
ok	-8.84586
▁W	-8.84604
▁Mereka	-8.84795
▁Re	-8.8491
▁bilang	-8.85066
▁putih	-8.8512
il	-8.85218
▁bangun	-8.85275
▁akhir	-8.85361
▁d	-8.85657
orang	-8.85877
ji	-8.85886
▁perkara	-8.85979
ny	-8.86255
▁esok	-8.86285
▁muda	-8.86447
▁Pulau	-8.86496
▁bodoh	-8.86616
▁mas	-8.86699
▁pulang	-8.86708
▁jaga	-8.86907
▁Presiden	-8.86971
▁Kampung	-8.8712
anak	-8.8713
▁Perak	-8.87244
▁kot	-8.87251
▁Tuan	-8.87402
▁Jabatan	-8.8747
▁pintu	-8.87511
bi	-8.87628
as	-8.877
▁sesuai	-8.87892
▁segala	-8.88292
▁tunggu	-8.88297
▁Wa	-8.88487
▁membawa	-8.88731
▁Jom	-8.88743
Y	-8.88823
▁~	-8.88917
▁ok	-8.88976
▁Semua	-8.891
NYA	-8.89101
▁p	-8.89374
▁rt	-8.89547
▁ha	-8.89594
▁Sebab	-8.89698
▁rezeki	-8.89703
▁mmg	-8.89964
▁selamat	-8.89974
apa	-8.90168
▁Kedah	-8.90401
do	-8.90509
▁also	-8.90538
▁sebelah	-8.90562
ci	-8.90815
▁maaf	-8.90887
▁Namun	-8.90982
▁19	-8.91007
▁foto	-8.91018
▁sedikit	-8.91138
▁got	-8.9119
▁sik	-8.91223
▁In	-8.91235
▁pak	-8.91312
▁parti	-8.91388
▁tua	-8.9144
▁pukul	-8.91506
▁Kalo	-8.91515
▁liat	-8.91676
▁Melaka	-8.91687
▁Kebangsaan	-8.91941
▁terdapat	-8.92029
▁pi	-8.92132
lan	-8.92206
▁panas	-8.92252
▁De	-8.92445
pun	-8.92589
▁Itu	-8.92679
▁Terengganu	-8.93114
▁Siapa	-8.93291
▁okay	-8.93587
▁R	-8.93598
▁dpt	-8.93678
▁pendidikan	-8.93818
▁Abdul	-8.93904
▁benar	-8.93929
id	-8.94018
IN	-8.94074
KAN	-8.94091
▁Tu	-8.94172
▁arah	-8.94186
mo	-8.94253
▁sabar	-8.94277
▁percaya	-8.94283
▁suara	-8.94394
▁India	-8.94428
▁semasa	-8.94489
▁Selain	-8.94493
▁bagus	-8.94543
▁mahu	-8.94563
ik	-8.94859
▁sebenarnya	-8.94939
ul	-8.94977
▁sesuatu	-8.95189
▁w	-8.95213
▁suruh	-8.95279
ss	-8.95333
ck	-8.95442
▁goreng	-8.95537
▁April	-8.95592
hh	-8.95699
ko	-8.95746
ki	-8.95749
▁menarik	-8.95765
▁proses	-8.95859
tan	-8.95968
▁Air	-8.96071
bu	-8.96102
▁kehidupan	-8.96177
▁enak	-8.96185
▁kuasa	-8.96262
▁Hi	-8.96284
▁50	-8.96373
▁anjing	-8.9638
J	-8.9672
▁semoga	-8.96802
▁alam	-8.96881
▁akhirnya	-8.97098
&	-8.97099
▁tindakan	-8.97265
20	-8.97416
▁Sultan	-8.97491
▁gw	-8.97849
▁Amerika	-8.98037
ap	-8.98286
mana	-8.9833
▁jatuh	-8.98446
▁Mei	-8.98459
▁jgn	-8.9849
2019	-8.98642
ve	-8.9874
▁La	-8.98816
▁asal	-8.99138
ir	-8.99217
▁Hahaha	-8.99325
▁Taman	-8.99354
▁senang	-8.99389
ong	-8.99534
▁berapa	-8.99652
▁sorang	-8.99675
ru	-8.9978
▁mencari	-8.99881
▁guru	-9.00078
▁merah	-9.00081
undang	-9.00103
▁China	-9.00135
▁umur	-9.00229
▁Ibu	-9.00299
▁Ahmad	-9.00486
▁kaum	-9.00816
▁tgk	-9.00865
▁komun	-9.00972
▁mendapatkan	-9.00982
▁Yg	-9.01066
▁X	-9.01255
co	-9.01348
ai	-9.01372
▁Perancis	-9.0147
▁Majlis	-9.01497
▁tk	-9.01512
▁temen	-9.01656
cm	-9.01662
be	-9.02015
wan	-9.02043
▁bekerja	-9.02197
▁Mohd	-9.02214
▁Be	-9.02261
▁deh	-9.02273
▁penduduk	-9.02374
V	-9.02399
▁abang	-9.02636
um	-9.02875
ung	-9.02916
▁Karena	-9.03011
▁guys	-9.03152
du	-9.03208
▁out	-9.03402
▁filem	-9.03718
▁zaman	-9.03786
▁DAN	-9.039
▁yaa	-9.04
▁bayar	-9.04058
▁sis	-9.04067
▁Buat	-9.04091
za	-9.0446
▁follow	-9.04517
▁14	-9.04628
sh	-9.04721
15	-9.04739
▁kopi	-9.04782
▁menyatakan	-9.04915
▁Kelantan	-9.05041
gt	-9.05109
▁kota	-9.05237
▁wajah	-9.0528
▁Sarawak	-9.05437
ia	-9.0549
!	-9.05531
▁Pak	-9.0568
▁tweet	-9.05708
▁bentuk	-9.05777
▁amat	-9.05934
pi	-9.05992
▁gaji	-9.06009
▁kenal	-9.06026
han	-9.06135
▁dibuat	-9.06186
▁pasukan	-9.06787
dua	-9.0683
ih	-9.06886
▁seseorang	-9.06956
▁pembangunan	-9.06966
▁17	-9.06977
ek	-9.07147
▁kisah	-9.07172
▁polis	-9.07219
▁hampir	-9.07224
▁Jaya	-9.07278
wi	-9.07315
ch	-9.07329
▁nggak	-9.07339
ut	-9.07408
14	-9.07452
▁masing	-9.07478
▁semangat	-9.07483
▁last	-9.07498
▁pengen	-9.07516
▁manis	-9.07552
▁segera	-9.07602
bo	-9.07952
▁Rakyat	-9.08091
▁2018	-9.08189
▁projek	-9.08192
▁Sri	-9.08209
▁bantuan	-9.0823
▁Besar	-9.08314
▁now	-9.08424
▁bahagian	-9.08436
▁hitam	-9.08501
▁24	-9.08561
▁Mak	-9.0864
▁wkwk	-9.08713
▁Mahathir	-9.09004
▁faham	-9.09176
▁penyakit	-9.09202
▁terjadi	-9.09249
▁member	-9.09268
▁sm	-9.09313
▁keputusan	-9.09393
▁don	-9.09587
▁meningkatkan	-9.09767
ii	-9.09939
▁13	-9.09973
ll	-9.10133
▁more	-9.10165
▁anggota	-9.10188
▁what	-9.10225
▁jabatan	-9.10249
▁agak	-9.10305
▁jelas	-9.10404
▁Ma	-9.10423
▁bapak	-9.10442
▁desa	-9.10453
▁awam	-9.10532
▁16	-9.10587
▁Sa	-9.10595
▁murah	-9.10622
▁meh	-9.1072
▁Barat	-9.10741
▁she	-9.10767
▁selain	-9.10783
▁bermula	-9.10817
▁Mac	-9.10927
▁laa	-9.10942
▁ak	-9.10949
▁nangis	-9.10965
▁perasaan	-9.1107
▁Bisa	-9.11072
▁seramai	-9.113
▁sgt	-9.11399
kira	-9.1146
▁semalam	-9.11553
san	-9.11644
▁Selatan	-9.11747
▁Ha	-9.11801
▁bola	-9.11817
▁twitter	-9.11868
▁rindu	-9.1188
▁pen	-9.11964
▁industri	-9.12197
▁Menurut	-9.12228
▁25	-9.12249
▁Sungai	-9.12303
▁dengar	-9.12371
▁bro	-9.12583
▁bantu	-9.12648
dan	-9.12738
▁Masjid	-9.12763
▁ade	-9.1279
kk	-9.13036
▁kl	-9.13161
▁bahagia	-9.13215
▁Batu	-9.13222
▁her	-9.13329
▁Le	-9.13337
▁his	-9.13355
▁Rumah	-9.13494
eh	-9.13592
▁laut	-9.136
▁ma	-9.13715
com	-9.13936
▁PH	-9.14078
jo	-9.14107
▁tempoh	-9.14161
bar	-9.14307
▁Banyak	-9.14353
▁call	-9.14408
hhh	-9.14494
▁berkaitan	-9.14662
▁kek	-9.14831
▁Raja	-9.149
up	-9.14914
hi	-9.14956
▁menang	-9.14968
fa	-9.1503
▁UMNO	-9.15093
▁menyebabkan	-9.15225
▁Persekutuan	-9.15294
su	-9.15434
▁Anak	-9.15471
▁bilion	-9.1548
▁peratus	-9.15504
+	-9.15633
▁Eh	-9.16053
po	-9.16213
▁kos	-9.16381
▁Satu	-9.16535
▁Parlimen	-9.16598
▁ba	-9.1663
▁suatu	-9.1673
▁motor	-9.16799
*	-9.16846
▁dok	-9.16854
▁He	-9.16884
50	-9.16887
▁know	-9.17107
▁Bandar	-9.17207
▁bekas	-9.17218
▁Men	-9.17365
▁bidang	-9.17544
▁Ko	-9.17597
▁kumpulan	-9.17623
▁Ka	-9.17686
▁pilih	-9.17701
▁Dewan	-9.17775
▁banjir	-9.17814
▁lewat	-9.18094
X	-9.18137
▁Ali	-9.18267
▁kakak	-9.18327
▁tubuh	-9.18339
▁see	-9.18401
▁Masa	-9.18415
▁masjid	-9.18643
aaa	-9.19004
▁sepanjang	-9.1908
ling	-9.19177
▁emang	-9.19225
sama	-9.19262
▁memastikan	-9.19278
▁yuk	-9.19352
ad	-9.19382
▁rendah	-9.19402
▁perkhidmatan	-9.19443
▁nilai	-9.19535
▁Tuhan	-9.19593
▁merasa	-9.19835
▁hujan	-9.19847
▁KL	-9.19923
▁skrg	-9.19986
▁Ta	-9.20023
▁Na	-9.20073
▁solat	-9.20333
ry	-9.20372
▁Timur	-9.20373
▁lari	-9.20545
▁Bu	-9.20856
▁bunga	-9.20908
ee	-9.20985
▁Su	-9.21095
▁link	-9.21149
▁terakhir	-9.21153
▁say	-9.21285
so	-9.21394
▁Pa	-9.21407
▁first	-9.21687
▁bang	-9.21853
ment	-9.21874
▁dikenali	-9.21893
yo	-9.21945
▁hak	-9.21952
▁melayu	-9.22083
▁area	-9.22238
▁km	-9.22316
▁langkah	-9.22364
▁free	-9.22449
▁susu	-9.22456
ting	-9.22511
▁jawab	-9.22583
ran	-9.22668
▁good	-9.22675
▁demi	-9.22699
▁isi	-9.2271
▁try	-9.22733
▁Utara	-9.22748
▁Salam	-9.22763
▁mama	-9.22806
ton	-9.22863
▁kadar	-9.22886
▁le	-9.2294
uk	-9.23185
▁Kan	-9.23292
▁peringkat	-9.23404
▁kadang	-9.23471
▁Ahli	-9.23538
▁think	-9.23851
▁bayi	-9.23882
▁ilmu	-9.2396
▁Bukit	-9.24093
▁sentiasa	-9.24117
▁info	-9.2432
▁Go	-9.24451
▁only	-9.24657
▁menunjukkan	-9.24667
▁Tahun	-9.24678
▁tahan	-9.24713
▁jg	-9.24725
▁pemain	-9.24893
▁pemimpin	-9.2492
▁ternyata	-9.25207
▁hor	-9.2521
▁Pahang	-9.25237
▁Pen	-9.25246
▁meninggal	-9.25259
hari	-9.25291
▁bin	-9.25313
yang	-9.25329
▁asli	-9.25461
tar	-9.25632
▁kayak	-9.25764
▁peluang	-9.25877
▁Pas	-9.25919
▁kecamatan	-9.26062
▁lanjut	-9.26132
▁harini	-9.26169
▁Muhammad	-9.26304
▁Hal	-9.26332
▁hadir	-9.26351
▁bu	-9.264
40	-9.26508
▁Setelah	-9.2658
▁dasar	-9.2684
▁pusat	-9.26885
▁Lagi	-9.26912
▁Lo	-9.26972
▁bawak	-9.27068
▁malas	-9.27183
ho	-9.27219
ten	-9.27262
▁soal	-9.27279
▁berubah	-9.27303
▁Program	-9.27325
▁teruk	-9.2733
▁kejadian	-9.275
▁Syarikat	-9.27552
▁Asia	-9.27562
▁karna	-9.27633
▁Sudah	-9.27716
▁Lu	-9.27967
▁berjalan	-9.27987
▁YANG	-9.28003
▁baharu	-9.28098
▁kahwin	-9.2811
▁share	-9.28161
▁ruang	-9.28167
▁ape	-9.28188
▁Hai	-9.28205
▁Assalamualaikum	-9.28205
▁laki	-9.28355
▁Li	-9.2847
▁start	-9.28578
▁isteri	-9.28581
▁udh	-9.28594
▁mengikut	-9.28618
▁Yuk	-9.28789
▁Pendidikan	-9.28852
▁peng	-9.2899
▁21	-9.29153
▁janji	-9.29169
▁get	-9.29198
▁diberikan	-9.29284
▁diam	-9.2932
au	-9.29581
▁Tolong	-9.29665
▁hutan	-9.29742
asi	-9.2977
▁golongan	-9.29918
lang	-9.29923
▁Ra	-9.29955
▁hehe	-9.30175
▁empat	-9.30291
▁musim	-9.30472
▁letak	-9.30516
▁gimana	-9.30563
▁Ar	-9.30588
▁Dunia	-9.30628
▁Sekarang	-9.30869
▁abis	-9.30924
▁make	-9.31055
Se	-9.31085
pan	-9.31157
min	-9.31285
kanak	-9.31338
▁padahal	-9.31356
▁menjaga	-9.31393
▁Man	-9.31396
▁tiap	-9.31475
▁Macam	-9.31626
▁kenyataan	-9.31653
▁Jokowi	-9.31695
masing	-9.31705
▁milik	-9.31923
▁Bahan	-9.32007
▁menteri	-9.32038
▁Mana	-9.32151
▁terbang	-9.32179
▁penat	-9.32211
▁Cina	-9.32263
▁diberi	-9.32354
▁ajak	-9.32503
▁pa	-9.32528
▁berita	-9.32542
▁petang	-9.32633
▁ringgit	-9.32658
ada	-9.32735
▁sa	-9.32796
▁emas	-9.32994
▁need	-9.33138
▁Haha	-9.33259
▁teknologi	-9.33353
▁malu	-9.33416
▁menjadikan	-9.33425
▁Nama	-9.33438
▁22	-9.33508
▁bebas	-9.33772
▁Iya	-9.33931
▁SE	-9.33978
▁situ	-9.34123
▁tangga	-9.34154
▁PERTANYAAN	-9.34161
▁Nasi	-9.34222
▁biasanya	-9.34224
▁sempat	-9.34418
der	-9.34515
▁asing	-9.34593
kar	-9.34624
▁Mungkin	-9.34656
tik	-9.3469
dah	-9.34705
▁hubungan	-9.34711
▁roti	-9.34796
▁set	-9.34953
rb	-9.35291
▁lampu	-9.35342
▁alat	-9.35386
▁akibat	-9.35588
▁dimana	-9.35752
▁mahal	-9.35882
▁lima	-9.36024
▁Salah	-9.36313
▁iya	-9.36388
son	-9.36532
▁darah	-9.36639
▁bener	-9.36667
▁c	-9.36679
▁perut	-9.36736
▁weh	-9.3677
▁taknak	-9.36771
je	-9.36853
▁BER	-9.36968
▁Ketika	-9.36993
▁memilih	-9.37007
▁doa	-9.37071
▁bagaimana	-9.37093
▁Masih	-9.3713
▁berbanding	-9.37154
▁Lepas	-9.3721
▁Kabupaten	-9.37226
▁Ki	-9.37483
▁bau	-9.37569
▁who	-9.37584
▁family	-9.37636
▁kapal	-9.37649
▁muncul	-9.37704
▁aktiviti	-9.37806
▁V	-9.37824
11	-9.37843
▁said	-9.37862
▁coba	-9.37886
▁uang	-9.38025
▁when	-9.38031
▁Setiap	-9.38074
▁teh	-9.38117
▁Pusat	-9.38143
▁Tan	-9.38219
▁mengatakan	-9.38358
▁sejarah	-9.38369
▁Nasional	-9.38442
▁butuh	-9.38487
▁YB	-9.38634
▁kalangan	-9.38693
▁sumber	-9.3882
▁yakin	-9.38876
Z	-9.38945
▁Lapangan	-9.39067
▁na	-9.39068
sen	-9.3912
▁Jun	-9.39155
▁babi	-9.39194
▁bahkan	-9.39209
▁post	-9.39221
indonesia	-9.39294
▁klo	-9.39445
▁PAS	-9.39451
▁bio	-9.39479
▁sehat	-9.39611
▁mo	-9.39649
▁ngga	-9.39676
▁khas	-9.39682
oh	-9.39712
▁there	-9.39958
▁Terbang	-9.40005
▁rm	-9.40043
▁tujuan	-9.40145
▁Hanya	-9.40264
▁kesihatan	-9.40287
▁calon	-9.40337
▁even	-9.40371
tiba	-9.40728
▁Hidup	-9.40829
▁tahap	-9.40859
▁drama	-9.40982
▁keseluruhan	-9.41116
▁pekerja	-9.41303
▁lihat	-9.41517
▁fikir	-9.41726
▁Universiti	-9.41878
avascript	-9.41926
▁kesan	-9.41971
▁Muslim	-9.41975
gu	-9.42042
▁Mohamad	-9.42052
▁doang	-9.42179
▁cm	-9.42204
kn	-9.42393
12	-9.42487
tor	-9.42505
ot	-9.42545
▁siang	-9.42558
▁AS	-9.42584
▁membaca	-9.42635
▁dkt	-9.42641
▁day	-9.4269
▁harap	-9.42956
▁had	-9.42988
▁api	-9.43072
▁0	-9.43276
▁sepak	-9.43314
▁their	-9.43321
gan	-9.43351
▁bangsa	-9.43389
▁nikah	-9.43393
▁via	-9.43458
▁Follow	-9.43484
▁bo	-9.43487
▁tempatan	-9.43509
▁ckp	-9.43542
▁Te	-9.43548
▁Katanya	-9.43551
▁Meng	-9.43572
▁Ramadhan	-9.43593
▁ki	-9.43681
▁As	-9.43706
▁pekan	-9.43726
▁berdasarkan	-9.43806
▁Mu	-9.44026
▁mintak	-9.44056
▁Pinang	-9.44207
▁mencapai	-9.44235
▁here	-9.4426
▁cuti	-9.44346
▁Jepun	-9.44368
▁Tanah	-9.44383
▁layan	-9.4446
pen	-9.44478
▁tentera	-9.44542
▁PM	-9.4458
ty	-9.44589
▁laporan	-9.44602
▁keras	-9.44705
▁Sebelum	-9.44767
▁keselamatan	-9.44831
▁Ci	-9.44872
▁back	-9.44932
▁Februari	-9.45029
▁Memang	-9.45036
▁Dulu	-9.45235
▁lemak	-9.45243
▁Jawa	-9.45381
▁selesai	-9.45401
▁otak	-9.45436
▁bas	-9.45505
▁utara	-9.45603
▁Rasa	-9.45646
▁gi	-9.45709
▁data	-9.45721
Ke	-9.45792
▁Fa	-9.46047
▁lainnya	-9.46096
▁Wan	-9.46161
lin	-9.46243
▁bg	-9.46267
▁pro	-9.46272
▁sementara	-9.46298
▁Dua	-9.46354
▁Ba	-9.46376
tak	-9.46425
▁GA	-9.46464
we	-9.46525
▁23	-9.46541
▁gagal	-9.46655
▁Nanti	-9.46676
▁game	-9.46705
▁kedudukan	-9.46758
▁My	-9.46875
▁sebarang	-9.46916
▁bank	-9.47194
aku	-9.47205
▁pandai	-9.47277
▁Sampai	-9.47332
ers	-9.47457
▁how	-9.47462
▁berhenti	-9.47528
▁pasangan	-9.47662
▁happy	-9.47666
▁dm	-9.47704
▁Oh	-9.47846
▁urusan	-9.47846
▁nonton	-9.47871
▁Y	-9.47925
▁kalah	-9.47955
▁lokasi	-9.48033
eng	-9.48055
▁Sementara	-9.48126
▁Kak	-9.48222
▁alasan	-9.48278
▁Lebih	-9.48581
▁Sama	-9.48588
▁Wilayah	-9.48604
▁Walaupun	-9.48739
▁wang	-9.48782
▁love	-9.48905
▁mengalami	-9.49136
▁Putrajaya	-9.49143
▁dapur	-9.49173
▁jawatan	-9.49185
▁berbagai	-9.49199
Ma	-9.49345
▁memba	-9.49401
▁melibatkan	-9.49466
▁Makan	-9.49514
▁Tengah	-9.49534
▁rasanya	-9.49557
▁Jam	-9.49615
▁dilaksanakan	-9.49667
▁sayur	-9.49696
▁MENTERI	-9.49783
▁Najib	-9.49801
▁hp	-9.49895
▁To	-9.49919
▁pantai	-9.49973
kat	-9.49998
▁disini	-9.50023
▁manakala	-9.50051
▁kene	-9.50054
▁ex	-9.50079
▁Udah	-9.50152
▁harapan	-9.50508
▁te	-9.50739
▁Mo	-9.50779
ol	-9.50782
▁sahabat	-9.50827
▁acara	-9.50977
▁Mas	-9.50989
▁penggunaan	-9.51263
▁people	-9.51348
▁tukang	-9.51351
rah	-9.51362
▁kewangan	-9.51395
▁sehari	-9.514
nda	-9.51449
▁very	-9.51536
va	-9.51543
▁hahahaha	-9.51565
▁coklat	-9.51755
▁DM	-9.51765
▁Polis	-9.51857
▁barat	-9.51892
▁Jerman	-9.5193
▁Buku	-9.51945
▁sungai	-9.52048
▁tambah	-9.52113
18	-9.52126
▁tutup	-9.52137
hal	-9.52168
▁And	-9.52247
bah	-9.52345
▁2017	-9.52402
▁berusaha	-9.52415
▁bakar	-9.52429
▁Iran	-9.52494
▁menyediakan	-9.52585
▁pengguna	-9.52797
▁mangsa	-9.52847
▁Kerja	-9.52903
▁hm	-9.52978
▁menuju	-9.5302
▁diambil	-9.53045
▁tepi	-9.53064
ari	-9.53126
▁bagian	-9.53243
pu	-9.53269
▁Ri	-9.53297
▁ayat	-9.53307
▁hi	-9.53346
▁Da	-9.53427
▁man	-9.53449
▁terpaksa	-9.53535
▁kamar	-9.5354
▁semuanya	-9.53589
mer	-9.53602
▁pendapatan	-9.53611
▁dahulu	-9.53638
fi	-9.53721
ju	-9.53803
▁perbandaran	-9.53839
▁perjalanan	-9.53882
sel	-9.53922
▁individu	-9.53959
▁swasta	-9.54066
▁kurus	-9.54082
▁sumpah	-9.54279
▁some	-9.54336
▁him	-9.5438
▁melaksanakan	-9.54411
▁beri	-9.54443
▁chat	-9.54444
vi	-9.54558
▁undang	-9.54559
▁baby	-9.5458
▁umum	-9.54593
▁serius	-9.54809
▁murid	-9.54809
▁buang	-9.54873
▁sibuk	-9.54877
▁Januari	-9.55053
▁Penang	-9.55117
▁surat	-9.5513
▁Oleh	-9.55135
▁dilihat	-9.55199
ie	-9.55271
▁anti	-9.55312
▁disebabkan	-9.55346
▁meminta	-9.55386
▁lepak	-9.55409
ring	-9.55508
▁majlis	-9.55516
em	-9.5554
▁Daerah	-9.55657
▁pegawai	-9.55678
ban	-9.55698
▁tepat	-9.5592
jam	-9.55925
▁mimpi	-9.56037
▁ganti	-9.5609
▁Sebagai	-9.56238
▁nga	-9.56281
▁ig	-9.56295
▁tukar	-9.56352
▁Bank	-9.5644
▁Arab	-9.56518
▁Bahasa	-9.5653
▁pisang	-9.56553
▁maklumat	-9.56568
nd	-9.56588
▁Timbalan	-9.56628
25	-9.56653
▁bodo	-9.56662
▁Ayah	-9.56721
ker	-9.56773
▁mutualan	-9.56848
▁Tp	-9.5691
▁too	-9.56917
▁tenang	-9.56968
▁Ok	-9.56981
▁Antara	-9.56989
▁angin	-9.5741
▁Tinggi	-9.57452
▁pekerjaan	-9.57474
17	-9.57497
▁team	-9.57548
▁timur	-9.57608
▁model	-9.5763
▁about	-9.57703
▁menangis	-9.57713
▁bapa	-9.57746
▁min	-9.57757
land	-9.5778
nye	-9.57802
▁sesiapa	-9.57837
▁sektor	-9.57905
▁terutama	-9.5796
MA	-9.57969
▁New	-9.58103
▁namanya	-9.58203
▁bermain	-9.58276
▁besok	-9.5834
▁Terdapat	-9.58349
▁Cara	-9.58363
▁am	-9.58384
▁kekal	-9.58389
▁tenaga	-9.58445
▁An	-9.58523
▁su	-9.58544
kata	-9.58694
▁dapet	-9.58756
▁hutang	-9.58762
▁them	-9.58778
▁join	-9.58969
▁sihat	-9.59014
▁nie	-9.59031
▁kacang	-9.59108
▁Mi	-9.59114
gar	-9.59122
▁minit	-9.59234
hati	-9.59297
▁kajian	-9.59322
▁berharap	-9.59413
▁khusus	-9.59434
▁menerusi	-9.5948
▁akun	-9.59529
13	-9.5964
hu	-9.59651
▁miskin	-9.59671
▁loh	-9.59677
▁2016	-9.59681
▁menunggu	-9.59702
lak	-9.59774
tt	-9.5978
▁INI	-9.5981
▁mulut	-9.59886
▁yah	-9.59943
▁buruk	-9.60018
▁perniagaan	-9.60185
▁menurut	-9.60205
Q	-9.60221
▁dirinya	-9.60317
▁tiket	-9.60353
▁pokok	-9.60422
iii	-9.60432
▁terasa	-9.60531
▁ngan	-9.60624
▁malaysia	-9.60743
▁unit	-9.60974
▁panggil	-9.61043
▁Mari	-9.6121
▁bangunan	-9.61277
▁diper	-9.6131
bang	-9.61346
▁Wanita	-9.61419
▁has	-9.61455
▁apakah	-9.61495
▁please	-9.6161
▁demikian	-9.61635
▁DAP	-9.6165
▁alias	-9.61653
▁after	-9.61745
▁2015	-9.61768
▁pengalaman	-9.61866
▁really	-9.61896
▁kecik	-9.61911
▁menu	-9.61923
▁rakan	-9.61942
▁kerjasama	-9.62004
500	-9.62032
▁down	-9.62043
tok	-9.62081
▁40	-9.62132
▁Ayo	-9.62138
▁modal	-9.62219
▁pandangan	-9.62232
▁cikgu	-9.62317
▁Saat	-9.62408
▁Dato	-9.62438
▁terkenal	-9.62458
▁keperluan	-9.62525
▁cek	-9.62542
▁sedar	-9.62752
mah	-9.62768
uu	-9.62773
ris	-9.62832
▁album	-9.62921
▁belanja	-9.62975
dia	-9.63007
▁Atau	-9.63166
▁want	-9.63194
▁Ye	-9.63447
▁Maka	-9.6347
ion	-9.63477
▁jarang	-9.6355
▁why	-9.63638
▁Maaf	-9.6364
▁nasib	-9.63689
▁Haji	-9.63813
▁elok	-9.63913
▁sebulan	-9.64016
▁berusia	-9.64181
ation	-9.64188
▁2014	-9.64383
baik	-9.6441
▁Ja	-9.64483
▁Malam	-9.6449
▁operasi	-9.645
negara	-9.64536
Saya	-9.64601
▁gaya	-9.64605
AL	-9.64612
▁Hahahaha	-9.64669
set	-9.64848
▁batik	-9.64866
▁kelapa	-9.64954
▁tentu	-9.64969
mar	-9.65007
▁terbesar	-9.65069
▁We	-9.65119
▁lengkap	-9.65132
▁Selepas	-9.6519
▁usia	-9.65219
▁ketiga	-9.65306
▁jom	-9.65311
▁Do	-9.65319
▁jerawat	-9.65338
▁budaya	-9.65372
▁online	-9.65429
▁terlibat	-9.65492
▁60	-9.65515
▁28	-9.65518
▁Beli	-9.65588
▁tido	-9.65607
▁Harapan	-9.65654
▁gk	-9.6567
▁Abu	-9.65815
▁dll	-9.65954
▁terbuka	-9.65973
▁Korang	-9.65994
▁over	-9.66068
▁berani	-9.66265
▁pemerintah	-9.66423
▁hadapan	-9.66496
▁berhubung	-9.66523
▁terdiri	-9.66598
tin	-9.66673
▁27	-9.66752
▁positif	-9.66779
▁bersih	-9.66891
▁sedia	-9.66956
▁tok	-9.66982
▁minat	-9.67004
16	-9.67015
▁TV	-9.67049
▁Akta	-9.67107
mat	-9.67157
vo	-9.67187
day	-9.67205
▁pesan	-9.67214
▁part	-9.67313
▁Gak	-9.67377
baru	-9.67386
▁26	-9.67442
▁kain	-9.67505
▁samping	-9.67532
he	-9.67546
▁perhatian	-9.67575
▁sebahagian	-9.67709
▁minuman	-9.67718
▁dianggap	-9.67727
▁kering	-9.6773
▁harta	-9.67776
▁mobil	-9.67777
▁membuka	-9.67824
▁Gue	-9.6786
▁Padahal	-9.67911
ger	-9.67926
▁Korea	-9.67977
nt	-9.68018
▁lembut	-9.68026
▁trus	-9.68058
▁tdk	-9.68092
▁perubahan	-9.68101
▁Nah	-9.68266
annya	-9.68346
▁tanda	-9.68418
▁bole	-9.68478
▁new	-9.68516
▁umat	-9.68539
▁pasaran	-9.68586
▁puas	-9.68643
▁hukum	-9.68751
▁aman	-9.6877
▁Ibrahim	-9.68787
uh	-9.68855
▁klik	-9.6896
▁lahir	-9.69099
▁hang	-9.69131
▁Info	-9.69189
▁food	-9.69225
Nya	-9.69237
▁Sha	-9.69252
▁bertemu	-9.69275
▁BN	-9.69285
▁balas	-9.69309
len	-9.69343
▁mi	-9.69343
im	-9.69575
▁check	-9.69731
▁kebangsaan	-9.69759
▁perangai	-9.69783
rat	-9.69816
cu	-9.69871
▁begini	-9.69941
▁RAKYAT	-9.6997
if	-9.70021
▁diorang	-9.70122
dar	-9.70208
▁dadah	-9.70244
kg	-9.70317
▁saham	-9.70415
▁Ayam	-9.70462
▁off	-9.70486
les	-9.70549
▁pasar	-9.70562
▁berikut	-9.70579
24	-9.70662
▁gula	-9.70834
▁Ge	-9.7084
▁status	-9.70869
▁byk	-9.70872
100	-9.70912
▁YA	-9.71058
▁Anwar	-9.71059
TA	-9.7107
▁berbeza	-9.71117
▁Pernah	-9.71121
sha	-9.71163
my	-9.71188
▁Pagi	-9.71264
▁sampah	-9.71319
▁kosong	-9.71396
mm	-9.71516
ye	-9.71532
▁jualan	-9.71599
mas	-9.71686
dang	-9.71711
▁apapun	-9.71716
cer	-9.71735
▁open	-9.71775
▁terba	-9.71786
▁pegi	-9.71819
▁kebanyakan	-9.71883
▁contoh	-9.71898
▁meninggalkan	-9.71973
AT	-9.71986
▁ta	-9.72205
▁Peng	-9.72209
▁daging	-9.72284
▁Piala	-9.72321
▁meningkat	-9.72321
▁beras	-9.72344
ic	-9.72367
▁thread	-9.72376
▁menjalankan	-9.72387
▁lucu	-9.72397
▁membeli	-9.72409
dy	-9.72414
bat	-9.72467
▁wajib	-9.72501
▁Aceh	-9.72531
rang	-9.72565
▁Pengarah	-9.7275
▁menikmati	-9.72798
ser	-9.72818
▁mohon	-9.72852
▁islam	-9.72857
▁Singapura	-9.72972
tek	-9.73014
long	-9.73042
rak	-9.73053
▁setahun	-9.73078
tra	-9.73137
▁sanggup	-9.7315
▁jasa	-9.73159
ham	-9.73201
▁sem	-9.73252
▁lol	-9.73271
▁take	-9.73281
chi	-9.73355
▁Am	-9.73454
▁senyum	-9.73499
▁hospital	-9.73526
▁virus	-9.73579
▁its	-9.73662
▁NO	-9.73726
rt	-9.73742
▁29	-9.7378
▁Ti	-9.73827
21	-9.73902
den	-9.73981
▁Nur	-9.74005
▁geng	-9.74026
zi	-9.74087
▁sel	-9.74097
os	-9.74218
▁give	-9.74224
▁Min	-9.74276
▁kesalahan	-9.74334
▁dtg	-9.74356
▁fitnah	-9.74383
ep	-9.74445
▁kehilangan	-9.74456
▁tertentu	-9.7448
▁saling	-9.74491
▁Order	-9.74512
rin	-9.74532
kal	-9.74658
▁next	-9.74688
▁Pilihan	-9.74717
ts	-9.74732
90	-9.74768
▁tugas	-9.7481
AH	-9.74881
sia	-9.74903
▁lambat	-9.74939
▁reply	-9.7495
SI	-9.75003
▁dibawa	-9.75029
▁agensi	-9.75127
ron	-9.75141
▁Shopee	-9.7519
▁maju	-9.75234
ana	-9.75251
lam	-9.7527
▁payah	-9.75384
▁mai	-9.75422
▁fokus	-9.75652
▁hadiah	-9.75662
▁tambahan	-9.7572
▁komen	-9.75738
▁saudara	-9.75782
▁hebat	-9.75798
▁come	-9.75804
▁kesehatan	-9.75965
▁Hu	-9.76022
▁indonesia	-9.76061
▁Kedua	-9.76067
▁diterima	-9.76082
▁Ne	-9.76113
▁cam	-9.76144
▁phone	-9.76154
▁dapatkan	-9.7619
▁bernama	-9.76197
sar	-9.76246
▁Asli	-9.76252
▁September	-9.76265
▁kuota	-9.76379
▁diadakan	-9.76429
▁Bo	-9.76464
▁Perlis	-9.76492
▁durian	-9.76496
▁stress	-9.76541
▁study	-9.76557
▁BTS	-9.76566
▁ulang	-9.76634
▁TAK	-9.76657
▁menghasilkan	-9.7675
▁You	-9.76846
lain	-9.76924
▁rasmi	-9.76933
▁indah	-9.77047
▁peruntukan	-9.77116
▁ketemu	-9.7716
mata	-9.77169
▁200	-9.77205
▁Kata	-9.77245
▁sejuk	-9.77273
▁Kadang	-9.77322
aaaa	-9.77357
▁perang	-9.7737
▁Mohon	-9.77467
▁layak	-9.77544
▁terlihat	-9.77596
▁ra	-9.77623
har	-9.77624
KU	-9.77673
▁meter	-9.77724
ner	-9.77729
▁hubungi	-9.77766
▁Suka	-9.77838
▁berbuka	-9.77869
▁daya	-9.77925
▁PER	-9.78045
▁segi	-9.78068
▁kang	-9.7807
▁sial	-9.78111
ria	-9.78128
▁story	-9.78237
▁membentuk	-9.78238
▁Bhd	-9.78256
▁kanak	-9.78343
▁Co	-9.78355
sing	-9.78372
▁angkat	-9.7845
▁Ro	-9.78509
▁Pembangunan	-9.78543
▁bukak	-9.78569
▁ADA	-9.78578
▁dorang	-9.78661
▁NAK	-9.78697
▁simpan	-9.78787
▁admin	-9.78842
▁paham	-9.78849
▁before	-9.78908
benar	-9.78975
▁Terus	-9.78993
▁kematian	-9.7901
▁KUALA	-9.79036
▁bumi	-9.79057
▁abah	-9.7913
▁Cuma	-9.79188
Mu	-9.79196
▁Betul	-9.79235
▁td	-9.79243
▁sawit	-9.79256
▁which	-9.7931
lek	-9.79337
▁end	-9.79354
▁ambik	-9.79404
rap	-9.79615
able	-9.79682
ram	-9.79701
▁Twitter	-9.79762
▁Baju	-9.79814
▁meja	-9.79851
▁wan	-9.79877
▁memerlukan	-9.7992
▁f	-9.7998
▁seterusnya	-9.80128
▁Jl	-9.8027
▁menjual	-9.80273
▁browser	-9.80286
che	-9.80326
▁seminggu	-9.80411
▁Ismail	-9.80433
▁Lama	-9.80461
lar	-9.80469
▁salam	-9.80518
▁long	-9.80559
▁khususnya	-9.80632
▁single	-9.80666
▁Sumber	-9.80708
jah	-9.80772
▁must	-9.80783
▁Filem	-9.80898
▁pesawat	-9.81025
▁mendengar	-9.81201
ze	-9.81203
▁pejabat	-9.8126
▁Kat	-9.81282
▁Apakah	-9.81338
▁2013	-9.81353
▁patut	-9.81432
▁kipas	-9.81442
▁mengeluarkan	-9.8158
▁02	-9.81603
▁nyaman	-9.81629
▁group	-9.81634
▁dibuka	-9.81672
▁yaitu	-9.81792
▁pembinaan	-9.818
▁ketua	-9.81817
▁apalagi	-9.82015
▁hmm	-9.8202
▁Sembilan	-9.82083
▁lapar	-9.8211
▁kasi	-9.8214
▁pecah	-9.82189
▁beda	-9.82224
▁jin	-9.82371
▁takda	-9.82394
way	-9.82449
lt	-9.82501
▁Tol	-9.82519
▁dosa	-9.82569
▁Je	-9.82574
▁than	-9.82599
▁bi	-9.82616
▁bersyukur	-9.82665
▁kegiatan	-9.82671
▁Tentera	-9.82786
▁antarabangsa	-9.82801
▁life	-9.82852
▁whatsapp	-9.82853
▁krn	-9.82909
▁dikeluarkan	-9.82939
▁faktor	-9.82965
▁soalnya	-9.82976
sur	-9.82981
▁Pertama	-9.83028
▁UNTUK	-9.83044
▁Nabi	-9.83051
▁bukti	-9.83078
▁keje	-9.83099
▁tudung	-9.83102
▁Tanpa	-9.83104
ren	-9.83111
▁jiwa	-9.83138
35	-9.83164
▁Hati	-9.83187
▁asyik	-9.83325
▁WP	-9.83361
▁Okay	-9.83382
▁soalan	-9.83391
bel	-9.83514
▁Ekonomi	-9.8354
▁Pengerusi	-9.83669
▁lakukan	-9.83688
dak	-9.83711
▁full	-9.83771
▁sapa	-9.83804
car	-9.83861
ster	-9.8388
▁But	-9.83886
▁sebenar	-9.83949
▁Mahkamah	-9.84062
malaysia	-9.84142
▁masker	-9.84154
▁kepentingan	-9.84245
▁Kena	-9.84265
▁rapat	-9.84275
ff	-9.84276
yu	-9.84283
▁Mar	-9.84288
▁mem	-9.84302
▁tol	-9.84478
▁Pakatan	-9.8456
kali	-9.84598
▁tanggal	-9.84635
▁bisnis	-9.84642
▁tgh	-9.84649
▁Bi	-9.84671
▁Ah	-9.84829
▁Liga	-9.84898
▁menye	-9.84941
▁support	-9.85093
▁Ca	-9.85114
▁Pan	-9.85161
▁Kali	-9.85229
▁menit	-9.85265
▁aktif	-9.85281
▁melaka	-9.85314
▁gadis	-9.85352
raya	-9.85481
▁wujud	-9.85483
▁DEWAN	-9.85583
▁Pu	-9.85618
▁udara	-9.85626
▁ajar	-9.85641
▁promo	-9.85654
▁pandang	-9.85798
▁manfaat	-9.85846
▁bantal	-9.85881
▁nye	-9.85895
▁super	-9.85896
▁kemarin	-9.85961
▁presiden	-9.85975
▁lengan	-9.85996
▁dikatakan	-9.86001
▁lapangan	-9.86062
▁dada	-9.86125
▁menge	-9.86172
▁kuliah	-9.86205
▁aq	-9.86262
▁tulis	-9.86304
▁other	-9.86323
▁terutamanya	-9.86419
▁con	-9.86526
Ba	-9.86553
▁latihan	-9.86757
tri	-9.86814
gg	-9.86922
▁Seorang	-9.86926
▁allah	-9.86948
▁Pi	-9.8696
▁memper	-9.86996
▁NI	-9.87001
▁ayo	-9.87109
pak	-9.87132
▁gigi	-9.87172
▁ujian	-9.87173
ity	-9.87214
▁tersenyum	-9.8729
▁31	-9.87306
▁Thailand	-9.87316
**	-9.87322
▁sokongan	-9.8738
ist	-9.87399
▁pentadbiran	-9.87461
45	-9.87647
▁Z	-9.87682
▁Mat	-9.87697
▁arwah	-9.87705
▁hotel	-9.87715
▁Abdullah	-9.87723
▁huhu	-9.8774
▁bareng	-9.87785
▁peranan	-9.87797
▁November	-9.87804
▁takkan	-9.8787
▁Agama	-9.87889
▁benci	-9.8798
▁dun	-9.87986
▁Julai	-9.88007
▁IG	-9.88023
▁penjara	-9.88024
▁siasatan	-9.88025
▁sang	-9.88036
▁sidang	-9.88078
▁haram	-9.88239
▁kenderaan	-9.88312
▁die	-9.88318
▁niat	-9.88332
▁Tidur	-9.8835
▁Foto	-9.88442
cha	-9.88489
▁cannot	-9.88499
lon	-9.8853
▁plan	-9.8862
▁pakaian	-9.88664
▁cukai	-9.88675
▁berasal	-9.8868
▁setakat	-9.88682
▁Siap	-9.88698
▁lawa	-9.88882
▁Pro	-9.8892
▁01	-9.89127
▁ataupun	-9.89131
Pertua	-9.89139
▁dijadikan	-9.89177
ket	-9.89192
▁seng	-9.89193
▁mental	-9.89304
▁Waktu	-9.89304
tel	-9.89323
▁duk	-9.89335
ian	-9.89436
gen	-9.89478
duk	-9.89479
ala	-9.89509
▁enggak	-9.89522
nn	-9.89524
▁Oktober	-9.8955
▁perkembangan	-9.89564
nan	-9.8959
▁rendang	-9.8967
▁film	-9.89724
▁pertanian	-9.8975
▁pendek	-9.89784
▁sisi	-9.89799
▁Industri	-9.898
▁Aman	-9.89819
bak	-9.89826
26	-9.89841
▁At	-9.89842
hhhh	-9.89872
▁peduli	-9.89881
▁Jgn	-9.89892
▁Dasar	-9.89921
23	-9.89955
▁risau	-9.89975
▁pd	-9.90039
▁cadangan	-9.90132
▁dg	-9.90353
▁Bersama	-9.90361
▁much	-9.90394
▁mkn	-9.904
kkk	-9.90432
▁bingung	-9.90441
34	-9.90466
▁Disember	-9.90496
kin	-9.90498
ud	-9.90534
▁mengurangkan	-9.90548
kh	-9.90667
▁normal	-9.90778
▁pelaksanaan	-9.90821
▁hu	-9.90831
▁sekiranya	-9.90866
pp	-9.90896
▁oh	-9.90907
▁jer	-9.91012
▁Parti	-9.91086
▁Kanan	-9.91137
▁Rindu	-9.91152
▁sewa	-9.91214
▁nombor	-9.91314
▁Seperti	-9.91358
▁akak	-9.91366
▁cermin	-9.91392
▁Repost	-9.91474
▁padi	-9.91488
▁cocok	-9.91492
▁jodoh	-9.91712
▁Ingat	-9.91732
▁Baca	-9.91748
▁pertanyaan	-9.9181
▁Badan	-9.91836
▁aplikasi	-9.91862
aq	-9.91864
The	-9.91883
▁enam	-9.91982
▁update	-9.91985
▁Biar	-9.91996
dam	-9.92009
▁berdiri	-9.92099
▁ngomong	-9.92099
▁Provinsi	-9.92131
▁Para	-9.92166
▁selatan	-9.92201
▁sebelumnya	-9.9225
▁Pejabat	-9.92277
▁Baik	-9.92285
▁Bagaimana	-9.92404
Malaysia	-9.9243
▁LUMPUR	-9.92458
▁perlawanan	-9.92463
▁malem	-9.92467
▁Klang	-9.92485
▁For	-9.92515
▁ad	-9.92521
▁Bas	-9.92556
▁wkwkwk	-9.92615
▁im	-9.92641
▁kuih	-9.9265
ler	-9.92704
▁telur	-9.92841
▁dijangka	-9.92861
▁kapan	-9.92871
▁maybe	-9.92917
res	-9.92962
tis	-9.93021
ING	-9.93044
▁Dapat	-9.93175
▁campur	-9.9319
▁Inggeris	-9.93214
▁Ho	-9.93221
▁mesin	-9.9328
▁pos	-9.93289
▁halal	-9.93438
▁Seksyen	-9.93482
uuu	-9.93497
▁APA	-9.93555
▁kebaikan	-9.93611
ANG	-9.93645
▁rep	-9.93674
▁berkuasa	-9.93682
Quran	-9.93717
▁bunyi	-9.93733
▁undi	-9.93737
▁sadar	-9.93753
▁Sejak	-9.93812
▁ribu	-9.9383
bal	-9.93868
▁Jo	-9.93924
dik	-9.93968
▁alami	-9.93987
las	-9.9401
ina	-9.94038
ate	-9.94054
▁those	-9.94231
▁PKR	-9.94256
tur	-9.94273
▁pemandu	-9.94319
bul	-9.94319
▁show	-9.94323
▁menghadapi	-9.94353
▁stay	-9.94376
▁run	-9.94398
▁tanggungjawab	-9.94407
▁gelap	-9.94431
▁Abang	-9.94487
▁International	-9.94506
SA	-9.94507
▁dana	-9.94574
Kita	-9.94671
▁pengurusan	-9.94677
▁perak	-9.94721
▁Po	-9.9474
▁amik	-9.94757
mp	-9.94777
▁better	-9.94819
▁real	-9.94874
▁doakan	-9.94911
▁pertumbuhan	-9.94927
▁bad	-9.94981
▁pasang	-9.95044
▁GUK	-9.95103
▁jari	-9.95104
▁many	-9.95172
▁jahat	-9.95246
▁Ru	-9.95258
▁Takde	-9.95275
Di	-9.95501
▁Hospital	-9.95509
▁Ogos	-9.95538
▁mood	-9.95559
▁korban	-9.9561
▁putus	-9.95675
▁Sdn	-9.95701
▁dibawah	-9.95715
tau	-9.95767
▁pn	-9.958
▁same	-9.95804
▁car	-9.9582
▁level	-9.95921
▁biru	-9.9593
▁dijalankan	-9.95941
rr	-9.95955
▁PT	-9.95964
▁Sabtu	-9.9597
▁menyertai	-9.96023
▁Bulan	-9.9605
isme	-9.96086
▁berdua	-9.96087
▁Petaling	-9.96094
▁trs	-9.96102
▁Coba	-9.9612
ish	-9.9618
▁laju	-9.96208
▁power	-9.96297
▁viral	-9.96399
▁Produk	-9.96437
▁pulau	-9.96512
▁tingkat	-9.96517
▁lawan	-9.96606
▁bergerak	-9.96657
▁asas	-9.96723
▁Perang	-9.96729
▁hantar	-9.96828
▁luas	-9.96844
▁LA	-9.96854
mba	-9.96854
▁cuci	-9.96865
▁Australia	-9.96904
▁mengadakan	-9.9692
▁Kereta	-9.96946
48	-9.97029
▁bertanya	-9.97032
▁kurung	-9.97048
▁were	-9.97094
▁pelik	-9.97102
▁Kok	-9.97132
tahun	-9.97145
▁kerusi	-9.9719
▁Subang	-9.97192
▁kayu	-9.97223
▁Masyarakat	-9.97246
▁sure	-9.97307
▁seni	-9.97347
▁pem	-9.97431
▁Minyak	-9.97582
▁LISAN	-9.97667
▁Hasil	-9.9771
▁year	-9.97722
▁Dapatkan	-9.97743
sal	-9.97781
▁Manusia	-9.9783
▁dipakai	-9.97967
▁Maha	-9.98012
▁ditemui	-9.98026
lia	-9.98039
28	-9.98041
▁Sukan	-9.98142
▁Warna	-9.98183
▁berarti	-9.98185
▁Whatsapp	-9.98195
ted	-9.9824
▁tips	-9.98356
jar	-9.9837
▁serangan	-9.98377
ow	-9.98418
▁any	-9.98444
▁sikap	-9.98445
pm	-9.98535
eee	-9.98571
▁stop	-9.98644
▁rajin	-9.9868
▁never	-9.98684
▁Belum	-9.98731
▁WIB	-9.98787
▁Nasib	-9.98801
ning	-9.98948
▁Ramai	-9.98981
▁kemana	-9.98998
▁TER	-9.99023
▁line	-9.99076
▁Ce	-9.99078
▁ukuran	-9.99104
]	-9.99106
▁Otak	-9.99108
▁sukan	-9.99196
▁sahur	-9.99223
▁sebaliknya	-9.99249
▁Sy	-9.99273
▁pikir	-9.99288
▁smpai	-9.99305
▁comel	-9.99313
▁Bismillah	-9.99345
▁kertas	-9.99354
▁Poskod	-9.9948
▁sah	-9.99503
2020	-9.99577
▁lemah	-9.99595
▁?!	-9.99599
▁syarat	-9.99608
mis	-9.99616
▁Masuk	-9.99625
IK	-9.9972
om	-9.99739
▁karya	-9.99771
▁kesian	-9.99792
▁sambung	-9.99823
▁our	-9.99823
▁It	-9.99893
▁rupanya	-9.9993
▁wakil	-9.99979
▁Bersatu	-10.0003
▁ge	-10.0005
▁menolak	-10.0015
rai	-10.0017
▁alhamdulillah	-10.002
▁selesa	-10.0026
akan	-10.0031
jang	-10.0031
▁semata	-10.0033
▁should	-10.0035
▁ama	-10.0038
▁Mama	-10.0042
age	-10.0043
▁menambah	-10.0044
▁Desa	-10.0045
▁Sedih	-10.0048
▁hai	-10.0049
jak	-10.006
▁sdh	-10.0062
▁hijau	-10.007
▁memandang	-10.0072
▁bagaimanapun	-10.0076
▁Tetapi	-10.0082
▁abg	-10.0084
▁sorry	-10.0086
▁Vi	-10.0095
▁Pantai	-10.0095
▁Amin	-10.0096
wo	-10.0099
let	-10.0102
▁klinik	-10.0109
29	-10.0114
▁haiwan	-10.0115
▁Kesihatan	-10.0116
▁dont	-10.0117
▁berakhir	-10.0119
▁universiti	-10.012
cak	-10.0126
▁bekalan	-10.0132
▁Yu	-10.0133
▁pemenang	-10.0136
▁Syed	-10.014
▁Cinta	-10.0141
tas	-10.0143
▁would	-10.0143
org	-10.0146
▁Bin	-10.0147
one	-10.0153
Per	-10.0156
▁Ikan	-10.0161
est	-10.0161
fu	-10.0163
▁Panjang	-10.0164
▁cik	-10.0165
▁Laut	-10.0172
▁mengikuti	-10.0185
▁pakcik	-10.0185
▁Dipertua	-10.0189
▁2010	-10.019
▁dri	-10.021
▁Za	-10.0216
ara	-10.0217
▁tunjuk	-10.0218
▁Con	-10.0229
200	-10.0229
▁bela	-10.0232
▁pelaburan	-10.0237
▁shopee	-10.0239
▁bohong	-10.0241
▁aspek	-10.0248
dok	-10.0251
by	-10.0256
▁work	-10.0262
▁daun	-10.0265
▁Antarabangsa	-10.027
▁YG	-10.0272
▁Esok	-10.0276
but	-10.0282
tal	-10.0282
▁perusahaan	-10.0283
▁dewasa	-10.0288
▁HARGA	-10.029
▁hujung	-10.0292
▁Lalu	-10.0293
▁yo	-10.0296
ps	-10.0304
ent	-10.0304
ras	-10.0305
▁berlangsung	-10.031
55	-10.0315
▁kemudahan	-10.0318
▁case	-10.0319
▁Jenis	-10.0324
kas	-10.0345
nu	-10.0345
95	-10.0348
▁wah	-10.0349
▁tim	-10.0353
▁lepastu	-10.0354
▁Republik	-10.0355
▁Tenggara	-10.0358
▁Walau	-10.0359
▁pinjaman	-10.0359
ey	-10.0364
▁sepenuhnya	-10.0368
▁plus	-10.0368
nah	-10.037
▁gelak	-10.0372
▁un	-10.0372
▁sesi	-10.0377
▁Paling	-10.0377
▁Time	-10.0381
oo	-10.0387
▁pindah	-10.0389
PA	-10.039
▁v	-10.04
▁ce	-10.0403
▁dipanggil	-10.0405
▁tv	-10.0408
sir	-10.0414
▁cina	-10.0414
▁sengaja	-10.0418
60	-10.042
▁help	-10.0427
▁FREE	-10.0428
▁United	-10.0431
▁Facebook	-10.0436
▁menjawab	-10.0441
▁already	-10.0443
ding	-10.0447
▁institusi	-10.045
▁sate	-10.0462
▁setuju	-10.0465
yah	-10.0466
kerja	-10.0468
nas	-10.0469
peng	-10.0476
▁Tiada	-10.0479
▁Lokasi	-10.0485
▁Che	-10.0501
▁disebut	-10.0506
▁Sayang	-10.0512
▁besi	-10.0516
▁home	-10.0519
▁HARI	-10.0519
▁Sakit	-10.0519
▁Minggu	-10.0535
▁perkataan	-10.0536
▁kemas	-10.0537
▁menga	-10.0537
▁Beberapa	-10.054
▁kirim	-10.0546
▁nenek	-10.0547
▁dibina	-10.0548
▁pelanggan	-10.0548
ine	-10.0551
pas	-10.0552
IS	-10.0552
▁konsep	-10.0558
kon	-10.0562
ab	-10.0568
▁peningkatan	-10.0568
▁digital	-10.0575
▁biji	-10.0579
▁peserta	-10.0584
▁sempurna	-10.0592
▁big	-10.0596
▁hard	-10.0609
▁Tadi	-10.061
▁Fi	-10.0615
▁kecewa	-10.0625
sin	-10.0626
▁right	-10.0626
▁memenuhi	-10.063
27	-10.0634
▁ca	-10.0642
Pe	-10.0643
▁muslim	-10.0647
▁vs	-10.0647
itas	-10.0652
01	-10.0655
▁mom	-10.0659
▁sp	-10.066
ST	-10.0661
▁reti	-10.0666
▁mulu	-10.0667
▁Tanjung	-10.0668
▁grab	-10.0671
▁berhasil	-10.0677
▁bawang	-10.069
▁plastik	-10.0691
▁Gua	-10.0695
▁Prabowo	-10.0698
pur	-10.0698
▁jantung	-10.0698
▁En	-10.0702
▁El	-10.0703
IT	-10.071
▁Akhirnya	-10.0713
yan	-10.0714
▁plak	-10.0715
▁raja	-10.0716
▁SO	-10.0723
▁Ak	-10.0725
sari	-10.0727
▁halus	-10.0728
que	-10.073
▁Teknologi	-10.0732
▁mbak	-10.0734
jalan	-10.0735
bur	-10.074
▁sebut	-10.074
▁buy	-10.0746
anda	-10.0753
▁II	-10.0754
▁nder	-10.0755
ib	-10.0755
▁nyanyi	-10.0757
ive	-10.0757
▁pembangkang	-10.0763
▁Itali	-10.0767
▁langit	-10.0768
▁MAU	-10.0771
▁90	-10.0771
▁Kulit	-10.0773
▁ho	-10.0785
▁nnti	-10.0795
▁Akan	-10.0798
▁siri	-10.0798
▁well	-10.0799
▁Cepat	-10.081
▁cuman	-10.081
▁palsu	-10.081
▁tetep	-10.0812
mak	-10.0817
▁Happy	-10.0819
▁usah	-10.0822
DA	-10.0829
▁mamak	-10.0833
SE	-10.0838
uri	-10.0839
▁lancar	-10.0846
▁papa	-10.0848
▁kesempatan	-10.0849
▁Az	-10.0856
49	-10.0864
▁diet	-10.0868
IM	-10.0868
▁Apabila	-10.087
▁Menengah	-10.0871
▁infrastruktur	-10.0875
▁melebihi	-10.0879
▁City	-10.0879
La	-10.0883
▁kondisi	-10.0884
▁pemerintahan	-10.0889
▁Kewangan	-10.0894
▁mengetahui	-10.0903
▁informasi	-10.0904
▁tuan	-10.0907
36	-10.0908
▁sha	-10.0908
ver	-10.0909
▁Super	-10.0912
con	-10.0913
▁Luar	-10.0914
▁Sbb	-10.0914
▁kekuatan	-10.0917
▁been	-10.0921
▁taman	-10.0922
▁walau	-10.0922
des	-10.0926
70	-10.0928
▁Moga	-10.0936
▁Du	-10.0936
▁Kim	-10.0945
▁MALAYSIA	-10.0946
▁Razak	-10.0951
▁menulis	-10.0952
▁entah	-10.0958
▁Kemudian	-10.0963
▁botol	-10.097
▁potong	-10.0977
▁toko	-10.0977
▁pembelian	-10.0978
▁pelakon	-10.098
lama	-10.0987
▁menjelaskan	-10.0989
sy	-10.0991
▁blm	-10.0995
▁Turki	-10.0996
kawan	-10.0999
▁maksud	-10.1006
▁gojek	-10.1008
▁sedangkan	-10.1015
▁setia	-10.1015
▁Ben	-10.102
ven	-10.1021
▁mari	-10.1022
pet	-10.1026
RI	-10.1037
▁service	-10.1038
▁Lelaki	-10.104
▁berbeda	-10.1041
▁KM	-10.1042
daerah	-10.1045
▁ne	-10.1049
▁pegang	-10.1051
▁Shi	-10.1052
▁tulisan	-10.1053
▁Ukuran	-10.1055
▁Alor	-10.1057
▁Selalu	-10.1064
▁kementerian	-10.1067
▁Awak	-10.1068
▁kandungan	-10.1074
▁tanaman	-10.1078
>	-10.1079
▁disediakan	-10.1083
MU	-10.1087
▁sejenis	-10.1095
▁Eropah	-10.1096
GI	-10.1097
▁sore	-10.1099
▁Jawatankuasa	-10.1109
▁tamu	-10.1111
▁br	-10.1113
▁Darul	-10.1116
Sa	-10.1117
tro	-10.1122
▁posisi	-10.1125
▁membolehkan	-10.1126
▁BIN	-10.1128
▁Aziz	-10.1133
▁End	-10.1137
▁anaknya	-10.1152
▁maupun	-10.1153
TAN	-10.1162
angan	-10.1163
line	-10.1165
▁Instagram	-10.1166
ley	-10.1167
▁Lagu	-10.1168
▁pu	-10.1175
▁makcik	-10.118
▁ketawa	-10.1181
▁untung	-10.1186
CI	-10.1188
▁amalan	-10.1192
▁She	-10.1192
▁amanah	-10.1193
▁ala	-10.1201
▁menangani	-10.1216
▁Pasir	-10.1217
▁boss	-10.1218
▁bilangan	-10.1226
sis	-10.1232
▁dilantik	-10.1234
▁Ramadan	-10.1235
▁co	-10.1236
▁fungsi	-10.1245
▁pra	-10.1248
▁kg	-10.1258
ping	-10.1262
kir	-10.1264
▁menyokong	-10.1266
▁Guru	-10.1267
▁sukses	-10.1269
▁memakai	-10.1271
▁perasan	-10.1271
▁terkejut	-10.1273
▁jap	-10.1274
▁padang	-10.1279
▁kilang	-10.1294
▁Pra	-10.1294
dis	-10.1303
LAH	-10.1305
▁terbaru	-10.1307
▁Kumpulan	-10.1316
less	-10.133
▁Suruhanjaya	-10.1334
▁mendapati	-10.1344
▁pedas	-10.1346
▁customer	-10.1346
▁Asal	-10.1349
▁Bunga	-10.1357
▁komuniti	-10.1358
▁kebun	-10.1358
▁Isu	-10.1359
▁always	-10.1364
▁Sekali	-10.1367
▁Tempat	-10.1368
▁bukannya	-10.1368
▁j	-10.1372
▁permohonan	-10.1372
UN	-10.1374
▁PEMBERITAHUAN	-10.1375
▁berasa	-10.1377
▁kejar	-10.1381
▁kawin	-10.1395
ence	-10.1397
▁Bapak	-10.1399
▁mahkamah	-10.1405
▁Kon	-10.1414
▁parents	-10.1415
▁Siti	-10.1424
▁because	-10.1424
▁terlebih	-10.1425
rumah	-10.1425
▁suku	-10.1428
▁Free	-10.1443
▁sempena	-10.1444
▁kemenangan	-10.1445
▁Tau	-10.145
lip	-10.1458
iyah	-10.146
▁tegur	-10.1463
▁perjuangan	-10.1463
▁aset	-10.1466
▁Umum	-10.1468
KI	-10.1474
▁rawatan	-10.1474
▁rasuah	-10.1476
jen	-10.1478
bahan	-10.1481
▁tertinggi	-10.1481
ira	-10.1486
▁pendapat	-10.149
▁bosan	-10.1491
▁menentang	-10.1493
▁student	-10.1494
iti	-10.1494
▁kangen	-10.1498
▁hendak	-10.1501
▁Media	-10.1502
▁non	-10.1505
jan	-10.1506
33	-10.1506
▁jak	-10.1506
cantik	-10.1509
▁Mall	-10.1509
▁dek	-10.1509
▁Rahman	-10.151
bin	-10.1517
▁way	-10.1519
rus	-10.152
isi	-10.1527
▁bangga	-10.1528
ena	-10.153
▁kecuali	-10.1534
▁internet	-10.1537
▁Berat	-10.1538
mal	-10.154
pin	-10.1541
▁size	-10.1542
▁live	-10.1542
▁arahan	-10.1542
▁urut	-10.1544
▁perdagangan	-10.1544
▁jangka	-10.1545
▁sing	-10.1548
▁mat	-10.1548
▁segar	-10.1551
▁sekalian	-10.1552
▁mewujudkan	-10.1562
cur	-10.1562
CE	-10.1563
▁pelajaran	-10.1563
▁Video	-10.1564
▁diperlukan	-10.1564
▁bertindak	-10.1567
97	-10.1568
▁merasakan	-10.157
▁80	-10.1574
▁This	-10.1576
tip	-10.1578
▁far	-10.1581
▁kelantan	-10.1584
▁San	-10.1586
▁idea	-10.1587
22	-10.1588
▁Bang	-10.159
▁Tok	-10.1599
▁berkembang	-10.1599
▁mikir	-10.16
iya	-10.1603
▁membina	-10.1604
▁fb	-10.1606
iz	-10.1606
▁pre	-10.161
▁since	-10.1615
▁dlu	-10.1616
▁Ji	-10.1618
▁artis	-10.1622
ita	-10.1624
▁Pastu	-10.1628
▁mengatasi	-10.1635
UT	-10.1638
03	-10.1639
▁kaedah	-10.1639
▁Tahniah	-10.1639
▁tarik	-10.164
▁Benda	-10.1642
▁gerak	-10.1643
▁versi	-10.1645
▁muzik	-10.1649
▁British	-10.1651
din	-10.1652
▁mengandungi	-10.1655
▁obor	-10.1659
ret	-10.1661
▁Balik	-10.1663
▁kotak	-10.1664
▁pihaknya	-10.1665
▁Ustaz	-10.167
▁sungguh	-10.1671
▁dagang	-10.168
dung	-10.1685
gel	-10.1689
99	-10.1691
▁cincin	-10.1699
▁dipilih	-10.1701
ani	-10.1701
▁Jumaat	-10.1702
tion	-10.1706
▁Pegawai	-10.1716
▁MEN	-10.1718
▁Lim	-10.1724
80	-10.1726
▁ws	-10.1726
tah	-10.1726
▁Gi	-10.1728
▁seneng	-10.1733
▁use	-10.1735
▁ubat	-10.1741
▁St	-10.1742
▁gol	-10.1742
▁mengandung	-10.1744
▁doh	-10.1748
▁pacar	-10.1749
▁nasihat	-10.1753
▁SMK	-10.1755
▁Muda	-10.1763
sah	-10.1767
uan	-10.1775
▁bergantung	-10.1776
▁dijual	-10.1776
▁sederhana	-10.1776
▁terang	-10.178
US	-10.1781
▁getah	-10.1781
02	-10.1782
▁gara	-10.1794
war	-10.1795
▁bersatu	-10.1799
▁pm	-10.1812
▁bulu	-10.1819
▁takleh	-10.1821
▁bayaran	-10.1826
▁War	-10.183
zz	-10.1834
▁sub	-10.1837
▁move	-10.184
Me	-10.1841
▁Bahru	-10.1842
▁auto	-10.1845
TI	-10.185
af	-10.1856
▁langgar	-10.1862
▁kabar	-10.1866
▁sek	-10.1869
rs	-10.1869
▁Lembaga	-10.1872
▁daftar	-10.1873
Ka	-10.1879
▁perlahan	-10.188
▁play	-10.1889
▁subuh	-10.1894
▁btw	-10.1897
▁Rabu	-10.1897
▁watak	-10.1899
▁polisi	-10.19
▁tpi	-10.1901
▁tipu	-10.1902
▁office	-10.1903
▁Harap	-10.191
▁sisa	-10.1912
bes	-10.1913
▁feel	-10.1913
63	-10.1913
▁remaja	-10.1914
▁Bar	-10.1922
▁TIDAK	-10.1923
▁doktor	-10.1925
ary	-10.1925
▁Rasulullah	-10.1937
Ta	-10.194
▁Pekan	-10.1941
▁tapak	-10.1942
▁menyelesaikan	-10.1942
▁jarak	-10.1952
▁Gu	-10.1955
rit	-10.1957
▁Rm	-10.1957
▁into	-10.196
LI	-10.196
mon	-10.1963
▁ditahan	-10.1967
ies	-10.1968
▁bru	-10.1971
▁kejap	-10.1974
▁kuning	-10.1977
shi	-10.1981
▁kejayaan	-10.1982
▁nanya	-10.1986
bas	-10.199
▁situasi	-10.1992
▁Im	-10.1993
▁instagram	-10.1993
▁pelan	-10.1993
king	-10.1994
▁sifat	-10.2013
▁us	-10.2013
▁itulah	-10.2016
▁years	-10.2022
▁setengah	-10.2027
▁perkahwinan	-10.2028
▁shah	-10.203
▁Lah	-10.2036
▁Hmm	-10.2039
▁drive	-10.2041
▁akaun	-10.2042
▁punca	-10.2042
▁design	-10.2046
▁gatau	-10.2047
leh	-10.205
▁bos	-10.2051
▁tumbuh	-10.2056
▁2012	-10.2058
▁500	-10.206
▁penumpang	-10.2063
log	-10.2067
▁generasi	-10.207
▁tag	-10.2072
▁permainan	-10.2079
▁Kawan	-10.208
▁Material	-10.2083
▁Good	-10.2087
ini	-10.209
op	-10.2092
▁Kini	-10.2092
teman	-10.2093
▁popular	-10.2094
▁mengubah	-10.2095
▁lho	-10.21
▁everyone	-10.2109
▁Terbaik	-10.211
kam	-10.2113
MI	-10.2118
buk	-10.2119
▁fa	-10.2131
▁abad	-10.2132
▁dingin	-10.2133
▁Habis	-10.2134
▁Bandung	-10.2135
▁bertahan	-10.2135
ks	-10.2136
▁Sam	-10.214
ID	-10.2145
▁xde	-10.2147
▁2008	-10.2147
bertanggungjawab	-10.2149
▁aksi	-10.215
▁populasi	-10.2153
▁confirm	-10.2154
▁sejumlah	-10.2156
▁Keluarga	-10.2161
▁Org	-10.2162
▁Persatuan	-10.2164
▁gede	-10.2167
▁ready	-10.2169
▁memegang	-10.218
▁laman	-10.2184
▁Mudah	-10.2187
▁70	-10.2195
lit	-10.2196
▁kontrak	-10.2196
pro	-10.2198
▁PE	-10.22
▁Mcm	-10.2201
▁mba	-10.2201
▁Mata	-10.2203
▁telefon	-10.2205
▁pemilik	-10.2206
▁beradik	-10.2206
▁rancangan	-10.2206
▁nomor	-10.2212
▁gampang	-10.2212
▁dilaporkan	-10.2214
▁memahami	-10.2222
▁Ternyata	-10.2223
▁Aidilfitri	-10.2228
▁mengaku	-10.2229
▁Malah	-10.223
08	-10.2234
Pa	-10.2234
69	-10.2241
▁bertujuan	-10.2242
▁ramadhan	-10.2242
▁Ad	-10.2243
▁Kepala	-10.2245
▁aneh	-10.2246
▁pengeluaran	-10.2251
LA	-10.2251
▁event	-10.2256
ua	-10.2263
39	-10.2265
▁Pem	-10.2266
▁Best	-10.2269
▁HP	-10.227
▁ask	-10.2274
▁Size	-10.228
▁Kuantan	-10.2282
▁Padang	-10.2283
era	-10.2284
▁kekurangan	-10.2294
▁memasuki	-10.2295
▁teringat	-10.2296
▁bab	-10.2297
IA	-10.2299
kap	-10.2303
▁Cari	-10.2303
▁Park	-10.2306
▁depa	-10.2307
▁SM	-10.2308
▁2011	-10.231
▁jenayah	-10.2315
▁bukanlah	-10.2321
▁rata	-10.2322
▁yaaa	-10.2327
▁jela	-10.233
▁KA	-10.2333
par	-10.2334
▁today	-10.2335
▁menjalani	-10.2337
▁laluan	-10.2342
▁tas	-10.2363
▁pay	-10.2365
▁something	-10.2371
▁ORDER	-10.2375
▁Main	-10.2377
▁most	-10.238
rek	-10.2387
▁kunci	-10.2388
mb	-10.2389
▁Diraja	-10.2393
67	-10.2394
▁Tangan	-10.2398
▁Pasti	-10.2398
▁bertambah	-10.2399
▁parah	-10.2402
▁Pengen	-10.241
▁week	-10.2411
▁gabisa	-10.2413
▁Nga	-10.2415
▁belah	-10.242
ds	-10.2424
▁berkahwin	-10.2426
▁LAGI	-10.2428
▁rosak	-10.2431
▁giveaway	-10.2432
▁gais	-10.2433
▁ditetapkan	-10.2438
Ha	-10.2443
▁kacau	-10.2445
▁em	-10.2447
▁Istana	-10.245
OR	-10.245
▁diatas	-10.2453
▁Naik	-10.2453
▁ulama	-10.2455
▁pinggang	-10.2456
▁obat	-10.2458
▁DENGAN	-10.2462
▁Sabar	-10.2463
▁kelihatan	-10.2464
▁Dar	-10.2465
▁Selasa	-10.247
dal	-10.2472
▁pria	-10.2475
▁kelompok	-10.2477
▁Pasukan	-10.2482
▁ibadah	-10.2485
pal	-10.2492
▁nikmat	-10.2492
▁Berita	-10.2492
▁DIA	-10.2495
ay	-10.2497
▁berikutan	-10.25
▁look	-10.25
▁stok	-10.25
▁Selama	-10.2502
▁Kar	-10.2504
▁Chi	-10.2507
▁permintaan	-10.2508
▁asam	-10.2509
▁Tiba	-10.251
▁menawarkan	-10.2512
SK	-10.2513
▁terkini	-10.2513
▁Sebenarnya	-10.2518
▁Car	-10.2521
our	-10.2522
▁Tanya	-10.2522
▁Tengok	-10.2527
▁Lee	-10.2528
▁memutuskan	-10.2529
can	-10.2529
TU	-10.2533
pon	-10.254
▁Secara	-10.2542
▁35	-10.2545
▁report	-10.2549
▁kantor	-10.2557
▁song	-10.2558
▁emosi	-10.2561
▁Pasar	-10.257
▁po	-10.2571
▁sepatutnya	-10.2577
▁Q	-10.2578
isasi	-10.2578
▁mahasiswa	-10.2579
▁nu	-10.258
▁gitar	-10.259
▁biaya	-10.259
▁sekaligus	-10.2592
nk	-10.2594
▁ringan	-10.2595
59	-10.2597
▁sumbangan	-10.2597
out	-10.2599
▁Sangat	-10.2601
▁luka	-10.2605
▁global	-10.2606
▁pakar	-10.2606
puk	-10.2611
ي	-10.2612
food	-10.2619
▁Khas	-10.2621
▁Rt	-10.2623
ilah	-10.2631
▁DARIPADA	-10.2631
▁BUKAN	-10.2634
jin	-10.2636
▁cahaya	-10.2641
▁Sains	-10.2647
rd	-10.265
▁rokok	-10.2651
▁Bali	-10.2654
▁matahari	-10.2655
▁movie	-10.2656
▁slow	-10.2656
▁saiz	-10.2662
▁sembuh	-10.2663
▁pengetahuan	-10.2667
▁memenangi	-10.2671
▁Bahkan	-10.2672
▁inisiatif	-10.2677
▁beb	-10.268
▁contact	-10.268
OL	-10.2683
ER	-10.2685
▁mengumumkan	-10.2686
run	-10.2688
▁hukuman	-10.2688
▁Bagaimanapun	-10.2689
05	-10.2691
▁final	-10.2693
▁RAYA	-10.2694
▁sabah	-10.2699
sss	-10.27
▁Eng	-10.2705
ori	-10.2707
▁nyari	-10.2708
▁lulus	-10.2718
▁Buka	-10.2719
▁gaduh	-10.272
▁kpd	-10.2723
▁Sistem	-10.2733
▁result	-10.2736
rum	-10.2737
▁tr	-10.2737
▁face	-10.274
▁kad	-10.2743
CC	-10.2745
▁takpe	-10.2746
cy	-10.2746
▁kebutuhan	-10.2747
▁Belajar	-10.2749
64	-10.2751
31	-10.2759
▁pls	-10.276
▁mabuk	-10.2765
▁Bahagian	-10.2765
▁MB	-10.2766
44	-10.2769
▁om	-10.2769
▁Muka	-10.2773
▁laaa	-10.2773
▁Pertanian	-10.2773
▁Wah	-10.2773
▁kecantikan	-10.2774
▁tinggalkan	-10.278
HA	-10.278
cap	-10.2784
▁pusing	-10.2786
the	-10.2789
RM	-10.2796
▁pulsa	-10.28
▁kasar	-10.28
TE	-10.2805
DI	-10.2808
▁Berhormat	-10.2809
pat	-10.2811
olah	-10.2812
zu	-10.2815
▁ngn	-10.2818
▁curi	-10.2821
▁teriak	-10.2823
▁kualitas	-10.2825
▁dikenakan	-10.2829
▁keren	-10.2829
yy	-10.283
▁perbuatan	-10.2831
▁pengajian	-10.2834
▁Cukup	-10.2834
▁kemungkinan	-10.2838
lat	-10.2839
lok	-10.2841
▁separuh	-10.2843
▁Like	-10.2843
▁membunuh	-10.2847
06	-10.2853
▁Anugerah	-10.2855
▁diketahui	-10.2857
▁adanya	-10.2858
lur	-10.2862
▁Sumpah	-10.2864
▁DARI	-10.2869
tif	-10.2873
AS	-10.2875
▁tetiba	-10.2876
▁Kesian	-10.2877
net	-10.2879
▁SK	-10.2881
38	-10.2882
▁bintang	-10.2884
▁pipi	-10.2895
▁Cuba	-10.2901
▁PRU	-10.2902
ming	-10.2904
sak	-10.2904
▁bs	-10.2907
▁ditubuhkan	-10.2912
▁gas	-10.2914
▁Pakai	-10.2915
Re	-10.2918
kes	-10.2918
isu	-10.2921
▁lantai	-10.2923
▁Barang	-10.2927
▁sape	-10.2929
▁tgok	-10.293
▁Utama	-10.2932
▁bla	-10.2935
▁larut	-10.2935
▁tuhan	-10.2936
▁jujur	-10.2938
▁Es	-10.2938
▁top	-10.2939
▁cover	-10.2943
▁seolah	-10.2944
▁point	-10.2945
▁RI	-10.295
▁ujar	-10.2952
iah	-10.2952
▁Hotel	-10.2953
▁Makanan	-10.2955
▁house	-10.2962
▁berwarna	-10.2971
▁lingkungan	-10.2976
▁melindungi	-10.2979
▁kemalangan	-10.2979
▁Gunung	-10.2985
▁Putra	-10.2986
▁Gila	-10.299
▁HA	-10.2992
▁du	-10.2993
▁mewakili	-10.2998
tes	-10.3
▁silap	-10.3
▁berhampiran	-10.3
▁paket	-10.3004
▁mending	-10.3006
pang	-10.3011
oi	-10.3012
▁sekadar	-10.3013
fe	-10.3022
lem	-10.3022
▁ngantuk	-10.3023
▁bagai	-10.3025
▁GIVEAWAY	-10.3026
▁patah	-10.3026
▁kebenaran	-10.3027
▁petani	-10.3031
▁Pergi	-10.3034
▁memulakan	-10.3035
▁Nor	-10.3037
▁klu	-10.3042
tic	-10.3044
▁Adik	-10.3047
In	-10.3058
MDB	-10.3058
▁Kepada	-10.3059
▁es	-10.306
▁Azmin	-10.306
AI	-10.306
pt	-10.3062
▁Ju	-10.3063
▁MA	-10.3063
▁demam	-10.3063
TV	-10.3067
▁old	-10.3067
▁dipercayai	-10.3067
▁FA	-10.3068
65	-10.3072
▁mengenal	-10.3078
por	-10.3079
Ber	-10.308
96	-10.3081
▁emg	-10.3082
▁Setiausaha	-10.3083
tuk	-10.3088
tam	-10.3091
▁sulit	-10.3092
▁Punya	-10.3092
aan	-10.3093
▁Buah	-10.3094
▁menemukan	-10.3094
▁where	-10.3095
▁Sebuah	-10.3096
▁high	-10.3096
PH	-10.3098
37	-10.3098
ble	-10.31
kadang	-10.3101
▁kehadiran	-10.3102
aman	-10.3104
▁basuh	-10.3105
▁emak	-10.3109
▁bicara	-10.3111
▁sangka	-10.3112
▁Kes	-10.3115
makan	-10.3117
▁Perempuan	-10.3119
▁tujuh	-10.3125
▁45	-10.3125
▁MU	-10.3129
▁Perkhidmatan	-10.3129
▁ciri	-10.3131
▁Sepanyol	-10.3132
▁bahaya	-10.3133
▁seru	-10.3134
▁gunakan	-10.3137
lik	-10.3139
KE	-10.3141
▁menjelang	-10.3142
ns	-10.3143
▁Ade	-10.3144
▁All	-10.3149
▁ucap	-10.3149
▁tulang	-10.3161
ob	-10.3164
bulan	-10.3166
▁Sehingga	-10.3168
rasi	-10.3176
86	-10.3181
▁Mohamed	-10.3183
lum	-10.3186
▁nice	-10.3191
▁hamba	-10.3192
▁Perlembagaan	-10.3195
▁berjuang	-10.3195
▁Belanda	-10.3196
04	-10.3197
▁ucapan	-10.3199
▁membayar	-10.32
ooo	-10.32
sya	-10.3202
hat	-10.3204
▁silahkan	-10.3205
▁lebaran	-10.3207
▁berminat	-10.3208
awan	-10.3209
▁Inilah	-10.3212
▁job	-10.322
▁bercakap	-10.3221
▁era	-10.3224
▁dikit	-10.3227
▁membangun	-10.3229
▁2009	-10.3234
▁under	-10.3234
▁May	-10.3239
▁yu	-10.3244
▁kategori	-10.3244
▁masakan	-10.3245
▁Click	-10.3245
▁kasut	-10.3251
▁bermanfaat	-10.3252
▁stock	-10.3254
▁anjir	-10.3258
▁sen	-10.3266
▁Contoh	-10.3268
▁kite	-10.3272
▁tekanan	-10.3275
▁kemudiannya	-10.3279
jakarta	-10.3283
▁gembira	-10.3284
▁segini	-10.3286
▁berikan	-10.3286
sta	-10.3289
▁gus	-10.3292
▁menutup	-10.3293
AD	-10.3293
▁aj	-10.3301
▁tah	-10.3304
▁menahan	-10.3305
ben	-10.3306
▁merujuk	-10.3308
▁Bakar	-10.3308
▁moden	-10.331
zo	-10.3313
▁mirip	-10.332
▁mengapa	-10.3321
mbang	-10.3321
▁JANGAN	-10.3323
▁meletakkan	-10.3324
▁silam	-10.3327
▁mencoba	-10.3332
▁body	-10.3335
▁again	-10.3338
cat	-10.3341
uddin	-10.3345
▁makluman	-10.3345
ice	-10.3348
▁mantan	-10.3349
▁telinga	-10.3362
ologi	-10.3369
▁lilin	-10.337
pah	-10.3378
▁Mem	-10.3379
46	-10.338
▁terkena	-10.3383
wal	-10.3385
▁Banjir	-10.3387
for	-10.3387
▁kelab	-10.3389
HAN	-10.3391
AM	-10.3392
MP	-10.3393
▁Or	-10.3394
▁cewe	-10.3399
▁pengundi	-10.3401
▁adil	-10.3402
▁bkn	-10.3403
▁kasus	-10.3406
▁ditambah	-10.3407
▁Anti	-10.3408
▁sila	-10.3412
▁away	-10.3419
ngan	-10.342
▁beroperasi	-10.3422
▁simple	-10.3422
▁SPRM	-10.3427
▁sambal	-10.3428
=	-10.3428
79	-10.3431
▁Tabung	-10.3434
▁beg	-10.3437
▁meneruskan	-10.3439
▁Agong	-10.344
gh	-10.344
▁bersetuju	-10.3442
▁elektrik	-10.3446
▁bus	-10.3447
▁One	-10.345
▁kampus	-10.3451
rata	-10.3458
▁talk	-10.3461
mun	-10.3461
▁bibir	-10.3465
▁300	-10.3467
▁kebaya	-10.3475
▁Putih	-10.3475
▁Cha	-10.3475
▁gunung	-10.3478
gram	-10.3479
▁sarawak	-10.3484
tang	-10.3486
▁bernilai	-10.3488
▁company	-10.349
MB	-10.3492
▁crush	-10.3493
▁ketinggian	-10.3494
ft	-10.3495
▁laptop	-10.3502
cik	-10.3502
pek	-10.3502
NA	-10.3505
▁Teme	-10.3508
▁Cu	-10.3509
▁Semangat	-10.3512
▁sesama	-10.3512
▁course	-10.3516
▁Adam	-10.3517
▁pertemuan	-10.3518
▁SOALAN	-10.3528
32	-10.3532
▁titik	-10.3534
▁Penat	-10.3537
▁mesyuarat	-10.354
▁Sorry	-10.3546
ida	-10.3551
▁Kain	-10.3558
▁mencegah	-10.3559
daya	-10.356
▁belom	-10.3561
raf	-10.3561
jadi	-10.3561
▁tolak	-10.3563
▁perumahan	-10.3564
▁baginda	-10.3566
▁Minta	-10.3569
tum	-10.357
▁tegas	-10.3571
▁penerbangan	-10.3573
▁Maret	-10.3574
▁let	-10.3576
BA	-10.3581
put	-10.3582
▁ANDA	-10.3583
ez	-10.3584
▁Awam	-10.3588
▁suasana	-10.3596
▁Last	-10.3598
▁Lain	-10.3599
▁corona	-10.36
▁travel	-10.3607
▁bermakna	-10.3607
▁2001	-10.3613
▁Cik	-10.3615
don	-10.3616
▁acc	-10.3618
▁150	-10.3619
ل	-10.3619
▁Open	-10.362
▁melawan	-10.3624
▁vitamin	-10.3626
BN	-10.3627
▁settle	-10.363
▁On	-10.3632
▁timbul	-10.3633
88	-10.3638
▁sudut	-10.364
▁beban	-10.364
▁Cantik	-10.3641
▁bunuh	-10.3642
cho	-10.3652
▁Stadium	-10.3654
▁hamil	-10.3663
nder	-10.3663
▁bunda	-10.3667
▁Btw	-10.3668
▁Gambar	-10.367
ste	-10.3674
laki	-10.3679
▁US	-10.3685
▁WhatsApp	-10.369
▁Han	-10.3692
▁cream	-10.3692
▁berdoa	-10.3693
▁Tunggu	-10.3697
▁kuah	-10.3697
▁bersalah	-10.3698
▁least	-10.37
▁Set	-10.3701
47	-10.3703
ken	-10.3704
▁Kasih	-10.3705
▁Pos	-10.3709
▁izin	-10.3719
KA	-10.3722
▁gangguan	-10.3723
MAN	-10.3723
OK	-10.3724
▁bijak	-10.3725
▁Sal	-10.3725
ex	-10.3727
Ra	-10.3731
▁didakwa	-10.3732
pit	-10.3735
tasi	-10.3736
▁Budak	-10.3741
▁ditanya	-10.3745
▁menentukan	-10.3752
▁class	-10.376
▁siao	-10.3762
▁tarikh	-10.3763
▁diterbitkan	-10.3763
▁Tengku	-10.3766
▁Kedai	-10.3768
▁pikiran	-10.3772
▁nasional	-10.3773
▁ketiak	-10.3773
▁Projek	-10.3779
▁jelah	-10.3779
▁iklan	-10.3783
▁Ipoh	-10.3783
07	-10.3789
pot	-10.3796
▁Wow	-10.3797
▁sebentar	-10.3799
▁perjanjian	-10.3801
▁menyampaikan	-10.3803
▁Semalam	-10.3803
▁tanggung	-10.3804
▁haritu	-10.3809
▁Restoran	-10.3813
▁ijazah	-10.3815
▁penulis	-10.382
▁Bola	-10.3822
▁hahah	-10.3828
▁XL	-10.383
van	-10.3833
▁ji	-10.3834
eu	-10.384
▁pertandingan	-10.384
▁rela	-10.384
Bu	-10.384
▁Kiri	-10.3841
▁ALLAH	-10.3842
▁Agung	-10.3843
▁antaranya	-10.3844
▁engkau	-10.3851
▁Makin	-10.3852
ls	-10.3857
▁may	-10.3859
▁dise	-10.386
▁kerap	-10.3866
▁risiko	-10.3869
▁ikhlas	-10.387
lor	-10.3871
ED	-10.3872
▁inget	-10.3873
▁money	-10.3875
▁istilah	-10.3875
ika	-10.3875
▁problem	-10.3876
lai	-10.3877
▁berjumlah	-10.388
nis	-10.3883
ati	-10.3884
▁juara	-10.3886
▁lawak	-10.3891
54	-10.3892
▁Kecil	-10.3897
▁Barisan	-10.3902
▁Tri	-10.3903
▁2009,	-10.3904
▁Prof	-10.3906
▁bf	-10.3908
bab	-10.391
kom	-10.3912
▁maklum	-10.3913
buat	-10.3915
▁bukit	-10.3919
GB	-10.3921
▁inspirasi	-10.3922
94	-10.3923
▁SMA	-10.3931
▁memohon	-10.3932
bb	-10.3934
▁cendol	-10.3936
▁lot	-10.3938
bung	-10.3941
▁negatif	-10.3941
▁berkesan	-10.3943
▁fakta	-10.3945
75	-10.3946
▁Hutan	-10.3946
▁jaman	-10.3948
ONG	-10.395
dong	-10.3957
58	-10.3964
▁sepi	-10.3965
lim	-10.3974
▁Cerita	-10.3975
▁didapati	-10.398
▁Kejadian	-10.398
▁38	-10.3982
▁someone	-10.3984
300	-10.3985
▁alih	-10.3985
▁jahit	-10.399
▁Warga	-10.3997
▁ketupat	-10.4
aaaaa	-10.4002
tengah	-10.4003
▁bnyk	-10.4008
▁elektronik	-10.4008
▁Har	-10.4011
gas	-10.4012
sih	-10.4013
▁burung	-10.4014
▁seharusnya	-10.4018
▁sebesar	-10.4019
▁knp	-10.4021
▁kelebihan	-10.4024
▁ais	-10.4025
▁kepercayaan	-10.4026
▁mini	-10.4027
ibu	-10.4031
▁Kopi	-10.4031
AR	-10.4033
juk	-10.4038
itu	-10.404
▁singapore	-10.4041
▁thing	-10.4044
▁ditutup	-10.4044
▁fi	-10.4046
red	-10.4047
▁Berhad	-10.4048
;&	-10.4049
▁skincare	-10.4053
▁cepet	-10.4054
89	-10.4061
ct	-10.4062
▁jempol	-10.4062
▁bar	-10.4062
▁Mesti	-10.4064
▁hehehe	-10.4066
▁berke	-10.4071
bus	-10.4073
ulang	-10.4073
▁going	-10.4074
▁Abd	-10.4075
▁RE	-10.4078
▁gratis	-10.4083
▁males	-10.4084
76	-10.4085
macam	-10.4102
▁Pre	-10.4104
▁friends	-10.4106
▁DALAM	-10.4109
43	-10.4114
▁mencintai	-10.4115
▁actually	-10.4117
▁[[	-10.4118
▁hangat	-10.412
rul	-10.4121
▁retweet	-10.4125
▁laksa	-10.4125
nama	-10.4128
▁keuntungan	-10.4128
▁Tim	-10.4133
▁senjata	-10.4137
SS	-10.4146
Su	-10.4148
SM	-10.4148
sat	-10.4149
42	-10.415
time	-10.4152
▁sains	-10.4156
▁keep	-10.4157
▁penang	-10.4157
▁item	-10.4167
▁lebar	-10.4167
▁nyata	-10.4167
air	-10.4168
De	-10.4171
▁0812	-10.4171
▁rupa	-10.4172
▁garis	-10.4173
▁sweet	-10.4173
▁did	-10.4175
▁Kawasan	-10.4176
til	-10.4177
▁berterusan	-10.4179
▁bini	-10.4181
aran	-10.4182
km	-10.4184
pura	-10.4186
▁menyaksikan	-10.4187
▁aliran	-10.4193
▁PA	-10.4194
▁2000	-10.4197
ndang	-10.4199
pri	-10.42
▁Line	-10.4202
gara	-10.4202
▁lorong	-10.4202
▁kelak	-10.4216
▁Adakah	-10.4219
▁sg	-10.4222
▁Tiga	-10.4227
▁cewek	-10.4228
gra	-10.4228
▁pelaku	-10.4231
▁mendakwa	-10.4233
▁wife	-10.4236
▁peraturan	-10.4237
EN	-10.4239
▁kambing	-10.4239
▁hahahah	-10.4242
▁busy	-10.4243
▁persen	-10.4244
▁bahu	-10.4246
▁dihasilkan	-10.4248
cam	-10.4248
sor	-10.4251
▁perubatan	-10.4252
▁istri	-10.4255
▁dn	-10.4256
▁rugi	-10.4259
▁Syariah	-10.426
▁mlm	-10.4262
▁seri	-10.4264
kit	-10.427
sion	-10.4271
▁stesen	-10.4278
▁dikasih	-10.4278
atan	-10.4281
▁sebagainya	-10.4282
▁ongkir	-10.4282
▁basah	-10.4283
▁kemampuan	-10.4288
▁cat	-10.4291
▁profesional	-10.4292
▁barangan	-10.4294
▁cita	-10.43
▁percuma	-10.4305
▁meraih	-10.431
▁birthday	-10.4314
PP	-10.4315
of	-10.4316
teng	-10.4318
stra	-10.4323
▁Imam	-10.4323
Be	-10.4325
▁nelayan	-10.4326
kel	-10.4327
rasa	-10.4329
▁normally	-10.4332
IL	-10.4335
▁ntar	-10.434
▁Emang	-10.4341
JA	-10.4344
▁beneran	-10.4345
▁terkait	-10.4349
UK	-10.4361
▁Can	-10.4362
▁makeup	-10.4362
mate	-10.4363
▁pantas	-10.4364
jaya	-10.4365
▁night	-10.4369
▁Jaga	-10.437
▁•	-10.4372
▁Langkawi	-10.4373
bra	-10.4376
val	-10.4381
jat	-10.4386
▁cb	-10.4388
98	-10.4391
betul	-10.4392
tapi	-10.4392
▁sempadan	-10.4396
▁hg	-10.4396
▁SI	-10.4397
wah	-10.4398
cara	-10.4399
get	-10.4402
▁etc	-10.4404
ub	-10.4404
▁Ab	-10.4407
gambar	-10.4409
74	-10.4412
▁tradisi	-10.4416
▁tea	-10.4417
gam	-10.4418
▁kimia	-10.4419
▁KU	-10.4421
▁unik	-10.4422
68	-10.4423
▁sarjana	-10.4424
▁disana	-10.4425
▁Klik	-10.4425
▁DAH	-10.4426
▁MO	-10.4427
▁sepatu	-10.4427
▁ikutan	-10.4432
lid	-10.4432
▁PDRM	-10.4433
▁Entah	-10.4436
aga	-10.4437
▁uitm	-10.4439
shop	-10.4439
lis	-10.4445
UM	-10.4447
aka	-10.4448
▁sembang	-10.4449
▁dirimu	-10.4454
▁every	-10.4455
93	-10.4457
▁jiran	-10.4466
▁DE	-10.4466
▁menyesal	-10.447
▁Susah	-10.447
▁test	-10.4473
▁jo	-10.4473
▁Wi	-10.4476
Na	-10.4477
▁Ready	-10.4484
▁mere	-10.4485
▁Saudi	-10.449
nes	-10.4495
BU	-10.4497
dus	-10.4498
▁Ingin	-10.4499
▁friend	-10.4499
▁Airport	-10.4502
sul	-10.4502
mit	-10.4505
▁gr	-10.4505
▁johor	-10.4506
▁Malaysiakini	-10.4506
satunya	-10.4509
TER	-10.4511
▁ringkasnya	-10.4511
ew	-10.4513
▁pemesanan	-10.4514
▁Kerana	-10.4514
▁aras	-10.4514
▁mene	-10.4516
dek	-10.4516
ful	-10.4518
lap	-10.4518
▁pohon	-10.4522
▁Mulai	-10.4525
▁person	-10.4525
▁Bro	-10.4525
▁keturunan	-10.4528
84	-10.4532
▁promosi	-10.4536
fan	-10.4537
CH	-10.4541
▁done	-10.4541
▁KAU	-10.4542
▁made	-10.4543
▁Israel	-10.4546
jal	-10.455
▁SA	-10.4552
jt	-10.4554
▁kempen	-10.4556
▁Unit	-10.4557
ther	-10.4559
gr	-10.4561
▁PO	-10.4567
ac	-10.457
▁pembayaran	-10.4572
sap	-10.4572
▁penyanyi	-10.4573
▁wangi	-10.4576
▁menatap	-10.458
nak	-10.4583
▁32	-10.4585
▁sma	-10.4593
▁Pemerintah	-10.4596
▁insta	-10.46
▁geram	-10.4603
▁Bumiputera	-10.4603
▁SEMUA	-10.4604
▁Terimakasih	-10.4604
▁lak	-10.4608
▁pesakit	-10.4609
▁tamat	-10.461
▁hand	-10.461
▁Bharu	-10.4612
▁sup	-10.4613
ship	-10.4613
▁sukar	-10.4621
▁few	-10.4624
▁ME	-10.4626
jangan	-10.4627
▁tabung	-10.4629
▁Langsung	-10.4629
▁$	-10.463
▁Sekian	-10.4634
▁ganteng	-10.4637
▁Harini	-10.4639
▁Bantu	-10.4639
78	-10.464
▁sat	-10.4642
BI	-10.4648
56	-10.4649
▁Suara	-10.465
▁menggalakkan	-10.465
▁quite	-10.4651
▁TE	-10.4651
▁ju	-10.4652
LE	-10.4657
▁nda	-10.4659
▁two	-10.4659
▁betapa	-10.4663
▁saluran	-10.4668
raja	-10.4669
kai	-10.4671
▁Sahabat	-10.4671
▁jawa	-10.4673
▁sewaktu	-10.4674
▁sarapan	-10.4675
▁Pihak	-10.4677
▁saw	-10.468
▁BA	-10.4683
▁wei	-10.4683
▁perbelanjaan	-10.4687
▁Yo	-10.4689
▁fav	-10.469
▁nyawa	-10.4691
▁Sem	-10.4691
▁hahahahaha	-10.4692
pel	-10.4693
▁kah	-10.4694
▁these	-10.4694
lahir	-10.4695
▁transfer	-10.4696
▁prinsip	-10.47
iran	-10.4701
▁jawapan	-10.4702
ard	-10.4703
▁ASEAN	-10.4704
▁rekod	-10.4711
▁Hakim	-10.4712
53	-10.4713
cal	-10.4715
NI	-10.4717
▁tan	-10.4718
▁Jumlah	-10.4719
pol	-10.472
▁cowo	-10.472
▁mn	-10.4721
▁menimbulkan	-10.4722
tim	-10.4726
▁Pertahanan	-10.4726
▁sya	-10.4728
suk	-10.4733
▁aje	-10.4737
▁SU	-10.4737
▁dak	-10.4738
▁Kalian	-10.4741
▁Qu	-10.4741
▁fans	-10.4743
▁novel	-10.4749
kala	-10.4749
▁University	-10.4752
▁acah	-10.4753
az	-10.4753
cinta	-10.4754
77	-10.4755
▁mela	-10.476
▁Sesuai	-10.476
▁nafas	-10.4765
▁kemiskinan	-10.4766
41	-10.4767
▁nunggu	-10.4768
▁mengangkat	-10.477
▁kenyang	-10.4771
▁girl	-10.4771
▁kon	-10.4774
▁Dekat	-10.4775
▁cerah	-10.4776
foto	-10.4783
▁Guan	-10.4785
▁ampun	-10.4785
▁haji	-10.4789
▁rutin	-10.4792
▁kualiti	-10.4793
▁melahirkan	-10.4794
cing	-10.4796
qa	-10.4798
▁Sis	-10.4799
▁bermaksud	-10.48
sek	-10.4802
▁nutrisi	-10.4803
ngga	-10.4811
luk	-10.4812
▁taraf	-10.4812
langkah	-10.4812
▁perdana	-10.4815
▁dokter	-10.4824
▁around	-10.4824
▁Guys	-10.4827
▁JE	-10.4836
▁karpet	-10.4838
AK	-10.4841
▁madu	-10.4842
▁senarai	-10.4843
▁prestasi	-10.4844
▁SWT	-10.4847
▁akal	-10.4854
▁Pemuda	-10.4856
▁enable	-10.4858
▁Sepang	-10.4868
▁sambutan	-10.4873
▁kawalan	-10.4873
▁FB	-10.4882
▁COD	-10.4883
▁Bodoh	-10.4884
▁haih	-10.4885
nia	-10.4896
▁AJA	-10.4899
▁put	-10.4904
▁gerakan	-10.4905
aya	-10.4905
▁Sedap	-10.4906
▁pening	-10.4906
▁Team	-10.491
ES	-10.4911
▁memudahkan	-10.4912
▁water	-10.4914
▁ban	-10.4917
▁until	-10.4921
▁bersedia	-10.4922
▁hmmm	-10.4924
hara	-10.4928
▁exam	-10.493
▁peribadi	-10.4931
▁total	-10.4932
▁Akhir	-10.4936
ros	-10.4941
▁hot	-10.4942
▁Itulah	-10.4943
gal	-10.4943
▁tekan	-10.4946
▁requires	-10.4947
▁Halo	-10.4949
81	-10.4954
▁Nampak	-10.4955
▁Kg	-10.4956
aw	-10.4957
RE	-10.496
▁Tag	-10.4965
▁berumur	-10.4966
▁bag	-10.497
▁world	-10.497
asa	-10.4971
▁selanjutnya	-10.4975
85	-10.4978
▁FC	-10.498
▁Untung	-10.4981
boleh	-10.4982
▁Senang	-10.4983
▁cowok	-10.4985
▁wajar	-10.4986
▁Perumahan	-10.4987
▁Biasa	-10.4988
low	-10.4988
▁garam	-10.4988
ikan	-10.4994
▁setan	-10.4995
▁perlukan	-10.4995
▁Alamat	-10.4995
▁Emas	-10.5
▁eat	-10.5005
rrr	-10.5009
CA	-10.501
▁korea	-10.5014
LO	-10.5014
AU	-10.502
▁meskipun	-10.5021
▁Ai	-10.5023
▁gf	-10.5029
banyak	-10.5031
▁blh	-10.5033
▁tebal	-10.504
tera	-10.5042
dai	-10.5043
▁Dis	-10.5044
nti	-10.505
▁Qa	-10.5052
nik	-10.5053
ise	-10.5053
▁Ahad	-10.5055
▁menyebut	-10.5057
▁kenaikan	-10.5059
▁dikenal	-10.506
▁World	-10.5061
▁Sik	-10.5061
▁komunis	-10.5063
dir	-10.5063
cre	-10.5064
▁kencing	-10.5064
▁Berdasarkan	-10.5065
▁kerugian	-10.5071
suka	-10.5074
▁mengucapkan	-10.5075
▁pasir	-10.5076
▁nafsu	-10.5076
▁Masalah	-10.5079
▁kedah	-10.5081
▁Usaha	-10.5083
▁Promo	-10.5084
UNG	-10.5084
▁lunch	-10.5085
▁nnt	-10.5086
▁DO	-10.5087
▁Star	-10.5092
400	-10.5094
▁Merah	-10.5098
▁disabled	-10.51
▁melaporkan	-10.51
sam	-10.5102
back	-10.5103
▁care	-10.5105
▁block	-10.5106
Kami	-10.5106
▁Meow	-10.5111
▁skin	-10.5112
cil	-10.5113
SH	-10.5119
▁Minum	-10.5119
▁Bak	-10.512
▁find	-10.5125
▁Daripada	-10.5129
▁Looks	-10.5134
▁pendekatan	-10.5138
▁BISA	-10.5139
▁black	-10.5139
ld	-10.5141
▁berguna	-10.5144
▁school	-10.5145
▁Ex	-10.5145
ant	-10.5147
▁Sya	-10.5148
▁TO	-10.5152
]]	-10.5155
▁UiTM	-10.5157
▁head	-10.5161
▁wait	-10.5161
bek	-10.5162
▁PEN	-10.5166
SP	-10.517
▁Thanks	-10.5171
▁Port	-10.5174
▁list	-10.518
▁berfungsi	-10.5181
▁ORANG	-10.5182
▁musik	-10.5183
▁tradisional	-10.5183
▁dokumen	-10.5185
▁capek	-10.5186
▁organisasi	-10.519
▁Jan	-10.5193
▁mie	-10.5195
cah	-10.5202
▁udang	-10.5202
▁sebaik	-10.5205
▁Panas	-10.5206
▁hantu	-10.5206
▁DR	-10.5208
▁Hehe	-10.5209
▁mengawal	-10.5216
ip	-10.5222
▁mampus	-10.5223
abad	-10.5224
▁place	-10.5224
nga	-10.5225
▁menengah	-10.5226
▁musuh	-10.5227
▁ngakak	-10.5233
pad	-10.5236
▁cute	-10.5243
JK	-10.5245
▁Em	-10.5246
top	-10.5247
satu	-10.5248
▁being	-10.5248
▁kebahagiaan	-10.5251
▁cu	-10.5254
▁tokoh	-10.5254
▁TU	-10.5255
pada	-10.5256
▁Zaman	-10.5257
▁panggilan	-10.526
▁ngapain	-10.5262
▁Seremban	-10.5264
▁mempertahankan	-10.5265
▁hiasan	-10.5266
▁anggap	-10.5267
▁Atas	-10.5268
▁istana	-10.5269
▁matang	-10.5269
▁Sun	-10.5271
▁moh	-10.5272
▁merangkumi	-10.5272
▁maki	-10.5284
▁menggantikan	-10.5285
▁termasuklah	-10.5289
▁perlindungan	-10.5292
▁mendukung	-10.5294
▁majoriti	-10.5296
▁singgah	-10.53
▁wasap	-10.53
▁Demi	-10.5307
▁Then	-10.5308
▁First	-10.5309
▁Muhyiddin	-10.5311
▁Bangsa	-10.5313
66	-10.5313
dalam	-10.5322
kurangnya	-10.5324
▁perbincangan	-10.5328
▁santai	-10.5328
▁KAMI	-10.5329
▁tetangga	-10.5333
batik	-10.5335
meng	-10.5343
▁KAMU	-10.5343
▁awek	-10.5344
▁biskut	-10.5345
▁maut	-10.5347
ml	-10.5347
▁miss	-10.5351
▁keluarkan	-10.5352
▁Bagus	-10.5354
tha	-10.5355
▁Kalimantan	-10.5363
▁tema	-10.5366
▁purata	-10.5368
▁John	-10.5369
▁hanyalah	-10.5369
▁1440	-10.5374
▁pribadi	-10.5374
▁36	-10.5377
▁win	-10.5377
rut	-10.5377
▁Takut	-10.538
73	-10.5381
BP	-10.5381
▁berbahaya	-10.5382
▁lgi	-10.5385
ona	-10.5389
▁date	-10.5392
▁Puan	-10.5394
▁BUAT	-10.5395
▁Hahahahaha	-10.5396
NE	-10.5397
dh	-10.5399
ef	-10.5406
▁kafir	-10.5408
▁kenangan	-10.5411
▁cucu	-10.5414
▁Bangun	-10.5418
87	-10.5418
▁ngerti	-10.5419
▁Her	-10.5426
▁membenarkan	-10.5426
▁tell	-10.5436
▁tuu	-10.5437
art	-10.5438
sik	-10.5439
▁ngerasa	-10.544
▁Pertubuhan	-10.5441
▁Indah	-10.5442
▁uda	-10.5442
bai	-10.5444
▁jgk	-10.5445
▁fast	-10.5448
▁yakni	-10.5448
▁Semenanjung	-10.5449
kanlah	-10.5449
▁Please	-10.5451
hir	-10.5451
▁Tetap	-10.5462
▁TUAN	-10.5465
▁jubah	-10.5466
pus	-10.547
▁Teluk	-10.5471
▁grup	-10.5472
hen	-10.5475
▁terbukti	-10.5475
▁pendaftaran	-10.5477
▁strategi	-10.5478
lly	-10.5483
▁Online	-10.549
▁Weh	-10.549
ness	-10.549
PU	-10.5491
▁lelah	-10.5495
pagi	-10.5505
▁melancarkan	-10.5506
▁shopping	-10.5508
cin	-10.5513
▁Membantu	-10.5515
▁matanya	-10.5515
800	-10.5517
lagi	-10.5519
▁own	-10.5519
ora	-10.5522
Si	-10.5522
mor	-10.5524
tika	-10.5525
▁bah	-10.5525
▁padu	-10.5528
▁Au	-10.5529
▁weekend	-10.5535
OS	-10.5537
▁adek	-10.5537
▁Sila	-10.5539
main	-10.5542
▁sok	-10.5543
▁merawat	-10.5547
▁cabaran	-10.555
▁dirumah	-10.555
▁mahupun	-10.5551
▁another	-10.5557
ciri	-10.5558
▁web	-10.5559
▁pesanan	-10.5561
ASI	-10.5564
▁menyambut	-10.5565
▁Hello	-10.5565
▁2007	-10.557
▁meme	-10.5572
▁SPM	-10.5579
▁keterangan	-10.558
▁berlalu	-10.5583
▁>	-10.5585
▁racun	-10.5587
bet	-10.559
ET	-10.5591
▁kamera	-10.5592
▁deket	-10.5597
▁bertanding	-10.5604
tahu	-10.5604
boy	-10.5605
ance	-10.5606
▁dilahirkan	-10.5607
▁drpd	-10.5608
▁Hassan	-10.5608
laut	-10.5614
▁nah	-10.5617
▁What	-10.5617
rik	-10.5618
DE	-10.5619
▁berbuat	-10.563
▁terdekat	-10.5632
▁angka	-10.5641
▁radio	-10.5642
▁bancian	-10.5645
▁tali	-10.5645
▁menghadiri	-10.5648
▁Nge	-10.5651
ach	-10.5657
▁engga	-10.5657
▁toilet	-10.5662
▁berasaskan	-10.5665
▁Papua	-10.5666
▁suspek	-10.5667
zim	-10.5667
▁penjelasan	-10.5667
▁paksa	-10.5667
▁kelakar	-10.5668
▁Surabaya	-10.5668
▁KITA	-10.5668
▁suci	-10.5669
hak	-10.5669
▁gudang	-10.5669
nam	-10.5672
▁bersifat	-10.5672
▁nmpk	-10.5675
▁Sang	-10.568
▁Karna	-10.5681
▁dinding	-10.5682
rom	-10.5687
▁ali	-10.5694
▁katil	-10.5697
▁amin	-10.5699
▁rencana	-10.5699
▁sasaran	-10.57
▁Real	-10.57
▁Dh	-10.57
TAR	-10.57
▁Undang	-10.5702
uni	-10.5703
lih	-10.5705
qi	-10.5708
dut	-10.5709
ous	-10.5711
LAN	-10.5711
▁Ala	-10.5714
▁penyelesaian	-10.5715
tai	-10.5717
▁sbg	-10.5717
▁kumpul	-10.5722
▁rangkaian	-10.5724
▁pemikiran	-10.5725
▁mulia	-10.5726
▁Un	-10.5726
▁berfikir	-10.5727
▁driver	-10.5727
▁cha	-10.573
▁Day	-10.5736
Mo	-10.5736
▁oke	-10.5739
▁ci	-10.5741
PI	-10.5742
KL	-10.5749
▁Up	-10.575
▁tepung	-10.5751
una	-10.5753
▁both	-10.5753
▁Perkara	-10.5755
▁Thank	-10.5756
dap	-10.5758
qu	-10.576
▁sesetengah	-10.5764
▁adakah	-10.5764
▁aircond	-10.5765
▁Wo	-10.5766
▁transaksi	-10.5769
Te	-10.577
▁paper	-10.5772
▁beza	-10.5781
▁misi	-10.5781
▁Puteri	-10.5781
▁penye	-10.5782
eksi	-10.5782
BO	-10.5783
stan	-10.5791
▁mampos	-10.5794
▁memperoleh	-10.5797
gang	-10.5799
|	-10.58
▁luck	-10.5803
won	-10.5804
ue	-10.5805
▁laku	-10.5813
▁mengekalkan	-10.5816
▁gemuk	-10.5816
▁PROMO	-10.5818
▁lesen	-10.582
▁membuktikan	-10.5823
pes	-10.5825
▁Ram	-10.5829
▁Menurutnya	-10.5831
▁2004	-10.5833
▁Kira	-10.5835
▁menegaskan	-10.5839
jer	-10.584
▁Begitu	-10.584
▁memainkan	-10.5844
rakan	-10.5846
▁mewah	-10.5847
▁restoran	-10.585
bon	-10.5851
▁ekor	-10.5852
▁memperkenalkan	-10.5854
and	-10.5856
▁hidung	-10.5857
▁IDR	-10.5859
▁harimau	-10.5862
▁kuliner	-10.5864
▁denger	-10.5864
▁Sumatera	-10.587
▁buta	-10.5871
▁disuruh	-10.5872
kor	-10.5875
kong	-10.5875
▁Roti	-10.5875
▁merata	-10.5876
09	-10.5877
▁syukur	-10.588
▁kaos	-10.5882
▁kemahiran	-10.5887
▁jdi	-10.5888
▁band	-10.589
▁Gudang	-10.5894
▁ae	-10.5898
▁berkongsi	-10.5899
rup	-10.5901
▁selagi	-10.5901
▁serum	-10.5901
tung	-10.5903
▁mobile	-10.5904
▁mcd	-10.5904
▁menya	-10.5905
▁penge	-10.5908
▁mean	-10.591
▁gajah	-10.5912
ses	-10.5913
ight	-10.5914
▁Hitam	-10.5916
bor	-10.5918
▁selera	-10.5918
tem	-10.5919
tab	-10.592
▁BAGI	-10.592
▁berse	-10.5921
▁senior	-10.5925
tun	-10.5925
UH	-10.593
WA	-10.5932
▁MRT	-10.5935
▁Gombak	-10.5939
▁Kabinet	-10.5941
lla	-10.595
▁Medan	-10.5951
▁efek	-10.5952
cut	-10.5952
▁dress	-10.5954
▁Malaya	-10.5955
▁jakarta	-10.5955
▁Kurang	-10.5956
VI	-10.5956
▁nek	-10.5957
▁Juga	-10.5959
▁bekerjasama	-10.5961
▁wong	-10.5964
▁DATO	-10.5964
▁fun	-10.5966
▁ruangan	-10.5966
rong	-10.5967
▁Rom	-10.5969
▁caranya	-10.597
▁pengarah	-10.597
▁Setar	-10.5973
▁Seni	-10.5977
▁Institut	-10.5977
▁kari	-10.598
NG	-10.5981
▁London	-10.5984
▁yak	-10.5986
▁Felda	-10.6003
bir	-10.6013
pres	-10.6014
▁Amanah	-10.6016
▁buaya	-10.6022
Al	-10.6025
yar	-10.6025
▁card	-10.6026
▁news	-10.6027
▁Tambah	-10.6029
▁Tinggal	-10.6033
▁Jauh	-10.6035
▁bot	-10.6035
ney	-10.6035
IP	-10.6035
▁membangunkan	-10.6037
wn	-10.6039
▁If	-10.6039
▁42	-10.6039
▁bincang	-10.604
▁Afrika	-10.6041
▁Senin	-10.6042
bil	-10.6042
MS	-10.6044
qui	-10.6044
▁Sepak	-10.6045
▁anugerah	-10.6046
▁jalur	-10.605
▁demokrasi	-10.6053
▁pr	-10.6053
▁manja	-10.6054
▁subsidi	-10.6058
▁Fe	-10.6068
▁Nik	-10.6068
▁pengaruh	-10.6068
▁resmi	-10.6073
like	-10.6074
▁agenda	-10.6079
▁Politik	-10.6082
▁Kanak	-10.6083
▁Saint	-10.6086
lian	-10.6088
▁ditulis	-10.6088
▁war	-10.6088
▁ngasih	-10.609
ME	-10.6097
▁syg	-10.6099
▁2006	-10.6101
▁halaman	-10.6101
▁menyerang	-10.6103
▁Ros	-10.6104
▁mall	-10.6105
▁Hadi	-10.6105
▁Is	-10.611
▁hina	-10.611
▁pintar	-10.6111
▁pengangkutan	-10.6113
PM	-10.612
▁Vietnam	-10.612
▁rangka	-10.6123
mel	-10.6125
hid	-10.6133
GA	-10.6135
▁special	-10.6135
▁book	-10.6136
▁SAMA	-10.6137
▁Bio	-10.6139
▁08	-10.6139
▁Kisah	-10.614
▁berbagi	-10.6142
▁Berikut	-10.6147
bahasa	-10.6148
▁jaringan	-10.6149
▁Zi	-10.615
EM	-10.6151
ila	-10.6154
▁berkhidmat	-10.616
▁Nk	-10.6161
▁BANGET	-10.6162
▁harian	-10.6163
▁tampak	-10.6163
press	-10.6165
▁haa	-10.6166
▁dewan	-10.6168
▁peristiwa	-10.6171
IR	-10.6175
▁Filipina	-10.6178
▁awalnya	-10.6179
▁puncak	-10.618
▁kebajikan	-10.6184
▁ap	-10.6185
ei	-10.6185
buku	-10.6187
▁Long	-10.6196
▁loghat	-10.6196
▁menyimpan	-10.6198
▁such	-10.6202
▁che	-10.6204
▁Datang	-10.6205
▁Love	-10.6211
▁penampilan	-10.6212
▁Gw	-10.6213
asan	-10.6218
▁Just	-10.6225
▁mengajar	-10.6225
mpa	-10.6228
lebih	-10.6233
zan	-10.6234
sekolah	-10.6236
▁bak	-10.6237
▁while	-10.6237
▁damn	-10.6238
▁klau	-10.624
▁Proses	-10.6241
sus	-10.6244
bawa	-10.6255
XL	-10.6267
▁menganggap	-10.627
▁tangkap	-10.6273
▁Harus	-10.6273
▁number	-10.6274
$	-10.6274
▁HAILAK	-10.6283
▁bonus	-10.6283
▁Jual	-10.6284
▁pan	-10.6285
OT	-10.6288
▁type	-10.6292
bis	-10.6293
▁terbakar	-10.6293
▁yes	-10.6294
▁peralatan	-10.6299
▁kind	-10.63
ore	-10.6301
ON	-10.6301
▁sebagian	-10.6306
▁darjah	-10.6308
sk	-10.6311
▁Semasa	-10.6312
▁Mai	-10.6317
▁komitmen	-10.6319
▁tampil	-10.632
▁membuatkan	-10.6326
▁sudi	-10.6328
▁Sedangkan	-10.6331
▁memberitahu	-10.6331
nai	-10.6335
JI	-10.6341
▁melawat	-10.6344
▁wish	-10.6344
cita	-10.6344
▁SD	-10.6345
▁potensi	-10.6345
▁Yes	-10.6346
▁Brunei	-10.6348
62	-10.6349
▁Jumat	-10.6349
nyaaa	-10.6351
▁keinginan	-10.6353
▁berlari	-10.6354
71	-10.6356
online	-10.6362
ms	-10.6373
▁menyumbang	-10.6374
▁kediaman	-10.6379
hits	-10.6381
▁solo	-10.6382
AA	-10.6383
▁guy	-10.6386
~	-10.6391
▁things	-10.6394
▁akses	-10.6396
adi	-10.6398
▁terpilih	-10.64
▁pemilihan	-10.6401
▁TAPI	-10.6402
▁peluk	-10.6404
83	-10.6405
▁insan	-10.6406
atur	-10.6407
mart	-10.6408
BS	-10.6408
▁camni	-10.6414
▁Puasa	-10.6415
ت	-10.6417
▁jemput	-10.6418
▁talian	-10.6419
ttt	-10.642
▁Sekitar	-10.6422
▁justru	-10.6423
▁Suami	-10.6425
▁menuntut	-10.6425
▁berpikir	-10.6427
▁mention	-10.6432
▁Hm	-10.6432
▁Top	-10.6432
▁Rusia	-10.6433
▁memandangkan	-10.6435
▁Manakala	-10.6435
▁celana	-10.6435
▁leher	-10.6436
▁gamis	-10.6437
▁stabil	-10.6437
pati	-10.6438
▁Kajian	-10.6439
▁batin	-10.6439
TP	-10.6441
ura	-10.6442
▁Kab	-10.6445
▁pink	-10.6456
▁seluar	-10.6457
▁edit	-10.6458
▁smua	-10.646
▁komputer	-10.6471
▁ladang	-10.6471
AP	-10.6479
▁penubuhan	-10.6479
PER	-10.6483
▁hatinya	-10.6486
UP	-10.6489
▁Rep	-10.6495
▁dibenarkan	-10.6496
TO	-10.6497
▁days	-10.6497
hah	-10.65
▁grad	-10.6501
▁spesies	-10.6501
▁sekian	-10.6502
▁Gen	-10.6504
▁ibunya	-10.6505
91	-10.6505
sung	-10.6507
▁memerintah	-10.6507
▁Hang	-10.6509
utan	-10.651
51	-10.6511
▁unsur	-10.6513
ndi	-10.6521
▁Umur	-10.6522
▁Bebas	-10.6523
▁iphone	-10.6524
sebab	-10.6527
bs	-10.6529
ky	-10.653
▁GST	-10.653
▁Nu	-10.6531
port	-10.6532
▁persoalan	-10.6532
lina	-10.6534
▁dinamakan	-10.6534
▁Klo	-10.6535
▁TH	-10.6537
mbo	-10.6538
ple	-10.6538
▁istimewa	-10.6538
▁apply	-10.6542
▁kemaren	-10.6544
▁Juni	-10.6544
▁target	-10.6547
beli	-10.6552
uran	-10.6556
buru	-10.6556
▁Komunikasi	-10.6559
yer	-10.656
▁platform	-10.656
rg	-10.6567
▁Centre	-10.6568
▁Meh	-10.6569
▁Tuanku	-10.6569
▁rame	-10.6569
Le	-10.657
▁chop	-10.6573
dor	-10.6576
▁Er	-10.6579
▁Kong	-10.6581
▁Yayasan	-10.6581
▁wor	-10.6582
UL	-10.6583
▁Doa	-10.6583
▁Ampang	-10.6584
▁Hong	-10.6587
kha	-10.6589
▁makhluk	-10.6589
▁kala	-10.6596
▁isinya	-10.6598
Ini	-10.6604
▁jaminan	-10.6604
▁bertukar	-10.6606
▁Kem	-10.6606
bok	-10.6613
mad	-10.6614
▁pelancongan	-10.6615
JU	-10.6618
▁Va	-10.662
▁Nilai	-10.6623
▁hormat	-10.6623
▁kesemua	-10.6628
▁Mati	-10.6628
Indonesia	-10.6634
▁Silahkan	-10.6637
lung	-10.6638
tong	-10.6641
▁doi	-10.6644
▁PRK	-10.6645
▁Pokok	-10.6645
▁urus	-10.6647
▁bangkit	-10.6647
▁desain	-10.6648
▁dgr	-10.665
muka	-10.6653
hai	-10.6654
▁kerabat	-10.6656
▁ustaz	-10.6657
▁melepaskan	-10.6661
▁gmn	-10.6663
▁Sosial	-10.6663
▁menghantar	-10.6664
▁morning	-10.6665
▁Apalagi	-10.6665
ntu	-10.6666
▁Rambut	-10.6669
▁Kelas	-10.6674
▁gay	-10.6676
kita	-10.6678
udin	-10.6679
PO	-10.6679
YA	-10.6681
win	-10.6682
▁diikuti	-10.6684
vin	-10.6686
▁park	-10.6688
▁JADI	-10.669
▁kn	-10.6692
eeee	-10.6693
rel	-10.6693
▁serba	-10.6695
▁singkat	-10.6698
▁sara	-10.6699
wat	-10.6699
61	-10.6702
▁jantan	-10.6703
▁watch	-10.6704
pcs	-10.6705
▁cuaca	-10.6705
▁Bintang	-10.671
▁kotor	-10.6712
▁seronok	-10.6712
▁Kebanyakan	-10.6715
kw	-10.6715
sai	-10.6716
had	-10.6717
▁gaada	-10.6725
▁jumaat	-10.6726
▁menilai	-10.6727
▁pemeriksaan	-10.6728
▁dimiliki	-10.6728
▁Keselamatan	-10.6729
▁gen	-10.6731
▁lauk	-10.6734
▁perbezaan	-10.6735
▁Member	-10.6741
▁Note	-10.6743
▁perintah	-10.6744
▁mantap	-10.6745
▁standard	-10.6747
led	-10.6748
Ku	-10.6749
▁Awal	-10.6752
▁Susu	-10.6752
▁wow	-10.6755
▁seharian	-10.6756
▁hancur	-10.6757
▁Black	-10.6757
▁staff	-10.6758
▁Af	-10.676
▁Rantau	-10.676
▁break	-10.676
▁melanjutkan	-10.6761
IC	-10.6762
rama	-10.6764
▁Gimana	-10.6765
uuuu	-10.6766
ase	-10.6769
yuk	-10.6776
▁Duit	-10.6778
▁biarkan	-10.6786
▁Aduh	-10.6786
▁kesayangan	-10.6788
▁tangannya	-10.6789
▁JAWAPAN	-10.6792
mbar	-10.6793
To	-10.68
kum	-10.6801
▁seharga	-10.6804
▁darurat	-10.6805
▁sun	-10.6805
▁Malaysian	-10.6807
▁Gerakan	-10.6808
▁slot	-10.6809
▁BE	-10.6821
▁comment	-10.6825
▁Allahu	-10.683
ite	-10.683
▁material	-10.6831
▁orng	-10.6834
ayat	-10.6836
▁price	-10.6847
▁menyelamatkan	-10.6851
MAR	-10.6858
▁struktur	-10.6858
▁liga	-10.6861
▁Pilih	-10.6862
sem	-10.6863
▁pertahanan	-10.6865
▁menghilangkan	-10.6865
▁gamau	-10.6865
ensi	-10.6866
alam	-10.6866
▁send	-10.6867
▁thanks	-10.6873
▁Cek	-10.6875
▁akhirat	-10.6875
▁Bumi	-10.6875
▁teringin	-10.6883
▁Food	-10.6883
lus	-10.6884
od	-10.6885
▁Kakak	-10.6889
▁pacaran	-10.6891
ug	-10.6893
▁gabungan	-10.6898
▁toner	-10.6899
▁heran	-10.6899
▁Azizah	-10.6902
▁binatang	-10.6902
▁Perlu	-10.6904
Bo	-10.6906
▁Samsung	-10.6906
▁Iskandar	-10.6906
▁upaya	-10.6907
dd	-10.6908
tr	-10.6911
TH	-10.6912
▁PayTren	-10.6916
▁pergerakan	-10.6917
BANG	-10.6918
▁Kucing	-10.6919
PE	-10.6921
▁Digital	-10.6925
▁Ban	-10.6926
ruk	-10.6929
▁pimpinan	-10.6936
nar	-10.6938
ruh	-10.6941
▁Lebuhraya	-10.6942
▁kerjaya	-10.6942
▁mele	-10.6948
▁mok	-10.6951
Ja	-10.6951
box	-10.6953
ction	-10.6954
▁lemas	-10.6954
awal	-10.6956
▁menurunkan	-10.6959
▁light	-10.696
▁save	-10.6961
▁Enak	-10.6965
reng	-10.6967
▁DUN	-10.6968
pai	-10.697
pok	-10.6973
▁Polisi	-10.6974
▁kia	-10.6974
PR	-10.6974
▁mar	-10.6976
▁peminat	-10.6976
▁akhbar	-10.6977
▁Sen	-10.6978
▁koleksi	-10.6981
FA	-10.6984
▁Isi	-10.6986
▁inilah	-10.6986
ww	-10.6988
▁season	-10.699
Allah	-10.6994
▁rest	-10.6995
▁turn	-10.6995
▁PU	-10.6998
▁makna	-10.7
▁Kinabalu	-10.7003
▁KKM	-10.7006
▁Pengurusan	-10.7007
▁change	-10.7009
▁mee	-10.7012
GU	-10.7014
tch	-10.7019
▁paip	-10.702
import	-10.702
▁wes	-10.7025
RT	-10.7033
jek	-10.7036
kri	-10.7037
52	-10.704
gon	-10.7044
▁solusi	-10.7046
▁ancaman	-10.7047
▁kyk	-10.7047
▁mengakui	-10.7047
▁hensem	-10.7048
▁gelaran	-10.7048
▁Oke	-10.7057
ullah	-10.7059
▁mera	-10.706
▁Cho	-10.7065
▁03	-10.7066
▁ANAK	-10.7067
▁berangkat	-10.707
▁tumpuan	-10.707
▁Liverpool	-10.7071
▁fan	-10.7071
▁tebu	-10.7073
▁peti	-10.7073
her	-10.7074
▁parlimen	-10.7076
▁inter	-10.7079
mmm	-10.7083
▁mengalir	-10.7087
▁ingatkan	-10.7087
▁Undangan	-10.7087
▁tunggal	-10.7088
▁1998	-10.7089
▁DKI	-10.709
▁mende	-10.7091
▁Hukum	-10.7095
▁Pengangkutan	-10.7095
oon	-10.7098
▁kakitangan	-10.7099
▁second	-10.71
▁dakwaan	-10.7104
▁Sesungguhnya	-10.7105
▁later	-10.7108
▁perancangan	-10.7109
▁berulang	-10.711
▁Mesyuarat	-10.7112
ig	-10.7112
▁produksi	-10.7113
▁TNI	-10.7114
iiii	-10.7114
▁style	-10.7116
▁berbentuk	-10.7117
▁Hujan	-10.7121
▁diminta	-10.7122
▁sapu	-10.7125
▁tiktok	-10.7126
▁mengundi	-10.7127
▁asik	-10.7132
▁Link	-10.7135
▁Ham	-10.7135
▁ianya	-10.7136
▁pala	-10.7136
untuk	-10.7136
mula	-10.7142
▁terlepas	-10.7145
▁Has	-10.7147
▁skali	-10.7147
▁etnik	-10.7151
gun	-10.7153
cepat	-10.7156
▁BOLEH	-10.7159
▁2002	-10.7159
▁drop	-10.7159
RA	-10.7162
▁Jin	-10.7163
MAT	-10.7165
ntang	-10.7166
▁kursi	-10.7167
▁suhu	-10.7167
▁susulan	-10.7169
▁cadar	-10.717
▁kolej	-10.7176
▁dibilang	-10.7177
▁2003	-10.7178
▁55	-10.7178
mil	-10.7178
▁pahang	-10.718
▁kuda	-10.718
▁bising	-10.7181
▁legend	-10.7181
▁diumumkan	-10.7184
DU	-10.7186
AYA	-10.7187
▁berharga	-10.7189
▁stadium	-10.719
balik	-10.7191
▁sabtu	-10.7193
rn	-10.7195
▁Kecamatan	-10.7196
▁pic	-10.7198
▁sekeliling	-10.72
life	-10.7203
mau	-10.7204
FF	-10.7205
▁dakwah	-10.7208
▁Operasi	-10.7209
▁saksi	-10.721
▁Hak	-10.721
▁Ren	-10.721
▁teori	-10.7211
▁Group	-10.7213
▁hair	-10.7216
▁hasilnya	-10.7221
▁Uni	-10.7236
sab	-10.7242
OM	-10.7244
92	-10.7249
▁gt	-10.725
▁pembelajaran	-10.7251
▁beng	-10.7251
JO	-10.7254
▁kaca	-10.7256
▁degree	-10.7258
▁hektar	-10.7264
▁Pemilu	-10.7267
▁sebagaimana	-10.7267
end	-10.7268
▁TOLONG	-10.7269
▁box	-10.7271
▁pulih	-10.7272
▁Trans	-10.7272
▁Eksekutif	-10.7274
▁fo	-10.7277
▁Kaya	-10.7278
▁ITU	-10.7279
▁sendirian	-10.7279
▁berjumpa	-10.7285
▁ro	-10.7285
▁SS	-10.7285
▁pembiayaan	-10.7288
▁photo	-10.7293
▁cap	-10.7295
▁setempat	-10.7296
▁KO	-10.7296
▁couple	-10.7297
tir	-10.7297
▁Allahyarham	-10.7299
57	-10.7304
▁PERDANA	-10.7305
▁BARU	-10.7305
▁sorg	-10.7306
▁persembahan	-10.7307
▁Hasan	-10.731
▁pola	-10.7314
▁Tahu	-10.7315
tiga	-10.7318
▁BO	-10.7319
▁form	-10.7319
▁Bekasi	-10.7325
▁Isnin	-10.7326
kak	-10.7338
▁sendu	-10.7342
ceng	-10.7349
tus	-10.7351
▁sekurang	-10.7351
▁public	-10.7351
▁televisyen	-10.7353
▁ek	-10.7354
▁pemuda	-10.7363
zen	-10.7366
▁pcs	-10.7366
▁sokong	-10.7369
▁fit	-10.7369
▁won	-10.7375
▁pengusaha	-10.7376
PS	-10.7382
▁masi	-10.7382
besar	-10.7383
▁sabun	-10.7384
▁tenggara	-10.7385
▁teknik	-10.7387
▁Astro	-10.7389
HI	-10.7391
▁Sar	-10.7394
ec	-10.7394
HU	-10.7396
▁keyakinan	-10.7397
▁wkwkw	-10.7398
▁Udara	-10.7401
▁msh	-10.7402
RU	-10.7402
ill	-10.7403
▁Mmg	-10.7407
▁keamanan	-10.7412
▁majikan	-10.7413
lau	-10.7415
▁sembilan	-10.7415
book	-10.7418
▁batang	-10.7421
▁Laporan	-10.7421
▁close	-10.7423
▁Manfaat	-10.7424
▁Red	-10.7425
▁Model	-10.7425
indo	-10.7426
oc	-10.743
▁blok	-10.7431
SU	-10.7432
belah	-10.7436
gur	-10.7436
▁Biasanya	-10.7439
▁penyelidikan	-10.744
▁makasih	-10.7444
▁berdepan	-10.7445
▁indo	-10.7449
gb	-10.745
▁JAM	-10.7454
▁ketinggalan	-10.7457
▁mengajak	-10.7462
▁senyuman	-10.7463
▁menemui	-10.7466
▁menubuhkan	-10.7467
▁RA	-10.747
▁Kor	-10.7472
atif	-10.7473
▁melangkah	-10.7474
▁tertawa	-10.7478
▁dipermudahkan	-10.7479
▁memanggil	-10.7479
▁amal	-10.7486
▁beraya	-10.7488
bali	-10.7488
▁sad	-10.749
▁rusak	-10.7491
▁ehh	-10.7492
▁Part	-10.7493
Bi	-10.7494
ves	-10.7494
▁maksudnya	-10.7495
▁Bangi	-10.7496
▁asrama	-10.7497
▁KPU	-10.7497
wang	-10.7498
IH	-10.7499
▁kelulusan	-10.75
▁Hampir	-10.7508
fer	-10.7512
▁youtube	-10.7514
▁business	-10.7515
72	-10.7516
EL	-10.7516
sep	-10.7516
▁impian	-10.752
ndu	-10.7521
▁Design	-10.7524
▁Bantuan	-10.7525
▁Fu	-10.7526
▁membutuhkan	-10.7526
▁pemilu	-10.7526
▁woi	-10.7526
▁Yogyakarta	-10.7528
leng	-10.7531
▁lawatan	-10.7532
▁sombong	-10.7532
zam	-10.7534
ui	-10.7536
▁Teh	-10.7537
▁meski	-10.7538
▁kongsi	-10.754
▁Noor	-10.7542
▁misalnya	-10.7544
love	-10.7545
lut	-10.7547
▁komunikasi	-10.7547
▁kawen	-10.7547
▁gapapa	-10.755
bl	-10.7553
▁barisan	-10.7555
▁pengajaran	-10.7555
▁month	-10.7555
nnn	-10.7555
▁seram	-10.7556
▁senyap	-10.7557
▁alamat	-10.7567
▁Tindakan	-10.7567
CO	-10.7568
▁rehat	-10.7573
▁Gubernur	-10.7574
▁star	-10.7576
▁could	-10.7576
▁kayaknya	-10.7582
▁dibayar	-10.7582
▁atu	-10.7583
▁mengurangi	-10.7585
▁ben	-10.7587
▁khabar	-10.7588
INA	-10.7588
ami	-10.7589
▁mengingatkan	-10.7589
▁darat	-10.759
▁diperkenalkan	-10.7592
ula	-10.7596
▁berisi	-10.7597
baju	-10.7599
rung	-10.7599
▁ketat	-10.7603
fo	-10.7606
rok	-10.761
▁mengu	-10.7611
▁pastikan	-10.7611
▁belia	-10.7613
▁olahraga	-10.7614
GO	-10.7614
▁Cikgu	-10.7615
cc	-10.7615
lay	-10.7616
▁memikirkan	-10.7619
▁READY	-10.7622
▁jadikan	-10.7624
▁meliputi	-10.7625
▁thank	-10.7627
▁pc	-10.7627
iri	-10.7632
▁berbicara	-10.7638
▁peniaga	-10.7638
▁Sandakan	-10.764
▁Menu	-10.764
▁Sejarah	-10.7643
▁mengge	-10.7644
mati	-10.7644
▁subjek	-10.7644
sp	-10.7645
io	-10.7646
ali	-10.7647
light	-10.7656
dha	-10.7657
▁GE	-10.7657
suh	-10.7658
▁membalas	-10.7659
▁berta	-10.7661
▁MK	-10.7661
▁memperbaiki	-10.7663
▁hiburan	-10.7663
▁potongan	-10.7663
bol	-10.7673
▁cup	-10.7673
▁fisik	-10.7676
▁Melalui	-10.7676
▁bergabung	-10.7679
rem	-10.7679
▁Perdagangan	-10.7681
sum	-10.7682
▁CIMB	-10.7688
▁menghalang	-10.7693
▁Km	-10.7695
ov	-10.7695
▁kod	-10.7698
150	-10.7702
▁penyokong	-10.7703
ب	-10.7705
▁Ng	-10.7706
cle	-10.7709
▁pinjam	-10.771
▁Kolej	-10.7711
▁vote	-10.7711
▁Besok	-10.7713
ENG	-10.7714
▁Mr	-10.7719
▁Mini	-10.7719
▁pelancong	-10.772
▁kemeja	-10.7723
▁menikah	-10.7725
▁{	-10.7727
▁Islamic	-10.7728
▁Puncak	-10.7729
▁terhad	-10.7734
▁sedekah	-10.7736
▁Angkatan	-10.7743
▁Semakin	-10.7744
jun	-10.7744
▁motif	-10.7745
ture	-10.7746
▁kue	-10.7747
▁Bab	-10.7751
▁Baby	-10.7754
Pro	-10.7755
▁berdekatan	-10.7755
▁Mesir	-10.7756
▁bil	-10.7757
gn	-10.7759
▁Belia	-10.776
list	-10.776
aja	-10.776
▁serious	-10.777
▁side	-10.7771
▁lumayan	-10.7772
▁kaget	-10.7772
▁kursus	-10.7773
▁Mer	-10.7773
wu	-10.7775
▁Setia	-10.7776
▁penerima	-10.7776
▁Om	-10.7778
▁random	-10.7781
▁premis	-10.7781
▁mengerti	-10.7784
▁Rais	-10.7785
wak	-10.7786
▁jelek	-10.779
▁Serius	-10.779
▁Tiap	-10.7791
xi	-10.7791
▁Lisa	-10.7794
▁berlebihan	-10.7795
▁dipake	-10.7795
▁ujung	-10.7796
▁pencapaian	-10.7798
teh	-10.7801
▁berpuasa	-10.7803
PT	-10.7803
▁dateng	-10.7808
yong	-10.781
▁konflik	-10.7811
▁ajaran	-10.7816
▁Balai	-10.7817
▁LRT	-10.7818
▁burger	-10.7827
▁Narkoba	-10.7829
▁akademik	-10.783
▁mentah	-10.7831
▁busuk	-10.7835
usaha	-10.7835
▁kr	-10.7836
▁serupa	-10.7838
▁Lihat	-10.7838
▁claim	-10.7839
▁sensitif	-10.784
▁Maju	-10.784
lh	-10.7844
▁request	-10.7846
▁Kajang	-10.7848
▁Drama	-10.7849
tangan	-10.7849
▁MAS	-10.7852
▁Don	-10.7854
▁hijab	-10.7854
▁Kuching	-10.7855
▁bh	-10.7855
▁hala	-10.7857
▁kesedaran	-10.7858
▁bulanan	-10.7859
▁Daftar	-10.7862
▁bina	-10.7862
▁LO	-10.7863
dom	-10.7863
▁SAYA	-10.7863
▁Masak	-10.7865
▁Baginda	-10.7866
mbak	-10.7868
▁fon	-10.7869
masa	-10.787
▁Full	-10.787
▁selamanya	-10.7871
▁Justeru	-10.7872
▁Peguam	-10.7873
▁detik	-10.7876
▁hadap	-10.788
▁Hubungi	-10.7881
▁Far	-10.7881
▁jua	-10.7883
ruf	-10.7886
bia	-10.7888
900	-10.7889
▁Hulu	-10.789
iq	-10.7891
MC	-10.7892
▁MP	-10.7894
▁makanya	-10.7897
▁Haa	-10.7898
▁FELDA	-10.7898
▁sekalipun	-10.7899
▁250	-10.7899
▁berupa	-10.7899
FI	-10.79
hb	-10.7901
▁Ketiga	-10.791
▁Riau	-10.7911
▁mind	-10.7911
▁BAJU	-10.7912
ism	-10.7913
▁sholat	-10.7914
▁Patut	-10.7915
▁tuntutan	-10.7916
haru	-10.7917
▁confession	-10.7918
▁Anjing	-10.7919
diri	-10.792
▁Mon	-10.7922
▁different	-10.7927
▁hope	-10.7932
▁Surat	-10.7938
ray	-10.794
▁bulat	-10.794
hana	-10.7942
▁Wei	-10.7942
bro	-10.7944
▁premium	-10.7945
▁mun	-10.7946
▁swee	-10.7947
▁aduh	-10.7948
▁kemajuan	-10.7951
▁kebakaran	-10.7952
ramai	-10.7955
▁Now	-10.796
▁artikel	-10.7962
▁tgl	-10.7962
▁Tunku	-10.7963
▁Hmmm	-10.7964
▁listrik	-10.7965
▁episod	-10.7973
▁rapi	-10.7973
▁kudu	-10.7974
▁nemu	-10.7982
▁Bisnis	-10.7988
▁fizikal	-10.7991
▁permukaan	-10.7993
▁cedera	-10.7996
tg	-10.7998
HE	-10.7999
▁mertua	-10.8
ahli	-10.8007
▁Dimana	-10.8008
▁lanang	-10.8008
▁shi	-10.8009
▁Kl	-10.801
▁bumbu	-10.8016
▁kelahiran	-10.8016
▁email	-10.8017
bandung	-10.8018
nyaa	-10.8019
dari	-10.8023
▁menetapkan	-10.8025
▁Juli	-10.803
▁Tenaga	-10.8032
▁melainkan	-10.8038
▁kubur	-10.8039
ن	-10.8041
▁kesejahteraan	-10.8041
▁Kapal	-10.8042
▁pahala	-10.8045
▁Ang	-10.805
fir	-10.8051
▁strong	-10.8055
▁sb	-10.8058
▁mainan	-10.806
▁respon	-10.8064
▁Petani	-10.8064
▁ngu	-10.8065
▁menghargai	-10.8067
▁lokal	-10.8069
▁olshop	-10.807
▁berikutnya	-10.8074
▁left	-10.8075
▁tahanan	-10.8077
oleh	-10.8079
lagu	-10.8079
▁Grand	-10.808
▁fasa	-10.8081
ola	-10.8081
▁Trump	-10.8082
▁enjoy	-10.8084
▁kebebasan	-10.809
mai	-10.8093
▁Teman	-10.8097
▁Langat	-10.8099
▁Rendah	-10.8102
▁ragu	-10.8102
▁layanan	-10.8102
▁usahawan	-10.8106
▁thought	-10.8107
far	-10.8109
guna	-10.8109
▁minimum	-10.8109
tanya	-10.811
Ro	-10.8112
▁Berminat	-10.8116
▁surau	-10.8118
▁simpanan	-10.8118
yun	-10.8119
▁offer	-10.812
▁shop	-10.8123
▁diem	-10.8129
▁seumur	-10.813
▁Feb	-10.8133
KS	-10.8137
cia	-10.8138
▁diluar	-10.8144
▁taktau	-10.8145
▁mesra	-10.8147
ear	-10.8149
▁suda	-10.8149
▁pemberian	-10.8153
▁berpindah	-10.8154
gak	-10.8156
▁keempat	-10.8157
▁curang	-10.8164
▁Rasanya	-10.8165
▁pertengahan	-10.8165
▁Gajah	-10.8167
▁Segera	-10.8168
awi	-10.8168
▁Op	-10.817
▁once	-10.8171
▁provinsi	-10.8171
▁extra	-10.8173
▁sulung	-10.8174
hun	-10.8176
▁khawatir	-10.8181
▁EXO	-10.8182
▁Sek	-10.8183
yg	-10.8185
▁By	-10.8188
▁mencadangkan	-10.8195
▁kilometer	-10.8195
kota	-10.8197
▁sesungguhnya	-10.8198
▁Harian	-10.8205
▁Bikin	-10.8207
room	-10.8208
lea	-10.8208
▁kepimpinan	-10.8209
kl	-10.821
▁59	-10.8213
▁Indo	-10.8215
amat	-10.8223
▁membe	-10.8229
5%	-10.823
▁seakan	-10.8233
▁mode	-10.8243
bola	-10.8244
▁smp	-10.8249
▁brand	-10.8251
▁Anies	-10.8253
pem	-10.8253
▁iman	-10.8255
▁investasi	-10.8262
▁kelayakan	-10.8267
▁rahsia	-10.8271
lihat	-10.8272
▁perpaduan	-10.8273
▁red	-10.8273
An	-10.8273
▁ditayangkan	-10.8274
▁Bunda	-10.8278
band	-10.8279
▁Tersedia	-10.828
▁Bangunan	-10.828
ungan	-10.8281
▁diluluskan	-10.8284
▁Disebabkan	-10.8287
▁dimakan	-10.8288
▁mengganggu	-10.8292
BAR	-10.8292
▁account	-10.8295
▁khidmat	-10.8295
▁Sehat	-10.8296
▁maap	-10.8296
▁ganja	-10.8298
▁2005	-10.8299
yn	-10.83
▁Kembali	-10.8301
▁Sel	-10.8306
▁disiarkan	-10.8307
ksi	-10.8309
▁demo	-10.8309
▁Mus	-10.8309
zar	-10.831
kasi	-10.831
▁kartu	-10.8312
▁berkualiti	-10.8312
▁ppl	-10.8313
dr	-10.8315
▁law	-10.8317
▁petugas	-10.8317
nie	-10.8318
▁mendorong	-10.8319
▁ofis	-10.8322
▁bayangkan	-10.8322
Ter	-10.8324
▁Meningkatkan	-10.8325
▁Cafe	-10.8325
off	-10.8326
▁Depan	-10.8326
▁Van	-10.833
tuh	-10.8331
ward	-10.8336
▁Sin	-10.8336
▁Inggris	-10.8336
▁kuku	-10.8338
▁Lupa	-10.8338
▁0813	-10.8338
▁everything	-10.8339
▁runtuh	-10.8344
▁Puchong	-10.8348
▁reformasi	-10.8349
uli	-10.8352
cent	-10.8354
akhir	-10.8354
▁pembuatan	-10.8354
▁lps	-10.8355
▁mm	-10.8356
▁Murah	-10.8356
▁fresh	-10.8359
▁nok	-10.836
kuat	-10.8361
▁Sho	-10.8361
▁Zu	-10.8361
▁gpp	-10.8364
▁import	-10.8369
awa	-10.837
▁paras	-10.8373
▁menyerahkan	-10.8373
sm	-10.8378
▁Kang	-10.838
was	-10.8381
▁Wang	-10.8382
▁SET	-10.8382
▁jee	-10.8382
▁Intan	-10.8382
▁berkualitas	-10.8384
spek	-10.8387
▁Pelajar	-10.8387
bila	-10.8391
▁liar	-10.8393
▁coffee	-10.8393
▁comp	-10.8394
EK	-10.8395
▁Sambil	-10.84
nting	-10.8402
iki	-10.8402
▁dibandingkan	-10.8404
▁lapan	-10.8405
▁Turut	-10.8405
▁HAHAHA	-10.8407
▁BI	-10.8408
▁wat	-10.841
▁penjualan	-10.8412
SO	-10.8414
▁Ape	-10.8422
▁Mah	-10.8422
▁Nas	-10.8422
kebolehan	-10.8426
mik	-10.8428
panjang	-10.8428
▁sibei	-10.8429
▁keliatan	-10.8429
▁1990	-10.8431
ea	-10.8431
▁selaku	-10.8434
hyun	-10.8438
▁tersedia	-10.8438
▁detail	-10.8441
▁Burung	-10.8445
▁mence	-10.8446
▁elemen	-10.8447
▁clear	-10.8449
▁Beras	-10.845
So	-10.8454
bun	-10.8464
▁means	-10.8464
▁penghasilan	-10.8465
ium	-10.8469
▁tuduhan	-10.847
▁moto	-10.8473
▁persatuan	-10.8475
▁tarif	-10.8475
▁Ari	-10.8475
HO	-10.8476
siap	-10.8478
▁nothing	-10.8479
▁Ver	-10.8483
▁short	-10.8484
▁bt	-10.8486
▁Ehwal	-10.849
▁asalnya	-10.849
▁Anggota	-10.8491
lot	-10.8494
▁tunai	-10.8495
dk	-10.8497
▁Meskipun	-10.8498
▁jokowi	-10.8502
▁ditangkap	-10.8504
▁google	-10.8505
▁wanna	-10.8508
tul	-10.8509
▁melepak	-10.8514
Pertuan	-10.8516
▁Ser	-10.8517
Wa	-10.8518
▁Admin	-10.8518
▁dilancarkan	-10.8521
deh	-10.8522
▁road	-10.8522
▁kredit	-10.8523
ntai	-10.8523
enak	-10.8523
tol	-10.8524
bby	-10.8525
▁gatal	-10.8525
▁layar	-10.8529
▁Grab	-10.853
over	-10.8535
photography	-10.8537
kis	-10.8539
Day	-10.8542
▁pembaca	-10.8544
sok	-10.8544
▁ml	-10.8546
▁memaksa	-10.8547
SER	-10.8548
▁cod	-10.8549
tara	-10.8551
▁penjawat	-10.8551
▁Juara	-10.8552
▁cemerlang	-10.8552
mpak	-10.8553
▁Pisang	-10.8555
▁sultan	-10.8556
wk	-10.8558
▁Halal	-10.8562
▁Hamid	-10.8564
▁umumnya	-10.8569
▁Malas	-10.8569
▁siam	-10.857
▁Ir	-10.8572
SC	-10.8573
wanita	-10.8574
▁dihantar	-10.8575
ella	-10.8578
yyy	-10.8579
▁Langkah	-10.8583
PK	-10.8585
▁Paket	-10.8587
▁Ger	-10.8592
▁Namanya	-10.8597
▁Amir	-10.8598
▁Lan	-10.8599
▁chatime	-10.86
▁petrol	-10.8601
▁Palestin	-10.8603
▁perairan	-10.8604
eo	-10.8606
▁Aq	-10.861
rawat	-10.8611
▁Kredit	-10.8613
▁merajuk	-10.8613
CM	-10.8615
NO	-10.8616
▁true	-10.8619
▁Khalid	-10.862
▁Iman	-10.8621
qua	-10.8621
▁Ken	-10.8622
▁Papa	-10.8622
▁TA	-10.8622
▁tersendiri	-10.8626
Da	-10.8626
▁cheese	-10.8629
▁bagitau	-10.8633
iyyah	-10.8634
▁dom	-10.8636
▁diteruskan	-10.8637
▁Bal	-10.8637
▁King	-10.8638
▁bye	-10.8639
pik	-10.8641
▁kreatif	-10.8643
▁during	-10.8644
▁Solo	-10.8644
▁interview	-10.8645
ه	-10.8645
▁High	-10.8646
▁kitorang	-10.8648
bagi	-10.8648
sim	-10.865
▁diskon	-10.8651
▁sekejap	-10.8651
mpu	-10.8651
▁65	-10.8652
bukan	-10.8654
▁PAN	-10.8656
▁state	-10.8657
▁keliling	-10.8659
▁hakim	-10.8661
▁Siang	-10.8662
hhhhh	-10.8663
▁pinggir	-10.8665
▁harganya	-10.8667
sc	-10.867
▁YAB	-10.8672
▁mema	-10.8674
▁partner	-10.8675
▁diriku	-10.8676
▁menjejaskan	-10.8676
nilai	-10.8677
▁Pengiriman	-10.8677
▁each	-10.8678
▁sarung	-10.8679
yung	-10.868
lalu	-10.8683
▁saman	-10.8683
▁gelas	-10.8688
▁Bogor	-10.8689
▁bagitahu	-10.869
▁penga	-10.8693
▁pastinya	-10.8695
hapus	-10.8695
▁krim	-10.8695
hab	-10.8695
▁semestinya	-10.8696
▁Ibn	-10.8697
▁motosikal	-10.8697
▁AL	-10.8697
lucu	-10.8697
▁Naib	-10.8698
ribu	-10.8699
▁sijil	-10.8702
▁mna	-10.8703
▁Sg	-10.8703
sti	-10.8705
ela	-10.8705
PAN	-10.8705
▁bersempadan	-10.8706
▁Nurul	-10.8708
▁shiok	-10.871
▁bertugas	-10.8714
▁kendaraan	-10.8715
laku	-10.8716
▁bencana	-10.8718
и	-10.8721
kkkk	-10.8721
600	-10.8722
▁BELI	-10.8726
▁Wajah	-10.8729
▁Janji	-10.8731
▁terse	-10.8731
▁konteks	-10.8737
temen	-10.8737
▁GRATIS	-10.8739
sil	-10.8744
▁tawaran	-10.8746
▁kesel	-10.8748
▁1000	-10.8748
lee	-10.8753
▁Mal	-10.8753
nggang	-10.8754
▁tong	-10.8754
key	-10.8756
▁Gaji	-10.8757
▁kolam	-10.8758
▁thn	-10.8759
▁mena	-10.8766
fit	-10.8768
▁maha	-10.8772
▁Um	-10.8776
▁menyu	-10.8779
▁medan	-10.8779
UR	-10.8781
▁Ilmu	-10.8782
▁kapitalis	-10.8783
▁Dana	-10.8784
rep	-10.8788
▁kitab	-10.8797
▁lori	-10.88
▁Polri	-10.8801
lisa	-10.8801
hur	-10.8803
▁Google	-10.8803
ر	-10.8803
▁edisi	-10.8804
▁dikira	-10.8806
▁Kec	-10.8808
▁UKM	-10.8809
▁SERI	-10.8814
▁tunang	-10.8818
▁arab	-10.8818
hias	-10.882
atau	-10.882
nger	-10.8822
▁keluarganya	-10.8823
▁cafe	-10.8823
▁duluan	-10.8825
▁wrong	-10.8828
▁batas	-10.883
▁InsyaAllah	-10.8831
gor	-10.8831
▁read	-10.8832
▁ora	-10.8835
▁takyah	-10.8836
▁panduan	-10.8838
RD	-10.8838
▁Yusuf	-10.8839
▁menguasai	-10.884
▁Klinik	-10.884
▁SEKARANG	-10.8841
▁Hingga	-10.8844
▁chicken	-10.8845
▁sejauh	-10.8846
▁hobi	-10.8848
▁Tq	-10.8849
▁Wong	-10.8852
▁BH	-10.8852
▁selangor	-10.8853
▁buli	-10.8854
▁dihadapi	-10.8855
▁buatan	-10.8856
▁Menye	-10.8856
med	-10.8858
▁menggambarkan	-10.8863
anti	-10.8864
▁aduan	-10.8866
▁mengelakkan	-10.8867
▁tertarik	-10.8867
ا	-10.8867
▁dilengkapi	-10.8871
KO	-10.8874
▁meeting	-10.8877
▁penempatan	-10.8882
▁75	-10.8885
▁kanser	-10.8885
▁bisnes	-10.8888
▁roh	-10.8889
▁feeling	-10.8891
gue	-10.8893
▁Festival	-10.8893
е	-10.8894
▁penurunan	-10.8896
roh	-10.8898
BB	-10.8898
▁ditawarkan	-10.89
nding	-10.8901
▁dibeli	-10.8902
▁dike	-10.8905
BM	-10.8905
▁sk	-10.8906
▁seat	-10.8907
▁giliran	-10.8912
pela	-10.8913
▁flight	-10.8918
▁Mula	-10.8919
▁04	-10.8919
hy	-10.8919
▁1999	-10.892
fat	-10.8922
▁canai	-10.8924
▁Ajak	-10.8925
OP	-10.8925
▁viralkan	-10.8926
LL	-10.8928
▁jawatankuasa	-10.8929
▁perawatan	-10.893
▁mengesahkan	-10.8932
ama	-10.8934
oy	-10.8934
د	-10.8934
▁bobo	-10.8936
bong	-10.8938
▁KETIGA	-10.8939
eri	-10.8941
▁army	-10.8944
▁34	-10.8945
▁Malang	-10.8945
▁SAW	-10.8945
▁dikirim	-10.8948
▁kebal	-10.8953
▁Motor	-10.8953
gy	-10.8954
82	-10.8955
sun	-10.8956
▁Kanada	-10.8957
▁ttg	-10.8957
ntar	-10.8961
▁JUGA	-10.8962
blo	-10.8964
git	-10.8967
▁Tani	-10.8973
▁lirik	-10.8977
▁POS	-10.8983
ANA	-10.8986
▁korg	-10.8989
▁wae	-10.899
▁zakat	-10.899
▁maggi	-10.8991
▁Yusof	-10.8992
▁konsisten	-10.8992
▁Labuan	-10.8996
▁Agak	-10.8997
▁trans	-10.8999
▁Jepang	-10.9002
▁Pake	-10.9004
empat	-10.9007
▁Sini	-10.9013
▁selimut	-10.9013
▁penguatkuasaan	-10.9015
tia	-10.9016
▁kerabu	-10.9017
▁Sat	-10.9021
▁Bad	-10.9022
▁Kal	-10.9026
▁Kelapa	-10.9028
▁NA	-10.9029
▁husband	-10.9031
teri	-10.9032
ball	-10.9032
▁ngo	-10.9034
▁tipe	-10.9036
MO	-10.9039
▁kontak	-10.904
▁CO	-10.9043
▁siswa	-10.9047
all	-10.9053
▁cant	-10.9054
surabaya	-10.9054
tidak	-10.9055
▁Ana	-10.9057
▁brp	-10.9057
▁kutuk	-10.9057
▁Sapa	-10.9058
ou	-10.906
▁tealive	-10.906
▁fashion	-10.9065
▁ngobrol	-10.9066
▁minimal	-10.9068
▁37	-10.907
▁bungkus	-10.9073
▁nan	-10.9074
▁Tar	-10.9075
▁PKS	-10.9075
▁boy	-10.9076
▁Jln	-10.9077
▁Bara	-10.9082
▁upload	-10.9083
▁huruf	-10.9089
▁ahh	-10.909
▁melanggar	-10.9091
▁Bra	-10.9092
board	-10.9092
▁mesej	-10.9093
▁Babi	-10.9093
▁lebat	-10.9094
▁Saham	-10.9096
▁kwn	-10.9097
▁went	-10.9102
kok	-10.9103
▁tanam	-10.9103
aha	-10.9104
▁Makasih	-10.9105
▁Pat	-10.9108
▁JAWAB	-10.9109
▁masukkan	-10.9112
▁Kos	-10.9113
▁maen	-10.9116
▁panik	-10.9119
▁kebiasaan	-10.9119
▁kenduri	-10.9121
chan	-10.9124
▁SELAMAT	-10.9124
wet	-10.9125
▁permulaan	-10.9127
▁ceramah	-10.9127
pos	-10.9131
ure	-10.9131
▁small	-10.9133
ingat	-10.9134
kep	-10.9136
allahu	-10.9136
▁persekitaran	-10.9136
woo	-10.9136
kini	-10.9138
zy	-10.9139
▁Joko	-10.914
▁Pelan	-10.914
tap	-10.9141
duh	-10.9142
▁AIR	-10.9143
SB	-10.9143
▁Nggak	-10.9144
▁mengadu	-10.9147
▁segalanya	-10.9151
▁mon	-10.9151
ngat	-10.9152
▁wisata	-10.9153
▁menampung	-10.9153
mpuan	-10.9154
ative	-10.9155
▁Ed	-10.9156
▁Miss	-10.9157
▁nang	-10.9157
▁diploma	-10.916
LIM	-10.9161
▁didalam	-10.9161
▁mara	-10.9161
▁belok	-10.9165
▁Reposted	-10.9166
jogja	-10.9166
▁den	-10.9166
▁bakat	-10.9169
▁name	-10.9172
▁malang	-10.9172
▁mengakibatkan	-10.9174
▁nii	-10.9174
▁Gula	-10.9175
▁disampaikan	-10.9176
▁kesal	-10.918
▁bubur	-10.918
▁ubah	-10.9182
▁jk	-10.9182
tani	-10.9183
▁original	-10.9185
▁kar	-10.9185
▁rice	-10.9186
▁Power	-10.9187
Li	-10.9188
▁seksual	-10.9191
▁Azerbaijan	-10.9192
▁double	-10.9194
▁Kirim	-10.9197
▁baki	-10.9201
▁boh	-10.9201
row	-10.9201
▁insiden	-10.9202
PN	-10.9206
yam	-10.9206
▁grosir	-10.9207
▁jawaban	-10.9209
▁ATM	-10.921
▁pemberita	-10.9212
▁artinya	-10.9219
▁Sub	-10.922
▁idol	-10.9222
▁SIAPA	-10.9223
▁kfc	-10.9224
▁cemburu	-10.9227
▁tang	-10.9228
TS	-10.9229
pre	-10.9229
▁Ikut	-10.9233
▁penonton	-10.9238
tua	-10.9238
▁iki	-10.924
▁Bawa	-10.9241
adik	-10.9242
▁diperuntukkan	-10.9243
▁heart	-10.9243
Ju	-10.9247
▁social	-10.9252
▁Berapa	-10.9254
▁Tips	-10.9256
▁warung	-10.9256
700	-10.926
▁girls	-10.9268
▁sekedar	-10.9271
ع	-10.9272
▁Kamis	-10.9273
irah	-10.9275
▁Pakistan	-10.9277
▁Wakil	-10.9283
TT	-10.9284
▁kltu	-10.9284
iv	-10.9285
SR	-10.9287
▁taw	-10.9289
▁membuang	-10.9289
▁Par	-10.9292
▁kejohanan	-10.9293
mini	-10.9294
▁jialat	-10.9295
NY	-10.9295
ndo	-10.9296
▁Malay	-10.9296
▁used	-10.9298
▁Temen	-10.9298
▁Batik	-10.9303
▁partai	-10.9304
bank	-10.9305
dina	-10.9309
▁kekayaan	-10.9309
col	-10.9309
▁system	-10.931
▁Minat	-10.931
sang	-10.9311
▁sign	-10.9311
luh	-10.9314
▁yatim	-10.9315
hil	-10.9316
▁step	-10.9318
ving	-10.9321
▁memanfaatkan	-10.9322
▁milih	-10.9323
ksa	-10.9327
▁syurga	-10.9327
▁PP	-10.9327
▁diajak	-10.9328
▁rumahnya	-10.9329
▁arus	-10.9329
▁Inter	-10.9329
▁Aamiin	-10.9331
▁rasah	-10.9334
AF	-10.9337
▁effort	-10.9338
▁lidah	-10.9339
▁market	-10.9339
▁memaklumkan	-10.934
▁Hahahah	-10.9346
▁wahai	-10.9346
gil	-10.9346
▁mencukupi	-10.9347
▁JA	-10.9348
▁Empat	-10.935
▁zizan	-10.9352
▁sentuh	-10.9353
▁Bekas	-10.9356
▁dengerin	-10.9357
yi	-10.936
▁THE	-10.9361
▁Sepanjang	-10.937
▁menyentuh	-10.9372
▁Goreng	-10.9374
▁formula	-10.9376
▁menghabiskan	-10.9376
▁menghentikan	-10.9377
▁libur	-10.9378
gat	-10.9379
▁agen	-10.9381
malam	-10.9383
▁digelar	-10.9384
▁pena	-10.9384
▁mengangguk	-10.9385
▁62	-10.9385
ens	-10.9386
▁pengiriman	-10.9386
▁GUE	-10.9387
▁lembaga	-10.9388
▁terdengar	-10.939
▁dugaan	-10.9391
BAT	-10.9391
▁menunaikan	-10.9392
▁beruntung	-10.9395
ncang	-10.9398
cen	-10.9399
▁bercinta	-10.9399
▁memasak	-10.9403
▁wartawan	-10.9409
▁tipis	-10.9411
apan	-10.9412
▁chill	-10.9413
▁Mun	-10.9414
▁sebarkan	-10.9414
▁mengejar	-10.9416
rm	-10.9417
og	-10.9419
▁pakej	-10.9421
▁Segala	-10.9422
▁tandas	-10.9422
▁Film	-10.9425
▁Budaya	-10.9426
▁berkali	-10.9426
▁respect	-10.9429
▁Jawab	-10.9431
▁dinner	-10.9431
▁Musa	-10.9431
▁hoax	-10.9432
▁owner	-10.9439
▁ambulan	-10.9439
▁abam	-10.944
▁Ac	-10.9443
▁rempit	-10.9444
ele	-10.9445
▁dengki	-10.9448
:30	-10.9448
field	-10.9449
▁oil	-10.945
▁bomba	-10.9451
alang	-10.9452
▁sd	-10.9453
▁Ker	-10.9453
wl	-10.9454
▁membincangkan	-10.9456
▁berhadapan	-10.9456
▁Lol	-10.9457
▁jb	-10.9457
negeri	-10.9459
▁Char	-10.9463
▁kete	-10.9465
▁dijamin	-10.9466
▁06	-10.9467
▁Syarat	-10.9468
▁ilang	-10.9471
thi	-10.9471
▁soon	-10.9471
▁kem	-10.9471
▁berhati	-10.9472
▁question	-10.9472
▁Takkan	-10.9473
▁belas	-10.9473
▁pop	-10.9476
▁alternatif	-10.9476
▁York	-10.9476
▁saran	-10.9482
▁seekor	-10.949
ering	-10.949
▁berhak	-10.9497
▁perform	-10.9498
▁Musim	-10.95
pong	-10.9502
wira	-10.9505
wel	-10.9508
jur	-10.9508
▁human	-10.9509
▁trend	-10.951
▁young	-10.9512
▁sayap	-10.9512
angkut	-10.9514
kul	-10.9516
▁pape	-10.9516
▁baling	-10.9517
▁Auto	-10.9518
▁sleep	-10.9519
dio	-10.9521
▁kebetulan	-10.9523
kil	-10.9523
▁pahit	-10.9526
saran	-10.9532
▁Menjadi	-10.9533
▁plis	-10.9533
▁enggan	-10.9535
▁niaga	-10.9537
▁ditemukan	-10.9537
▁Polsek	-10.9538
▁terdahulu	-10.9538
▁berkah	-10.9539
▁Pintu	-10.9541
▁menghubungi	-10.9541
dur	-10.9542
▁penjuru	-10.9543
▁pencemaran	-10.9546
▁48	-10.9548
▁gaes	-10.955
▁sejam	-10.955
▁Hilang	-10.9551
▁lapisan	-10.9551
▁Done	-10.9552
▁Alat	-10.9555
▁Wahai	-10.9556
jung	-10.9556
▁pengambilan	-10.9557
▁cool	-10.9557
pul	-10.9557
▁Lingkar	-10.9558
▁bercerita	-10.956
▁tlg	-10.9561
warna	-10.9562
▁mengingat	-10.9565
▁Halim	-10.9566
▁disahkan	-10.9567
▁39	-10.9572
▁lip	-10.9573
▁KH	-10.9573
▁blue	-10.9577
▁menjamin	-10.9577
▁Durian	-10.9581
▁abu	-10.9581
▁tajam	-10.9583
▁keadilan	-10.9583
ell	-10.9584
▁Ve	-10.9586
mbat	-10.9586
▁Pencegahan	-10.9587
No	-10.9588
▁kekasih	-10.9588
▁aib	-10.9589
raw	-10.9589
die	-10.9592
▁Selesai	-10.9594
DN	-10.9595
▁chiong	-10.9595
angkan	-10.9599
▁borak	-10.9599
▁Ten	-10.96
▁Album	-10.9602
▁keberadaan	-10.9608
▁uni	-10.9609
▁Kompleks	-10.961
▁120	-10.9611
ade	-10.9612
kau	-10.9613
▁kuantan	-10.9614
mbuh	-10.9615
▁subang	-10.9616
▁topik	-10.9618
▁dite	-10.9619
Tu	-10.9619
▁Dadah	-10.962
▁gu	-10.962
▁Keputusan	-10.9621
KN	-10.9623
▁pap	-10.9624
bag	-10.9625
barang	-10.9628
▁Nasir	-10.9629
▁spt	-10.9632
▁pemba	-10.9634
▁AC	-10.9634
▁membersihkan	-10.9634
▁Data	-10.9636
▁tergantung	-10.9637
▁Internet	-10.9638
▁Hey	-10.9638
▁siapapun	-10.9638
▁hatiku	-10.9638
▁enough	-10.9639
▁bendera	-10.9641
▁handsome	-10.9643
CT	-10.9644
▁Doakan	-10.9646
chen	-10.9649
▁penasaran	-10.9651
▁Fitri	-10.9652
sed	-10.9654
▁Sari	-10.9656
▁told	-10.9657
▁Adalah	-10.9657
ADA	-10.9658
▁antar	-10.966
▁mengi	-10.9664
▁easy	-10.9667
▁organ	-10.9668
kop	-10.9668
▁matlamat	-10.9668
▁ST	-10.9675
▁mengamalkan	-10.9679
▁pemakaian	-10.9682
▁tajuk	-10.9683
▁Of	-10.9683
▁menyenangkan	-10.9686
▁LE	-10.9688
▁0857	-10.9689
▁statement	-10.9691
▁natural	-10.9692
lasi	-10.9693
dana	-10.9693
ikat	-10.9695
▁add	-10.9695
▁Jum	-10.9695
▁menanti	-10.9697
▁pembeli	-10.9698
▁Pemesanan	-10.9699
▁bacaan	-10.9699
▁sandal	-10.9701
▁spesial	-10.9701
▁Darat	-10.9702
▁eks	-10.9702
▁pernikahan	-10.9703
▁charge	-10.9704
▁fail	-10.9705
▁berdaftar	-10.9705
DO	-10.9705
wati	-10.9708
rry	-10.9708
▁mundur	-10.9711
▁Bayangkan	-10.9715
▁neraka	-10.9716
▁mengkaji	-10.9718
▁lemang	-10.9718
▁ngeliat	-10.9719
▁app	-10.9729
▁nambah	-10.9729
▁memeluk	-10.9731
▁Akademi	-10.9733
bit	-10.9735
▁bandung	-10.9735
jana	-10.9736
ire	-10.974
▁33	-10.9742
▁Meski	-10.9744
gah	-10.9745
fil	-10.9748
▁Skim	-10.9748
LY	-10.9749
▁komponen	-10.9749
▁Zon	-10.9751
▁peguam	-10.9752
tinggi	-10.9754
▁HATI	-10.9755
▁mengulas	-10.9756
▁Zahid	-10.9756
▁pulut	-10.9756
▁brg	-10.9758
▁salahkan	-10.9767
▁kesulitan	-10.9767
▁parkir	-10.9769
▁Pri	-10.9772
rot	-10.9772
▁logo	-10.9774
▁beserta	-10.9775
▁fake	-10.9776
▁punggung	-10.9776
▁Val	-10.9778
▁Sulawesi	-10.9778
sit	-10.9779
▁iron	-10.978
GG	-10.978
▁Amri	-10.978
▁proyek	-10.9786
▁AM	-10.9787
▁pemandangan	-10.9788
▁INDONESIA	-10.979
▁menghormati	-10.9791
mara	-10.9792
▁berkumpul	-10.9796
tama	-10.9796
cari	-10.98
▁bakalan	-10.9801
oooo	-10.9802
▁kese	-10.9803
▁tl	-10.9804
▁2010,	-10.9804
▁membela	-10.9804
▁diselesaikan	-10.9808
▁cos	-10.9809
▁Encik	-10.9811
rant	-10.9812
▁bertahun	-10.9814
dapat	-10.9815
▁china	-10.9815
tih	-10.9817
▁product	-10.9819
▁menyeluruh	-10.982
▁bajet	-10.9821
▁Mukim	-10.9821
▁found	-10.9821
mes	-10.9821
▁suaminya	-10.9824
▁efektif	-10.9825
▁Wkwk	-10.9825
▁soft	-10.9826
▁walk	-10.9829
▁Gold	-10.9829
▁konser	-10.9829
▁KENAPA	-10.9831
wai	-10.9831
▁whole	-10.9835
kasih	-10.9835
▁parut	-10.9837
▁kpop	-10.9838
EH	-10.9845
▁Engkau	-10.9845
▁350	-10.9848
▁shoot	-10.9848
gre	-10.9849
nggu	-10.985
▁Seng	-10.9853
Undang	-10.9854
▁puji	-10.9857
▁Khamis	-10.9859
▁sosok	-10.986
nang	-10.986
YE	-10.9861
ag	-10.9862
PG	-10.9863
▁011	-10.9869
▁earphone	-10.987
▁gram	-10.987
▁tawar	-10.9873
bisa	-10.9876
illa	-10.9876
▁Hadir	-10.9877
▁char	-10.988
form	-10.9881
▁ego	-10.9881
▁beragama	-10.9882
▁wo	-10.9883
▁denda	-10.9883
▁ea	-10.9886
▁modern	-10.9886
▁kuil	-10.9887
▁sak	-10.9888
dera	-10.9888
ral	-10.989
▁reject	-10.9892
Fa	-10.9897
▁Universitas	-10.9897
▁room	-10.9897
▁Cam	-10.9898
▁Bohong	-10.9899
wing	-10.99
▁keutamaan	-10.9904
EE	-10.9904
▁low	-10.9904
▁asap	-10.9905
▁AWANInews	-10.9905
▁Hindu	-10.9908
▁sinar	-10.9909
mem	-10.991
▁CA	-10.9911
▁nada	-10.9913
▁bun	-10.9915
▁Vitamin	-10.9918
▁parking	-10.992
IAN	-10.9921
▁Soal	-10.9922
▁mengenakan	-10.9922
▁slalu	-10.9923
▁41	-10.9924
▁komentar	-10.9924
Ga	-10.9925
▁vi	-10.9926
gri	-10.9927
▁Czech	-10.9928
▁Partai	-10.9928
jaga	-10.9929
▁Ulu	-10.9932
▁Ph	-10.9932
▁tembak	-10.9935
▁match	-10.9935
▁Pun	-10.9937
▁TAU	-10.9938
▁tempahan	-10.9939
▁Sara	-10.9942
▁bentar	-10.9943
▁puisi	-10.9945
▁sponsor	-10.9946
▁damai	-10.9946
▁cair	-10.9948
▁muntah	-10.9953
▁project	-10.9953
▁lahh	-10.9954
▁pangkat	-10.9955
▁bias	-10.9957
▁imam	-10.9957
▁muat	-10.996
syen	-10.9963
▁terjaga	-10.9964
▁azan	-10.9965
▁pemu	-10.9965
RO	-10.9967
▁Calon	-10.9971
▁hasrat	-10.9974
▁moga	-10.9974
▁Yahudi	-10.9975
yen	-10.9976
▁komoditi	-10.9977
mut	-10.9977
▁Khusus	-10.998
▁SAYANG	-10.998
▁Omar	-10.9982
▁buruh	-10.9984
▁become	-10.9989
mber	-10.9989
▁dorg	-10.9991
▁bateri	-10.9992
▁Makanya	-10.9993
▁smart	-10.9993
▁har	-10.9994
▁RUMAH	-10.9994
▁CARA	-10.9997
kt	-10.9998
work	-10.9998
▁pusingan	-11
▁maksimal	-11.0005
▁Baharu	-11.0005
▁karo	-11.0008
▁keupayaan	-11.0009
▁Yahya	-11.0009
▁Modal	-11.001
▁jus	-11.001
▁Wal	-11.0012
▁akar	-11.0012
▁without	-11.0013
▁adat	-11.0015
▁semester	-11.0015
islam	-11.0016
▁diantara	-11.0017
▁UN	-11.0019
▁white	-11.002
▁diorg	-11.0021
▁satunya	-11.0023
▁katakan	-11.0025
▁payudara	-11.0026
ril	-11.0028
side	-11.003
▁bring	-11.003
▁Sab	-11.0031
▁moment	-11.0032
▁latar	-11.0032
▁page	-11.0034
▁Norway	-11.0037
▁liburan	-11.004
▁lakonan	-11.0041
▁menyi	-11.0043
▁record	-11.0045
▁sam	-11.0046
▁kegagalan	-11.0049
cus	-11.005
▁KOTA	-11.0052
▁gelar	-11.0054
▁mr	-11.0058
▁Isteri	-11.0059
▁publik	-11.0061
bn	-11.0061
gin	-11.0061
cel	-11.0062
titi	-11.0063
▁bersuara	-11.0064
▁seks	-11.0066
▁terfikir	-11.0068
▁chao	-11.0069
▁jejak	-11.007
▁wedding	-11.0071
▁favorit	-11.0071
▁pengeluar	-11.0072
▁syariah	-11.0072
▁Area	-11.0073
▁Jogja	-11.0073
▁neng	-11.0074
▁DP	-11.0075
▁Original	-11.0075
▁waktunya	-11.0078
▁tewas	-11.008
▁MY	-11.0082
▁boyfriend	-11.0085
▁memperuntukkan	-11.0085
▁netizen	-11.0088
▁2018,	-11.009
▁MH	-11.009
▁Rasuah	-11.009
▁HAHAHAHA	-11.0093
kek	-11.0096
▁custom	-11.0097
▁teks	-11.0099
wh	-11.0101
▁Nan	-11.0101
▁Tido	-11.0102
▁Senyum	-11.0103
▁strategik	-11.0103
▁Umno	-11.0104
▁Brazil	-11.0105
▁pokoknya	-11.0105
▁delete	-11.0109
baran	-11.0109
jual	-11.011
▁through	-11.0111
▁tindak	-11.0112
uhan	-11.0113
▁campuran	-11.0113
AAA	-11.0116
▁serem	-11.0116
▁Perjanjian	-11.0119
▁Sk	-11.0119
▁permasalahan	-11.012
▁SMP	-11.0121
loh	-11.0122
▁anggaran	-11.0125
▁selfie	-11.0126
▁Sah	-11.0126
▁Sape	-11.0126
▁cancel	-11.0127
kur	-11.0127
▁Sungguh	-11.0128
▁chu	-11.0129
▁cabut	-11.0133
▁lipat	-11.0134
▁budu	-11.0134
▁}	-11.0135
Men	-11.0135
▁half	-11.0138
▁energi	-11.014
▁jemaah	-11.0141
▁janganlah	-11.0141
▁jiak	-11.0142
use	-11.0143
▁bersikap	-11.0143
▁LEBIH	-11.0143
▁ال	-11.0144
mang	-11.0145
▁fuck	-11.0145
pis	-11.0146
mg	-11.0147
laa	-11.0148
ao	-11.0149
▁Hj	-11.0152
▁Jen	-11.0153
▁cenderung	-11.0155
nge	-11.0161
▁gejala	-11.0163
eb	-11.0166
▁menangkap	-11.0167
▁pendirian	-11.0169
▁surga	-11.0169
media	-11.0171
tahan	-11.0172
nde	-11.0177
▁Bela	-11.0178
▁PR	-11.0178
▁keja	-11.018
▁Md	-11.0181
▁Adi	-11.0182
▁kukuh	-11.0184
▁selaras	-11.0185
AGA	-11.0189
▁Penye	-11.019
▁Ambil	-11.0192
▁kegunaan	-11.0192
ono	-11.0196
▁Call	-11.0196
▁dibantu	-11.02
▁merancang	-11.0201
▁ganda	-11.0202
ski	-11.0203
▁jajan	-11.0203
▁belikan	-11.0203
gok	-11.0204
▁dimulai	-11.0207
▁LU	-11.0211
▁Jumpa	-11.0213
▁Bahagia	-11.0214
▁apaan	-11.0216
EY	-11.0216
II	-11.0217
▁Mahasiswa	-11.022
BER	-11.0222
▁dik	-11.0222
▁resep	-11.0223
ubah	-11.0224
▁ab	-11.0224
▁lembu	-11.0224
▁tkde	-11.0228
▁MAKAN	-11.0229
VA	-11.0229
▁graduan	-11.023
▁Tas	-11.0232
▁Singapore	-11.0232
▁spot	-11.0234
س	-11.0234
▁skandal	-11.0235
try	-11.0236
▁mayat	-11.0236
TAS	-11.0237
▁kemerdekaan	-11.0238
lie	-11.0244
kara	-11.0245
pn	-11.0247
▁Agensi	-11.025
▁nabi	-11.0251
▁pesen	-11.0253
▁Latihan	-11.0254
▁Zul	-11.0255
▁Diri	-11.0261
▁penyu	-11.0262
▁pelabuhan	-11.0263
▁mengantuk	-11.0263
▁buay	-11.0264
▁Salleh	-11.0265
▁bom	-11.0267
▁payung	-11.0272
▁yeah	-11.0272
▁Muar	-11.0274
▁john	-11.0274
▁assignment	-11.0274
▁rebus	-11.0278
▁pertubuhan	-11.0279
▁sesebuah	-11.028
▁Enggak	-11.0281
▁Alasan	-11.0282
▁diletakkan	-11.0283
cong	-11.0286
▁merokok	-11.0286
bli	-11.0286
gol	-11.0287
▁kluar	-11.0288
▁Hadiah	-11.029
▁nur	-11.029
▁hargai	-11.0292
▁sebenernya	-11.0295
▁cite	-11.0298
OH	-11.0299
▁Ulama	-11.03
▁dad	-11.03
▁berkat	-11.0309
▁Pesan	-11.0312
▁Jelas	-11.0314
▁pendukung	-11.0314
▁terbabit	-11.0317
duanya	-11.0319
▁ipar	-11.0322
▁lubang	-11.0325
▁dimasukkan	-11.0326
ever	-11.0327
lir	-11.0329
▁Idris	-11.0329
▁pori	-11.033
sol	-11.033
tempat	-11.0332
rban	-11.0333
▁Pakcik	-11.0334
BUT	-11.0334
mbi	-11.0337
▁Kel	-11.0337
pic	-11.0337
▁Seberang	-11.034
▁hidangan	-11.0344
▁Tamil	-11.0346
Ada	-11.0347
▁yaudah	-11.0347
▁BANYAK	-11.0349
▁ph	-11.0349
dra	-11.035
▁pin	-11.0351
enang	-11.0352
▁Hah	-11.0353
▁cili	-11.0353
▁Kingdom	-11.0355
▁Abah	-11.0358
5,000	-11.0359
▁pass	-11.036
Po	-11.036
FC	-11.0361
▁How	-11.0363
▁Ze	-11.0364
jeng	-11.0365
biasa	-11.0369
TR	-11.0372
ikut	-11.0372
▁Chu	-11.0373
▁kecam	-11.0374
▁krisis	-11.0374
▁Tk	-11.0374
▁Malik	-11.0375
▁sense	-11.0376
▁kasian	-11.0378
▁reason	-11.038
yana	-11.038
▁Daniel	-11.038
م	-11.0382
▁wayang	-11.0382
▁music	-11.0384
▁kehendak	-11.0387
▁disertai	-11.0389
▁usul	-11.0389
eg	-11.0392
hri	-11.0393
app	-11.0393
▁KFC	-11.0394
repost	-11.0397
▁disitu	-11.0398
▁dp	-11.04
▁ps	-11.04
▁servis	-11.0401
▁Corona	-11.0402
▁berpendapatan	-11.0407
gro	-11.0407
MY	-11.0409
sehat	-11.0411
dress	-11.0412
Aku	-11.0413
▁wkwkwkwk	-11.0415
▁dicapai	-11.0415
uju	-11.0419
rain	-11.042
▁spm	-11.0421
▁Lebaran	-11.0421
guru	-11.0422
▁sepupu	-11.0429
▁geli	-11.0431
KP	-11.0432
▁memandu	-11.0433
▁Tang	-11.0434
▁jenama	-11.0435
▁pembentukan	-11.0437
▁juru	-11.0439
▁lurus	-11.0439
muk	-11.044
▁England	-11.044
▁near	-11.044
▁Tenang	-11.0442
▁ndak	-11.0443
ries	-11.0443
▁bali	-11.0443
▁Home	-11.0444
▁Agar	-11.0444
▁PTPTN	-11.0447
▁jimat	-11.0447
▁hah	-11.0449
▁didn	-11.0454
▁hewan	-11.0456
chu	-11.0456
▁train	-11.0465
▁ngajak	-11.0468
Kuala	-11.0468
▁melayani	-11.047
▁KURUNG	-11.0471
▁breakfast	-11.0471
▁Umar	-11.0474
EX	-11.0474
muda	-11.0475
▁rantau	-11.0476
mbah	-11.048
▁art	-11.0484
▁beriman	-11.0486
▁siot	-11.0487
▁semenanjung	-11.0489
br	-11.0489
tat	-11.0491
▁pejuang	-11.0491
▁Kemajuan	-11.0493
▁rak	-11.0494
▁batuk	-11.0495
▁Family	-11.0495
▁Tahan	-11.0495
▁017	-11.0498
▁pentas	-11.0502
▁teruskan	-11.0507
Jokowi	-11.0507
▁Cer	-11.0511
▁Menga	-11.0512
▁Cuci	-11.0513
▁hendaklah	-11.0514
▁koyak	-11.0516
▁view	-11.0516
▁menyerah	-11.0517
▁RTM	-11.052
▁Belakang	-11.052
allah	-11.0522
▁pelantikan	-11.0523
▁bimbang	-11.0529
ق	-11.0531
ated	-11.0532
▁Saddiq	-11.0532
▁pagar	-11.0539
ally	-11.0539
juta	-11.0539
ssa	-11.0541
▁trip	-11.0542
mari	-11.0543
▁enjin	-11.0543
▁dark	-11.0543
▁perundangan	-11.0546
▁direct	-11.0547
▁mengelak	-11.0547
malang	-11.0548
▁umah	-11.0549
▁twit	-11.0549
▁pantang	-11.055
oli	-11.0553
▁Plaza	-11.0554
▁mineral	-11.0554
▁46	-11.0556
▁mask	-11.0558
AG	-11.0559
▁Mag	-11.0559
▁PUN	-11.0564
▁ibarat	-11.0564
▁arti	-11.0567
▁fight	-11.0568
▁tragedi	-11.0569
▁kononnya	-11.057
▁Widodo	-11.0575
▁Mira	-11.0575
dat	-11.0576
▁mengisi	-11.0577
▁mc	-11.0579
▁skim	-11.0583
fah	-11.0588
▁Malu	-11.0589
▁dear	-11.059
call	-11.0593
▁Swasta	-11.0594
▁jerit	-11.0594
▁puluh	-11.0595
▁mendedahkan	-11.0596
ingin	-11.0598
▁Penyakit	-11.0598
follow	-11.0605
▁majalah	-11.0605
▁otw	-11.0608
▁repeat	-11.0608
▁Nih	-11.0609
oma	-11.0613
▁Caranya	-11.0613
▁membu	-11.062
Pu	-11.0621
pia	-11.0622
▁LINE	-11.0624
▁menguruskan	-11.0625
▁terbatas	-11.0626
▁Ashraf	-11.063
▁Pengajian	-11.0631
▁pelabur	-11.0631
▁Khan	-11.0632
▁persekutuan	-11.0632
▁perabot	-11.0632
ahan	-11.0635
ZA	-11.0635
oka	-11.0636
Islam	-11.0638
▁2001,	-11.0638
▁almost	-11.0638
▁faedah	-11.0638
▁South	-11.0641
▁sound	-11.0643
rani	-11.0644
▁posting	-11.0644
▁lbh	-11.0644
LIS	-11.0645
▁control	-11.0645
tanda	-11.0647
▁PRO	-11.0649
SAN	-11.065
▁JAKARTA	-11.0651
song	-11.0652
▁berbaloi	-11.0652
Co	-11.0652
▁Dear	-11.0654
▁GO	-11.0654
▁memantau	-11.0661
▁Syukur	-11.0663
▁Jarang	-11.0664
▁dinyatakan	-11.0665
▁lost	-11.0665
▁berlakon	-11.067
via	-11.0673
▁Rezeki	-11.0673
NC	-11.0674
LU	-11.0676
gus	-11.0678
trik	-11.0679
▁cabang	-11.068
gih	-11.068
▁KANAN	-11.0682
▁keduanya	-11.0685
▁RS	-11.0687
▁Zulkifli	-11.0689
▁roger	-11.069
▁bertajuk	-11.0692
▁semak	-11.0692
arah	-11.0692
▁aktivitas	-11.0693
▁chiu	-11.0695
▁Bonus	-11.0695
▁Uang	-11.0696
▁brother	-11.0696
kura	-11.0697
▁karang	-11.0699
▁kaitan	-11.0699
hn	-11.0702
▁Trus	-11.0702
▁Pria	-11.0703
▁bangsat	-11.0703
▁^^	-11.0704
SEL	-11.0704
Peng	-11.0706
▁Len	-11.0706
▁Global	-11.0706
▁dompet	-11.0706
▁Telah	-11.0706
▁Lima	-11.071
▁pri	-11.0711
▁okey	-11.0711
و	-11.0712
▁pemegang	-11.0713
▁Ara	-11.0713
▁Beda	-11.0715
cover	-11.0716
▁Mengapa	-11.0718
▁tertutup	-11.072
▁Manis	-11.0721
▁berbincang	-11.0721
▁MANA	-11.0722
CK	-11.0722
nor	-11.0723
▁mendekati	-11.0725
▁download	-11.0725
▁mampir	-11.0726
▁cakep	-11.0726
▁intan	-11.0727
▁Syah	-11.0727
▁mempengaruhi	-11.0728
▁mane	-11.0728
▁skill	-11.0728
atkan	-11.073
▁kalimat	-11.073
▁sesak	-11.0731
▁UPDATE	-11.0732
▁Bukti	-11.0733
cek	-11.0733
▁Simpang	-11.0734
▁OPEN	-11.0735
RR	-11.0735
▁Bus	-11.0736
ssss	-11.0736
▁meluas	-11.0736
kot	-11.0737
▁Ani	-11.0737
▁menurun	-11.074
▁ngaku	-11.0741
▁Pendaftaran	-11.0742
dz	-11.0742
▁Kesatuan	-11.0745
▁kuy	-11.0745
▁berpendapat	-11.0747
▁iPhone	-11.0749
fla	-11.0751
▁contohnya	-11.0751
kekinian	-11.0754
▁Post	-11.0755
rim	-11.0756
▁penemuan	-11.076
▁Green	-11.0761
▁terjejas	-11.0761
kuasa	-11.0761
▁85	-11.0761
ery	-11.0762
▁kebijakan	-11.0766
▁NU	-11.0767
▁Ch	-11.0768
▁kekuasaan	-11.0769
▁berde	-11.0771
▁inginkan	-11.0773
▁Ain	-11.0776
▁selesaikan	-11.0779
▁redha	-11.078
▁Menghilangkan	-11.0783
▁persiapan	-11.0783
ide	-11.0784
fren	-11.0784
▁INFO	-11.0785
▁jurusan	-11.0787
▁Even	-11.0789
▁scene	-11.0789
ukur	-11.0789
mpah	-11.079
▁skuad	-11.079
▁ribuan	-11.0793
▁Sir	-11.0793
nasi	-11.0795
▁Eropa	-11.0795
hitung	-11.0796
▁Tarikh	-11.0798
▁perkauman	-11.0798
Ar	-11.0798
▁Karang	-11.08
MM	-11.0801
▁BIO	-11.0801
nja	-11.0805
▁Damansara	-11.0806
▁Cocok	-11.0809
cip	-11.081
▁DATUK	-11.0812
▁hampa	-11.0812
▁cash	-11.0816
▁Kuat	-11.082
tawa	-11.0821
▁Haih	-11.0821
▁lega	-11.0823
▁poli	-11.0824
▁Bursa	-11.0825
tv	-11.0825
▁Pol	-11.0827
usan	-11.0828
▁master	-11.0828
▁1997	-11.0829
▁Sering	-11.083
▁dibangunkan	-11.083
▁tai	-11.0831
▁website	-11.0833
▁terbuat	-11.0834
▁dap	-11.0835
▁mencipta	-11.0836
hum	-11.0837
▁kehamilan	-11.0838
▁along	-11.0839
act	-11.0839
▁Mark	-11.0841
▁Siri	-11.0842
▁Multimedia	-11.0843
▁019	-11.0843
▁jadinya	-11.0844
BAH	-11.0844
▁menampilkan	-11.0844
▁TANPA	-11.0844
▁kepalanya	-11.0844
mir	-11.0846
▁seh	-11.0848
batu	-11.0851
▁Membuat	-11.0854
▁ringkas	-11.0854
▁Hahah	-11.0856
▁Tempatan	-11.0858
▁local	-11.0859
▁bra	-11.086
mos	-11.0861
▁chi	-11.0862
▁Sate	-11.0862
▁ava	-11.0865
fon	-11.0868
▁prosedur	-11.087
▁gada	-11.0871
▁Toko	-11.0871
▁istirahat	-11.0872
▁hihi	-11.0872
ugh	-11.0874
▁kaw	-11.0875
▁binti	-11.0877
▁Gaya	-11.0877
▁ribet	-11.0877
ifikasi	-11.0877
▁pengunjung	-11.0878
▁Kri	-11.0879
EP	-11.0879
▁HANYA	-11.0881
▁hyung	-11.0884
▁State	-11.0884
▁terengganu	-11.0885
▁Abam	-11.0885
▁kedalam	-11.0886
▁Pukul	-11.0888
▁Gra	-11.0888
▁cabul	-11.089
hin	-11.089
jok	-11.089
▁self	-11.089
▁bahas	-11.0891
▁Burger	-11.0893
tari	-11.0894
▁44	-11.0896
▁Blok	-11.0896
▁School	-11.0898
Ho	-11.0902
▁pengumuman	-11.0903
▁anything	-11.0903
pl	-11.0904
▁pema	-11.0905
▁sejati	-11.0905
▁pandan	-11.0906
▁meni	-11.0907
▁pura	-11.0907
▁Hp	-11.091
▁dibuang	-11.0911
det	-11.0912
▁training	-11.0913
▁Manchester	-11.0915
▁papan	-11.0916
▁99	-11.0916
▁43	-11.0917
▁CEPAT	-11.0917
baca	-11.0918
▁format	-11.092
▁great	-11.092
hol	-11.092
del	-11.0923
▁Royal	-11.0925
▁berkawan	-11.0928
▁hrs	-11.0929
▁protein	-11.0929
▁Kit	-11.093
▁dibahagikan	-11.093
▁Smart	-11.0931
▁bet	-11.0932
pose	-11.0937
lab	-11.0938
▁puak	-11.0941
▁PLEASE	-11.0943
cra	-11.0947
DD	-11.0947
▁Tahukah	-11.0948
▁sum	-11.0948
▁filter	-11.095
▁Wkwkwk	-11.0951
▁Bilik	-11.0953
▁Sawit	-11.0954
▁Tujuan	-11.0956
▁tuk	-11.0957
▁KPK	-11.0958
▁kutipan	-11.0958
▁kelemahan	-11.0959
▁Terminal	-11.0959
▁episode	-11.0959
▁Low	-11.0959
enda	-11.0961
▁siapkan	-11.0962
▁Kode	-11.0967
▁Pemimpin	-11.0968
▁gemes	-11.0969
▁leave	-11.0971
cup	-11.0973
▁hadis	-11.0973
▁bis	-11.0978
▁hr	-11.0979
STA	-11.0981
▁seluas	-11.099
▁rakaman	-11.0991
Fi	-11.0991
▁bawal	-11.0992
▁postage	-11.0992
▁sopan	-11.0994
▁NEGERI	-11.0994
yeon	-11.0994
▁sport	-11.0997
▁Kha	-11.0997
▁LIKE	-11.0998
▁dihubungi	-11.0998
▁semacam	-11.0998
BAN	-11.0998
▁streaming	-11.1
▁Its	-11.1
▁mengembangkan	-11.1001
alat	-11.1002
▁Bajet	-11.1003
▁ketara	-11.1006
malaya	-11.1011
▁iv	-11.1012
▁Tes	-11.1015
▁Mohammad	-11.1016
▁terjun	-11.1016
▁harusnya	-11.1018
▁pinter	-11.1018
▁kesah	-11.1019
▁Cheras	-11.1019
▁Pelabuhan	-11.1024
zah	-11.1028
▁camtu	-11.1029
▁menyukai	-11.1029
▁cause	-11.1032
WI	-11.1034
▁remember	-11.1036
sara	-11.1037
▁Klu	-11.1039
bri	-11.1042
▁09	-11.1043
MIN	-11.1044
▁bergaduh	-11.1046
▁ditolak	-11.1046
▁issue	-11.1049
RS	-11.105
mark	-11.1055
▁ideal	-11.1055
▁Tasik	-11.1056
▁pajak	-11.1057
▁asa	-11.1057
▁Stop	-11.1057
▁siasat	-11.1058
bot	-11.1058
▁airport	-11.1059
semarang	-11.1059
▁followers	-11.106
▁dibentuk	-11.1065
▁hayat	-11.1066
jing	-11.1067
▁Lepastu	-11.1069
▁wonder	-11.1071
▁dukung	-11.1072
▁Serbia	-11.1072
▁ratusan	-11.1073
▁amek	-11.1074
ius	-11.1075
▁menandatangani	-11.1079
▁debat	-11.1081
▁God	-11.1082
lm	-11.1083
KK	-11.1084
SIS	-11.1086
▁kalinya	-11.1087
berg	-11.1087
▁times	-11.1087
▁012	-11.1093
▁Pelajaran	-11.1094
▁natang	-11.1096
▁ganggu	-11.1096
▁pujuk	-11.1097
▁FOLLOW	-11.1098
▁magic	-11.1102
▁lintas	-11.1103
▁kaga	-11.1106
▁DPR	-11.1106
▁beria	-11.1107
▁Cat	-11.1107
▁Sinar	-11.1108
▁Chat	-11.111
▁0822	-11.111
▁tri	-11.1111
bid	-11.1114
▁bangang	-11.1114
▁chance	-11.1116
▁Kapan	-11.1117
▁maafkan	-11.1119
▁surah	-11.112
▁af	-11.1121
syarat	-11.1121
Je	-11.1121
▁ceritakan	-11.1121
gha	-11.1122
▁FIFA	-11.1125
oni	-11.1125
▁personal	-11.1126
jelas	-11.1127
▁perlembagaan	-11.1128
▁mendadak	-11.1128
tut	-11.1129
hd	-11.113
▁Penga	-11.1131
▁Kristian	-11.1134
▁Mor	-11.1135
▁realiti	-11.1135
▁kim	-11.1136
nta	-11.114
▁mener	-11.1141
▁Terbuka	-11.1141
kun	-11.1143
▁experience	-11.1144
▁motivasi	-11.1145
▁sele	-11.1145
▁karakter	-11.1147
▁kenalan	-11.1148
▁mengendalikan	-11.1149
▁Penulis	-11.1149
▁NCT	-11.1149
▁sale	-11.1149
▁berbahasa	-11.1152
▁disa	-11.1152
▁fly	-11.1152
▁bazar	-11.1158
▁menduduki	-11.1163
cep	-11.1163
▁little	-11.1163
▁impak	-11.1164
▁party	-11.1165
▁mix	-11.1167
▁tertinggal	-11.1168
▁uji	-11.1169
old	-11.1169
LP	-11.1172
▁destinasi	-11.1176
▁Zealand	-11.1182
▁Abis	-11.1182
uji	-11.1182
▁Contohnya	-11.1184
▁fikiran	-11.1184
▁teratur	-11.1185
bau	-11.1186
▁berminyak	-11.1186
▁AWANI	-11.1187
▁0821	-11.1188
SD	-11.1188
▁berak	-11.1189
▁Chan	-11.1189
▁05	-11.119
▁Kasut	-11.119
▁tawa	-11.1191
▁jln	-11.1193
▁Ran	-11.1195
▁menipu	-11.1196
ngkang	-11.1198
badan	-11.1198
lari	-11.12
▁Den	-11.12
▁Mengenai	-11.12
▁cr	-11.1201
▁tahniah	-11.1203
▁bb	-11.1205
▁domestik	-11.1206
▁400	-11.1207
▁scroll	-11.1209
▁Big	-11.1212
▁anyway	-11.1212
manis	-11.1216
▁review	-11.1217
rie	-11.1217
▁Setakat	-11.1218
▁between	-11.1222
▁omg	-11.1223
dit	-11.1225
▁van	-11.1225
▁ker	-11.1228
fra	-11.1229
rna	-11.1231
FE	-11.1232
▁Menang	-11.1233
▁Lautan	-11.1234
▁HR	-11.1235
▁Tentu	-11.1236
▁BINTI	-11.1236
▁adem	-11.1236
▁ribut	-11.1238
▁awk	-11.124
▁menaikkan	-11.124
nanti	-11.124
alaikum	-11.1245
▁sampaikan	-11.1251
▁Sarjana	-11.1252
▁bapanya	-11.1253
▁LGBT	-11.1254
▁penyebab	-11.1254
▁aturan	-11.1254
▁sesekali	-11.1257
gap	-11.1258
▁mengarahkan	-11.1263
▁Turun	-11.1264
▁Mending	-11.1265
hrs	-11.127
▁GAK	-11.127
hua	-11.1273
sco	-11.1276
▁Tambahan	-11.1276
▁pick	-11.1276
mul	-11.1278
▁Hy	-11.1278
emas	-11.1279
▁derma	-11.1279
▁semenjak	-11.128
▁aiya	-11.1282
▁kembar	-11.1282
▁insecure	-11.1283
▁rebahan	-11.1284
▁Dagang	-11.1286
▁Panglima	-11.1286
▁[]	-11.1288
Ca	-11.1292
▁rambutan	-11.1296
▁Sehubungan	-11.1297
MAH	-11.13
▁terbalik	-11.13
▁Live	-11.1302
▁That	-11.1303
▁Pertandingan	-11.1304
▁STOCK	-11.1304
▁Tah	-11.1304
▁mikro	-11.1305
hon	-11.1308
yok	-11.131
▁pertamanya	-11.131
▁kubu	-11.131
abu	-11.1312
▁dibangun	-11.1312
▁teras	-11.1315
▁kids	-11.1316
OO	-11.1316
▁ا	-11.1316
nat	-11.1318
▁Wajib	-11.1319
▁Sim	-11.1319
▁defisit	-11.132
▁Bru	-11.1321
▁doing	-11.1322
▁jeruk	-11.1324
obor	-11.1324
bre	-11.1327
▁Jungkook	-11.1328
▁seketika	-11.1328
▁bosen	-11.133
▁postingan	-11.1333
▁dating	-11.1333
▁Kom	-11.1334
▁ever	-11.1336
urut	-11.1338
▁kedatangan	-11.1339
▁milk	-11.1339
▁ttp	-11.1339
timbang	-11.1341
▁sapi	-11.1342
▁RO	-11.1343
unan	-11.1344
▁lawas	-11.1345
vis	-11.1346
▁BBM	-11.1347
▁ovo	-11.1348
▁Bur	-11.1348
▁kelakuan	-11.135
▁KLIA	-11.1357
Pen	-11.1359
▁Coach	-11.1363
▁dirawat	-11.1364
▁studio	-11.1364
▁MURAH	-11.1368
▁kurma	-11.1369
▁Lembah	-11.137
▁menonton	-11.137
cok	-11.1371
▁Detail	-11.1372
▁Beri	-11.1372
▁deal	-11.1377
▁SATU	-11.1379
▁Solat	-11.138
▁Sekiranya	-11.1383
▁Next	-11.1383
▁More	-11.1386
▁government	-11.1386
▁reka	-11.1388
250	-11.1391
lect	-11.1391
▁peneroka	-11.1394
▁galau	-11.1396
▁objek	-11.1397
▁straight	-11.1401
▁dream	-11.1402
gala	-11.1403
▁diperoleh	-11.1403
angka	-11.1406
▁dikesan	-11.1407
▁penjagaan	-11.1408
NT	-11.1408
▁jalanan	-11.1409
▁penghargaan	-11.141
mili	-11.1411
▁Juta	-11.1412
▁ijo	-11.1415
▁habiskan	-11.1415
▁bocor	-11.1417
TING	-11.1418
▁aurat	-11.142
▁menceritakan	-11.1422
▁Bil	-11.1424
ero	-11.1426
▁joging	-11.1428
solo	-11.1431
▁private	-11.1431
▁Insya	-11.1432
▁promote	-11.1432
putar	-11.1434
▁spend	-11.1434
▁deep	-11.1435
▁pl	-11.1438
wood	-11.1439
▁meriah	-11.1439
▁Mc	-11.1441
▁Sayur	-11.1442
▁takdir	-11.1445
▁ice	-11.1446
▁sepuluh	-11.1448
▁Utk	-11.1448
▁Plus	-11.145
angkat	-11.1451
▁Pastikan	-11.1452
house	-11.1452
▁dikaitkan	-11.1453
▁KALO	-11.1453
plan	-11.1457
bara	-11.1458
rindu	-11.1461
▁explain	-11.1461
▁dibaca	-11.1462
▁hartanah	-11.1463
▁House	-11.1463
play	-11.1465
ino	-11.1465
▁kemasukan	-11.1468
▁mematuhi	-11.1469
▁Mera	-11.1472
▁Penjara	-11.1473
▁rogol	-11.1476
didik	-11.1476
▁buruan	-11.1477
Qur	-11.148
▁GT	-11.1481
▁laugh	-11.1483
▁kampanye	-11.1484
▁mudik	-11.1484
▁bts	-11.1485
▁letih	-11.1485
▁text	-11.1485
▁disaat	-11.1486
dol	-11.1488
▁tata	-11.1491
▁Semarang	-11.1492
DAR	-11.1494
▁kompleks	-11.1494
▁ketidak	-11.1494
Hari	-11.1495
For	-11.1495
Hi	-11.1496
▁aw	-11.1496
ys	-11.1498
lom	-11.15
▁jem	-11.1503
alih	-11.1505
chang	-11.1507
▁KALAU	-11.151
▁berkurang	-11.1512
ceh	-11.1513
▁intern	-11.1513
sip	-11.1513
▁Dataran	-11.1513
ville	-11.1515
TN	-11.1516
berang	-11.1516
▁uncle	-11.1516
▁flat	-11.1516
▁mengira	-11.1517
py	-11.1518
▁jentera	-11.1519
lic	-11.152
mudah	-11.152
▁lumba	-11.1522
aah	-11.1524
▁asia	-11.1526
▁Tangerang	-11.1527
▁Well	-11.153
▁kre	-11.1531
▁opo	-11.1531
▁biarpun	-11.1532
nggung	-11.1534
▁Bau	-11.1535
TEN	-11.1536
▁Tukang	-11.1536
▁700	-11.1539
▁BGT	-11.1539
bener	-11.1539
▁tumbuhan	-11.1539
He	-11.1543
▁Miri	-11.1543
▁Takpe	-11.1545
▁07	-11.1545
▁MI	-11.1547
▁SEM	-11.1548
▁oversea	-11.1551
▁Plan	-11.1553
▁cost	-11.1555
▁98	-11.1556
▁seragam	-11.1557
▁tentunya	-11.1563
nel	-11.1565
ttle	-11.1566
▁MARA	-11.1566
aaaaaa	-11.1566
▁sepertinya	-11.1568
ima	-11.1569
▁perayaan	-11.157
▁player	-11.1571
▁Lin	-11.1575
▁yet	-11.1575
ska	-11.1576
▁Parit	-11.1577
▁Tel	-11.1579
▁Telur	-11.1579
▁1991	-11.1579
▁terimakasih	-11.1583
kup	-11.1585
▁Paul	-11.1585
▁jogja	-11.1587
riz	-11.1587
▁berkenan	-11.1588
▁handphone	-11.1588
▁Kemen	-11.1591
stro	-11.1591
▁Pengguna	-11.1591
ENT	-11.1592
▁ditempatkan	-11.1592
▁hidupnya	-11.1593
▁Asas	-11.1594
▁Huhu	-11.1595
▁TIDUR	-11.1598
sky	-11.1601
▁Strategi	-11.1603
▁Warisan	-11.1603
VE	-11.1604
▁jagung	-11.1604
▁Bor	-11.1604
▁pinggan	-11.1606
▁Sedang	-11.1607
pil	-11.1607
▁mencatatkan	-11.1611
hidup	-11.1612
▁kembang	-11.1613
_**	-11.1615
▁kunjungan	-11.1615
▁dampak	-11.1615
▁mamat	-11.1616
RAN	-11.1617
rian	-11.1617
▁DS	-11.1618
ARAN	-11.1618
▁Kuasa	-11.1624
town	-11.1625
▁Rahim	-11.1626
▁explore	-11.1626
▁sblm	-11.1626
▁bersaing	-11.1634
▁pertukaran	-11.1634
▁konon	-11.1635
▁Saiz	-11.1636
▁iri	-11.164
▁lupakan	-11.164
▁rase	-11.1641
▁Not	-11.1643
▁ID	-11.1644
not	-11.1645
dhi	-11.1647
▁delivery	-11.1647
▁Awang	-11.165
▁cawangan	-11.165
▁seberapa	-11.1651
▁MASIH	-11.1651
jong	-11.1652
▁penjual	-11.1656
▁mutual	-11.1657
▁meet	-11.1661
▁Keluar	-11.1662
▁ditinggal	-11.1664
▁sedemikian	-11.1664
▁Ayu	-11.1664
tty	-11.1666
▁came	-11.1667
▁sekitarnya	-11.167
▁period	-11.167
▁agaknya	-11.1671
▁menamatkan	-11.1671
▁Bomba	-11.1673
▁memakan	-11.1673
▁menambahkan	-11.1674
▁sometimes	-11.1679
ese	-11.168
▁Said	-11.1682
mani	-11.1682
oot	-11.1683
▁Kehidupan	-11.1684
faz	-11.1684
▁Mur	-11.1686
ale	-11.1686
▁saje	-11.1686
▁Jalil	-11.1686
zer	-11.1686
▁base	-11.1689
▁bertentangan	-11.1689
▁diketuai	-11.1689
dot	-11.1691
jk	-11.1692
▁rujukan	-11.1693
▁mukim	-11.1697
njang	-11.1699
135	-11.17
▁country	-11.1702
pra	-11.1702
▁Bung	-11.1702
buahan	-11.1703
▁cop	-11.1705
dekat	-11.1707
▁tahunan	-11.1708
▁1980	-11.1709
ARI	-11.171
▁massa	-11.1712
▁jenazah	-11.1713
ك	-11.1713
kaya	-11.1713
▁Let	-11.1715
▁pain	-11.1719
▁dosen	-11.1722
kenal	-11.1724
▁tetamu	-11.1725
syah	-11.1725
▁Giveaway	-11.1728
▁ampe	-11.1729
▁Kek	-11.1731
▁mengeluh	-11.1734
▁Labuh	-11.1734
▁gtu	-11.1735
peri	-11.1735
▁Guna	-11.1736
eli	-11.1738
ngin	-11.1739
guh	-11.1739
buka	-11.174
nal	-11.1742
▁dukungan	-11.1742
zat	-11.1745
ayu	-11.1746
▁akhlak	-11.1748
▁moral	-11.1751
▁NGO	-11.1751
▁Jujur	-11.1752
▁Eks	-11.1755
▁sediakan	-11.1757
▁kerjaan	-11.1757
▁kasur	-11.1758
▁kemanusiaan	-11.1758
▁Yaudah	-11.1764
tre	-11.1766
▁liter	-11.1767
115	-11.1768
▁expect	-11.1769
▁wajahnya	-11.1771
▁pencegahan	-11.1772
▁malay	-11.1772
▁Chen	-11.1775
sana	-11.1775
▁excited	-11.1777
▁Rancangan	-11.1777
▁judul	-11.1778
ال	-11.1781
baris	-11.1782
▁langsir	-11.1782
▁gabung	-11.1782
hor	-11.1786
▁jambatan	-11.1788
▁Seluruh	-11.179
▁HI	-11.1792
mpul	-11.1792
KT	-11.1796
OW	-11.1798
uz	-11.1799
▁KURUS	-11.18
care	-11.18
▁Petronas	-11.1801
▁macet	-11.1801
cet	-11.1801
mpi	-11.1804
▁ideologi	-11.1804
▁Bel	-11.1804
eni	-11.1805
oles	-11.1805
▁Mantap	-11.1806
▁ngam	-11.1807
▁Dengar	-11.1808
▁kesilapan	-11.1811
▁knn	-11.1811
▁lahan	-11.1812
▁jurulatih	-11.1814
kol	-11.1815
▁songkok	-11.1816
▁miliar	-11.1824
▁menciptakan	-11.1825
▁lek	-11.1826
▁secukupnya	-11.1826
▁mung	-11.1826
▁Kaki	-11.1829
AZ	-11.1831
▁amalkan	-11.1833
▁smlm	-11.1834
▁sushi	-11.1835
star	-11.1835
▁Hijau	-11.1837
post	-11.1838
▁kebersihan	-11.1839
▁Premium	-11.1843
▁Mulia	-11.1846
sma	-11.1846
▁Ruang	-11.1848
▁AB	-11.1848
▁ARMY	-11.1849
cs	-11.1849
AY	-11.185
▁rundingan	-11.1851
▁Bre	-11.1852
stu	-11.1854
▁Com	-11.1854
▁Ustadz	-11.1855
▁melarikan	-11.1855
lepas	-11.1858
▁Kayu	-11.1858
▁Quran	-11.1859
▁pembantu	-11.1861
▁common	-11.1861
▁Menara	-11.1862
▁bercuti	-11.1863
filem	-11.1867
▁gedung	-11.1867
Raja	-11.1868
▁penilaian	-11.1868
▁Melihat	-11.1872
▁Sebanyak	-11.1873
▁gausah	-11.1874
▁Nepal	-11.1878
▁Sabu	-11.1879
▁Jenayah	-11.188
aksi	-11.1881
unt	-11.1881
▁Hehehe	-11.1881
▁bersiap	-11.1882
▁hatimu	-11.1883
▁Bodo	-11.1883
▁shit	-11.1884
▁called	-11.1884
▁drink	-11.1886
▁pembukaan	-11.1887
burg	-11.1889
ntak	-11.1889
▁Hot	-11.1889
▁peluru	-11.1889
tain	-11.1893
▁sunyi	-11.1894
▁kusam	-11.1898
▁future	-11.1898
We	-11.1898
▁ago	-11.1898
▁Cor	-11.1898
▁ALAM	-11.1902
urus	-11.1903
▁Maybank	-11.1905
fc	-11.1907
▁Myanmar	-11.1909
▁MCA	-11.1912
IB	-11.1914
▁dipasang	-11.1915
jj	-11.1915
OC	-11.1916
jd	-11.1916
▁Kondisi	-11.1916
▁uols	-11.1917
▁penjaga	-11.1919
soo	-11.1922
ista	-11.1922
▁cc	-11.1926
▁huhuhu	-11.1926
▁Mengulas	-11.1927
ters	-11.1927
▁ternampak	-11.1928
▁Yah	-11.193
▁Abi	-11.193
▁UM	-11.1931
▁Trafik	-11.1932
▁News	-11.1933
yak	-11.1933
saya	-11.1939
SIA	-11.1941
▁skrng	-11.1941
▁menghadap	-11.1943
▁Kah	-11.1943
▁camera	-11.1947
emp	-11.1947
▁menemani	-11.1947
tag	-11.195
▁three	-11.195
▁komersial	-11.1951
▁Bener	-11.1953
▁Mahkota	-11.1956
▁Benar	-11.1956
▁seputar	-11.1957
salah	-11.1959
ations	-11.196
▁memimpin	-11.1961
oto	-11.1963
▁Stok	-11.1965
▁Karya	-11.1968
salam	-11.1969
▁berbunyi	-11.197
▁ayahnya	-11.197
▁temu	-11.1971
▁Bos	-11.1971
▁dilarang	-11.1971
ashi	-11.1971
bina	-11.1971
▁Skrg	-11.1973
▁mengenali	-11.1975
Ti	-11.1977
▁believe	-11.198
▁Pasal	-11.198
▁hape	-11.1981
▁didepan	-11.1982
▁takpa	-11.1982
▁Buloh	-11.1983
▁coach	-11.1983
▁Lengkap	-11.1984
▁berjanji	-11.1985
▁anjuran	-11.1986
TRI	-11.1988
hr	-11.1988
▁menghampiri	-11.1988
▁pengantin	-11.1989
▁happen	-11.1994
DAY	-11.1995
▁asasi	-11.1998
▁ADUN	-11.2
▁jaket	-11.2
uma	-11.2002
▁senja	-11.2006
cau	-11.2007
▁atlet	-11.201
CU	-11.201
As	-11.2012
▁Jer	-11.2014
▁kearah	-11.2014
▁PBB	-11.2015
▁tiri	-11.2016
▁deng	-11.2016
▁menafikan	-11.2016
▁hello	-11.202
▁Jd	-11.202
tian	-11.2022
▁debut	-11.2022
▁bersabar	-11.2025
meter	-11.2025
nom	-11.2028
Fatihah	-11.2028
▁corak	-11.2029
KAH	-11.2029
sport	-11.2029
▁pengganti	-11.2029
END	-11.2031
▁hikmah	-11.2032
▁Zahir	-11.2034
▁Lampu	-11.2036
uw	-11.2038
▁quote	-11.2039
WAN	-11.204
▁Kacang	-11.2041
nau	-11.2041
mina	-11.2046
▁stand	-11.2046
▁SANGAT	-11.2046
▁kmu	-11.2049
▁seb	-11.2049
▁beauty	-11.205
▁Ladang	-11.205
▁oppa	-11.2051
▁hit	-11.2051
▁ride	-11.2053
▁1996	-11.2054
▁Kad	-11.2055
▁Gratis	-11.2055
▁Pekerja	-11.2055
lovers	-11.2056
▁dipenuhi	-11.2056
▁Stesen	-11.2061
▁PUTRAJAYA	-11.2061
▁pengenalan	-11.2061
▁mengatur	-11.2062
KER	-11.2065
cul	-11.2068
▁mangga	-11.2069
▁pertuduhan	-11.207
▁kanker	-11.207
▁Pinggang	-11.2071
▁Saja	-11.2072
▁Sup	-11.2072
▁women	-11.2072
▁Metro	-11.2073
▁Mbak	-11.2074
▁lutut	-11.2076
turut	-11.2078
▁dimsum	-11.2079
▁fine	-11.2079
▁umrah	-11.2081
▁Kejohanan	-11.2084
▁tq	-11.2086
▁sotong	-11.2086
▁MESYUARAT	-11.2087
▁komited	-11.2087
▁Shu	-11.2088
▁deg	-11.2089
luar	-11.2091
▁keganasan	-11.2092
▁Mandi	-11.2095
▁Nusantara	-11.2096
▁bales	-11.2099
▁ceritanya	-11.21
▁nyo	-11.2101
▁tmpt	-11.2101
▁menaiki	-11.2103
ICE	-11.2103
kos	-11.2103
▁sempet	-11.2106
ARA	-11.2106
style	-11.2107
▁lautan	-11.211
dul	-11.2112
ory	-11.2114
▁psl	-11.2116
ANI	-11.2119
▁screen	-11.212
bandar	-11.2125
▁gold	-11.2125
▁1995	-11.2126
UB	-11.2126
▁dini	-11.2128
▁juak	-11.2128
▁Mobil	-11.2129
ISI	-11.2132
EC	-11.2132
▁dunno	-11.2133
▁kne	-11.2134
LEM	-11.2134
pg	-11.2135
▁pack	-11.2138
▁Peringkat	-11.2138
sn	-11.214
tsu	-11.2143
cung	-11.2143
nggo	-11.2143
▁imej	-11.2144
seng	-11.2144
▁kesini	-11.2144
▁haaa	-11.2145
elo	-11.2145
▁diarahkan	-11.2146
mbong	-11.2147
ial	-11.2149
ح	-11.215
▁runcit	-11.2151
▁menempatkan	-11.2152
▁Mampu	-11.2155
▁Lanjut	-11.2158
▁mencatat	-11.2159
fik	-11.2159
verse	-11.2159
▁menetap	-11.216
▁Merdeka	-11.2161
▁prefer	-11.2164
Mar	-11.2165
▁pompuan	-11.2168
▁Ganti	-11.2169
▁berlainan	-11.2169
▁Kepulauan	-11.2171
▁Aplikasi	-11.2173
ringan	-11.2174
▁sebegini	-11.2175
▁BUMN	-11.2175
▁mencuri	-11.2175
CON	-11.2175
▁Format	-11.2176
▁mengalahkan	-11.2177
▁rasakan	-11.2178
ien	-11.218
▁See	-11.218
▁selalunya	-11.2181
▁awet	-11.2181
pung	-11.2182
▁masalahnya	-11.2183
▁Konsultasi	-11.2183
Untuk	-11.2184
▁understand	-11.2184
▁Pasangan	-11.2185
▁Sidang	-11.2186
▁diharapkan	-11.2187
RIS	-11.2188
awat	-11.2188
▁touch	-11.2189
▁otot	-11.219
▁wak	-11.2194
RC	-11.2196
▁konten	-11.2199
2%	-11.2201
▁kayanya	-11.2201
▁Zain	-11.2203
BE	-11.2204
▁SHAH	-11.2204
▁BT	-11.2205
down	-11.2207
▁Pener	-11.2208
▁visit	-11.2209
▁Cap	-11.221
▁Mara	-11.2211
▁dendam	-11.2211
akh	-11.2213
▁label	-11.2216
▁hadapi	-11.2216
padu	-11.2219
▁robot	-11.2219
▁menyebarkan	-11.2219
▁memulai	-11.2223
▁Thread	-11.2224
▁Surah	-11.2226
das	-11.2226
pelajar	-11.2226
▁telat	-11.2227
▁confess	-11.2228
sangat	-11.2229
▁menukar	-11.2232
▁terke	-11.2232
▁Street	-11.2233
▁HAJI	-11.2233
GER	-11.2234
▁fact	-11.2235
▁pemantauan	-11.2237
▁looking	-11.2237
▁Fo	-11.2238
▁Dewasa	-11.2238
non	-11.2239
aki	-11.2241
▁teksi	-11.2242
▁berjudul	-11.2243
▁Keadaan	-11.2245
▁Jasa	-11.2246
▁Sch	-11.2246
▁varian	-11.2246
▁eksport	-11.2248
▁UK	-11.2249
▁miliki	-11.2249
zai	-11.225
DER	-11.225
dup	-11.2252
cuk	-11.2253
ular	-11.2253
▁relationship	-11.2256
▁rock	-11.2256
syarikat	-11.2259
▁diganti	-11.2259
lawan	-11.226
▁bile	-11.2261
▁puan	-11.2261
▁mengemukakan	-11.2263
ERA	-11.2263
▁pingat	-11.2264
▁Sul	-11.2265
cont	-11.2265
▁menyiapkan	-11.2268
▁kaunter	-11.2268
▁pembunuhan	-11.2269
hani	-11.2269
▁bocah	-11.2272
▁mac	-11.2273
zone	-11.2275
▁pg	-11.2277
▁Ste	-11.2278
▁kecederaan	-11.2281
▁Why	-11.2281
▁tulah	-11.2282
▁uwu	-11.2282
bumi	-11.2282
▁chinese	-11.2282
▁tuju	-11.2285
▁tingkah	-11.2286
zul	-11.2287
▁||	-11.2289
▁mengembalikan	-11.229
▁Kebun	-11.229
▁autonomi	-11.2291
▁tisu	-11.2292
▁Cyberjaya	-11.2293
▁013	-11.2296
▁THREAD	-11.2298
▁skit	-11.2299
▁shalat	-11.23
▁peta	-11.23
▁ngopi	-11.2303
AJA	-11.2304
▁membantah	-11.2306
marah	-11.2306
▁dpn	-11.2307
ix	-11.2307
goreng	-11.2308
▁melupakan	-11.2309
▁Informasi	-11.2311
▁beraksi	-11.2312
▁ON	-11.2312
bik	-11.2314
▁fix	-11.2315
▁highway	-11.2316
mbus	-11.2318
▁Semuanya	-11.2318
ges	-11.2319
▁Cream	-11.232
puluh	-11.2322
usa	-11.2323
ped	-11.2323
▁Kantor	-11.2324
ATAN	-11.2325
shirt	-11.2325
▁Kenyataan	-11.2325
▁Cakap	-11.2325
▁Syawal	-11.2327
YAH	-11.2328
▁ditinggalkan	-11.2329
▁kantoi	-11.233
▁menda	-11.233
produk	-11.233
▁penah	-11.2331
▁aroma	-11.2333
▁uia	-11.2335
kut	-11.2335
▁gigit	-11.2335
▁PPBM	-11.2335
aji	-11.2336
▁Bayi	-11.2336
▁against	-11.2337
▁shawl	-11.2338
370	-11.2339
▁Tandas	-11.2342
▁siaran	-11.2342
▁menyakitkan	-11.2343
▁diwujudkan	-11.2345
▁Game	-11.2346
terus	-11.2347
▁bucin	-11.2349
▁peperangan	-11.235
▁rmh	-11.2351
▁kol	-11.2352
▁David	-11.2356
gis	-11.2356
▁Development	-11.2357
TRA	-11.236
lion	-11.236
▁umno	-11.2362
▁kencang	-11.2363
▁basikal	-11.2364
Apa	-11.2364
▁diserahkan	-11.2364
▁Gel	-11.2365
▁keju	-11.2365
▁Aisyah	-11.2365
▁gombak	-11.2366
▁ATAU	-11.2366
▁Besi	-11.2368
▁hy	-11.2369
▁vcs	-11.2371
fm	-11.2376
▁pgn	-11.2377
nc	-11.2378
▁funny	-11.2379
▁official	-11.2379
haha	-11.238
▁jadual	-11.238
▁Memper	-11.2382
cas	-11.2382
▁wall	-11.2383
▁GILA	-11.2383
Lo	-11.2386
▁dibanding	-11.2386
▁ponsel	-11.2386
▁Kera	-11.2388
▁Comel	-11.239
fri	-11.2391
▁William	-11.2393
park	-11.2393
masak	-11.2395
▁Komunis	-11.2399
▁pkai	-11.2399
▁TWITTER	-11.24
▁lepaskan	-11.2401
▁Daun	-11.2402
▁stasiun	-11.2402
▁dimaklumkan	-11.2402
▁Borneo	-11.2404
▁dipa	-11.2405
llow	-11.2405
▁pubg	-11.2406
▁PL	-11.2406
unjuk	-11.2408
▁Saudara	-11.2408
▁Sejuk	-11.241
imbang	-11.2411
▁dalaman	-11.2413
▁anyone	-11.2413
▁berpotensi	-11.2413
wt	-11.2413
▁dialami	-11.2414
▁Setuju	-11.2415
▁port	-11.2415
▁tikus	-11.2416
▁kawal	-11.2416
▁Hebat	-11.2418
2,000	-11.2419
▁Ibnu	-11.2421
idah	-11.2422
▁bersalin	-11.2422
ampang	-11.2426
▁Tam	-11.2427
▁Syria	-11.2429
▁UDAH	-11.243
▁George	-11.2431
gai	-11.2433
nggi	-11.2433
▁diraja	-11.2434
▁Ayat	-11.2437
▁usus	-11.2438
▁Kesan	-11.244
▁igt	-11.2441
eta	-11.2444
▁max	-11.2445
▁silakan	-11.2447
▁Share	-11.2447
▁bat	-11.2448
▁Kesehatan	-11.2449
kad	-11.245
▁PRODUK	-11.2451
tubuh	-11.2451
lima	-11.2453
▁teng	-11.2453
▁guess	-11.2455
▁seimbang	-11.2456
▁relevan	-11.2458
young	-11.2458
▁National	-11.2458
▁Banten	-11.2459
mn	-11.246
▁Ay	-11.246
▁Blue	-11.2461
SN	-11.2461
▁Sesi	-11.2462
▁sobat	-11.2462
▁Taehyung	-11.2463
lapang	-11.2464
amin	-11.2464
▁reaksi	-11.2465
▁Butuh	-11.2466
▁apatah	-11.2468
▁beralih	-11.2472
kena	-11.2473
yra	-11.2474
▁ditanggung	-11.2477
perlu	-11.2478
▁mendalam	-11.248
▁mira	-11.2481
▁Rendang	-11.2482
▁cape	-11.2483
▁gurau	-11.2483
▁poster	-11.2484
▁perkongsian	-11.2485
▁akn	-11.2486
▁mulanya	-11.2487
▁berdarah	-11.2491
serv	-11.2492
▁kandung	-11.2494
▁From	-11.2495
▁ipoh	-11.2495
▁kesabaran	-11.2496
▁JALAN	-11.2497
rl	-11.2499
▁tersebar	-11.2501
▁Harun	-11.2501
▁JDT	-11.2503
▁gereja	-11.2503
hang	-11.2506
▁Zainal	-11.2508
mbung	-11.251
▁Alang	-11.251
▁terperinci	-11.2512
▁syok	-11.2515
▁akta	-11.2515
▁puluhan	-11.2517
ELA	-11.2517
▁menoleh	-11.2519
▁Run	-11.2521
▁follback	-11.2521
TOP	-11.2522
▁Geng	-11.2524
▁warisan	-11.2525
▁peran	-11.2526
Go	-11.2526
▁fu	-11.2527
▁Ap	-11.2528
▁kode	-11.253
▁pemulihan	-11.2532
▁Perusahaan	-11.2532
gulung	-11.2535
jauh	-11.2537
lahan	-11.2537
hong	-11.2539
▁roda	-11.254
▁cium	-11.254
▁Bun	-11.2541
rab	-11.2542
SL	-11.2544
▁bnyak	-11.2546
lawat	-11.2547
▁Sampe	-11.2548
PAT	-11.2548
▁isterinya	-11.2548
▁0852	-11.2549
NU	-11.2549
case	-11.255
▁cut	-11.2552
▁Sur	-11.2555
▁TERUS	-11.2557
boo	-11.2557
kiri	-11.2558
▁bercampur	-11.2558
vie	-11.2559
agak	-11.2559
yat	-11.2561
▁rahmat	-11.2561
▁Kurung	-11.2563
▁gempa	-11.2563
▁konsumsi	-11.2563
▁giler	-11.2566
▁95	-11.2569
fur	-11.257
▁penyertaan	-11.2571
▁mekanisme	-11.2571
▁teknikal	-11.2572
▁penelitian	-11.2573
▁Dress	-11.2573
syari	-11.2575
hwa	-11.2579
▁Pin	-11.258
▁zip	-11.258
▁Alex	-11.2581
▁iso	-11.2582
▁beranak	-11.2582
▁berlian	-11.2583
▁1994	-11.2584
▁radikal	-11.2585
▁Siasatan	-11.2586
▁city	-11.2591
▁Bulu	-11.2592
▁Lampung	-11.2594
▁larangan	-11.2594
haf	-11.2594
kampung	-11.2596
▁pasien	-11.2598
▁ngeri	-11.2599
▁macamni	-11.2601
ath	-11.2602
▁penyelenggaraan	-11.2602
▁kepikiran	-11.2604
▁berupaya	-11.2604
▁Cup	-11.2605
▁mark	-11.2605
▁pengurus	-11.2605
▁club	-11.2609
▁tingkap	-11.261
udi	-11.2611
▁JPenerangan	-11.2611
▁kejam	-11.2612
▁ditentukan	-11.2613
▁saing	-11.2613
gitu	-11.2614
nto	-11.2616
▁Wira	-11.2618
▁smartphone	-11.2618
takan	-11.2619
▁mengharapkan	-11.2622
▁budi	-11.2623
▁Komuniti	-11.2624
▁merasmikan	-11.2624
▁munisipaliti	-11.2624
▁Soalnya	-11.2624
ngah	-11.2626
▁forum	-11.2626
▁م	-11.2626
FL	-11.2629
▁nyanyian	-11.2629
▁Had	-11.263
▁Bayar	-11.2631
▁Kampus	-11.2631
▁Mie	-11.2631
▁kentang	-11.2632
▁tambang	-11.2632
▁inovasi	-11.2633
▁nyampe	-11.2634
▁mengurus	-11.2635
▁semulajadi	-11.2635
▁green	-11.2635
▁Hat	-11.2635
▁koe	-11.2636
▁mega	-11.2636
▁goblok	-11.2638
▁PERTAMA	-11.2638
NER	-11.2638
▁Fit	-11.264
SEN	-11.2641
eun	-11.2641
▁SMS	-11.2642
▁Pur	-11.2643
▁jomblo	-11.2643
▁Teringat	-11.2645
body	-11.2645
▁mng	-11.2645
▁bera	-11.2646
▁Penuh	-11.2646
▁batal	-11.2646
▁fr	-11.2646
▁Bentuk	-11.2647
mpit	-11.2649
hee	-11.2649
▁ECRL	-11.265
▁protes	-11.265
ramah	-11.2651
▁Luas	-11.2652
▁dipaksa	-11.2653
120	-11.2653
▁Mobile	-11.2655
GE	-11.2656
dil	-11.2656
▁Pakar	-11.2659
▁print	-11.266
▁Duduk	-11.266
awai	-11.2661
▁penulisan	-11.2662
▁Taknak	-11.2662
ANGAN	-11.2662
GM	-11.2662
▁mencabar	-11.2665
▁asalkan	-11.2665
▁manifesto	-11.2668
karya	-11.2669
▁seribu	-11.2669
▁police	-11.2672
▁Ky	-11.2674
api	-11.2674
KET	-11.2674
▁lompat	-11.2679
henti	-11.2682
▁taik	-11.2683
▁Morning	-11.2683
▁ujarnya	-11.2685
▁tuuu	-11.2686
▁sewajarnya	-11.2686
▁Peti	-11.2691
▁brain	-11.2691
▁Serdang	-11.2691
▁Us	-11.2693
▁Acara	-11.2695
pir	-11.2696
▁rahim	-11.27
▁SPR	-11.2702
ox	-11.2702
▁Nusa	-11.2705
▁Rupanya	-11.2706
▁mb	-11.2706
yal	-11.2707
besaran	-11.2709
▁Ash	-11.271
vy	-11.2711
benda	-11.2711
ental	-11.2714
mpat	-11.2714
▁liberal	-11.2718
she	-11.2719
HAH	-11.2721
deg	-11.2722
▁oi	-11.2722
Ia	-11.2723
▁catatan	-11.2724
▁pengu	-11.2726
▁melewati	-11.2728
rif	-11.2728
▁Mene	-11.2729
dian	-11.2731
rent	-11.2731
▁WE	-11.2735
▁Payudara	-11.2737
▁Brown	-11.274
▁bumiputera	-11.274
▁klasik	-11.2741
KB	-11.2741
▁Gabungan	-11.2741
▁Vo	-11.2742
▁pernyataan	-11.2742
UNI	-11.2744
Ge	-11.2744
▁thai	-11.2745
▁Dok	-11.2746
▁Tadika	-11.2746
▁melantik	-11.2748
▁loan	-11.2749
▁dicari	-11.275
▁Virus	-11.275
▁wehh	-11.275
▁kemain	-11.2752
▁gugur	-11.2752
▁serendah	-11.2752
▁TK	-11.2753
▁125	-11.2754
170	-11.2757
▁petunjuk	-11.2757
urai	-11.2759
▁income	-11.276
▁konsultasi	-11.2761
▁coming	-11.2762
▁facebook	-11.2763
▁mencuba	-11.2765
▁segan	-11.2766
▁mengamuk	-11.2768
▁AKAN	-11.2769
dg	-11.2772
▁Api	-11.2773
▁Kamar	-11.2774
fal	-11.2774
7%	-11.2775
▁Band	-11.2777
▁rp	-11.2779
▁sikat	-11.2779
▁Madu	-11.2779
▁spread	-11.2782
▁citer	-11.2786
▁lt	-11.2786
▁Lip	-11.2789
▁laper	-11.2792
suke	-11.2793
▁Anis	-11.2794
▁Tre	-11.2794
▁shu	-11.2797
sto	-11.28
▁JOM	-11.2801
sayang	-11.2803
▁Bah	-11.2804
▁berpisah	-11.2805
trol	-11.2808
psi	-11.2808
▁Galaxy	-11.2809
▁gantung	-11.281
▁jersi	-11.2811
kecil	-11.2812
ف	-11.2814
▁Termasuk	-11.2815
▁bakso	-11.2816
▁kit	-11.2816
▁else	-11.2819
▁Haaa	-11.2824
ggg	-11.2824
▁lgsg	-11.2832
▁cukur	-11.2832
▁pijak	-11.2832
ALA	-11.2833
▁Haute	-11.2833
▁bacot	-11.2835
▁students	-11.2835
▁karoke	-11.2838
sub	-11.284
▁staf	-11.2843
▁Revolusi	-11.2843
▁PERHATIAN	-11.2847
▁Dong	-11.2847
▁kabur	-11.2848
temp	-11.2851
▁Bukannya	-11.2852
isa	-11.2853
▁kebudayaan	-11.2854
▁celcom	-11.2856
TB	-11.2858
▁menjatuhkan	-11.2858
you	-11.2859
▁internasional	-11.2862
▁yi	-11.2862
▁menyanyi	-11.2864
▁Bidang	-11.2866
▁licin	-11.2866
▁snack	-11.2868
▁berturut	-11.2868
▁sian	-11.2871
TION	-11.2871
▁spa	-11.2872
▁Kas	-11.2872
▁diperbuat	-11.2875
ucap	-11.2876
▁Rama	-11.2877
▁jan	-11.2877
▁english	-11.2879
NS	-11.2879
▁Polres	-11.288
▁minister	-11.288
▁III	-11.2884
Ko	-11.2884
▁Pizza	-11.2885
▁Yassin	-11.2886
▁kp	-11.2887
▁kehabisan	-11.2888
hadi	-11.289
Jika	-11.2894
vic	-11.2896
▁Duh	-11.2896
GAR	-11.2898
tn	-11.2898
▁Haah	-11.2899
ADI	-11.2902
bantu	-11.2904
▁Reply	-11.2905
▁BU	-11.2906
▁ketakutan	-11.2907
bunga	-11.2908
▁dianjurkan	-11.2909
▁melu	-11.291
▁Pemain	-11.2914
▁menghina	-11.2914
▁dikemukakan	-11.2915
▁sebaiknya	-11.2917
olo	-11.2918
▁penipuan	-11.2919
▁110	-11.2919
▁tnya	-11.2919
▁menawan	-11.2922
DM	-11.2925
▁ramah	-11.2925
▁pameran	-11.2927
▁Tour	-11.2928
▁might	-11.2928
▁Gunakan	-11.293
ukan	-11.2931
tom	-11.2933
▁mang	-11.2935
hijab	-11.2936
▁umi	-11.2939
▁myself	-11.294
Mak	-11.294
▁komp	-11.294
▁kontraktor	-11.2942
▁bara	-11.2943
▁Johan	-11.2944
▁sister	-11.2944
cerita	-11.2945
▁penghuni	-11.2945
▁sedara	-11.2945
LAK	-11.2946
▁warganegara	-11.2947
▁karet	-11.2947
▁wifi	-11.295
wen	-11.295
▁sell	-11.2951
▁taun	-11.2951
▁Habib	-11.2951
hair	-11.2952
▁kabinet	-11.2953
aj	-11.2954
ata	-11.2954
▁kalori	-11.2955
▁YouTube	-11.2956
▁Tua	-11.2958
▁Dada	-11.2959
▁kerosakan	-11.296
▁weyh	-11.2961
▁bae	-11.2961
▁SAMPAI	-11.2962
▁pertempuran	-11.2966
▁600	-11.2969
reg	-11.297
▁niii	-11.2973
▁cerdas	-11.2974
campur	-11.2977
▁Demo	-11.2977
▁bersa	-11.2977
▁Penggunaan	-11.2978
▁Nomor	-11.2979
▁demand	-11.298
▁menjerit	-11.298
▁pasca	-11.2985
▁benih	-11.2986
▁terputus	-11.2987
▁tabah	-11.2987
▁panggung	-11.299
▁Paris	-11.299
▁Abg	-11.2992
▁Mel	-11.2992
Ya	-11.2993
▁profile	-11.2994
▁basic	-11.2996
▁perbedaan	-11.2996
Gu	-11.3001
▁Hungary	-11.3002
▁Laluan	-11.3005
▁CEO	-11.3005
▁kandar	-11.3006
NP	-11.3006
▁Sta	-11.3007
OF	-11.3007
met	-11.3008
▁suay	-11.301
▁kebencian	-11.301
▁ABDUL	-11.3012
▁mencecah	-11.3012
▁Maybe	-11.3013
LING	-11.3015
▁bersamaan	-11.3016
▁English	-11.3018
▁masanya	-11.3018
▁PENG	-11.3019
▁landasan	-11.3021
▁note	-11.3022
▁pondok	-11.3023
▁peka	-11.3024
▁Bapa	-11.3025
masuk	-11.3026
▁stalk	-11.3028
undur	-11.3033
▁LAH	-11.3033
▁PERCUMA	-11.3035
▁cleanser	-11.3035
▁OKU	-11.3035
▁mer	-11.3036
▁till	-11.3037
▁nakal	-11.3039
▁SUKA	-11.3039
has	-11.304
▁membiarkan	-11.304
ASA	-11.3041
los	-11.3041
▁Bandaraya	-11.3042
▁menjaringkan	-11.3042
tech	-11.3042
▁leader	-11.3044
▁Kay	-11.3046
KM	-11.3047
ica	-11.3049
▁IS	-11.305
Kalau	-11.3051
Jadi	-11.3053
▁saldo	-11.3054
▁Bersih	-11.3054
rad	-11.3056
▁duh	-11.3057
▁Budi	-11.3057
▁pindaan	-11.306
▁bermasalah	-11.3061
▁insentif	-11.3061
▁maksimum	-11.3061
▁persetujuan	-11.3063
▁SEBELUM	-11.3067
▁Memba	-11.3068
▁Tiket	-11.3075
▁clean	-11.3076
nut	-11.3076
▁saatnya	-11.3076
Unit	-11.3078
mpo	-11.3079
▁Huawei	-11.3079
▁kesedihan	-11.3079
▁Andai	-11.308
▁berebut	-11.308
▁Pengalaman	-11.3083
▁booking	-11.3083
▁Terlalu	-11.3083
▁raga	-11.3086
▁Fakta	-11.3087
ntah	-11.3087
▁upacara	-11.3088
▁together	-11.3088
▁Water	-11.3088
▁Pesta	-11.309
▁Sejadah	-11.309
▁sepeda	-11.3092
▁Tulis	-11.3092
▁berenang	-11.3093
▁hbis	-11.3094
▁Qur	-11.3095
well	-11.3096
▁West	-11.3096
▁penuaan	-11.3096
viral	-11.3097
▁Tutup	-11.3097
▁Qi	-11.3098
▁accident	-11.3098
▁BEST	-11.3099
▁isyarat	-11.31
▁using	-11.3101
▁Art	-11.3101
▁Road	-11.3102
PRU	-11.3102
PB	-11.3103
itan	-11.3104
▁kelima	-11.3107
dem	-11.3107
wer	-11.3108
lent	-11.3111
▁They	-11.3114
▁Tawar	-11.3114
▁temui	-11.3116
▁hahahahah	-11.3116
▁Bakal	-11.3117
▁guling	-11.3117
▁diorder	-11.3119
▁ingatan	-11.3119
▁Ehh	-11.312
▁Gal	-11.312
▁beratur	-11.312
kalau	-11.312
▁Knp	-11.3121
▁agent	-11.3122
ene	-11.3124
▁Batin	-11.3127
sungguh	-11.3128
iye	-11.313
▁cake	-11.3131
▁mustahil	-11.3131
▁formal	-11.3131
▁Asy	-11.3131
▁Bupati	-11.3133
▁Kebudayaan	-11.3135
▁Tentang	-11.3135
cit	-11.3138
▁sex	-11.3138
▁simbol	-11.314
▁Chelsea	-11.3144
▁Milo	-11.3146
▁direka	-11.3146
fen	-11.3146
budak	-11.3147
▁membuatku	-11.3147
hel	-11.3149
▁iHeartAwards	-11.315
▁KERJA	-11.315
о	-11.315
▁tele	-11.3151
▁Kegiatan	-11.3152
5%;	-11.3155
▁Ayuh	-11.3155
reh	-11.3158
baya	-11.3159
▁dibakar	-11.3159
▁Pang	-11.3159
▁Pandan	-11.3159
▁kill	-11.316
laksana	-11.3161
4%	-11.3164
▁Wu	-11.3164
▁Rad	-11.3164
▁dirancang	-11.3164
▁Ngga	-11.3164
▁bujang	-11.3164
WO	-11.3166
▁bandara	-11.3167
ical	-11.3171
bay	-11.3171
▁especially	-11.3171
dj	-11.3173
▁Tapak	-11.3173
ass	-11.3174
▁kagak	-11.318
cai	-11.3181
▁KPM	-11.3181
rti	-11.3181
▁disimpan	-11.3185
▁Pondok	-11.3185
vers	-11.3186
▁lembar	-11.3187
▁Jimin	-11.3188
YU	-11.3189
soal	-11.319
▁ptg	-11.3191
▁kor	-11.3194
▁malaikat	-11.3195
lf	-11.3195
▁pegangan	-11.3197
▁king	-11.3197
▁gigih	-11.3199
▁COVID	-11.3199
▁tempe	-11.3199
larang	-11.3201
▁Serum	-11.3203
▁taktahu	-11.3203
▁menja	-11.3204
▁peringatan	-11.3205
▁relax	-11.3205
▁HAHA	-11.3205
▁finish	-11.3205
с	-11.3205
dri	-11.3206
SIK	-11.3209
▁Hendak	-11.321
▁After	-11.3211
▁64	-11.3211
▁stuff	-11.3213
iring	-11.3213
▁Pahat	-11.3213
seri	-11.3214
▁murni	-11.3215
▁Maria	-11.3215
▁keluasan	-11.3216
▁cotton	-11.3218
▁tante	-11.3219
rina	-11.322
▁terluka	-11.3224
JKT	-11.3224
ncing	-11.3227
ddy	-11.3228
▁pener	-11.3232
▁TERBAIK	-11.3234
▁POSTAGE	-11.3236
tuan	-11.3236
▁erti	-11.3237
▁Stock	-11.3238
order	-11.3238
Mi	-11.3239
▁IT	-11.3239
▁Maszlee	-11.324
▁perkampungan	-11.3242
ND	-11.3242
▁PARLIMEN	-11.3244
CP	-11.3245
AWA	-11.3248
cell	-11.3249
▁Kitab	-11.3249
▁Law	-11.3249
▁sesat	-11.3251
▁act	-11.3252
▁Lebar	-11.3254
▁SUPER	-11.3254
▁Diam	-11.3255
▁dibunuh	-11.3255
▁Suatu	-11.3255
▁NEW	-11.3256
ric	-11.3258
Sport	-11.3259
▁sawah	-11.326
▁Niat	-11.3261
▁Robert	-11.3262
▁Mena	-11.3263
▁1970	-11.3267
▁seksyen	-11.3268
▁0878	-11.327
▁kabupaten	-11.3271
var	-11.3273
▁Lemak	-11.3273
▁others	-11.3274
minggu	-11.3275
kelas	-11.3276
dakwa	-11.3276
hahaha	-11.3276
▁TAHUN	-11.3277
ging	-11.3277
hehehehe	-11.3277
print	-11.3278
▁include	-11.3281
▁mek	-11.3282
▁Asam	-11.3282
127	-11.3282
▁AND	-11.3285
▁keuangan	-11.3285
▁Station	-11.3287
▁past	-11.3288
iman	-11.3289
▁Kelab	-11.3289
mpe	-11.329
halang	-11.3292
▁Hafiz	-11.3294
▁dolar	-11.3299
geng	-11.33
YO	-11.3301
▁anime	-11.3302
Ri	-11.3303
▁trending	-11.3304
▁looks	-11.3304
▁Kemarin	-11.3305
▁alaihi	-11.3306
▁ASLI	-11.3308
▁search	-11.3309
▁HD	-11.3309
▁Perbadanan	-11.331
▁Mang	-11.3311
▁NGE	-11.3312
▁dijumpai	-11.3312
▁Woo	-11.3313
▁Zakir	-11.3315
▁sosiologi	-11.3316
IKAN	-11.3317
▁mikirin	-11.332
▁identiti	-11.3321
▁Price	-11.3321
▁suaranya	-11.3324
hay	-11.3325
▁kontroversi	-11.3326
▁dianggarkan	-11.3326
▁Simpan	-11.3327
▁padat	-11.3328
▁56	-11.3328
▁persepsi	-11.333
▁tertera	-11.333
▁2017,	-11.3331
▁exp	-11.3334
▁exo	-11.3335
▁dalem	-11.3336
▁action	-11.3336
card	-11.3337
▁helai	-11.3338
bakar	-11.3338
▁blg	-11.3339
▁seger	-11.334
cro	-11.334
▁BATU	-11.3341
▁mengesan	-11.3342
▁aing	-11.3343
indah	-11.3343
▁Jati	-11.3345
lli	-11.3345
▁kopiah	-11.3345
▁angkatan	-11.3346
▁baja	-11.3346
▁Terdahulu	-11.3349
putih	-11.3351
▁pengembangan	-11.3352
▁ceria	-11.3353
▁having	-11.3362
cukup	-11.3362
▁merayu	-11.3364
▁Join	-11.3365
ntik	-11.3367
▁Villa	-11.337
▁UP	-11.337
kemas	-11.337
▁lai	-11.337
▁idola	-11.3371
▁Adu	-11.3375
▁elak	-11.3376
▁180	-11.3378
▁struggle	-11.3379
mbing	-11.338
WE	-11.3382
▁testimoni	-11.3382
zir	-11.3383
▁Land	-11.3384
HH	-11.3386
UD	-11.3387
RES	-11.3387
▁learn	-11.3389
▁penca	-11.339
ile	-11.339
▁Mengikut	-11.339
WAR	-11.3392
alis	-11.3395
▁paiseh	-11.3395
▁meneliti	-11.3397
▁belakangan	-11.3398
TOK	-11.3399
▁Pilpres	-11.3402
▁Thai	-11.3402
▁ngi	-11.3403
▁Tanggal	-11.3405
Vi	-11.3405
▁Lang	-11.3406
▁Coklat	-11.3407
ikal	-11.3407
▁North	-11.3409
999	-11.341
▁2016,	-11.3411
AKAN	-11.3412
▁ALAN	-11.3414
▁Retweet	-11.3414
ganti	-11.3415
▁Kam	-11.3416
▁Hani	-11.3418
OB	-11.3419
▁++	-11.3424
105	-11.3424
▁Pink	-11.3425
▁Cur	-11.3426
▁melanda	-11.3427
pikir	-11.3427
▁Hol	-11.3427
nic	-11.3428
▁tumpang	-11.3429
MR	-11.3429
▁ser	-11.3429
▁Selat	-11.3429
▁balai	-11.3432
▁Tugas	-11.3433
KAL	-11.3433
masi	-11.3434
▁dijaga	-11.3434
▁dituduh	-11.3435
▁tekak	-11.3435
▁Penge	-11.3438
▁Pulang	-11.3439
temu	-11.3441
unik	-11.3441
▁iku	-11.3441
▁Datin	-11.3443
▁decide	-11.3443
gut	-11.3444
▁fasilitas	-11.3445
▁Song	-11.3446
tp	-11.3447
▁disiplin	-11.3449
▁mengundang	-11.3449
▁ntah	-11.345
▁Sea	-11.3452
▁KOK	-11.3453
tafsir	-11.3454
▁terjatuh	-11.3455
lun	-11.3455
▁tunduk	-11.3456
▁Tubuh	-11.3457
stik	-11.3457
▁elaun	-11.3458
ihan	-11.3458
pie	-11.346
▁due	-11.346
bungkus	-11.3461
▁wash	-11.3461
▁101	-11.3463
▁handle	-11.3464
▁pang	-11.3464
▁Perubahan	-11.3465
keh	-11.3467
cipta	-11.3471
▁Cukai	-11.3474
harga	-11.3474
city	-11.3474
▁Biru	-11.3474
STI	-11.3475
▁kee	-11.3478
ili	-11.3479
▁jati	-11.3481
▁seen	-11.3482
▁Jak	-11.3483
▁KULIT	-11.3483
ALI	-11.3483
Syiah	-11.3484
▁Rak	-11.3485
DC	-11.3485
zali	-11.3486
▁SRI	-11.3486
▁jendela	-11.3487
▁bon	-11.3487
BD	-11.3488
▁Zip	-11.349
▁BANK	-11.349
▁Walk	-11.3491
jib	-11.3491
▁kewujudan	-11.3491
▁asked	-11.3491
▁sho	-11.3492
MBA	-11.3497
▁keindahan	-11.3497
▁dikendalikan	-11.3499
▁mal	-11.35
▁takdak	-11.3502
▁getting	-11.3503
▁early	-11.3504
ة	-11.3504
▁ato	-11.3506
▁ahad	-11.3506
▁BR	-11.3506
ground	-11.3507
wani	-11.3507
sudah	-11.3508
kawasan	-11.3509
jae	-11.351
▁fat	-11.3511
▁scrub	-11.3511
bud	-11.3514
ITE	-11.3515
▁Pemba	-11.3515
medan	-11.3516
tuhan	-11.3519
▁bersabda	-11.3519
▁nipis	-11.352
rip	-11.3521
pers	-11.3522
▁Bernama	-11.3522
▁sofa	-11.3523
▁baper	-11.3525
TY	-11.3528
▁push	-11.3531
▁berniaga	-11.3532
▁apps	-11.3533
▁jumat	-11.3535
▁beautiful	-11.3535
▁lena	-11.3536
▁baka	-11.3536
Tak	-11.3538
▁menyedari	-11.3538
▁beres	-11.3538
▁kemunculan	-11.3539
▁Hay	-11.3539
▁daddy	-11.354
▁hantaran	-11.3541
▁Penduduk	-11.3542
jil	-11.3543
▁CANTIK	-11.3545
▁Muzium	-11.3545
girl	-11.3547
▁membahas	-11.3547
▁craving	-11.3547
▁ending	-11.3548
▁LIVE	-11.3549
▁Menge	-11.3551
▁Sebaliknya	-11.3551
▁hawa	-11.3552
qq	-11.3553
▁DAPAT	-11.3553
▁keluaran	-11.3555
▁lee	-11.3555
▁semakan	-11.3556
jir	-11.3558
▁zahir	-11.356
▁mei	-11.356
▁Selagi	-11.3561
▁Pelancongan	-11.3561
▁Utusan	-11.3561
▁pojok	-11.3566
▁kantong	-11.3567
▁effect	-11.3569
▁judge	-11.357
uru	-11.357
▁telor	-11.357
▁Ingatkan	-11.357
▁portal	-11.3571
beng	-11.3573
stor	-11.3574
▁ay	-11.3576
199	-11.3576
▁Sobat	-11.3577
beda	-11.358
▁hormon	-11.3581
▁au	-11.3581
gum	-11.3583
▁tercinta	-11.3583
▁peri	-11.3584
loss	-11.3586
▁ajaa	-11.3587
UA	-11.3589
ition	-11.359
▁garang	-11.3591
hem	-11.3591
▁maghrib	-11.3592
▁1993	-11.3592
sembunyi	-11.3593
▁Shin	-11.3594
▁psikologi	-11.3596
▁Bawah	-11.3596
hitam	-11.3597
▁dikawal	-11.3599
▁multi	-11.3599
▁jaya	-11.3601
home	-11.3602
▁BAIK	-11.3602
fin	-11.3602
▁mestilah	-11.3602
▁tenggelam	-11.3603
▁Belanja	-11.3605
▁tida	-11.3606
▁Peraturan	-11.3606
pho	-11.3606
▁Ramli	-11.3606
minimalis	-11.3607
JE	-11.3607
▁ditunggu	-11.3607
▁membesar	-11.3608
▁gemok	-11.3608
ngi	-11.3609
▁mur	-11.3609
shah	-11.361
▁Sweet	-11.3612
▁kuala	-11.3614
pop	-11.3614
▁penya	-11.3614
▁matter	-11.3614
▁gik	-11.3615
rga	-11.3616
6%	-11.3618
▁pdhl	-11.3618
gian	-11.3619
▁gel	-11.3622
sut	-11.3624
▁iktibar	-11.3624
▁fenomena	-11.3626
MAL	-11.3626
store	-11.3627
DP	-11.3628
cher	-11.3628
▁aiskrim	-11.3628
▁jago	-11.3629
▁sela	-11.363
▁panel	-11.3632
▁sms	-11.3638
▁menanggung	-11.3639
gran	-11.3639
▁PUNYA	-11.364
▁kaka	-11.364
▁kado	-11.3641
▁cem	-11.3641
▁bokep	-11.3642
▁Mahmud	-11.3644
ough	-11.3646
some	-11.3646
eks	-11.3646
HAM	-11.3647
▁Tea	-11.3647
▁jutaan	-11.3647
▁op	-11.3647
▁Kara	-11.3648
▁menyusahkan	-11.3649
▁rem	-11.3649
▁Perubatan	-11.3649
▁Soviet	-11.3651
avi	-11.3652
JAK	-11.3652
▁SH	-11.3654
▁disiasat	-11.3655
▁Gelar	-11.3655
▁digantikan	-11.3655
▁famous	-11.3656
dasar	-11.3656
▁automatik	-11.3657
▁sticker	-11.3659
▁Seru	-11.3659
▁terharu	-11.366
uar	-11.3661
▁goyang	-11.3664
bangsa	-11.3666
▁memelihara	-11.3669
▁Tokyo	-11.367
▁keping	-11.367
▁Olahraga	-11.3673
▁instead	-11.3673
▁neh	-11.3676
▁XXL	-11.3676
▁hemat	-11.3676
▁statistik	-11.3677
sho	-11.3677
▁merusak	-11.3677
▁Liat	-11.368
▁Pancasila	-11.368
▁sales	-11.368
bangun	-11.3681
ulu	-11.3682
▁Apapun	-11.3683
▁korporat	-11.3683
ev	-11.3683
▁Misi	-11.3685
▁mendirikan	-11.3687
▁Peter	-11.3687
arang	-11.3687
▁gelombang	-11.3688
ain	-11.3689
dium	-11.3691
▁Ohh	-11.3691
ph	-11.3695
TC	-11.3695
▁COM	-11.3695
▁mendidik	-11.3696
bert	-11.3696
▁Ais	-11.3698
fak	-11.3699
▁fe	-11.3701
450	-11.3701
▁gym	-11.3701
▁DULU	-11.3703
▁Ven	-11.3704
tive	-11.3705
tation	-11.3705
▁pesta	-11.3705
bahagian	-11.3708
▁ide	-11.371
▁Daya	-11.3712
Kanak	-11.3712
▁Hallo	-11.3713
▁Hana	-11.3715
[	-11.3716
▁Adib	-11.3717
▁dihadiri	-11.3718
▁amaran	-11.372
▁mk	-11.372
▁track	-11.372
▁dinilai	-11.3721
tttt	-11.3722
▁Pertanyaan	-11.3726
▁blah	-11.3727
▁ucapkan	-11.3728
▁140	-11.3729
▁ketuk	-11.3729
▁sempit	-11.373
hasil	-11.373
ambang	-11.373
TAM	-11.3732
▁Yakin	-11.3737
▁Rose	-11.374
▁54	-11.3741
gem	-11.3742
▁App	-11.3742
▁1992	-11.3743
GAN	-11.3744
contoh	-11.3746
▁Hor	-11.3747
gs	-11.3747
▁Nam	-11.3748
ching	-11.3748
▁XS	-11.3749
nen	-11.375
▁Mary	-11.3751
▁Sambal	-11.3752
▁bersara	-11.3753
▁Ciri	-11.3753
▁lapor	-11.3753
▁Sedikit	-11.3754
▁ac	-11.3754
▁kantin	-11.3756
▁jadwal	-11.3757
sau	-11.3758
▁komunitas	-11.376
lupa	-11.3761
BEL	-11.3762
▁eye	-11.3763
▁persidangan	-11.3765
▁Din	-11.3767
▁Rus	-11.3772
PIN	-11.3772
▁Hubungan	-11.3774
▁Moh	-11.3775
▁Taiping	-11.3776
▁Pemenang	-11.3778
bala	-11.3779
▁peme	-11.378
▁Laki	-11.378
▁Osman	-11.378
sos	-11.3781
▁cetak	-11.3783
▁eyes	-11.3786
yon	-11.3786
▁bekasi	-11.3788
▁Fungsi	-11.3789
Aja	-11.3789
▁trying	-11.379
▁gmbr	-11.3792
▁Ulang	-11.3792
▁kepemimpinan	-11.3792
▁gosok	-11.3796
▁pemaju	-11.3796
▁Pls	-11.3801
▁Bandara	-11.3801
▁store	-11.3803
▁worth	-11.3804
▁Rohingya	-11.3804
tiap	-11.3805
▁FOR	-11.3805
▁erat	-11.3805
▁PD	-11.3808
▁Sebelah	-11.3808
▁Empayar	-11.3809
▁rupiah	-11.3809
▁bende	-11.381
▁latitude	-11.3812
▁perwakilan	-11.3813
▁putri	-11.3813
▁bercadang	-11.3814
▁fee	-11.3815
rp	-11.3815
▁dinaikkan	-11.3817
▁Harry	-11.3817
▁Boy	-11.3818
▁door	-11.3822
▁bln	-11.3822
▁Perniagaan	-11.3823
▁kekerasan	-11.3825
▁Formula	-11.3827
tos	-11.3827
pihak	-11.3827
▁attack	-11.3828
▁Peluang	-11.3829
▁kebanyakannya	-11.3829
▁tubuhnya	-11.383
ulasi	-11.383
▁Non	-11.3833
▁Harta	-11.3833
▁terjangkau	-11.3833
▁melayan	-11.3834
▁barai	-11.3837
sch	-11.3841
ford	-11.3844
Dalam	-11.3845
▁based	-11.3845
10,000	-11.3845
▁thinking	-11.3847
▁del	-11.3848
PAS	-11.3848
▁deras	-11.3848
▁menenangkan	-11.385
▁Reformasi	-11.3851
▁LD	-11.3852
ahhh	-11.3854
▁feb	-11.3855
▁With	-11.3858
▁merdeka	-11.3859
ole	-11.3861
▁blouse	-11.3861
▁santan	-11.3863
▁borneo	-11.3865
deng	-11.3867
▁PROMOSI	-11.3868
dagang	-11.3869
▁James	-11.3871
▁butter	-11.3872
▁setinggi	-11.3875
▁nyi	-11.3877
▁Celana	-11.3878
Rakyat	-11.3878
▁Paduka	-11.388
onal	-11.3882
▁sharing	-11.3883
▁BULAN	-11.3884
▁alarm	-11.3885
▁Promosi	-11.3885
▁Ong	-11.3885
▁Bayan	-11.3885
▁saying	-11.3885
▁Special	-11.3886
leg	-11.3888
nun	-11.3891
▁sekeluarga	-11.3891
▁musnah	-11.3894
bagus	-11.3896
▁mengo	-11.3896
APA	-11.3896
▁terlambat	-11.3899
▁Kualitas	-11.3901
LS	-11.3903
▁upah	-11.3904
uc	-11.3905
▁Apple	-11.3905
▁0896	-11.3906
▁dipindahkan	-11.3906
agi	-11.3907
▁seiring	-11.3907
▁SAHAJA	-11.3908
▁Menggunakan	-11.3909
▁keatas	-11.391
runding	-11.3911
▁Bay	-11.3913
▁Jadual	-11.3915
▁mempelajari	-11.3915
▁sai	-11.3916
▁Reg	-11.3917
▁Marah	-11.3917
TM	-11.3918
▁bgi	-11.392
▁Gar	-11.392
jumbo	-11.392
▁tiang	-11.3921
▁khasiat	-11.3923
▁continue	-11.3925
▁Jeneral	-11.3925
▁menantu	-11.3926
geh	-11.3928
oksida	-11.3931
ator	-11.3934
▁Penerangan	-11.3936
▁pelarian	-11.3938
▁Era	-11.3938
▁Kaum	-11.3939
ayah	-11.3941
▁Pelbagai	-11.3944
▁late	-11.3946
▁bwk	-11.3946
▁terkesan	-11.3946
ingan	-11.3946
▁Taiwan	-11.3949
▁SUDAH	-11.3951
▁gerai	-11.3952
leb	-11.3955
mok	-11.3958
2018	-11.3959
▁prihatin	-11.3959
cir	-11.396
bagai	-11.396
SAH	-11.396
▁dara	-11.3962
▁turunkan	-11.3963
▁Mujahid	-11.3965
▁pelancaran	-11.3965
▁ish	-11.3966
afi	-11.3968
▁melekat	-11.3968
LIN	-11.397
▁galak	-11.3971
cial	-11.3971
ikh	-11.3972
ace	-11.3972
mia	-11.3975
▁Putri	-11.3975
▁melarang	-11.3976
▁Palembang	-11.3978
▁langgor	-11.3978
▁working	-11.3978
▁tulus	-11.3979
oq	-11.3979
▁sunnah	-11.398
▁askar	-11.3982
Do	-11.3982
▁ular	-11.3983
▁Center	-11.3984
▁Honda	-11.3985
▁rumput	-11.3986
edu	-11.3989
▁ingt	-11.399
▁utang	-11.399
▁Switzerland	-11.399
▁Suci	-11.399
▁credit	-11.3991
▁wad	-11.3991
GET	-11.3993
▁tat	-11.3994
▁Hamzah	-11.3997
▁Serikat	-11.3997
cos	-11.3997
▁Music	-11.3998
▁gelang	-11.3999
▁Tur	-11.3999
▁seawal	-11.3999
▁Batam	-11.4001
▁Pet	-11.4001
▁bengkel	-11.4004
▁Fan	-11.4004
aba	-11.4005
▁responden	-11.4005
▁Sukses	-11.4005
▁quality	-11.4006
janji	-11.4006
kang	-11.4006
▁mne	-11.4007
▁Boss	-11.4007
wajah	-11.4007
▁longtitud	-11.4008
▁MENG	-11.4009
▁ikat	-11.401
PL	-11.4013
▁pabrik	-11.4014
▁safe	-11.4014
▁Sing	-11.4016
▁Shari	-11.4019
▁mulakan	-11.4019
stat	-11.4019
enter	-11.4022
vas	-11.4022
▁sepasang	-11.4022
▁Ish	-11.4024
luas	-11.4026
RAH	-11.4027
harap	-11.4028
▁toxic	-11.4028
▁Zai	-11.4031
▁UU	-11.4031
▁kritikal	-11.4031
▁Mom	-11.4034
▁praktikal	-11.4034
▁Laksa	-11.4035
▁PS	-11.4035
kait	-11.4035
▁memperjuangkan	-11.4037
▁mam	-11.4037
▁hero	-11.4038
bt	-11.4038
▁Tae	-11.4039
▁gabut	-11.4041
doh	-11.4042
▁Tra	-11.4042
news	-11.4042
ln	-11.4043
BAL	-11.4045
aziz	-11.4046
ome	-11.4046
▁coz	-11.4048
bentuk	-11.4048
▁Penyelidikan	-11.4049
odo	-11.405
▁Singh	-11.4052
▁Come	-11.4054
▁tmn	-11.4054
▁poslaju	-11.4054
▁Gol	-11.4054
▁Garden	-11.4055
▁jaa	-11.4056
pilih	-11.4057
AC	-11.4059
▁pesat	-11.406
▁kurangkan	-11.4061
▁organik	-11.4061
▁diiktiraf	-11.4063
ngkal	-11.4064
▁membenci	-11.4067
▁gambaran	-11.4067
ions	-11.4068
▁pekat	-11.4068
sukan	-11.4068
cis	-11.4069
kopi	-11.407
▁menyadari	-11.4071
katan	-11.4071
▁kui	-11.4073
▁Mencegah	-11.4074
▁ciptaan	-11.4074
▁piala	-11.4075
▁Gereja	-11.4075
▁Peri	-11.4077
▁bleh	-11.4078
WKWK	-11.4079
▁Sena	-11.408
rh	-11.408
▁sebutan	-11.4081
▁nikmati	-11.4081
▁orangnya	-11.4083
naik	-11.4083
merta	-11.4084
▁curhat	-11.4084
MON	-11.4085
▁Scarynya	-11.4086
SING	-11.4087
▁Ratu	-11.4089
▁wis	-11.4092
▁Koperasi	-11.4092
ilang	-11.4093
Pada	-11.4093
▁release	-11.4094
alik	-11.4094
▁Penasihat	-11.4095
imi	-11.4096
anjing	-11.4097
DAH	-11.4098
▁balasan	-11.4098
vent	-11.41
▁Cendol	-11.4101
▁undangan	-11.4102
hulu	-11.4102
▁kut	-11.4102
▁pretty	-11.4103
osis	-11.4104
▁henti	-11.4105
masalah	-11.4106
▁Keadilan	-11.4106
▁kecemasan	-11.4107
▁praktis	-11.4107
▁samsung	-11.4107
▁pene	-11.411
▁beribu	-11.411
745	-11.4112
▁Percaya	-11.4113
zak	-11.4113
▁PADA	-11.4115
▁trauma	-11.4116
ORI	-11.4116
▁herbal	-11.4117
▁hisap	-11.4118
▁NAMA	-11.4119
beri	-11.4122
opi	-11.4122
▁cen	-11.4123
▁lh	-11.4124
▁diuji	-11.4124
▁hijrah	-11.4125
▁ditarik	-11.4125
ier	-11.4126
▁tega	-11.4126
▁lantas	-11.4127
212	-11.4127
rma	-11.4131
▁mostly	-11.4133
▁diangkat	-11.4136
bam	-11.4138
wee	-11.4143
▁Tha	-11.4144
▁gang	-11.4144
▁sarang	-11.4145
▁penambahbaikan	-11.4145
▁penghantaran	-11.4145
sty	-11.4146
▁kabel	-11.4146
▁accept	-11.4148
isha	-11.4148
▁jeans	-11.4148
▁aiyo	-11.4149
▁Ijazah	-11.415
а	-11.415
▁colour	-11.415
fiq	-11.4151
▁Wisma	-11.4152
hut	-11.4152
▁melampau	-11.4154
asih	-11.4154
oe	-11.4154
▁tersayang	-11.4154
▁diter	-11.4155
▁sudu	-11.4155
▁bedak	-11.4158
rid	-11.416
wit	-11.4161
▁BODOH	-11.4162
bad	-11.4163
av	-11.4166
▁sejahtera	-11.4166
▁Alias	-11.4168
▁teka	-11.4168
▁2015,	-11.4169
▁NKRI	-11.4171
▁rejeki	-11.4171
▁Body	-11.4171
▁bed	-11.4174
▁Masker	-11.4177
▁Kadar	-11.418
▁Serious	-11.4181
▁Cr	-11.4181
tet	-11.4182
▁Gojek	-11.4182
ware	-11.4185
%	-11.4186
▁Olimpik	-11.4186
▁58	-11.4187
▁1,000	-11.4188
ATE	-11.4188
▁nyu	-11.419
teria	-11.419
▁Undi	-11.419
▁Cal	-11.4191
▁minda	-11.4191
▁terancam	-11.4195
▁Bon	-11.4196
bing	-11.4196
▁Kasian	-11.4198
yh	-11.42
▁series	-11.4202
▁kera	-11.4202
enteng	-11.4203
Is	-11.4204
nusantara	-11.4205
▁terminal	-11.4205
boh	-11.4206
▁Rasul	-11.4206
▁Sale	-11.4207
▁1960	-11.4209
ere	-11.4211
▁bantuin	-11.4212
sua	-11.4213
vert	-11.4214
▁renang	-11.4215
▁PJ	-11.4217
▁mendesak	-11.4217
▁ortu	-11.4217
▁nyamuk	-11.4219
▁lemon	-11.4221
lusi	-11.4221
▁fall	-11.4227
▁Win	-11.4228
▁Minuman	-11.4229
▁pedalaman	-11.4229
▁menanam	-11.423
AME	-11.4231
▁Daging	-11.4231
▁Tangga	-11.4232
▁AK	-11.4234
wangi	-11.4234
▁Thomas	-11.4236
▁Duta	-11.4237
▁surprise	-11.4238
▁Fokus	-11.4238
▁Status	-11.4238
▁Rang	-11.4241
SY	-11.4242
▁Disini	-11.4244
alah	-11.4244
▁berdosa	-11.4245
langka	-11.4246
bayang	-11.4249
▁berpuas	-11.425
Dia	-11.425
KLIA	-11.4252
dara	-11.4253
▁penghujung	-11.4255
MK	-11.4256
taro	-11.4257
▁Ul	-11.4257
▁Tanda	-11.4259
nyaaaa	-11.4262
gging	-11.4268
▁huh	-11.4269
▁Maya	-11.4271
AWAL	-11.4274
▁sugar	-11.4276
rey	-11.4276
grafi	-11.4276
nation	-11.4276
ESS	-11.4276
aktif	-11.4277
▁Idul	-11.428
▁deposit	-11.428
▁Sulaiman	-11.4283
▁Via	-11.4284
▁Dukung	-11.4284
▁KAR	-11.4285
SIN	-11.4285
▁focus	-11.4286
▁TPS	-11.4287
rail	-11.4288
▁USD	-11.4288
▁health	-11.429
▁Col	-11.4292
▁picture	-11.4294
▁Persidangan	-11.4296
jas	-11.4298
▁sememangnya	-11.4298
▁million	-11.4298
ngkung	-11.4299
▁function	-11.4301
▁mrk	-11.4302
mie	-11.4303
pisah	-11.4303
▁meluluskan	-11.4303
TIK	-11.4303
▁PEM	-11.4304
▁Mele	-11.4304
ngg	-11.4306
ayam	-11.4306
▁Ust	-11.4307
tup	-11.4308
ULA	-11.4308
▁Yaa	-11.4309
▁beliin	-11.431
ANTI	-11.4311
▁pakatan	-11.4312
▁Mencari	-11.4313
▁dapetin	-11.4314
▁pedih	-11.4315
▁sentimen	-11.4316
kilo	-11.4317
▁terkadang	-11.4318
▁korupsi	-11.4318
▁hey	-11.432
GK	-11.432
▁beracun	-11.432
▁perihal	-11.4321
▁mahukan	-11.4321
▁zat	-11.4321
▁present	-11.4322
▁jangkitan	-11.4322
ash	-11.4323
karan	-11.4323
▁hafal	-11.4323
▁menjana	-11.4326
▁periode	-11.4326
▁Rules	-11.4327
▁LINK	-11.4328
▁consider	-11.433
▁memasukkan	-11.4331
▁Keterangan	-11.4331
uf	-11.4332
rol	-11.4333
Rp	-11.4334
gila	-11.4336
awang	-11.4337
▁MIC	-11.4338
▁Mega	-11.4341
▁Max	-11.4342
NGGA	-11.4344
▁billion	-11.4344
▁lembab	-11.4344
▁52	-11.4345
▁sambut	-11.4346
▁setidaknya	-11.4346
hoo	-11.4347
lokasi	-11.4351
▁Radio	-11.4352
▁BANDAR	-11.4353
▁Oil	-11.4353
elok	-11.4354
▁Isa	-11.4354
▁Fast	-11.4355
tot	-11.4355
▁Engineer	-11.4357
▁tertakluk	-11.4357
▁MELAYU	-11.4357
hahahahha	-11.4357
▁Bermula	-11.4358
▁Maksudnya	-11.4359
▁falsafah	-11.4359
▁analisis	-11.4362
▁toh	-11.4362
▁Bosan	-11.4365
▁kalu	-11.4367
promo	-11.4369
firm	-11.437
▁menca	-11.4372
sahkan	-11.4372
▁Mintak	-11.4373
CL	-11.4375
▁serentak	-11.4377
▁paru	-11.4378
AAN	-11.438
▁Ucap	-11.4381
▁PAKAI	-11.4382
▁ISLAM	-11.4384
▁pk	-11.4384
▁bubar	-11.4385
▁HAHAHAHAHA	-11.4385
▁complain	-11.4386
zon	-11.4388
CAR	-11.4389
▁bossku	-11.4391
▁Buang	-11.4391
▁az	-11.4394
▁konsert	-11.4394
▁Toyota	-11.4394
▁mrt	-11.4396
▁denggi	-11.4399
3%	-11.44
▁Dus	-11.44
polis	-11.4403
▁BRI	-11.4403
▁berdikari	-11.4403
fatihah	-11.4404
1%	-11.4405
▁narkoba	-11.4405
▁pol	-11.4406
▁Start	-11.4407
▁apo	-11.4408
▁Tema	-11.441
▁planet	-11.441
rk	-11.4412
▁ayu	-11.4413
▁flash	-11.4413
▁Baba	-11.4415
geser	-11.4416
▁kepadanya	-11.4417
▁piring	-11.4417
▁pengganas	-11.4419
umi	-11.4419
▁bri	-11.442
GP	-11.4421
▁glowing	-11.4421
▁dadi	-11.4422
▁pengikut	-11.4422
▁Syiah	-11.4424
▁Sambutan	-11.4425
ema	-11.4428
ambil	-11.4429
▁channel	-11.443
▁Kari	-11.443
▁takziah	-11.4432
program	-11.4432
▁pam	-11.4433
rea	-11.4434
▁eksklusif	-11.4434
tz	-11.4436
▁Lengan	-11.4437
▁gem	-11.4437
▁Rok	-11.4438
alukan	-11.4438
sup	-11.4438
▁station	-11.4438
him	-11.4438
▁cheap	-11.4442
▁standar	-11.4445
sui	-11.4447
▁halo	-11.4449
▁Tata	-11.445
▁mine	-11.445
▁adu	-11.4455
▁Latitud	-11.4456
110	-11.4456
▁panda	-11.4458
▁bimbingan	-11.446
▁Tom	-11.4461
▁Konsep	-11.4461
▁Out	-11.4462
▁Pariwisata	-11.4463
▁betina	-11.4464
▁Federal	-11.4469
▁kemasan	-11.4469
▁perlumbaan	-11.4469
KATA	-11.447
▁penyebaran	-11.4472
With	-11.4473
▁BANTU	-11.4473
MIS	-11.4473
▁\	-11.4474
lanjut	-11.4475
▁skip	-11.4475
▁REP	-11.4475
▁menyiasat	-11.4476
▁batam	-11.4477
▁Aksi	-11.4478
▁materi	-11.4479
▁blog	-11.4479
▁mukanya	-11.4479
▁Life	-11.4481
▁Lam	-11.4481
▁beredar	-11.4486
▁tao	-11.4487
▁Padi	-11.4487
▁Brand	-11.4488
▁ukm	-11.4488
Du	-11.4489
▁pengorbanan	-11.4489
▁mencerahkan	-11.4489
cuba	-11.449
pam	-11.449
▁Poli	-11.4493
▁Imigresen	-11.4494
▁peperiksaan	-11.4494
▁peminjam	-11.4494
GH	-11.4494
KG	-11.4494
▁seminar	-11.4494
▁rais	-11.4495
▁bella	-11.4495
▁fish	-11.4497
▁gan	-11.4498
free	-11.4498
kay	-11.45
PAK	-11.4501
▁caption	-11.4501
▁Xiaomi	-11.4501
▁Alhamdulilah	-11.4502
▁bergelar	-11.4503
▁capai	-11.4504
▁hahahha	-11.4504
▁Angel	-11.4508
vision	-11.4512
▁perhimpunan	-11.4514
▁dibintangi	-11.4514
▁Proton	-11.4514
▁diturunkan	-11.4516
Jakarta	-11.4517
▁machiam	-11.4518
▁bengkak	-11.4518
▁Travel	-11.452
uang	-11.452
▁Saifuddin	-11.452
▁dipandang	-11.4521
DUN	-11.4523
alun	-11.4523
▁Menerima	-11.4525
▁videonya	-11.4526
▁Chong	-11.4526
▁manual	-11.4529
▁caj	-11.4529
atta	-11.4532
▁tggu	-11.4534
▁Ayer	-11.4535
ins	-11.4537
▁YOU	-11.4538
▁Play	-11.4538
ious	-11.454
▁mengunjungi	-11.454
▁disambut	-11.454
50,000	-11.4541
▁Longitud	-11.4545
endra	-11.4546
sian	-11.4546
▁berpa	-11.4548
rene	-11.4548
▁MER	-11.4549
▁Kelebihan	-11.4549
▁dagangan	-11.4549
haya	-11.455
▁MAK	-11.455
▁MV	-11.4552
▁Akun	-11.4556
▁months	-11.4558
▁terbentuk	-11.4558
▁worry	-11.4558
▁JOHOR	-11.456
▁Poland	-11.4562
▁Asyik	-11.4562
▁inside	-11.4564
sema	-11.4564
▁pamer	-11.4566
▁Britain	-11.4567
▁patung	-11.4567
▁lukisan	-11.4567
▁DA	-11.4568
IYA	-11.4568
▁buru	-11.4573
▁SIZE	-11.4575
▁pizza	-11.4575
tensi	-11.4575
▁STATUS	-11.4576
▁sejenak	-11.4578
▁kian	-11.458
▁porsi	-11.458
▁par	-11.4582
▁Kebajikan	-11.4583
▁menyakiti	-11.4583
▁astaga	-11.4583
▁Seterusnya	-11.4585
ahaha	-11.4587
▁putra	-11.4589
ree	-11.4592
▁pencuri	-11.4593
▁suggest	-11.4593
▁ip	-11.4594
▁though	-11.4595
▁gopay	-11.4596
thn	-11.4602
▁DONG	-11.4605
load	-11.4605
▁insurans	-11.4605
▁lagunya	-11.4607
moto	-11.4609
▁comeback	-11.4609
fashion	-11.461
▁semesta	-11.4611
▁Tambun	-11.4611
▁poin	-11.4611
▁serabut	-11.4614
▁inti	-11.4618
▁Yunani	-11.4622
dengan	-11.4622
REN	-11.4626
▁revolusi	-11.4627
3,000	-11.463
▁Diskon	-11.4631
▁ank	-11.4632
▁Golden	-11.4633
▁Akak	-11.4633
PUN	-11.4633
Pem	-11.4633
▁diduga	-11.4635
▁Airlines	-11.4635
▁Warung	-11.4635
jet	-11.4636
▁dibutuhkan	-11.4637
▁mempromosikan	-11.464
▁YUK	-11.4642
dih	-11.4642
▁Akibat	-11.4642
▁Dam	-11.4642
▁mimin	-11.4643
▁pengasas	-11.4643
▁Ih	-11.4646
▁dimulakan	-11.4646
▁Farid	-11.4646
▁Jap	-11.4647
▁telan	-11.4648
▁berlakunya	-11.4648
▁merk	-11.4649
bg	-11.4649
BAB	-11.465
▁kerjanya	-11.4651
▁kutu	-11.4653
▁Ming	-11.4658
▁rules	-11.466
▁MACAM	-11.466
▁menaik	-11.466
750	-11.4661
▁kid	-11.4661
▁sekar	-11.4662
▁attention	-11.4663
▁ikon	-11.4664
▁dibalik	-11.4665
tina	-11.4665
▁Stay	-11.4666
sampai	-11.4666
▁kotoran	-11.4667
▁senin	-11.4667
vit	-11.4667
▁menyifatkan	-11.4668
▁kekalahan	-11.4669
Bangsa	-11.4669
▁bersedih	-11.467
▁junior	-11.467
SPRM	-11.467
▁pemahaman	-11.4675
▁ajib	-11.4675
▁Legend	-11.4675
bye	-11.4675
▁kam	-11.4677
ambi	-11.4677
▁berdaya	-11.4678
▁Les	-11.4678
▁Karim	-11.4679
▁manager	-11.4683
▁Tai	-11.4684
▁kelar	-11.4684
▁Sebut	-11.4685
▁Memiliki	-11.4686
cucuk	-11.4687
▁Perut	-11.4688
▁SY	-11.469
▁klia	-11.4691
▁wey	-11.4692
num	-11.4692
▁india	-11.4692
▁Disney	-11.4693
▁skala	-11.4694
▁Othman	-11.4695
disi	-11.4696
▁menyeru	-11.4698
▁People	-11.4699
▁Idol	-11.4699
▁Maz	-11.4699
▁Usahawan	-11.47
▁bantahan	-11.47
▁dialog	-11.4701
▁syiah	-11.4703
▁Ikuti	-11.4703
▁kiamat	-11.4705
▁ditanam	-11.4705
▁waris	-11.4705
inter	-11.4708
kunci	-11.4708
▁dipegang	-11.4709
▁refer	-11.4709
▁tertidur	-11.471
▁Lawa	-11.4715
▁skirt	-11.4718
late	-11.472
▁color	-11.4721
▁Tokopedia	-11.4722
tte	-11.4723
▁mengerjakan	-11.4724
▁liddat	-11.4725
bie	-11.4726
▁najib	-11.4728
struktur	-11.4728
▁lajur	-11.4732
jor	-11.4732
gula	-11.4734
▁Keempat	-11.4734
▁resepi	-11.4735
▁keta	-11.4735
▁muslimah	-11.4739
▁Gadis	-11.474
▁untukmu	-11.4741
▁alone	-11.4742
buah	-11.4742
▁babe	-11.4744
▁51	-11.4745
▁Remaja	-11.4745
▁Wangsa	-11.4748
▁53	-11.4748
▁Gun	-11.4749
▁took	-11.475
▁JB	-11.475
IF	-11.4752
▁kejut	-11.4753
▁Matahari	-11.4755
▁Zam	-11.4755
▁orangtua	-11.4756
ava	-11.4756
▁annoying	-11.4756
ned	-11.4758
▁kedaulatan	-11.4759
▁penutup	-11.4759
▁anj	-11.476
▁rompak	-11.476
▁Pop	-11.476
▁penglibatan	-11.4761
▁mendoakan	-11.4761
▁mesjid	-11.4763
▁Lum	-11.4764
raj	-11.4764
zaman	-11.4766
▁WHATSAPP	-11.4768
▁jawi	-11.4768
▁Alif	-11.4771
▁pemindahan	-11.4772
Lu	-11.4772
▁tio	-11.4775
biar	-11.4776
hala	-11.4778
▁KALIAN	-11.4779
▁Sempat	-11.4782
▁unggul	-11.4783
▁dimainkan	-11.4784
▁menjemput	-11.4787
▁Polda	-11.4787
▁menandakan	-11.479
▁Abidin	-11.4793
▁Kertas	-11.4793
▁pengedar	-11.4793
▁Samad	-11.4794
▁does	-11.4794
rupa	-11.4798
kakak	-11.4799
▁mandiri	-11.4799
▁His	-11.4799
▁april	-11.4801
▁Dinas	-11.4801
▁nyoba	-11.4801
Man	-11.4802
▁Arief	-11.4802
HHH	-11.4803
▁2014,	-11.4803
tanah	-11.4804
hand	-11.4804
ote	-11.4805
video	-11.4805
▁rok	-11.4806
▁Perasaan	-11.4806
▁says	-11.4807
▁Lapar	-11.4807
▁mother	-11.4807
▁2011,	-11.4808
▁dipimpin	-11.4809
▁Solusi	-11.4809
source	-11.481
gger	-11.481
▁Naim	-11.481
▁satay	-11.4811
belakang	-11.4813
▁Camp	-11.4815
▁barusan	-11.4815
▁mendatang	-11.4815
▁adab	-11.4819
▁Fakulti	-11.4822
LK	-11.4824
lukis	-11.4824
▁cun	-11.4824
▁pemasangan	-11.4825
▁Ras	-11.4828
▁genre	-11.483
▁Banjar	-11.4832
▁Kandungan	-11.4834
▁milo	-11.4834
▁Sehari	-11.4835
Bukhari	-11.4836
▁diatur	-11.4837
▁BB	-11.4838
▁Perhimpunan	-11.4838
max	-11.4839
▁ikatan	-11.4839
▁1985	-11.4839
▁Pasifik	-11.4841
▁Seronok	-11.4841
▁Mont	-11.4841
▁rilek	-11.4841
▁Zo	-11.4843
▁47	-11.4844
▁Bawang	-11.4847
▁Tetiba	-11.4847
▁temerloh	-11.4848
▁Leon	-11.4848
▁Azhar	-11.485
kumpulan	-11.4851
tulis	-11.4851
wana	-11.4852
▁Kandar	-11.4853
pera	-11.4854
▁mulus	-11.4854
▁Bis	-11.4854
▁qu	-11.4855
dho	-11.4856
▁pil	-11.4857
▁general	-11.4857
visi	-11.4859
▁ANJING	-11.4862
▁Hand	-11.4864
▁dirujuk	-11.4866
eti	-11.4866
eeeee	-11.4867
▁doctor	-11.4867
suit	-11.4868
▁Bella	-11.4868
▁Kai	-11.487
▁geran	-11.487
▁Paya	-11.4872
▁Maharaja	-11.4872
esti	-11.4873
▁aktivis	-11.4873
▁kmrn	-11.4876
▁wali	-11.4876
▁stage	-11.4877
▁Direktur	-11.4878
▁tren	-11.4878
▁Tab	-11.4878
pele	-11.4879
▁logam	-11.4879
▁2008,	-11.4881
▁professional	-11.4882
▁delay	-11.4885
▁babak	-11.4885
▁liputan	-11.4885
▁Sepatu	-11.4885
cake	-11.4886
▁doesn	-11.4887
▁tasik	-11.4889
▁Yan	-11.489
▁tekstur	-11.489
▁SEMASA	-11.4892
▁Omg	-11.4892
▁dijalan	-11.4892
gia	-11.4893
gaga	-11.4894
▁rahasia	-11.4896
▁terdiam	-11.49
parent	-11.4901
▁herba	-11.4901
▁cerai	-11.4901
spect	-11.4903
adah	-11.4904
▁Kasi	-11.4904
▁sta	-11.4904
paru	-11.4905
▁momen	-11.4907
▁Korban	-11.4907
bayi	-11.4909
▁Bangkok	-11.4909
▁Arsenal	-11.491
▁GUA	-11.4911
libat	-11.4912
pay	-11.4913
▁Cameron	-11.4914
jad	-11.4915
baby	-11.4916
▁wudhu	-11.4917
▁Romania	-11.4917
▁sebar	-11.4917
▁UTC	-11.4917
190	-11.4918
tter	-11.4919
▁KAT	-11.492
▁Mutualan	-11.4921
ML	-11.4921
▁Konvensyen	-11.4924
▁musibah	-11.4926
▁mendaftar	-11.4927
▁CariAkuDiSyurga	-11.4928
▁Kala	-11.4929
▁ootd	-11.4931
▁Bag	-11.4931
▁SENDIRI	-11.4938
▁Mis	-11.4938
ute	-11.494
▁semi	-11.494
Jo	-11.4941
▁Kasus	-11.4941
▁ana	-11.4942
▁iftar	-11.4942
rrrr	-11.4943
▁insyaAllah	-11.4945
iris	-11.4945
▁beritahu	-11.4945
▁ketahui	-11.4946
▁Kangen	-11.4947
▁aamiin	-11.4947
▁perikanan	-11.4947
▁Kanun	-11.4948
▁persediaan	-11.4949
▁jum	-11.4949
▁Desain	-11.495
▁yourself	-11.4951
▁persahabatan	-11.4954
▁permudahkan	-11.4954
▁Gus	-11.4954
tori	-11.4954
▁sampingan	-11.4956
▁wakaf	-11.4956
▁DUIT	-11.4957
▁Stra	-11.4957
▁Mahal	-11.4958
tanding	-11.496
ified	-11.4962
▁Pembelian	-11.4964
▁aih	-11.4966
▁penganut	-11.4966
ternak	-11.4967
▁angkasa	-11.4969
habis	-11.497
nyi	-11.4971
▁tdi	-11.4972
▁berkunjung	-11.4972
OD	-11.4972
▁Depok	-11.4973
istik	-11.4974
jawab	-11.4975
▁mod	-11.4976
▁disamping	-11.4976
▁Hashim	-11.4976
▁kemaman	-11.4977
▁qi	-11.4978
▁Tpi	-11.4982
diam	-11.4982
▁dibincangkan	-11.4984
sembur	-11.4985
▁celah	-11.4985
▁Mere	-11.4985
▁Penting	-11.4986
▁PC	-11.4986
▁saingan	-11.4986
▁friendly	-11.4987
▁PKI	-11.4989
Car	-11.499
PAR	-11.4992
▁larat	-11.4994
▁maya	-11.4995
▁Puteh	-11.4997
▁riwayat	-11.4998
▁BADAN	-11.4999
▁jala	-11.5
▁berucap	-11.5001
keluarga	-11.5001
▁mengancam	-11.5005
▁ujan	-11.5006
▁Sektor	-11.5007
▁syak	-11.5007
▁Nye	-11.5009
▁kul	-11.5009
▁kosmetik	-11.501
▁menekankan	-11.501
▁Ujian	-11.501
▁meri	-11.5011
night	-11.5011
▁kafe	-11.5012
▁NIH	-11.5012
▁tembok	-11.5013
▁Pelaksanaan	-11.5014
wes	-11.5017
▁menyebutkan	-11.5018
▁pemakanan	-11.5019
muslim	-11.502
▁KEDUA	-11.5021
crepe	-11.5022
▁Your	-11.5022
▁Jerawat	-11.5022
▁Haram	-11.5024
▁Argentina	-11.5024
▁Smartphone	-11.5024
▁terbiasa	-11.5026
128	-11.5029
▁CS	-11.5029
▁RAM	-11.5029
▁berpunca	-11.5031
▁kapasiti	-11.5033
▁limit	-11.5035
▁HAM	-11.5037
▁diserang	-11.5038
▁misal	-11.5041
▁Kun	-11.5042
▁Cadangan	-11.5043
▁futsal	-11.5043
enti	-11.5044
▁gadget	-11.5044
election	-11.5044
sebut	-11.5045
▁pengawal	-11.5045
siapa	-11.5046
▁Lai	-11.5047
▁assalamualaikum	-11.5048
▁Tawau	-11.5048
dengar	-11.505
▁poket	-11.505
▁pat	-11.505
▁cri	-11.505
▁Studio	-11.5051
▁ayang	-11.5051
▁Cawangan	-11.5052
▁bertempat	-11.5052
▁Mimpi	-11.5053
▁ONLINE	-11.5057
▁berkait	-11.5057
▁Mir	-11.5058
▁BBMAsTopSocial	-11.5059
road	-11.5064
▁ado	-11.5064
▁topi	-11.5064
▁Gha	-11.5066
▁Berke	-11.5071
▁KK	-11.5071
▁sngt	-11.5071
▁speed	-11.5072
cess	-11.5073
market	-11.5073
▁JABATAN	-11.5073
360	-11.5073
▁parfum	-11.5078
flower	-11.5078
▁Senarai	-11.5078
▁meli	-11.5078
▁Menjelang	-11.508
▁Young	-11.508
rag	-11.5081
lock	-11.5081
▁JNE	-11.5082
▁tax	-11.5084
▁JomKita	-11.5084
▁mencetuskan	-11.5085
▁lempar	-11.5085
▁halangan	-11.5085
▁dewa	-11.5086
▁Barcelona	-11.5087
▁diisi	-11.5088
Ghazali	-11.5089
▁There	-11.5089
▁Jiwa	-11.509
▁Cc	-11.5091
ols	-11.5091
▁paha	-11.5092
▁version	-11.5093
▁White	-11.5094
hap	-11.5094
▁challenge	-11.5094
iiiii	-11.5095
▁keluhan	-11.5101
▁yuran	-11.5101
▁~~	-11.5104
▁umumin	-11.5104
▁followan	-11.5104
tent	-11.5107
▁karyawan	-11.5108
▁Tong	-11.5108
▁fuh	-11.5108
ANDA	-11.5109
▁ratus	-11.511
▁Fak	-11.511
▁Almarhum	-11.511
Juara	-11.5111
Bagi	-11.5112
BUR	-11.5112
▁YOUR	-11.5113
▁Kembangan	-11.5114
lover	-11.5117
Mereka	-11.5118
▁baring	-11.5119
▁JPJ	-11.5119
TIM	-11.512
▁sekumpulan	-11.5122
▁pertimbangan	-11.5122
▁meman	-11.5123
hp	-11.5123
▁iklim	-11.5125
▁Petang	-11.5125
▁Chang	-11.5127
▁Pesawat	-11.5127
▁round	-11.5127
caya	-11.5132
▁murtabak	-11.5132
▁saf	-11.5134
▁bill	-11.5134
▁WARNA	-11.5137
SAR	-11.5138
▁Pena	-11.514
▁pensyarah	-11.5141
▁Selayang	-11.5142
▁Dor	-11.5144
kamu	-11.5145
▁pengawasan	-11.5146
▁heh	-11.5147
▁berbau	-11.5147
▁berbangsa	-11.5148
nnnn	-11.515
▁Hall	-11.515
BC	-11.5151
III	-11.5151
▁Spa	-11.5153
ova	-11.5154
riah	-11.5154
Jangan	-11.5155
zzz	-11.5156
rajin	-11.5157
bow	-11.5159
▁memori	-11.516
ration	-11.5162
data	-11.5163
▁teliti	-11.5163
▁ditangani	-11.5164
▁Generasi	-11.5165
▁putrajaya	-11.5165
▁MAGIC	-11.5167
▁menari	-11.5168
▁diajar	-11.5169
▁survey	-11.517
▁tar	-11.517
etan	-11.5172
▁RAMADHAN	-11.5172
▁sirap	-11.5172
jaja	-11.5172
▁Pekerjaan	-11.5172
4,000	-11.5173
▁dilindungi	-11.5173
perta	-11.5174
▁Total	-11.5174
▁perfect	-11.5175
duct	-11.5177
▁vol	-11.5177
ded	-11.5178
▁finally	-11.5179
▁lead	-11.518
its	-11.518
ngka	-11.5182
▁Cover	-11.5183
▁Jho	-11.5183
▁hour	-11.5184
▁Kartu	-11.5184
▁NGA	-11.5185
▁menggelar	-11.5186
▁BELAS	-11.5187
bodoh	-11.5187
▁FOTO	-11.5188
St	-11.5188
asia	-11.519
rusak	-11.519
▁Tingkat	-11.519
ENANG	-11.5191
opo	-11.5191
timur	-11.5192
DS	-11.5192
▁1987	-11.5195
▁sayuran	-11.5195
▁Doktor	-11.5197
lewat	-11.5197
ident	-11.5197
Ji	-11.5199
thing	-11.5201
▁gapernah	-11.5202
ITA	-11.5204
▁pok	-11.5206
▁four	-11.5206
▁sent	-11.5209
▁Gatau	-11.5211
▁Suri	-11.5212
You	-11.5214
▁Cas	-11.5215
oa	-11.5216
▁lim	-11.5217
▁gile	-11.5218
▁diubah	-11.5219
trak	-11.5221
▁macem	-11.5223
▁KON	-11.5225
say	-11.5226
▁trafik	-11.5227
▁dahi	-11.5227
BAK	-11.5229
populer	-11.523
syu	-11.5231
▁temenku	-11.5232
▁MASA	-11.5233
gantung	-11.5234
▁Marang	-11.5237
▁Tangkap	-11.5237
▁Sesiapa	-11.5239
robo	-11.524
▁konservatif	-11.5241
▁objektif	-11.5243
rebut	-11.5244
▁SALE	-11.5245
▁mala	-11.5245
▁wear	-11.5248
▁1989	-11.5248
syi	-11.525
▁PRE	-11.525
hamba	-11.5252
▁Cuti	-11.5253
▁traffic	-11.5253
right	-11.5255
▁holiday	-11.5255
▁komik	-11.5256
▁terhibur	-11.5256
▁shj	-11.5258
sey	-11.5258
▁Master	-11.5259
▁RASA	-11.526
▁ekoran	-11.5262
▁kelajuan	-11.5263
bike	-11.5265
▁sim	-11.5266
▁tercapai	-11.5267
▁Bangladesh	-11.5267
▁berka	-11.5267
cli	-11.5268
▁jl	-11.5268
mbun	-11.5268
nch	-11.5268
▁Bat	-11.5268
▁leg	-11.5269
born	-11.5272
▁Stress	-11.5274
▁Gil	-11.5274
▁site	-11.5275
▁Bai	-11.5275
prak	-11.5276
▁memaparkan	-11.5277
▁perpustakaan	-11.5277
▁terlupa	-11.5277
▁return	-11.5279
▁AYO	-11.528
urang	-11.5281
▁Aset	-11.5281
▁jun	-11.5283
LANG	-11.5283
▁Michael	-11.5284
▁NASI	-11.5285
edar	-11.5287
▁Pengurus	-11.5287
▁March	-11.5287
law	-11.5288
hina	-11.5291
▁Youtube	-11.5292
▁pendatang	-11.5292
LAT	-11.5294
▁Photo	-11.5295
reen	-11.5296
▁pertolongan	-11.5296
minta	-11.5296
isti	-11.5297
▁botak	-11.5297
▁Sp	-11.5297
lib	-11.5298
▁bebanan	-11.5299
gama	-11.53
telan	-11.53
HS	-11.5301
▁bercanda	-11.5301
mur	-11.5304
▁Wat	-11.5304
▁front	-11.5304
▁segitu	-11.5305
▁debu	-11.5306
▁korek	-11.5306
aceh	-11.5309
▁Tro	-11.531
▁menara	-11.531
▁wisuda	-11.531
▁kakinya	-11.5311
zh	-11.5312
gate	-11.5313
een	-11.5313
▁Madrid	-11.5313
▁kagum	-11.5314
LAS	-11.5315
▁zon	-11.5316
▁sl	-11.5316
▁menyambung	-11.5318
RY	-11.5318
▁yh	-11.5319
▁menghubungkan	-11.532
▁amatlah	-11.532
▁koko	-11.5321
▁tek	-11.5321
▁laaaa	-11.5321
hip	-11.5325
▁pembedahan	-11.5327
▁Resmi	-11.5327
nji	-11.5331
sabar	-11.5332
are	-11.5335
▁Bazar	-11.5336
▁started	-11.5337
mma	-11.5337
▁Mesin	-11.5339
gli	-11.534
▁vid	-11.534
▁berterima	-11.5341
bed	-11.5342
▁Aeon	-11.5342
▁lock	-11.5344
▁SEA	-11.5344
8%	-11.5346
▁jadilah	-11.5346
▁Jualan	-11.5347
▁wabak	-11.5351
beradik	-11.5353
▁Kongres	-11.5353
▁mengha	-11.5354
▁mel	-11.5354
▁tauk	-11.5355
220	-11.5355
▁Mexico	-11.5356
▁Makassar	-11.5356
omi	-11.5359
▁heard	-11.5359
▁Diploma	-11.5363
▁merampas	-11.5363
▁atasan	-11.5365
▁bagaikan	-11.5365
104	-11.5365
URI	-11.5365
▁tayang	-11.5365
▁pelayanan	-11.5366
▁menyalahkan	-11.5366
▁penggal	-11.5367
▁Amar	-11.5367
▁bully	-11.5369
pod	-11.5369
▁count	-11.5371
kem	-11.5372
▁bua	-11.5372
▁bersihkan	-11.5372
ged	-11.5376
▁Campur	-11.5377
▁Jamal	-11.5377
bayar	-11.5378
▁Perai	-11.5379
ografi	-11.5379
▁emm	-11.5382
▁dicadangkan	-11.5383
▁sume	-11.5384
▁kriteria	-11.5385
▁memuaskan	-11.5385
▁taste	-11.5388
▁gonna	-11.5388
▁menghilang	-11.539
▁dibangkitkan	-11.539
stri	-11.5391
▁gegara	-11.5392
▁terjebak	-11.5392
▁furniture	-11.5393
▁bestnya	-11.5394
▁persegi	-11.5394
zina	-11.5395
Loire	-11.5396
▁Bala	-11.5397
▁kecerdasan	-11.5397
rib	-11.5398
▁Lucu	-11.5399
RB	-11.54
▁puteri	-11.5401
▁MALAM	-11.5402
yl	-11.5404
▁menderita	-11.5405
Raya	-11.5408
▁prepare	-11.5411
RANG	-11.5411
▁integriti	-11.5412
▁Baha	-11.5413
NN	-11.5414
▁Khazanah	-11.5414
kelurahan	-11.5414
▁popcorn	-11.5414
▁gebu	-11.5415
▁mil	-11.5417
▁nafkah	-11.5419
▁mid	-11.5421
ating	-11.5421
vil	-11.5422
▁Assalamu	-11.5423
▁memperhatikan	-11.5424
▁diabetes	-11.5424
taq	-11.5426
▁pisau	-11.5426
▁gubernur	-11.5426
uuuuu	-11.5427
▁lalui	-11.5428
▁lepasni	-11.5428
▁kya	-11.5428
silat	-11.5434
jaan	-11.5434
▁tgn	-11.5434
▁Nenek	-11.5436
▁Rashid	-11.5437
▁sambel	-11.5437
▁Alamak	-11.5441
logi	-11.5442
▁Harimau	-11.5442
ille	-11.5442
juga	-11.5443
▁perkasa	-11.5444
▁menganjurkan	-11.5446
▁Transformasi	-11.5446
▁KWSP	-11.545
▁KTM	-11.5451
▁PAGI	-11.5451
▁mw	-11.5454
▁sendi	-11.5455
laaa	-11.5456
▁tsb	-11.5456
▁menolong	-11.5456
▁peralihan	-11.5456
Or	-11.5459
▁bergambar	-11.5462
jab	-11.5464
▁bongsu	-11.5466
KING	-11.5466
▁Kamal	-11.5467
▁Lari	-11.5468
▁Dickson	-11.5468
▁Garansi	-11.5468
▁prabowo	-11.547
mandi	-11.5471
▁Gara	-11.5475
tle	-11.5477
VO	-11.5477
▁Ira	-11.5477
▁research	-11.5478
▁yan	-11.5478
▁opinion	-11.5478
▁Say	-11.5478
▁marketing	-11.548
Property	-11.5483
▁roll	-11.5484
▁separa	-11.5486
jol	-11.5487
▁riba	-11.5487
hkan	-11.5489
▁plat	-11.5489
▁induk	-11.549
askan	-11.549
▁160	-11.549
sop	-11.5491
▁Jawi	-11.5492
kurung	-11.5492
▁lipstick	-11.5493
▁ultah	-11.5494
▁Jawatan	-11.5494
▁Serta	-11.5494
▁audit	-11.5498
▁pencarian	-11.5499
▁menggesa	-11.5502
▁Internasional	-11.5502
madi	-11.5504
ngkok	-11.5505
▁Gas	-11.5506
▁DISKON	-11.5507
▁LAIN	-11.5508
▁hub	-11.5512
▁xleh	-11.5512
real	-11.5513
▁tular	-11.5515
▁Shafie	-11.5516
▁When	-11.5517
▁Sebaik	-11.5518
▁mengecewakan	-11.5519
▁idaman	-11.552
▁Musang	-11.552
▁snap	-11.5522
▁relate	-11.5522
oid	-11.5523
▁padamu	-11.5525
▁memu	-11.5526
tho	-11.5526
▁dicipta	-11.5526
▁dikurniakan	-11.5529
dent	-11.553
▁kmk	-11.5531
▁pedagang	-11.5534
▁gm	-11.5535
ASAN	-11.5535
than	-11.5536
▁AirAsia	-11.5537
design	-11.5538
wear	-11.5539
▁Pulsa	-11.5539
▁kerumah	-11.5542
▁berpeluang	-11.5543
▁Public	-11.5544
▁BARANG	-11.5544
iko	-11.5547
▁ngapa	-11.5547
▁pilpres	-11.5547
▁2012,	-11.5547
▁Merawat	-11.5547
▁Hei	-11.5547
nol	-11.5548
▁menewaskan	-11.5549
buh	-11.5549
▁Kunci	-11.5549
▁Dgn	-11.5552
▁PI	-11.5552
▁click	-11.5555
▁lucky	-11.5555
cor	-11.5555
owo	-11.5558
▁PASTI	-11.5558
▁Ag	-11.556
▁usai	-11.5561
▁SIAP	-11.5564
▁mager	-11.5565
▁Final	-11.5565
▁pecahan	-11.5567
▁inform	-11.5567
EA	-11.5568
▁kesakitan	-11.5569
ado	-11.557
▁berhubungan	-11.5573
▁Jambi	-11.5574
▁Tgk	-11.5574
▁berku	-11.5576
▁Syaratnya	-11.5576
▁sec	-11.5576
▁BAHAN	-11.5578
▁nulis	-11.558
▁membatalkan	-11.5581
▁menguatkan	-11.5583
▁pengiktirafan	-11.5583
▁dijemput	-11.5583
▁cpt	-11.5584
▁impor	-11.559
▁Restaurant	-11.5593
▁volume	-11.5593
▁tambun	-11.5594
▁Dm	-11.5596
anjur	-11.5596
▁god	-11.5596
▁Karawang	-11.5597
▁Fasa	-11.5598
eem	-11.5599
▁hahahahahaha	-11.5606
▁Mengatasi	-11.5606
▁Update	-11.5608
cewek	-11.5608
▁berniat	-11.5608
▁penyediaan	-11.5609
▁ditukar	-11.5611
▁Dewi	-11.5615
▁segelintir	-11.5615
▁unifi	-11.5616
nies	-11.5617
▁biarlah	-11.5618
▁Tengoklah	-11.5619
iru	-11.5621
hub	-11.5621
sial	-11.5623
▁MIN	-11.5625
▁Aw	-11.5625
yut	-11.5627
▁Get	-11.5627
▁mengh	-11.5627
▁WANITA	-11.5628
▁kaji	-11.5628
▁agree	-11.5628
▁Rahmat	-11.5629
085	-11.5631
may	-11.5633
▁RETWEET	-11.5633
▁voice	-11.5633
▁gong	-11.5636
▁terapi	-11.5637
▁persaingan	-11.5638
▁nature	-11.5639
nus	-11.564
gau	-11.564
▁berpengalaman	-11.564
▁DIY	-11.5641
▁Ob	-11.5642
yoo	-11.5643
ntap	-11.5643
▁GOOD	-11.5643
▁available	-11.5643
▁Efek	-11.5647
arif	-11.5649
ISBN	-11.5649
▁pemb	-11.5649
▁sndiri	-11.565
▁disyaki	-11.565
KW	-11.5651
langgar	-11.5652
clo	-11.5652
▁pengerusi	-11.5653
▁Kerjasama	-11.5653
▁Corporation	-11.5655
▁Kra	-11.5656
▁gasuka	-11.5661
▁mangkuk	-11.5661
▁menunjuk	-11.5661
hayu	-11.5663
▁Pon	-11.5664
part	-11.5664
▁RUU	-11.5665
▁Jasin	-11.5665
▁Bri	-11.5667
▁perbankan	-11.5668
▁Tukar	-11.5669
BUN	-11.5672
▁Pelakon	-11.5677
tea	-11.5677
▁woman	-11.5678
▁unless	-11.5678
▁bubuk	-11.5679
▁diperolehi	-11.568
integrasi	-11.5681
ify	-11.5681
▁Usia	-11.5682
▁ptptn	-11.5683
▁Sum	-11.5683
▁terserah	-11.5684
▁Sentral	-11.5684
▁Berbuka	-11.5685
▁emo	-11.5685
▁fire	-11.5685
punya	-11.5685
dangan	-11.5686
TIN	-11.5687
▁Nek	-11.5687
▁Semenyih	-11.5688
▁kebimbangan	-11.5688
▁bala	-11.5689
▁everyday	-11.569
hebat	-11.569
▁Try	-11.5691
▁seriously	-11.5691
▁membakar	-11.5692
gir	-11.5693
▁Rice	-11.5695
▁certain	-11.5695
▁SB	-11.5696
▁IC	-11.5698
▁LANGSUNG	-11.5703
▁bergaya	-11.5703
▁kening	-11.5703
agen	-11.5703
▁Tho	-11.5703
lampau	-11.5704
▁mengga	-11.5705
▁Bina	-11.5706
▁kapitalisme	-11.5709
▁Paytren	-11.571
▁cabe	-11.5711
▁mencintaimu	-11.5712
andra	-11.5713
▁behind	-11.5715
eve	-11.5716
▁surabaya	-11.5716
chin	-11.5716
▁pekebun	-11.5717
Ni	-11.5717
▁duka	-11.5718
mimpi	-11.5719
▁blur	-11.572
▁monyet	-11.572
thu	-11.5721
▁Normal	-11.5723
▁camp	-11.5725
GEL	-11.5728
▁VIDEO	-11.5728
▁ketenteraan	-11.5728
▁Box	-11.573
▁membuatnya	-11.573
▁ler	-11.5731
▁ball	-11.5731
▁sekilo	-11.5732
▁hours	-11.5734
agama	-11.5736
organ	-11.5737
▁Cre	-11.5738
▁keseluruhannya	-11.5739
lempang	-11.5744
▁kedepan	-11.5748
▁bebel	-11.5748
▁bokap	-11.5749
▁UV	-11.575
▁atuh	-11.5751
vac	-11.5751
▁dibentangkan	-11.5753
nggak	-11.5754
ato	-11.5755
▁berpatutan	-11.5755
▁terkandung	-11.5755
official	-11.5757
▁Bengkulu	-11.5758
▁Masukkan	-11.5759
▁Tahap	-11.576
▁terpisah	-11.576
▁Mam	-11.576
▁Mantan	-11.5761
▁Dol	-11.5762
▁datuk	-11.5762
LH	-11.5765
self	-11.5766
▁court	-11.5766
▁Silat	-11.5766
▁napa	-11.5767
LUAR	-11.5768
▁menjayakan	-11.5768
▁sekelas	-11.5769
▁Geram	-11.5769
▁Lot	-11.577
▁input	-11.5771
▁campak	-11.5771
▁boneka	-11.5772
▁penyampaian	-11.5773
▁tap	-11.5774
▁KAW	-11.5774
▁nihh	-11.5775
▁Urusan	-11.5776
Yang	-11.5777
gini	-11.5777
▁sebalik	-11.578
▁Ever	-11.578
▁ultra	-11.578
▁Perikanan	-11.5781
▁Teringin	-11.5781
▁enaknya	-11.5783
▁kesana	-11.5788
▁Kluang	-11.579
▁diesel	-11.5792
▁Umat	-11.5793
pori	-11.5793
pool	-11.5794
▁janda	-11.5795
▁Sendiri	-11.5796
▁ibn	-11.5798
▁Dak	-11.5798
▁memperlihatkan	-11.5798
▁diskaun	-11.5798
guk	-11.5799
▁batch	-11.5799
▁Koleksi	-11.5802
▁Iz	-11.5803
▁Cincin	-11.5803
etik	-11.5805
▁Var	-11.5805
▁Myvi	-11.5806
▁Terkadang	-11.5807
▁KLIK	-11.5807
▁disalurkan	-11.5811
brak	-11.5812
▁wtf	-11.5813
▁sumbang	-11.5813
▁Hahahha	-11.5815
▁spec	-11.5815
pant	-11.5816
▁Exco	-11.5816
▁maybank	-11.5816
▁berasingan	-11.5817
FAM	-11.5817
xy	-11.5817
▁pray	-11.5818
▁TL	-11.5821
kim	-11.5821
▁disiapkan	-11.5821
▁hastag	-11.5822
▁klang	-11.5826
Selain	-11.5828
lekat	-11.5833
▁Infrastruktur	-11.5833
Pi	-11.5834
view	-11.5836
▁krna	-11.5837
NGO	-11.5837
▁ngerasain	-11.5837
ano	-11.5838
▁mengalah	-11.5841
▁Jantung	-11.5842
▁Kahkahkah	-11.5842
▁Sijil	-11.5842
▁MEM	-11.5844
politik	-11.5846
▁probably	-11.5846
▁1986	-11.5847
core	-11.5848
▁canggih	-11.5849
▁Pertumbuhan	-11.585
▁Jadilah	-11.585
▁signal	-11.585
▁serang	-11.5851
▁kepakaran	-11.5851
▁KALI	-11.5856
▁Fun	-11.5856
▁xda	-11.5857
▁berganti	-11.5857
DY	-11.5857
▁bekal	-11.5858
▁Service	-11.5858
▁transport	-11.5858
▁kuar	-11.5861
▁SETIAP	-11.5861
▁mengukuhkan	-11.5861
▁komedi	-11.5862
jw	-11.5864
khi	-11.5864
▁beruang	-11.5864
▁2019,	-11.5866
▁MINI	-11.5867
▁Cla	-11.5867
▁kay	-11.5868
▁bgtau	-11.5869
▁aduk	-11.5872
read	-11.5872
langsing	-11.5874
▁Spesifikasi	-11.5874
▁Teknik	-11.5875
onic	-11.5875
▁lose	-11.5876
▁Krn	-11.5876
▁selam	-11.5877
▁oppo	-11.5877
▁copy	-11.5878
▁hate	-11.5879
NAS	-11.5879
▁omongan	-11.588
▁jurang	-11.5881
ities	-11.5883
2017	-11.5883
▁hao	-11.5883
gasi	-11.5883
▁BCA	-11.5884
▁blender	-11.5884
▁saving	-11.5884
dos	-11.5885
▁Seminar	-11.5889
▁KAK	-11.589
▁ktk	-11.5891
merah	-11.5891
▁Batang	-11.5891
▁Komp	-11.5894
▁PENGGAL	-11.5895
▁Andre	-11.5895
wali	-11.5895
ulus	-11.5895
balang	-11.5896
▁ren	-11.5896
▁menyampah	-11.5897
▁astu	-11.5898
▁hear	-11.5898
▁perbicaraan	-11.59
▁alah	-11.59
ette	-11.59
▁Sala	-11.59
▁rumit	-11.5901
▁dihukum	-11.5902
▁Fer	-11.5902
▁lolos	-11.5906
mmmm	-11.5906
▁diskusi	-11.5907
seh	-11.5909
▁OLEH	-11.591
▁uolls	-11.591
RON	-11.5911
▁mutu	-11.5914
ilan	-11.5914
PD	-11.5915
ppp	-11.5915
▁Kenal	-11.5915
▁Akbar	-11.5915
▁mendatangkan	-11.5916
▁periuk	-11.5916
▁kalendar	-11.5917
▁Salahuddin	-11.5918
motor	-11.5919
KAT	-11.592
▁menghala	-11.5921
▁bertanggung	-11.5923
▁PLUS	-11.5924
▁Perjalanan	-11.5925
▁menghindari	-11.5925
▁memb	-11.5927
▁ayaq	-11.5928
▁menular	-11.5928
▁reach	-11.5929
▁Hub	-11.5931
BR	-11.5931
▁swa	-11.5932
▁TTDI	-11.5933
▁Gelang	-11.5934
Bukan	-11.5934
▁pure	-11.5935
▁Ori	-11.5936
▁miliknya	-11.5937
▁jbjb	-11.5938
▁ticket	-11.5938
▁menerangkan	-11.5941
▁xpe	-11.5941
cang	-11.5942
bahagia	-11.5943
lapis	-11.5944
undi	-11.5944
▁Sky	-11.5945
dog	-11.5947
▁gendut	-11.5949
▁STOK	-11.5952
cegah	-11.5952
▁kdg	-11.5954
▁Mala	-11.5957
▁bata	-11.5957
▁selamatkan	-11.5957
cca	-11.596
▁BERSATU	-11.5962
▁130	-11.5964
▁kesukaan	-11.5964
▁Pengkalan	-11.5964
UAS	-11.5965
▁Nutrisi	-11.5965
lindung	-11.5966
▁dijadiin	-11.5967
▁Mid	-11.5968
gul	-11.5968
▁Fitnah	-11.5969
▁bisik	-11.5969
▁Letak	-11.5969
▁lusa	-11.597
▁musang	-11.5973
bela	-11.5974
▁ngamuk	-11.5975
tidur	-11.5975
▁menyerap	-11.5977
▁Press	-11.5977
▁kecoh	-11.5978
▁Pesuruhjaya	-11.5979
▁Menarik	-11.5979
▁flu	-11.5982
▁Elok	-11.5983
▁pengurangan	-11.5984
▁Pers	-11.5984
CHE	-11.5985
▁forget	-11.5986
▁Tele	-11.5987
▁triliun	-11.5987
sila	-11.5987
▁bay	-11.5989
▁sembari	-11.599
jati	-11.5991
▁<	-11.5991
▁budget	-11.5992
▁Sai	-11.5992
▁Bagian	-11.5993
▁grand	-11.5994
rusuh	-11.5995
▁terkawal	-11.5997
▁dsb	-11.5997
ambu	-11.5998
TUN	-11.5999
▁Bye	-11.6001
▁Jemput	-11.6002
▁tadbir	-11.6004
▁kejahatan	-11.6005
▁HO	-11.6005
▁ky	-11.6006
GR	-11.6007
▁term	-11.6009
▁Gan	-11.6009
MENT	-11.6011
▁penerimaan	-11.6012
tual	-11.6012
9%	-11.6014
▁Perlindungan	-11.6015
▁sea	-11.6016
▁patuh	-11.6018
▁adiknya	-11.6018
▁haid	-11.6018
▁^	-11.602
Mustafa	-11.602
▁stupid	-11.602
▁joget	-11.602
▁tuduh	-11.6022
▁thr	-11.6023
ndak	-11.6023
▁Hill	-11.6023
▁mengirim	-11.6026
ndong	-11.6027
▁rich	-11.6027
▁pentingnya	-11.6027
▁JAN	-11.6028
EMAS	-11.6028
▁jga	-11.6028
▁tender	-11.603
▁quotes	-11.603
▁Rawa	-11.6031
▁bego	-11.6032
▁map	-11.6032
▁kris	-11.6033
▁Kemas	-11.6033
cycle	-11.6037
ology	-11.6037
jap	-11.6037
▁father	-11.6038
▁Dur	-11.6039
▁jeli	-11.604
▁kacamata	-11.604
nggal	-11.6041
PRK	-11.6041
ops	-11.6041
poh	-11.6043
▁Sudirman	-11.6046
bh	-11.6047
▁jungkook	-11.6049
▁cry	-11.6051
▁pendam	-11.6053
skin	-11.6054
▁Gri	-11.6055
▁berperang	-11.6057
▁ati	-11.6059
▁PENDIDIKAN	-11.6059
sure	-11.606
BEN	-11.606
▁Muk	-11.6061
▁Antaranya	-11.6062
▁charger	-11.6062
ons	-11.6064
putra	-11.6066
ffe	-11.6066
gesa	-11.6069
▁BPOM	-11.6069
TOR	-11.607
MEN	-11.607
lk	-11.6071
▁positive	-11.6072
▁Care	-11.6073
▁sal	-11.6074
iga	-11.6074
▁empuk	-11.6074
phone	-11.6075
▁Jong	-11.6075
fro	-11.6077
▁tidaklah	-11.6077
▁Istilah	-11.6078
▁labuh	-11.6078
semua	-11.6078
▁Card	-11.6079
BAS	-11.6079
▁Rem	-11.6079
▁gun	-11.6079
▁Town	-11.6079
▁Pembinaan	-11.608
hae	-11.608
▁flek	-11.6081
▁kilat	-11.6083
▁tumpah	-11.6084
tru	-11.6084
▁sj	-11.6084
▁berperingkat	-11.6085
▁Juventus	-11.6085
▁Roman	-11.6085
▁chow	-11.6087
▁Nana	-11.6087
▁simpati	-11.6088
▁Okey	-11.609
hijrah	-11.609
▁018	-11.609
▁Kualiti	-11.6091
▁misteri	-11.6092
maaf	-11.6092
▁produktif	-11.6093
▁value	-11.6093
▁72	-11.6094
tutup	-11.6094
▁pai	-11.6094
▁Parade	-11.6095
▁profil	-11.6097
▁2013,	-11.61
▁sold	-11.61
▁Wakaf	-11.61
perkara	-11.6101
▁hilangkan	-11.6101
jari	-11.6102
▁pelepasan	-11.6103
▁menegur	-11.6104
wok	-11.6105
▁Dlm	-11.6105
▁parit	-11.6106
nova	-11.6107
ahahaha	-11.6108
FO	-11.6108
▁Ketupat	-11.6108
▁petronas	-11.6111
▁selengkapnya	-11.6111
▁dimuat	-11.6112
▁plk	-11.6113
face	-11.6114
▁pangan	-11.6114
sindir	-11.6114
▁usually	-11.6116
▁hok	-11.6116
sakit	-11.6117
▁sendok	-11.6117
▁maxis	-11.6119
▁susun	-11.612
▁Bagan	-11.6122
▁timeline	-11.6122
rendah	-11.6123
▁voucher	-11.6124
▁flop	-11.6124
▁pantes	-11.6126
▁Kuning	-11.6128
▁tempatnya	-11.6128
NAN	-11.6128
nz	-11.6128
▁Aktiviti	-11.6129
kisah	-11.6129
▁Beauty	-11.6131
▁role	-11.6131
▁Muzik	-11.6132
▁secret	-11.6133
head	-11.6133
▁Novel	-11.6133
▁merem	-11.6134
SHA	-11.6136
▁ain	-11.6137
▁JPN	-11.6137
▁Penyelamat	-11.6137
▁Sleman	-11.6137
▁tonton	-11.6139
▁Mad	-11.6141
▁sepenuh	-11.6143
▁Maritim	-11.6143
▁Edisi	-11.6144
▁asid	-11.6144
depan	-11.6145
▁Azman	-11.6145
▁kejutan	-11.6146
▁Back	-11.6147
▁jilbab	-11.6147
ush	-11.615
coblos	-11.615
▁oren	-11.6151
▁membangkitkan	-11.6153
▁Yup	-11.6153
▁Getah	-11.6154
м	-11.6155
▁menyalurkan	-11.6155
▁deserve	-11.6156
▁rayuan	-11.6157
▁sese	-11.6157
▁tembakan	-11.6159
▁Jalur	-11.616
▁keberkesanan	-11.6161
▁prioritas	-11.6161
▁Highlands	-11.6161
▁sdm	-11.6164
AAAA	-11.6166
▁tho	-11.6167
▁chan	-11.6167
▁tingkatan	-11.6169
Tidak	-11.6169
hus	-11.617
▁astro	-11.6171
▁tadika	-11.6173
▁dog	-11.6179
▁seka	-11.6179
▁Lahir	-11.618
nim	-11.6181
rate	-11.6181
jay	-11.6181
▁Klau	-11.6181
▁answer	-11.6182
modern	-11.6182
▁smpi	-11.6182
▁details	-11.6182
▁berpengaruh	-11.6183
oz	-11.6184
▁Pentadbiran	-11.6184
▁tangkapan	-11.6186
INS	-11.6187
▁dasarnya	-11.6187
▁gerbang	-11.6188
hehe	-11.6188
▁Buruan	-11.6189
[...]
