<pad>	0
</s>	0
<unk>	0
.	0
(	0
)	0
"	0
-	0
–	0
£	0
€	0
#	0
'	0
▁	-2.09225
,	-3.20497
▁the	-3.9024
s	-4.2916
▁yang	-4.50195
▁of	-4.58007
▁to	-4.61369
▁and	-4.71601
▁a	-4.75703
▁dan	-4.75836
▁in	-4.84294
▁di	-4.87121
▁untuk	-5.36828
▁is	-5.44836
▁that	-5.58073
▁dengan	-5.6536
▁for	-5.70848
▁tidak	-5.8154
:	-5.82071
▁on	-5.82079
▁pada	-5.84263
▁ini	-5.90053
▁The	-5.90859
▁dalam	-5.90983
▁itu	-5.93556
nya	-5.93811
▁was	-5.99825
▁with	-6.03831
t	-6.08704
▁dari	-6.1508
▁it	-6.15267
▁as	-6.18918
▁akan	-6.20305
▁mereka	-6.21025
an	-6.22153
▁at	-6.2636
▁said	-6.28579
▁be	-6.28825
▁by	-6.29693
▁adalah	-6.30501
▁tahun	-6.33159
▁are	-6.3529
▁ke	-6.3534
▁bahawa	-6.39161
▁he	-6.39619
▁from	-6.44893
▁I	-6.45702
▁oleh	-6.49734
▁dia	-6.50466
▁telah	-6.5118
ing	-6.51421
▁have	-6.51522
▁lebih	-6.52898
▁has	-6.54609
▁saya	-6.55903
▁his	-6.60647
▁not	-6.61986
▁anda	-6.62527
▁kepada	-6.68199
ed	-6.68634
▁orang	-6.69344
▁this	-6.73976
S	-6.75468
▁A	-6.76482
?	-6.78187
▁you	-6.81407
d	-6.82661
▁an	-6.83444
e	-6.83862
▁will	-6.84447
a	-6.86051
▁or	-6.87891
▁sebagai	-6.88594
▁who	-6.90219
▁atau	-6.90483
▁they	-6.94433
▁hari	-6.96223
▁dapat	-6.96596
i	-6.97879
▁their	-6.98875
▁juga	-6.99548
re	-6.99626
▁menjadi	-7.00672
▁but	-7.02355
▁ada	-7.04767
▁kata	-7.0522
▁more	-7.07484
▁satu	-7.08564
▁mengatakan	-7.08609
▁had	-7.09916
kan	-7.10187
▁In	-7.10189
▁seperti	-7.1067
▁about	-7.11476
▁were	-7.11959
▁banyak	-7.12408
▁daripada	-7.12908
▁also	-7.13882
▁we	-7.1392
▁can	-7.14903
▁tetapi	-7.15024
▁been	-7.17016
▁kita	-7.19101
▁lain	-7.19828
m	-7.20248
▁mempunyai	-7.20926
▁one	-7.21249
▁her	-7.24045
▁people	-7.25664
▁kerana	-7.25947
▁ketika	-7.27928
▁which	-7.28474
er	-7.28754
;	-7.29318
▁all	-7.31122
y	-7.31541
▁$	-7.32275
▁its	-7.32822
▁out	-7.3328
▁up	-7.3332
I	-7.33672
▁would	-7.34568
▁He	-7.34583
▁sebuah	-7.34714
▁mengenai	-7.35076
▁negara	-7.36346
▁beberapa	-7.37444
/	-7.37468
▁New	-7.39945
ly	-7.40522
▁baru	-7.42733
▁It	-7.43486
▁Malaysia	-7.43545
▁when	-7.44678
▁besar	-7.45214
▁she	-7.47305
▁than	-7.48001
▁boleh	-7.48577
▁after	-7.4871
n	-7.50168
in	-7.50288
▁kami	-7.51151
▁masa	-7.52903
▁secara	-7.53096
▁merupakan	-7.54262
▁bagi	-7.5447
al	-7.54945
▁Dia	-7.54996
▁so	-7.55281
o	-7.55384
▁seorang	-7.55516
▁like	-7.55725
▁time	-7.5606
▁there	-7.57748
▁mungkin	-7.58394
▁other	-7.60406
▁hanya	-7.61546
▁what	-7.62587
▁ia	-7.63121
▁over	-7.63153
▁semua	-7.64041
▁first	-7.64052
▁two	-7.64865
▁sangat	-7.64974
▁apa	-7.65067
▁new	-7.66352
▁1	-7.66784
▁U	-7.68568
▁into	-7.68711
▁syarikat	-7.6892
▁But	-7.69219
▁do	-7.6941
▁mana	-7.69413
▁lalu	-7.69526
▁baik	-7.69583
k	-7.69594
▁your	-7.69671
▁membuat	-7.69853
▁year	-7.70169
▁dua	-7.71414
▁/	-7.72264
▁katanya	-7.72719
▁just	-7.73261
▁some	-7.7465
▁years	-7.74683
The	-7.75371
A	-7.75641
▁sama	-7.75659
1	-7.76226
▁Tetapi	-7.76545
▁if	-7.76963
▁bulan	-7.77735
es	-7.78334
▁Pada	-7.78743
▁no	-7.79261
▁Di	-7.79671
▁Amerika	-7.80455
▁them	-7.81562
▁2	-7.8241
▁tersebut	-7.82809
▁pertama	-7.83777
▁10	-7.84327
2	-7.85799
th	-7.86456
▁Saya	-7.86586
▁government	-7.86698
▁York	-7.86753
▁only	-7.87001
▁lagi	-7.88405
r	-7.88538
▁3	-7.90545
▁could	-7.90812
▁says	-7.91541
▁terhadap	-7.91716
▁me	-7.92267
man	-7.93159
▁because	-7.94078
▁setelah	-7.94319
com	-7.94675
▁bukan	-7.95102
▁rumah	-7.9533
▁tempat	-7.95477
▁S	-7.95585
▁most	-7.95633
▁Trump	-7.95843
!	-7.95947
▁last	-7.9601
▁antara	-7.96884
C	-7.97081
▁him	-7.97152
▁our	-7.97686
▁melihat	-7.98006
▁melakukan	-7.98156
5	-7.98807
▁atas	-7.9888
ve	-7.99553
▁Dan	-8.00067
▁million	-8.00095
▁Mr	-8.00108
▁juta	-8.00259
▁now	-8.00745
Saya	-8.00749
▁Obama	-8.01228
▁get	-8.01297
▁lelaki	-8.02322
en	-8.0336
▁harus	-8.04156
▁my	-8.04498
h	-8.05017
▁memberi	-8.05266
▁This	-8.05364
▁make	-8.05408
▁And	-8.05512
▁dunia	-8.05886
▁Dr	-8.05919
▁hingga	-8.06771
▁many	-8.07506
▁anak	-8.078
▁RM	-8.08108
▁luar	-8.08273
▁jika	-8.08406
▁masih	-8.09246
▁state	-8.09366
3	-8.10312
▁before	-8.10367
▁kawasan	-8.10469
▁paling	-8.10742
▁sendiri	-8.10892
▁sebelum	-8.11118
▁terletak	-8.11813
▁through	-8.11841
▁setiap	-8.12419
▁salah	-8.13031
▁country	-8.1364
ers	-8.13774
▁berada	-8.13786
▁how	-8.13988
▁Ini	-8.14048
▁berkata	-8.14266
▁bawah	-8.14293
▁termasuk	-8.14416
or	-8.14465
▁media	-8.14533
▁selama	-8.14533
▁made	-8.14533
▁where	-8.14656
▁such	-8.1494
▁any	-8.14969
▁company	-8.15612
▁wanita	-8.1666
on	-8.1727
undang	-8.17293
▁being	-8.17322
T	-8.17628
to	-8.17958
▁menunjukkan	-8.18219
▁E	-8.1855
▁mendapat	-8.18688
▁menggunakan	-8.1899
▁China	-8.1919
▁berlaku	-8.19487
▁back	-8.20029
▁perlu	-8.2059
▁well	-8.21037
▁pernah	-8.21494
▁even	-8.21585
▁located	-8.21671
▁2016	-8.21695
▁melalui	-8.21889
▁diri	-8.21928
▁while	-8.22008
▁should	-8.22343
▁semasa	-8.22437
▁during	-8.2272
▁work	-8.22745
c	-8.22844
▁tinggi	-8.23121
▁mengambil	-8.23204
▁4	-8.23343
]	-8.23398
▁three	-8.23424
▁kedua	-8.23994
▁Dalam	-8.24822
▁those	-8.2492
l	-8.2504
▁program	-8.25057
▁bersama	-8.25132
▁world	-8.25266
▁still	-8.25524
▁ber	-8.25616
4	-8.25758
▁per	-8.2631
▁told	-8.26674
is	-8.27036
B	-8.27454
▁sehingga	-8.27516
▁kali	-8.27606
▁tahu	-8.27713
▁utama	-8.27715
▁way	-8.27823
g	-8.28287
u	-8.28371
▁perkara	-8.28421
▁[	-8.28578
▁here	-8.2858
▁ialah	-8.28677
▁masalah	-8.28938
▁under	-8.2918
▁20	-8.30034
▁bandar	-8.30077
▁think	-8.30362
▁these	-8.30404
▁kemudian	-8.30746
▁may	-8.30856
▁don	-8.31089
▁tiga	-8.31113
▁much	-8.31541
▁very	-8.33062
▁know	-8.3317
▁B	-8.33513
▁percent	-8.3395
▁5	-8.34277
▁18	-8.34495
▁minggu	-8.34614
at	-8.34682
▁then	-8.34835
▁negeri	-8.34993
b	-8.35388
We	-8.35391
ar	-8.35406
▁take	-8.35555
▁down	-8.35645
le	-8.36036
▁Ke	-8.36272
di	-8.36751
▁Clinton	-8.37016
▁C	-8.37092
▁Datuk	-8.37325
▁sudah	-8.37561
▁including	-8.37623
▁kembali	-8.37938
▁peratus	-8.38036
▁Ia	-8.38249
6	-8.38336
▁6	-8.38895
▁Indonesia	-8.39105
▁going	-8.39265
▁Images	-8.39637
▁tanpa	-8.3981
▁want	-8.39961
▁day	-8.40005
▁awal	-8.40194
▁presiden	-8.40259
▁between	-8.40376
▁So	-8.40505
▁kerajaan	-8.40721
▁semula	-8.40963
▁air	-8.41147
▁sejak	-8.41173
▁against	-8.41182
▁did	-8.41555
▁As	-8.41595
ll	-8.41708
M	-8.41783
D	-8.41816
▁Al	-8.41859
▁used	-8.41914
▁sekarang	-8.41929
▁We	-8.41948
▁terus	-8.42188
▁since	-8.42298
▁malam	-8.42427
▁say	-8.42565
▁see	-8.42632
▁kini	-8.42676
▁selepas	-8.42811
de	-8.43139
▁de	-8.43238
▁harga	-8.43266
▁pihak	-8.43327
7	-8.43481
▁P	-8.436
▁home	-8.43995
▁12	-8.44317
▁ekonomi	-8.44332
▁memberikan	-8.44374
▁kecil	-8.44532
▁men	-8.45194
▁video	-8.45329
▁sini	-8.45772
▁same	-8.46132
▁2014	-8.46189
▁para	-8.46306
▁need	-8.46933
▁D	-8.46967
▁O	-8.47021
▁good	-8.47138
us	-8.47232
▁musim	-8.47396
ta	-8.47449
p	-8.4748
▁15	-8.47517
▁For	-8.47672
▁T	-8.47764
▁go	-8.47766
▁off	-8.47834
▁wang	-8.48137
▁National	-8.49113
▁lama	-8.49138
▁sekitar	-8.49138
▁around	-8.49349
▁cara	-8.49603
▁To	-8.49699
▁Mereka	-8.4974
▁pasukan	-8.49795
▁long	-8.50231
8	-8.50249
▁membantu	-8.50336
K	-8.50659
la	-8.50773
▁hampir	-8.50859
▁ingin	-8.50867
P	-8.51098
na	-8.513
▁right	-8.51358
se	-8.51593
year	-8.51806
▁30	-8.51809
▁April	-8.52528
▁John	-8.52635
▁They	-8.52697
▁public	-8.52792
▁United	-8.52877
▁politik	-8.52907
▁Syarikat	-8.52949
9	-8.53066
▁jalan	-8.53067
▁data	-8.53148
▁perniagaan	-8.53241
▁filem	-8.53384
▁Presiden	-8.53457
▁serta	-8.53696
▁That	-8.5376
am	-8.54029
▁bagaimana	-8.54112
un	-8.54249
▁M	-8.54361
▁undang	-8.54517
It	-8.54546
▁own	-8.54581
▁biasa	-8.54625
▁kumpulan	-8.5471
▁memiliki	-8.548
▁Menteri	-8.55118
▁pilihan	-8.55196
▁today	-8.55921
▁City	-8.56456
▁sekolah	-8.56881
▁high	-8.57053
▁G	-8.57732
▁2015	-8.57789
▁use	-8.57933
▁tentang	-8.58083
▁President	-8.58192
▁N	-8.58211
▁She	-8.58268
te	-8.58302
▁penting	-8.58411
▁seluruh	-8.58679
▁jumlah	-8.5893
▁part	-8.58945
▁life	-8.58988
▁billion	-8.5899
ke	-8.59056
ma	-8.59121
▁walaupun	-8.59214
▁keluarga	-8.59502
da	-8.60139
▁business	-8.60474
▁rasa	-8.60567
▁bahagian	-8.60798
▁St	-8.61294
▁week	-8.61306
▁found	-8.61669
▁San	-8.61765
Foto	-8.6187
▁kereta	-8.61917
▁depan	-8.61993
G	-8.62005
▁family	-8.62386
▁meningkat	-8.62523
▁On	-8.62818
it	-8.62869
▁help	-8.62877
▁berusia	-8.63012
▁7	-8.63261
as	-8.63302
▁R	-8.63315
▁pegawai	-8.63386
▁There	-8.64008
▁datang	-8.64209
▁next	-8.64355
▁us	-8.64361
▁American	-8.64363
▁Washington	-8.6449
▁Islam	-8.64727
▁police	-8.64816
▁K	-8.65513
▁September	-8.65513
ri	-8.65547
▁Tidak	-8.65592
▁called	-8.65681
▁group	-8.65742
z	-8.65778
li	-8.65781
▁8	-8.65817
▁Minister	-8.65937
▁digunakan	-8.66321
▁show	-8.66344
▁11	-8.66409
▁terakhir	-8.66755
▁If	-8.668
▁No	-8.66927
▁jam	-8.66945
old	-8.66992
▁dilakukan	-8.67122
▁sedang	-8.67182
▁rakan	-8.67269
▁menarik	-8.67703
▁membawa	-8.68032
▁market	-8.68037
N	-8.68084
▁number	-8.68194
R	-8.68531
▁women	-8.68568
▁pekerjaan	-8.68715
benar	-8.68744
ter	-8.68781
▁hidup	-8.6882
▁Se	-8.68843
▁best	-8.6902
▁bilion	-8.69151
▁Apple	-8.69156
▁beliau	-8.69214
me	-8.69521
▁Facebook	-8.70215
▁University	-8.70345
▁sedikit	-8.70381
▁set	-8.7052
▁W	-8.70807
▁California	-8.70883
▁ibu	-8.70929
▁masuk	-8.71037
▁&	-8.71059
el	-8.71061
▁pekerja	-8.7109
he	-8.71135
▁another	-8.71142
▁both	-8.71184
▁polis	-8.71219
▁school	-8.71443
▁memberitahu	-8.71485
▁CNN	-8.71602
▁bekerja	-8.71653
Kami	-8.71766
kira	-8.72255
the	-8.72349
0	-8.72459
▁State	-8.725
▁tanah	-8.72635
▁according	-8.72652
▁city	-8.72767
▁menurut	-8.72962
▁14	-8.73347
▁mencari	-8.73372
▁ahli	-8.73391
▁Walaupun	-8.73395
▁area	-8.7358
▁mahu	-8.73919
▁House	-8.74114
▁issue	-8.74651
▁AS	-8.74692
▁pasaran	-8.74728
▁Yang	-8.74786
▁Anda	-8.74979
▁J	-8.75032
J	-8.75159
▁gambar	-8.75164
▁former	-8.7529
▁money	-8.75636
▁F	-8.7578
and	-8.75808
▁At	-8.75829
▁2013	-8.75869
▁news	-8.75911
▁four	-8.75929
▁really	-8.76114
▁team	-8.76175
▁jelas	-8.76271
E	-8.76313
▁too	-8.76484
▁De	-8.76793
▁akhir	-8.76818
▁come	-8.76907
▁pergi	-8.77061
▁end	-8.77153
▁pelajar	-8.77264
▁2012	-8.77352
▁place	-8.77376
▁empat	-8.77388
▁Iran	-8.77402
▁November	-8.77488
▁isu	-8.77511
et	-8.77555
▁permainan	-8.77663
ah	-8.78385
▁16	-8.7852
▁second	-8.78602
▁sistem	-8.78725
▁raya	-8.78751
▁13	-8.78892
▁9	-8.78939
no	-8.79014
▁Sekiranya	-8.79155
▁Twitter	-8.79508
▁president	-8.79626
▁benar	-8.79842
▁You	-8.79854
ti	-8.79907
si	-8.80253
▁laporan	-8.80438
▁sesuatu	-8.80597
baru	-8.80791
▁Mac	-8.8118
able	-8.81241
▁India	-8.81354
▁lot	-8.81706
Photo	-8.81719
▁never	-8.81754
▁sebahagian	-8.81782
▁keluar	-8.82215
▁companies	-8.82264
▁sahaja	-8.82408
▁every	-8.82553
▁terdapat	-8.82663
ton	-8.83022
▁calon	-8.83053
▁berjaya	-8.83302
▁nama	-8.83362
L	-8.83662
▁School	-8.83692
orang	-8.83762
up	-8.83795
▁pemain	-8.83986
ak	-8.84036
▁Ber	-8.84403
▁Kami	-8.84548
▁La	-8.84566
▁perkhidmatan	-8.84674
ne	-8.84714
▁case	-8.84883
▁report	-8.85123
▁meminta	-8.85138
▁each	-8.85196
▁anggota	-8.85412
▁berusaha	-8.85462
▁17	-8.85519
▁serangan	-8.85638
▁apabila	-8.85653
sa	-8.85964
▁rendah	-8.85975
▁Re	-8.86034
▁Kerajaan	-8.86132
x	-8.86291
per	-8.86559
ka	-8.86691
son	-8.86865
f	-8.87035
▁system	-8.87122
▁jauh	-8.87296
▁News	-8.8735
▁does	-8.87424
W	-8.87485
▁terbaik	-8.87707
▁cukai	-8.87718
▁Seri	-8.87797
▁sebanyak	-8.87845
▁left	-8.87952
▁lima	-8.87968
▁belum	-8.8803
▁support	-8.88081
▁kes	-8.88094
co	-8.8833
▁sementara	-8.88395
▁menyatakan	-8.88403
▁party	-8.88411
▁keputusan	-8.88553
ang	-8.88604
▁mendapatkan	-8.88813
▁Untuk	-8.88832
▁memerlukan	-8.88977
▁muncul	-8.89021
ra	-8.89177
19	-8.89207
▁children	-8.89266
▁begitu	-8.89342
▁district	-8.89387
▁five	-8.89577
▁big	-8.89598
▁idea	-8.89721
▁rancangan	-8.90027
▁pemerintah	-8.90063
lah	-8.90106
ting	-8.90143
▁keadaan	-8.90152
▁known	-8.90343
▁look	-8.90433
▁few	-8.90488
dua	-8.90574
▁bank	-8.90687
▁days	-8.90717
st	-8.90834
▁later	-8.90844
▁better	-8.90912
▁Me	-8.91206
▁TV	-8.91308
▁mudah	-8.91433
▁Negara	-8.91598
▁semakin	-8.91599
▁meningkatkan	-8.91954
▁wilayah	-8.92106
▁makanan	-8.92251
▁global	-8.92275
▁South	-8.92479
▁without	-8.92629
▁pengguna	-8.92662
▁pasti	-8.92672
▁50	-8.92856
▁daerah	-8.92897
▁One	-8.93102
▁sekali	-8.93133
▁several	-8.93173
▁political	-8.93556
▁tentera	-8.93598
▁kurang	-8.93611
▁mula	-8.93614
▁London	-8.93624
▁tetap	-8.93665
▁Getty	-8.93682
▁kerja	-8.9374
▁Ketua	-8.93846
▁things	-8.93875
▁got	-8.9392
w	-8.94017
▁cukup	-8.9408
▁Le	-8.94109
▁usaha	-8.9418
▁mata	-8.94296
▁menjadikan	-8.94384
▁un	-8.94737
▁jadi	-8.94793
ro	-8.94876
▁something	-8.94882
▁won	-8.95025
kanak	-8.95082
▁H	-8.95138
▁America	-8.95264
▁menerima	-8.9533
▁bekas	-8.95356
ur	-8.95645
▁until	-8.95839
▁keselamatan	-8.96037
▁West	-8.96142
▁campaign	-8.9622
▁might	-8.96281
▁run	-8.96341
men	-8.96397
▁kadar	-8.96548
▁pendapatan	-8.96634
▁sukar	-8.96808
ca	-8.96852
▁25	-8.96857
▁awam	-8.96892
▁Perancis	-8.96924
do	-8.96968
▁national	-8.96998
▁didn	-8.97087
▁among	-8.97184
ce	-8.97215
▁World	-8.97258
▁sebelumnya	-8.97293
▁May	-8.97417
▁masyarakat	-8.9751
▁law	-8.97531
▁memilih	-8.97548
ku	-8.97713
▁maklumat	-8.97816
▁man	-8.97827
▁tinggal	-8.97831
▁kuat	-8.98063
▁top	-8.98113
▁berita	-8.98156
il	-8.9832
ch	-8.9838
▁Oleh	-8.98402
▁Co	-8.98514
H	-8.98552
▁co	-8.98632
▁ketua	-8.98655
▁rakyat	-8.98812
▁*	-8.98875
▁menyebabkan	-8.99142
▁100	-8.99307
▁When	-8.99465
▁name	-8.99491
▁members	-8.99635
▁sepanjang	-8.99645
▁night	-8.99669
▁put	-8.99939
der	-8.99952
▁statement	-8.99996
▁tindakan	-9.00101
▁2010	-9.00132
▁L	-9.00157
▁past	-9.00264
▁find	-9.00353
▁pelbagai	-9.00395
▁took	-9.00507
▁Per	-9.00602
ga	-9.00906
anak	-9.00961
▁pusat	-9.00988
▁early	-9.01195
Ini	-9.01234
▁Dengan	-9.0126
▁great	-9.01467
▁far	-9.01502
wa	-9.01626
▁States	-9.01789
▁waktu	-9.01849
mo	-9.01915
▁information	-9.01915
▁terbesar	-9.02071
▁game	-9.02079
▁Street	-9.02166
▁little	-9.0224
▁industri	-9.02252
▁Government	-9.02373
▁Donald	-9.02383
F	-9.02387
▁teknologi	-9.02639
▁Beliau	-9.02643
▁car	-9.02787
▁kesihatan	-9.03029
▁different	-9.03073
▁membeli	-9.03243
lu	-9.03383
▁sana	-9.03439
▁real	-9.03457
▁Google	-9.03526
▁terkenal	-9.03537
▁came	-9.0354
▁months	-9.03552
▁US	-9.03667
▁bermula	-9.03768
▁Namun	-9.038
▁kira	-9.03932
10	-9.03953
▁kewangan	-9.03956
▁making	-9.03966
▁An	-9.04124
ik	-9.04127
ia	-9.04403
▁Kuala	-9.04403
▁David	-9.04407
▁Negeri	-9.0447
ber	-9.04721
▁North	-9.0475
▁iaitu	-9.04879
▁important	-9.04912
▁month	-9.05038
▁Michael	-9.05053
▁What	-9.05124
▁berbeza	-9.05264
▁perjalanan	-9.05391
▁Bank	-9.05408
be	-9.05771
ni	-9.05816
▁belakang	-9.05825
pa	-9.05879
apa	-9.0588
ic	-9.06093
▁laman	-9.06164
▁local	-9.06188
▁Department	-9.06228
ation	-9.06402
▁sebenarnya	-9.06442
▁health	-9.06443
▁social	-9.06446
▁terlalu	-9.06554
▁saham	-9.06641
▁always	-9.06657
▁power	-9.06713
▁less	-9.06744
▁Itu	-9.06865
▁hubungan	-9.06902
▁village	-9.06927
▁water	-9.07023
▁popular	-9.07035
▁bercakap	-9.07088
▁web	-9.07149
▁bermain	-9.07161
ry	-9.07294
▁whether	-9.07315
▁students	-9.0759
▁Jun	-9.07652
▁sosial	-9.07751
▁Friday	-9.08362
▁pagi	-9.08441
▁dibuat	-9.08579
▁akhirnya	-9.08595
ian	-9.08617
▁Tuesday	-9.08662
▁Los	-9.08856
▁2011	-9.08923
▁buku	-9.09311
AP	-9.09406
▁least	-9.0945
▁change	-9.09663
ment	-9.0977
go	-9.09874
ty	-9.09987
▁film	-9.10003
▁small	-9.10065
▁ter	-9.10119
▁kaki	-9.10453
▁Selasa	-9.10493
▁become	-9.10685
▁Sekolah	-9.10849
▁Monday	-9.1087
▁often	-9.10967
▁penduduk	-9.11259
▁seen	-9.11288
▁Jabatan	-9.11594
▁tax	-9.11662
▁issues	-9.11701
▁Republican	-9.1183
▁After	-9.11852
▁kapal	-9.12108
▁job	-9.12168
▁March	-9.1226
▁Malaysian	-9.12285
▁berkaitan	-9.1231
O	-9.12362
▁hak	-9.12399
▁pay	-9.12496
▁According	-9.12548
▁Boston	-9.13001
▁kenyataan	-9.13034
▁Syria	-9.1304
▁total	-9.13045
mel	-9.13174
▁season	-9.13197
20	-9.13199
▁taken	-9.13274
▁why	-9.13352
▁Mei	-9.13615
▁ago	-9.13798
▁must	-9.13855
ir	-9.13972
▁24	-9.13973
▁hasil	-9.1402
▁mengetahui	-9.14069
▁muda	-9.1416
▁However	-9.14302
▁ramai	-9.14403
▁Australia	-9.14583
▁war	-9.1459
▁kos	-9.1459
▁already	-9.14641
▁Orang	-9.14728
▁telefon	-9.148
▁mati	-9.14995
▁community	-9.15074
▁mengalami	-9.152
▁bentuk	-9.15233
▁40	-9.15354
▁tempatan	-9.15438
▁Center	-9.15562
▁hospital	-9.15602
▁kelihatan	-9.15653
▁fact	-9.15775
▁21	-9.15832
▁2008	-9.15894
▁berjalan	-9.15951
▁kehilangan	-9.15988
▁Paul	-9.15994
▁away	-9.16153
▁tepat	-9.16155
ity	-9.16156
▁Isnin	-9.16369
ge	-9.16474
▁jenis	-9.16682
▁sering	-9.1669
▁pemimpin	-9.16931
▁point	-9.16984
▁asked	-9.17245
▁industry	-9.17264
▁June	-9.17499
lo	-9.17656
▁bilik	-9.17763
▁Seorang	-9.17936
▁Jumaat	-9.18117
▁All	-9.18178
▁kehidupan	-9.18201
▁kempen	-9.18316
▁give	-9.18318
▁pun	-9.1854
▁story	-9.18683
▁model	-9.18865
▁tengah	-9.18998
▁tahap	-9.19133
▁Rabu	-9.19165
▁parti	-9.19179
▁Thursday	-9.19318
▁bola	-9.19354
bo	-9.19467
▁tangan	-9.19498
▁membayar	-9.19502
▁again	-9.1958
▁Mohd	-9.19885
▁Ketika	-9.19962
▁service	-9.2003
▁especially	-9.2008
▁working	-9.20208
▁turun	-9.20226
ut	-9.20265
▁seseorang	-9.20278
▁Eropah	-9.20442
▁doesn	-9.20471
▁percaya	-9.20518
▁reported	-9.20589
▁Wednesday	-9.20785
▁produk	-9.20816
▁Abdul	-9.21016
▁Angeles	-9.21026
▁major	-9.2107
▁meninggalkan	-9.2109
▁minyak	-9.21112
▁His	-9.21136
▁Selatan	-9.21214
▁enam	-9.21237
▁keseluruhan	-9.21353
▁projek	-9.21379
▁19	-9.21445
ja	-9.21625
▁six	-9.21652
▁panjang	-9.21741
▁countries	-9.21887
▁head	-9.21917
▁office	-9.22066
ling	-9.22115
▁peluang	-9.22128
▁person	-9.22175
▁went	-9.22254
▁thing	-9.22285
▁kemungkinan	-9.22336
▁deal	-9.22437
▁@	-9.22551
▁selalu	-9.22574
ad	-9.22582
▁Israel	-9.226
ung	-9.22734
▁langkah	-9.22848
ley	-9.2303
▁pelanggan	-9.23032
▁Sunday	-9.23065
▁suara	-9.23142
ji	-9.23209
▁perubahan	-9.23245
▁Nasional	-9.2327
▁though	-9.23424
▁Demokrat	-9.23431
pe	-9.23483
▁dilihat	-9.23571
▁oil	-9.23632
▁economic	-9.23681
▁Romney	-9.23785
▁future	-9.23916
▁Korea	-9.23917
▁financial	-9.24056
▁sumber	-9.24164
▁France	-9.24232
▁recent	-9.24294
▁hard	-9.24303
▁hebat	-9.24318
▁Khamis	-9.24348
▁decision	-9.24411
▁start	-9.24489
▁free	-9.24527
▁cepat	-9.24572
kurangnya	-9.24616
▁mencapai	-9.24617
▁penuh	-9.24686
▁Apa	-9.24712
▁death	-9.24713
▁ruang	-9.24845
▁care	-9.24872
▁anti	-9.25078
▁play	-9.25156
▁kuasa	-9.25192
▁given	-9.25361
um	-9.254
▁menyokong	-9.25488
▁Javascript	-9.25525
▁held	-9.25536
▁young	-9.25679
▁development	-9.25698
▁following	-9.25742
U	-9.25773
▁menulis	-9.26066
age	-9.2628
▁2009	-9.26287
▁buruk	-9.26334
▁continue	-9.26369
▁Sa	-9.26498
ner	-9.26499
▁manusia	-9.2664
▁Men	-9.26653
▁perang	-9.26719
▁expected	-9.26818
▁enough	-9.26942
▁July	-9.26976
ion	-9.27032
▁lakukan	-9.27036
▁Perdana	-9.27049
Getty	-9.27078
▁line	-9.27156
▁keep	-9.27201
▁Asia	-9.27425
▁International	-9.27495
▁nilai	-9.27594
j	-9.27596
▁memastikan	-9.27704
▁sejarah	-9.27734
▁menghasilkan	-9.27751
▁Park	-9.27781
▁Terdapat	-9.27833
▁Kampung	-9.27856
▁dikenali	-9.27879
▁cost	-9.27906
▁open	-9.27944
▁p	-9.27973
▁Pe	-9.28046
▁Hillary	-9.28164
▁military	-9.28257
▁Republikan	-9.28331
▁se	-9.28561
▁process	-9.28584
▁security	-9.28631
▁using	-9.28662
▁Be	-9.28751
mana	-9.28781
ist	-9.28806
ba	-9.28876
▁CEO	-9.29006
▁Britain	-9.29147
gen	-9.29246
▁times	-9.29278
▁Adakah	-9.29288
▁22	-9.29303
▁V	-9.29336
▁full	-9.29347
▁Do	-9.29349
▁British	-9.29392
land	-9.29427
▁makan	-9.2948
▁White	-9.29522
▁level	-9.29534
ko	-9.29562
▁court	-9.29591
▁menghadapi	-9.29608
▁batu	-9.2963
▁Ka	-9.29636
▁believe	-9.29637
▁saying	-9.29666
▁berdasarkan	-9.2967
▁economy	-9.29735
▁Oktober	-9.29747
▁able	-9.2988
▁memperoleh	-9.29883
▁released	-9.30134
▁turut	-9.30247
▁bahasa	-9.30253
▁Januari	-9.30305
▁began	-9.30306
▁bahan	-9.30336
▁With	-9.30462
▁plan	-9.30484
ive	-9.3055
▁Iraq	-9.30558
ul	-9.30622
&	-9.30643
ha	-9.3071
▁Francisco	-9.30723
▁senjata	-9.30761
▁suka	-9.30876
ate	-9.30894
▁near	-9.30913
▁menentang	-9.30934
▁saat	-9.31064
▁Julai	-9.31267
▁food	-9.31309
▁addition	-9.3131
30	-9.31376
▁terbang	-9.31594
▁lost	-9.31779
▁problem	-9.31942
▁price	-9.32029
▁tiba	-9.32295
▁proses	-9.32393
less	-9.32477
▁Mo	-9.32583
▁officials	-9.32596
▁George	-9.32603
tu	-9.32729
▁likely	-9.32778
▁penjualan	-9.32859
▁laut	-9.32891
▁added	-9.32941
▁nampaknya	-9.33023
tahun	-9.33065
▁23	-9.33302
▁mesti	-9.33369
▁dana	-9.33382
asi	-9.33389
▁across	-9.33485
▁panas	-9.3357
In	-9.33707
▁mendorong	-9.33815
▁doing	-9.33827
▁badan	-9.33827
▁pejabat	-9.33829
▁James	-9.33971
▁short	-9.34022
▁hit	-9.34109
▁mengeluarkan	-9.34231
▁dasar	-9.34312
▁love	-9.34471
▁received	-9.34479
Y	-9.3448
15	-9.34502
▁bahkan	-9.34576
▁Y	-9.34596
50	-9.34616
▁move	-9.34763
▁seni	-9.3482
This	-9.34837
sh	-9.34841
▁ketiga	-9.34864
14	-9.34894
▁Bush	-9.3504
▁Republik	-9.35049
▁Fox	-9.3511
▁Menurut	-9.35275
▁gas	-9.35287
▁based	-9.35289
▁langsung	-9.35297
▁once	-9.35312
▁Sebagai	-9.35381
▁due	-9.35394
▁others	-9.35498
▁berbanding	-9.35502
▁trying	-9.35556
▁Su	-9.35635
▁presidential	-9.35712
▁done	-9.3573
▁kedai	-9.35853
kata	-9.35918
▁call	-9.35918
▁Barat	-9.35971
▁Mahathir	-9.35981
▁sesuai	-9.36042
▁East	-9.3609
▁0	-9.36115
▁agar	-9.36115
▁election	-9.36179
▁tenaga	-9.36408
▁control	-9.36497
▁perjanjian	-9.36546
▁large	-9.3681
ness	-9.36813
▁kedudukan	-9.36859
▁technology	-9.36905
▁bebas	-9.37035
▁book	-9.37169
▁live	-9.37332
▁kampung	-9.37355
▁history	-9.37411
im	-9.37412
▁Prime	-9.37417
▁album	-9.3742
ya	-9.37568
au	-9.37657
▁half	-9.37717
▁kebanyakan	-9.37835
▁Ogos	-9.37861
ong	-9.37862
▁building	-9.37866
▁growth	-9.37873
▁2019	-9.38013
▁Bill	-9.38021
▁example	-9.38059
▁Mar	-9.38066
▁Ar	-9.38081
▁menawarkan	-9.38081
▁house	-9.38173
▁director	-9.38275
▁announced	-9.3851
▁project	-9.3854
▁feel	-9.38542
▁saja	-9.38547
mer	-9.38566
▁Man	-9.38587
▁Ahmad	-9.38692
▁kesan	-9.38734
▁pro	-9.38739
▁close	-9.3874
▁melakukannya	-9.38761
00	-9.38804
▁Jerman	-9.38896
▁berkenaan	-9.38906
▁Hari	-9.38934
▁Disember	-9.38982
▁third	-9.38983
▁late	-9.39198
▁Texas	-9.3923
▁having	-9.39279
▁Ahad	-9.39307
ham	-9.39365
▁became	-9.39382
▁non	-9.39438
▁sokongan	-9.39516
▁together	-9.39519
▁body	-9.39564
▁role	-9.39667
▁api	-9.39774
id	-9.39972
▁Chinese	-9.4008
▁perasaan	-9.4008
▁Florida	-9.40164
▁jangka	-9.40359
bi	-9.40367
▁January	-9.40405
@	-9.40435
▁ever	-9.40465
▁getting	-9.40507
▁berkuasa	-9.40618
▁along	-9.4062
▁comes	-9.40631
▁merangkumi	-9.40833
Dia	-9.40899
▁region	-9.40994
den	-9.4106
▁increase	-9.41133
▁While	-9.41187
▁merasa	-9.41215
lin	-9.41353
▁face	-9.41449
▁More	-9.41641
▁disebut	-9.41762
▁final	-9.41832
▁special	-9.41853
v	-9.41853
▁Dewan	-9.41927
▁private	-9.41949
He	-9.42008
▁Utara	-9.42163
▁melaporkan	-9.42169
▁kematian	-9.42229
▁taking	-9.42283
▁Rusia	-9.42299
▁kind	-9.42311
▁operasi	-9.42326
based	-9.4234
▁mengapa	-9.42359
▁woman	-9.4237
po	-9.4244
▁peribadi	-9.42508
time	-9.42536
▁yet	-9.42585
▁sales	-9.42589
▁meeting	-9.42692
▁policy	-9.42732
▁26	-9.42798
▁Pro	-9.4282
▁mengurangkan	-9.42864
▁study	-9.42889
▁2018	-9.4307
▁THE	-9.43101
▁pengarah	-9.43143
▁OF	-9.43233
▁Go	-9.43253
▁clear	-9.43287
▁services	-9.43365
▁Ben	-9.43384
▁Tun	-9.43422
▁single	-9.43424
▁almost	-9.43517
▁started	-9.43527
▁series	-9.43595
▁Pegawai	-9.43671
▁hilang	-9.43717
V	-9.43734
▁Sabah	-9.43746
▁thought	-9.43828
▁menolak	-9.43831
▁perhatian	-9.43967
▁bermaksud	-9.43995
▁tambahan	-9.44083
▁berubah	-9.44118
▁hand	-9.44178
▁Pa	-9.44218
gi	-9.44241
▁memenangi	-9.44254
ck	-9.44267
▁Internet	-9.44297
▁kelas	-9.44317
▁Polis	-9.44328
▁Mark	-9.44466
▁talian	-9.44492
▁UMNO	-9.44571
▁action	-9.44654
▁kanak	-9.44684
▁kota	-9.44785
▁hati	-9.44822
▁penerbangan	-9.44847
▁outside	-9.45114
ism	-9.45132
ie	-9.45134
▁El	-9.45168
▁peringkat	-9.45277
▁surat	-9.45321
▁terbuka	-9.45463
▁rate	-9.45501
▁event	-9.45535
▁berkembang	-9.45541
▁candidate	-9.45575
▁course	-9.45609
▁suku	-9.45613
▁Jepun	-9.45622
▁Police	-9.45721
▁Pusat	-9.45742
▁28	-9.45746
▁pelaburan	-9.45756
▁buah	-9.45792
▁provide	-9.45799
dan	-9.45819
40	-9.45829
▁question	-9.45869
▁kajian	-9.45951
▁Now	-9.46005
▁low	-9.46011
▁apakah	-9.46022
▁sekurang	-9.46098
ci	-9.46119
▁killed	-9.46206
▁department	-9.46217
▁order	-9.46373
▁Some	-9.46387
▁current	-9.46401
▁Kementerian	-9.46414
▁segera	-9.4646
▁Sri	-9.46471
▁bangunan	-9.46714
▁Inc	-9.46769
▁needs	-9.46797
ler	-9.46806
▁include	-9.46877
▁muzik	-9.46883
▁tempoh	-9.46913
▁memulakan	-9.4692
▁Sultan	-9.4699
▁looking	-9.47065
▁Press	-9.4708
▁behind	-9.471
▁memutuskan	-9.47136
▁jabatan	-9.47226
ary	-9.47315
▁jatuh	-9.4737
▁pertumbuhan	-9.47473
▁Tan	-9.47474
▁dirinya	-9.47681
ok	-9.47748
satunya	-9.47863
▁lagu	-9.47975
▁digital	-9.48019
▁Melayu	-9.48124
▁chief	-9.48125
one	-9.48146
▁hal	-9.48158
▁Ministry	-9.48184
▁kisah	-9.48185
rs	-9.48273
▁mengubah	-9.48586
▁By	-9.48615
▁Februari	-9.48635
▁win	-9.48673
▁prices	-9.48709
▁General	-9.48919
▁kenderaan	-9.49004
▁black	-9.49043
▁wanted	-9.49099
▁human	-9.49206
▁King	-9.4925
▁People	-9.49308
▁Air	-9.49312
ted	-9.4942
▁online	-9.49449
▁dikeluarkan	-9.49471
▁August	-9.49504
▁komun	-9.49586
▁federal	-9.49808
▁Times	-9.49908
▁umum	-9.49913
▁60	-9.49939
▁Johor	-9.49946
▁mengumumkan	-9.50078
▁Mexico	-9.50099
▁actually	-9.50099
ine	-9.50224
▁Selangor	-9.50285
CNN	-9.50291
▁share	-9.5039
▁October	-9.50506
▁mother	-9.50519
▁movie	-9.50699
▁father	-9.50778
va	-9.50839
▁peraturan	-9.50866
▁bapa	-9.50899
za	-9.50932
▁persekutuan	-9.50938
du	-9.50977
▁Con	-9.50982
▁$1	-9.51173
▁Lu	-9.51177
▁kenaikan	-9.51212
▁perempuan	-9.51302
▁bantuan	-9.514
▁mangsa	-9.51432
tan	-9.51449
▁mendengar	-9.51514
▁hours	-9.51602
▁hitam	-9.51604
▁mendapati	-9.51701
fi	-9.51756
▁wrote	-9.51757
▁berat	-9.51782
▁Ali	-9.51826
▁kanan	-9.51865
▁matter	-9.51922
▁terutama	-9.51948
▁Bagi	-9.51956
▁balas	-9.52009
▁possible	-9.52056
▁Timur	-9.52077
▁within	-9.52085
▁sure	-9.52088
▁town	-9.52101
▁pendidikan	-9.52227
▁mahkamah	-9.52302
▁duduk	-9.52302
▁27	-9.52358
▁pen	-9.52363
bu	-9.5242
▁Or	-9.52503
ki	-9.52537
▁Mohamad	-9.52537
▁Saturday	-9.52579
▁My	-9.52579
▁Federal	-9.52637
▁average	-9.52679
▁old	-9.52828
▁terlibat	-9.52861
▁menambah	-9.52882
▁eksekutif	-9.5301
▁Lumpur	-9.5301
▁period	-9.53022
▁unit	-9.53074
▁tertentu	-9.53128
day	-9.53222
▁leaders	-9.53421
▁Setelah	-9.53446
▁recently	-9.5355
▁capital	-9.53589
▁read	-9.53637
▁Dunia	-9.53705
▁means	-9.53734
▁siapa	-9.53743
▁gagal	-9.5376
▁menjual	-9.53833
▁perdagangan	-9.53838
▁Chicago	-9.53876
▁credit	-9.53987
▁AP	-9.54004
▁Brown	-9.54282
▁pre	-9.54307
▁list	-9.54315
▁result	-9.54323
▁lead	-9.5436
▁Court	-9.5445
▁attack	-9.54527
▁cuba	-9.54548
▁Wall	-9.5455
▁makes	-9.54574
▁record	-9.54622
ek	-9.54807
▁site	-9.54878
▁War	-9.55012
▁population	-9.55031
led	-9.55066
▁international	-9.55099
mi	-9.55115
▁official	-9.55124
▁photos	-9.55135
▁side	-9.55232
▁penggunaan	-9.55306
hi	-9.55313
▁meletakkan	-9.55328
▁fikir	-9.55332
▁Kanada	-9.55348
ger	-9.55378
▁Sabtu	-9.5538
▁Senator	-9.55544
▁antarabangsa	-9.55568
▁December	-9.55578
▁research	-9.55618
▁post	-9.55628
▁49	-9.55633
▁foto	-9.55848
uk	-9.5585
ten	-9.55983
off	-9.56014
▁Kebangsaan	-9.5603
▁Photo	-9.56123
▁further	-9.56219
▁music	-9.56269
▁fire	-9.56298
▁agama	-9.56329
▁tuduhan	-9.56392
▁Arab	-9.5645
▁higher	-9.56567
▁pesawat	-9.56614
▁membaca	-9.56625
▁mampu	-9.56722
ous	-9.56776
▁2007	-9.56851
▁Lebih	-9.56884
▁hotel	-9.57014
▁involved	-9.57067
▁Day	-9.57069
▁udara	-9.57315
▁shows	-9.57319
▁Tuan	-9.57364
▁various	-9.57385
ran	-9.57394
ap	-9.57575
line	-9.57603
▁general	-9.57616
▁asing	-9.57889
▁barang	-9.57913
▁interest	-9.57944
▁education	-9.58001
25	-9.58004
▁agensi	-9.58052
▁Chris	-9.58056
▁menghabiskan	-9.58086
▁front	-9.58143
by	-9.5817
▁senarai	-9.58258
▁Group	-9.58259
▁led	-9.58294
▁status	-9.58299
▁keuntungan	-9.58383
▁wife	-9.58407
▁berhenti	-9.58407
bar	-9.58431
▁membina	-9.58436
▁earlier	-9.58476
▁Lo	-9.58558
pan	-9.5872
▁nearly	-9.58734
min	-9.5877
▁individu	-9.5888
jo	-9.58917
▁browser	-9.58933
▁berharap	-9.58953
▁foreign	-9.58955
pen	-9.59003
▁child	-9.59026
▁strong	-9.59035
▁kekuatan	-9.59075
▁mulai	-9.59113
Z	-9.59171
os	-9.59221
est	-9.59243
▁dekat	-9.59284
11	-9.59325
▁harta	-9.59453
▁bidang	-9.59504
▁Islamic	-9.59611
kar	-9.59825
▁experience	-9.59826
▁Satu	-9.59841
▁Paris	-9.59881
▁khas	-9.59886
▁Pulau	-9.59904
▁main	-9.5991
▁PM	-9.59926
12	-9.60027
out	-9.60073
hu	-9.6009
▁friends	-9.60151
▁commune	-9.60193
ju	-9.60213
▁Parti	-9.60249
▁states	-9.60292
▁al	-9.60351
▁acara	-9.60373
gar	-9.60441
▁utara	-9.60441
▁peningkatan	-9.60473
▁betul	-9.60486
▁Smith	-9.60509
▁position	-9.60564
▁minit	-9.6058
▁plans	-9.60638
negara	-9.60686
▁Sungai	-9.60762
ol	-9.60786
▁Pen	-9.60799
▁workers	-9.60863
lan	-9.60868
▁Ku	-9.60874
▁kejadian	-9.61013
X	-9.61021
em	-9.61026
▁29	-9.61037
les	-9.61056
▁2017	-9.61073
▁buy	-9.61089
▁vote	-9.61127
▁bergerak	-9.61361
tra	-9.61509
▁Ho	-9.61516
▁permintaan	-9.61552
▁menjalankan	-9.61594
sen	-9.61614
▁bertindak	-9.61636
▁built	-9.61683
▁saw	-9.61763
▁Majlis	-9.61773
▁pelabur	-9.61801
13	-9.61809
▁diberikan	-9.61909
▁How	-9.61959
▁return	-9.62011
▁Her	-9.62486
▁Sementara	-9.62532
▁himself	-9.62547
▁morning	-9.62548
▁Bar	-9.62553
If	-9.62584
▁Afghanistan	-9.62676
▁debt	-9.62701
▁alat	-9.6272
▁gaji	-9.62751
▁areas	-9.62761
▁melancarkan	-9.62762
▁England	-9.62782
▁GOP	-9.62789
▁bintang	-9.62793
▁selamat	-9.62825
▁alasan	-9.62854
▁living	-9.62856
▁Sarawak	-9.62899
rata	-9.62915
▁komen	-9.62975
▁rangkaian	-9.62986
▁bad	-9.62994
▁biasanya	-9.63077
17	-9.63192
▁Ya	-9.63202
▁arah	-9.63229
▁berpendapat	-9.63245
▁berakhir	-9.63315
▁anything	-9.63463
▁rasmi	-9.63553
▁conference	-9.63588
▁Robert	-9.63613
▁income	-9.63673
▁latihan	-9.6382
▁problems	-9.63822
▁ask	-9.63848
▁pakar	-9.63877
▁diperlukan	-9.63892
▁peranan	-9.63972
▁bertemu	-9.63974
▁membunuh	-9.63992
▁mengumpulkan	-9.64108
▁31	-9.64162
▁Dari	-9.6424
▁County	-9.64281
▁Ja	-9.64288
▁art	-9.6432
▁membolehkan	-9.6437
▁Mahkamah	-9.64402
▁wartawan	-9.64542
▁bagaimanapun	-9.64567
▁career	-9.64591
▁keras	-9.64637
16	-9.64679
▁Sen	-9.64721
▁sambil	-9.64728
▁risk	-9.64742
▁Democratic	-9.64767
▁someone	-9.6479
▁500	-9.64795
▁meng	-9.64824
▁iPhone	-9.64845
▁lanjut	-9.64891
ron	-9.64924
▁putih	-9.64989
▁naik	-9.65007
▁Du	-9.65022
▁Kim	-9.65202
▁bin	-9.65251
▁am	-9.65263
Ke	-9.65322
▁tanda	-9.65383
▁karya	-9.65428
▁Airport	-9.65473
▁Ta	-9.65489
▁let	-9.65498
▁Lee	-9.6554
▁reports	-9.65542
▁bernilai	-9.65764
▁Kedah	-9.65799
▁berfungsi	-9.65933
▁semuanya	-9.6594
▁weeks	-9.66
tar	-9.66085
▁ubat	-9.66086
tor	-9.66097
▁Universiti	-9.66167
mu	-9.66202
18	-9.66207
▁race	-9.66323
▁nation	-9.66323
▁room	-9.66381
que	-9.66513
masing	-9.66557
▁isn	-9.66561
▁tidur	-9.66612
▁above	-9.66713
▁sepak	-9.66811
▁sepenuhnya	-9.6685
▁Act	-9.66858
wi	-9.66949
▁products	-9.67025
▁talk	-9.6703
▁stock	-9.67064
▁Perak	-9.67112
▁Muslim	-9.67133
▁dianggap	-9.67186
dy	-9.67225
▁Ma	-9.67248
▁Program	-9.67303
▁Bay	-9.67316
▁pelakon	-9.67407
▁coming	-9.67456
▁Shah	-9.67459
han	-9.67474
▁personal	-9.6757
000	-9.67618
▁pakaian	-9.67674
▁barat	-9.67715
▁II	-9.6782
▁Chief	-9.67935
▁largest	-9.67936
▁investment	-9.68081
▁Martin	-9.68156
▁kesalahan	-9.68276
▁lapangan	-9.6829
▁administration	-9.68315
▁hutang	-9.68367
▁Persekutuan	-9.68444
▁mengadakan	-9.68555
▁published	-9.68619
▁merancang	-9.68627
▁Johnson	-9.68682
▁kemenangan	-9.6885
gu	-9.689
mar	-9.6898
▁petang	-9.69056
▁perbelanjaan	-9.69205
▁latest	-9.69215
▁menyelesaikan	-9.6922
▁stop	-9.69228
way	-9.69246
▁legal	-9.69473
▁diambil	-9.69483
▁dolar	-9.69497
▁via	-9.69514
▁EDT	-9.69573
▁Besar	-9.69576
▁kulit	-9.69615
▁Hollywood	-9.69632
▁Jan	-9.69646
There	-9.69699
ru	-9.69706
▁Red	-9.69745
▁points	-9.69758
▁cases	-9.69895
▁February	-9.69933
▁kalangan	-9.70025
▁star	-9.70041
▁Kongres	-9.70058
▁Of	-9.7009
▁form	-9.70151
You	-9.70185
▁tell	-9.70194
▁bar	-9.70255
op	-9.70278
▁member	-9.70288
ful	-9.70291
▁interview	-9.70332
▁value	-9.70386
▁hadapan	-9.70434
▁leader	-9.70534
▁buat	-9.70622
▁land	-9.7065
▁drama	-9.70697
▁Party	-9.70865
ated	-9.70879
▁namun	-9.70881
▁senior	-9.70959
▁center	-9.7098
▁bring	-9.71023
▁pinjaman	-9.71044
▁Selain	-9.71062
▁Terengganu	-9.71137
▁Tom	-9.71146
▁seramai	-9.71314
▁bertanya	-9.71328
▁investigation	-9.71332
▁penyelidikan	-9.71453
▁rights	-9.71573
▁menangani	-9.71717
▁parents	-9.71813
▁seterusnya	-9.71871
▁Li	-9.72024
▁pembangunan	-9.72089
▁lower	-9.72099
▁mengikuti	-9.7214
▁platform	-9.72287
wan	-9.72315
▁Bo	-9.72339
▁standard	-9.72397
▁hope	-9.72442
kadang	-9.72526
ker	-9.72567
▁serius	-9.72682
▁pula	-9.72779
▁rather	-9.72836
▁diberi	-9.72868
▁pengalaman	-9.72965
▁groups	-9.7298
▁risiko	-9.72989
▁ringgit	-9.72989
▁tuntutan	-9.72993
▁Afrika	-9.73017
▁aplikasi	-9.7302
ally	-9.73032
▁dilaporkan	-9.7304
▁available	-9.73119
▁Inggeris	-9.73208
▁dikatakan	-9.73261
▁Americans	-9.73264
pi	-9.73279
▁organisasi	-9.73284
▁white	-9.73371
▁tertinggi	-9.73452
▁press	-9.73595
▁met	-9.73644
▁District	-9.73753
▁however	-9.73766
▁heart	-9.73773
▁penyakit	-9.7381
▁trade	-9.7387
▁menjelaskan	-9.73888
▁budaya	-9.73901
▁menghantar	-9.73917
▁Beberapa	-9.73918
fa	-9.73926
▁usia	-9.74017
▁whose	-9.74054
▁Post	-9.74072
of	-9.74093
▁reason	-9.74093
▁space	-9.74158
▁kasih	-9.74313
▁guru	-9.74334
▁lokasi	-9.74377
▁bukti	-9.74427
▁potential	-9.74446
▁perubatan	-9.74494
▁Barack	-9.7452
▁understand	-9.74545
▁dekad	-9.74575
▁komuniti	-9.74588
▁Council	-9.74673
▁Kedua	-9.747
▁melibatkan	-9.74706
▁key	-9.74708
▁age	-9.74878
▁peminat	-9.74916
▁executive	-9.7497
▁pembunuhan	-9.75005
▁suatu	-9.75055
▁Z	-9.75135
▁siri	-9.75276
▁nothing	-9.75288
▁Kelantan	-9.75329
▁hukuman	-9.75539
▁Kita	-9.75554
▁These	-9.75636
▁jobs	-9.75744
▁Super	-9.75782
ver	-9.75832
▁pasangan	-9.75891
tik	-9.75925
▁leave	-9.7597
▁pandangan	-9.7598
▁terjadi	-9.76117
ex	-9.76142
▁longer	-9.76147
▁2009,	-9.76202
▁cut	-9.7621
▁cadangan	-9.76255
▁impact	-9.7644
▁setahun	-9.7651
▁Health	-9.76596
▁Jadi	-9.76608
▁seven	-9.76639
sama	-9.76674
▁dijangka	-9.76705
▁sejumlah	-9.76719
▁meninggal	-9.76737
▁wants	-9.76769
▁phone	-9.76963
5%	-9.77024
ze	-9.77062
▁voters	-9.77067
ping	-9.77068
▁Wan	-9.77084
▁tujuh	-9.77109
▁Not	-9.77117
▁Sebilangan	-9.77117
▁couple	-9.77124
▁try	-9.77214
▁Ko	-9.77235
▁Seperti	-9.77279
▁Te	-9.77309
▁Baru	-9.77457
▁menimbulkan	-9.77579
if	-9.77632
$	-9.77644
▁Q	-9.77737
▁penjara	-9.77848
▁bergantung	-9.77905
su	-9.77925
kin	-9.77996
▁tentu	-9.7801
▁membuka	-9.78045
▁Carolina	-9.78054
▁create	-9.78065
cu	-9.78095
▁Sam	-9.78213
▁tujuan	-9.78313
▁Muhammad	-9.7833
▁investors	-9.78376
▁Tentera	-9.78423
▁KUALA	-9.78467
▁died	-9.78523
▁Bandar	-9.78528
field	-9.78617
▁situation	-9.78636
▁lives	-9.7865
▁European	-9.78683
▁running	-9.78714
▁Peter	-9.78715
▁timur	-9.78759
▁akibat	-9.78807
kah	-9.78823
▁contoh	-9.78829
▁menunggu	-9.78859
▁players	-9.78876
▁jenayah	-9.78891
nd	-9.78967
▁luas	-9.79021
▁Even	-9.79049
bat	-9.79147
▁firm	-9.79175
▁account	-9.79176
▁iklan	-9.7922
▁release	-9.79233
▁Ahli	-9.79297
▁Hall	-9.794
▁everyone	-9.79462
▁Parlimen	-9.79492
▁aktiviti	-9.79512
▁pentadbiran	-9.7955
▁Lapangan	-9.79652
▁Tu	-9.79662
▁Read	-9.79675
▁debate	-9.79811
▁played	-9.79867
ent	-9.79932
▁menyumbang	-9.79997
▁drug	-9.80009
▁everything	-9.80101
▁son	-9.80146
▁Island	-9.80248
▁pengundi	-9.80292
▁radio	-9.80328
ai	-9.80329
▁offer	-9.80363
▁terms	-9.80364
▁desa	-9.80472
▁melepaskan	-9.80577
▁jawatan	-9.8059
▁menganggap	-9.80592
▁sekiranya	-9.80608
▁pertunjukan	-9.80643
▁Richard	-9.80676
▁menghadiri	-9.80688
▁Canada	-9.8073
▁fight	-9.80787
▁focus	-9.80903
▁alih	-9.80947
▁AFP	-9.80971
▁Ter	-9.81047
They	-9.81066
▁themselves	-9.81107
▁meet	-9.81263
▁PS	-9.81303
▁rest	-9.81321
▁tekanan	-9.81407
▁ABC	-9.81424
▁berasal	-9.81473
▁siasatan	-9.81505
▁ensure	-9.81529
▁X	-9.81542
▁Jalan	-9.81596
▁similar	-9.81602
▁turn	-9.81638
▁mean	-9.81704
▁considered	-9.81827
▁Raja	-9.8187
▁energy	-9.81901
▁Jakarta	-9.81925
▁gaya	-9.82
▁Scott	-9.82078
ard	-9.82146
▁Perang	-9.82161
▁memasuki	-9.8218
▁peng	-9.82206
con	-9.82239
▁Mike	-9.82264
▁sent	-9.82323
▁nasional	-9.82356
ring	-9.82397
▁probably	-9.82558
▁sense	-9.82592
▁35	-9.82601
ating	-9.82631
▁2006	-9.82671
▁menteri	-9.82694
▁penurunan	-9.82708
▁code	-9.8271
▁bertahun	-9.82743
▁mengikut	-9.8275
▁minister	-9.82757
▁seems	-9.82779
ac	-9.82805
▁pintu	-9.82825
▁Most	-9.82835
▁evidence	-9.82842
▁faedah	-9.82868
▁access	-9.82901
▁Da	-9.82909
ning	-9.82913
▁doktor	-9.82942
▁Congress	-9.82951
▁management	-9.83005
▁wasn	-9.83007
▁whole	-9.83023
uh	-9.83078
▁menyediakan	-9.831
▁Terbang	-9.83104
▁William	-9.83162
▁authorities	-9.8321
▁First	-9.83231
▁Itali	-9.83252
▁Don	-9.83324
▁selain	-9.83342
q	-9.83667
▁Meanwhile	-9.83747
▁true	-9.83769
▁Hospital	-9.83783
▁separuh	-9.83799
▁Joe	-9.83826
ish	-9.83868
▁production	-9.83884
▁costs	-9.8389
ized	-9.84016
▁|	-9.84043
▁cause	-9.84043
▁dibina	-9.84123
▁success	-9.84175
▁mendakwa	-9.84184
▁employees	-9.84204
we	-9.84341
▁performance	-9.84444
▁bit	-9.84545
▁mengakui	-9.84585
▁build	-9.84604
▁Ga	-9.84628
▁sukan	-9.84629
▁NFL	-9.8481
▁Si	-9.84852
▁sektor	-9.84861
▁results	-9.8487
▁efforts	-9.84897
▁road	-9.84919
▁gave	-9.84925
▁term	-9.84937
▁agak	-9.84961
▁sampai	-9.84979
▁soon	-9.84991
▁board	-9.85058
▁Europe	-9.85102
▁visit	-9.85108
▁Steve	-9.85246
▁named	-9.85283
21	-9.85368
▁needed	-9.85438
▁panggilan	-9.85502
▁photo	-9.85549
▁worked	-9.85608
so	-9.85611
▁Ra	-9.85616
▁Click	-9.85635
▁Sekarang	-9.85651
▁yakin	-9.85657
▁kecamatan	-9.85666
▁tua	-9.85745
▁Putih	-9.85778
▁staff	-9.85847
▁asas	-9.85849
▁Ryan	-9.85868
▁difficult	-9.85992
▁pemilihan	-9.86014
▁memahami	-9.86048
▁swasta	-9.86052
▁halaman	-9.86055
ies	-9.86055
▁menemui	-9.86096
▁customers	-9.86134
▁shot	-9.86167
▁saudara	-9.86259
▁bersetuju	-9.8634
▁UK	-9.86379
▁menang	-9.86406
▁present	-9.86486
▁adakah	-9.865
▁200	-9.86515
▁editor	-9.86528
24	-9.86598
▁rates	-9.86598
▁Kota	-9.86686
▁perlawanan	-9.86885
▁diterbitkan	-9.86901
▁quarter	-9.86945
yang	-9.86976
▁persembahan	-9.86982
▁keperluan	-9.8701
▁lihat	-9.87032
▁enable	-9.87107
Se	-9.87145
▁questions	-9.87148
▁simply	-9.87159
▁pengurusan	-9.87173
▁Black	-9.87237
▁Thomas	-9.87277
▁spending	-9.87328
▁bersedia	-9.87334
▁Ba	-9.87355
▁users	-9.87425
▁Iowa	-9.87456
▁raised	-9.87506
▁belajar	-9.87515
▁warga	-9.87542
▁From	-9.87579
▁minutes	-9.87689
▁provided	-9.87737
eng	-9.87742
end	-9.87776
▁requires	-9.87777
vo	-9.87786
▁hujung	-9.87812
▁perbincangan	-9.87838
▁LUMPUR	-9.87844
▁games	-9.87851
▁date	-9.87925
▁semalam	-9.87931
▁French	-9.87938
▁worth	-9.87994
▁Green	-9.88026
▁Microsoft	-9.88168
Mereka	-9.88267
▁Meng	-9.88339
▁itself	-9.88351
fe	-9.88453
▁biggest	-9.88499
▁janji	-9.88525
▁opportunity	-9.8855
▁parties	-9.88565
▁brought	-9.8867
▁pendapat	-9.88691
chi	-9.88786
▁maka	-9.88823
Fi	-9.8889
om	-9.88909
▁Fed	-9.88922
▁created	-9.88928
▁supaya	-9.88944
ada	-9.88953
▁memenuhi	-9.89085
▁kepentingan	-9.89107
▁hold	-9.89111
▁either	-9.89146
▁menyedari	-9.89201
▁pasar	-9.89311
▁Jackson	-9.89317
▁ujian	-9.89377
▁komputer	-9.89393
▁Bi	-9.89454
▁Car	-9.89479
cha	-9.89483
▁sea	-9.89485
▁anyone	-9.8953
▁selatan	-9.89533
▁abad	-9.89533
▁pemilik	-9.8962
▁permulaan	-9.89811
▁kejayaan	-9.89883
▁Amazon	-9.89895
▁tugas	-9.8991
▁lawatan	-9.89912
▁works	-9.89956
▁watak	-9.89987
▁tak	-9.90026
twitter	-9.90093
▁berterusan	-9.90104
▁College	-9.90165
▁2001	-9.90215
▁Senate	-9.90219
▁attention	-9.90292
ster	-9.90318
▁Ri	-9.90351
▁sebenar	-9.90369
▁pertandingan	-9.9037
▁Republicans	-9.90497
▁pantai	-9.90532
▁eight	-9.90538
▁turned	-9.90615
▁PH	-9.90636
▁stay	-9.9068
▁Bukit	-9.90682
▁Can	-9.90697
▁response	-9.90762
▁Association	-9.90776
▁High	-9.90798
▁peguam	-9.90853
▁spent	-9.90938
▁leading	-9.90945
je	-9.90971
▁strategi	-9.9101
▁Senat	-9.91026
▁Hill	-9.91034
▁Brazil	-9.91071
▁light	-9.91101
▁Para	-9.91107
▁menggambarkan	-9.9123
ng	-9.91245
▁search	-9.91264
▁medical	-9.91287
term	-9.91294
▁sebelah	-9.91302
▁budget	-9.91318
car	-9.91331
▁sidang	-9.91358
▁Germany	-9.91362
▁Semasa	-9.91404
▁Massachusetts	-9.91412
▁didakwa	-9.91441
▁Rumah	-9.91489
fo	-9.91623
sy	-9.91665
▁bill	-9.91675
▁amount	-9.91755
▁certain	-9.9176
▁field	-9.91863
▁{	-9.91916
▁Central	-9.91919
▁Vi	-9.91957
long	-9.92032
▁Na	-9.92098
▁pe	-9.92117
▁fall	-9.92255
▁Am	-9.92337
▁70	-9.92413
▁Filem	-9.92447
▁Japan	-9.926
▁super	-9.92623
▁menuju	-9.92627
▁Is	-9.92667
▁lapan	-9.92668
▁view	-9.92678
}	-9.92715
▁pesakit	-9.9274
▁Union	-9.9277
▁tinjauan	-9.92779
▁Dua	-9.92945
▁kawalan	-9.92959
▁kids	-9.92971
▁merah	-9.92991
▁Bu	-9.93054
Anda	-9.93105
▁pendek	-9.93114
cer	-9.9312
▁penulis	-9.93207
▁anggaran	-9.93224
Q	-9.93237
▁decided	-9.93246
▁sold	-9.93273
▁friend	-9.93277
▁Hu	-9.93284
▁rekod	-9.93357
▁Saudi	-9.93364
▁rawatan	-9.93404
▁husband	-9.93405
▁paid	-9.93447
▁mengatasi	-9.93453
▁words	-9.93489
▁garis	-9.93491
▁Mc	-9.93535
▁forward	-9.93543
▁menjalani	-9.93544
▁happened	-9.93564
▁cannot	-9.93587
▁tawaran	-9.93594
▁memakai	-9.93607
▁penyokong	-9.93625
▁wrong	-9.93682
▁Thailand	-9.93751
▁perkahwinan	-9.93766
▁Ha	-9.93853
▁officer	-9.93879
▁cerita	-9.93906
▁original	-9.94063
tidak	-9.94116
▁penonton	-9.94164
tz	-9.94171
▁Ada	-9.94176
▁comment	-9.94177
▁Malay	-9.94192
▁kaum	-9.94193
ding	-9.94217
isme	-9.94277
▁ground	-9.94351
▁80	-9.94393
▁milik	-9.94456
▁currently	-9.94592
▁agency	-9.94721
▁sebarang	-9.94731
bal	-9.94736
▁akaun	-9.94742
aran	-9.94786
▁self	-9.94862
▁1990	-9.94975
▁sub	-9.95003
▁cenderung	-9.95025
▁civil	-9.95027
▁incident	-9.95046
▁berkongsi	-9.95085
▁Najib	-9.95114
well	-9.95237
45	-9.95246
▁Tahun	-9.95281
▁wawancara	-9.95301
▁Ci	-9.95318
▁compared	-9.95318
▁Semua	-9.95324
hati	-9.95329
▁Williams	-9.95332
▁sejuk	-9.9534
▁force	-9.954
▁speech	-9.95426
▁televisyen	-9.95545
▁menjaga	-9.95564
▁keganasan	-9.95566
▁daughter	-9.95584
ov	-9.95669
eh	-9.95716
▁programs	-9.95722
net	-9.95777
▁sederhana	-9.95817
▁melindungi	-9.95826
▁perlumbaan	-9.95838
▁Royal	-9.95897
▁Ro	-9.95929
▁Sun	-9.95932
ant	-9.95959
▁easy	-9.95967
tic	-9.95972
▁mengejutkan	-9.95994
▁Peng	-9.96009
▁candidates	-9.96102
▁Russia	-9.96132
▁continued	-9.96159
▁Cina	-9.96165
Per	-9.96181
60	-9.96334
▁Ne	-9.96378
zi	-9.96382
▁Ukraine	-9.96414
▁network	-9.9644
▁kad	-9.96455
▁2005	-9.96523
▁English	-9.96574
lang	-9.96737
*	-9.9685
▁instead	-9.96881
▁else	-9.96939
▁pertemuan	-9.96958
▁attacks	-9.97064
▁kekurangan	-9.97071
▁Ti	-9.97072
▁common	-9.97073
▁PERTANYAAN	-9.97089
▁serious	-9.97135
▁opposition	-9.97261
▁serupa	-9.97279
▁cash	-9.97318
Tidak	-9.9735
▁takes	-9.97354
pu	-9.97355
▁red	-9.97386
▁television	-9.97433
▁Pat	-9.97462
▁despite	-9.97582
▁Eksekutif	-9.97761
▁Kemudian	-9.97888
▁ET	-9.97961
low	-9.98066
▁blog	-9.98081
har	-9.98082
rah	-9.98095
▁football	-9.98156
23	-9.98214
▁remains	-9.98223
▁45	-9.98225
bertanggungjawab	-9.98232
▁memanggil	-9.98261
▁effort	-9.98281
▁con	-9.98338
▁perdana	-9.9839
▁Development	-9.98415
▁perbandaran	-9.98427
▁kepala	-9.98447
▁akhbar	-9.98451
▁culture	-9.98491
▁berlangsung	-9.98505
▁travel	-9.98506
▁Here	-9.98521
ser	-9.98544
▁remain	-9.98611
▁Jim	-9.98679
▁God	-9.98725
for	-9.98766
▁stand	-9.98874
▁bekerjasama	-9.98893
▁menyerang	-9.98904
cal	-9.98953
▁Education	-9.98957
▁Selepas	-9.99006
hari	-9.9901
▁allow	-9.99022
▁ISIS	-9.99034
▁Associated	-9.99055
▁training	-9.99066
▁source	-9.99111
par	-9.99124
ho	-9.99169
▁menuntut	-9.9923
▁player	-9.99265
▁Pas	-9.99289
▁remaja	-9.99309
▁moment	-9.99385
▁sector	-9.99393
▁2014,	-9.99395
ren	-9.9944
▁disebabkan	-9.99497
▁terbaru	-9.99536
▁mengesahkan	-9.99539
▁daya	-9.99541
▁la	-9.99621
▁Daerah	-9.99626
▁CA	-9.99646
▁Raya	-9.99788
▁Un	-9.99788
▁era	-9.9979
▁Salah	-9.9981
▁forces	-9.99816
▁gadis	-9.99822
▁address	-9.99866
▁sell	-10.0003
▁Committee	-10.0014
▁sebab	-10.002
vi	-10.0021
▁activities	-10.0022
▁pulang	-10.0027
▁pengurus	-10.0029
▁Sanders	-10.0034
▁fans	-10.0034
▁heard	-10.004
▁menentukan	-10.0045
▁Charles	-10.0046
ville	-10.0048
▁goal	-10.0052
▁Fortune	-10.0053
▁Cup	-10.0058
▁pernyataan	-10.0059
▁2004	-10.0062
▁membentuk	-10.0065
▁1980	-10.0069
▁masing	-10.0073
ey	-10.0074
▁goes	-10.0083
▁berhampiran	-10.0086
▁tahunan	-10.0086
▁step	-10.0086
▁annual	-10.009
▁pemandu	-10.01
ny	-10.0101
▁student	-10.0106
▁River	-10.0106
▁Jones	-10.0112
▁Capital	-10.0117
▁schools	-10.0118
▁Ford	-10.0122
red	-10.0126
▁segi	-10.0127
▁ex	-10.0128
▁huge	-10.0129
22	-10.0134
▁Indian	-10.0136
▁pintar	-10.0147
▁Wanita	-10.0147
▁pressure	-10.0149
▁relationship	-10.0155
▁growing	-10.0156
▁chance	-10.0157
▁Arizona	-10.0157
▁kiri	-10.0158
▁Jersey	-10.0159
▁language	-10.0163
▁allowed	-10.0164
uan	-10.0165
mat	-10.0166
▁previous	-10.017
▁design	-10.0173
▁Many	-10.0181
but	-10.0184
▁persen	-10.0185
▁Jawatankuasa	-10.0186
▁Institute	-10.0188
▁inside	-10.0194
▁included	-10.0195
ial	-10.0195
▁haiwan	-10.02
▁emas	-10.0204
▁Ismail	-10.0204
▁panel	-10.0208
▁mind	-10.0209
▁soalan	-10.021
▁rata	-10.0211
▁pertahanan	-10.0211
▁REUTERS	-10.0223
mon	-10.023
▁Taman	-10.0236
▁gay	-10.0239
▁families	-10.024
▁diadakan	-10.0243
▁Mu	-10.0244
▁tried	-10.0246
▁word	-10.0257
▁terutamanya	-10.0262
ram	-10.0263
ization	-10.0267
▁memegang	-10.0278
▁summer	-10.0283
▁yesterday	-10.0285
ther	-10.0291
▁novel	-10.0296
▁menyebut	-10.0311
▁Laut	-10.0311
▁90	-10.0311
Di	-10.0312
▁mahukan	-10.0313
▁Po	-10.0314
▁kredit	-10.0314
▁Perkhidmatan	-10.0316
▁Pakistan	-10.0318
▁product	-10.032
▁mengalahkan	-10.0321
▁NEW	-10.0331
▁Kumpulan	-10.0332
▁stage	-10.0335
▁bayi	-10.0339
▁safety	-10.034
▁markets	-10.035
pur	-10.0352
▁maju	-10.0358
▁profesional	-10.0366
▁menghentikan	-10.0368
▁sah	-10.0371
rak	-10.0376
qui	-10.0376
▁helped	-10.0376
▁Che	-10.038
▁playing	-10.038
▁Ca	-10.0382
AL	-10.0382
ING	-10.0383
ab	-10.0388
▁municipality	-10.0392
▁changes	-10.0392
▁Harapan	-10.0395
▁class	-10.0398
▁Aceh	-10.0405
▁pemerintahan	-10.0409
▁kontrak	-10.041
▁Ni	-10.041
port	-10.0411
▁ditemui	-10.0416
▁jurucakap	-10.0418
▁appeared	-10.0418
▁pembinaan	-10.0421
▁32	-10.0423
▁AT	-10.0428
▁aset	-10.043
▁break	-10.0431
▁Baca	-10.0434
▁perlindungan	-10.0435
ney	-10.0439
▁itulah	-10.0444
▁showed	-10.0449
▁$2	-10.0456
▁menyaksikan	-10.0459
▁Ge	-10.046
26	-10.0462
gan	-10.0465
▁restoran	-10.0472
▁2015,	-10.0473
▁dead	-10.0476
▁nombor	-10.0478
▁ditutup	-10.0479
▁Tim	-10.048
▁bergabung	-10.0482
▁pem	-10.0492
▁ability	-10.0493
▁Jo	-10.0499
▁baharu	-10.0501
▁Bagaimana	-10.0503
▁usually	-10.0506
ven	-10.0508
▁increased	-10.0512
▁khusus	-10.0513
▁Rakyat	-10.0514
▁watch	-10.0515
▁berdiri	-10.0516
▁sign	-10.0525
▁mewakili	-10.0527
ob	-10.0527
▁content	-10.0527
▁crisis	-10.053
▁province	-10.0532
▁Turki	-10.0538
▁fund	-10.0539
35	-10.0543
▁act	-10.0547
▁funds	-10.0559
▁diterima	-10.0571
▁message	-10.0577
▁mewujudkan	-10.0585
▁Chi	-10.0592
MA	-10.0593
La	-10.0599
▁revenue	-10.0602
▁construction	-10.0604
lar	-10.0605
▁Forbes	-10.0606
▁Then	-10.0607
▁Setiausaha	-10.0613
ini	-10.0614
▁En	-10.0625
▁Ibrahim	-10.0628
▁ready	-10.0628
▁Ohio	-10.063
akan	-10.0631
▁ahead	-10.0633
▁below	-10.0636
▁insurans	-10.0639
▁dijual	-10.064
▁membenarkan	-10.065
▁quickly	-10.066
▁Hotel	-10.0661
▁leadership	-10.0663
▁dipercayai	-10.0665
▁jenama	-10.0666
▁diketahui	-10.0669
▁organization	-10.067
▁Virginia	-10.0672
▁Last	-10.0674
_	-10.0685
my	-10.0686
▁events	-10.069
▁2010,	-10.0699
tang	-10.0702
▁DEWAN	-10.0707
▁krisis	-10.0716
▁Media	-10.0716
▁harapan	-10.0732
▁changed	-10.0737
wood	-10.0738
▁Bhd	-10.0739
▁menjawab	-10.0741
▁ways	-10.0743
▁percuma	-10.0745
▁modern	-10.0745
▁college	-10.0745
▁kemudahan	-10.0745
95	-10.0748
king	-10.0759
▁website	-10.0759
▁tuan	-10.076
Sekiranya	-10.0763
ana	-10.0767
▁loss	-10.0773
▁knew	-10.0779
▁pembayaran	-10.0779
▁sakit	-10.0782
▁failed	-10.0785
▁asli	-10.0788
▁scene	-10.0788
▁author	-10.0789
▁bunga	-10.08
▁officers	-10.0808
▁syarat	-10.0813
▁Jack	-10.0815
▁opening	-10.0815
▁terdiri	-10.0819
▁version	-10.0819
▁NBC	-10.0821
▁alam	-10.0822
▁religious	-10.0824
▁Road	-10.0826
▁base	-10.0834
▁bertahan	-10.0834
▁Although	-10.0839
▁agreed	-10.084
▁2000	-10.084
▁kemampuan	-10.0842
▁Democrats	-10.0846
▁Kong	-10.0847
▁test	-10.0853
▁Big	-10.0854
tak	-10.0861
33	-10.0866
▁happen	-10.0866
▁quality	-10.0869
▁Sha	-10.0872
sur	-10.0872
▁lack	-10.0874
▁demand	-10.0879
▁kaya	-10.0879
▁song	-10.0882
▁feet	-10.0882
▁station	-10.0886
▁Secretary	-10.0886
▁pembuat	-10.0888
▁mental	-10.0888
▁perbezaan	-10.0893
ud	-10.09
▁beginning	-10.0901
▁sebilangan	-10.0902
▁warna	-10.0905
▁Star	-10.0909
▁menjadikannya	-10.0911
▁berapa	-10.0915
▁Apabila	-10.0916
tin	-10.0923
che	-10.0925
▁Speaker	-10.0927
▁middle	-10.0928
▁membincangkan	-10.0929
▁arrested	-10.0931
▁kebangsaan	-10.0934
Ma	-10.0937
▁dibawa	-10.094
▁gembira	-10.094
▁Long	-10.0943
▁felt	-10.0951
▁letter	-10.0958
▁individual	-10.0962
▁charges	-10.0963
▁Two	-10.0969
▁melebihi	-10.0975
But	-10.0975
▁dibuka	-10.098
▁golongan	-10.0982
▁Calif	-10.0984
▁tradisional	-10.0985
70	-10.0998
lon	-10.1005
▁Sepanyol	-10.1006
▁airport	-10.1006
▁pertempuran	-10.1007
▁tiada	-10.1008
▁Tengah	-10.1011
▁penyelesaian	-10.102
▁kakitangan	-10.1021
▁Nor	-10.1022
▁Also	-10.1025
▁catatan	-10.1026
99	-10.1026
▁believed	-10.1037
▁Pan	-10.1038
▁answer	-10.1043
28	-10.1049
▁Bloomberg	-10.105
▁kepercayaan	-10.1053
▁Commission	-10.1056
▁katakan	-10.1056
▁Pengarah	-10.1057
▁positif	-10.1065
▁reduce	-10.1067
annya	-10.1071
fer	-10.1074
▁rise	-10.1078
▁hadir	-10.108
▁ancaman	-10.108
▁Akta	-10.1082
ize	-10.1085
▁mid	-10.1087
▁Pakatan	-10.109
▁central	-10.1095
▁prestasi	-10.1099
▁berpusat	-10.1099
▁menengah	-10.1101
▁Russian	-10.1105
▁studio	-10.1106
▁Cruz	-10.1106
▁defense	-10.111
▁reach	-10.1114
ft	-10.1116
▁numbers	-10.1116
▁anjing	-10.112
▁akal	-10.1131
▁includes	-10.1133
▁teruk	-10.114
▁Saint	-10.1143
▁pop	-10.115
▁pengeluaran	-10.1153
▁versi	-10.1159
▁Ad	-10.116
▁Ex	-10.1164
▁amaran	-10.1168
▁seem	-10.1172
▁moved	-10.1174
▁Antarabangsa	-10.1174
▁Wa	-10.1175
▁Las	-10.1182
▁Japanese	-10.1185
▁throughout	-10.1186
▁stesen	-10.1193
▁kelab	-10.1196
ier	-10.1198
ance	-10.1199
▁immediately	-10.12
▁Business	-10.1201
▁RAKYAT	-10.1205
ye	-10.1213
▁Pu	-10.1214
nu	-10.1216
▁Mungkin	-10.1218
▁looks	-10.1218
▁Wi	-10.1219
▁sejauh	-10.1227
▁expect	-10.1231
ite	-10.1239
▁rules	-10.1246
▁majority	-10.1248
▁competition	-10.1251
▁Hong	-10.1253
▁pretty	-10.1255
▁quite	-10.1256
▁demikian	-10.1257
▁Com	-10.1257
▁Eric	-10.126
▁dilaksanakan	-10.1261
▁cabaran	-10.1268
▁spend	-10.1271
▁Hal	-10.1284
Kita	-10.1285
▁followed	-10.1293
▁firma	-10.1294
▁opened	-10.1302
▁gol	-10.1304
▁band	-10.1305
▁Kelly	-10.1307
▁Home	-10.1309
▁girls	-10.131
▁agreement	-10.1314
▁raise	-10.1314
side	-10.1316
▁calls	-10.1318
▁Office	-10.1322
▁membiarkan	-10.1332
29	-10.1334
ever	-10.1334
▁Abu	-10.1337
▁Ibu	-10.135
▁PAS	-10.1356
▁giving	-10.1356
▁contract	-10.1357
▁Abdullah	-10.1363
ina	-10.1366
▁dollars	-10.1369
▁Fa	-10.1369
▁marriage	-10.1373
▁traditional	-10.1378
▁chairman	-10.138
▁meneruskan	-10.1383
▁meter	-10.1387
▁tarikh	-10.1388
iti	-10.1391
tro	-10.1396
▁Eng	-10.1396
▁sasaran	-10.1398
▁shares	-10.1401
hal	-10.1402
▁described	-10.1403
▁2012,	-10.1411
▁zaman	-10.1414
▁Har	-10.1415
war	-10.1421
▁minimum	-10.1426
▁layak	-10.1434
gal	-10.1436
our	-10.1438
▁berhubung	-10.1439
sel	-10.1456
atan	-10.1463
▁cancer	-10.1471
▁institusi	-10.1476
▁YORK	-10.1476
▁Land	-10.1479
mas	-10.1479
▁berikutnya	-10.1479
ino	-10.1483
▁mengembangkan	-10.1491
▁kekal	-10.1492
▁Pertama	-10.1493
▁memba	-10.1496
▁follow	-10.15
▁grow	-10.1502
▁sebaliknya	-10.1507
▁Grand	-10.1509
▁tunai	-10.151
▁supply	-10.1511
▁Will	-10.1512
▁kerusi	-10.1523
▁normally	-10.1526
▁politics	-10.1526
▁spokesman	-10.153
▁ditangkap	-10.1531
▁hakim	-10.1537
▁fast	-10.154
▁bertujuan	-10.1543
▁Sebelum	-10.1544
can	-10.1545
▁disabled	-10.1545
ban	-10.1545
▁titik	-10.1547
▁Frank	-10.1549
des	-10.1549
▁mempengaruhi	-10.1552
▁terima	-10.1552
cur	-10.1557
▁treatment	-10.156
▁store	-10.156
▁teratas	-10.1562
▁pertengahan	-10.1563
▁stories	-10.1568
▁penganalisis	-10.1577
▁written	-10.1577
▁penjagaan	-10.1581
▁residents	-10.1588
▁berfikir	-10.1593
▁fell	-10.1594
rat	-10.1603
lum	-10.1604
▁Van	-10.1606
▁dokumen	-10.1607
▁approach	-10.1608
▁Singapore	-10.161
▁previously	-10.1621
▁entire	-10.1633
▁starting	-10.1635
▁talking	-10.1637
▁hands	-10.1637
▁elektrik	-10.1646
ise	-10.1648
▁weekend	-10.1652
▁asal	-10.1653
▁normal	-10.1655
▁sehari	-10.1656
▁app	-10.1656
▁dewan	-10.1657
ikan	-10.1661
▁Airlines	-10.1665
▁jarak	-10.1667
hy	-10.1668
▁victims	-10.1672
din	-10.1672
▁cinta	-10.1676
▁During	-10.1682
▁Sejak	-10.169
▁Since	-10.1694
▁projects	-10.1695
▁round	-10.1698
▁selesai	-10.1699
▁Santa	-10.1701
▁Za	-10.1704
▁Anwar	-10.1711
▁avoid	-10.1715
▁Nov	-10.1722
▁YB	-10.1722
▁thousands	-10.1726
▁Village	-10.1733
▁2020	-10.1736
▁Anugerah	-10.174
▁sometimes	-10.1745
▁prevent	-10.1761
▁seharusnya	-10.1762
▁menyampaikan	-10.1764
▁balik	-10.1764
▁merasakan	-10.1772
▁benefit	-10.1772
all	-10.1779
For	-10.1783
▁mesin	-10.1784
▁aktif	-10.1789
bang	-10.1793
▁Pilihan	-10.1797
▁character	-10.1797
▁melaksanakan	-10.1797
▁League	-10.1798
▁mem	-10.1798
▁related	-10.1809
▁kilang	-10.181
▁DAP	-10.1811
▁menambahkan	-10.1814
▁alone	-10.1816
▁trial	-10.1823
▁dadah	-10.1825
▁violence	-10.1826
▁artis	-10.1831
27	-10.1832
▁dihasilkan	-10.1834
▁significant	-10.184
dar	-10.184
▁reporters	-10.1842
▁Banyak	-10.1842
▁berikutan	-10.1846
ice	-10.1853
▁poor	-10.1861
tion	-10.1861
That	-10.1865
▁PKR	-10.1868
▁Ki	-10.1868
▁semangat	-10.1869
▁additional	-10.187
AN	-10.1871
▁subject	-10.188
▁Pasukan	-10.1882
▁menyertai	-10.1886
nt	-10.1887
▁Sudah	-10.1891
▁female	-10.1891
▁Vegas	-10.1892
▁cover	-10.1894
lain	-10.1901
▁tingkat	-10.1901
TV	-10.1903
house	-10.1913
▁bas	-10.1922
▁highest	-10.1924
▁review	-10.1926
▁Alam	-10.1927
▁Awards	-10.193
▁century	-10.1932
▁disiarkan	-10.1934
▁improve	-10.1937
rakan	-10.194
▁Olimpik	-10.194
▁blood	-10.1943
▁penumpang	-10.1943
▁Sea	-10.1945
▁German	-10.1946
▁Valley	-10.1955
mempertimbangkan	-10.1955
tur	-10.1957
▁cars	-10.1959
▁menonton	-10.1959
▁2011,	-10.1962
▁generasi	-10.1962
▁Web	-10.1963
isi	-10.1968
▁businesses	-10.1971
▁Mohamed	-10.1974
bit	-10.1975
▁claims	-10.1978
rin	-10.1979
▁memainkan	-10.1983
don	-10.199
▁served	-10.199
▁Security	-10.1997
back	-10.1999
▁mempertahankan	-10.2003
▁darah	-10.2005
▁offered	-10.2008
▁trend	-10.2011
▁committee	-10.2011
▁Miss	-10.2016
pel	-10.2016
▁cent	-10.2016
▁Public	-10.2031
▁peruntukan	-10.2032
▁reached	-10.2032
▁effect	-10.2033
▁charged	-10.2035
▁FBI	-10.204
▁property	-10.2046
▁tembakan	-10.205
▁Walau	-10.2051
▁primary	-10.2051
What	-10.2053
▁manager	-10.2055
ped	-10.2056
▁mengekalkan	-10.206
ure	-10.2063
▁fun	-10.2065
▁Instagram	-10.2066
oh	-10.207
▁2016,	-10.207
▁charge	-10.2074
ari	-10.2074
▁gabungan	-10.2078
▁operations	-10.2079
▁learn	-10.208
▁sisi	-10.2081
▁positive	-10.2082
▁teachers	-10.2084
▁Art	-10.2087
▁saluran	-10.2088
▁bukannya	-10.2092
▁launched	-10.2095
▁agenda	-10.2097
▁minta	-10.2102
▁successful	-10.2105
▁miles	-10.2113
▁Bob	-10.2113
▁Pre	-10.2114
▁brand	-10.2117
▁sports	-10.212
▁terpaksa	-10.2121
▁isteri	-10.2122
▁lose	-10.2125
▁gun	-10.2128
▁bekalan	-10.2134
▁Mon	-10.2134
shi	-10.2135
▁EU	-10.2139
▁Far	-10.2144
baik	-10.215
My	-10.2152
▁laku	-10.2153
▁movement	-10.2167
▁hear	-10.2169
▁simple	-10.2172
ot	-10.2181
▁natural	-10.2185
▁title	-10.2189
▁daily	-10.2189
▁gold	-10.2198
▁Manhattan	-10.2202
bah	-10.2204
nan	-10.2215
▁Stadium	-10.2215
▁TO	-10.2216
▁Peguam	-10.2221
tri	-10.2224
▁moden	-10.2226
▁Pejabat	-10.2226
mor	-10.2229
▁caused	-10.223
▁enggan	-10.2239
▁Kabupaten	-10.2241
▁nine	-10.2246
▁Persatuan	-10.2248
▁cedera	-10.2248
▁finally	-10.2253
▁judge	-10.2253
▁33	-10.2257
▁akses	-10.2261
▁Love	-10.2262
▁pengasas	-10.2269
▁Music	-10.2269
▁born	-10.227
▁benefits	-10.2273
jar	-10.2278
▁Daniel	-10.2285
▁36	-10.2291
▁takut	-10.2291
▁nyata	-10.2299
▁Timbalan	-10.23
▁memimpin	-10.2302
▁teams	-10.2305
▁dewasa	-10.2307
▁issued	-10.2307
▁memang	-10.2314
duanya	-10.2316
▁berharga	-10.2318
▁protect	-10.2324
▁liberal	-10.2334
▁figure	-10.2342
▁Journal	-10.2346
dia	-10.2347
▁cities	-10.2347
▁save	-10.2356
▁Kevin	-10.2364
▁match	-10.237
▁Square	-10.2372
ita	-10.2372
▁Young	-10.2374
▁manakala	-10.2374
▁Andrew	-10.2375
▁bayaran	-10.2379
▁drive	-10.238
▁penilaian	-10.2381
▁1,	-10.2382
▁bersih	-10.2384
▁Reagan	-10.239
▁target	-10.2391
▁menutup	-10.2399
ward	-10.2402
▁Tri	-10.2404
▁fokus	-10.2407
▁2013,	-10.2418
▁Min	-10.242
let	-10.2426
▁Batu	-10.2428
90	-10.2434
▁safe	-10.2436
▁murder	-10.2441
▁pembangkang	-10.2443
▁Disney	-10.2443
▁Women	-10.2446
▁menjelang	-10.2447
rang	-10.2451
▁dilancarkan	-10.2454
▁menegaskan	-10.2462
▁north	-10.2466
over	-10.2468
▁sembilan	-10.247
▁bersalah	-10.247
▁veteran	-10.247
▁murah	-10.2471
▁mengemukakan	-10.2473
De	-10.2473
▁1970	-10.2473
▁menerusi	-10.2476
▁34	-10.2478
▁joined	-10.248
▁majlis	-10.2484
▁Stephen	-10.2492
▁rock	-10.2494
▁keempat	-10.2495
▁track	-10.2495
▁DI	-10.2507
▁passed	-10.2507
▁insurance	-10.2513
▁housing	-10.252
▁consumers	-10.2523
kh	-10.2525
▁picture	-10.2532
▁Research	-10.2533
▁consider	-10.2533
▁responsible	-10.2539
▁fine	-10.2541
▁baby	-10.2542
sia	-10.2542
▁girl	-10.2543
80	-10.2545
▁undi	-10.2547
▁Best	-10.2553
▁prison	-10.2555
▁Pem	-10.2557
▁although	-10.2559
▁size	-10.2559
▁CNBC	-10.2565
▁practice	-10.2567
af	-10.2571
▁hot	-10.2573
▁accused	-10.2576
▁berulang	-10.2585
ee	-10.2586
▁details	-10.2586
▁image	-10.2589
▁berpotensi	-10.2591
▁commercial	-10.2592
▁toward	-10.2595
▁sex	-10.2603
▁konservatif	-10.2606
▁Bin	-10.2609
▁hadiah	-10.2614
pin	-10.2616
▁type	-10.2622
▁Today	-10.2628
▁pihaknya	-10.2629
▁taman	-10.2631
▁send	-10.2631
▁Mary	-10.2633
▁merujuk	-10.2635
▁MENTERI	-10.2636
▁NY	-10.2638
▁Agung	-10.2642
▁Soviet	-10.2643
▁Katanya	-10.2644
▁levels	-10.2648
▁range	-10.265
▁Great	-10.2651
▁reka	-10.2654
▁Corp	-10.2656
bel	-10.2656
▁Han	-10.2658
▁contributed	-10.2659
ship	-10.2659
▁Lim	-10.266
▁senang	-10.2663
▁Ban	-10.2669
▁developed	-10.267
rd	-10.2671
▁patients	-10.2674
▁dahulu	-10.2674
▁happy	-10.2674
angan	-10.2675
▁gone	-10.2678
▁remember	-10.2682
▁Suruhanjaya	-10.2687
▁membuang	-10.2692
▁beyond	-10.2693
▁Port	-10.2697
▁banks	-10.2698
▁environment	-10.27
▁pukul	-10.27
▁Vietnam	-10.2705
▁moving	-10.2711
US	-10.2717
▁faktor	-10.2719
▁Harry	-10.2719
▁Mi	-10.2723
▁decades	-10.2724
▁Matt	-10.2725
100	-10.2728
▁computer	-10.2728
So	-10.2728
▁reality	-10.2731
▁BN	-10.2744
▁AM	-10.2745
▁claimed	-10.2745
▁victim	-10.2746
▁Pahang	-10.2749
▁gets	-10.2751
▁particularly	-10.2756
▁2003	-10.2758
tal	-10.2763
▁software	-10.2767
▁angin	-10.277
▁Just	-10.277
▁Bowl	-10.2771
yo	-10.2772
lam	-10.2773
▁barisan	-10.278
tengah	-10.2781
TA	-10.2796
▁receive	-10.2803
▁Other	-10.2804
▁Mem	-10.2807
▁modal	-10.2812
ach	-10.2812
▁sempadan	-10.2816
When	-10.2824
▁host	-10.2827
▁mobile	-10.283
▁seksual	-10.283
▁border	-10.2837
▁isterinya	-10.2838
To	-10.284
▁brother	-10.2844
▁Ms	-10.2844
ow	-10.2847
▁ucapan	-10.2848
▁Director	-10.286
She	-10.2861
▁NO	-10.2864
▁features	-10.2867
▁begin	-10.2869
berg	-10.2872
▁Sukan	-10.2873
▁Kar	-10.2877
▁Itulah	-10.2879
▁mengelakkan	-10.2881
▁prime	-10.2883
sha	-10.2888
▁launch	-10.289
▁kerjasama	-10.2892
And	-10.2895
▁Miller	-10.2898
▁diharapkan	-10.2899
▁Justice	-10.2906
▁Pendidikan	-10.291
▁shooting	-10.2911
Re	-10.2913
ara	-10.2915
▁certainly	-10.2925
▁Louis	-10.2928
▁closed	-10.2931
▁sihat	-10.2932
▁check	-10.2934
▁perumahan	-10.2934
▁Taylor	-10.2935
▁menaikkan	-10.2937
▁Global	-10.2938
pm	-10.2942
▁menetapkan	-10.2944
▁Blue	-10.2952
▁pulau	-10.2964
▁menahan	-10.2966
▁ciri	-10.2968
kat	-10.2972
▁memikirkan	-10.2976
▁ended	-10.2978
▁Fund	-10.298
▁Show	-10.2984
▁Perry	-10.2985
▁Ron	-10.2985
▁38	-10.299
izing	-10.2991
▁2008,	-10.2992
▁Rio	-10.2995
▁professional	-10.2996
▁perisian	-10.2996
▁artist	-10.3003
▁dirancang	-10.3007
kes	-10.3007
▁Cor	-10.3015
▁homes	-10.302
▁bagus	-10.3021
Malaysia	-10.3025
▁disease	-10.3028
▁Why	-10.3028
▁designed	-10.3036
▁minat	-10.3036
▁Singapura	-10.3037
▁Gar	-10.3037
▁Kennedy	-10.3039
▁books	-10.304
▁Penang	-10.3044
RA	-10.3051
▁crime	-10.3056
▁science	-10.3065
▁demi	-10.3072
▁BBC	-10.3073
▁pengganas	-10.3074
▁signed	-10.3076
▁kaedah	-10.3077
IN	-10.3078
▁pusingan	-10.3083
7%	-10.3085
▁battle	-10.309
▁Parliament	-10.3092
bur	-10.3093
▁kemalangan	-10.3095
▁Law	-10.3104
▁Rock	-10.3105
win	-10.3105
▁Syrian	-10.3111
▁Ru	-10.3116
▁kadang	-10.3119
▁northern	-10.3119
▁universiti	-10.312
▁mendedahkan	-10.3122
▁Pinang	-10.3124
▁Sal	-10.3126
▁comments	-10.3127
▁Kesihatan	-10.3127
▁BIN	-10.3128
▁sale	-10.3128
▁menyukai	-10.3129
▁Service	-10.3129
▁dipilih	-10.3135
▁Gi	-10.3141
▁pemeriksaan	-10.3142
▁hearing	-10.3143
▁Festival	-10.3144
▁300	-10.3144
▁Ken	-10.315
▁ulang	-10.3151
▁Pengerusi	-10.3152
▁agencies	-10.3157
▁estate	-10.3158
▁Anthony	-10.3159
▁domestic	-10.3161
▁semestinya	-10.3162
tanya	-10.3162
▁seat	-10.3163
meng	-10.3176
▁Jr	-10.3179
ists	-10.318
▁Malaysiakini	-10.318
▁Another	-10.3182
▁complete	-10.3182
No	-10.3182
▁Jeff	-10.3185
tel	-10.3189
▁partner	-10.319
▁Ju	-10.319
▁individuals	-10.3193
▁Army	-10.3195
▁pertamanya	-10.3195
▁Time	-10.32
▁married	-10.32
▁Looks	-10.3201
ence	-10.3203
▁Piala	-10.3206
tas	-10.3208
ken	-10.3216
▁dilahirkan	-10.3217
▁challenge	-10.3218
▁YouTube	-10.3219
▁Your	-10.322
▁terbunuh	-10.3221
cho	-10.3222
▁Georgia	-10.3225
▁wait	-10.3225
▁lemah	-10.3228
▁trust	-10.3233
▁percubaan	-10.3236
▁menurunkan	-10.3238
▁pengeluar	-10.324
55	-10.3241
▁victory	-10.3241
▁strategy	-10.3242
▁conditions	-10.3248
▁floor	-10.3256
▁Beijing	-10.3259
juta	-10.3259
▁kandungan	-10.3262
▁thinking	-10.3265
▁assets	-10.3268
▁2002	-10.3268
▁DAN	-10.3268
▁pengarang	-10.327
▁confirmed	-10.3273
▁majalah	-10.3274
▁kecuali	-10.3275
▁club	-10.3277
▁kepadanya	-10.3278
▁mission	-10.3279
▁Mas	-10.328
▁operating	-10.3284
▁posted	-10.3285
CH	-10.3286
▁Jaya	-10.3287
bak	-10.3288
▁choice	-10.3288
sin	-10.3291
▁coach	-10.3294
▁Live	-10.3301
▁Rep	-10.3306
ih	-10.331
▁pesta	-10.331
▁Oscar	-10.3311
▁fourth	-10.3311
Itu	-10.3312
row	-10.3318
era	-10.3319
io	-10.3321
▁contact	-10.3321
▁holding	-10.3321
▁voice	-10.3324
▁melihatnya	-10.3327
tif	-10.3328
▁menikmati	-10.3338
▁cap	-10.3341
▁particular	-10.3344
▁looked	-10.3347
▁article	-10.3347
▁returned	-10.335
▁tweet	-10.3351
▁page	-10.3352
▁internet	-10.3357
▁Laporan	-10.3358
▁Company	-10.3359
▁dihantar	-10.3359
3%	-10.3362
ib	-10.3372
▁Ver	-10.3372
▁kebebasan	-10.3373
▁Deputy	-10.3376
▁pembelian	-10.338
▁kamera	-10.3383
lit	-10.3383
▁aren	-10.339
▁Bur	-10.3392
▁pendekatan	-10.3394
▁meja	-10.3396
▁palsu	-10.3405
▁pemenang	-10.3409
▁paper	-10.3413
▁corporate	-10.342
▁Miami	-10.342
▁Hanya	-10.3424
▁kerugian	-10.3429
▁couldn	-10.343
▁Sept	-10.3435
▁fear	-10.3436
▁persegi	-10.3439
▁Sdn	-10.3439
▁mis	-10.3439
▁note	-10.344
As	-10.3441
▁sen	-10.3443
▁seks	-10.3446
Tetapi	-10.3446
ep	-10.3446
▁gangguan	-10.3448
born	-10.345
▁wakil	-10.3451
▁42	-10.3451
▁400	-10.3454
▁jarang	-10.3457
▁forced	-10.3457
▁37	-10.346
▁established	-10.346
vin	-10.3462
▁Africa	-10.3464
PP	-10.3464
▁mencadangkan	-10.3471
▁specific	-10.3475
▁bimbang	-10.348
▁Anak	-10.3485
▁speed	-10.3485
▁appears	-10.3489
▁Club	-10.3489
▁continues	-10.3489
▁mengaku	-10.3491
▁melarikan	-10.3494
▁menyelamatkan	-10.3496
▁guy	-10.35
OR	-10.3508
▁flight	-10.351
▁PBB	-10.351
▁populasi	-10.3514
▁eventually	-10.3518
▁peranti	-10.352
▁memaksa	-10.3523
▁Davis	-10.3524
▁plays	-10.3531
▁proposal	-10.3531
ani	-10.3536
▁perbicaraan	-10.3541
▁speak	-10.3547
▁tanggungjawab	-10.3548
▁rule	-10.3555
▁table	-10.3555
▁required	-10.3557
▁threat	-10.3558
olah	-10.3558
▁Toronto	-10.3567
▁pertanyaan	-10.3568
cy	-10.3571
▁vehicle	-10.3576
Ha	-10.3582
▁Jordan	-10.3582
▁aircraft	-10.3584
▁berkahwin	-10.3588
▁bisa	-10.359
mp	-10.3591
gg	-10.3592
▁mantan	-10.3596
▁nuclear	-10.3601
▁Among	-10.3603
▁Haji	-10.3605
▁menyimpan	-10.3606
▁dimiliki	-10.3609
▁actions	-10.3609
▁systems	-10.361
▁claim	-10.3615
ned	-10.3619
▁independent	-10.3622
▁1960	-10.3624
▁multi	-10.3625
▁pemegang	-10.363
▁sel	-10.3636
▁famous	-10.3641
▁menandatangani	-10.3642
▁sebulan	-10.3643
▁ayah	-10.3645
▁planet	-10.3653
▁dikendalikan	-10.3655
▁rakaman	-10.3658
▁bukanlah	-10.3659
▁Je	-10.3661
▁pass	-10.3663
75	-10.3663
ble	-10.3664
▁$3	-10.3669
▁Adam	-10.367
▁berkesan	-10.3673
▁bahwa	-10.3677
▁Foto	-10.3677
▁Pennsylvania	-10.3678
like	-10.3679
▁beroperasi	-10.3681
▁Dato	-10.3682
5,000	-10.3683
bin	-10.3686
▁offers	-10.3688
▁dikenakan	-10.3688
▁korporat	-10.3693
ving	-10.3694
▁spread	-10.3696
▁society	-10.3698
6%	-10.37
▁adil	-10.3701
▁nuklear	-10.3707
▁produced	-10.3707
PH	-10.3708
▁Mad	-10.3711
nes	-10.3711
pro	-10.3712
▁tangga	-10.3715
▁perkembangan	-10.3721
▁jet	-10.3721
▁Life	-10.3726
▁setengah	-10.3727
▁Rick	-10.3727
▁leaving	-10.3736
▁Lake	-10.3737
▁Colorado	-10.374
▁parts	-10.3747
▁pick	-10.3751
▁illegal	-10.3755
▁Hakim	-10.3758
▁menembak	-10.3761
▁tour	-10.3767
▁Libya	-10.3771
Dan	-10.3771
▁policies	-10.3775
▁wouldn	-10.3775
kel	-10.3776
RI	-10.3778
ris	-10.3779
▁jawatankuasa	-10.3784
ery	-10.3791
▁sekumpulan	-10.3792
▁concerns	-10.3797
▁condition	-10.3805
▁appear	-10.3805
▁supporters	-10.381
▁Foundation	-10.3812
▁sains	-10.3812
▁ditahan	-10.3813
RE	-10.3821
run	-10.3822
▁Jay	-10.3822
▁Well	-10.3824
▁purata	-10.3827
▁penampilan	-10.3829
▁mesej	-10.384
▁Over	-10.3847
▁Kate	-10.3847
anda	-10.385
▁tells	-10.385
▁clean	-10.3858
▁membuktikan	-10.3861
▁ditulis	-10.3863
▁tiket	-10.3873
▁mencuba	-10.3874
▁kebelakangan	-10.3876
▁actor	-10.3877
▁Razak	-10.3882
abad	-10.3885
air	-10.389
▁Keselamatan	-10.3892
sta	-10.3897
▁Par	-10.3897
▁laws	-10.3898
▁exchange	-10.3898
▁sumbangan	-10.3904
▁penyanyi	-10.391
▁kediaman	-10.3912
▁Prince	-10.3912
LE	-10.3915
▁Mesir	-10.3916
▁drop	-10.3923
▁[[	-10.3924
▁berbicara	-10.3929
▁nominee	-10.3934
▁jangan	-10.3938
4%	-10.3939
▁survey	-10.3939
▁kertas	-10.3941
▁decade	-10.3941
▁stok	-10.3942
▁card	-10.3943
dis	-10.3946
▁adding	-10.3951
jalan	-10.3956
▁malah	-10.3958
▁Sports	-10.3959
▁menggantikan	-10.396
▁ikan	-10.3967
▁taxes	-10.3978
▁fizikal	-10.3983
▁perlahan	-10.399
▁style	-10.3991
ski	-10.3996
▁Cameron	-10.3998
▁driver	-10.3999
▁writing	-10.4004
▁kalah	-10.4012
67	-10.4015
▁sudut	-10.4016
ahan	-10.4017
▁tersedia	-10.4019
pat	-10.402
▁memanfaatkan	-10.4021
ium	-10.4021
▁Setiap	-10.4023
form	-10.4027
▁updated	-10.4028
▁kecederaan	-10.4028
▁bernama	-10.4034
EC	-10.4045
▁views	-10.4054
SA	-10.4059
▁pemulihan	-10.4065
▁mengandungi	-10.4076
▁Yunani	-10.4077
tiba	-10.4077
▁audience	-10.4077
▁terang	-10.4079
▁Canadian	-10.408
ER	-10.4082
▁Turkey	-10.4082
▁Wilayah	-10.4087
▁Ham	-10.4087
▁MINISTER	-10.4088
▁ringan	-10.4088
▁laluan	-10.4089
▁Good	-10.4093
Le	-10.4094
▁dibenarkan	-10.4096
len	-10.4096
▁59	-10.4097
▁advantage	-10.4097
▁gerakan	-10.4097
▁seminggu	-10.4097
▁kept	-10.4098
Pe	-10.41
MDB	-10.4101
▁karena	-10.4112
▁trading	-10.4116
▁Bagaimanapun	-10.4118
▁Atlanta	-10.4119
▁dipanggil	-10.412
▁Tony	-10.4122
▁Michigan	-10.4123
▁deep	-10.4124
▁marah	-10.4127
▁email	-10.4136
▁enforcement	-10.4144
▁Shi	-10.4144
▁Christian	-10.4147
▁Bahagian	-10.4147
▁seluas	-10.4148
▁Republic	-10.4152
▁mewah	-10.4155
asan	-10.4156
cat	-10.4156
▁Philadelphia	-10.4157
▁Mel	-10.4157
▁keluarganya	-10.4159
mal	-10.416
sky	-10.4163
▁Elizabeth	-10.4164
▁learned	-10.4165
▁daging	-10.4166
▁Wal	-10.4166
▁brain	-10.417
▁respect	-10.4171
▁produce	-10.4173
▁sesi	-10.4174
▁directly	-10.4176
▁door	-10.4177
▁mahal	-10.4179
▁fakta	-10.4179
▁Sch	-10.4179
▁lawyer	-10.4184
▁terba	-10.4188
▁berwarna	-10.4191
mail	-10.4191
▁hour	-10.4193
▁boys	-10.4194
▁memandu	-10.4196
▁memasukkan	-10.4196
▁introduced	-10.4196
▁trip	-10.4197
cing	-10.4198
▁limited	-10.42
▁betapa	-10.4205
▁menjatuhkan	-10.4209
▁Cuba	-10.4212
▁Pelakon	-10.4214
▁euro	-10.4214
Be	-10.4218
▁AND	-10.4219
▁artikel	-10.422
ford	-10.4221
ors	-10.4222
▁haram	-10.4223
▁48	-10.4224
▁senator	-10.4225
▁magazine	-10.4225
▁pertukaran	-10.4226
▁puncak	-10.4227
▁estimated	-10.4227
▁mandi	-10.4233
▁persekitaran	-10.4233
▁tahanan	-10.4233
▁CBS	-10.4245
▁imp	-10.4245
American	-10.4246
peng	-10.4248
▁murid	-10.425
▁ingat	-10.4251
rum	-10.4254
▁eye	-10.4259
▁material	-10.4259
▁pemikiran	-10.4261
▁vice	-10.4263
▁singer	-10.4263
▁tegas	-10.4264
▁Australian	-10.4264
BN	-10.4266
48	-10.4267
▁influence	-10.4267
▁calling	-10.4278
▁Kingdom	-10.4282
▁otak	-10.4284
▁Province	-10.4284
ev	-10.4287
▁misalnya	-10.4291
▁Gov	-10.4292
8%	-10.4292
▁Sebaliknya	-10.4293
▁Ed	-10.4295
▁activity	-10.4295
▁carry	-10.4303
oc	-10.4307
▁Victoria	-10.4311
▁Jawa	-10.4311
▁Under	-10.4313
31	-10.4313
▁Reuters	-10.4317
▁pantas	-10.4325
▁proposed	-10.4328
ub	-10.4331
▁simpanan	-10.4331
▁Muslims	-10.4331
▁steps	-10.4334
▁Western	-10.4339
▁filed	-10.4341
▁Beach	-10.4343
▁berbahaya	-10.4345
▁portfolio	-10.4345
belah	-10.4345
▁Morgan	-10.4348
▁Gambar	-10.4348
▁berjuang	-10.4351
sion	-10.4353
ky	-10.4354
▁talks	-10.4357
▁develop	-10.4364
▁iPad	-10.437
▁professor	-10.4373
▁reasons	-10.4375
▁Harvard	-10.4376
▁Daily	-10.4381
▁votes	-10.4382
▁selling	-10.4388
▁Putin	-10.4389
▁Yu	-10.4389
▁Management	-10.4392
▁indah	-10.4398
▁Alex	-10.4398
▁Tinggi	-10.4399
▁Both	-10.44
▁names	-10.44
▁coverage	-10.4403
▁drugs	-10.4404
▁hundreds	-10.4406
▁operation	-10.4408
▁Let	-10.4409
▁mengenal	-10.441
▁meluas	-10.4414
▁Bal	-10.4414
▁www	-10.4417
▁poll	-10.4417
▁direction	-10.4418
▁Tuhan	-10.4426
▁consumer	-10.443
▁Pi	-10.443
▁kerjaya	-10.4436
▁menghubungi	-10.4438
▁misi	-10.4441
▁rally	-10.4446
▁Like	-10.4446
▁barah	-10.4453
▁street	-10.4459
▁double	-10.446
▁hutan	-10.4462
▁Syed	-10.4464
TE	-10.4464
▁knowledge	-10.4469
▁mengganggu	-10.4473
pt	-10.4473
▁Ireland	-10.4479
▁virus	-10.4482
▁negatif	-10.4485
ator	-10.4486
▁pameran	-10.4487
▁tindak	-10.4488
▁existing	-10.4489
▁moral	-10.4491
▁exactly	-10.4491
▁extra	-10.4491
▁label	-10.4496
▁places	-10.4496
▁cahaya	-10.45
▁melanggar	-10.45
ative	-10.4502
▁Brian	-10.4502
ray	-10.4518
generic	-10.4522
▁collection	-10.4523
▁negative	-10.4527
▁selesa	-10.4532
▁sexual	-10.4537
iz	-10.454
▁Dec	-10.4542
town	-10.4545
▁43	-10.4546
▁berikut	-10.4548
▁sound	-10.4553
▁Va	-10.4554
▁missing	-10.4558
▁persidangan	-10.4558
▁bus	-10.456
▁Water	-10.456
▁Aziz	-10.456
ria	-10.4562
▁Mengapa	-10.4562
▁minuman	-10.4563
▁dinyatakan	-10.4563
ologi	-10.4563
▁sort	-10.4569
▁Kewangan	-10.4572
▁km	-10.4574
▁menyerahkan	-10.4574
▁abuse	-10.4575
▁ketenteraan	-10.4576
▁powerful	-10.458
▁planning	-10.458
▁Has	-10.4583
▁criminal	-10.4588
▁dijalankan	-10.4592
▁walk	-10.4594
▁Italy	-10.4596
AM	-10.4599
▁bon	-10.4601
▁tulis	-10.4609
▁tingkah	-10.461
▁sources	-10.461
▁Wilson	-10.4614
▁FOR	-10.4617
▁sentiasa	-10.4618
vis	-10.4619
▁diper	-10.4619
▁ladang	-10.4622
▁decline	-10.4623
▁segala	-10.4626
▁Coast	-10.4626
▁perhaps	-10.4627
ff	-10.4628
▁Anti	-10.463
▁anaknya	-10.4634
▁explained	-10.4639
▁reform	-10.4639
foot	-10.4642
▁beralih	-10.4643
2%	-10.4643
▁pokok	-10.4644
▁Data	-10.4644
tiga	-10.4645
ology	-10.4646
▁opportunities	-10.4646
▁suspect	-10.4647
KAN	-10.465
▁fuel	-10.4654
▁aliran	-10.4654
▁eyes	-10.4656
▁honor	-10.4656
▁seemed	-10.4656
▁fighting	-10.4658
▁completed	-10.466
500	-10.466
▁troops	-10.4661
▁fair	-10.4664
▁siap	-10.4664
▁Perlis	-10.4665
▁EST	-10.4666
ig	-10.4668
▁approved	-10.4668
Apa	-10.467
▁piece	-10.4677
▁Rahman	-10.4686
▁winning	-10.4688
▁dilantik	-10.4689
▁menangkap	-10.4691
▁Az	-10.4691
▁premium	-10.4696
▁penyelidik	-10.4698
▁vehicles	-10.4699
▁pencalonan	-10.4703
▁earnings	-10.4704
▁Cha	-10.471
▁beg	-10.472
▁attend	-10.4721
▁39	-10.4721
med	-10.4721
▁gereja	-10.4726
tain	-10.4726
▁pembeli	-10.4729
mah	-10.4729
▁box	-10.473
▁hijau	-10.4732
▁agree	-10.4735
▁Bad	-10.4741
▁revealed	-10.4745
▁Nick	-10.4755
▁kemahiran	-10.4756
▁island	-10.4757
val	-10.4762
▁weight	-10.4764
▁Darul	-10.4768
pp	-10.4774
▁rahsia	-10.4775
▁wujud	-10.4776
▁memperkenalkan	-10.4777
ou	-10.4785
ph	-10.4788
▁plane	-10.4788
ANG	-10.4792
▁Mer	-10.4793
▁merosakkan	-10.4794
put	-10.4799
▁peralatan	-10.4803
▁situasi	-10.4806
▁peluru	-10.4808
▁Cambridge	-10.4808
▁khususnya	-10.4808
▁berjumlah	-10.4814
▁boy	-10.4816
▁Mitt	-10.4818
▁sedia	-10.4819
▁effective	-10.4819
▁measures	-10.4824
▁pair	-10.4824
▁spoke	-10.4828
▁Power	-10.4829
▁blue	-10.4829
▁Ab	-10.4832
://	-10.4832
▁Joseph	-10.4835
▁African	-10.4837
▁Because	-10.4837
▁birth	-10.4843
▁traffic	-10.4845
asa	-10.4846
▁41	-10.4849
▁Cleveland	-10.4852
▁diberitahu	-10.4852
87	-10.4854
▁menilai	-10.486
gas	-10.4866
Ba	-10.4868
36	-10.4868
▁tumpuan	-10.4868
▁Election	-10.4869
▁peace	-10.487
▁add	-10.4872
▁Bra	-10.4872
bra	-10.4874
▁persoalan	-10.4878
▁basis	-10.4878
RM	-10.4881
langkah	-10.4884
jah	-10.4885
▁asking	-10.4885
▁mengerikan	-10.4887
▁hair	-10.4895
van	-10.4895
▁Indonesian	-10.4901
▁committed	-10.4901
▁ganda	-10.4905
pun	-10.4907
▁suspek	-10.4907
▁1,000	-10.4909
▁pelaksanaan	-10.4916
▁terpilih	-10.4916
▁worse	-10.4917
fra	-10.4923
▁expressed	-10.4926
▁weapons	-10.4928
▁plant	-10.4929
▁wide	-10.4933
had	-10.4935
▁GM	-10.4936
▁Tanah	-10.4937
▁LISAN	-10.4937
▁Hi	-10.4937
▁difference	-10.4943
head	-10.4943
▁McCain	-10.4952
▁penasihat	-10.4955
▁percutian	-10.4958
▁menurun	-10.4962
▁kebimbangan	-10.4962
▁whom	-10.4963
tis	-10.4964
tim	-10.4969
▁debut	-10.4971
▁pengadilan	-10.4972
▁responsibility	-10.4974
▁menu	-10.4975
▁giant	-10.4977
ix	-10.4978
Me	-10.498
▁serve	-10.4981
▁Gold	-10.4985
▁Bre	-10.4985
▁villages	-10.4986
▁b	-10.4987
>	-10.4989
▁showing	-10.499
▁mencipta	-10.4991
▁regular	-10.4991
▁favorite	-10.4993
▁kualiti	-10.4994
▁Bukan	-10.5001
▁dibayar	-10.5001
▁berpindah	-10.5002
▁Gedung	-10.5004
PS	-10.5004
37	-10.5005
▁Asian	-10.5009
44	-10.501
▁Wang	-10.501
▁overall	-10.5011
▁owner	-10.5013
▁menuduh	-10.5014
cita	-10.5018
▁provides	-10.502
election	-10.5022
▁direct	-10.5022
▁Antara	-10.5024
isu	-10.5024
ks	-10.5028
▁Fire	-10.503
▁studies	-10.5031
cher	-10.5042
▁f	-10.5043
▁Sama	-10.5045
▁menghormati	-10.5046
▁nasihat	-10.5046
▁dikemas	-10.5046
▁Secar	-10.505
▁Still	-10.5051
34	-10.5053
▁Board	-10.5059
▁Force	-10.5061
▁wajah	-10.5067
▁ukuran	-10.5069
board	-10.5071
▁Up	-10.5073
▁kolej	-10.5074
IL	-10.5076
▁mendalam	-10.5081
▁sempurna	-10.5081
▁dropped	-10.5089
▁merosot	-10.5098
▁dengannya	-10.5099
▁namanya	-10.51
ED	-10.5101
tter	-10.511
▁Pantai	-10.511
▁purpose	-10.5111
▁Poskod	-10.5115
▁restaurant	-10.5117
▁Norway	-10.5121
▁ministry	-10.5121
▁damage	-10.5124
▁Sydney	-10.5125
▁Minggu	-10.5127
▁green	-10.5128
▁Liga	-10.5129
itas	-10.513
▁berkhidmat	-10.5133
cent	-10.5135
▁attempt	-10.5135
▁south	-10.5135
▁complex	-10.5138
▁papan	-10.5139
▁stocks	-10.5139
▁location	-10.514
▁Perkara	-10.514
▁stabil	-10.5142
DA	-10.5147
▁mengenakan	-10.5149
▁Mat	-10.5151
▁push	-10.5152
▁angka	-10.5156
▁active	-10.5157
▁arrived	-10.5162
▁experts	-10.5162
▁cast	-10.5165
utan	-10.5166
▁Dallas	-10.5167
9%	-10.517
▁rose	-10.5173
▁failure	-10.5177
▁path	-10.5179
]]	-10.5181
98	-10.5185
▁Who	-10.5188
▁fail	-10.519
▁concerned	-10.5193
▁lengkap	-10.5194
49	-10.5198
mb	-10.5198
▁amat	-10.52
AS	-10.5202
▁memotong	-10.5202
▁Network	-10.5204
▁square	-10.5205
▁Sembilan	-10.5205
▁Instead	-10.5207
ata	-10.521
▁driving	-10.5211
▁resources	-10.5212
▁allegedly	-10.5213
▁aspek	-10.5213
▁kemajuan	-10.5218
▁Christie	-10.5219
▁doubt	-10.5227
47	-10.5229
▁shared	-10.5229
▁helping	-10.5231
▁crowd	-10.5231
▁pelancong	-10.5232
▁train	-10.5233
ez	-10.5234
▁join	-10.5238
05	-10.5239
law	-10.5239
38	-10.5242
▁Dar	-10.5242
pon	-10.5243
32	-10.5249
▁struktur	-10.5249
▁mengejar	-10.5256
▁generation	-10.5257
▁Selama	-10.5259
▁arahan	-10.5263
▁Melaka	-10.5263
▁funding	-10.5265
▁memeriksa	-10.5269
▁becoming	-10.5271
Sebuah	-10.5273
kon	-10.528
▁mengancam	-10.528
▁bersenjata	-10.5281
▁mengunjungi	-10.5283
▁ketat	-10.5284
▁Hak	-10.5285
▁concept	-10.529
▁Ger	-10.529
▁berminat	-10.5291
vers	-10.5295
sis	-10.5299
tle	-10.53
sp	-10.53
▁behavior	-10.5301
▁perbahasan	-10.5305
▁kayu	-10.5308
▁killing	-10.5308
▁providing	-10.531
▁basic	-10.531
▁Social	-10.5312
▁liputan	-10.5313
▁religion	-10.5316
▁terkini	-10.5318
Ra	-10.5322
▁spot	-10.5323
▁pangkalan	-10.5323
▁ditetapkan	-10.5331
▁Guan	-10.5332
▁Sarah	-10.5335
▁postal	-10.5336
▁pemotongan	-10.5337
▁clearly	-10.534
▁Cook	-10.5342
▁larger	-10.5343
▁focused	-10.5343
▁enjoy	-10.5344
▁gives	-10.5346
▁Pemerintah	-10.5347
▁offering	-10.535
▁actress	-10.535
▁Corporation	-10.5351
lebih	-10.5354
▁appointed	-10.5358
▁pertanian	-10.5362
▁waste	-10.5364
▁jurulatih	-10.5365
▁Brooklyn	-10.5365
▁Android	-10.5368
▁Ekonomi	-10.5372
ps	-10.5372
▁stores	-10.5374
▁mass	-10.5377
right	-10.5378
▁declined	-10.5379
▁ideas	-10.5381
▁intelligence	-10.5381
▁believes	-10.5383
Do	-10.5385
▁Watch	-10.5388
ction	-10.5389
▁governor	-10.539
▁newspaper	-10.539
▁Justin	-10.5391
▁storm	-10.5392
▁facing	-10.5392
▁sesiapa	-10.5392
▁+	-10.5393
▁conservative	-10.5394
▁terkejut	-10.5395
uri	-10.5396
▁peristiwa	-10.5397
hon	-10.5397
92	-10.54
50,000	-10.5404
▁peserta	-10.5408
tch	-10.5408
mun	-10.5411
▁Year	-10.5415
del	-10.5416
▁profesor	-10.5418
▁Jason	-10.5418
▁kementerian	-10.5419
▁mesyuarat	-10.542
▁documents	-10.5421
▁dog	-10.5423
▁sungai	-10.5426
▁heavy	-10.5426
ST	-10.5429
TI	-10.543
▁teman	-10.5436
▁seeing	-10.5437
▁accept	-10.5443
ities	-10.5448
iah	-10.5449
▁Pembangunan	-10.5449
▁Bekas	-10.545
sal	-10.5452
▁44	-10.5456
▁screen	-10.5459
bri	-10.546
▁balance	-10.5462
▁skills	-10.5465
▁physical	-10.5466
down	-10.5475
▁Ray	-10.5476
PO	-10.5476
▁afternoon	-10.5478
▁QUESTION	-10.5482
▁critical	-10.5485
▁IS	-10.5486
▁Patrick	-10.5487
cut	-10.5489
▁Lembaga	-10.549
▁infrastructure	-10.5493
▁citizens	-10.5496
▁ibunya	-10.5497
▁affected	-10.5499
jam	-10.5508
▁Pertahanan	-10.5508
▁Special	-10.5508
89	-10.5509
▁cat	-10.5512
▁Houston	-10.5514
▁maaf	-10.5517
▁Luar	-10.5519
▁Chairman	-10.5519
▁records	-10.552
▁Bahasa	-10.5522
turut	-10.5522
▁150	-10.5522
not	-10.5524
▁kelebihan	-10.5525
▁willing	-10.5525
▁tough	-10.5526
▁Middle	-10.5528
▁owners	-10.5528
▁suaminya	-10.5531
▁Seattle	-10.5533
▁knows	-10.5535
▁request	-10.5536
▁Latin	-10.5539
▁pengawal	-10.5541
▁Video	-10.5541
book	-10.5545
▁stuff	-10.5548
▁automatik	-10.5551
▁compete	-10.5552
▁kebakaran	-10.5555
▁4,	-10.5557
▁marketing	-10.5562
Pen	-10.5563
▁46	-10.5565
aya	-10.5566
▁Human	-10.5566
sar	-10.5574
PA	-10.5576
▁bought	-10.5578
sch	-10.5579
▁jaminan	-10.5581
▁Trade	-10.5582
▁noted	-10.5583
▁fully	-10.5584
▁identified	-10.5587
▁concern	-10.5587
▁Those	-10.5591
her	-10.5594
ett	-10.5596
▁kegagalan	-10.5599
▁jantung	-10.5605
dah	-10.5608
▁diminta	-10.5609
Kredit	-10.5613
▁>>	-10.5614
▁NBA	-10.5615
▁Goldman	-10.5615
▁kerosakan	-10.5619
cul	-10.5619
▁discuss	-10.5619
▁1999	-10.5621
▁Cho	-10.5625
▁ban	-10.5626
▁increasing	-10.5628
uhan	-10.5629
▁Sebenarnya	-10.5629
SK	-10.5633
▁planned	-10.5633
▁Kristian	-10.5637
▁completely	-10.5638
ec	-10.5641
▁Earth	-10.5644
▁dasarnya	-10.5647
▁Encik	-10.5649
85	-10.5651
▁55	-10.5652
bank	-10.5653
Ka	-10.5656
▁Keluarga	-10.5658
▁Illinois	-10.5659
▁bimbit	-10.5662
▁terhad	-10.5663
mm	-10.5666
▁Calon	-10.5668
▁shown	-10.5673
▁wall	-10.5678
▁Before	-10.5678
▁samping	-10.568
▁dollar	-10.568
▁pendatang	-10.5681
▁Olympic	-10.5681
▁army	-10.5682
▁youth	-10.5683
▁aware	-10.5683
▁kalinya	-10.5684
▁Pihak	-10.5684
▁Games	-10.5688
▁beautiful	-10.5689
▁USA	-10.569
▁ribut	-10.5691
▁hopes	-10.5694
▁Cal	-10.5695
▁Zealand	-10.5699
▁protest	-10.57
▁bio	-10.57
▁Masjid	-10.5701
▁berani	-10.5706
▁upon	-10.5711
▁bakar	-10.5718
▁carried	-10.572
▁Institut	-10.5721
▁petunjuk	-10.5722
▁protection	-10.5723
▁announcement	-10.5727
aw	-10.5728
▁About	-10.5728
▁runcit	-10.573
▁parlimen	-10.5733
▁university	-10.5735
▁Gen	-10.5737
▁dark	-10.5742
▁Detroit	-10.5756
▁Italian	-10.5757
▁Despite	-10.576
▁melawan	-10.5765
▁Museum	-10.5767
▁didapati	-10.577
▁bersaing	-10.5771
▁runs	-10.5771
▁rising	-10.5772
▁managed	-10.5777
▁festival	-10.5777
▁Ze	-10.578
▁Services	-10.5782
▁Kesatuan	-10.5784
▁church	-10.5785
▁attorney	-10.5788
▁Free	-10.5788
▁Rose	-10.5791
▁berlari	-10.5795
▁maybe	-10.5796
light	-10.5796
1%	-10.5797
46	-10.5801
▁species	-10.5801
▁kebenaran	-10.5803
▁penemuan	-10.5807
las	-10.5811
▁keterangan	-10.5813
▁Undang	-10.5813
▁kategori	-10.5817
▁hujan	-10.5821
▁sengaja	-10.5822
▁Defense	-10.5828
▁Yahoo	-10.583
▁sikap	-10.5832
▁rich	-10.5836
▁sampah	-10.5836
▁freedom	-10.5837
work	-10.5838
▁pembuatan	-10.5839
▁Ikuti	-10.5842
▁injured	-10.5843
▁Tar	-10.5844
▁Our	-10.5845
aman	-10.5847
▁suami	-10.5847
▁naib	-10.5849
▁necessary	-10.585
ura	-10.585
gin	-10.5852
200	-10.5857
tanda	-10.5862
▁diet	-10.5864
▁kelahiran	-10.5866
▁Saham	-10.5866
▁YANG	-10.5867
▁Supreme	-10.5869
▁ditubuhkan	-10.5872
▁artists	-10.5872
▁Vo	-10.5874
▁paying	-10.5876
▁pesanan	-10.5878
▁reading	-10.5883
▁greater	-10.5884
▁liar	-10.5886
▁maintain	-10.5888
▁Get	-10.5889
▁ceremony	-10.5895
▁pemandangan	-10.5897
▁Jon	-10.5902
▁male	-10.5902
▁•	-10.5909
tes	-10.5909
▁buying	-10.5913
▁tadi	-10.5915
▁van	-10.5916
▁seeking	-10.5916
▁recorded	-10.5917
▁nature	-10.5917
▁Second	-10.5918
▁southern	-10.5919
▁items	-10.5923
gra	-10.5933
▁berkumpul	-10.5936
Orang	-10.5936
▁Bumiputera	-10.5936
▁lepas	-10.5938
ability	-10.5939
▁choose	-10.594
▁Barisan	-10.594
kor	-10.5942
▁disediakan	-10.5945
▁Plan	-10.5947
▁Israeli	-10.5948
▁diumumkan	-10.5955
SE	-10.5961
▁mostly	-10.5961
▁ball	-10.5961
▁unique	-10.5963
▁Hampshire	-10.5963
▁cross	-10.5964
▁loan	-10.5968
▁IN	-10.597
▁Its	-10.5975
▁pentas	-10.5976
▁Nevada	-10.5979
▁dalaman	-10.598
▁Ted	-10.5983
▁equipment	-10.5986
ible	-10.5988
▁devices	-10.5988
water	-10.5988
katanya	-10.599
▁menjangkakan	-10.5991
и	-10.5996
▁perfect	-10.5998
gate	-10.6001
▁fashion	-10.6002
▁kebanyakannya	-10.6007
39	-10.6013
▁conducted	-10.6016
▁kepemimpinan	-10.6018
▁inter	-10.6021
▁worst	-10.6022
▁McDonald	-10.6022
▁alleged	-10.6023
▁millions	-10.6023
▁latar	-10.6029
▁Warren	-10.603
▁suit	-10.6031
▁bringing	-10.6032
▁fresh	-10.6033
▁mengawal	-10.6034
▁allegations	-10.6035
yan	-10.6036
▁kamu	-10.6036
▁buildings	-10.6038
▁Carter	-10.6039
▁Avenue	-10.604
▁directed	-10.6041
▁older	-10.6044
▁liga	-10.6046
bon	-10.605
▁Switzerland	-10.605
▁Palestin	-10.6051
▁songs	-10.6059
▁memukul	-10.606
▁Provinsi	-10.606
▁Taliban	-10.6065
mit	-10.6069
▁multiple	-10.6069
aga	-10.6069
▁IT	-10.607
▁Khan	-10.6071
▁Top	-10.6072
▁2001,	-10.6073
▁Their	-10.6073
▁kasar	-10.6073
▁Roman	-10.6076
▁suggested	-10.6077
set	-10.6077
▁majoriti	-10.608
▁mengharapkan	-10.608
▁perwakilan	-10.6081
▁Jobs	-10.6082
ick	-10.6084
▁yourself	-10.6085
▁majikan	-10.6087
▁istimewa	-10.6088
▁conflict	-10.609
▁Jose	-10.6091
cor	-10.6092
42	-10.6097
▁seolah	-10.6099
besaran	-10.6101
▁konsep	-10.6102
▁mengajar	-10.6107
▁65	-10.6108
▁siaran	-10.611
▁Belanda	-10.6111
▁opinion	-10.6111
▁mendesak	-10.6112
▁menolong	-10.6112
▁Tanjung	-10.6112
▁pain	-10.6114
▁gain	-10.6117
▁PEOPLE	-10.6117
▁emergency	-10.6119
isasi	-10.6121
▁Academy	-10.6121
▁presence	-10.6122
▁institutions	-10.6122
▁Aman	-10.6123
▁melanda	-10.6123
▁tunggal	-10.6124
▁Agency	-10.6136
▁waiting	-10.6136
▁labor	-10.6141
▁text	-10.6141
▁goals	-10.6147
▁inisiatif	-10.6147
▁bertambah	-10.6147
bro	-10.6148
sk	-10.6152
▁bilangan	-10.6153
▁Pra	-10.6158
▁pemasaran	-10.6159
rap	-10.616
Mo	-10.616
▁determine	-10.6161
▁eat	-10.6164
AD	-10.6165
perkara	-10.6171
▁perintah	-10.6173
▁Henry	-10.6174
▁kem	-10.6175
▁menampilkan	-10.6177
▁Energy	-10.6186
▁pengembangan	-10.6198
▁massive	-10.6198
ular	-10.6198
wing	-10.6199
▁2007,	-10.62
▁organizations	-10.6202
▁camp	-10.6204
300	-10.6204
barang	-10.6205
▁Jangan	-10.6205
▁berjanji	-10.6205
▁expensive	-10.621
▁guys	-10.6212
▁setuju	-10.6214
▁pengangkutan	-10.6216
▁ribu	-10.6219
▁Ker	-10.6221
▁ejen	-10.6221
▁bencana	-10.6223
lia	-10.6224
▁ship	-10.6224
▁Korean	-10.6225
▁Tiga	-10.6226
▁tech	-10.6227
▁KE	-10.6228
▁Game	-10.6232
▁puluhan	-10.6233
65	-10.6233
▁session	-10.6234
kap	-10.6236
▁kegemaran	-10.6236
jak	-10.6237
gel	-10.6243
▁dibebaskan	-10.6243
IT	-10.6248
▁permohonan	-10.6249
UN	-10.625
▁Earlier	-10.6251
▁lived	-10.6252
▁stars	-10.6252
uddin	-10.6255
▁challenges	-10.6255
08	-10.6256
IP	-10.6257
▁Berhad	-10.6257
▁prove	-10.6263
▁pra	-10.6265
pping	-10.6268
▁easily	-10.6268
IC	-10.6269
ena	-10.627
▁evening	-10.6271
▁sites	-10.6273
▁DC	-10.6273
▁manfaat	-10.6274
▁scheduled	-10.6274
▁bermakna	-10.628
▁weather	-10.6281
ell	-10.6281
▁Unit	-10.6283
od	-10.6286
▁See	-10.6288
▁gelap	-10.629
▁kecewa	-10.629
point	-10.6292
▁saling	-10.6294
▁respond	-10.6296
▁healthy	-10.6297
▁Team	-10.6297
▁encourage	-10.6305
▁47	-10.6307
▁progress	-10.6308
▁Allah	-10.6312
▁highly	-10.6312
▁fellow	-10.6321
▁passengers	-10.6323
org	-10.6323
▁75	-10.6324
CC	-10.6327
ified	-10.6327
▁1998	-10.6328
▁interesting	-10.6333
▁Jennifer	-10.6333
▁potongan	-10.6334
▁Jika	-10.6336
▁truth	-10.6338
▁Teluk	-10.6346
▁tunjuk	-10.6347
▁advice	-10.6348
▁net	-10.6349
▁kimia	-10.635
▁Czech	-10.635
▁fish	-10.6352
▁confidence	-10.6353
▁Bell	-10.6354
▁haven	-10.6358
▁bangsa	-10.6359
▁MA	-10.636
▁Finance	-10.636
IM	-10.6364
▁anugerah	-10.6364
▁facilities	-10.6365
eu	-10.6366
▁kotak	-10.6367
▁watching	-10.6369
▁Dis	-10.637
▁memandangkan	-10.637
▁attended	-10.637
AH	-10.637
▁rang	-10.6378
▁pengaruh	-10.6379
▁park	-10.6382
▁mengesan	-10.6383
▁Pentadbiran	-10.6387
▁separate	-10.639
bus	-10.6392
ola	-10.6392
▁draw	-10.6395
ming	-10.6395
▁Masa	-10.6396
▁SE	-10.6398
▁komunikasi	-10.6399
▁bom	-10.64
▁membangun	-10.6402
lly	-10.6402
▁Yahudi	-10.6403
▁league	-10.6404
▁secret	-10.641
▁crash	-10.6418
01	-10.6418
▁membuatnya	-10.6418
▁kod	-10.642
▁formula	-10.6422
▁ayahnya	-10.6424
▁mengatur	-10.6426
▁films	-10.6427
▁puluh	-10.6432
▁Bel	-10.6436
▁Hassan	-10.6436
bb	-10.6437
▁MP	-10.6439
▁bersara	-10.644
use	-10.6444
▁beat	-10.6445
▁konflik	-10.6447
▁meters	-10.6452
▁rambut	-10.6452
▁khabar	-10.6453
angkan	-10.6455
▁camera	-10.6456
ette	-10.6456
▁ketinggian	-10.6457
▁peniaga	-10.6461
▁Berita	-10.6469
▁Val	-10.6472
▁unik	-10.6472
▁implemented	-10.6475
nie	-10.6478
400	-10.6484
cap	-10.6491
hor	-10.6492
ments	-10.6502
▁golf	-10.6502
▁application	-10.6503
▁Inilah	-10.6504
▁Technology	-10.6506
ably	-10.6507
hat	-10.651
Pa	-10.651
tun	-10.6512
▁cuts	-10.6515
▁commitment	-10.6519
▁Dipertua	-10.6522
▁approval	-10.6524
▁presented	-10.6525
cra	-10.6527
ns	-10.6534
pit	-10.6535
mann	-10.6535
cle	-10.6536
▁smart	-10.6536
▁PER	-10.6538
▁units	-10.6542
▁komersial	-10.6542
▁saintis	-10.6543
Star	-10.6548
▁doctor	-10.6549
97	-10.6549
LA	-10.6552
▁options	-10.6553
▁Sumber	-10.6559
▁Golden	-10.6559
▁mengingatkan	-10.656
▁dinding	-10.6562
oo	-10.6562
▁meyakinkan	-10.6563
▁tend	-10.6564
▁dituduh	-10.6564
▁minum	-10.6565
mata	-10.6566
▁kunci	-10.6571
▁smaller	-10.6573
▁pembantu	-10.6575
▁melarang	-10.6577
▁Sony	-10.658
▁elected	-10.658
uck	-10.6583
▁Youth	-10.6583
▁Rob	-10.6584
▁surprise	-10.6584
▁cool	-10.6584
▁menandakan	-10.6588
▁coast	-10.659
sing	-10.659
uff	-10.659
▁feeling	-10.6592
▁Dana	-10.6597
known	-10.6598
Ro	-10.6599
▁Gaza	-10.66
ries	-10.6602
▁diikuti	-10.6603
vent	-10.6604
rie	-10.6606
▁Out	-10.6608
▁$4	-10.6612
94	-10.6615
Al	-10.6619
▁lukisan	-10.662
yu	-10.6622
ball	-10.6625
▁Gingrich	-10.6625
gala	-10.6628
▁involving	-10.6628
▁lintas	-10.6628
sim	-10.6629
▁Ve	-10.6632
lay	-10.6632
zo	-10.6633
▁Kon	-10.6633
▁alternatif	-10.6635
▁learning	-10.6636
▁fan	-10.6636
star	-10.6642
▁images	-10.6644
▁aid	-10.6646
▁Rubio	-10.665
▁mempercayai	-10.6651
▁measure	-10.6651
▁Windows	-10.6654
▁52	-10.6655
▁Juga	-10.6657
▁boost	-10.6659
▁denied	-10.6659
▁analyst	-10.666
▁device	-10.6661
▁dijumpai	-10.6661
▁NASA	-10.6662
52	-10.6667
▁episod	-10.6668
ay	-10.6668
▁Sp	-10.6671
▁Tam	-10.6674
▁meaning	-10.6675
▁Moore	-10.6678
▁myself	-10.6678
▁stopped	-10.6681
▁Christmas	-10.6685
▁menge	-10.6688
▁Film	-10.6691
▁$5	-10.6691
▁wearing	-10.6694
▁reportedly	-10.6696
iran	-10.6698
▁ribuan	-10.6699
▁urusan	-10.6701
more	-10.6701
▁Lihat	-10.6704
▁accounts	-10.6704
▁gelaran	-10.6704
▁guilty	-10.6705
▁customer	-10.6708
Pada	-10.6709
▁strength	-10.6709
▁perundangan	-10.671
rai	-10.6714
ila	-10.6716
▁grew	-10.6716
▁interested	-10.6718
▁favor	-10.672
▁kekayaan	-10.6721
▁purchase	-10.6723
▁Fair	-10.6723
▁justice	-10.6723
▁uses	-10.6725
top	-10.6725
qua	-10.6728
▁dangerous	-10.673
▁Follow	-10.6732
ters	-10.6733
▁deputy	-10.6738
▁pelancongan	-10.6739
ira	-10.6739
▁figures	-10.6739
▁diselesaikan	-10.6741
▁Col	-10.6741
▁disokong	-10.6744
▁Poland	-10.6747
▁straight	-10.6747
▁Yet	-10.6749
66	-10.6752
Bo	-10.6755
ins	-10.6759
ali	-10.6765
▁setakat	-10.6767
▁bahaya	-10.6769
▁isyarat	-10.677
▁miskin	-10.677
▁sister	-10.677
▁bid	-10.6774
TER	-10.6776
▁Fri	-10.6776
IS	-10.6779
▁Real	-10.6779
▁Mari	-10.6779
▁Musim	-10.678
▁Win	-10.6782
▁Uber	-10.6786
▁sun	-10.6788
cker	-10.6792
▁pembukaan	-10.6792
dam	-10.6797
▁hasn	-10.6798
▁profit	-10.6799
▁require	-10.6807
▁menguruskan	-10.6808
03	-10.6808
▁Reserve	-10.6809
ade	-10.681
▁Market	-10.681
▁tradisi	-10.6811
▁Cat	-10.6812
▁aksi	-10.6812
▁amalan	-10.6815
▁rice	-10.6815
▁biru	-10.6829
▁sekatan	-10.683
▁Oct	-10.6831
▁Stone	-10.6832
▁teks	-10.6833
▁alternative	-10.6833
▁option	-10.6833
▁feature	-10.6835
▁mencegah	-10.6837
ami	-10.6837
▁bigger	-10.6839
▁dijadualkan	-10.6839
▁infrastruktur	-10.6839
ero	-10.6841
▁elections	-10.6841
▁hurt	-10.6842
▁Simon	-10.6843
▁perkataan	-10.6844
▁menga	-10.6847
▁Cre	-10.6851
▁UN	-10.6853
▁Nations	-10.6855
UT	-10.6855
▁lines	-10.6856
76	-10.6856
ide	-10.6856
▁SO	-10.6857
63	-10.6857
▁Open	-10.6858
hin	-10.6862
54	-10.6863
▁Nur	-10.6866
fu	-10.6868
▁Berikut	-10.6868
▁menukar	-10.6876
▁Project	-10.6877
▁bertentangan	-10.6878
▁finding	-10.6879
▁berturut	-10.688
CA	-10.688
ese	-10.6881
EL	-10.6882
PR	-10.6882
▁happens	-10.6883
▁asalnya	-10.6884
▁aktivis	-10.6886
▁ASEAN	-10.6889
▁MALAYSIA	-10.6891
▁speaking	-10.6893
▁berhati	-10.6893
▁menyiarkan	-10.6895
▁fit	-10.6895
▁1993	-10.6895
art	-10.6897
mes	-10.6898
kas	-10.6898
▁pinggir	-10.6898
▁pelarian	-10.6901
о	-10.6904
▁apartment	-10.6912
▁allows	-10.6912
AT	-10.6916
▁Allen	-10.6917
▁CBC	-10.6923
▁bertanding	-10.6929
▁terkemuka	-10.6933
▁telling	-10.6936
▁Ram	-10.6936
▁climate	-10.6938
▁Wood	-10.6939
mis	-10.6941
▁Sir	-10.6943
kir	-10.6944
▁assistance	-10.6949
▁immigration	-10.695
▁catch	-10.6951
▁suffered	-10.6953
▁slow	-10.6955
▁write	-10.6956
▁PEMBERITAHUAN	-10.6957
sol	-10.6958
▁increasingly	-10.6963
▁awalnya	-10.6965
▁Science	-10.6965
▁nyawa	-10.6965
▁spirit	-10.6968
▁Ebola	-10.6969
▁mayat	-10.697
▁Moscow	-10.6974
yn	-10.6976
▁pembiayaan	-10.698
▁bakat	-10.6984
▁Mur	-10.6988
ens	-10.6992
▁Kardashian	-10.6995
▁Yo	-10.6995
▁losing	-10.6996
▁Industri	-10.6997
▁Rom	-10.6998
▁mencatat	-10.7003
▁mengucapkan	-10.7005
▁appearance	-10.7007
▁implementation	-10.7007
▁berjuta	-10.7008
▁potensi	-10.701
▁placed	-10.7013
▁towards	-10.7013
▁Foreign	-10.7016
▁landasan	-10.7017
▁perempuannya	-10.7022
▁Radio	-10.7024
▁LA	-10.7028
▁reaksi	-10.7029
UM	-10.703
rong	-10.7031
die	-10.7035
▁Java	-10.7038
fin	-10.7039
▁trouble	-10.7041
ag	-10.7044
▁dream	-10.7044
▁Governor	-10.7047
▁Harga	-10.705
▁izin	-10.7052
▁Philip	-10.7054
▁animals	-10.7054
▁Matthew	-10.7054
▁holiday	-10.7055
▁pengambilan	-10.7056
▁GST	-10.7057
▁mom	-10.7057
68	-10.7057
▁bakal	-10.706
daerah	-10.7065
now	-10.7066
▁types	-10.7068
▁Kes	-10.7073
▁Mass	-10.7077
▁margin	-10.7077
▁Call	-10.7077
▁Tenaga	-10.708
▁Terbaik	-10.7081
▁variety	-10.7083
▁matahari	-10.7084
▁Lin	-10.7087
▁Buku	-10.7087
▁researchers	-10.7087
▁ketakutan	-10.7089
▁panduan	-10.709
▁conversation	-10.7091
▁kerap	-10.7092
▁putting	-10.7097
▁berdekatan	-10.7104
ras	-10.7105
iv	-10.7105
▁decisions	-10.7105
▁Lelaki	-10.7111
district	-10.7113
▁persaingan	-10.7119
▁creating	-10.7119
▁contest	-10.712
▁generally	-10.7122
▁Kor	-10.7124
▁structure	-10.7125
91	-10.7126
▁berasaskan	-10.7126
▁penunjuk	-10.7129
▁hanyalah	-10.713
tam	-10.7131
▁Er	-10.7134
▁sit	-10.7135
▁Head	-10.7135
▁selebriti	-10.7135
▁diperoleh	-10.7136
▁Old	-10.7139
arah	-10.7139
▁solution	-10.7141
▁perbualan	-10.7143
▁ditembak	-10.7145
▁shift	-10.7147
▁Francis	-10.7148
▁digambarkan	-10.7155
▁Family	-10.7156
▁Kerana	-10.7157
▁setting	-10.7164
▁caught	-10.7164
▁Night	-10.7164
▁Kan	-10.7165
▁ditunjukkan	-10.7167
▁Tokyo	-10.7172
▁Menengah	-10.7173
▁Constitution	-10.7175
Ta	-10.7176
▁stadium	-10.7183
▁pesaing	-10.7183
sco	-10.7184
▁Ste	-10.7187
▁pergerakan	-10.7188
▁effects	-10.7188
▁enter	-10.7191
▁interests	-10.7192
log	-10.7195
▁menyiasat	-10.7195
▁Aug	-10.7196
▁prepared	-10.7196
lip	-10.7196
▁Samsung	-10.7199
▁snow	-10.7201
▁letupan	-10.7203
▁Model	-10.7204
▁kill	-10.7205
▁Sel	-10.7206
▁background	-10.7207
mara	-10.7208
▁http	-10.7209
▁Bas	-10.7209
▁kesatuan	-10.7209
▁rasuah	-10.721
▁Little	-10.7212
43	-10.7212
▁Four	-10.7212
▁Gra	-10.7213
▁arrest	-10.7213
Ada	-10.7215
▁widely	-10.7216
▁burung	-10.7217
▁harian	-10.7218
Mu	-10.7219
▁appeal	-10.7219
▁cantik	-10.722
lat	-10.7221
▁Lewis	-10.7222
▁pelanggaran	-10.7224
SM	-10.7228
▁McC	-10.7228
main	-10.7233
▁10%	-10.7242
▁Mor	-10.7246
▁Award	-10.7246
▁broke	-10.7247
▁discovered	-10.7249
mate	-10.725
▁analysis	-10.725
gol	-10.7252
ses	-10.7255
▁founder	-10.7256
▁perincian	-10.7257
AK	-10.7258
▁berisiko	-10.7266
▁factors	-10.7266
▁formal	-10.7266
▁kosong	-10.7267
▁developing	-10.7272
▁skin	-10.7274
▁rundingan	-10.7275
▁Biden	-10.7276
▁salji	-10.7276
▁Pemain	-10.7282
▁Phil	-10.7282
▁Spain	-10.7286
ubah	-10.7289
mem	-10.729
▁Maria	-10.7292
▁pictures	-10.7293
amp	-10.7293
▁Azerbaijan	-10.7295
▁Qaeda	-10.7295
▁herself	-10.7296
▁Graham	-10.7299
▁rumahnya	-10.7302
gram	-10.7302
▁Warner	-10.7304
▁Columbia	-10.7305
▁Three	-10.7306
▁sifat	-10.7307
▁Wisconsin	-10.7309
▁gambaran	-10.7311
JA	-10.7315
▁Nu	-10.7316
▁Ak	-10.7317
▁relations	-10.7318
▁Howard	-10.7319
▁seats	-10.7321
gun	-10.7331
▁mengendalikan	-10.7332
▁Atau	-10.7337
▁wish	-10.7337
mus	-10.7337
▁Serbia	-10.734
▁broadcast	-10.734
hr	-10.7341
▁keyakinan	-10.7342
▁ran	-10.7342
▁penerbit	-10.7344
▁Anderson	-10.7345
▁Mosque	-10.7346
rel	-10.7346
place	-10.7346
▁iklim	-10.7348
▁Teknologi	-10.7348
▁Are	-10.7351
▁fiskal	-10.7351
▁bumi	-10.7351
▁Fla	-10.7352
▁Kini	-10.7353
▁Kajian	-10.7353
▁younger	-10.7354
NA	-10.7354
▁Medical	-10.7355
▁loans	-10.7355
▁Hills	-10.7363
▁cuti	-10.7363
▁Ten	-10.7366
▁kemudiannya	-10.7367
▁communities	-10.7369
2,000	-10.7372
nis	-10.7373
▁terbukti	-10.7374
▁mengenali	-10.7377
▁largely	-10.7382
▁color	-10.7384
▁Edward	-10.7385
▁Walker	-10.7386
▁zon	-10.7386
▁8,	-10.7391
▁permukaan	-10.7394
57	-10.7394
▁flat	-10.7397
ef	-10.7404
▁conduct	-10.7406
6,000	-10.7408
▁Gabenor	-10.7408
▁promote	-10.7409
▁Liberal	-10.741
▁realiti	-10.741
▁sebabnya	-10.7412
▁umur	-10.7413
▁lewat	-10.7414
burg	-10.7416
▁kehadiran	-10.7417
▁Sistem	-10.7417
▁Cu	-10.7418
▁Jumlah	-10.7423
▁deliver	-10.7425
▁tajuk	-10.7428
▁51	-10.7428
▁komitmen	-10.7431
▁finance	-10.7433
▁belas	-10.7442
▁memper	-10.7445
▁masjid	-10.7447
▁Harris	-10.7449
▁rooms	-10.7451
▁5,	-10.7451
▁Sta	-10.7454
▁kesepakatan	-10.7454
▁peringatan	-10.7458
▁memerangi	-10.746
nik	-10.7461
▁gabenor	-10.7465
▁block	-10.7465
▁Bridge	-10.7465
▁easier	-10.7466
▁1950	-10.7467
▁Kira	-10.7467
▁meant	-10.7476
▁accident	-10.7482
▁ruling	-10.7483
▁mengakhiri	-10.7485
ious	-10.7487
▁IRS	-10.7488
▁doctors	-10.749
▁counter	-10.7493
▁9,	-10.7493
az	-10.7493
▁Jam	-10.7495
▁bottom	-10.7497
88	-10.7499
▁shop	-10.7504
▁emosi	-10.7509
All	-10.7512
41	-10.7512
▁berlebihan	-10.7514
56	-10.7514
▁Sim	-10.7517
▁1997	-10.7518
▁Globe	-10.7519
▁talent	-10.7524
An	-10.7526
▁supported	-10.7526
▁disahkan	-10.7528
▁Ser	-10.7531
▁Bersatu	-10.7533
▁Report	-10.7535
59	-10.7537
▁Michelle	-10.7537
06	-10.7538
▁menaiki	-10.7545
▁Affairs	-10.7549
▁Oakland	-10.7549
▁juara	-10.755
▁lapor	-10.755
▁fiscal	-10.7551
▁klasik	-10.7553
kali	-10.7553
▁melabur	-10.7553
zz	-10.7555
▁mengembalikan	-10.7556
▁secretary	-10.7558
▁mematikan	-10.7558
▁dicapai	-10.7559
▁tapi	-10.7559
▁seek	-10.7561
▁mempromosikan	-10.7564
▁tampil	-10.7567
▁TH	-10.758
gy	-10.7586
▁Mis	-10.7586
▁Char	-10.7588
untuk	-10.7588
▁Financial	-10.7592
▁ketara	-10.7594
▁berumur	-10.7594
▁soldiers	-10.7597
86	-10.7598
play	-10.7599
Ber	-10.76
▁flow	-10.76
Ia	-10.7602
▁gelombang	-10.7605
▁twice	-10.761
▁pengetahuan	-10.7614
BA	-10.762
hop	-10.7622
▁kompleks	-10.7622
▁quarterback	-10.7623
▁ekuiti	-10.7626
▁memperbaiki	-10.7628
▁retail	-10.7631
▁explain	-10.7635
▁PADA	-10.7635
▁assault	-10.7636
▁assist	-10.7638
▁temu	-10.7639
▁teori	-10.7642
fil	-10.7647
▁tali	-10.765
▁DATO	-10.7653
▁cuaca	-10.766
▁jawapan	-10.7664
▁Nepal	-10.7664
▁Scotland	-10.7668
▁wajar	-10.767
ahkan	-10.7671
ben	-10.7676
▁award	-10.7679
▁tetamu	-10.7682
▁Sin	-10.7684
ical	-10.7685
▁limit	-10.7687
▁Sar	-10.7687
▁DNA	-10.7693
▁corruption	-10.7695
▁degree	-10.7695
▁Azmin	-10.77
▁pelajaran	-10.7702
▁scandal	-10.7705
ug	-10.7707
bulan	-10.7707
▁sekadar	-10.7707
▁Anggota	-10.7709
SP	-10.7716
▁acting	-10.7716
▁memakan	-10.7717
53	-10.7717
▁atlet	-10.7719
▁1996	-10.7721
▁regime	-10.7727
▁rare	-10.7728
▁originally	-10.7728
▁elektronik	-10.773
▁nearby	-10.773
▁pengkritik	-10.7733
▁istilah	-10.7733
Co	-10.7733
▁spesies	-10.7738
▁dulu	-10.7738
▁legislation	-10.7739
MAN	-10.7741
▁mengarahkan	-10.7742
▁tenang	-10.7745
▁sitting	-10.7746
▁Awam	-10.7751
▁remained	-10.7752
ES	-10.7752
58	-10.7752
rus	-10.7754
[	-10.7757
▁Pay	-10.7763
▁7,	-10.7764
▁menderita	-10.7766
▁Jean	-10.7766
▁terburuk	-10.7767
▁menerbitkan	-10.7768
▁dimulakan	-10.777
▁Economic	-10.7777
▁task	-10.7777
▁spring	-10.7783
▁user	-10.7784
▁blok	-10.7786
pas	-10.7788
atau	-10.7788
▁lampu	-10.7792
▁Minnesota	-10.7792
▁Malah	-10.7793
AFP	-10.7794
▁gula	-10.7795
▁cloud	-10.7795
▁criticism	-10.7798
▁10,000	-10.7798
SI	-10.7806
▁industrial	-10.7809
▁internal	-10.7812
act	-10.7817
▁subsidi	-10.7822
▁owned	-10.7822
▁chain	-10.7825
▁pelepasan	-10.7831
▁kebijakan	-10.7832
▁decide	-10.7833
▁teacher	-10.7834
nar	-10.7834
▁mencabar	-10.7838
▁pulih	-10.7842
▁saksi	-10.7845
▁juri	-10.7853
▁faham	-10.7853
▁Fort	-10.7862
04	-10.7863
▁organized	-10.7865
▁mulanya	-10.7867
▁Capitol	-10.7867
▁Fu	-10.7867
▁holds	-10.7868
▁Putrajaya	-10.787
aka	-10.7873
▁Cara	-10.7874
▁score	-10.7875
▁loved	-10.7876
▁signs	-10.7884
▁Fre	-10.7884
bul	-10.7886
▁solar	-10.7888
▁Pemimpin	-10.7889
▁Netflix	-10.789
pul	-10.7891
▁jump	-10.7895
▁exercise	-10.7895
MI	-10.7901
KU	-10.7901
▁Food	-10.7902
▁rep	-10.7906
▁quick	-10.7906
ano	-10.7907
▁1991	-10.7907
▁banjir	-10.7908
▁Ann	-10.7908
▁houses	-10.7909
ala	-10.7909
▁layar	-10.791
▁trak	-10.7917
▁umat	-10.7919
▁Camp	-10.792
▁Egypt	-10.7921
▁Week	-10.7923
▁payments	-10.7926
▁bond	-10.7929
▁thus	-10.793
▁touch	-10.7931
▁polls	-10.7938
ions	-10.7939
RO	-10.794
▁Nama	-10.7945
▁Wil	-10.7946
800	-10.7947
▁pemberontak	-10.7948
tum	-10.7949
▁Puan	-10.795
dang	-10.7956
▁sedar	-10.7957
▁ditawarkan	-10.7957
Man	-10.796
`	-10.7962
▁ordered	-10.7966
▁Town	-10.7966
▁lantai	-10.7967
▁kuda	-10.7968
▁winner	-10.797
▁pan	-10.7972
▁occurred	-10.7974
▁FIFA	-10.7981
▁declared	-10.7985
▁Alexander	-10.7989
▁goods	-10.7989
07	-10.799
▁GE	-10.7991
▁antaranya	-10.7995
▁Palin	-10.7995
▁nomination	-10.7995
hara	-10.7998
room	-10.7999
72	-10.7999
▁angkasa	-10.8
▁pengumuman	-10.8004
▁Tre	-10.8004
▁pejuang	-10.8005
▁upacara	-10.8006
▁ones	-10.8007
▁Brad	-10.8008
▁Ros	-10.8009
▁Stanley	-10.8011
▁Kanak	-10.8013
▁Siti	-10.8014
▁Church	-10.8014
rated	-10.8016
▁deals	-10.8016
▁menduduki	-10.8017
hour	-10.8018
▁auto	-10.8019
▁persetujuan	-10.802
▁pengangguran	-10.8027
▁Nik	-10.8028
▁Former	-10.803
▁Digital	-10.8034
til	-10.8035
try	-10.8035
▁Back	-10.8036
▁ketinggalan	-10.8036
▁waktunya	-10.8037
bandar	-10.8037
▁Ross	-10.8042
▁2006,	-10.8045
dal	-10.8046
▁ramah	-10.8048
▁videos	-10.8049
▁allocation	-10.8051
▁Dasar	-10.8056
+	-10.8056
▁percentage	-10.8057
cas	-10.8058
▁perform	-10.8059
▁ride	-10.806
▁sayap	-10.806
▁Feb	-10.8064
▁dimasukkan	-10.8069
▁Charlie	-10.8073
▁Mengenai	-10.8075
▁PC	-10.8075
▁Tengku	-10.8079
▁Kos	-10.8079
▁analisis	-10.808
ric	-10.8081
▁cold	-10.8082
▁vision	-10.8083
▁buatan	-10.8084
▁Lang	-10.8087
▁grand	-10.8088
▁struggle	-10.8089
▁affect	-10.8092
▁Abd	-10.8094
▁regional	-10.8094
▁nice	-10.8099
▁ideal	-10.8099
▁Gun	-10.8105
▁kecemasan	-10.8106
▁Seni	-10.8106
▁Perlembagaan	-10.8109
og	-10.8109
Bu	-10.8111
▁joint	-10.8111
pes	-10.8113
▁Kerry	-10.8113
▁retirement	-10.8119
▁Vice	-10.812
Ketika	-10.8124
lor	-10.8128
gue	-10.8135
bab	-10.8138
hak	-10.8141
▁sentence	-10.8143
▁fired	-10.8143
▁Lan	-10.8145
▁lembut	-10.8145
▁Es	-10.8147
▁replace	-10.8147
▁bodies	-10.8148
hill	-10.815
▁menguasai	-10.815
▁cooperation	-10.815
ket	-10.8151
▁tanaman	-10.8152
▁Muda	-10.8153
▁aras	-10.8154
km	-10.8155
▁gunung	-10.8156
rate	-10.8157
▁Pri	-10.8157
▁padang	-10.8158
▁2018,	-10.8159
gle	-10.8163
▁Greece	-10.8167
▁instance	-10.8169
▁analysts	-10.8173
▁Ave	-10.8175
atkan	-10.8177
ida	-10.8177
▁Projek	-10.8177
apan	-10.8183
09	-10.8184
uran	-10.8185
▁FoxNews	-10.8185
generik	-10.8188
▁Children	-10.8188
▁menghalang	-10.8188
▁Fe	-10.8192
dalam	-10.8194
▁sleep	-10.8196
▁kemarahan	-10.8197
▁dakwaan	-10.8201
▁perjuangan	-10.8206
▁inilah	-10.8206
▁Navy	-10.8207
▁ditanya	-10.8208
▁sibuk	-10.8211
▁Administration	-10.8214
ons	-10.8218
▁Channel	-10.8219
▁mosque	-10.8219
▁Kata	-10.822
PM	-10.8221
▁robot	-10.8225
▁Only	-10.8225
ON	-10.8225
▁54	-10.8226
▁mengkaji	-10.8235
▁wear	-10.8237
▁hidupnya	-10.8238
▁peduli	-10.8239
▁Greek	-10.8239
ack	-10.8242
▁Asli	-10.8242
▁jiran	-10.8242
▁index	-10.8245
▁Brussels	-10.8246
hir	-10.8251
ations	-10.8254
▁Ltd	-10.8254
▁Bernie	-10.8254
▁1989	-10.8256
▁faces	-10.8257
lis	-10.826
▁dikenal	-10.8261
▁aduan	-10.8262
▁Sweden	-10.8263
▁Larry	-10.8263
hab	-10.8265
▁standards	-10.8268
▁kemas	-10.8271
▁kontroversi	-10.8271
▁visual	-10.8275
gang	-10.8276
▁tokoh	-10.8276
▁sport	-10.8276
▁Argentina	-10.8277
ue	-10.8278
▁Indiana	-10.8281
▁concert	-10.8281
▁notice	-10.8283
nk	-10.8284
▁stake	-10.8285
▁Tak	-10.8288
▁display	-10.8288
tera	-10.8289
▁musuh	-10.8292
▁appropriate	-10.8292
▁relatively	-10.8292
▁meraikan	-10.8296
▁mengangkat	-10.8296
▁surface	-10.8297
▁treated	-10.8297
▁menjana	-10.8297
▁sebalik	-10.8299
cus	-10.8301
called	-10.8305
▁voting	-10.8309
▁file	-10.831
▁22,	-10.8313
▁53	-10.8316
tus	-10.8324
▁Bumi	-10.8332
jang	-10.8333
▁matters	-10.8334
▁Pacific	-10.8334
▁initial	-10.8335
▁import	-10.8336
eb	-10.8336
▁melonjak	-10.8337
awa	-10.834
▁teater	-10.8342
pre	-10.8345
▁cultural	-10.8346
▁shape	-10.8347
▁Bintang	-10.8348
02	-10.8348
▁melintasi	-10.8352
▁penipuan	-10.8355
▁bersiap	-10.8355
▁speaks	-10.8359
▁Pasir	-10.8361
▁Mag	-10.8362
▁daripadanya	-10.8366
At	-10.8366
▁FOX	-10.8368
▁membatalkan	-10.8371
▁Oklahoma	-10.8375
51	-10.8377
ged	-10.838
kai	-10.8381
free	-10.8383
nas	-10.8385
▁Tour	-10.8386
▁earned	-10.8387
▁Diego	-10.8392
▁penghargaan	-10.8392
▁worldwide	-10.8393
▁mencukupi	-10.8393
On	-10.8394
▁bersikap	-10.8398
▁besarnya	-10.8398
▁disaster	-10.84
▁19,	-10.8402
▁formed	-10.8403
▁wine	-10.8403
▁coalition	-10.8405
▁muka	-10.8407
▁river	-10.8408
gri	-10.8412
▁pembaca	-10.8424
Men	-10.8426
IA	-10.8428
▁ice	-10.843
▁gender	-10.8432
▁sad	-10.8434
RC	-10.8438
▁connection	-10.844
▁Berlin	-10.8441
stone	-10.8441
tempat	-10.8445
pal	-10.8445
bot	-10.8446
▁menghilangkan	-10.8446
EN	-10.8447
▁keeping	-10.8451
▁understanding	-10.8453
▁Spanish	-10.8459
▁drivers	-10.8459
mark	-10.8461
▁dibaca	-10.8462
▁Queen	-10.8462
▁semacam	-10.8465
▁Olympics	-10.8466
▁prinsip	-10.8467
64	-10.847
▁Qu	-10.8471
900	-10.8473
▁meramalkan	-10.8476
▁Bro	-10.8477
▁Stewart	-10.8477
▁kasut	-10.848
▁census	-10.8484
▁dibunuh	-10.8487
▁Jurucakap	-10.8489
▁tournament	-10.8491
▁plastik	-10.8491
▁Ce	-10.8492
▁plastic	-10.8494
▁environmental	-10.8495
▁Series	-10.8496
▁shopping	-10.8498
▁lebar	-10.8498
▁domestik	-10.8499
▁Executive	-10.8501
▁seriously	-10.8502
▁registered	-10.8504
▁sweet	-10.8505
▁sides	-10.8506
▁Pertubuhan	-10.8507
▁terlebih	-10.8509
lic	-10.8516
▁Sehingga	-10.8518
▁menjaringkan	-10.8519
awan	-10.8519
▁crew	-10.8522
▁Udara	-10.8523
▁Tech	-10.8529
state	-10.8532
▁ya	-10.8532
73	-10.8538
ral	-10.8538
77	-10.854
▁Hy	-10.8544
▁teknikal	-10.8545
▁pengurangan	-10.8546
▁dinner	-10.8546
atif	-10.8546
▁recovery	-10.8548
▁bodoh	-10.855
▁mencalonkan	-10.8552
▁eastern	-10.8552
ella	-10.8552
▁QUESTIONS	-10.8556
▁firms	-10.8557
▁tumbuh	-10.8562
▁kritikan	-10.8562
▁mengagumkan	-10.8563
▁proud	-10.8564
▁venture	-10.8564
▁jail	-10.8565
ora	-10.8568
ID	-10.8572
▁terrorist	-10.8572
ging	-10.8573
Ca	-10.8574
▁writer	-10.8577
▁Theatre	-10.8579
▁zone	-10.8582
▁1994	-10.8584
▁plot	-10.8588
illa	-10.8588
▁raising	-10.859
▁Trans	-10.859
▁bir	-10.8591
non	-10.8591
▁sewa	-10.8592
62	-10.8593
TH	-10.8594
▁Assembly	-10.8594
bil	-10.8596
mak	-10.8597
ew	-10.8599
▁advertising	-10.8601
▁streets	-10.8601
nia	-10.8602
▁larangan	-10.8603
▁transport	-10.8603
TU	-10.8605
ties	-10.8606
▁whatever	-10.8607
▁Attorney	-10.8611
▁changing	-10.8612
▁Though	-10.8614
▁wind	-10.8615
shed	-10.8624
69	-10.8626
▁mention	-10.863
▁achieve	-10.8631
▁receiving	-10.8631
▁chair	-10.8632
▁tayangan	-10.8632
▁Kerja	-10.8632
▁Christopher	-10.8632
▁bi	-10.8633
▁wedding	-10.8635
▁Susan	-10.8635
▁mendaftar	-10.8636
▁1984	-10.8636
▁pull	-10.8639
▁tulang	-10.8643
▁Sains	-10.8643
▁expand	-10.8646
▁carrying	-10.8649
Lo	-10.8652
▁penghormatan	-10.8653
▁Isu	-10.8653
▁Mrs	-10.8657
▁values	-10.8659
▁Jonathan	-10.8659
▁sepertinya	-10.866
▁koleksi	-10.8664
▁Section	-10.8668
AF	-10.8669
▁Steven	-10.8676
▁discussion	-10.8677
▁serving	-10.8678
▁inci	-10.8682
▁Convention	-10.8683
MP	-10.8686
▁Noor	-10.8688
▁Tesla	-10.8688
lai	-10.8688
dic	-10.8689
▁100,000	-10.8692
▁dipenuhi	-10.8692
▁covered	-10.8693
▁berke	-10.8698
▁sepatutnya	-10.8701
▁realize	-10.8703
▁boat	-10.8717
▁metal	-10.8717
▁capacity	-10.8718
▁desire	-10.8719
▁Southern	-10.8721
▁flag	-10.8721
▁1995	-10.8721
MC	-10.8722
▁hiburan	-10.8724
▁handle	-10.8725
▁polisi	-10.8727
▁appointment	-10.8733
syarikat	-10.8737
key	-10.8741
▁standing	-10.8742
▁motor	-10.8744
zer	-10.8744
▁Therefore	-10.8747
▁producer	-10.8747
▁menakutkan	-10.8751
▁cell	-10.8753
UR	-10.8758
▁warned	-10.8761
lock	-10.8762
Amerika	-10.8762
teri	-10.8762
▁Partners	-10.8763
▁gadai	-10.8764
74	-10.8765
angka	-10.8769
lik	-10.8769
▁organ	-10.8769
▁Labor	-10.8773
▁tarikan	-10.8776
▁Mayor	-10.8776
mir	-10.8777
▁payment	-10.878
▁Missouri	-10.8783
▁heat	-10.8784
|	-10.8787
nah	-10.8787
ctor	-10.8788
aan	-10.8792
class	-10.8798
▁Editor	-10.8799
78	-10.8802
ump	-10.8803
▁Industry	-10.8803
ded	-10.8804
▁Bon	-10.8805
KA	-10.8806
▁hits	-10.8806
lari	-10.8808
▁Penyelidikan	-10.8811
▁fesyen	-10.8812
▁du	-10.8812
▁NATO	-10.8814
▁ayam	-10.8814
Ja	-10.8814
▁keutamaan	-10.8818
▁identity	-10.882
▁Society	-10.8822
WireImage	-10.8826
ign	-10.8827
tru	-10.8829
lot	-10.8831
▁dance	-10.8835
▁notes	-10.8835
dra	-10.8838
▁foot	-10.8839
▁mentah	-10.8841
▁Ren	-10.8843
▁lesen	-10.8846
▁Take	-10.8848
▁fungsi	-10.8849
▁founded	-10.8849
▁Ph	-10.885
▁Prof	-10.8852
▁dimainkan	-10.8852
▁Trust	-10.8855
▁Dutch	-10.8857
▁politicians	-10.886
▁III	-10.886
zy	-10.886
CE	-10.8862
▁mengisi	-10.8864
▁Bruce	-10.8866
▁tepi	-10.887
▁edisi	-10.8871
▁parent	-10.8872
▁mengira	-10.8873
Mar	-10.8873
▁Dow	-10.8878
▁suggests	-10.888
▁ditolak	-10.888
▁Lincoln	-10.8881
▁WASHINGTON	-10.8882
▁rain	-10.8883
▁fees	-10.8883
▁lubang	-10.8886
Our	-10.8893
▁authority	-10.8893
▁Khas	-10.8897
▁jahat	-10.89
▁union	-10.8904
▁begins	-10.8905
▁Entertainment	-10.8914
▁31,	-10.8915
▁LOS	-10.8917
▁east	-10.8919
riot	-10.8919
▁mini	-10.892
▁aimed	-10.8924
▁currency	-10.8925
▁peruncit	-10.8926
▁route	-10.8927
▁convention	-10.8931
poli	-10.8931
▁taste	-10.8931
Sa	-10.8932
▁Krismas	-10.8939
NC	-10.8939
▁reformasi	-10.894
▁corner	-10.8947
▁memindahkan	-10.8947
▁App	-10.8949
▁refused	-10.895
▁pelancaran	-10.8952
▁PG	-10.8952
▁deficit	-10.8955
▁Gre	-10.8958
▁rumit	-10.8958
▁Fo	-10.8961
▁item	-10.8961
▁pengawasan	-10.8962
▁earn	-10.8962
▁membersihkan	-10.8964
related	-10.8966
▁28,	-10.8967
▁determined	-10.8969
▁bomb	-10.8974
▁lembu	-10.8975
▁kopi	-10.8977
▁perdebatan	-10.8977
zu	-10.8979
▁inflasi	-10.8979
▁equity	-10.8979
▁Orlando	-10.8979
▁Angkatan	-10.8982
▁strike	-10.8982
▁6,	-10.8985
▁Taiwan	-10.8986
▁Leon	-10.8989
▁dihadapi	-10.8991
▁remaining	-10.8991
aki	-10.8995
▁2:	-10.8995
▁memuji	-10.8995
▁finished	-10.8996
▁map	-10.8998
▁tambah	-10.8999
▁mengulas	-10.9
▁strategic	-10.9003
▁admitted	-10.9005
▁Omar	-10.9007
▁innovation	-10.9009
▁drone	-10.9009
▁Azizah	-10.901
▁Ottawa	-10.901
▁penghantaran	-10.9013
▁injuries	-10.9015
▁=	-10.9016
▁11,	-10.9018
▁Price	-10.902
▁ditayangkan	-10.9021
▁suhu	-10.9021
▁scheme	-10.9022
▁employee	-10.9022
▁split	-10.9022
General	-10.9023
ration	-10.9024
▁56	-10.9027
▁DARIPADA	-10.9027
▁thousand	-10.903
▁Umum	-10.903
▁menyekat	-10.903
▁harap	-10.903
▁FA	-10.9031
▁mengundi	-10.9032
yl	-10.9033
▁menekankan	-10.9035
dik	-10.9035
▁characters	-10.904
bor	-10.9041
eau	-10.9041
▁Beverly	-10.9042
▁engine	-10.9042
ea	-10.9046
▁Medicare	-10.9046
▁replaced	-10.9049
96	-10.905
▁pembedahan	-10.9052
▁penembakan	-10.9055
Ho	-10.9057
▁wealth	-10.906
▁Mal	-10.9064
▁penerima	-10.9071
▁Perniagaan	-10.9071
▁jari	-10.9071
IR	-10.9072
▁Perjanjian	-10.9072
ised	-10.9073
▁urged	-10.9073
▁Kansas	-10.9077
ksi	-10.9077
▁ratusan	-10.9079
3,000	-10.9079
Na	-10.9083
▁ski	-10.9083
▁truck	-10.9086
▁Mars	-10.9086
▁treat	-10.9087
▁Gunung	-10.9087
▁ticket	-10.9089
▁membiayai	-10.909
▁scale	-10.9092
ica	-10.9094
▁sought	-10.9094
aj	-10.9095
▁prior	-10.9095
▁skandal	-10.9098
▁losses	-10.9104
▁Low	-10.9105
ple	-10.9106
▁Yes	-10.9107
▁penguatkuasaan	-10.9107
▁clients	-10.9109
▁UNTUK	-10.9112
▁Bor	-10.9113
rik	-10.9113
KE	-10.9116
▁applications	-10.9116
▁inspirasi	-10.9118
▁mix	-10.9118
▁core	-10.9122
▁bertugas	-10.9126
600	-10.9127
▁50%	-10.9128
ox	-10.913
▁Once	-10.913
Ch	-10.9131
▁Diraja	-10.9134
anti	-10.9134
▁Lagi	-10.9134
▁Tra	-10.9134
dari	-10.9139
rama	-10.9139
tern	-10.914
▁visitors	-10.914
▁menyusun	-10.9141
▁Gal	-10.9143
▁Filipina	-10.9143
▁Shu	-10.9144
▁possibility	-10.9148
▁mencetuskan	-10.915
duct	-10.915
▁Lady	-10.9158
cara	-10.9166
▁Laden	-10.9166
▁26,	-10.9168
▁suggest	-10.9169
▁Euro	-10.917
BO	-10.917
▁rejected	-10.9171
▁Ji	-10.9172
▁patient	-10.9174
PU	-10.9175
▁SOALAN	-10.9176
▁entered	-10.9176
▁memperluas	-10.9177
▁Ul	-10.918
▁penutupan	-10.918
▁sisa	-10.918
▁Gary	-10.9181
▁Dave	-10.9182
raf	-10.9184
mbo	-10.9185
▁Santorum	-10.9185
pada	-10.9187
▁Lawrence	-10.9188
▁familiar	-10.9188
▁supposed	-10.9191
uni	-10.9192
▁happening	-10.9194
▁kongsi	-10.9194
▁Hamid	-10.9196
pl	-10.9197
▁dinamakan	-10.9197
▁bendera	-10.9198
▁returns	-10.9201
▁darjah	-10.9202
▁farmers	-10.9204
▁subjek	-10.9206
press	-10.9209
▁Sean	-10.921
▁berpakaian	-10.9215
▁resort	-10.9215
▁selected	-10.9216
▁tablet	-10.9222
71	-10.9223
var	-10.9225
▁Connecticut	-10.9228
▁headquarters	-10.9229
▁ongoing	-10.9229
▁pesat	-10.923
▁Reid	-10.9231
▁Part	-10.9235
▁Budget	-10.9235
▁follows	-10.9239
▁thanks	-10.9239
▁flu	-10.924
▁Auto	-10.9243
▁memungkinkan	-10.9243
stein	-10.9245
▁ST	-10.9247
▁lawan	-10.9251
79	-10.9251
▁Malaya	-10.9251
▁Klik	-10.9254
▁listen	-10.9255
▁broken	-10.9256
▁Garden	-10.9259
▁reduced	-10.9261
▁Ocean	-10.9262
▁inflation	-10.9264
RT	-10.9268
▁soal	-10.9269
▁komedi	-10.9272
▁coffee	-10.9279
SH	-10.928
pak	-10.928
▁habis	-10.9282
▁Hasil	-10.9284
nama	-10.9284
Pertua	-10.9285
hid	-10.9285
▁Klang	-10.9286
▁establishment	-10.9288
▁west	-10.9289
▁Jokowi	-10.9292
▁Cooper	-10.9294
▁master	-10.9296
▁factor	-10.9297
▁je	-10.9298
▁mencerminkan	-10.93
▁trans	-10.9303
▁unemployment	-10.9303
▁machine	-10.9304
igh	-10.9305
▁stands	-10.9305
▁promise	-10.9306
wang	-10.9307
▁savings	-10.931
▁Secondary	-10.9311
▁57	-10.9312
▁Silver	-10.9315
▁Denver	-10.9316
▁1988	-10.9317
rn	-10.9317
vol	-10.9319
▁kegiatan	-10.9323
▁Officer	-10.9326
kal	-10.9332
▁Local	-10.9333
cess	-10.9334
▁bright	-10.9338
▁Au	-10.9339
▁assistant	-10.9341
▁Line	-10.9342
83	-10.9343
▁museum	-10.9343
▁employment	-10.935
▁Inter	-10.935
month	-10.9356
▁perusahaan	-10.9356
▁Jimmy	-10.9357
sey	-10.936
she	-10.9362
▁executives	-10.9362
▁menafikan	-10.9362
▁27,	-10.9363
▁fikiran	-10.9363
▁turns	-10.9364
▁meraih	-10.9364
▁onto	-10.9364
84	-10.9366
▁1981	-10.9368
▁associated	-10.9369
▁Sosial	-10.937
▁TIDAK	-10.937
▁becomes	-10.9371
▁Ferguson	-10.9372
▁animal	-10.9373
▁1986	-10.9376
▁1979	-10.9379
▁allowing	-10.938
▁plus	-10.9383
▁kilometer	-10.9384
▁exhibition	-10.9386
▁Lima	-10.939
▁palm	-10.9392
▁reporting	-10.9392
а	-10.9393
▁estimates	-10.9394
EP	-10.9394
▁terperinci	-10.9395
▁FROM	-10.9397
▁lembaga	-10.9397
▁Pop	-10.9399
▁Phoenix	-10.94
▁diluluskan	-10.9403
hand	-10.9403
▁teaching	-10.9404
▁Sara	-10.9409
duk	-10.9412
▁langit	-10.9413
▁bed	-10.9414
▁method	-10.9416
8,000	-10.9417
▁referendum	-10.9417
▁listed	-10.9417
▁menye	-10.9421
▁ANGELES	-10.9422
▁sebahagiannya	-10.9422
▁Chan	-10.9422
▁tradition	-10.9425
▁Bang	-10.9427
▁faith	-10.9429
▁Jeneral	-10.943
▁Cur	-10.9437
▁apparently	-10.9437
▁racial	-10.944
▁manis	-10.944
tai	-10.944
▁perhimpunan	-10.9441
▁grown	-10.9444
▁Fer	-10.9445
ath	-10.9446
▁pendedahan	-10.9447
▁plenty	-10.9448
▁menempatkan	-10.945
▁Kisah	-10.9452
gambar	-10.9453
rit	-10.9453
▁25,	-10.9454
▁tomorrow	-10.9456
▁Greg	-10.9461
▁Agensi	-10.9464
▁mematuhi	-10.9466
▁susu	-10.9467
▁terdengar	-10.9471
▁Murray	-10.9472
kannya	-10.9476
▁episode	-10.9478
▁Buffett	-10.948
▁Louisiana	-10.9483
▁pertarungan	-10.9488
4,000	-10.9492
▁scored	-10.9496
▁End	-10.9496
▁pool	-10.9496
▁kaitan	-10.9498
MB	-10.9498
▁peralihan	-10.9499
▁petani	-10.9499
▁Boehner	-10.9502
▁fix	-10.9503
api	-10.9503
▁warm	-10.9504
▁leaves	-10.9506
▁Pur	-10.9506
ei	-10.9507
ulang	-10.951
▁sugar	-10.951
▁Regency	-10.9513
▁performed	-10.9513
▁kejohanan	-10.9516
▁burden	-10.9516
▁bila	-10.9517
▁positions	-10.9518
▁Carl	-10.9519
▁Palm	-10.9521
▁Cik	-10.9521
ela	-10.9523
▁meluluskan	-10.9526
▁monitor	-10.9528
▁transfer	-10.9531
▁pengunjung	-10.9532
▁division	-10.9533
▁pengajian	-10.9534
▁budak	-10.9534
▁Cabinet	-10.9537
▁penerbitan	-10.9537
mur	-10.954
▁mulut	-10.9543
▁regard	-10.9545
▁inovasi	-10.9545
▁INI	-10.9545
▁movies	-10.9545
uz	-10.955
iya	-10.9551
▁solid	-10.9552
▁document	-10.9553
▁1992	-10.9555
rick	-10.9556
lap	-10.956
juk	-10.9563
▁menggembirakan	-10.9564
AI	-10.9564
▁slightly	-10.9564
▁tapak	-10.9565
▁kon	-10.9565
vert	-10.9567
▁kering	-10.9568
▁actual	-10.9568
▁1982	-10.9568
▁deposit	-10.957
▁1987	-10.957
▁Pos	-10.9571
▁Duke	-10.9572
▁jurang	-10.9572
▁Khalid	-10.9573
are	-10.9575
iri	-10.9576
rem	-10.9577
▁dikaitkan	-10.9581
▁diperkenalkan	-10.9581
▁mengajukan	-10.9581
bol	-10.9582
gent	-10.9582
▁pelik	-10.9583
▁Wales	-10.9584
▁sekerja	-10.9587
▁Kas	-10.9589
▁cents	-10.9589
▁Travel	-10.9591
Con	-10.9591
▁berpendapatan	-10.9592
tah	-10.9592
▁hall	-10.9596
▁lawsuit	-10.9596
▁competitive	-10.9597
▁mark	-10.9598
▁surrounding	-10.9605
ima	-10.9607
▁intended	-10.9612
▁1985	-10.9613
▁Em	-10.962
▁rejim	-10.9621
▁models	-10.9622
▁menggabungkan	-10.9623
▁peratusan	-10.9624
▁24,	-10.9625
▁definitely	-10.9625
▁ad	-10.963
▁Muzium	-10.9632
▁reference	-10.9633
▁kongres	-10.9636
▁voted	-10.9638
▁divided	-10.964
▁warning	-10.9644
▁leg	-10.9645
▁menceritakan	-10.9647
▁momentum	-10.9648
▁except	-10.9648
style	-10.9651
mont	-10.9651
por	-10.9653
list	-10.9655
▁DR	-10.9659
▁finish	-10.9665
▁closer	-10.9666
▁Putera	-10.9667
▁ditambah	-10.9667
▁bina	-10.9668
▁stress	-10.9669
pped	-10.9677
▁relevant	-10.9678
▁western	-10.9681
▁menubuhkan	-10.9685
▁VAN	-10.9686
uc	-10.9686
kala	-10.9686
▁2005,	-10.9686
▁Kalimantan	-10.9695
FA	-10.9696
▁Siri	-10.9696
▁wave	-10.9698
▁mengakibatkan	-10.97
wise	-10.9701
▁arm	-10.9701
▁council	-10.9701
▁IBM	-10.9703
▁rescue	-10.9704
ering	-10.9706
▁volume	-10.9706
▁drink	-10.9706
uli	-10.971
▁sekutu	-10.9712
▁ringkasnya	-10.9716
Mart	-10.9717
▁Malays	-10.9719
▁memandang	-10.9719
▁Broadway	-10.972
▁channel	-10.9721
▁Alaska	-10.9721
▁Wei	-10.9724
▁250	-10.9727
▁timbul	-10.9727
▁Sky	-10.9728
cri	-10.9729
ET	-10.9734
▁sat	-10.9734
▁tubuh	-10.9735
▁Gu	-10.9736
▁ten	-10.9737
▁menyalahkan	-10.9737
▁BP	-10.9738
▁turning	-10.974
▁penjelasan	-10.974
GA	-10.9743
▁pencarian	-10.9743
▁gila	-10.9744
▁Clark	-10.9744
kerja	-10.9745
▁rural	-10.9745
▁Brunei	-10.9748
▁causing	-10.9752
▁Toyota	-10.9753
lahir	-10.9754
▁tema	-10.9755
▁faced	-10.9756
▁participants	-10.9756
▁helps	-10.9756
▁didorong	-10.9759
▁ruled	-10.9762
wo	-10.9763
▁ANSWER	-10.9765
▁setiausaha	-10.9766
▁Pengguna	-10.9768
▁discussed	-10.9769
▁beban	-10.9769
▁keadilan	-10.9771
eg	-10.9773
▁Alabama	-10.9776
▁BA	-10.9777
▁kritikal	-10.9778
▁raja	-10.9779
www	-10.978
mic	-10.9781
box	-10.9782
lus	-10.9784
▁berguna	-10.9784
fully	-10.9784
▁lahir	-10.9786
PI	-10.9789
tasi	-10.979
▁heads	-10.9791
ika	-10.9798
▁jawab	-10.9806
700	-10.9807
▁Perdagangan	-10.9808
▁scientists	-10.9809
▁Each	-10.9809
▁IPO	-10.9812
▁represent	-10.9812
81	-10.9815
▁expert	-10.9817
▁menyangka	-10.9819
▁luxury	-10.982
▁terdekat	-10.982
▁21,	-10.9822
▁elements	-10.9822
▁karier	-10.9824
82	-10.9824
ros	-10.9827
▁fill	-10.9834
▁neighborhood	-10.9835
▁bapanya	-10.9835
▁skrin	-10.9836
▁2017,	-10.9839
▁skor	-10.9839
▁jadual	-10.9843
▁Cer	-10.9844
▁fat	-10.9844
▁Hungary	-10.9844
▁materials	-10.9845
▁feels	-10.9851
▁Atlantic	-10.9853
▁wonder	-10.9854
▁Marine	-10.9855
▁pulangan	-10.9857
▁entrepreneurs	-10.9858
ej	-10.9861
ste	-10.9861
dong	-10.9863
▁recognize	-10.9863
▁Alan	-10.9864
▁Jenis	-10.9868
▁Mountain	-10.9871
▁truly	-10.9871
▁function	-10.9874
▁identiti	-10.9874
▁roda	-10.9875
▁adds	-10.9876
▁worry	-10.9878
▁afford	-10.9879
▁Judge	-10.9881
lee	-10.9882
dak	-10.9882
▁filled	-10.9883
▁Baltimore	-10.9885
▁false	-10.9886
nce	-10.9886
▁injury	-10.9887
ual	-10.9888
▁menangis	-10.9888
▁initiative	-10.9891
▁TUAN	-10.9893
▁partners	-10.9902
▁pencapaian	-10.9903
▁monthly	-10.9905
▁wage	-10.9906
▁mengundurkan	-10.9907
▁2004,	-10.9907
sum	-10.9909
▁Community	-10.991
▁Treasury	-10.9912
▁menghancurkan	-10.9912
▁academic	-10.9913
▁Boeing	-10.9913
▁Seksyen	-10.9915
ux	-10.9919
▁Cro	-10.992
▁Nazi	-10.992
▁eating	-10.9921
▁fifth	-10.9921
▁initially	-10.9924
take	-10.9924
▁apply	-10.9925
▁prosedur	-10.9925
▁considering	-10.9926
▁referred	-10.9927
▁confident	-10.9928
▁Ramadan	-10.9928
▁investor	-10.9932
cia	-10.9932
▁23,	-10.9932
▁Del	-10.9934
▁pengundian	-10.9935
▁Tur	-10.9935
rich	-10.9936
▁Tax	-10.9937
▁Next	-10.9937
ati	-10.9937
▁Cross	-10.9941
▁identify	-10.9943
▁Division	-10.9945
One	-10.995
▁gift	-10.9951
▁militan	-10.9952
▁warganegara	-10.9953
▁buruh	-10.9957
▁kuliah	-10.9958
▁solo	-10.9962
▁bomba	-10.9963
▁Ran	-10.9964
ture	-10.9965
▁roll	-10.9966
▁mega	-10.9966
▁20%	-10.997
▁pulled	-10.997
with	-10.9971
▁Representatives	-10.9972
▁Marco	-10.9974
GO	-10.9979
awi	-10.9979
▁ramalan	-10.9983
dro	-10.9984
Pro	-10.9984
▁Investment	-10.9988
mini	-10.9989
get	-10.999
▁lifestyle	-10.9991
jan	-10.9992
▁distance	-10.9992
▁Siapa	-10.9993
▁Way	-10.9994
▁Kentucky	-10.9994
▁kesempatan	-10.9994
▁kejiranan	-10.9994
▁manage	-10.9995
▁hasilnya	-10.9995
▁transition	-10.9996
▁akademik	-10.9996
▁Chelsea	-10.9996
▁Mount	-10.9996
▁PR	-10.9998
▁Josh	-10.9998
▁journey	-10.9999
EA	-11
How	-11
▁OK	-11
▁menyambut	-11.0001
▁SEC	-11.0001
▁meneliti	-11.0003
▁greatest	-11.0004
▁menguntungkan	-11.0006
▁meat	-11.0006
tech	-11.0007
▁Tower	-11.0008
▁bersemangat	-11.0011
NE	-11.0011
▁Simpson	-11.0013
▁perkongsian	-11.0013
▁restaurants	-11.0013
▁bil	-11.0014
▁tambahnya	-11.0015
▁//	-11.0015
▁perairan	-11.0016
▁promised	-11.0018
▁trillion	-11.0018
▁Keputusan	-11.0018
▁suicide	-11.0019
▁Bersama	-11.002
▁talked	-11.002
▁worried	-11.0021
▁teliti	-11.0021
▁Oh	-11.0021
alan	-11.0027
kur	-11.0029
▁Catholic	-11.0033
▁amazing	-11.0033
ile	-11.0034
ribu	-11.0035
▁perayaan	-11.0038
▁konsert	-11.0038
▁Gray	-11.0044
▁entertainment	-11.0044
▁12:	-11.0046
▁esok	-11.0048
bas	-11.0058
nch	-11.0061
▁agent	-11.0062
▁defend	-11.0063
Fa	-11.0065
ston	-11.0068
▁Lisa	-11.007
clu	-11.0071
▁Silicon	-11.0073
▁nelayan	-11.0073
▁amal	-11.0076
▁edition	-11.0079
▁Oregon	-11.0079
life	-11.0083
▁sawit	-11.0087
nny	-11.009
▁removed	-11.0091
▁kampus	-11.0093
ado	-11.0096
▁WE	-11.0097
▁SA	-11.0099
▁starts	-11.0099
▁critics	-11.0101
▁attitude	-11.0101
▁Malaysians	-11.0102
ova	-11.0104
▁Den	-11.0104
▁penyedia	-11.0105
▁beach	-11.0106
▁1:	-11.0106
▁demokrasi	-11.0106
▁Ac	-11.0107
▁defisit	-11.0108
which	-11.0111
Undang	-11.0111
▁unable	-11.0113
▁accepted	-11.0116
▁recording	-11.0116
pet	-11.012
▁Boy	-11.0121
▁bersejarah	-11.0121
▁bear	-11.0123
▁impian	-11.0123
▁darat	-11.0124
▁fruit	-11.0126
▁Field	-11.0128
▁importance	-11.0128
61	-11.0129
worth	-11.0129
▁officially	-11.0131
▁vs	-11.0132
▁mengawasi	-11.0133
▁Marc	-11.0133
▁ultimately	-11.0136
▁Andy	-11.0137
gam	-11.0138
EM	-11.014
▁controversial	-11.0141
ved	-11.0144
▁responded	-11.0146
▁Every	-11.0148
▁berbagai	-11.0149
▁runtuh	-11.0151
▁gap	-11.0156
▁successfully	-11.0156
▁immediate	-11.0159
▁Authority	-11.016
ulu	-11.0164
▁Arena	-11.0167
ification	-11.0167
▁Des	-11.0168
▁pendakwa	-11.0168
▁supporting	-11.0168
▁CO	-11.017
▁wake	-11.017
▁Rights	-11.0171
▁delivered	-11.0173
los	-11.0173
sari	-11.0174
▁penangkapan	-11.0175
▁ANDA	-11.0176
▁technical	-11.0178
ngga	-11.0179
LO	-11.018
▁throw	-11.0181
gon	-11.0182
zan	-11.0184
▁glass	-11.0187
▁Any	-11.0189
▁package	-11.019
▁Padang	-11.0192
▁CIA	-11.0193
▁reaction	-11.0193
▁publicly	-11.0193
▁segar	-11.0194
▁Daripada	-11.0195
▁seberapa	-11.0195
satu	-11.0199
▁Baker	-11.02
ory	-11.0201
▁lucu	-11.0202
▁category	-11.0202
▁par	-11.0207
▁Penge	-11.0207
▁Key	-11.0209
▁Book	-11.021
▁employers	-11.0212
▁Menjelang	-11.0212
▁Papua	-11.0214
▁usahawan	-11.0217
eo	-11.0217
▁bridge	-11.0217
▁Max	-11.0219
▁explains	-11.022
▁urban	-11.0222
▁blow	-11.0224
7,000	-11.0224
▁Leader	-11.0225
▁express	-11.0226
▁native	-11.0226
GI	-11.0227
▁deaths	-11.0227
▁Kem	-11.0228
▁bangga	-11.0228
▁armed	-11.0229
▁Brand	-11.0229
▁tea	-11.0236
▁winter	-11.0238
▁advance	-11.0238
▁Cam	-11.0241
▁16,	-11.0242
▁closely	-11.0242
▁miss	-11.0244
▁Langkah	-11.0245
ip	-11.0249
▁cards	-11.0249
Semua	-11.0252
▁penyerang	-11.0252
▁forum	-11.0252
▁Gil	-11.0258
itan	-11.0261
read	-11.0267
▁wild	-11.0268
HA	-11.0268
fur	-11.027
glo	-11.027
▁hip	-11.0271
▁guide	-11.0272
▁10:	-11.0273
HS	-11.0274
▁11:	-11.0276
▁berpandu	-11.0277
▁export	-11.0278
▁29,	-11.0279
wal	-11.0279
▁muzium	-11.0281
▁mentioned	-11.0282
▁Gordon	-11.0283
▁tree	-11.0283
▁welcome	-11.0283
▁Winter	-11.0286
▁keinginan	-11.0287
▁kejatuhan	-11.0287
bun	-11.0288
▁Turner	-11.0289
▁tingkap	-11.0289
▁perunding	-11.029
PK	-11.0291
lihat	-11.0292
ants	-11.0293
▁ganti	-11.0293
▁announce	-11.0296
▁dress	-11.0296
▁tight	-11.0297
▁ditentukan	-11.0298
▁Aaron	-11.0298
▁mayor	-11.0301
ches	-11.0305
its	-11.0305
▁hate	-11.0307
▁Barbara	-11.0307
▁commission	-11.0308
▁Maha	-11.0308
▁falling	-11.031
▁beli	-11.031
▁Nigeria	-11.031
▁skala	-11.0312
▁secure	-11.0313
▁medium	-11.0313
▁weak	-11.0313
nyse	-11.0318
EX	-11.0321
▁FELDA	-11.0322
ich	-11.0322
▁Dor	-11.0323
▁command	-11.0324
GE	-11.0324
▁Zi	-11.0324
▁statements	-11.0327
wn	-11.0328
▁topik	-11.0331
cc	-11.0336
mula	-11.0337
▁Konvensyen	-11.0337
▁Maryland	-11.0339
▁Cap	-11.0347
▁kreatif	-11.0349
▁30,	-11.035
▁Hawaii	-11.0351
▁Kawasan	-11.0353
▁seberang	-11.0358
▁distribution	-11.0358
▁Oil	-11.036
▁Standard	-11.0361
▁nasib	-11.0361
hol	-11.0361
▁konsisten	-11.0363
nilai	-11.0364
BI	-11.0365
▁bancian	-11.0365
▁SUSTEREN	-11.0366
▁Pekerja	-11.037
▁pengganti	-11.0373
tte	-11.0376
212	-11.0377
▁gained	-11.0377
▁comedy	-11.0379
▁gempa	-11.0382
▁Tennessee	-11.0382
TS	-11.0382
▁berasa	-11.0386
▁surgery	-11.0386
▁mono	-11.0386
▁$10	-11.0388
▁spokeswoman	-11.039
▁mengkritik	-11.0391
tick	-11.0391
▁combat	-11.0392
▁edge	-11.0395
cip	-11.0396
▁58	-11.0396
▁melangkah	-11.0397
pers	-11.0398
ungan	-11.0399
▁section	-11.04
▁bagian	-11.0402
rakannya	-11.0402
▁represented	-11.0405
▁dibeli	-11.0406
▁menggunakannya	-11.0407
▁menyakitkan	-11.0408
▁kid	-11.0411
▁shut	-11.0412
eva	-11.0415
▁Rice	-11.0417
lagu	-11.0418
uma	-11.0418
▁seniman	-11.0419
und	-11.0421
▁experienced	-11.0421
People	-11.0422
▁forget	-11.0422
▁terendah	-11.0425
▁Play	-11.0426
▁semi	-11.043
▁perlukan	-11.0431
▁melahirkan	-11.0432
▁Sh	-11.0433
▁rent	-11.0433
▁comfortable	-11.0438
▁Roberts	-11.0439
imi	-11.0439
▁hayat	-11.044
Dalam	-11.044
AC	-11.0449
▁equal	-11.0453
▁Badan	-11.0454
▁stick	-11.0455
▁prospek	-11.0459
dom	-11.0459
▁Anna	-11.046
▁Pin	-11.046
▁pieces	-11.0462
=	-11.0465
MS	-11.0466
▁Space	-11.0467
▁relief	-11.047
▁Lord	-11.0471
▁champion	-11.0472
▁penge	-11.0473
usan	-11.0473
▁Palace	-11.0473
▁Down	-11.0476
▁Pentagon	-11.0479
▁kaca	-11.0479
▁kelima	-11.0482
▁Son	-11.0482
▁creative	-11.0483
▁guard	-11.0483
▁lawyers	-11.0485
▁protests	-11.0486
▁strategik	-11.0488
▁eksklusif	-11.0493
▁extremely	-11.0493
▁tahan	-11.0494
▁trail	-11.0495
▁keraguan	-11.0498
plo	-11.0502
▁Haute	-11.0502
FI	-11.0509
▁Walter	-11.0511
▁obtained	-11.0511
▁Austin	-11.0512
▁DE	-11.0513
▁hukum	-11.0514
▁Utah	-11.0515
▁berpangkalan	-11.0516
▁campur	-11.0516
New	-11.0517
▁kawan	-11.0519
▁setia	-11.0525
▁struck	-11.053
▁ANNOUNCEMENT	-11.053
▁Station	-11.053
arch	-11.0531
▁pelayan	-11.0532
far	-11.0533
▁minor	-11.0533
▁Box	-11.0533
▁plants	-11.0534
▁radikal	-11.0537
lahan	-11.0537
▁broker	-11.054
▁Jane	-11.0543
▁del	-11.0548
una	-11.0548
▁kesedaran	-11.0551
pos	-11.0556
▁Russell	-11.0558
▁fly	-11.056
oy	-11.056
▁managing	-11.056
yard	-11.056
▁Stock	-11.0562
▁Charlotte	-11.0563
▁penyiasat	-11.0563
▁Ronald	-11.0563
▁Farm	-11.0564
▁window	-11.0564
▁Naib	-11.0566
▁Thompson	-11.0566
▁membawanya	-11.0572
rif	-11.0573
▁combination	-11.0573
▁Astro	-11.0573
wel	-11.0574
▁pilot	-11.0575
▁Organization	-11.0577
▁17,	-11.0579
▁membayangkan	-11.058
▁writes	-11.0584
▁Orleans	-11.0586
▁linked	-11.0587
▁manufacturing	-11.0588
▁Sho	-11.059
▁classic	-11.0592
▁tonight	-11.0593
▁pemberian	-11.0596
gil	-11.0598
▁Democrat	-11.0599
nel	-11.0603
▁Gates	-11.0605
▁konvensyen	-11.0607
▁menghargai	-11.0607
▁gigi	-11.061
▁jutawan	-11.0611
▁Ly	-11.0612
▁profil	-11.0612
▁tests	-11.0612
▁dipindahkan	-11.0612
buru	-11.0613
▁ditinggalkan	-11.0614
▁theory	-11.0617
▁Kel	-11.0617
▁Colombia	-11.0619
▁menampung	-11.0619
ele	-11.0624
▁audit	-11.0624
kus	-11.0627
▁Kali	-11.0629
▁radical	-11.0632
▁benda	-11.0632
▁risks	-11.0633
▁Tea	-11.0634
▁Makanan	-11.0634
▁stated	-11.0635
▁campus	-11.0636
▁emotional	-11.0636
▁Arts	-11.0637
▁Yusof	-11.0638
▁bunuh	-11.064
▁genre	-11.0645
е	-11.0645
under	-11.0646
▁Nelson	-11.0649
▁Point	-11.0652
clo	-11.0652
▁Amy	-11.0654
temp	-11.0657
▁bangun	-11.0657
▁menyenangkan	-11.0658
93	-11.0659
▁complaints	-11.066
▁nor	-11.0661
▁locations	-11.0661
▁masanya	-11.0663
rot	-11.0663
▁ringkas	-11.0664
▁Ball	-11.0668
▁sand	-11.0668
ula	-11.0669
▁argued	-11.0671
▁Bond	-11.0673
▁schedule	-11.0676
Da	-11.0678
▁statistik	-11.068
▁Wakil	-11.068
▁arus	-11.068
▁facility	-11.0683
▁kelayakan	-11.0683
▁roti	-11.0685
▁memory	-11.0688
▁expectations	-11.0689
▁posisi	-11.0689
▁argument	-11.069
▁draft	-11.069
▁independence	-11.0693
▁print	-11.0698
▁kabel	-11.0698
Reuters	-11.0699
teen	-11.0701
cin	-11.0702
▁practices	-11.0704
▁rival	-11.0704
▁defeat	-11.0705
▁AOL	-11.0705
▁Md	-11.0709
▁MO	-11.0709
▁saingan	-11.071
BS	-11.0711
▁medicine	-11.0713
▁Championship	-11.0717
▁agresif	-11.0719
▁Mah	-11.072
cam	-11.0722
▁gugur	-11.0726
▁Sur	-11.0733
▁Akhirnya	-11.0734
▁association	-11.0735
▁amid	-11.0736
▁kekalahan	-11.0737
▁jury	-11.0738
▁impossible	-11.0738
▁perlembagaan	-11.0738
▁contrast	-11.0739
▁airline	-11.0742
sus	-11.0743
sam	-11.0744
itu	-11.0744
▁Rancangan	-11.0746
▁thinks	-11.0747
▁campuran	-11.0747
▁Yayasan	-11.0749
▁Ash	-11.0753
▁nanti	-11.0755
▁Lynch	-11.0758
▁count	-11.076
▁Kabinet	-11.0762
▁resume	-11.0762
▁Hai	-11.0765
▁Kehakiman	-11.0765
▁jujur	-11.0767
▁memetik	-11.0768
▁walking	-11.0769
▁Kal	-11.0772
▁petrol	-11.0773
▁Bla	-11.0773
▁lancar	-11.0774
▁Katolik	-11.078
▁menjimatkan	-11.078
▁roughly	-11.0781
▁Chen	-11.0781
▁Venezuela	-11.0781
▁berasingan	-11.0781
▁$6	-11.0782
▁Thank	-11.0782
▁minute	-11.0783
ratus	-11.0783
▁menghubungkan	-11.0783
▁grant	-11.0784
▁singkat	-11.0784
▁dalamnya	-11.0793
▁NHL	-11.0793
▁ganja	-11.0796
▁sharing	-11.0797
pah	-11.0798
▁negotiations	-11.0798
▁investments	-11.0798
▁arms	-11.08
▁smoke	-11.0802
▁Arabia	-11.0802
▁thank	-11.0803
▁kuno	-11.0803
▁everybody	-11.0804
▁typically	-11.0804
▁confirm	-11.0805
▁peta	-11.0806
pura	-11.0806
▁colleagues	-11.0807
▁adult	-11.0808
▁pingat	-11.0808
▁rakannya	-11.0809
▁Jong	-11.0809
▁causes	-11.0813
hur	-11.0814
▁memaparkan	-11.0816
▁blame	-11.0818
▁surprised	-11.0821
▁Wong	-11.0822
▁forms	-11.0822
▁peak	-11.0822
▁memasang	-11.0825
▁Harper	-11.0827
▁pounds	-11.0828
▁umumnya	-11.0828
▁visited	-11.0832
CT	-11.0832
sul	-11.0832
▁Mississippi	-11.0834
▁1978	-11.0835
▁protein	-11.0835
LAN	-11.0838
▁panggung	-11.0839
▁kursus	-11.0841
▁pos	-11.0842
▁recognized	-11.0842
▁keduanya	-11.0842
▁Future	-11.0843
▁Sheriff	-11.0843
▁Cohen	-11.0845
ane	-11.0847
ching	-11.0847
jaga	-11.0848
▁pendaftaran	-11.085
▁perkauman	-11.085
▁Morris	-11.0851
▁1976	-11.0852
▁micro	-11.0852
▁reflect	-11.0852
▁crack	-11.0853
▁baseball	-11.0854
deg	-11.0857
▁otherwise	-11.0859
▁harm	-11.0859
pol	-11.086
▁13,	-11.086
▁opposed	-11.0861
ili	-11.0862
tong	-11.0864
▁scientific	-11.0864
▁telur	-11.0867
▁regulations	-11.0867
▁Perubatan	-11.0867
qu	-11.0869
Jika	-11.0871
ore	-11.0875
▁penubuhan	-11.0875
zar	-11.0876
bis	-11.0877
rage	-11.0878
▁penjaga	-11.0878
▁Fisher	-11.0879
▁protesters	-11.088
▁testing	-11.0883
▁guess	-11.0883
▁extended	-11.0885
▁insiden	-11.0888
▁dilengkapi	-11.0888
mile	-11.0888
▁format	-11.0888
▁halus	-11.0892
▁lulus	-11.0894
▁Communications	-11.0895
▁inspired	-11.0895
▁dijadikan	-11.0899
lur	-11.0899
▁tourism	-11.0901
▁dozen	-11.0906
ukan	-11.0908
▁necessarily	-11.091
▁remove	-11.0911
▁FDA	-11.0916
▁Nancy	-11.0917
▁immigrants	-11.0919
▁painting	-11.092
OK	-11.092
▁spin	-11.0921
▁menamatkan	-11.0926
lle	-11.0926
▁combined	-11.0928
▁MH	-11.0929
▁1983	-11.0932
▁imagine	-11.0932
▁menguji	-11.0933
rasi	-11.0937
▁menyesuaikan	-11.0937
▁menyentuh	-11.0942
has	-11.095
▁faster	-11.0953
fla	-11.0954
▁FC	-11.0957
▁Football	-11.0959
▁YOU	-11.0959
▁dealing	-11.096
▁ads	-11.096
▁kelemahan	-11.0961
▁bonus	-11.0965
▁kejahatan	-11.0968
▁dad	-11.0969
▁destroyed	-11.0972
▁Bou	-11.0973
▁brief	-11.0973
py	-11.0973
▁Guru	-11.0974
▁Felda	-11.098
kong	-11.0981
▁terror	-11.0984
▁mengabaikan	-11.0985
▁miliki	-11.0989
▁Agong	-11.099
▁mengetuai	-11.099
ffer	-11.099
▁enjin	-11.099
▁sick	-11.0991
▁sebaik	-11.0993
▁produksi	-11.0993
sil	-11.0994
▁Bola	-11.0994
▁Akan	-11.0995
bert	-11.0996
0%	-11.0996
▁severe	-11.0996
▁tools	-11.0996
▁600	-11.0997
▁broad	-11.0998
eks	-11.0998
▁gus	-11.1001
▁diketuai	-11.1001
oon	-11.1003
▁Douglas	-11.1005
▁menyebarkan	-11.101
▁Tenggara	-11.1012
▁memerintahkan	-11.1016
▁pembaharuan	-11.1018
▁kick	-11.1018
▁bersuara	-11.1022
▁acknowledged	-11.1022
▁ambil	-11.1024
▁menghidupkan	-11.1025
Br	-11.1025
▁LGBT	-11.1027
▁memalukan	-11.1029
▁kalau	-11.1029
▁kesejahteraan	-11.103
▁hoping	-11.1034
▁Begitu	-11.1034
▁Roger	-11.1035
▁mere	-11.1039
DS	-11.1041
▁maut	-11.1045
▁Romania	-11.1049
ona	-11.1049
▁symbol	-11.1051
1,000	-11.1051
▁Grant	-11.1053
▁pistol	-11.1054
▁overseas	-11.1057
▁logo	-11.1059
▁keranjang	-11.106
ale	-11.1065
▁Empat	-11.1065
▁regarding	-11.1066
▁Nation	-11.1069
▁unusual	-11.107
UA	-11.1071
▁nak	-11.1072
▁sesama	-11.1074
▁phase	-11.1075
▁Putra	-11.1076
▁Manchester	-11.1077
▁playoff	-11.1077
ori	-11.1079
▁rapat	-11.1079
▁paip	-11.108
▁Tiger	-11.1083
▁melewati	-11.109
mut	-11.109
Su	-11.1094
▁Sachs	-11.1095
rian	-11.1096
▁Final	-11.1097
▁Castro	-11.1097
▁Manusia	-11.1097
▁Malam	-11.1098
▁Sub	-11.1098
lie	-11.1099
NY	-11.1102
night	-11.1102
▁potentially	-11.1102
▁Consumer	-11.1102
▁cable	-11.1103
▁sejenis	-11.1105
fan	-11.1107
▁Bri	-11.1109
▁pasca	-11.1111
mber	-11.1113
▁Pengangkutan	-11.1114
▁context	-11.1114
▁Secret	-11.1116
▁ancient	-11.1116
▁Kin	-11.1116
some	-11.1116
▁Where	-11.1121
▁nationwide	-11.1121
▁violent	-11.1126
gger	-11.1128
hn	-11.1128
▁pengecualian	-11.1129
gged	-11.1132
▁System	-11.1134
▁Metro	-11.1142
betul	-11.1142
gging	-11.1144
▁Housing	-11.1146
lung	-11.1146
▁possibly	-11.1149
▁warisan	-11.1151
▁Wright	-11.1152
▁mistake	-11.1153
▁contribute	-11.1153
▁profits	-11.1154
▁raksasa	-11.1155
▁unless	-11.1158
▁1/2	-11.1158
▁64	-11.116
TO	-11.1162
▁kolam	-11.1163
▁brings	-11.1163
▁audio	-11.1163
▁komponen	-11.1168
▁Hampir	-11.1168
▁pin	-11.1169
▁musical	-11.1169
▁memperhatikan	-11.1171
istic	-11.1172
▁enhance	-11.1174
▁electricity	-11.1176
▁perancangan	-11.1177
▁memohon	-11.1177
▁leads	-11.1179
▁Swift	-11.1181
▁Care	-11.1181
▁none	-11.1182
▁pemilih	-11.1183
▁sambutan	-11.1184
OC	-11.1185
▁Intel	-11.1185
▁drawing	-11.1186
sign	-11.1186
cen	-11.1186
▁logam	-11.1188
▁barunya	-11.1189
▁Belgium	-11.119
▁matlamat	-11.119
▁abroad	-11.119
Walaupun	-11.1192
away	-11.1195
▁psikologi	-11.1198
▁chicken	-11.1198
▁weren	-11.1198
▁indeks	-11.1199
AAP	-11.1199
negeri	-11.1201
▁Make	-11.1201
▁bulanan	-11.1202
▁athletes	-11.1203
▁pelabuhan	-11.1203
▁Hussein	-11.1207
▁dipasang	-11.1207
▁Darat	-11.1208
▁patung	-11.1209
wear	-11.1213
rk	-11.1218
▁terjejas	-11.1218
▁mine	-11.1219
▁buyers	-11.1219
oli	-11.1219
tric	-11.122
▁pecah	-11.122
▁ulasan	-11.1222
ramai	-11.1223
Je	-11.1231
▁PT	-11.1232
▁15,	-11.1233
▁networks	-11.1233
▁Mexican	-11.1235
pem	-11.1235
▁reputation	-11.1235
▁Jerry	-11.1236
bir	-11.1237
▁messages	-11.1239
▁electric	-11.1239
▁invest	-11.1241
▁Pena	-11.1242
▁agricultural	-11.1242
▁paun	-11.1243
▁Morning	-11.1243
▁gergasi	-11.1245
▁seconds	-11.1249
▁kru	-11.125
▁Bat	-11.1252
▁Light	-11.1255
▁fraud	-11.1256
▁phones	-11.1258
▁Myanmar	-11.1258
▁ganas	-11.1261
▁yes	-11.1261
▁farm	-11.1263
▁Run	-11.1268
▁mengirim	-11.127
▁Ky	-11.1271
▁hidangan	-11.1271
▁adults	-11.1274
▁moments	-11.1274
▁profile	-11.1275
▁maklum	-11.1275
umb	-11.1275
▁entirely	-11.1275
▁Penerbangan	-11.1277
rim	-11.1277
▁asasi	-11.1279
▁criticized	-11.1281
▁priority	-11.1282
▁captured	-11.1283
▁centers	-11.1283
▁tourists	-11.1283
▁unsur	-11.1284
▁aneh	-11.1287
▁twitter	-11.1288
AR	-11.1293
▁pasir	-11.1295
▁electronic	-11.1296
SS	-11.1296
▁Mun	-11.1297
▁basikal	-11.1297
▁120	-11.1298
▁correct	-11.1302
▁brands	-11.1303
band	-11.1304
▁selia	-11.1305
▁creation	-11.1307
▁Tamil	-11.1308
Vi	-11.1309
▁Obamacare	-11.131
▁penyalahgunaan	-11.1311
St	-11.1311
▁alkohol	-11.1312
▁besi	-11.1313
▁prize	-11.1314
▁latitude	-11.1314
▁Perbendaharaan	-11.1316
▁menggalakkan	-11.1316
▁hoped	-11.1317
▁keamanan	-11.1318
bli	-11.1319
▁foundation	-11.1325
▁Mau	-11.1329
wer	-11.133
NS	-11.1333
▁kegembiraan	-11.1333
▁celebration	-11.1333
riz	-11.1336
imp	-11.1338
/2015	-11.1339
▁attacked	-11.1339
ensi	-11.134
▁kekacauan	-11.1341
rig	-11.1342
▁sebentar	-11.1343
▁missed	-11.1346
▁14,	-11.1347
nic	-11.1347
▁Ketiga	-11.1351
▁bag	-11.1351
▁Buruh	-11.1352
was	-11.1353
▁nations	-11.1355
▁Hart	-11.1355
▁mencuri	-11.1357
▁raid	-11.1358
▁threats	-11.1359
▁resolution	-11.1362
▁Motor	-11.1364
▁Tanpa	-11.1368
iyah	-11.1368
▁jalur	-11.137
see	-11.137
ua	-11.137
▁Hulu	-11.1372
▁dicadangkan	-11.1373
▁agents	-11.1374
lim	-11.1374
▁lorong	-11.1375
▁peti	-11.1379
▁mengalir	-11.1379
▁Plus	-11.1385
▁Pengurusan	-11.1385
▁signal	-11.1386
▁suasana	-11.1387
▁invited	-11.1388
▁BER	-11.1389
ius	-11.1391
▁fields	-11.1391
▁detail	-11.1393
yer	-11.1397
Oh	-11.1401
▁terasa	-11.1401
iman	-11.1404
▁requirements	-11.1404
▁soft	-11.1405
▁pemaju	-11.1406
ets	-11.1406
tom	-11.1409
▁12,	-11.1409
▁Rus	-11.141
▁bijak	-11.141
▁Members	-11.1412
▁repair	-11.1412
▁humor	-11.1414
▁Song	-11.1414
▁perspective	-11.1415
sip	-11.1416
▁increases	-11.1418
▁Tunku	-11.1424
▁pointed	-11.1425
MO	-11.1427
gh	-11.1427
▁Montreal	-11.1429
pati	-11.1429
ls	-11.143
▁kejutan	-11.1431
BU	-11.1432
▁tan	-11.1433
▁1969	-11.1434
▁Eli	-11.1435
▁royal	-11.1437
▁9/11	-11.1437
▁Zu	-11.1438
▁Conference	-11.144
▁taraf	-11.1443
▁penggal	-11.1447
▁pemuda	-11.1453
▁investigating	-11.1455
▁gunakan	-11.1456
daya	-11.1457
lian	-11.1462
▁mari	-11.1462
▁closing	-11.1463
▁Bali	-11.1465
▁Colin	-11.1466
▁beauty	-11.1467
▁predict	-11.1469
▁rantau	-11.1469
▁Demokratik	-11.147
▁pengusaha	-11.1471
▁forecast	-11.1472
▁financing	-11.1475
unan	-11.1475
▁diserang	-11.1476
▁Mil	-11.1476
▁birthday	-11.1478
▁Pitt	-11.148
▁outcome	-11.1482
▁Holdings	-11.1482
▁prepare	-11.1484
level	-11.1487
▁stations	-11.1487
eri	-11.1488
▁represents	-11.1491
▁Chu	-11.1491
▁ORANG	-11.1492
▁bersifat	-11.1493
▁62	-11.1493
rry	-11.1494
serv	-11.1496
▁advanced	-11.1496
Adakah	-11.1496
▁Iskandar	-11.1498
that	-11.1499
▁kelajuan	-11.1499
▁Kaepernick	-11.15
▁connected	-11.1501
▁privacy	-11.1502
▁salinan	-11.1502
▁alcohol	-11.1503
▁dibesarkan	-11.1505
▁mixed	-11.1512
▁license	-11.1512
pic	-11.1513
ced	-11.1516
▁Anne	-11.1516
rom	-11.1516
SON	-11.1517
▁managers	-11.1519
▁Playing	-11.1519
stra	-11.1519
▁feed	-11.1519
▁eksport	-11.1521
enberg	-11.1523
▁bull	-11.1524
▁Iranian	-11.1528
▁1974	-11.153
▁informed	-11.1532
▁Pertanian	-11.1536
▁classes	-11.1539
lak	-11.1541
▁Akademi	-11.1544
▁Maybe	-11.1545
even	-11.1545
▁topi	-11.1546
cro	-11.1546
▁retired	-11.1549
▁persaraan	-11.155
▁solve	-11.1551
▁apps	-11.1554
▁Baiklah	-11.1556
▁1963	-11.1564
▁flash	-11.1566
rant	-11.1567
▁dry	-11.1569
▁recession	-11.1569
▁strengthen	-11.1571
▁padi	-11.1574
▁Mont	-11.1575
lau	-11.1575
▁Hamas	-11.1578
▁dengar	-11.1579
▁Jen	-11.1579
▁Rod	-11.1579
▁Kereta	-11.158
nal	-11.1581
▁capable	-11.1583
▁delivery	-11.1585
▁Ty	-11.1588
▁Carson	-11.159
▁jaringan	-11.1592
▁Penn	-11.1593
ges	-11.1594
▁66	-11.1595
▁Main	-11.1596
▁extend	-11.1597
▁busy	-11.1598
▁personnel	-11.16
▁NOT	-11.16
▁resolve	-11.1605
Un	-11.1607
▁attract	-11.1608
▁celebrate	-11.1608
▁Thai	-11.1612
▁banking	-11.1612
ct	-11.1613
▁Fan	-11.1615
jur	-11.1615
fall	-11.1617
verse	-11.1618
▁Ag	-11.1622
▁Tempat	-11.1622
▁awareness	-11.1626
ill	-11.1626
▁suffering	-11.1627
▁sounds	-11.1628
dri	-11.163
▁coklat	-11.163
▁connect	-11.1631
▁unlikely	-11.1632
▁menganggarkan	-11.1632
Ga	-11.1632
▁lunch	-11.1636
▁yards	-11.1637
▁meliputi	-11.1638
▁Had	-11.1638
▁70%	-11.164
▁jangkaan	-11.1648
▁Bak	-11.1648
▁Parker	-11.1649
uf	-11.165
▁viral	-11.1653
▁threatened	-11.1653
▁sending	-11.1653
▁dilindungi	-11.1655
founder	-11.1657
▁poster	-11.1658
▁dogs	-11.1659
lek	-11.1661
ched	-11.1661
ene	-11.1666
▁hujah	-11.1667
dale	-11.1668
▁Kempen	-11.1669
▁pelatih	-11.1669
▁contacted	-11.167
ihan	-11.167
▁dibandingkan	-11.1672
▁meetings	-11.1673
lla	-11.1674
▁isi	-11.1675
▁rec	-11.1676
elle	-11.1677
▁kukuh	-11.1679
▁Gereja	-11.1679
▁mortgage	-11.1681
▁Through	-11.1683
▁denda	-11.1684
diri	-11.1684
▁Muhyiddin	-11.1685
▁prefer	-11.1686
ama	-11.1687
ates	-11.1688
▁monitoring	-11.1691
▁Tor	-11.1693
▁PAC	-11.1695
▁mengecewakan	-11.1697
▁column	-11.1698
ubatan	-11.1698
hood	-11.1699
Po	-11.1702
aging	-11.1709
▁Hor	-11.1709
pper	-11.1711
▁representatives	-11.1712
▁LEBIH	-11.1712
▁fewer	-11.1713
▁narrow	-11.1715
▁lengan	-11.1716
▁excited	-11.1716
▁stood	-11.1716
▁relevan	-11.1719
▁Mohammad	-11.172
▁Gulf	-11.1721
LY	-11.1722
▁Melbourne	-11.1722
▁seluar	-11.1723
▁Kom	-11.1724
▁persatuan	-11.1724
ose	-11.1725
gat	-11.1733
▁pangsapuri	-11.1734
▁Cramer	-11.1734
▁menjauhkan	-11.1737
▁susulan	-11.1737
xi	-11.1741
▁Hot	-11.1743
▁konteks	-11.1744
▁targeted	-11.1744
minute	-11.1744
▁Nas	-11.1747
▁please	-11.1748
▁durian	-11.1748
▁objek	-11.1755
▁diabetes	-11.1756
▁misteri	-11.1757
▁Tok	-11.1757
olo	-11.1758
ert	-11.1759
▁opera	-11.1759
▁attends	-11.1759
▁Blake	-11.1759
▁maximum	-11.176
▁anniversary	-11.1762
▁mustahil	-11.1762
▁explosion	-11.1764
▁collaboration	-11.1766
BB	-11.1766
table	-11.1767
▁realized	-11.1773
▁Perumahan	-11.178
▁poverty	-11.178
▁disyaki	-11.178
▁gear	-11.178
▁investigate	-11.1781
▁Jewish	-11.1782
▁acts	-11.1782
▁bonds	-11.1782
▁alive	-11.1784
▁Area	-11.1789
▁vast	-11.179
bahasa	-11.1792
▁stretch	-11.1793
▁Right	-11.1794
▁Rp	-11.1795
▁bra	-11.1796
▁Eastern	-11.1799
▁Singh	-11.18
▁streaming	-11.18
fire	-11.1802
▁terrorism	-11.1802
▁Mak	-11.1802
▁namely	-11.1802
▁kemasukan	-11.1804
ridge	-11.1807
▁Jenner	-11.1808
▁Member	-11.1811
Go	-11.1813
▁demonstrasi	-11.1815
▁Five	-11.1819
▁Third	-11.1819
mil	-11.1822
▁1964	-11.1823
▁menjumpai	-11.1823
▁chemical	-11.1827
▁Six	-11.1828
▁specifically	-11.1829
▁Store	-11.183
burn	-11.183
▁Kra	-11.1831
▁Sebahagian	-11.1831
care	-11.1831
▁extreme	-11.1831
▁Cab	-11.1833
▁suspected	-11.1833
▁insentif	-11.1833
bury	-11.1836
bru	-11.1839
ciri	-11.1845
▁controversy	-11.1845
▁memerhatikan	-11.1847
▁61	-11.1848
▁Sandy	-11.1849
▁pembayar	-11.185
▁gains	-11.185
▁adik	-11.1852
▁tulisan	-11.1853
OT	-11.1853
▁Bull	-11.1853
▁menyedihkan	-11.1855
gur	-11.1858
ME	-11.1862
raya	-11.1863
▁Nobel	-11.1866
▁Cape	-11.1868
▁implement	-11.1869
▁jambatan	-11.1871
late	-11.1871
▁Verizon	-11.1871
▁experiment	-11.1871
pil	-11.1872
▁Summer	-11.1874
Car	-11.1877
▁contains	-11.1878
▁Pictures	-11.188
▁beri	-11.188
▁Os	-11.1882
Wa	-11.1884
kri	-11.1888
▁gaun	-11.1888
▁apart	-11.1888
rey	-11.1891
▁teknik	-11.1891
▁GDP	-11.1894
gre	-11.1894
▁cells	-11.1895
ikat	-11.1895
making	-11.1896
▁jualan	-11.1896
▁seumur	-11.1897
pri	-11.1898
▁trees	-11.19
▁hancur	-11.19
▁Muzik	-11.1901
▁zero	-11.1902
▁Chase	-11.1903
▁Jessica	-11.1904
ological	-11.1905
▁mendahului	-11.1909
▁Rad	-11.191
▁etnik	-11.191
▁perbankan	-11.1911
▁Istana	-11.1912
▁menginginkan	-11.1913
nut	-11.1915
▁kemiskinan	-11.1915
LI	-11.1917
▁radar	-11.1918
▁Civil	-11.192
▁Northern	-11.1925
▁membelanjakan	-11.1927
▁berhak	-11.1927
▁maksud	-11.1927
▁ethnic	-11.1928
graphic	-11.1929
▁shouldn	-11.193
▁2019,	-11.1932
hl	-11.1934
Sha	-11.1937
▁memantau	-11.1938
▁garden	-11.1938
▁franchise	-11.194
spek	-11.194
▁$7	-11.1941
▁Kenya	-11.1942
▁expenses	-11.1942
ress	-11.1942
▁exist	-11.1942
▁aspects	-11.1944
▁hang	-11.1945
▁mendarat	-11.1946
▁Madison	-11.1946
▁manifesto	-11.1947
▁dimaksudkan	-11.195
▁welfare	-11.195
▁transaksi	-11.195
▁Southeast	-11.195
aq	-11.1954
▁Shanghai	-11.1954
▁kemelesetan	-11.1954
▁Op	-11.1954
▁barangan	-11.1957
▁jejak	-11.1958
▁cycle	-11.1961
▁continuing	-11.1962
▁Hamilton	-11.1963
▁Len	-11.1963
hai	-11.1964
▁Stra	-11.1967
tul	-11.1967
▁pushed	-11.1968
ambang	-11.1969
▁jalanan	-11.1972
▁expects	-11.1974
udi	-11.1976
▁mengesyorkan	-11.1978
▁kebiasaan	-11.1978
rac	-11.1978
SB	-11.1979
▁watched	-11.198
▁juruterbang	-11.198
▁Tel	-11.1982
ending	-11.1985
▁flights	-11.1989
▁picked	-11.1993
high	-11.1993
▁Hasan	-11.1995
▁upaya	-11.1997
Dr	-11.1998
▁ranking	-11.1999
▁Bangladesh	-11.2
▁niat	-11.2004
▁Hadi	-11.2007
▁utamanya	-11.2007
▁reputasi	-11.2009
▁achieved	-11.2009
▁hundred	-11.2011
yar	-11.2011
▁Nan	-11.2011
▁kejam	-11.2012
▁newly	-11.2013
▁discount	-11.2013
▁mandate	-11.2014
▁pengenalan	-11.2014
▁stronger	-11.2016
▁protected	-11.2017
▁lemak	-11.2021
▁smile	-11.2021
ave	-11.2023
mungkin	-11.2023
▁privasi	-11.2025
▁expansion	-11.2027
Ya	-11.2029
▁selection	-11.203
▁Kit	-11.2031
▁port	-11.2032
▁featured	-11.2033
▁liter	-11.2033
▁membebaskan	-11.2035
aksi	-11.2035
nda	-11.2036
▁Wartawan	-11.2037
▁Todd	-11.2037
seperti	-11.2038
▁galeri	-11.2039
▁Fred	-11.204
card	-11.204
▁click	-11.2042
sangat	-11.2042
bay	-11.2043
▁Bangunan	-11.2043
▁Kara	-11.2044
▁cutting	-11.2047
▁producing	-11.2048
▁menekan	-11.2049
most	-11.2049
▁Flight	-11.205
▁terbakar	-11.2051
vel	-11.2052
▁kena	-11.2052
▁guests	-11.2054
lem	-11.2054
▁tarian	-11.2056
core	-11.206
▁tele	-11.2066
▁Berdasarkan	-11.2067
▁witness	-11.2067
▁memerintah	-11.2068
ax	-11.207
▁Dean	-11.207
een	-11.2072
Don	-11.2072
▁sara	-11.2072
▁Dun	-11.2073
Pertuan	-11.2074
▁sempena	-11.2076
▁historic	-11.2076
▁Menurutnya	-11.2078
▁jurutera	-11.208
▁Heart	-11.208
zam	-11.2081
▁Maka	-11.2083
vy	-11.2091
▁moves	-11.2093
▁1972	-11.2094
▁baki	-11.2096
bla	-11.2099
▁Tindakan	-11.2101
game	-11.2102
▁baju	-11.2103
▁capture	-11.2104
▁Hat	-11.2105
▁Palestinian	-11.2105
▁%	-11.2106
▁sharp	-11.211
▁exposed	-11.2113
▁Gregory	-11.2117
▁duty	-11.2117
kom	-11.2118
▁client	-11.2118
▁tied	-11.2118
▁improved	-11.212
cade	-11.212
▁malu	-11.2124
▁teras	-11.2128
▁differences	-11.2128
▁repeatedly	-11.2129
Peng	-11.2134
▁disukai	-11.2135
▁vacation	-11.2135
▁Chronicle	-11.2137
▁melemparkan	-11.2137
▁jiwa	-11.2138
▁MORE	-11.214
ote	-11.2143
lash	-11.2144
▁earth	-11.2146
▁dihubungi	-11.2147
▁copy	-11.215
pay	-11.2151
▁chose	-11.2151
▁Bil	-11.2153
nor	-11.2154
▁pereka	-11.2155
▁Bangsa	-11.2159
pine	-11.2159
▁offensive	-11.2162
post	-11.2162
▁Merah	-11.2163
▁cheap	-11.2163
made	-11.2163
▁degrees	-11.2163
▁fundamental	-11.2164
leg	-11.2165
▁2003,	-11.2165
pang	-11.2168
▁diserahkan	-11.2168
▁paras	-11.2168
▁mountain	-11.2169
▁affordable	-11.2172
▁walked	-11.2173
▁Robin	-11.2175
jin	-11.2176
▁centre	-11.2177
front	-11.2177
Jadi	-11.2179
LU	-11.2182
▁struggling	-11.2182
got	-11.2182
▁Sand	-11.2184
bing	-11.2189
▁Place	-11.2189
▁pack	-11.2189
than	-11.2192
▁kelulusan	-11.2193
▁tape	-11.2193
▁mesra	-11.2196
▁lapisan	-11.2198
▁berdua	-11.2198
pot	-11.2199
▁escape	-11.2199
▁1967	-11.2201
▁Zimmerman	-11.2201
▁Policy	-11.2201
▁salary	-11.2201
▁editorial	-11.2203
view	-11.2203
▁maksimum	-11.2205
une	-11.2205
▁investigators	-11.2205
▁terminal	-11.2207
fort	-11.2208
▁premiere	-11.221
▁85	-11.2212
▁Im	-11.2212
▁Hindu	-11.2213
▁Kecil	-11.2215
▁visa	-11.2218
▁Beck	-11.2219
ked	-11.2219
▁succeed	-11.222
▁Knight	-11.2226
▁Pel	-11.2228
tung	-11.2228
▁foods	-11.2228
▁Gha	-11.2229
▁lawmakers	-11.2229
▁nota	-11.223
▁SAYA	-11.2231
▁MTV	-11.2232
▁Following	-11.2235
▁Bulan	-11.2236
▁dilarang	-11.2241
▁Mohammed	-11.2245
▁permanent	-11.2245
▁Pol	-11.2246
▁Hudson	-11.2247
▁Exchange	-11.2247
fon	-11.225
bed	-11.225
▁mendekati	-11.2253
▁siber	-11.2255
▁Craig	-11.2255
Li	-11.2255
▁adopted	-11.2258
▁mengikat	-11.226
▁induk	-11.2261
▁72	-11.2261
▁berpuas	-11.2261
▁actors	-11.2262
▁dapur	-11.2268
▁passing	-11.2269
▁corak	-11.227
runner	-11.2271
▁teksi	-11.2271
▁breaking	-11.2273
▁LinkedIn	-11.2274
▁kucing	-11.2276
▁hired	-11.2277
rul	-11.2278
▁journalist	-11.2279
▁prominent	-11.2282
▁BR	-11.2282
▁institution	-11.2288
▁rosak	-11.2289
▁Band	-11.2293
▁Ay	-11.2295
▁settlement	-11.2295
▁Shin	-11.2297
▁1930	-11.2299
▁humans	-11.23
▁Tele	-11.2301
▁30%	-11.2303
▁perak	-11.2306
▁halal	-11.2307
▁Kha	-11.2308
▁tajam	-11.231
▁Gor	-11.2312
▁membalas	-11.2312
avi	-11.2313
▁1975	-11.2314
WI	-11.2316
▁Catatan	-11.2316
UP	-11.2319
▁heavily	-11.232
▁bersatu	-11.2321
▁Wells	-11.2325
▁Pal	-11.2326
▁Terima	-11.2327
▁Queensland	-11.2327
▁provinsi	-11.2334
▁understood	-11.2334
▁Agama	-11.2335
▁Joan	-11.2335
▁absolutely	-11.2337
▁sepuluh	-11.2339
ition	-11.234
very	-11.2341
seri	-11.2343
▁Arthur	-11.2343
▁facts	-11.2347
▁Stanford	-11.2349
▁flying	-11.2351
rack	-11.2358
▁Serangan	-11.2358
▁Cel	-11.2362
▁yuran	-11.2365
▁ketawa	-11.2366
▁mencatatkan	-11.2368
▁Work	-11.2369
▁putus	-11.2373
▁Brady	-11.2375
▁Mitchell	-11.2377
▁guna	-11.2378
▁trek	-11.2379
▁Lab	-11.2381
▁landscape	-11.2381
hard	-11.2382
▁argue	-11.2382
▁1965	-11.2383
▁silver	-11.2392
▁cemerlang	-11.2393
market	-11.2394
▁effectively	-11.2394
▁Transport	-11.2395
▁democracy	-11.2395
▁obvious	-11.2396
▁Dem	-11.2396
▁crimes	-11.2399
▁communication	-11.2399
▁Type	-11.2399
▁communications	-11.2403
▁PDRM	-11.2403
▁angry	-11.2403
▁findings	-11.2408
Ar	-11.2409
▁Motors	-11.2409
▁roads	-11.2411
▁carian	-11.2411
▁emerging	-11.2414
▁Empire	-11.2415
met	-11.2415
▁kemanusiaan	-11.2417
hum	-11.2417
▁affairs	-11.2419
▁Rome	-11.242
▁membantah	-11.2421
▁Country	-11.2425
▁https	-11.2427
▁menumpukan	-11.2429
▁alongside	-11.243
▁Maine	-11.243
KI	-11.2433
square	-11.2435
▁Bun	-11.2435
▁berkualiti	-11.2436
moto	-11.2436
yah	-11.2438
ident	-11.2438
▁WireImage	-11.244
▁korban	-11.244
▁francais	-11.2442
▁Pence	-11.2443
▁Pla	-11.2446
▁SEPTEMBER	-11.2446
▁Senior	-11.2447
reg	-11.2449
▁Franklin	-11.2451
tation	-11.2451
▁Haiti	-11.2455
jaya	-11.2457
tap	-11.2458
PE	-11.246
cept	-11.2461
▁dipimpin	-11.2461
▁menggerakkan	-11.2461
bia	-11.2464
▁mandat	-11.2465
▁tip	-11.2466
ify	-11.2467
▁bunyi	-11.2467
DI	-11.2471
▁direka	-11.2471
▁melayani	-11.2472
▁reporter	-11.2473
hack	-11.2473
▁tool	-11.2474
kov	-11.2476
lands	-11.2476
▁Starbucks	-11.248
dd	-11.2481
▁Masih	-11.2481
PL	-11.2481
▁operate	-11.2483
▁Mang	-11.2484
▁Sy	-11.2484
▁keturunan	-11.2484
▁Ir	-11.2485
▁Woods	-11.2488
▁Guardian	-11.2489
buk	-11.249
▁Gan	-11.2493
▁berlanjutan	-11.2495
▁pertolongan	-11.2502
▁minoriti	-11.2504
▁Edwards	-11.2505
▁18,	-11.2506
▁imigresen	-11.251
▁governments	-11.2512
▁plate	-11.2512
▁pemindahan	-11.2512
▁squad	-11.2512
▁parliament	-11.2514
▁fikirkan	-11.2514
▁worker	-11.2514
ONG	-11.2515
buku	-11.2515
▁tamat	-11.2516
Dengan	-11.2516
bahan	-11.2516
▁Austria	-11.2517
PD	-11.2517
▁Iraqi	-11.2519
▁fasa	-11.2521
isa	-11.2521
▁Forum	-11.2522
▁Girl	-11.2526
lli	-11.2528
▁addressed	-11.2528
▁awarded	-11.2528
▁lots	-11.2536
▁Tampa	-11.2537
▁2000,	-11.2537
▁driven	-11.2538
▁questioned	-11.2542
▁arrival	-11.2544
▁pencemaran	-11.2544
▁Mir	-11.2546
▁nenek	-11.2546
▁journalists	-11.2547
▁Mul	-11.2548
▁63	-11.2548
▁menyebutnya	-11.2548
▁engineering	-11.255
▁sesetengah	-11.2551
HO	-11.2553
▁MACC	-11.2553
▁error	-11.2557
▁begun	-11.2559
▁Indeed	-11.2562
▁Lagu	-11.2563
▁Campbell	-11.2564
▁1977	-11.2565
▁refugees	-11.2567
▁Malacca	-11.2568
▁menjanjikan	-11.257
AKAN	-11.257
▁theater	-11.2571
▁hormat	-11.2573
▁forest	-11.2574
AZ	-11.2578
▁somebody	-11.2579
▁remote	-11.2579
Untuk	-11.258
▁Dick	-11.258
с	-11.258
▁shortly	-11.2581
▁participate	-11.2583
▁Highway	-11.2584
▁awards	-11.2587
▁helikopter	-11.2587
▁cyber	-11.2588
▁2,000	-11.2589
tale	-11.259
anne	-11.2592
▁meletup	-11.2592
▁kacang	-11.2592
▁alamat	-11.2599
▁Building	-11.2599
▁arrive	-11.26
▁delay	-11.2601
▁Rakan	-11.2602
▁Sepanjang	-11.2603
▁Gro	-11.2607
▁Ol	-11.261
▁Lau	-11.261
▁penalty	-11.2611
▁perspektif	-11.2611
▁smartphone	-11.2615
▁convicted	-11.2615
▁sum	-11.2616
ndi	-11.2618
mond	-11.2619
▁dating	-11.2621
▁kesemua	-11.2622
▁Clara	-11.2622
▁upcoming	-11.2623
▁Bab	-11.2624
▁PE	-11.2624
▁Masyarakat	-11.2627
▁sanctions	-11.2628
ways	-11.2629
fri	-11.2629
▁Idea	-11.2632
owned	-11.2632
▁diajukan	-11.2633
ava	-11.2634
▁TN	-11.2635
▁link	-11.2638
▁pesan	-11.2638
hold	-11.264
▁acquired	-11.2643
▁Hen	-11.2644
▁MCA	-11.2644
▁bos	-11.2644
udin	-11.2645
▁prihatin	-11.2645
▁signifikan	-11.2648
cation	-11.2648
▁mouth	-11.2652
UK	-11.2655
▁Was	-11.2656
▁Kur	-11.2656
bach	-11.2657
▁letters	-11.2657
▁melompat	-11.2658
▁claiming	-11.2658
▁nada	-11.2659
gor	-11.2661
▁Armstrong	-11.2663
▁kebaikan	-11.2665
▁entering	-11.2666
▁Major	-11.2667
▁temporary	-11.2669
▁generate	-11.267
▁visiting	-11.267
laut	-11.2672
▁milk	-11.2672
▁Did	-11.2673
▁Afghan	-11.2674
▁kitchen	-11.2676
corp	-11.2677
▁symptoms	-11.2677
▁Ang	-11.2679
▁quiet	-11.2679
sik	-11.268
ute	-11.268
▁hendak	-11.2681
▁pace	-11.2683
tek	-11.2683
▁disebutkan	-11.2684
▁makmal	-11.2685
posed	-11.2685
▁weekly	-11.2687
yen	-11.2687
▁Peraturan	-11.2687
ole	-11.2688
▁penempatan	-11.2689
bre	-11.2689
▁reduction	-11.2691
▁SMK	-11.2694
▁trilion	-11.2698
▁expanded	-11.2699
uji	-11.27
▁strip	-11.2701
▁existence	-11.2702
▁Information	-11.2706
▁walikota	-11.2706
▁boss	-11.2706
▁rating	-11.2708
RU	-11.271
▁Laura	-11.2711
▁fishing	-11.2712
▁involvement	-11.2713
mati	-11.2714
▁Adams	-11.2715
▁membakar	-11.2715
▁HANNITY	-11.2715
sex	-11.2715
▁harganya	-11.2718
▁diesel	-11.2718
▁Fashion	-11.2721
▁arrives	-11.2722
▁Hilton	-11.2723
▁pitch	-11.2724
▁awan	-11.2726
▁kelompok	-11.2726
dengan	-11.2727
family	-11.273
▁suci	-11.2731
▁merokok	-11.2731
dent	-11.2732
▁Berhormat	-11.2733
▁pushing	-11.2736
▁passenger	-11.2738
▁ais	-11.2738
▁household	-11.2739
▁68	-11.274
br	-11.274
▁Suka	-11.2741
▁bertukar	-11.2745
rice	-11.2752
▁earthquake	-11.2752
ICE	-11.2752
▁lupa	-11.2752
▁RE	-11.2753
▁hangat	-11.2754
mart	-11.2755
▁pound	-11.2755
▁Pekan	-11.2756
▁eks	-11.2757
▁offices	-11.2757
▁Potter	-11.2759
rent	-11.2759
▁melukis	-11.2759
▁Il	-11.276
▁suffer	-11.276
▁dozens	-11.276
UL	-11.2761
▁sight	-11.2761
ato	-11.2762
▁SM	-11.2765
▁Bahkan	-11.2765
▁canggih	-11.2767
▁sarjana	-11.2767
▁1968	-11.2767
▁800	-11.2768
▁Antonio	-11.2768
ounce	-11.277
▁activists	-11.2771
▁Carlos	-11.2771
▁commander	-11.2772
▁shock	-11.2772
▁tenggara	-11.2776
▁pakej	-11.2776
▁semata	-11.2779
▁allocated	-11.2782
▁ijazah	-11.2783
tara	-11.2784
▁penggambaran	-11.2785
▁merawat	-11.2786
bong	-11.2788
NI	-11.2788
▁Spring	-11.2789
▁Dream	-11.2791
▁Shar	-11.2792
▁3:	-11.2794
▁championship	-11.2794
▁anywhere	-11.2796
▁Moon	-11.2796
income	-11.2798
▁berbahasa	-11.2799
gus	-11.28
▁Oxford	-11.28
▁powers	-11.2801
▁dianggarkan	-11.2802
▁pengacara	-11.2803
▁rutin	-11.2803
▁bateri	-11.2805
▁object	-11.2805
▁representative	-11.2805
rating	-11.2807
▁swing	-11.2811
pad	-11.2812
▁waters	-11.2812
▁ilmu	-11.2812
▁Af	-11.2812
▁permission	-11.2815
▁1973	-11.2815
▁TIME	-11.2815
▁Indeks	-11.2816
MM	-11.2816
▁tertanya	-11.2817
▁Gua	-11.2819
▁Pasangan	-11.2819
bble	-11.2825
▁Levi	-11.2828
FO	-11.283
▁penutup	-11.2831
▁billionaire	-11.2835
▁40%	-11.2835
▁perut	-11.2835
alam	-11.2838
▁Philippines	-11.284
peri	-11.2841
▁segment	-11.2842
▁Target	-11.2845
▁bailout	-11.2845
▁establish	-11.2846
LP	-11.2847
▁Pendapatan	-11.2848
▁load	-11.285
▁menyeluruh	-11.2853
mad	-11.2854
▁basketball	-11.2855
ult	-11.2857
▁Off	-11.2859
▁Private	-11.286
▁letak	-11.2863
▁shoot	-11.2864
▁aside	-11.2864
▁Awal	-11.2864
▁Robinson	-11.2866
▁Nokia	-11.2866
ragu	-11.2867
These	-11.2867
▁teh	-11.2868
▁ease	-11.2869
▁ID	-11.287
meter	-11.2872
▁Jesus	-11.2874
▁diubah	-11.2875
▁Kun	-11.2875
OS	-11.2876
▁suddenly	-11.2877
▁Quebec	-11.2877
▁king	-11.2881
eman	-11.2882
▁stream	-11.2886
▁Paling	-11.2887
▁viewers	-11.2888
ille	-11.2889
▁Television	-11.2889
▁Dam	-11.2892
▁View	-11.2894
oi	-11.2894
▁granted	-11.2895
▁Turkish	-11.2898
eli	-11.2899
▁territory	-11.29
▁Idris	-11.2904
▁kebun	-11.2905
▁exit	-11.2906
▁carbon	-11.2907
▁pension	-11.2909
▁pembebasan	-11.2911
▁Hard	-11.2911
col	-11.2912
▁discussions	-11.2914
▁Rodriguez	-11.2915
▁Karl	-11.2915
chin	-11.2915
▁guest	-11.2918
▁bills	-11.2918
▁BE	-11.2918
▁berdaftar	-11.2919
gro	-11.2925
▁relationships	-11.2928
▁69	-11.2928
▁trauma	-11.2928
▁memenangkan	-11.2929
▁menyatukan	-11.2929
▁tiny	-11.2929
iko	-11.2931
▁parliamentary	-11.2932
▁entry	-11.2932
dai	-11.2933
▁kepimpinan	-11.2933
▁motosikal	-11.2933
▁Perhaps	-11.2933
▁developers	-11.2936
▁hendaklah	-11.2939
▁introduce	-11.2939
▁collect	-11.2941
▁opposite	-11.2942
▁Tang	-11.2943
Te	-11.2944
2015	-11.2947
▁anger	-11.2948
▁sentenced	-11.2948
Ju	-11.2948
ically	-11.295
chu	-11.2951
▁frame	-11.2951
▁survive	-11.2953
▁weapon	-11.2953
▁Buy	-11.2954
▁chat	-11.2956
▁Portugal	-11.2958
▁headed	-11.2958
AU	-11.2961
▁pesisir	-11.2962
▁terpisah	-11.2962
▁filing	-11.2963
▁origin	-11.2963
ii	-11.2966
▁difahami	-11.2969
▁reducing	-11.2969
▁tragedi	-11.2969
▁improving	-11.2969
▁clothes	-11.297
▁ends	-11.2974
▁deeply	-11.2975
▁Vancouver	-11.2975
lusi	-11.2976
▁Mai	-11.2977
oni	-11.2979
▁readers	-11.298
▁regularly	-11.298
pha	-11.2981
▁Bureau	-11.2983
▁Such	-11.2984
▁dedicated	-11.2984
sir	-11.2986
eth	-11.299
▁Express	-11.2991
▁ketegangan	-11.2996
berry	-11.2996
▁Zahid	-11.2996
▁mikro	-11.2996
▁Studios	-11.2998
▁blast	-11.3002
▁Semenanjung	-11.3002
hen	-11.3004
▁alert	-11.3007
▁sukarelawan	-11.3009
site	-11.3011
▁tersebar	-11.3012
cir	-11.3014
▁conjunction	-11.3018
▁switch	-11.3019
▁<	-11.3019
▁Pittsburgh	-11.3022
Or	-11.3024
mos	-11.3025
▁assembly	-11.3026
▁Wolf	-11.3026
▁wins	-11.3026
IAN	-11.3027
▁dramatik	-11.3028
▁adanya	-11.3028
▁revolution	-11.3031
▁punca	-11.3031
▁obviously	-11.3031
▁lingkungan	-11.3031
▁Qatar	-11.3032
dle	-11.3032
▁flood	-11.3035
▁Later	-11.304
PT	-11.3042
may	-11.3045
▁harder	-11.3047
iq	-11.3047
▁Buat	-11.3049
▁therefore	-11.305
▁emerged	-11.3051
urus	-11.3051
▁lowest	-11.3052
▁Nixon	-11.3054
▁mengulangi	-11.3054
onic	-11.3055
▁Side	-11.3057
▁bersempadan	-11.3058
▁explore	-11.3059
▁honest	-11.3059
▁spa	-11.3061
▁suspended	-11.3063
▁suspects	-11.3065
▁approximately	-11.3066
OL	-11.3068
▁Smart	-11.3069
With	-11.3072
▁Kris	-11.3072
▁diplomat	-11.3074
▁march	-11.3075
▁Ehwal	-11.3077
stan	-11.3078
▁kebal	-11.3078
▁Pope	-11.308
grad	-11.308
▁menara	-11.3081
▁Murphy	-11.3083
▁returning	-11.3084
▁Code	-11.3084
▁ternyata	-11.3086
▁rujukan	-11.3086
bby	-11.3088
▁sees	-11.3089
▁Bee	-11.309
▁Poll	-11.309
▁Ever	-11.3092
eta	-11.3093
▁menghindari	-11.3093
▁Albert	-11.3096
hem	-11.3097
▁remarks	-11.3099
▁Bursa	-11.31
▁portal	-11.31
▁Brothers	-11.3104
▁marijuana	-11.3106
lid	-11.3107
▁1971	-11.3108
▁menjejaskan	-11.3108
▁HIV	-11.311
▁fee	-11.311
nam	-11.3112
▁folks	-11.3113
▁Album	-11.3114
▁applied	-11.3115
week	-11.3116
▁unknown	-11.3116
Loire	-11.3117
MT	-11.3121
nc	-11.3122
▁Keith	-11.3126
▁Bharu	-11.3128
fre	-11.3129
▁gotten	-11.3129
▁Money	-11.3131
▁Harrison	-11.3132
▁ownership	-11.3132
▁$100	-11.3133
▁luka	-11.3133
▁Plaza	-11.3134
▁arts	-11.3136
▁pages	-11.3138
uki	-11.3141
▁baginda	-11.3142
▁seized	-11.3144
will	-11.3144
▁Wild	-11.3145
▁babi	-11.3147
pass	-11.3149
▁Penduduk	-11.3149
▁Kay	-11.3152
CO	-11.3154
▁opinions	-11.3157
▁recognition	-11.3158
▁Actor	-11.3158
sun	-11.3158
char	-11.316
▁belanjawan	-11.3161
▁menamakan	-11.3163
▁Resources	-11.3163
▁theme	-11.3163
▁Guy	-11.3163
▁Wars	-11.3165
9,000	-11.3166
▁Qa	-11.3167
▁Sejarah	-11.3168
▁20,	-11.3169
▁Mara	-11.3171
▁Modern	-11.3171
▁Credit	-11.3172
▁attending	-11.3172
▁maintained	-11.3172
stand	-11.3173
▁diteruskan	-11.3174
▁Ari	-11.3176
▁berhadapan	-11.3176
▁pakai	-11.3178
▁7:	-11.3179
vor	-11.3179
▁crazy	-11.3183
▁Sya	-11.3185
▁dinilai	-11.3185
▁Hidup	-11.3186
▁Ramai	-11.3187
ace	-11.3187
▁hospitals	-11.319
▁premis	-11.319
▁principal	-11.319
▁diarahkan	-11.319
kun	-11.3193
▁indeed	-11.3194
▁laugh	-11.3194
▁Princess	-11.3195
▁walls	-11.3196
power	-11.3197
▁afraid	-11.3199
LC	-11.3201
▁Room	-11.3202
aro	-11.3203
▁akar	-11.3203
▁disenaraikan	-11.3204
▁usual	-11.3208
▁List	-11.3208
▁Julian	-11.321
MR	-11.3213
ened	-11.3215
lyn	-11.3217
▁didengar	-11.3221
yi	-11.3221
empat	-11.3222
▁Ontario	-11.3222
▁Sekitar	-11.3222
▁menyetujui	-11.3222
▁leher	-11.3225
▁Sto	-11.3226
Invision	-11.3228
Bar	-11.3228
BER	-11.3232
▁adopt	-11.3236
ics	-11.3238
▁ministers	-11.3238
▁berunding	-11.324
▁acquisition	-11.324
▁rayuan	-11.3241
▁merebut	-11.3243
▁drinking	-11.3243
▁detailed	-11.3244
▁medan	-11.3244
▁neither	-11.3245
▁disusun	-11.3245
▁contain	-11.3245
▁guns	-11.3246
▁brothers	-11.3246
▁menangguhkan	-11.325
nick	-11.325
▁dilanda	-11.3254
▁Tro	-11.3255
▁branch	-11.3255
▁matematik	-11.3257
▁arena	-11.3257
▁penya	-11.3258
▁funny	-11.3258
▁sensor	-11.3258
av	-11.3259
kebolehan	-11.3259
▁Mall	-11.3262
any	-11.3263
▁Perubahan	-11.3264
▁Honda	-11.3266
▁Pengawal	-11.3266
▁memuat	-11.327
▁eligible	-11.327
▁mengorbankan	-11.3275
FilmMagic	-11.3277
▁disertai	-11.3277
▁auction	-11.3279
▁essential	-11.3279
▁SPRM	-11.328
quarter	-11.3282
▁disimpan	-11.3282
▁detained	-11.3284
▁Egyptian	-11.3284
▁AN	-11.3285
cru	-11.3286
▁wain	-11.3288
▁pembunuh	-11.3289
gs	-11.329
itch	-11.329
▁Hawk	-11.329
▁complaint	-11.3291
▁Liverpool	-11.3291
▁Salleh	-11.3293
▁tangannya	-11.3297
pac	-11.3302
▁$8	-11.3303
▁berkat	-11.3303
▁targets	-11.3303
▁portrait	-11.3307
▁Masalah	-11.3307
▁memperjuangkan	-11.3307
▁siang	-11.3308
▁trick	-11.3312
▁exposure	-11.3312
▁perjumpaan	-11.3317
▁Gas	-11.3319
▁soul	-11.332
tol	-11.3321
▁Zuckerberg	-11.3321
▁Penyanyi	-11.3324
▁penggubal	-11.3326
▁Annual	-11.3328
▁THAT	-11.3332
▁Koch	-11.3332
itz	-11.3334
masa	-11.3335
Ri	-11.3338
▁pentingnya	-11.3338
▁asset	-11.3339
tari	-11.3342
rip	-11.3345
▁collapse	-11.3345
▁fake	-11.3345
▁celebrity	-11.3347
▁menerapkan	-11.3347
akhir	-11.3348
jual	-11.3348
▁ME	-11.3349
ddy	-11.3349
ude	-11.3351
▁situ	-11.3351
▁daftar	-11.3351
▁pelan	-11.3351
▁belanja	-11.3351
▁partnership	-11.3351
▁mengecam	-11.3352
▁disampaikan	-11.3354
▁occur	-11.3354
▁Centre	-11.3356
▁motorcycle	-11.3356
▁membangunkan	-11.3358
▁memfokuskan	-11.3361
▁setara	-11.3361
▁Ap	-11.3362
▁Milan	-11.3362
▁select	-11.3365
▁Jacob	-11.3365
▁Catherine	-11.3368
cies	-11.3371
tail	-11.3381
gli	-11.3383
uch	-11.3386
aku	-11.3386
▁kebajikan	-11.3389
▁dijelaskan	-11.3389
▁pizza	-11.3389
▁Johnny	-11.3392
sure	-11.3394
you	-11.3395
inger	-11.3395
▁promosi	-11.3396
▁fate	-11.3397
eller	-11.3397
▁factory	-11.3398
▁berbentuk	-11.3404
▁penolakan	-11.3405
▁Pak	-11.3407
▁Tiada	-11.3407
▁Dell	-11.3407
▁Persidangan	-11.3407
▁numerous	-11.3407
▁races	-11.3409
▁babak	-11.341
▁Swiss	-11.341
▁ATM	-11.3413
▁Sala	-11.3413
▁compound	-11.3414
▁Baghdad	-11.3415
▁berpeluang	-11.3417
▁Kadang	-11.342
▁bahu	-11.342
▁rehat	-11.3421
▁Inside	-11.3421
▁abortion	-11.3422
▁Stein	-11.3422
▁damaged	-11.3423
TAN	-11.3424
GC	-11.3425
▁representing	-11.3426
▁67	-11.3428
lut	-11.3429
bell	-11.3429
cum	-11.3433
▁gejala	-11.3433
tha	-11.3436
▁computers	-11.3438
tta	-11.3438
▁legenda	-11.3438
▁Gla	-11.3439
ash	-11.344
wr	-11.344
▁iOS	-11.3441
filem	-11.3442
vil	-11.3442
▁transgender	-11.3442
▁orbit	-11.3443
▁tickets	-11.3444
mill	-11.3452
▁segalanya	-11.3453
▁dispute	-11.3456
▁Lopez	-11.3456
▁dibintangi	-11.3456
▁penye	-11.3457
▁ending	-11.3459
▁beer	-11.3461
▁persamaan	-11.3463
▁Pakar	-11.3465
buka	-11.3466
▁pimpinan	-11.3468
ivity	-11.3469
och	-11.347
▁diperdagangkan	-11.3473
▁investigations	-11.3474
▁Benjamin	-11.3475
▁terlepas	-11.3476
ngan	-11.3476
▁mempelajari	-11.348
▁rocket	-11.3482
▁Conservative	-11.3482
▁dipakai	-11.3482
▁karbon	-11.3482
▁universities	-11.3485
▁VA	-11.3488
ators	-11.3488
▁memo	-11.349
▁menjamin	-11.3492
Terdapat	-11.3493
▁initiatives	-11.3496
▁behalf	-11.3496
▁orders	-11.3496
▁larian	-11.35
▁Tabung	-11.3501
ifikasi	-11.3504
▁Surat	-11.3504
▁investing	-11.3504
▁transportation	-11.3505
▁parking	-11.3507
▁obtain	-11.3507
▁manner	-11.3507
▁roof	-11.3509
▁taught	-11.351
▁optimis	-11.3513
▁Hope	-11.3514
▁Der	-11.3514
▁NOVEMBER	-11.3515
▁pendirian	-11.3518
▁resident	-11.3518
aries	-11.352
▁Rich	-11.3522
▁diletakkan	-11.3522
▁merampas	-11.3522
▁Electric	-11.3525
kha	-11.3526
▁Ye	-11.3527
▁historical	-11.3527
hap	-11.3528
▁memecahkan	-11.3531
▁puts	-11.3532
▁Lip	-11.3532
Th	-11.3533
fact	-11.3535
kins	-11.3535
▁junior	-11.3539
▁menakjubkan	-11.3539
▁Angel	-11.354
▁circumstances	-11.3541
CP	-11.3541
▁penyebab	-11.3541
▁menanggung	-11.3542
▁kematiannya	-11.3543
▁constantly	-11.3546
▁hiring	-11.3547
▁Cain	-11.3548
pli	-11.3551
▁Pelajar	-11.3552
▁Bakar	-11.3553
▁stone	-11.3554
lumba	-11.3554
▁KDNK	-11.3556
temu	-11.3556
▁typical	-11.3557
▁grade	-11.3557
▁Memorial	-11.3558
isan	-11.3558
▁kitaran	-11.3558
HR	-11.3558
▁Sebab	-11.356
▁DO	-11.3562
▁stable	-11.3562
▁memudahkan	-11.3563
▁Operasi	-11.3563
ison	-11.3565
rea	-11.3565
▁askar	-11.3566
▁dibatalkan	-11.3567
▁frequently	-11.357
▁yield	-11.3572
▁bot	-11.3572
▁2002,	-11.3572
▁Zain	-11.3573
▁Denmark	-11.3575
▁bet	-11.3575
▁Julie	-11.3576
▁spekulasi	-11.3577
ime	-11.3583
▁Benghazi	-11.3586
▁pahlawan	-11.3586
▁Control	-11.3589
▁addressing	-11.3589
host	-11.3589
▁joining	-11.3589
▁menipu	-11.3591
▁tertutup	-11.3591
▁referring	-11.3594
▁comprehensive	-11.3598
▁mencecah	-11.3598
aire	-11.3599
▁Said	-11.36
▁menerangkan	-11.3601
▁penyertaan	-11.3601
▁sebagian	-11.3601
▁knowing	-11.3601
▁significantly	-11.3601
▁Forest	-11.3602
heim	-11.3603
▁Ivanka	-11.3604
app	-11.3605
scale	-11.3605
▁Latino	-11.3609
▁prosecutors	-11.361
turn	-11.361
▁fighters	-11.3611
gadis	-11.3612
▁20,000	-11.3612
▁BH	-11.3612
▁kejuaraan	-11.3612
▁HBO	-11.3613
▁Vladimir	-11.3615
▁menjerit	-11.3615
▁Watson	-11.3615
▁tender	-11.3615
▁Pasifik	-11.3618
▁1945	-11.3622
bes	-11.3624
▁memasak	-11.3624
▁Assad	-11.3625
▁jantina	-11.3629
▁kejuruteraan	-11.3632
▁aggressive	-11.3633
▁elemen	-11.3633
erson	-11.3635
cast	-11.3636
▁Bru	-11.3636
▁chef	-11.3637
▁medal	-11.3639
tiv	-11.3639
▁SU	-11.3639
▁longtitud	-11.3641
ians	-11.3643
▁gathered	-11.3646
▁pet	-11.365
TM	-11.3651
▁titled	-11.3651
▁penggabungan	-11.3653
▁McCarthy	-11.3656
▁Add	-11.3659
▁Jar	-11.366
▁tackle	-11.366
▁5,000	-11.3661
▁allies	-11.3662
page	-11.3663
▁sensitif	-11.3663
▁elsewhere	-11.3663
▁setinggi	-11.3663
▁solutions	-11.3665
▁hire	-11.3666
▁ditangani	-11.3668
▁Nine	-11.3668
▁mentor	-11.3669
EE	-11.367
▁answers	-11.367
▁startup	-11.3671
▁Spi	-11.3671
jer	-11.3671
KL	-11.3671
▁generated	-11.3672
▁challenging	-11.3672
load	-11.3673
▁Jamie	-11.3673
▁Commissioner	-11.3674
▁sayang	-11.3675
▁dikumpulkan	-11.3677
▁literally	-11.3678
▁promises	-11.3679
▁ESPN	-11.368
▁penyiasatan	-11.3682
▁Mukim	-11.3683
▁berjudul	-11.3684
▁kuning	-11.3684
▁untung	-11.3685
▁associate	-11.3686
▁divorce	-11.3686
▁recover	-11.3687
▁Age	-11.3689
ao	-11.3691
▁Nabi	-11.3691
▁download	-11.3691
▁ditangguhkan	-11.3691
2016	-11.3694
▁ratio	-11.3694
▁Rogers	-11.3696
▁sivil	-11.3697
city	-11.3697
▁Pet	-11.3698
▁menganggapnya	-11.3699
▁Patriots	-11.3701
▁mundur	-11.3701
▁salt	-11.3702
▁komited	-11.3705
▁PHOTO	-11.3707
▁Honorable	-11.3707
▁tukang	-11.3708
▁covering	-11.3709
▁Evans	-11.371
maker	-11.3711
▁miliar	-11.3711
▁cekap	-11.3712
▁sentiment	-11.3716
▁botol	-11.3716
qa	-11.3718
▁Andre	-11.3719
▁publication	-11.372
▁conclusion	-11.372
ject	-11.3722
kg	-11.3724
▁Shan	-11.3725
▁Child	-11.3725
▁menyimpulkan	-11.3725
▁educational	-11.3726
▁paus	-11.3733
▁Talk	-11.3735
▁History	-11.3736
wick	-11.3736
▁explanation	-11.3737
▁Paus	-11.3738
▁failing	-11.3744
▁cup	-11.3744
ien	-11.3745
anaknya	-11.3745
▁Giants	-11.3746
▁covers	-11.3747
▁mengu	-11.375
▁outbreak	-11.375
▁destinasi	-11.3752
▁charity	-11.3754
▁FOTO	-11.3757
bai	-11.3757
▁Villa	-11.376
▁PUTRAJAYA	-11.3764
CL	-11.3764
▁unclear	-11.3765
▁Agriculture	-11.3766
▁Puerto	-11.3766
tier	-11.3767
▁Pencegahan	-11.3769
▁belia	-11.3769
▁Xi	-11.3772
elli	-11.3773
▁jurugambar	-11.3774
▁terkena	-11.3774
▁Century	-11.3776
▁Index	-11.3776
TON	-11.3778
dul	-11.3778
▁Roll	-11.378
▁cucu	-11.3781
▁fixed	-11.3781
being	-11.3781
▁Hay	-11.3784
▁Maksud	-11.3785
▁komoditi	-11.3786
▁Universal	-11.3786
▁mengukur	-11.3786
▁traders	-11.3788
▁cre	-11.3788
▁Tal	-11.3789
▁Jer	-11.3792
▁tab	-11.3792
▁Lou	-11.3792
▁crude	-11.3792
▁Holmes	-11.3795
▁Resort	-11.3795
ALL	-11.3795
▁Norman	-11.3798
▁graduates	-11.3799
370	-11.38
▁terganggu	-11.3803
ase	-11.3803
▁Gene	-11.3804
▁preparation	-11.3805
▁Have	-11.3806
▁fought	-11.3808
▁Algeria	-11.3808
FE	-11.3808
mani	-11.3808
atur	-11.3809
dec	-11.3809
▁Saf	-11.3811
▁personality	-11.3811
▁penyebaran	-11.3812
▁tersenyum	-11.3815
▁height	-11.3815
▁assessment	-11.3816
▁clip	-11.3816
▁proven	-11.3817
▁portion	-11.3817
▁Several	-11.382
▁impressive	-11.3821
▁Thu	-11.3821
▁Harian	-11.3822
▁cermin	-11.3825
▁serves	-11.3826
▁Ur	-11.3827
▁worship	-11.3829
▁Sol	-11.383
▁Jelas	-11.3832
▁fallen	-11.3832
▁Net	-11.3832
▁maker	-11.3833
enda	-11.3833
▁simbol	-11.3834
▁terakhirnya	-11.3834
NO	-11.3834
▁mechanism	-11.3834
▁ocean	-11.3834
▁Monte	-11.3835
▁McConnell	-11.3837
▁BC	-11.3838
▁vaksin	-11.3839
jen	-11.3839
dera	-11.3841
OP	-11.3843
▁valuable	-11.3846
▁quoted	-11.3848
▁custody	-11.3849
▁autonomi	-11.3849
▁posting	-11.3852
▁Sullivan	-11.3853
zim	-11.3853
▁strange	-11.3854
▁Undangan	-11.3855
▁Set	-11.3858
ello	-11.3859
▁demands	-11.3861
▁delegates	-11.3862
▁marked	-11.3863
▁bual	-11.3863
▁Alor	-11.3866
▁Gala	-11.3868
▁terperangkap	-11.3868
▁Asked	-11.3869
cel	-11.3871
bila	-11.3877
▁compensation	-11.3878
▁pampasan	-11.3878
▁unity	-11.3879
▁76	-11.3879
▁pengeboman	-11.3879
emi	-11.388
▁engaged	-11.388
▁Les	-11.3884
▁diperuntukkan	-11.3886
iff	-11.3886
▁crucial	-11.3887
▁menyewa	-11.3887
▁istana	-11.389
▁khalayak	-11.3893
▁penglibatan	-11.3895
▁KAMI	-11.3895
▁adegan	-11.3896
▁statistics	-11.3898
▁Gore	-11.3899
▁experiences	-11.3899
▁performing	-11.3899
who	-11.3902
▁Ah	-11.3902
▁paint	-11.3902
▁kebencian	-11.3903
▁methods	-11.3906
▁dihukum	-11.3908
▁proved	-11.3908
iling	-11.391
▁tsunami	-11.391
▁Culture	-11.391
▁pencen	-11.391
▁shots	-11.391
Why	-11.3912
▁saman	-11.3913
▁terapi	-11.3915
enti	-11.3916
▁automatically	-11.3918
mul	-11.3918
▁melanjutkan	-11.392
Bi	-11.3921
▁widespread	-11.3922
▁uniform	-11.3922
▁transit	-11.3923
▁Urban	-11.3923
juru	-11.3923
▁traveling	-11.3924
CNNOpinion	-11.3925
▁kontraktor	-11.3925
▁encouraged	-11.3926
salah	-11.393
▁steel	-11.3931
▁Mobile	-11.3932
▁leak	-11.3932
▁mempersoalkan	-11.3932
▁drawn	-11.3937
Jo	-11.3937
▁purchased	-11.3939
▁proper	-11.394
▁servants	-11.3941
▁Biro	-11.3942
▁sabar	-11.3942
▁roles	-11.3945
century	-11.3946
round	-11.3947
dor	-11.3948
▁DUN	-11.3948
▁Sat	-11.3949
▁ditandatangani	-11.3949
▁Collins	-11.395
▁featuring	-11.3952
▁damai	-11.3952
▁pasukannya	-11.3952
▁ships	-11.3953
mili	-11.3953
mination	-11.3954
▁dilupakan	-11.3954
VE	-11.3955
▁15%	-11.3955
▁resolved	-11.3956
luk	-11.3956
▁sup	-11.3956
▁refer	-11.3957
▁length	-11.3958
▁Malik	-11.3958
▁citizen	-11.3959
OM	-11.396
John	-11.3961
tangan	-11.3962
bina	-11.3962
▁skim	-11.3964
▁Dakota	-11.3967
vic	-11.3968
▁pinggang	-11.3968
▁estimate	-11.3968
▁clothing	-11.3969
▁script	-11.397
▁chosen	-11.3971
▁Musa	-11.3973
▁kehendak	-11.3974
/2016	-11.3974
60,000	-11.3976
▁kemerdekaan	-11.3977
▁toll	-11.3977
▁Walsh	-11.3978
▁twin	-11.3979
RS	-11.3979
▁residential	-11.3982
▁gathering	-11.3984
▁pertiga	-11.3984
▁dramatic	-11.3984
sya	-11.3985
▁viewed	-11.3985
▁berkempen	-11.3987
RIS	-11.3987
▁log	-11.3989
stream	-11.399
▁industries	-11.3991
▁Jeb	-11.3991
▁properties	-11.3992
▁Walmart	-11.3992
▁reward	-11.3992
SO	-11.3993
▁Gaga	-11.3993
tip	-11.3995
▁Jeffrey	-11.3999
▁Bandaraya	-11.4
▁cited	-11.4008
▁Seven	-11.4008
just	-11.4008
▁halangan	-11.4009
sai	-11.4009
▁ketahui	-11.4011
▁potret	-11.4014
▁imej	-11.4014
▁bail	-11.4015
▁motion	-11.4016
▁Sandakan	-11.4017
▁1940	-11.4018
▁urus	-11.4018
▁taktik	-11.4019
▁penerimaan	-11.4021
▁falsafah	-11.4021
▁Barry	-11.4022
▁diturunkan	-11.4024
▁Alliance	-11.4024
▁Hol	-11.4024
▁membahayakan	-11.4026
ern	-11.4028
SC	-11.4029
▁calm	-11.403
▁menganjurkan	-11.4031
▁Small	-11.4032
▁shareholders	-11.4032
▁presentation	-11.4034
▁rape	-11.4035
court	-11.4038
rup	-11.4039
ington	-11.404
▁Reporter	-11.404
▁jumlahnya	-11.4042
vid	-11.4042
gul	-11.4043
ui	-11.4044
▁virtual	-11.4045
▁mood	-11.4046
▁hike	-11.4046
▁Fame	-11.4048
oma	-11.4048
iel	-11.4049
alkan	-11.405
▁SI	-11.405
▁lakonan	-11.4051
▁KETIGA	-11.4051
adi	-11.4052
▁Pelan	-11.4053
▁keupayaan	-11.4054
▁sectors	-11.4054
▁aims	-11.4056
▁enterprise	-11.4058
▁Religious	-11.4061
▁masalahnya	-11.4062
▁activist	-11.4062
▁pray	-11.4063
▁mode	-11.4067
▁Kh	-11.4067
▁intense	-11.4069
▁solely	-11.4069
▁Emmy	-11.4069
▁slot	-11.407
▁aku	-11.407
ware	-11.4071
dek	-11.4071
▁Gay	-11.4071
hun	-11.4072
▁Bio	-11.4072
Mi	-11.4072
▁tank	-11.4073
DP	-11.4078
▁Chile	-11.408
▁sensitive	-11.4083
▁recall	-11.4089
wh	-11.409
▁mess	-11.409
▁upgrade	-11.409
▁diperhatikan	-11.4091
dem	-11.4092
cious	-11.4092
inch	-11.4092
▁useful	-11.4092
▁menjalin	-11.4093
minat	-11.4096
▁Cosby	-11.4096
Ex	-11.4096
Apabila	-11.4097
stro	-11.4098
lori	-11.4098
▁henti	-11.41
pir	-11.4101
▁Sudan	-11.4101
▁satellite	-11.4106
▁Yemen	-11.4107
▁dibentuk	-11.4108
▁dikuasai	-11.4109
lib	-11.411
▁principles	-11.4112
zin	-11.4114
▁minority	-11.4115
▁extent	-11.4116
▁purposes	-11.4116
▁surprising	-11.4117
▁bicara	-11.4118
▁reaching	-11.4119
▁kebetulan	-11.4119
▁makluman	-11.412
▁Amir	-11.412
▁asap	-11.4122
sburg	-11.4122
▁Thus	-11.4124
▁basically	-11.4125
▁Brexit	-11.4126
▁ill	-11.4127
▁followers	-11.4129
▁danger	-11.4133
bid	-11.4137
▁bela	-11.4139
▁entitled	-11.4141
▁equivalent	-11.4141
▁pengakuan	-11.4141
ender	-11.4142
▁Yaman	-11.4142
▁pencerobohan	-11.4144
▁petugas	-11.4144
▁wounded	-11.4144
▁Mid	-11.4146
▁consequences	-11.4146
▁destroy	-11.4147
▁controlled	-11.4148
▁Gabungan	-11.4149
▁Mercedes	-11.4149
▁Bai	-11.415
▁Abbott	-11.4151
▁melatih	-11.4151
▁MU	-11.4152
▁Pemuda	-11.4153
▁SUV	-11.4153
trik	-11.4155
▁pengendali	-11.4156
▁sedih	-11.4157
▁bertajuk	-11.4159
yr	-11.416
▁Marshall	-11.4162
▁Metropolitan	-11.4164
▁submitted	-11.4164
test	-11.4165
▁insisted	-11.4165
real	-11.4167
▁buletin	-11.4169
▁tragedy	-11.4169
▁memberitahunya	-11.417
▁enemy	-11.4171
▁Strategi	-11.4172
▁pertubuhan	-11.4174
▁horse	-11.4174
gard	-11.4175
▁hedge	-11.4175
▁ranks	-11.4176
▁pregnant	-11.4176
▁Kasich	-11.4177
▁dilakukannya	-11.4177
benci	-11.418
▁Pendapat	-11.418
▁Arkansas	-11.4186
▁pemberontakan	-11.4188
▁bukit	-11.4189
▁mask	-11.4191
▁technologies	-11.4191
▁Jeremy	-11.4191
▁terdedah	-11.4194
▁output	-11.4195
tics	-11.4198
▁universal	-11.4199
▁reject	-11.4201
▁Lar	-11.4202
sson	-11.4202
▁Bieber	-11.4204
▁peny	-11.4205
▁Sk	-11.4206
▁Syariah	-11.4207
▁upper	-11.4207
▁ditempatkan	-11.4209
EF	-11.421
ege	-11.4214
▁seekor	-11.4215
▁consultant	-11.4216
▁Tahunan	-11.4217
ault	-11.4217
▁Neil	-11.4218
▁Federation	-11.4219
▁wonderful	-11.422
▁Burung	-11.422
▁sedangkan	-11.4221
▁administrative	-11.4222
▁Delta	-11.4222
▁anggur	-11.4222
▁3,000	-11.4224
▁scenario	-11.4224
▁tangkapan	-11.4224
▁girlfriend	-11.4225
ising	-11.4227
dr	-11.4228
kil	-11.4229
▁Peace	-11.423
▁regardless	-11.4231
▁Movie	-11.4231
▁Glass	-11.4231
▁Mujahid	-11.4234
▁rarely	-11.4236
▁starring	-11.4238
via	-11.424
PN	-11.4241
blo	-11.4241
▁Maszlee	-11.4242
▁demokratik	-11.4245
▁moderate	-11.4245
lf	-11.4245
kit	-11.4246
▁Borneo	-11.4248
▁contribution	-11.4249
▁keseimbangan	-11.425
▁penjual	-11.4252
Source	-11.4252
akkan	-11.4256
TR	-11.4257
▁Sum	-11.4258
▁comparison	-11.426
▁banned	-11.4261
saat	-11.4268
▁attractive	-11.4273
▁storage	-11.4275
spec	-11.4275
▁Lam	-11.4276
▁Laman	-11.4277
▁Gel	-11.4279
▁Singer	-11.428
dio	-11.4285
KO	-11.4286
▁supplies	-11.4288
▁anymore	-11.4292
▁thoughts	-11.4293
▁Slovakia	-11.4293
▁Ulu	-11.4293
▁Sab	-11.4295
▁Sulawesi	-11.4296
kol	-11.4299
▁kempennya	-11.4299
▁pemberita	-11.43
▁Guard	-11.43
▁collected	-11.4305
▁ballot	-11.4306
range	-11.4307
▁Dur	-11.4307
▁maya	-11.4309
▁lies	-11.4311
gula	-11.4312
▁NGO	-11.4315
HAN	-11.4316
▁berperanan	-11.4316
▁nurse	-11.4319
▁Boo	-11.4324
▁landing	-11.4331
▁calendar	-11.4331
▁ruangan	-11.4333
▁gallery	-11.4334
▁sengit	-11.4337
▁Whether	-11.4339
bloomberg	-11.4344
▁Castile	-11.4347
kill	-11.4347
▁Ventures	-11.4349
▁Aidilfitri	-11.4349
▁perawatan	-11.4349
▁cream	-11.4352
▁contracts	-11.4354
▁memperuntukkan	-11.4354
▁cooking	-11.4358
▁Fat	-11.4359
▁breed	-11.436
sek	-11.4362
▁launching	-11.4363
jun	-11.4364
▁menggegarkan	-11.4367
▁pindaan	-11.4367
▁concluded	-11.4368
SN	-11.4369
▁heading	-11.4372
▁Dol	-11.4372
▁interior	-11.4372
pakah	-11.4373
▁Iman	-11.4374
▁dijatuhkan	-11.4375
▁tersembunyi	-11.4375
▁elit	-11.4377
▁borders	-11.4378
▁atmosphere	-11.4383
▁row	-11.4383
ddle	-11.4387
oto	-11.4389
▁terpencil	-11.439
▁Rachel	-11.4391
▁binatang	-11.4391
▁Billy	-11.4392
▁berjumpa	-11.4393
▁craft	-11.4395
▁Awang	-11.4397
▁Story	-11.4398
▁wayar	-11.4398
▁studied	-11.4401
Eye	-11.4403
▁Magazine	-11.4403
aja	-11.4403
▁handed	-11.4405
▁v	-11.4405
▁amanah	-11.4406
kad	-11.4408
▁menemukan	-11.441
▁Summit	-11.4411
▁satelit	-11.4411
▁interviews	-11.4411
▁pindah	-11.4415
▁cabinet	-11.4415
▁ideologi	-11.4415
tani	-11.4415
chen	-11.4416
▁beragama	-11.4418
▁Uni	-11.4419
▁kesimpulan	-11.4419
rut	-11.442
▁pic	-11.442
GB	-11.442
▁dibiayai	-11.4421
▁Umno	-11.4421
▁1966	-11.4421
▁niaga	-11.4422
uatu	-11.4423
▁taxi	-11.4423
fect	-11.4424
▁jumped	-11.4425
▁attempts	-11.4426
▁circle	-11.4427
▁rubber	-11.4429
▁Action	-11.4433
tres	-11.4434
▁Komunikasi	-11.4434
▁shelter	-11.4435
▁getah	-11.4435
▁passion	-11.4435
rod	-11.4438
▁comfort	-11.4438
▁pelantikan	-11.4439
▁DVD	-11.444
▁Grace	-11.444
▁Lane	-11.4441
▁Stesen	-11.4444
▁ditarik	-11.4445
▁everywhere	-11.4446
▁revolusi	-11.4446
▁Mill	-11.4447
hip	-11.4447
▁essentially	-11.4449
▁permit	-11.4451
▁popularity	-11.4451
▁terikat	-11.4452
▁Maklumat	-11.4452
▁Lauren	-11.4452
makers	-11.4454
▁ho	-11.4454
▁kompetitif	-11.4455
▁prosecution	-11.4455
▁yellow	-11.4455
▁Musk	-11.4456
▁Rat	-11.4457
fit	-11.4459
▁limits	-11.446
sit	-11.446
▁Permainan	-11.4463
KP	-11.4464
▁paintings	-11.4465
▁Tate	-11.4466
▁Kre	-11.4467
boo	-11.4468
▁rumput	-11.4468
ying	-11.4471
▁Kapal	-11.4475
▁Tinjauan	-11.4476
▁Var	-11.4477
ening	-11.4477
▁breast	-11.4478
▁legacy	-11.4479
▁button	-11.4479
▁inform	-11.448
▁exclusive	-11.4483
▁Multimedia	-11.4484
rid	-11.4484
▁sentimen	-11.4486
▁describe	-11.4486
▁Kadar	-11.4487
▁Presidential	-11.4489
▁Freedom	-11.4489
tr	-11.4489
▁shocked	-11.4491
▁Bobby	-11.4492
▁Dy	-11.4492
▁wabak	-11.4494
▁retailers	-11.45
▁consumption	-11.4502
▁northeast	-11.4502
▁complicated	-11.4503
▁burn	-11.4505
▁pemberi	-11.4506
▁illness	-11.4506
▁genetik	-11.4508
▁cheer	-11.4511
▁Brit	-11.4517
▁Juan	-11.4517
▁Rohingya	-11.4517
▁60%	-11.4519
▁100%	-11.4524
▁disiasat	-11.4528
▁adviser	-11.4528
▁Cukai	-11.4528
▁PA	-11.453
organ	-11.453
▁kapasiti	-11.4531
amba	-11.4532
▁perception	-11.4533
▁Bol	-11.4533
▁pengguguran	-11.4534
hang	-11.4535
▁pembekal	-11.4536
▁hosted	-11.4536
▁militants	-11.4537
▁mengg	-11.4538
▁pembelajaran	-11.4538
▁Puteri	-11.4539
▁rantai	-11.4539
▁terbitan	-11.454
▁tested	-11.454
▁kepelbagaian	-11.4541
Not	-11.4543
▁respons	-11.4543
world	-11.4546
▁preparing	-11.4546
▁newsletter	-11.4549
▁senapang	-11.4549
▁seasons	-11.455
▁dokumentari	-11.4552
▁Wallace	-11.4552
▁Fall	-11.4554
▁Walikota	-11.4554
foto	-11.4554
rest	-11.4555
cht	-11.4557
ril	-11.4558
▁defensive	-11.4559
▁mengalihkan	-11.4559
▁menari	-11.456
▁teratur	-11.4561
▁dorongan	-11.4563
KS	-11.4564
▁Ward	-11.4565
▁penderma	-11.4565
▁stuck	-11.4565
▁timbalan	-11.4566
▁thin	-11.4566
▁makhluk	-11.4567
pop	-11.4567
▁4:	-11.4568
▁9:	-11.4568
▁constitutional	-11.4568
Maritime	-11.4568
HAR	-11.457
▁Politik	-11.4571
▁Netanyahu	-11.4572
▁Brooks	-11.4573
▁Chang	-11.4573
bag	-11.4574
Now	-11.4574
▁diskriminasi	-11.4575
▁berlalu	-11.4575
▁employer	-11.4575
coming	-11.4576
Ko	-11.4577
abu	-11.4577
▁Pendakwa	-11.458
▁dibincangkan	-11.458
▁pidato	-11.458
kul	-11.4582
▁Vermont	-11.4583
▁pursue	-11.4585
▁pollution	-11.4586
syarat	-11.4586
oso	-11.4586
tab	-11.4587
▁tap	-11.4588
▁fears	-11.4589
▁parah	-11.459
rumah	-11.4592
▁Spears	-11.4593
▁daun	-11.4594
▁laid	-11.4594
pik	-11.4596
phone	-11.4597
gah	-11.46
▁HP	-11.4601
▁membimbangkan	-11.4601
▁Fifth	-11.4601
▁patah	-11.4603
▁remind	-11.4609
▁MEN	-11.4609
guna	-11.461
ree	-11.4612
Bagi	-11.4613
▁Gallery	-11.4615
▁dividen	-11.4615
ock	-11.4616
▁speaker	-11.4617
▁judges	-11.4619
▁Medicaid	-11.462
▁kekerasan	-11.462
feld	-11.4622
▁Look	-11.4623
▁comic	-11.4624
En	-11.4625
eon	-11.4626
▁genetic	-11.4627
▁Queens	-11.4629
▁tong	-11.463
pela	-11.4631
▁berpengalaman	-11.4633
▁setempat	-11.4635
▁extensive	-11.4638
▁penyumbang	-11.4638
▁Mesyuarat	-11.4641
▁pot	-11.4642
pie	-11.4642
▁Selamat	-11.4643
▁graduate	-11.4646
▁slogan	-11.4649
▁pena	-11.4653
▁1959	-11.4657
▁upset	-11.4657
▁pertimbangan	-11.4657
▁producers	-11.4657
▁Chrysler	-11.4662
▁ring	-11.4663
▁childhood	-11.4663
▁Gross	-11.4665
enang	-11.4666
▁bulu	-11.4667
▁cameras	-11.4667
▁Senarai	-11.467
▁involves	-11.467
▁hamil	-11.4672
▁roket	-11.4673
▁Lembah	-11.4674
▁Forces	-11.4676
Muslim	-11.4676
▁loud	-11.4677
▁personally	-11.4678
▁Dapatkan	-11.4681
▁Hadiah	-11.4681
▁saved	-11.4681
▁singing	-11.4682
▁campaigns	-11.4682
▁designer	-11.4685
▁sila	-11.4686
▁menyeronokkan	-11.4686
▁hub	-11.4691
▁menyerah	-11.4692
▁anggap	-11.4693
tori	-11.4693
aba	-11.4694
▁visi	-11.4695
▁coal	-11.4695
▁Yankees	-11.4695
▁skuad	-11.4696
roy	-11.4698
▁perbuatan	-11.4702
▁Without	-11.4702
nell	-11.4703
▁focusing	-11.4705
▁shell	-11.4706
▁subsidies	-11.4708
▁ditugaskan	-11.471
label	-11.4712
▁sets	-11.4715
▁kinds	-11.4718
▁shoes	-11.4719
▁politician	-11.472
▁Page	-11.4723
▁distributed	-11.4723
▁Sekurang	-11.4725
diam	-11.4726
▁keperibadian	-11.4726
▁terkawal	-11.4726
▁friendly	-11.4727
say	-11.4727
▁temperature	-11.4728
▁rush	-11.4731
▁bernasib	-11.4731
▁menyanyikan	-11.4732
▁Battle	-11.4733
▁sebut	-11.4734
▁bankruptcy	-11.4734
padu	-11.4735
LAS	-11.4738
▁perbatasan	-11.4739
luangkan	-11.4739
ici	-11.4741
Cou	-11.4742
▁kapan	-11.4746
▁Siasatan	-11.475
▁Bercakap	-11.4756
▁breach	-11.4758
▁discovery	-11.4761
▁telephone	-11.4761
oleh	-11.4764
▁Professor	-11.4766
▁dikurangkan	-11.4766
▁bedrooms	-11.4768
▁cari	-11.4768
DC	-11.4768
▁kecekapan	-11.4768
▁lebuh	-11.4769
raw	-11.4769
▁provision	-11.477
▁celebrated	-11.477
tika	-11.4771
▁fiksyen	-11.4771
▁promoting	-11.4771
▁Order	-11.4772
▁Penye	-11.4772
▁Roth	-11.4773
▁exception	-11.4773
▁Andrea	-11.4775
2010	-11.4776
▁Say	-11.4777
▁hero	-11.4778
▁lindung	-11.4779
▁strongly	-11.478
▁Review	-11.4781
▁respectively	-11.4781
▁Hitler	-11.4782
kum	-11.4784
ously	-11.4785
▁5:	-11.4785
enne	-11.4785
▁mainly	-11.4786
zen	-11.4786
▁asks	-11.4786
▁terrorists	-11.4789
lick	-11.4792
SF	-11.4793
▁Perlu	-11.4794
AMA	-11.4794
▁bawa	-11.4795
gung	-11.4795
▁improvement	-11.4798
▁downtown	-11.4799
▁contributions	-11.4799
▁1920	-11.4799
▁Cy	-11.48
▁staf	-11.4802
▁Jin	-11.4804
▁segmen	-11.4804
▁berpose	-11.4805
▁Roy	-11.4805
ahli	-11.4806
have	-11.4806
▁Sign	-11.4807
▁keeps	-11.4808
▁Konservatif	-11.4809
▁vi	-11.4809
▁totally	-11.481
kura	-11.4811
▁Jolie	-11.4812
▁empty	-11.4812
▁input	-11.4814
▁accordance	-11.4814
▁terdahulu	-11.4817
▁pattern	-11.4818
lier	-11.4819
▁bullet	-11.4819
▁Peru	-11.4819
▁Bahru	-11.4821
▁Does	-11.4821
▁kontroversial	-11.4821
▁revenues	-11.4825
▁quit	-11.4826
▁Cox	-11.4827
▁provisions	-11.4827
▁competitors	-11.4827
▁headline	-11.4828
▁doors	-11.4828
▁Online	-11.4832
▁dikemukakan	-11.4833
▁menyembunyikan	-11.4833
TION	-11.4835
▁Put	-11.4837
▁Samuel	-11.4839
▁restrictions	-11.4841
▁ourselves	-11.4844
▁architecture	-11.4844
Har	-11.4845
▁pelaku	-11.4845
mine	-11.4847
MAR	-11.4848
▁protes	-11.4848
▁jangkitan	-11.4849
▁Authorities	-11.4852
▁mengusahakan	-11.4854
▁Kam	-11.4856
▁Saifuddin	-11.4857
▁termasuklah	-11.4858
Qu	-11.4858
▁1962	-11.486
ito	-11.486
▁counts	-11.4861
eur	-11.4862
AA	-11.4862
ups	-11.4863
▁pump	-11.4863
suit	-11.4865
yon	-11.4868
▁Finally	-11.4869
▁Dog	-11.4869
▁Check	-11.487
▁ingatan	-11.4871
▁persepsi	-11.4873
▁pemilikan	-11.4873
▁deadly	-11.4875
EW	-11.4875
▁beratus	-11.4876
▁sepasukan	-11.4876
▁Card	-11.4877
▁documentary	-11.4877
stat	-11.4879
▁repeated	-11.4879
Let	-11.488
▁TMZ	-11.4882
▁membicarakan	-11.4885
▁Pasaran	-11.4889
dre	-11.4889
▁arkitek	-11.489
▁Saddiq	-11.489
▁pocket	-11.4891
▁tweeted	-11.4892
commerce	-11.4892
▁knee	-11.4893
▁FORTUNE	-11.4898
▁element	-11.4902
▁tourist	-11.4902
ncy	-11.4903
▁berlatih	-11.4903
▁defeated	-11.4906
▁cruise	-11.4907
▁piano	-11.4909
▁Theater	-11.491
▁dihormati	-11.4911
▁cheese	-11.4911
China	-11.4914
osi	-11.4916
▁pemuzik	-11.4919
wed	-11.4921
▁sedemikian	-11.4922
▁registration	-11.4922
▁mencintai	-11.4925
rek	-11.4926
▁sinar	-11.4928
▁Penasihat	-11.493
▁Cru	-11.4932
dian	-11.4933
▁slowly	-11.4933
▁Hunt	-11.4934
▁Vol	-11.4937
▁berkala	-11.4938
450	-11.494
balik	-11.494
▁opponents	-11.494
▁Tin	-11.494
aff	-11.4941
▁citing	-11.4941
▁destination	-11.4941
▁bahagia	-11.4942
▁komik	-11.4944
part	-11.4946
▁cook	-11.4947
▁Records	-11.4951
▁Rid	-11.4952
ega	-11.4953
ought	-11.4954
▁PRU	-11.4954
▁melainkan	-11.4955
sungguh	-11.4955
▁09	-11.4956
▁Din	-11.4957
▁DALAM	-11.496
▁melampaui	-11.4962
▁Pengurus	-11.4963
▁700	-11.4963
▁reveal	-11.4963
▁06	-11.4964
rub	-11.4964
campur	-11.4965
▁Sem	-11.4967
senang	-11.4968
▁Hang	-11.497
▁recalled	-11.4971
▁expanding	-11.4972
TP	-11.4973
▁Jenayah	-11.4974
▁Sangat	-11.4975
▁Foster	-11.498
tsu	-11.4981
▁prayer	-11.4982
▁JPMorgan	-11.4985
▁pencegahan	-11.4988
fli	-11.4988
claim	-11.4991
▁belief	-11.4992
▁relative	-11.4993
▁substance	-11.4993
▁hektar	-11.4999
▁Fin	-11.5001
▁Penganalisis	-11.5001
▁eksperimen	-11.5004
kini	-11.5005
▁Caribbean	-11.5007
▁integrity	-11.5008
▁Terry	-11.5008
▁rail	-11.5009
▁blind	-11.5014
▁promotion	-11.5014
▁intervention	-11.5015
sekolah	-11.5016
▁Adalah	-11.5017
▁SC	-11.5017
def	-11.502
cord	-11.5022
▁ragu	-11.5023
▁Wayne	-11.5023
aged	-11.5024
▁participation	-11.5026
▁spoken	-11.5029
zon	-11.503
▁Ob	-11.5032
▁Cuban	-11.5033
▁careful	-11.5034
▁berdepan	-11.5034
▁Dennis	-11.5035
▁mengingat	-11.5036
▁staying	-11.5038
▁melengkapkan	-11.504
alih	-11.504
ees	-11.5041
▁eggs	-11.5041
▁consideration	-11.5042
ym	-11.5043
▁911	-11.5043
▁transactions	-11.5044
▁screening	-11.5044
▁sayur	-11.5047
▁etika	-11.5048
▁dates	-11.505
▁competing	-11.5051
▁Orange	-11.5051
▁Bour	-11.5053
▁incredible	-11.5054
▁1948	-11.5054
▁biologi	-11.5054
▁consistent	-11.5059
▁jurnal	-11.5059
▁Natural	-11.5059
fat	-11.506
▁scenes	-11.5062
▁bumbung	-11.5062
▁Prix	-11.5062
▁fled	-11.5063
▁Keep	-11.5063
VA	-11.5064
Comp	-11.5064
▁Medicine	-11.5064
▁households	-11.5065
▁mingguan	-11.5068
▁Premier	-11.5068
▁raw	-11.5069
▁Revolution	-11.507
tau	-11.5073
▁photograph	-11.5074
hit	-11.5075
▁sepenuh	-11.5077
▁Sau	-11.5077
▁berbulan	-11.5078
shire	-11.5079
▁offense	-11.508
▁cabang	-11.5083
▁Bomba	-11.5083
▁Hitam	-11.5083
News	-11.5083
▁mengadu	-11.5084
dir	-11.5087
▁ratings	-11.5088
▁fishermen	-11.5089
▁CD	-11.509
bahagian	-11.5092
▁diramalkan	-11.5092
▁exciting	-11.5092
▁emails	-11.5092
▁Nampaknya	-11.5095
▁maintenance	-11.5095
▁ataupun	-11.5095
▁tower	-11.5097
▁walks	-11.5097
▁Grammy	-11.5098
▁merakam	-11.51
▁ETF	-11.51
▁temple	-11.51
▁Carey	-11.5101
▁undian	-11.5102
▁Region	-11.5103
▁Hunter	-11.5103
PER	-11.5104
▁Kad	-11.5105
▁bike	-11.5105
▁Securities	-11.5106
▁kalendar	-11.5106
▁penanda	-11.5111
▁$20	-11.5112
Hi	-11.5113
▁depending	-11.5113
▁mengungkapkan	-11.5114
▁Amin	-11.5115
OH	-11.5116
▁manufacturers	-11.5116
detik	-11.5117
▁Pekerjaan	-11.5117
▁dirawat	-11.5118
▁feelings	-11.5119
▁dibahagikan	-11.512
▁sustainable	-11.512
▁Melalui	-11.5121
PB	-11.5122
▁kesilapan	-11.5122
Just	-11.5123
20,000	-11.5125
▁Chuck	-11.5127
▁besides	-11.5127
▁tiang	-11.5128
▁paparan	-11.5128
▁brutal	-11.5128
▁skrip	-11.5129
masi	-11.5131
rad	-11.5133
▁Ring	-11.5134
▁transform	-11.5134
nom	-11.5136
▁sixth	-11.5136
▁disesuaikan	-11.5136
▁melantik	-11.5138
▁Contohnya	-11.5138
▁PRO	-11.5139
II	-11.5139
fish	-11.5139
▁73	-11.5139
▁tips	-11.5139
▁bayar	-11.514
▁saudaranya	-11.514
▁penawaran	-11.5141
▁Territory	-11.5142
▁klinik	-11.5142
▁Rand	-11.5143
dies	-11.5144
▁enjoyed	-11.5144
▁teach	-11.5145
Michel	-11.5147
▁dipertimbangkan	-11.5147
▁Sham	-11.5148
▁definition	-11.515
▁pisau	-11.515
▁resulted	-11.515
▁Things	-11.5152
school	-11.5157
▁shoulder	-11.5158
▁50,000	-11.5159
▁Pesuruhjaya	-11.5161
bow	-11.5162
kuat	-11.5163
ement	-11.5165
▁membintangi	-11.5167
▁developer	-11.5168
▁terse	-11.5169
▁survived	-11.517
▁stayed	-11.5173
face	-11.5176
Sekarang	-11.5177
▁reforms	-11.5177
▁160	-11.5177
▁lay	-11.5177
▁artificial	-11.5178
▁bottle	-11.5182
▁Telegraph	-11.5183
▁pukulan	-11.5184
▁paru	-11.5184
▁Crown	-11.5185
▁anybody	-11.5186
▁kelapa	-11.5186
▁meletus	-11.5186
▁papers	-11.5186
▁pengesahan	-11.5186
▁biaya	-11.5187
chan	-11.5193
dit	-11.5196
▁lab	-11.5196
Oleh	-11.5196
▁guarantee	-11.5197
▁Mario	-11.5198
worthy	-11.5199
▁presidency	-11.5199
▁memaklumkan	-11.52
▁Walt	-11.5202
▁exports	-11.5202
▁choices	-11.5202
raja	-11.5203
cil	-11.5203
▁Versi	-11.5204
▁perpustakaan	-11.5206
▁kilometers	-11.5206
▁ela	-11.5207
▁Ny	-11.5207
▁propaganda	-11.5209
▁owns	-11.5209
▁perbandingan	-11.5212
▁principle	-11.5213
▁commonly	-11.5215
▁Utama	-11.5215
▁berpisah	-11.5217
▁Perwakilan	-11.522
▁dijangkakan	-11.522
ukur	-11.5223
▁elite	-11.5223
▁trained	-11.5224
vir	-11.5225
▁Design	-11.5226
▁dihentikan	-11.5228
ij	-11.5229
▁eBay	-11.5229
▁Kanye	-11.5229
ough	-11.523
▁ties	-11.5231
paru	-11.5231
▁recommended	-11.5231
▁bermasalah	-11.5233
▁warrant	-11.5233
▁Dead	-11.5234
▁mempercepat	-11.5234
▁Madrid	-11.5234
▁Rang	-11.5235
▁patent	-11.5236
▁relatives	-11.5236
▁Yan	-11.5236
▁Master	-11.5236
▁mendatang	-11.5237
▁contained	-11.5238
sized	-11.5239
▁tulisnya	-11.5239
kam	-11.524
▁lainnya	-11.5241
▁kuil	-11.5242
▁Rev	-11.5242
▁sifar	-11.5243
▁Turnbull	-11.5245
▁Manning	-11.5248
hil	-11.5253
▁berlainan	-11.5254
▁operator	-11.5254
▁Lama	-11.5255
▁180	-11.5255
cuba	-11.5256
▁Tribune	-11.5256
▁Carol	-11.5257
▁Artikel	-11.5259
▁Def	-11.526
▁Shaw	-11.5262
fold	-11.5262
▁discipline	-11.5262
▁hockey	-11.5262
Alpes	-11.5267
▁strategies	-11.527
▁Bis	-11.527
▁Pelabur	-11.5271
▁blogger	-11.5271
▁secondary	-11.5274
rung	-11.5275
JK	-11.5276
▁attempted	-11.5277
▁oldest	-11.5277
▁Nar	-11.5279
▁pegangan	-11.5279
▁pengambilalihan	-11.5279
▁reasonable	-11.5279
▁Angka	-11.5279
▁Gill	-11.5281
▁Ana	-11.5285
▁harapkan	-11.5286
ces	-11.5288
▁Sunni	-11.5288
▁submit	-11.5288
▁8:	-11.5289
pus	-11.5291
Hu	-11.5293
▁Cla	-11.5294
▁abandoned	-11.5295
▁konvensional	-11.5296
▁mengupah	-11.5296
▁Bot	-11.5297
▁Osman	-11.53
berse	-11.5302
▁Kill	-11.5303
▁Rahim	-11.5306
▁resulting	-11.531
▁Evan	-11.5314
screen	-11.5314
▁mendapatkannya	-11.5315
▁signing	-11.5315
▁advised	-11.5315
▁memburu	-11.5316
dding	-11.5316
his	-11.5318
▁kesakitan	-11.5318
▁kemerosotan	-11.5321
▁resigned	-11.5322
▁lucky	-11.5322
▁140	-11.5322
▁Carr	-11.5323
▁ObamaCare	-11.5325
▁enormous	-11.5327
▁Season	-11.5327
tty	-11.533
▁Change	-11.533
rahan	-11.5331
Am	-11.5331
▁Bus	-11.5333
▁Ven	-11.5334
AY	-11.5338
▁LONDON	-11.5338
▁Hasilnya	-11.5339
ago	-11.5341
batan	-11.5345
▁Imam	-11.5346
▁LICENSE	-11.5347
▁Pameran	-11.5347
▁Mata	-11.5348
▁Zainal	-11.5348
▁veterans	-11.5349
▁krim	-11.5349
▁refers	-11.535
El	-11.535
▁photographs	-11.5351
▁rokok	-11.5352
anggu	-11.5354
▁prosecutor	-11.5356
▁inti	-11.5357
▁membandingkan	-11.536
shing	-11.536
▁summit	-11.5361
ografi	-11.5366
lamp	-11.5366
▁25%	-11.5368
▁custom	-11.5369
▁islands	-11.5371
zing	-11.5371
▁Memang	-11.5373
▁ekor	-11.5373
ENT	-11.5373
▁klik	-11.5373
▁MI	-11.5374
ire	-11.5375
▁ceiling	-11.5375
partisan	-11.538
▁Safety	-11.5381
▁judgment	-11.5381
▁kepalanya	-11.5383
▁kenal	-11.5383
▁Baha	-11.5384
▁containing	-11.5385
▁dynamic	-11.5385
▁Zakir	-11.5386
▁vulnerable	-11.5387
▁meneroka	-11.5387
▁Carrie	-11.5387
▁74	-11.5389
Assad	-11.5389
▁1,500	-11.539
▁objects	-11.5391
▁keenam	-11.5392
▁ledakan	-11.5393
▁Reynolds	-11.5395
▁370	-11.5396
▁Snowden	-11.5399
▁Sox	-11.54
▁mutual	-11.5401
▁stages	-11.5402
▁forever	-11.5404
▁THIS	-11.5404
tetapi	-11.5406
▁regret	-11.5406
▁assume	-11.5408
▁sekaligus	-11.5408
▁tewas	-11.541
▁machines	-11.5411
▁lift	-11.5413
▁Diana	-11.5413
▁peaceful	-11.5415
thy	-11.5415
stru	-11.5416
rio	-11.5419
▁merger	-11.542
▁ketidak	-11.542
▁leverage	-11.5421
▁Nashville	-11.5421
▁constitution	-11.5422
▁MB	-11.5423
▁01	-11.5425
▁Saudara	-11.5427
▁arang	-11.543
▁appreciate	-11.543
▁30,000	-11.5431
▁stem	-11.5431
▁Temple	-11.5432
▁Ras	-11.5434
osa	-11.5434
▁thick	-11.5437
amat	-11.5437
▁pemasangan	-11.5438
dging	-11.5438
FL	-11.5439
▁Reed	-11.544
▁Garcia	-11.5441
▁Ashley	-11.5442
ibu	-11.5442
▁huruf	-11.5444
▁saiz	-11.5447
▁membela	-11.5448
▁Penulis	-11.5449
▁dipaksa	-11.5449
▁NSW	-11.545
▁pal	-11.5453
▁fairly	-11.5453
▁Bantuan	-11.5455
10,000	-11.5456
▁rap	-11.5457
elect	-11.5458
▁properly	-11.5459
▁categories	-11.5461
▁Aid	-11.5461
cca	-11.5463
▁surveillance	-11.5464
▁Terbuka	-11.5464
▁disappointed	-11.5465
▁Think	-11.5466
▁Bangkok	-11.5467
▁posts	-11.5467
vit	-11.5468
▁detect	-11.5471
▁etc	-11.5471
▁broader	-11.5471
▁Prize	-11.5472
▁median	-11.5474
▁sampel	-11.5475
▁restore	-11.5475
▁tangki	-11.5476
▁Gol	-11.5476
▁specialist	-11.5476
▁LP	-11.5477
▁intention	-11.5477
▁digantung	-11.5477
wah	-11.5477
▁Lebanon	-11.5478
▁meanwhile	-11.5478
▁Alibaba	-11.5481
▁saintifik	-11.5481
Gu	-11.5481
▁Ok	-11.5482
storm	-11.5482
▁Lucas	-11.5483
▁airlines	-11.5483
lion	-11.5484
gni	-11.5487
▁siasat	-11.5491
gla	-11.5494
▁wealthy	-11.5496
erangkaian	-11.5497
▁khidmat	-11.5498
nding	-11.5499
▁hide	-11.5499
▁civilians	-11.55
▁menetap	-11.55
▁Note	-11.5502
▁pendakwaan	-11.5503
▁stability	-11.5505
CU	-11.5506
▁debat	-11.5506
▁repeat	-11.5507
▁expression	-11.5508
▁APRIL	-11.551
▁kariernya	-11.551
▁LE	-11.5515
▁Article	-11.5515
bad	-11.5516
▁volunteer	-11.5518
media	-11.5519
▁assess	-11.5519
▁NCAA	-11.5521
▁muscle	-11.5521
▁AIDS	-11.5521
▁berpengaruh	-11.5522
▁berperang	-11.5522
▁Spa	-11.5522
▁EUR	-11.5523
dell	-11.5523
▁Aleppo	-11.5524
▁Seoul	-11.5526
▁investigated	-11.5528
▁pemerhati	-11.5529
▁Kolej	-11.553
ain	-11.5531
▁mencederakan	-11.5533
▁Helen	-11.5535
▁carefully	-11.5535
▁telinga	-11.5536
▁Cruise	-11.5537
▁democratic	-11.5539
▁ekar	-11.5539
▁pemula	-11.5539
borough	-11.5541
▁extension	-11.5541
pis	-11.5542
▁memikat	-11.5542
▁Nicole	-11.5543
▁Sai	-11.5544
▁Portland	-11.5545
▁chances	-11.5545
general	-11.5548
IF	-11.5548
▁Baik	-11.5549
ska	-11.555
▁compromise	-11.5551
▁1957	-11.5553
qi	-11.5553
▁menelan	-11.5553
▁iron	-11.5554
▁Qua	-11.5556
▁Kebanyakan	-11.5556
30,000	-11.5557
▁menyukainya	-11.5557
▁longtime	-11.5562
▁drew	-11.5562
▁diplomatic	-11.5563
▁Tru	-11.5565
AW	-11.5566
▁regulatory	-11.5566
▁gross	-11.5569
pra	-11.5571
▁somewhat	-11.5573
minggu	-11.5574
▁extraordinary	-11.5575
▁Which	-11.5576
rain	-11.5577
▁gene	-11.5577
▁donations	-11.5581
▁butang	-11.5581
▁default	-11.5582
mpang	-11.5582
oz	-11.5583
yam	-11.5587
▁dimuat	-11.5587
▁diversity	-11.5588
▁Industrial	-11.5589
▁moon	-11.559
tract	-11.5591
BM	-11.5592
▁drove	-11.5592
Hari	-11.5592
▁Kok	-11.5593
▁Langkawi	-11.5594
▁Menjadi	-11.5594
SL	-11.5596
▁kesukaran	-11.5596
tian	-11.5598
▁Drug	-11.5598
▁fenomena	-11.5599
▁memusnahkan	-11.5599
▁ditukar	-11.5599
▁finds	-11.56
▁momen	-11.5601
graph	-11.5604
ndang	-11.5605
phy	-11.5606
ELL	-11.5606
▁mekanisme	-11.5608
▁Studies	-11.5608
▁Bros	-11.561
ily	-11.5612
▁Front	-11.5615
▁deadline	-11.5615
tive	-11.5617
▁Kalau	-11.5617
▁Karya	-11.5618
▁rebels	-11.5619
won	-11.5619
▁Drama	-11.562
▁Mana	-11.5622
bedroom	-11.5623
RB	-11.5623
▁cetak	-11.5625
▁saving	-11.5626
▁reviews	-11.5626
tering	-11.5628
sebuah	-11.5629
makan	-11.563
▁battery	-11.5631
▁Barcelona	-11.5634
▁testimony	-11.5634
▁difikirkan	-11.5637
▁gelanggang	-11.5637
▁Galeri	-11.5638
▁discrimination	-11.5639
▁modest	-11.5639
▁menghadap	-11.564
▁Ai	-11.564
▁mahir	-11.5641
suka	-11.5643
▁residence	-11.5643
▁Komuniti	-11.5649
▁contemporary	-11.5649
▁Bernard	-11.5652
▁wajib	-11.5652
lane	-11.5654
▁keprihatinan	-11.5655
▁Qui	-11.5656
ogen	-11.5656
▁Mini	-11.5657
Corruption	-11.5658
struct	-11.5658
roll	-11.5659
ark	-11.5659
RAN	-11.566
▁tebing	-11.5661
▁berpegang	-11.5664
▁dielakkan	-11.5664
ense	-11.5664
bayar	-11.5664
▁mall	-11.5665
▁sebagainya	-11.5666
▁dikongsi	-11.5666
▁heroin	-11.5667
▁topic	-11.5669
▁bread	-11.5669
sayuran	-11.567
▁writers	-11.5671
▁sorry	-11.5671
▁Buck	-11.5672
kle	-11.5672
▁kecerdasan	-11.5672
▁Unfortunately	-11.5673
hkan	-11.5674
gia	-11.5675
▁hadapi	-11.5675
▁dismissed	-11.5676
tag	-11.5678
▁rapidly	-11.5678
▁menyenaraikan	-11.5678
▁buried	-11.5678
ador	-11.5679
▁Kro	-11.5679
love	-11.5682
rock	-11.5683
▁Mus	-11.5683
▁contributor	-11.5684
friendly	-11.5684
▁hiasan	-11.5684
▁engage	-11.5686
▁Tommy	-11.5687
▁tersisa	-11.5687
▁describes	-11.5688
gesa	-11.5689
shaped	-11.5689
▁perundingan	-11.5694
▁liked	-11.5695
▁highway	-11.5695
▁ASSESSMENT	-11.5696
▁perpecahan	-11.5696
ARA	-11.5697
▁wood	-11.5697
BNM	-11.5697
ffe	-11.57
▁diplomatik	-11.5701
▁Assistant	-11.5702
Quran	-11.5702
▁Halim	-11.5703
aux	-11.5703
▁deny	-11.5703
▁guidelines	-11.5705
llo	-11.5705
▁Sher	-11.5705
fare	-11.5706
▁Bos	-11.5706
▁depends	-11.571
▁Arch	-11.571
▁incidents	-11.571
▁fortune	-11.5712
▁nobody	-11.5713
bud	-11.5715
▁grave	-11.572
▁efficient	-11.5722
▁JAWAPAN	-11.5722
▁autonomous	-11.5722
▁settle	-11.5723
▁trigger	-11.5725
▁rugi	-11.5727
▁cerah	-11.573
▁smoking	-11.5734
▁pengikut	-11.5735
▁defending	-11.5736
▁congressional	-11.5737
▁Mother	-11.5737
▁Doug	-11.5738
▁pas	-11.5738
▁ages	-11.5739
▁HD	-11.574
▁patrol	-11.574
▁menunggang	-11.5743
▁speculation	-11.5743
▁Labuan	-11.5743
▁101	-11.5743
▁unexpected	-11.5743
▁welcomed	-11.5744
▁DATUK	-11.5746
usaha	-11.5747
▁couples	-11.5748
▁peminjam	-11.5749
▁KL	-11.5751
▁tamu	-11.5751
▁WITH	-11.5752
▁span	-11.5753
▁Nad	-11.5753
from	-11.5753
nn	-11.5753
However	-11.5754
▁pemahaman	-11.5755
▁Jaminan	-11.5755
▁Dark	-11.5756
▁Pasar	-11.5756
▁1961	-11.5757
▁surrounded	-11.5759
▁terrible	-11.5761
▁senario	-11.5761
liter	-11.5761
uda	-11.5762
80,000	-11.5762
▁Sheikh	-11.5762
tit	-11.5762
ucci	-11.5764
AB	-11.5765
SU	-11.5765
▁demo	-11.5765
▁Ratu	-11.5767
▁Usaha	-11.5767
▁mendirikan	-11.5769
▁Jesse	-11.577
▁marks	-11.5772
▁mengenainya	-11.5774
▁Pass	-11.5775
▁Drew	-11.5776
▁breath	-11.5777
▁Zul	-11.5777
▁AL	-11.5778
▁Others	-11.5779
▁pil	-11.5781
ERS	-11.5782
▁update	-11.5782
ico	-11.5783
NYA	-11.5784
▁frequent	-11.5784
▁PERDANA	-11.5784
▁petikan	-11.5784
boy	-11.5785
▁handful	-11.5787
750	-11.5787
ister	-11.5787
sub	-11.5788
Pu	-11.5788
ome	-11.579
▁Kepulauan	-11.579
▁menghidap	-11.579
▁recipe	-11.5799
▁selaras	-11.5799
▁mistakes	-11.58
antara	-11.58
▁BMW	-11.58
MER	-11.5803
pho	-11.5804
▁Acara	-11.5805
▁HAJI	-11.5805
AND	-11.5805
▁$9	-11.5806
▁aim	-11.5806
▁languages	-11.5807
▁Actress	-11.5809
▁Pac	-11.5809
▁persendirian	-11.5811
▁Kembali	-11.5811
▁masakan	-11.5813
▁footage	-11.5813
hart	-11.5814
▁Neu	-11.5814
▁Cinta	-11.5814
▁Kyle	-11.5816
▁Sad	-11.5816
IB	-11.5817
said	-11.5817
▁tall	-11.5817
▁Mail	-11.5818
door	-11.5819
▁ON	-11.582
▁memeluk	-11.582
▁signature	-11.582
▁titles	-11.5821
new	-11.5822
▁Phillips	-11.5822
teng	-11.5827
▁Sebanyak	-11.5827
▁renang	-11.5827
pect	-11.5828
▁Thanksgiving	-11.5829
▁LLC	-11.5834
gov	-11.5835
▁78	-11.5835
▁departure	-11.5835
▁engagement	-11.5837
▁Somalia	-11.5839
▁Sele	-11.5841
▁performances	-11.5841
▁penjawat	-11.5841
▁acid	-11.5842
ksa	-11.5845
▁meme	-11.5847
▁Given	-11.5847
VR	-11.5848
PDRM	-11.5852
ansur	-11.5854
▁menyerupai	-11.5856
▁Rico	-11.5856
▁71	-11.5857
rog	-11.5857
ambung	-11.5858
Mr	-11.5861
▁HE	-11.5864
▁resign	-11.5864
▁Berkshire	-11.5865
▁guidance	-11.5865
tti	-11.5865
▁meal	-11.5867
▁proposals	-11.5867
▁exact	-11.5868
▁Sepak	-11.587
gran	-11.587
▁rear	-11.587
▁Netherlands	-11.587
▁ditujukan	-11.587
▁hitting	-11.5872
▁menyesal	-11.5873
▁Rangkaian	-11.5873
▁prompted	-11.5873
▁venue	-11.5874
▁berkurang	-11.5875
cock	-11.5875
alukan	-11.5876
▁Friends	-11.5877
▁Atas	-11.5878
how	-11.5879
rib	-11.5879
▁Yale	-11.588
▁kabinet	-11.588
BR	-11.5882
▁77	-11.5882
▁Beat	-11.5882
▁pejabatnya	-11.5883
Lihat	-11.5885
lina	-11.5886
▁Margaret	-11.5888
▁130	-11.5889
▁Liz	-11.5889
ILL	-11.589
▁stolen	-11.5891
150	-11.5891
▁200,000	-11.5893
▁wore	-11.5895
▁Amanah	-11.5896
▁mengge	-11.5898
▁god	-11.5898
▁Crime	-11.5899
▁smooth	-11.5901
▁aired	-11.5901
position	-11.5902
▁melawat	-11.5902
▁salad	-11.5904
PAC	-11.5905
▁bound	-11.5906
▁Chin	-11.5907
▁liquid	-11.5908
▁efektif	-11.5909
▁tawar	-11.5914
▁ranked	-11.5915
▁fi	-11.5916
▁80%	-11.5916
▁membership	-11.5916
holders	-11.5917
▁Powell	-11.5918
▁Sil	-11.5918
▁memulihkan	-11.5921
▁witnesses	-11.5922
▁formation	-11.5922
▁sky	-11.5923
▁resolusi	-11.5924
▁Nah	-11.5925
▁plea	-11.5927
▁succeeded	-11.593
▁menghampiri	-11.593
▁99	-11.5931
kau	-11.5933
▁lock	-11.5933
▁Irish	-11.5937
ient	-11.5938
tem	-11.5938
▁graduan	-11.594
▁berdarah	-11.5942
▁Kirk	-11.5945
▁phrase	-11.5945
bek	-11.5946
▁terbabit	-11.5947
▁benua	-11.5949
▁memuaskan	-11.5951
▁grounds	-11.5953
▁Heritage	-11.5954
erang	-11.5955
2,500	-11.5956
▁Revolusi	-11.5957
▁Thi	-11.5959
▁bias	-11.5962
▁hole	-11.5963
member	-11.5964
▁Mega	-11.5964
▁butiran	-11.5966
▁Linda	-11.5966
▁penjimatan	-11.5967
▁Organisasi	-11.5967
▁Christ	-11.5968
▁kebangkitan	-11.597
master	-11.597
▁Enam	-11.5971
▁dada	-11.5972
▁sastera	-11.5973
▁Audi	-11.5973
▁authors	-11.5974
▁Martinez	-11.5974
▁noticed	-11.5975
eck	-11.5975
▁bertengkar	-11.5976
▁melambung	-11.5976
▁Pete	-11.5976
▁sukarela	-11.5978
▁apparent	-11.5979
▁Know	-11.5979
▁lights	-11.598
▁climb	-11.598
▁seimbang	-11.598
▁mengaitkan	-11.5982
dung	-11.5982
▁$15	-11.5983
train	-11.5983
wl	-11.5983
▁Spe	-11.5984
▁Opera	-11.5985
▁chronic	-11.5985
▁1999,	-11.5986
▁santai	-11.5988
itt	-11.5988
alis	-11.5993
▁Palmer	-11.5993
▁Beyonce	-11.5994
▁excellent	-11.5994
▁ordinary	-11.5994
KM	-11.5994
sahabat	-11.5995
ajaran	-11.5996
ologist	-11.5997
Ru	-11.5998
▁rebound	-11.5998
▁convinced	-11.5999
▁diseases	-11.6
▁disabitkan	-11.6
▁memulai	-11.6
▁imigrasi	-11.6
beza	-11.6001
▁perselisihan	-11.6003
▁pangkat	-11.6004
▁menyiapkan	-11.6006
▁dipotong	-11.6006
▁dikesan	-11.6007
▁Pembuat	-11.6009
▁grid	-11.601
▁Enterprise	-11.6012
▁mogok	-11.6012
▁Tha	-11.6012
uka	-11.6014
▁dipecat	-11.6015
▁lambat	-11.6017
▁tens	-11.6021
▁backed	-11.6021
▁waves	-11.6022
▁Tyler	-11.6022
including	-11.6023
Pas	-11.6023
▁Environment	-11.6023
▁handling	-11.6024
▁Kho	-11.6025
▁THIRD	-11.6027
▁kegunaan	-11.6027
▁Tempatan	-11.6028
▁Sekali	-11.6028
stead	-11.6029
▁Pont	-11.6029
▁accompanied	-11.603
els	-11.603
winning	-11.6031
▁pipeline	-11.6031
▁entrance	-11.6033
▁efficiency	-11.6034
▁Sing	-11.6034
▁Wu	-11.6035
▁Cul	-11.6036
▁Duchess	-11.6036
▁pautan	-11.6037
▁makna	-11.6037
▁Snow	-11.6038
▁shadow	-11.6039
▁diagnosis	-11.6042
▁vaccine	-11.6042
standing	-11.6047
▁hunt	-11.6047
▁penaja	-11.6048
▁fulfill	-11.6048
▁Casey	-11.6049
dagang	-11.6051
▁dinaikkan	-11.6051
▁manual	-11.6052
▁studying	-11.6053
▁Hus	-11.6054
▁mendadak	-11.6054
▁vitamin	-11.6054
▁Record	-11.6055
▁Bag	-11.6055
walk	-11.6057
▁regulators	-11.6057
▁commentary	-11.6062
▁Stars	-11.6063
▁hardly	-11.6065
eja	-11.6066
▁RUU	-11.6067
▁Scha	-11.6073
pole	-11.6075
▁penglihatan	-11.6076
▁beloved	-11.6076
▁hartanah	-11.6077
▁selera	-11.6077
stop	-11.6078
▁Intelligence	-11.6079
RY	-11.608
NGO	-11.6081
▁Currently	-11.6082
▁Highlands	-11.6083
medi	-11.6083
▁shortage	-11.6085
▁pola	-11.6085
▁pita	-11.6087
▁nisbah	-11.6091
▁DJ	-11.6092
▁classified	-11.6092
▁certificate	-11.6094
meny	-11.6095
hala	-11.6096
▁Oliver	-11.6096
▁hubungannya	-11.6097
▁channels	-11.6097
▁gather	-11.6098
▁Jake	-11.6099
▁separa	-11.6101
tors	-11.6101
▁joke	-11.6101
▁dialogue	-11.6103
▁keju	-11.6104
▁captain	-11.6104
tuk	-11.6106
▁keberanian	-11.6106
RIM	-11.6107
▁menonjol	-11.6109
Bangsa	-11.6112
▁penderitaan	-11.6112
▁sempit	-11.6112
▁register	-11.6115
▁Ng	-11.6117
▁rank	-11.6117
▁stepped	-11.6117
▁outfit	-11.6119
▁jazz	-11.6119
▁Regional	-11.6119
Trump	-11.6122
▁transferred	-11.6122
▁egg	-11.6123
sponsored	-11.6128
▁Bear	-11.6129
▁sufficient	-11.6131
▁teruja	-11.6132
▁Marcus	-11.6132
▁dishes	-11.6134
▁BU	-11.6134
▁recommend	-11.6135
▁berehat	-11.6137
tant	-11.6138
▁rely	-11.6139
▁dimakan	-11.6139
▁menggesa	-11.614
▁Meyer	-11.614
cm	-11.6142
▁Cher	-11.6142
▁mainan	-11.6143
▁sepasang	-11.6143
▁bergaya	-11.6143
nation	-11.6144
lov	-11.6145
▁Akhir	-11.6145
▁miliknya	-11.6149
▁Barr	-11.6149
▁berta	-11.615
person	-11.6151
▁rivals	-11.6151
▁Virgin	-11.6152
▁procedures	-11.6152
2014	-11.6152
▁cheaper	-11.6153
▁Zoo	-11.6154
▁kepingan	-11.6156
▁lady	-11.6157
▁Hand	-11.6159
Meet	-11.616
▁settled	-11.616
▁Bennett	-11.6164
▁Desa	-11.6164
▁strikes	-11.6166
exp	-11.6166
rier	-11.6167
▁strain	-11.6168
▁fatal	-11.6169
▁ear	-11.6169
▁Hun	-11.6171
▁ensuring	-11.6174
HAM	-11.6174
▁engineer	-11.6176
▁meninjau	-11.618
▁menanam	-11.618
▁Death	-11.6181
▁requests	-11.6185
▁Sometimes	-11.6185
▁Liberty	-11.6186
▁earning	-11.6187
▁NSA	-11.6189
▁WA	-11.619
▁MIC	-11.619
buck	-11.619
gem	-11.6192
▁retain	-11.6193
inter	-11.6193
▁dapati	-11.6193
elaku	-11.6196
▁baths	-11.6197
▁membantunya	-11.6198
▁procedure	-11.6198
▁110	-11.6199
▁usul	-11.6199
▁401	-11.6199
JU	-11.62
▁Profesor	-11.6202
lies	-11.6202
▁Perlindungan	-11.6205
▁mengemas	-11.6209
ampu	-11.6209
▁MPs	-11.621
etti	-11.6213
▁sentuhan	-11.6213
▁belah	-11.6214
▁pelayaran	-11.6214
▁operators	-11.6215
▁bubble	-11.6217
▁Nurul	-11.6219
▁ambassador	-11.622
▁Ipoh	-11.622
▁Fra	-11.6221
▁Monica	-11.6221
▁pose	-11.6222
▁primarily	-11.6223
stri	-11.6223
▁hotels	-11.6225
▁07	-11.6226
▁MIT	-11.6226
▁visits	-11.6227
▁sacrifice	-11.6229
▁helicopter	-11.623
▁350	-11.623
ONE	-11.6231
▁Snapchat	-11.6232
▁berurusan	-11.6232
▁PEN	-11.6233
[...]
