{"<s>":0,"<pad>":1,"</s>":2,"<|endoftext|>":3,"!":4,"\"":5,"#":6,"$":7,"%":8,"&":9,"'":10,"(":11,")":12,"*":13,"+":14,",":15,"-":16,".":17,"/":18,"0":19,"1":20,"2":21,"3":22,"4":23,"5":24,"6":25,"7":26,"8":27,"9":28,":":29,";":30,"<":31,"=":32,">":33,"?":34,"@":35,"A":36,"B":37,"C":38,"D":39,"E":40,"F":41,"G":42,"H":43,"I":44,"J":45,"K":46,"L":47,"M":48,"N":49,"O":50,"P":51,"Q":52,"R":53,"S":54,"T":55,"U":56,"V":57,"W":58,"X":59,"Y":60,"Z":61,"[":62,"\\":63,"]":64,"^":65,"_":66,"`":67,"a":68,"b":69,"c":70,"d":71,"e":72,"f":73,"g":74,"h":75,"i":76,"j":77,"k":78,"l":79,"m":80,"n":81,"o":82,"p":83,"q":84,"r":85,"s":86,"t":87,"u":88,"v":89,"w":90,"x":91,"y":92,"z":93,"{":94,"|":95,"}":96,"~":97,"¡":98,"¢":99,"£":100,"¤":101,"¥":102,"¦":103,"§":104,"¨":105,"©":106,"ª":107,"«":108,"¬":109,"®":110,"¯":111,"°":112,"±":113,"²":114,"³":115,"´":116,"µ":117,"¶":118,"·":119,"¸":120,"¹":121,"º":122,"»":123,"¼":124,"½":125,"¾":126,"¿":127,"À":128,"Á":129,"Â":130,"Ã":131,"Ä":132,"Å":133,"Æ":134,"Ç":135,"È":136,"É":137,"Ê":138,"Ë":139,"Ì":140,"Í":141,"Î":142,"Ï":143,"Ð":144,"Ñ":145,"Ò":146,"Ó":147,"Ô":148,"Õ":149,"Ö":150,"×":151,"Ø":152,"Ù":153,"Ú":154,"Û":155,"Ü":156,"Ý":157,"Þ":158,"ß":159,"à":160,"á":161,"â":162,"ã":163,"ä":164,"å":165,"æ":166,"ç":167,"è":168,"é":169,"ê":170,"ë":171,"ì":172,"í":173,"î":174,"ï":175,"ð":176,"ñ":177,"ò":178,"ó":179,"ô":180,"õ":181,"ö":182,"÷":183,"ø":184,"ù":185,"ú":186,"û":187,"ü":188,"ý":189,"þ":190,"ÿ":191,"Ā":192,"ā":193,"Ă":194,"ă":195,"Ą":196,"ą":197,"Ć":198,"ć":199,"Ĉ":200,"ĉ":201,"Ċ":202,"ċ":203,"Č":204,"č":205,"Ď":206,"ď":207,"Đ":208,"đ":209,"Ē":210,"ē":211,"Ĕ":212,"ĕ":213,"Ė":214,"ė":215,"Ę":216,"ę":217,"Ě":218,"ě":219,"Ĝ":220,"ĝ":221,"Ğ":222,"ğ":223,"Ġ":224,"ġ":225,"Ģ":226,"ģ":227,"Ĥ":228,"ĥ":229,"Ħ":230,"ħ":231,"Ĩ":232,"ĩ":233,"Ī":234,"ī":235,"Ĭ":236,"ĭ":237,"Į":238,"į":239,"İ":240,"ı":241,"Ĳ":242,"ĳ":243,"Ĵ":244,"ĵ":245,"Ķ":246,"ķ":247,"ĸ":248,"Ĺ":249,"ĺ":250,"Ļ":251,"ļ":252,"Ľ":253,"ľ":254,"Ŀ":255,"ŀ":256,"Ł":257,"ł":258,"Ń":259,"an":260,"er":261,"en":262,"Ġd":263,"la":264,"ar":265,"at":266,"Ġm":267,"ang":268,"in":269,"ak":270,"Ġs":271,"ah":272,"Ġp":273,"Ġb":274,"Ġk":275,"Ġt":276,"un":277,"as":278,"em":279,"am":280,"ĠP":281,"ad":282,"it":283,"al":284,"ĠS":285,"ik":286,"uk":287,"eng":288,"ĠM":289,"Ġdi":290,"ala":291,"el":292,"ĠK":293,"ya":294,"ĠB":295,"ĠA":296,"on":297,"ap":298,"es":299,"or":300,"is":301,"Ġy":302,"Ġse":303,"ur":304,"Ġyang":305,"ĠT":306,"us":307,"et":308,"ut":309,"kan":310,"Ġdan":311,"ai":312,"..":313,"Ġber":314,"ĠD":315,"ag":316,"id":317,"ing":318,"um":319,"ia":320,"ek":321,"il":322,"AN":323,"ela":324,"ol":325,"ada":326,"Ġh":327,"Ġke":328,"Ġmen":329,"ul":330,"ir":331,"akan":332,"ih":333,"emb":334,"Ġper":335,"ung":336,"im":337,"ari":338,"and":339,"Ġ(":340,"Ġj":341,"ab":342,"ĠR":343,"tuk":344,"ĠL":345,"aw":346,"Ġr":347,"eb":348,"ĠC":349,"Ġter":350,"ĠI":351,"ara":352,"alam":353,"Ġ2":354,"Ġn":355,"Ġl":356,"Ġun":357,"ĠH":358,"ti":359,"om":360,"aj":361,"ini":362,"ed":363,"Ġla":364,"atan":365,"Ġuntuk":366,"ud":367,"Ġc":368,"Ġmeng":369,"engan":370,"aan":371,"aya":372,"ot":373,"Ġ1":374,"ĠJ":375,"eg":376,"eh":377,"ian":378,"ent":379,"ro":380,"âĢ":381,"ĠN":382,"ga":383,"ub":384,"01":385,"ant":386,"nya":387,"Ġdengan":388,"ama":389,"uh":390,"ep":391,"up":392,"ĠU":393,"ata":394,"ĠG":395,"angan":396,"ER":397,"end":398,"...":399,"alah":400,"lah":401,"ok":402,"asa":403,"os":404,"Ġini":405,"Ġg":406,"Ġdalam":407,"Ġseb":408,"emp":409,"ĠF":410,"oleh":411,"uan":412,"ita":413,"eri":414,"Ġw":415,"ay":416,"itu":417,"Ġak":418,"ac":419,"ana":420,"ĠE":421,"AH":422,"Ġ-":423,"ĠPer":424,"ib":425,"AR":426,"Ġ,":427,"Ġ201":428,"ula":429,"ikan":430,"pada":431,"ua":432,"Ġdari":433,"gi":434,"asi":435,"00":436,"Ġmer":437,"idak":438,"ta":439,"aran":440,"Ġker":441,"ong":442,"ri":443,"oh":444,"Ġmemb":445,"amp":446,"ĠW":447,"orang":448,"amb":449,"AT":450,"EN":451,"IN":452,"lu":453,"per":454,"Ġf":455,"Ġitu":456,"alan":457,"Ġ.":458,"ukan":459,"Ġtidak":460,"adi":461,"si":462,"ahan":463,"Ġand":464,"ic":465,"Ġpen":466,"Ġmem":467,"uat":468,"Ġpada":469,"ĠO":470,"og":471,"apa":472,"le":473,"ati":474,"Ġad":475,"Ġaku":476,"ter":477,"sia":478,"ila":479,"ip":480,"AS":481,"od":482,"af":483,"Ġpeng":484,"ami":485,"anya":486,"Ġsem":487,"Ġsek":488,"iti":489,"agai":490,"ec":491,"nd":492,"ali":493,"yak":494,"ind":495,"elah":496,"eka":497,"ĠY":498,"AM":499,"he":500,"ku":501,"Ġkepada":502,"Ġakan":503,"AL":504,"Ġtah":505,"ain":506,"alay":507,"angk":508,"ej":509,"lam":510,"uc":511,"elak":512,"ĠV":513,"st":514,"Ġanda":515,"ika":516,"ew":517,"aman":518,"uar":519,"Ġadalah":520,"apat":521,"ĠAl":522,"Per":523,"ist":524,"op":525,"alaysia":526,"Ġmas":527,"Ġju":528,"Ġata":529,"ĠâĢ":530,"Ġ&":531,"agi":532,"Ġberk":533,"ĠBer":534,"Ġatau":535,"Ġmeny":536,"angg":537,"AK":538,"Ġsaya":539,"uj":540,"api":541,"if":542,"ĠTer":543,"Ġmenj":544,"ebih":545,"gun":546,"ĠÂ":547,"Ġ3":548,"Ġoleh":549,"ni":550,"EL":551,"Ġboleh":552,"Ġin":553,"anj":554,"anak":555,"aru":556,"Ġ:":557,"Ġtak":558,"EM":559,"atu":560,"aik":561,"Ġmereka":562,"au":563,"ĠMalaysia":564,"Ġada":565,"ont":566,"Ġjuga":567,"yar":568,"anc":569,"usan":570,"imp":571,"iri":572,"Ġorang":573,"az":574,"Ġ...":575,"Ġtahun":576,"ĠPeng":577,"Ġtelah":578,"ump":579,"ANG":580,"Ġkes":581,"Ġbers":582,"ort":583,"ig":584,"tr":585,"UN":586,"int":587,"asan":588,"Ġbah":589,"ch":590,"ina":591,"Ġpem":592,"aja":593,"ov":594,"re":595,"ĠKer":596,"Ġ\"":597,"man":598,"Ġkita":599,"udah":600,"Ġpro":601,"uka":602,"IS":603,"Ġdib":604,"Ġ|":605,"ers":606,"Ġkel":607,"uah":608,"ĠIs":609,"uran":610,"ow":611,"ulan":612,"arah":613,"enar":614,"Ġlebih":615,"ĠZ":616,"lat":617,"eta":618,"iz":619,"ihat":620,"Ġpemb":621,"ĠPen":622,"Ġ2019":623,"Ġser":624,"Ġsel":625,"Ġmel":626,"Ġbagi":627,"utan":628,"Ġsebagai":629,"angs":630,"ĠIn":631,"Ġdia":632,"Ġket":633,"Ġdaripada":634,"Ġ/":635,"ĠSh":636,"egara":637,"UR":638,"eo":639,"li":640,"est":641,"log":642,"ma":643,"ingg":644,"IK":645,"ob":646,"awa":647,"TA":648,"arang":649,"duk":650,"epas":651,"ubung":652,"Ġmak":653,"Ġdis":654,"yat":655,"Ġni":656,"ja":657,"Ġdit":658,"ON":659,"ihan":660,"art":661,"hid":662,"its":663,"Ġmemp":664,"arga":665,"eks":666,"Ġia":667,"Ġ4":668,"Ġkami":669,"umb":670,"99":671,"Ġdik":672,"Ġ5":673,"anyak":674,"Ġmend":675,"ĠÂ·":676,"hir":677,"ES":678,"Ġlagi":679,"Ġkem":680,"ine":681,"pa":682,"ĠAn":683,"Ġhari":684,"san":685,"ingk":686,"umah":687,"com":688,"ht":689,"Ġbel":690,"Ġv":691,"empat":692,"ĠCh":693,"isi":694,"apan":695,"Ġsatu":696,"anita":697,"anan":698,"ĠPER":699,"ENG":700,"AD":701,"und":702,"ug":703,"unya":704,"edia":705,"matan":706,"ungk":707,"arkan":708,"gunakan":709,"Ġlain":710,"of":711,"KO":712,"ajaan":713,"Ġat":714,"Ber":715,"Ġnak":716,"Ġas":717,"Ġters":718,"ra":719,"Ġsed":720,"US":721,"tor":722,"Ġpel":723,"Ġseper":724,"Ġ[":725,"AI":726,"ĠUn":727,"egeri":728,"uhan":729,"had":730,"elaj":731,"iran":732,"ebut":733,"ĠDi":734,"lum":735,"201":736,"lis":737,"Ġseperti":738,"era":739,"Ġterb":740,"Pen":741,"ima":742,"Ġkerana":743,"olah":744,"Ġi":745,"esar":746,"Ġ)":747,"Ġag":748,"Ġmela":749,"Ġal":750,"Ġbert":751,"inggi":752,"Ġapa":753,"ual":754,"Ġpas":755,"ilik":756,"air":757,"Peng":758,"mas":759,"awatan":760,"angkan":761,"Ġses":762,"ust":763,"Ġperk":764,"ram":765,"ail":766,"iv":767,"ideo":768,"In":769,"th":770,"ĠPro":771,"tan":772,"iau":773,"Ġmenc":774,"Ġdapat":775,"da":776,"Ġanak":777,"Ġto":778,"Ġmin":779,"mat":780,"erah":781,"agian":782,"Ġmenjadi":783,"na":784,"tama":785,"Ġ6":786,"Ġlalu":787,"Ġpun":788,"AJ":789,"IL":790,"ARA":791,"ikat":792,"OR":793,"Ġmasa":794,"unt":795,"itan":796,"ota":797,"Ġa":798,"10":799,"Ġpend":800,"AY":801,"omp":802,"etak":803,"TI":804,"UK":805,"cara":806,"elum":807,"Ġsemua":808,"ĠSE":809,"inya":810,"upakan":811,"unan":812,"Ġ'":813,"ef":814,"Ġis":815,"ena":816,"ook":817,"UM":818,"Ġ0":819,"Ġtu":820,"Ġhits":821,"anti":822,"Ġap":823,"âĢ¦":824,"AW":825,"Ġdah":826,"ss":827,"aian":828,"ambil":829,"Ġtet":830,"elay":831,"ingga":832,"ex":833,"aga":834,"ahu":835,"ĠIslam":836,"ĠDan":837,"akat":838,"elaki":839,"ĠAb":840,"UL":841,"tar":842,"âĢĿ":843,"ING":844,"Ġmerupakan":845,"uala":846,"ĠDA":847,"Ġnegara":848,"Ġkeb":849,"ĠAr":850,"Ġsah":851,"enc":852,"ĠâĢĵ":853,"urut":854,"alau":855,"Ġberb":856,"ID":857,"tu":858,"angat":859,"Ter":860,"Ġmengh":861,"gan":862,"unia":863,"ikut":864,"Ġbaru":865,").":866,"ori":867,"Ġkep":868,"ĠRM":869,"imb":870,"âĢĻ":871,"Tag":872,"emas":873,"ĠInd":874,"ĠKes":875,"atkan":876,"akyat":877,"Ġbeb":878,"Ġbukan":879,"res":880,"av":881,"Ġatas":882,"onal":883,"Ġthe":884,"Ġkaw":885,"ĠAm":886,"nah":887,"Ġsebuah":888,"ungan":889,"ij":890,"ev":891,"Ġsecara":892,"adan":893,"SI":894,"ĠDAN":895,"ons":896,"usi":897,"oc":898,"Pro":899,"elang":900,"lak":901,"ord":902,"entang":903,"usia":904,"ani":905,"wa":906,"yah":907,"ĠYang":908,"jap":909,"Ġrumah":910,"ubungi":911,"Ġut":912,"ĠAllah":913,"ĠBah":914,"),":915,"Ġkec":916,"Ġtersebut":917,"unc":918,"ans":919,"ĠKE":920,"Ġked":921,"ingan":922,"Ġperlu":923,"IM":924,"ulu":925,"Ġ10":926,"Ġtan":927,"Ġst":928,"ĠAk":929,"Ar":930,"ucah":931,"Al":932,"ĠAnd":933,"unyai":934,"endiri":935,"anda":936,"ira":937,"Ġbanyak":938,"20":939,"ĠSt":940,"inan":941,"Ġseorang":942,"16":943,"Ġant":944,"elas":945,"lumat":946,"Ġz":947,"Ġti":948,"hidmatan":949,"amai":950,"uang":951,"ĠMoh":952,"elajar":953,"port":954,"Ġof":955,"Ġ7":956,"ger":957,"andar":958,"ongan":959,"yarikat":960,"Ġwanita":961,"har":962,"abila":963,"usah":964,"ĠPem":965,"tiv":966,"lui":967,"Ġbuat":968,"Ġmana":969,"Ġsen":970,"Ġmempunyai":971,"ost":972,"Ġterl":973,"AB":974,"Ġsi":975,"alkan":976,"mad":977,"ĠQ":978,"ateg":979,"erb":980,"atang":981,"akit":982,"aun":983,"ĠMen":984,"Ġhanya":985,"entuk":986,"ERAH":987,"aca":988,"Ġberkata":989,"asar":990,"edah":991,"ert":992,"Ġsama":993,"uma":994,"ly":995,"ĠUntuk":996,"elayu":997,"Ġ9":998,"otak":999,"mana":1000,"Ġdip":1001,"Ġset":1002,"ihak":1003,"Ġpeny":1004,"Ġkata":1005,"Ġman":1006,"TAN":1007,"oy":1008,"12":1009,"ĠX":1010,"ĠPemb":1011,"mi":1012,"angsa":1013,"Ġbeliau":1014,"ng":1015,"antu":1016,"orm":1017,"Ġsebelum":1018,"line":1019,"Ġtinggi":1020,"Ġsej":1021,"ihatan":1022,"Ġsudah":1023,"sp":1024,"idup":1025,"Ġbahawa":1026,"arik":1027,"Ġberj":1028,"inc":1029,"ĠAz":1030,"ĠDat":1031,"Sem":1032,"Ġ19":1033,"ohon":1034,"Ġialah":1035,"000":1036,"istem":1037,"eluar":1038,"udi":1039,"Ġbaik":1040,"Ġselepas":1041,"aling":1042,"onus":1043,"50":1044,"Ġkereta":1045,"Ġ8":1046,"ĠDAERAH":1047,"our":1048,"enis":1049,"uku":1050,"kini":1051,"Ġbek":1052,"ast":1053,"dul":1054,"olat":1055,"rah":1056,"RO":1057,"ĠSem":1058,"AP":1059,"ilihan":1060,"Ġseh":1061,"ry":1062,"abatan":1063,"LAH":1064,"ank":1065,"uru":1066,"agaan":1067,"Ġsendiri":1068,"Ġsep":1069,"akar":1070,"Ġhar":1071,"unj":1072,"Ġpula":1073,"ajlis":1074,"ler":1075,"otel":1076,"atanya":1077,"Ġmakan":1078,"Ġam":1079,"Ġserta":1080,"gram":1081,"ĠMas":1082,"hat":1083,"awah":1084,"ERI":1085,"idikan":1086,"ĠPEN":1087,"Ġbesar":1088,"ses":1089,"Ġsh":1090,"erita":1091,"OL":1092,"AAN":1093,"ungg":1094,"Ġaw":1095,"tion":1096,"lik":1097,"Ġberd":1098,"ATAN":1099,"ĠUT":1100,"ola":1101,"rol":1102,"asil":1103,"âĢľ":1104,"Ġdiper":1105,"Ġib":1106,"engah":1107,"lim":1108,"Ġkeluar":1109,"ember":1110,"ebab":1111,"ca":1112,"AG":1113,"ambar":1114,"ie":1115,"ulis":1116,"ish":1117,"Ġlelaki":1118,"akah":1119,"engk":1120,"ĠMelayu":1121,"any":1122,"ungkin":1123,"inta":1124,"Ġair":1125,"ĠNegeri":1126,"abat":1127,"erapa":1128,"no":1129,"enai":1130,"Ġtetapi":1131,"ear":1132,"ment":1133,"uz":1134,"Saya":1135,"elangor":1136,"Ġbulan":1137,"ez":1138,"Ġjadi":1139,"unga":1140,"uli":1141,"Ġberm":1142,"ĠMah":1143,"ĠAh":1144,"uti":1145,"Ġmenggunakan":1146,"aki":1147,"Ġketika":1148,"ĠLif":1149,"13":1150,",\"":1151,"Ġmelalui":1152,"Ġmasih":1153,"An":1154,"ilan":1155,"ks":1156,"Ġpr":1157,"usat":1158,"15":1159,"ĠAs":1160,"Ġbersama":1161,"aks":1162,"Ġ2018":1163,"Ġdiri":1164,"ore":1165,"men":1166,"Ġsangat":1167,"ee":1168,"lan":1169,"Mer":1170,"uda":1171,"Ġkerajaan":1172,"ĠAd":1173,"Ġdunia":1174,"olo":1175,"rad":1176,"Ġpihak":1177,"alaman":1178,"Ġmendapat":1179,"etua":1180,"ĠKami":1181,"Ġdua":1182,"Ġmembuat":1183,"ekan":1184,"IR":1185,"ĠKe":1186,"ĠMeng":1187,"Ġantara":1188,"uas":1189,"hadap":1190,"amu":1191,"Ġpol":1192,"urusan":1193,"Ġmener":1194,"uruh":1195,"Un":1196,"ial":1197,"ino":1198,"ei":1199,"Ġkh":1200,"Ġsahaja":1201,"tif":1202,"Men":1203,"EK":1204,"Ġcara":1205,"bu":1206,"Ġ*":1207,"EG":1208,"alik":1209,"yakit":1210,"UAR":1211,"Ġberp":1212,"ekn":1213,"ahun":1214,"ĠMent":1215,"UT":1216,"ĠPend":1217,"Ġbi":1218,"INTA":1219,"Ġpers":1220,"ekolah":1221,"por":1222,"Ġmasuk":1223,"acam":1224,"upun":1225,"IT":1226,"ĠAir":1227,"omb":1228,"14":1229,"uasa":1230,"Ġ200":1231,"Ġken":1232,"ey":1233,"Ġkar":1234,"OH":1235,"anjang":1236,"Ġtemp":1237,"Ġtahu":1238,"Ġrakyat":1239,"otor":1240,"atakan":1241,"awab":1242,"umlah":1243,"upaya":1244,"Ġapabila":1245,"Ġ20":1246,"30":1247,"Ġsini":1248,"itik":1249,"ĠTAH":1250,"pr":1251,"ĠDr":1252,"tas":1253,"urang":1254,"ĠTerb":1255,"Ġbeberapa":1256,"ipta":1257,"Ġsamp":1258,"uskan":1259,"aktu":1260,"Bah":1261,"Ġind":1262,"ation":1263,"rang":1264,"Ġ>":1265,"Ġkek":1266,"Ġutama":1267,"ĠKINTA":1268,"ologi":1269,"ĠUTARA":1270,"alat":1271,");":1272,"masuk":1273,"tp":1274,"ular":1275,"Ġdij":1276,"inj":1277,"Ġpert":1278,"aju":1279,"Ġkawasan":1280,"Ġjika":1281,"uduk":1282,"itam":1283,"Aku":1284,"ura":1285,"ones":1286,"tiap":1287,"angunan":1288,"antan":1289,"ĠKh":1290,"ilang":1291,"ĠPel":1292,"abi":1293,"ard":1294,"Ġyg":1295,"Ġkom":1296,"Ġkali":1297,"ond":1298,"Ġdir":1299,"ce":1300,"Ġberla":1301,"Ġbin":1302,"Ġperc":1303,"erja":1304,"anggan":1305,"ĠKuala":1306,"aji":1307,"Ġsekarang":1308,"Ġon":1309,"....":1310,"edi":1311,"ĠTan":1312,"Ġar":1313,"ampung":1314,"ĠPar":1315,"ĠSelangor":1316,"out":1317,"Ġing":1318,"ingkat":1319,"ĠMar":1320,"ld":1321,"endah":1322,"ou":1323,"Ġsetiap":1324,"ital":1325,"erl":1326,"ĠTr":1327,"ĠBonus":1328,"//":1329,"ĠSep":1330,"mu":1331,"Ġbawah":1332,"khidmatan":1333,"Ġsela":1334,"bagai":1335,"qu":1336,"ĠKem":1337,"Ġkatanya":1338,"Ġsu":1339,"aerah":1340,"Ġterd":1341,"ĠBER":1342,"Ad":1343,"Ġterhadap":1344,"ĠKel":1345,"Ġproduk":1346,"aitan":1347,"Ġdil":1348,"SM":1349,"jek":1350,"awan":1351,"Ġmes":1352,"Ġseg":1353,"Ġseks":1354,"isteri":1355,"Ap":1356,"ĠTAHUN":1357,"alian":1358,"ikal":1359,"all":1360,"yarat":1361,"umber":1362,"KOLAH":1363,"Ġtempat":1364,"onesia":1365,"Mak":1366,"Pemb":1367,"aikan":1368,"PM":1369,"Seb":1370,"elab":1371,"enarai":1372,"Ġiaitu":1373,"ĠMenteri":1374,"ult":1375,"eli":1376,"aat":1377,"ĠDI":1378,"Ġmungkin":1379,"Ġpernah":1380,"Ġ12":1381,"amah":1382,"tern":1383,"ens":1384,"Ini":1385,"ulau":1386,"Ġpar":1387,"ĠKerajaan":1388,"Ch":1389,"Di":1390,"ate":1391,"ET":1392,"Ġdigunakan":1393,"ess":1394,"urun":1395,"anduan":1396,"Ġhidup":1397,"ĠMohd":1398,"Ġum":1399,"Ġberh":1400,"ambut":1401,"ilem":1402,"://":1403,"Ġtentang":1404,"min":1405,"Ġharga":1406,"ĠPENG":1407,"Ġselam":1408,"etul":1409,"ĠDalam":1410,"Ġramai":1411,"Ġnegeri":1412,"isah":1413,"oad":1414,"one":1415,"ĠâĢĺ":1416,"roid":1417,"ĠBIN":1418,"ender":1419,"Ġ2016":1420,"my":1421,"awai":1422,"Ġ?":1423,"urn":1424,"ĠPAS":1425,"amad":1426,"ĠOn":1427,"Ġsalah":1428,"ambah":1429,"UH":1430,"Ġterp":1431,"ha":1432,"asih":1433,"oalan":1434,"Ġinjap":1435,"Ġterus":1436,"Meng":1437,"age":1438,"NO":1439,"uatu":1440,"ran":1441,"old":1442,"Ġmudah":1443,"ĠAbdul":1444,"rom":1445,"amun":1446,"Ġpertama":1447,"yen":1448,"Ġby":1449,"Ġmemberi":1450,"ĠAg":1451,"ayah":1452,"ru":1453,"itar":1454,"alas":1455,"ĠPak":1456,"ĠSet":1457,"11":1458,"uri":1459,"Ġtermasuk":1460,"OM":1461,"Ġ2017":1462,"ve":1463,"arna":1464,"eal":1465,"adar":1466,"aku":1467,"UAN":1468,"ww":1469,"Ġkerja":1470,"Pada":1471,"Ġhati":1472,"aris":1473,"Ġsekolah":1474,"tiviti":1475,"asino":1476,"ight":1477,"urat":1478,"Ġjam":1479,"Ġtel":1480,"oz":1481,"umpulan":1482,"ĠSy":1483,"Ġ14":1484,"Ġtapi":1485,"Ġterletak":1486,"ĠTh":1487,"ĠDatuk":1488,"uman":1489,"ĠUm":1490,"ayar":1491,"Ġperm":1492,"adis":1493,"ĠÂ»":1494,"Ġpent":1495,"ilih":1496,"guna":1497,"omi":1498,"eter":1499,"EMB":1500,"Ker":1501,"mp":1502,"ĠRas":1503,"di":1504,"urah":1505,"ĠAw":1506,"KU":1507,"uta":1508,"utusan":1509,"St":1510,"autan":1511,"âĢ¢":1512,"Ġibu":1513,"ĠMak":1514,"ASA":1515,"ĠHari":1516,"Ġkat":1517,"Ġkej":1518,"raf":1519,"Hubungi":1520,"ge":1521,"elamatan":1522,"ubungan":1523,"Ġ+":1524,"Ġsehingga":1525,"ĠPol":1526,"erikan":1527,"sc":1528,"Ġtanpa":1529,"Ġterk":1530,"Kod":1531,"Ġpak":1532,"17":1533,"Ġmelak":1534,"Ġsebab":1535,"wan":1536,"ebabkan":1537,"aftar":1538,"ack":1539,"Dalam":1540,"ĠPas":1541,"Ġpes":1542,"Ġlucah":1543,"unjuk":1544,"over":1545,"Ġpaling":1546,"Ġmula":1547,"999":1548,"Ġmelihat":1549,"ohonan":1550,"ebook":1551,"illa":1552,"usaha":1553,"Ġth":1554,"Ġdid":1555,"ulang":1556,"ĠSEKOLAH":1557,"Ġlama":1558,"Ġsemula":1559,"isa":1560,"Ġmasalah":1561,"ĠPulau":1562,"Ġab":1563,"epat":1564,"enter":1565,"lang":1566,"Ġlaman":1567,"Ġ=":1568,"ell":1569,"Che":1570,"Ġmaklumat":1571,"niagaan":1572,"inggu":1573,"enang":1574,"anas":1575,"ĠJoh":1576,"Ġmanusia":1577,"gunaan":1578,"empuan":1579,"ajib":1580,"ĠKeb":1581,"Ġrasa":1582,"ĠKep":1583,"atatan":1584,"ĠDengan":1585,"ĠAL":1586,"19":1587,"ikir":1588,"perasi":1589,"tik":1590,"PER":1591,"ous":1592,"Ġemas":1593,"se":1594,"Ġtert":1595,"mar":1596,"ejabat":1597,"Ġnama":1598,"ESY":1599,"Ġsekali":1600,"udian":1601,"Ġsemasa":1602,"uba":1603,"ĠKereta":1604,"ĠNegara":1605,"ĠSer":1606,"ED":1607,"Ġhingga":1608,"And":1609,"intu":1610,"Ak":1611,"ator":1612,"ubuh":1613,"ategori":1614,"ff":1615,"ĠMus":1616,"awat":1617,"Pem":1618,"UNG":1619,"oll":1620,"Ġhad":1621,"Ġsyarikat":1622,"rolet":1623,"pt":1624,"apkan":1625,"Am":1626,"Ġmahu":1627,"yarakat":1628,"opular":1629,"vrolet":1630,"su":1631,"antuan":1632,"25":1633,"antik":1634,"Ġka":1635,"ĠBlog":1636,"18":1637,"ĠPr":1638,"blog":1639,"UARAT":1640,"ESYUARAT":1641,"ĠAnda":1642,"onomi":1643,"ensi":1644,"fo":1645,"oto":1646,"Ġpelbagai":1647,"Chevrolet":1648,"ĠBr":1649,"ili":1650,"alaupun":1651,"Ġkini":1652,"ick":1653,"ĠâĢľ":1654,"ilai":1655,"ayat":1656,"din":1657,"ĠDis":1658,"ach":1659,"ox":1660,"ajian":1661,"Ġdem":1662,"ĠBers":1663,"agaimana":1664,"Ġluar":1665,"ekat":1666,"ĠSeri":1667,"ĠPers":1668,"atus":1669,"enggan":1670,"Ġterbaik":1671,"Ġberlaku":1672,"Ġmacam":1673,"IAN":1674,"Mas":1675,"Ġah":1676,"ĠMEN":1677,"Ġ!":1678,"ahw":1679,"Ia":1680,"Ġbak":1681,"ĠMes":1682,"land":1683,"gu":1684,"LE":1685,"udara":1686,"rop":1687,"Laman":1688,"riv":1689,"ity":1690,"acebook":1691,"ungkusan":1692,"akin":1693,"Ġsk":1694,"Ġmengg":1695,"Ġtr":1696,"ASI":1697,"Ġmembantu":1698,"Bel":1699,"KOM":1700,"Ġsuka":1701,"adaan":1702,"Ġmemang":1703,"Ġdep":1704,"Ġres":1705,"Ġsy":1706,"uai":1707,"ĠMajlis":1708,"egawai":1709,"Ġbeg":1710,"ĠChina":1711,"ham":1712,"Ġmengenai":1713,"adiah":1714,"ĠSab":1715,"Ġpenyakit":1716,"Ġfor":1717,"ber":1718,"Ġberc":1719,"Ġberken":1720,"ĠShah":1721,"Ġ#":1722,"jid":1723,"ARAN":1724,"atif":1725,"Set":1726,"ihara":1727,"ite":1728,"Ġkalau":1729,"ulit":1730,"ĠIndonesia":1731,"injaman":1732,"ill":1733,"ediakan":1734,"ĠSela":1735,"ĠIN":1736,"Ġmalam":1737,"Ġ999":1738,"adang":1739,"adb":1740,"Ġmata":1741,"AMA":1742,"ĠLaman":1743,"embali":1744,"mail":1745,"ĠIni":1746,"han":1747,"osp":1748,"unting":1749,"Ġpenj":1750,"ampu":1751,"Ġpelajar":1752,"ĠPT":1753,"Ġ2014":1754,"Ġraya":1755,"ide":1756,"arat":1757,"Ġisu":1758,"Ġek":1759,"Ġbila":1760,"akhir":1761,"ĠOnline":1762,"Ġx":1763,"Ġ15":1764,"ikit":1765,"ĠPi":1766,"ukar":1767,"Hotel":1768,"Ġkedua":1769,"60":1770,"iga":1771,"ĠUM":1772,"Ġjalan":1773,"ith":1774,"upan":1775,"ĠEn":1776,"oa":1777,"DA":1778,"ĠIb":1779,"ONE":1780,"Ġpilihan":1781,"Ġmengambil":1782,"angka":1783,"UB":1784,"Ġblog":1785,"sk":1786,"Sela":1787,"Ġ18":1788,"Ġakhir":1789,"alu":1790,"Ġperkara":1791,"Ġisteri":1792,"ĠMan":1793,"24":1794,"Ġen":1795,"ĠVideo":1796,"Ġdatang":1797,"aut":1798,"anding":1799,"iks":1800,"anggung":1801,"Ġberkenaan":1802,"esi":1803,"co":1804,"ver":1805,"ĠPeny":1806,"http":1807,"Ġjenis":1808,"wat":1809,"ile":1810,"Ġcerita":1811,"ospital":1812,"ubah":1813,"Ġingin":1814,"atik":1815,"Ġsampai":1816,"Ġbadan":1817,"Jika":1818,"lee":1819,"arian":1820,"Ġje":1821,"Ġturut":1822,"form":1823,"Ġor":1824,"ekal":1825,"Ġbentuk":1826,"lin":1827,"Ġdilak":1828,"Ġmencari":1829,"ne":1830,"pro":1831,"aid":1832,"rid":1833,"ustri":1834,"elihara":1835,"AC":1836,"SS":1837,"ĠSp":1838,"enti":1839,"Ġvideo":1840,"Ġe":1841,"erj":1842,"iliki":1843,"PR":1844,"ongsi":1845,"Seks":1846,"Ġkecil":1847,"esen":1848,"Ġpet":1849,"upa":1850,"Ġkamu":1851,"Ġmah":1852,"jalan":1853,"Ġsedang":1854,"Bunga":1855,"22":1856,"Ġweb":1857,"ĠPut":1858,"usu":1859,"IC":1860,"get":1861,"ibat":1862,"Kes":1863,"eknologi":1864,"Ġkau":1865,"engganu":1866,"ĠKec":1867,"iba":1868,"akap":1869,"ajah":1870,"Ġdim":1871,"alangan":1872,"idang":1873,"Ġmengikut":1874,"lus":1875,"ĠAhmad":1876,"her":1877,"Ġpergi":1878,"ĠSekolah":1879,"Berita":1880,"engar":1881,"Ġtiada":1882,"GR":1883,"ĠMuh":1884,"araw":1885,"Ġmus":1886,"Ġsakit":1887,"Ġbay":1888,"Ġkeluli":1889,"ĠJabatan":1890,"ĠCo":1891,"sh":1892,"uck":1893,"askan":1894,"ungai":1895,"ĠHar":1896,"akanan":1897,"ARI":1898,"Ġ11":1899,"Ġsistem":1900,"umpur":1901,"Ġput":1902,"Ġ13":1903,"ultan":1904,"antar":1905,"ĠUnit":1906,"ST":1907,"Kami":1908,"spot":1909,"Ke":1910,"ĠBIL":1911,"dana":1912,"ungsi":1913,"ahkan":1914,"operasi":1915,"kanak":1916,"Ġ2015":1917,"this":1918,"iden":1919,"ubat":1920,"Produk":1921,"2019":1922,"alak":1923,"\".":1924,"ĠJohor":1925,"enz":1926,"Ġahli":1927,"LIS":1928,"adah":1929,"Ġperb":1930,"ĠPEL":1931,"Ġtiga":1932,"anjut":1933,"Ġbetul":1934,"ĠAlam":1935,"Ġel":1936,"IKAN":1937,"cipta":1938,"oran":1939,"de":1940,"Beliau":1941,"ANGAN":1942,"Ġmakanan":1943,"Apa":1944,"Ġdih":1945,"Ind":1946,"ĠTER":1947,"kuasa":1948,"IH":1949,"angkah":1950,"usnya":1951,"ĠBin":1952,"aiz":1953,"ammad":1954,"Ġrawatan":1955,"tara":1956,"40":1957,"adikan":1958,"eorang":1959,"SIA":1960,"Ġsebenar":1961,"dn":1962,"elar":1963,"ALAY":1964,"emu":1965,"Ġganti":1966,"inggal":1967,"Ġpand":1968,"ayaan":1969,"ĠEx":1970,"PS":1971,"ĠKom":1972,"Ġkena":1973,"Ġperempuan":1974,"Ġminyak":1975,"PK":1976,"luan":1977,"Ġlepas":1978,"arikh":1979,"Ġmasyarakat":1980,"ĠUtama":1981,"ĠProduk":1982,"ĠAndroid":1983,"35":1984,"erit":1985,"jawab":1986,"pe":1987,"ĠPet":1988,"Anda":1989,"Ġmaka":1990,"yataan":1991,"xy":1992,"antai":1993,"ĠBahasa":1994,"ĠMei":1995,"angsaan":1996,"Hak":1997,"Ġrendah":1998,"'s":1999,"own":2000,"blogspot":2001,"Sek":2002,"vers":2003,"ias":2004,"ĠhitsM":2005,"Ġgambar":2006,"IB":2007,"Ġpenting":2008,"okok":2009,"indakan":2010,"ĠPin":2011,"Ġkr":2012,"Ġbahasa":2013,"kah":2014,"Pel":2015,"Is":2016,"Ġ30":2017,"ĠSEM":2018,"ĠPerm":2019,"Ġdic":2020,"Ġan":2021,"Ġras":2022,"ĠLumpur":2023,"ikum":2024,"agu":2025,"uki":2026,"ewan":2027,"utup":2028,"ĠTim":2029,"esa":2030,"Senarai":2031,"Ġawal":2032,"Ġbuah":2033,"Ġ24":2034,"68":2035,"war":2036,"Merc":2037,"ĠTi":2038,"yang":2039,"yb":2040,"entera":2041,"etik":2042,"enali":2043,"osial":2044,"Ġsupaya":2045,"Ġkeadaan":2046,"Ġberkaitan":2047,"Pi":2048,"Ġmelakukan":2049,"ĠKesihatan":2050,"Ġbiasa":2051,"orno":2052,"ĠSeb":2053,"USAN":2054,"Ġberada":2055,"elakang":2056,"ĠKelantan":2057,"ĠDaerah":2058,"ĠIS":2059,"Ġkembali":2060,"ukum":2061,"angsung":2062,"agam":2063,"ĠKetua":2064,"ĠÂ©":2065,"auh":2066,"ĠBerk":2067,"aa":2068,"agangan":2069,"oog":2070,"endak":2071,"Ġmampu":2072,"lish":2073,"ĠBesar":2074,"Ġkeluarga":2075,"leh":2076,"Kem":2077,"Ġberg":2078,"ikasi":2079,"alaxy":2080,"kamah":2081,"urus":2082,"rivasi":2083,"Sh":2084,"Ġjuta":2085,"ekut":2086,"aka":2087,"ĠSain":2088,"Ġtangan":2089,"enterian":2090,"aklee":2091,"bah":2092,"ilangan":2093,"ome":2094,"Ġmemper":2095,"ujud":2096,"){":2097,"enal":2098,"ema":2099,"ĠUMNO":2100,"ungi":2101,"ĠSyarikat":2102,"ujuan":2103,"ĠTerp":2104,"ood":2105,"ĠJalan":2106,"Ġakaun":2107,"ĠMotor":2108,"ĠKr":2109,"ĠNew":2110,"ĠRah":2111,"Ġkos":2112,"UD":2113,"ukt":2114,"ontoh":2115,"ĠRes":2116,"enama":2117,"kib":2118,"ĠNEG":2119,"lalu":2120,"alon":2121,"Ford":2122,"Ġsuami":2123,"IA":2124,"ĠTerengganu":2125,"gn":2126,"Ġkemudian":2127,"ajar":2128,"ujuk":2129,"Ġkurang":2130,"oogle":2131,"Dia":2132,"ALAYSIA":2133,"ekanan":2134,"Ġbahagian":2135,"amil":2136,"Ġcuk":2137,"EJ":2138,"Ġlah":2139,"Ġkan":2140,"Ġprogram":2141,"angkat":2142,"engg":2143,"Ġmod":2144,"Untuk":2145,"Ġselama":2146,"Ġamat":2147,"ainan":2148,"una":2149,"antung":2150,"impin":2151,"encana":2152,"Ġmenerima":2153,"erti":2154,"Ġpenc":2155,"ortal":2156,"ism":2157,"ml":2158,"ĠKotak":2159,"ĠPRO":2160,"ĠMin":2161,"Ġtahan":2162,"fa":2163,"ayang":2164,"ĠBel":2165,"ĠPR":2166,"elaka":2167,"Ġperkhidmatan":2168,"ĠEle":2169,"unction":2170,"EP":2171,"ĠRos":2172,"amal":2173,"jadi":2174,"Ġberjaya":2175,"sy":2176,"Ġagama":2177,"IF":2178,"ĠTinggi":2179,"ssalam":2180,"Ġbahan":2181,"Ġsebanyak":2182,"str":2183,"atuh":2184,"ĠKONE":2185,"Malaysia":2186,"Ġkaki":2187,"lange":2188,"enda":2189,"uit":2190,"ĠSel":2191,"ustr":2192,"Ġ16":2193,"PP":2194,"okong":2195,"untuk":2196,"osi":2197,"ips":2198,"ck":2199,"ĠSM":2200,"wit":2201,"Â»":2202,"ĠâĢ¢":2203,"ĠTanah":2204,"ubahan":2205,"ĠUN":2206,"tikel":2207,"AYA":2208,"amat":2209,"ect":2210,"ĠTun":2211,"EB":2212,"Bahagian":2213,"Ġpolitik":2214,"Ġpara":2215,"Ġwang":2216,"utam":2217,"Galaxy":2218,"dang":2219,"okasi":2220,"Ġtanah":2221,"uddin":2222,"37":2223,"!!":2224,"fil":2225,"nivers":2226,"Ġpasti":2227,"ĠUS":2228,"Ġil":2229,"Ġwaktu":2230,"OK":2231,"AJLIS":2232,"ANAN":2233,"ahui":2234,"ĠPendidikan":2235,"Ġdibuat":2236,"Ġzakat":2237,"epun":2238,"Ġparti":2239,"ign":2240,"unjukkan":2241,"ualaikum":2242,"anggungjawab":2243,"iranya":2244,"ĠSolat":2245,"Ġperib":2246,"ingkatkan":2247,"ĠMESYUARAT":2248,"Ġhubungan":2249,"ĠAN":2250,"ĠWanita":2251,"ĠRam":2252,"Ġpengh":2253,"ilayah":2254,"ahang":2255,"bat":2256,"Pend":2257,"Ġmenarik":2258,"Ġlak":2259,"Pol":2260,"asarkan":2261,"Ġalam":2262,"Cara":2263,"vd":2264,"ink":2265,"Semua":2266,"apak":2267,"ampak":2268,"ĠUs":2269,"Ġsesuatu":2270,"etapi":2271,"iman":2272,"udio":2273,"Ġpintu":2274,"itab":2275,"Lihat":2276,"Ġac":2277,"Ñģ":2278,"umi":2279,"undang":2280,"ĠAnak":2281,"imum":2282,"OG":2283,"ĠTahun":2284,"ive":2285,"Ġsejak":2286,"ONG":2287,"Ġpek":2288,"AND":2289,"Dasar":2290,"lass":2291,"ĠRaya":2292,"antikan":2293,"andu":2294,"enuh":2295,"Ġ}":2296,"ĠBul":2297,"Ġus":2298,"Ġpinjaman":2299,"Unit":2300,"ĠPerak":2301,"hb":2302,"Ã©":2303,"Ġdin":2304,"eles":2305,"jalanan":2306,"ĠMer":2307,"idur":2308,"Ġem":2309,"21":2310,"ue":2311,"Ġfilem":2312,"aip":2313,"ĠPerdana":2314,"ĠSH":2315,"Ġhak":2316,"Ġbegitu":2317,"Ġmembawa":2318,"INGK":2319,"Car":2320,"GRAM":2321,"Ġkira":2322,"hidupan":2323,"Ġde":2324,"urs":2325,"fi":2326,"limen":2327,"Ġterdapat":2328,"Ġmemberikan":2329,"Ġdepan":2330,"ĠGr":2331,"ock":2332,"entu":2333,"ookie":2334,"ontent":2335,"ubatan":2336,"ebat":2337,"Ġperibadi":2338,"Blog":2339,"Ġkehidupan":2340,"SEM":2341,"Perkhidmatan":2342,"orn":2343,"rig":2344,"ĠPerkhidmatan":2345,"Ġshalat":2346,"mel":2347,"ĠTerpelihara":2348,"sten":2349,"ayu":2350,"oyota":2351,"Ġjumlah":2352,"erika":2353,"ĠNor":2354,"ĠAp":2355,"ĠSultan":2356,"Ġment":2357,"Tak":2358,"ĠCar":2359,"Ġbalik":2360,"ĠKeselamatan":2361,"uju":2362,"ĠCara":2363,"ANT":2364,"eksi":2365,"lay":2366,"nes":2367,"awal":2368,"Kalau":2369,"Ġdig":2370,"ĠTak":2371,"ITI":2372,"KR":2373,"mm":2374,"residen":2375,"ungsten":2376,"Ġ..":2377,"Ġkasih":2378,"adz":2379,"Ġsebarang":2380,"ĠBandar":2381,"isik":2382,"ALA":2383,"Ġsp":2384,"asional":2385,"iew":2386,"Ġ199":2387,"Ġsumber":2388,"ĠMemb":2389,"Ġbelum":2390,"Ġseluruh":2391,"ullah":2392,"Ġhal":2393,"ropah":2394,"ĠDari":2395,"ĠBaru":2396,"uaran":2397,"ĠAS":2398,"gak":2399,"Ġula":2400,"ikh":2401,"Ġmedia":2402,"likasi":2403,"Ġstr":2404,"ĠMALAYSIA":2405,"ĠBh":2406,"hi":2407,"Ġ100":2408,"etahui":2409,"OT":2410,"aliti":2411,"epi":2412,"AA":2413,"Ġbuku":2414,"AKL":2415,"antaran":2416,"Ġku":2417,"erangan":2418,"ambahan":2419,"ĠAku":2420,"ĠPada":2421,"eriks":2422,"KAN":2423,"iling":2424,"ka":2425,"erica":2426,"ĠKos":2427,"Ġkomp":2428,"isasi":2429,"Video":2430,"nglish":2431,"Ġbilik":2432,"ary":2433,"sanakan":2434,"ire":2435,"38":2436,"Ġ17":2437,"lic":2438,"Ġkeh":2439,"elajaran":2440,"UMP":2441,"rader":2442,"inda":2443,"ĠKEL":2444,"duc":2445,"\",":2446,"jin":2447,"Ġcuba":2448,"ĠBahagian":2449,"ALAM":2450,"ĠOr":2451,"emaja":2452,"26":2453,"stit":2454,"ĠRakyat":2455,"Arkib":2456,"OS":2457,"produk":2458,"ure":2459,"ĠFor":2460,"Ġtindakan":2461,"Ġangg":2462,"Ġwalaupun":2463,"ams":2464,"TER":2465,"27":2466,"Ġkeputusan":2467,"Ġbandar":2468,"rahim":2469,"Mes":2470,"ĠKER":2471,"Ġdilakukan":2472,"ĠCasino":2473,"ĠIntern":2474,"omment":2475,"abangsa":2476,"las":2477,"Dan":2478,"ba":2479,"eman":2480,"ĠEropah":2481,"uny":2482,"esan":2483,"ĠAirport":2484,"ĠSi":2485,"ivid":2486,"Ġminggu":2487,"Ġturun":2488,"ĠRumah":2489,"AIN":2490,"AF":2491,"Dari":2492,"asaan":2493,"apun":2494,"html":2495,"Ġhasil":2496,"Toyota":2497,"ĠAhli":2498,"eed":2499,"ukit":2500,"ĠHak":2501,"eluarkan":2502,"Ġsaja":2503,"IP":2504,"ais":2505,"inggalkan":2506,"Perm":2507,"Tapi":2508,"ĠApr":2509,"adakan":2510,"iza":2511,"Ġpagi":2512,"ĠKota":2513,"row":2514,"UKAN":2515,"ĠNo":2516,"olong":2517,"Ġsekitar":2518,"ĠSept":2519,"ohd":2520,"egang":2521,"itamin":2522,"Log":2523,"Ġpengalaman":2524,"ssalamualaikum":2525,"Ġmenyebabkan":2526,"Ġperniagaan":2527,"awi":2528,"arawak":2529,"Ġtempoh":2530,"Ġcer":2531,"efon":2532,"angun":2533,"It":2534,"ĠShaklee":2535,"45":2536,"jaya":2537,"Peny":2538,"Ġsedikit":2539,"irkan":2540,"etah":2541,"Ġagar":2542,"ĠEl":2543,"elur":2544,"Mereka":2545,"ulut":2546,"Ġkulit":2547,"urid":2548,"urkan":2549,"Ġharus":2550,"ĠMelaka":2551,"okongan":2552,"Ġsyarat":2553,"ĠOrang":2554,"ĠAsia":2555,"ĠJan":2556,"ĠSungai":2557,"ĠThe":2558,"impan":2559,"Ġberas":2560,"ice":2561,"ric":2562,"ban":2563,"arisan":2564,"Ġkanak":2565,"Ġpenuh":2566,"Ġkomun":2567,"Ġmuda":2568,"Ġguru":2569,"ektr":2570,"function":2571,"alatan":2572,"yan":2573,"ĠDar":2574,"Ġart":2575,"ĠSeks":2576,"Ġpercuma":2577,"Ġjangan":2578,"The":2579,"ĠMat":2580,"isan":2581,"andungan":2582,"Ġgol":2583,"Ġkuasa":2584,"wah":2585,"avig":2586,"ron":2587,"ishi":2588,"eme":2589,"Ġfit":2590,"ory":2591,"ĠMa":2592,"angga":2593,"AZ":2594,"Ġbekalan":2595,"ektor":2596,"inasi":2597,"Si":2598,"ersi":2599,"Ġdulu":2600,"acaan":2601,"ĠJun":2602,"ENT":2603,"etika":2604,"ĠPelanggan":2605,"Ġ2013":2606,"ton":2607,"ĠUnivers":2608,"ork":2609,"80":2610,"Ġbekas":2611,"Ġtanda":2612,"Lucah":2613,"ener":2614,"Ġkenyataan":2615,"ĠPengurusan":2616,"ĠHarga":2617,"asilkan":2618,"ĠBAH":2619,"itkan":2620,"ubishi":2621,"itsubishi":2622,"ejarah":2623,"mer":2624,"Ġmendapatkan":2625,"Kategori":2626,"mk":2627,"ĠAc":2628,"ĠIm":2629,"Ġlog":2630,"angkutan":2631,"Ġmemiliki":2632,"eriksaan":2633,"ancangan":2634,"ĠHubungi":2635,"Ġubat":2636,"kualiti":2637,"Ġsemakin":2638,"ĠNEGERI":2639,"LIN":2640,"aham":2641,"DN":2642,"ĠSabah":2643,"eni":2644,"}.":2645,"ĠKar":2646,"--":2647,"Ġbenar":2648,"ĠIk":2649,"Jabatan":2650,"vator":2651,"Ġsias":2652,"istik":2653,"ĠPusat":2654,"Sub":2655,"ĠVal":2656,"Ġ25":2657,"Ġdok":2658,"200":2659,"Ġarah":2660,"odge":2661,"dan":2662,"PA":2663,"Ġsemalam":2664,"ĠPerk":2665,"ungguh":2666,"witter":2667,"Ġhendak":2668,"ampir":2669,"ĠMuhammad":2670,"anah":2671,"ĠPinang":2672,"Tempat":2673,"(\"":2674,"uatan":2675,"intang":2676,"ress":2677,"ĠTerkini":2678,"Ġtiba":2679,"ĠMac":2680,"impian":2681,"Pes":2682,"Ġbaju":2683,"lob":2684,"te":2685,"ĠTah":2686,"36":2687,"ĠSk":2688,"eza":2689,"ĠStr":2690,"Dodge":2691,"Ik":2692,"ĠAmerika":2693,"obile":2694,"ĠKampung":2695,"ĠElevator":2696,"ayaran":2697,"Ġkampung":2698,"ĠKedah":2699,"Tidak":2700,"Ġjawatan":2701,"ewa":2702,"rin":2703,"entara":2704,"Peta":2705,"aparan":2706,"apai":2707,"('":2708,"END":2709,"Sel":2710,"rib":2711,"enaga":2712,"Ġkertas":2713,"Ġilmu":2714,"ĠMem":2715,"Ġkaum":2716,"Ġmat":2717,"ldoz":2718,"Th":2719,"by":2720,"ĠSun":2721,"abar":2722,"Ġaktiviti":2723,"ĠPTG":2724,"ase":2725,"ualiti":2726,"elaburan":2727,"Ġberl":2728,"Ġkhus":2729,"oi":2730,"net":2731,"Ġkumpulan":2732,"Ġnamun":2733,"Ġbeli":2734,"ðŁ":2735,"ALAN":2736,"alang":2737,"astikan":2738,"Ġtetap":2739,"Ġkeper":2740,"OHD":2741,"Ġsesuai":2742,"Rookie":2743,"Ġrakan":2744,"ĠLoad":2745,"Ab":2746,"Ġpanas":2747,"Harga":2748,"alahan":2749,"ret":2750,"Ġpusat":2751,"Bagi":2752,"Ġhitam":2753,"Ġpolis":2754,"ividu":2755,"Namun":2756,"PT":2757,"ulai":2758,"gin":2759,"Ġsemp":2760,"earch":2761,"ower":2762,"ĠApril":2763,"Ġmew":2764,"Kep":2765,"29":2766,"yund":2767,"Kita":2768,"alami":2769,"28":2770,"engkap":2771,"Ġpembekal":2772,"Ġlanjut":2773,"yundai":2774,",âĢĿ":2775,"ahwin":2776,"ongs":2777,"tis":2778,"alator":2779,"Ġbe":2780,"lain":2781,"Ġproses":2782,"ny":2783,"ĠMedia":2784,"ame":2785,"iss":2786,"ĠIbu":2787,"AHAN":2788,"ĠParlimen":2789,"alin":2790,"Ġnaik":2791,"awasan":2792,"ijil":2793,"Ġpengguna":2794,"ekutuan":2795,"les":2796,"AWATAN":2797,"ĠPert":2798,"Ġ{":2799,"embaga":2800,"orong":2801,"ĠSaya":2802,"ash":2803,"Ġdata":2804,"aleri":2805,"ADA":2806,"UHAI":2807,"Ġup":2808,"pen":2809,"Ġdekat":2810,"upayaan":2811,"Ġpant":2812,"ldozer":2813,"ĠPENGUR":2814,"ATA":2815,"ass":2816,"Ġjelas":2817,"aksa":2818,"aft":2819,"ugas":2820,"Bahasa":2821,"ĠComp":2822,"ĠEM":2823,"Ġbermula":2824,"px":2825,"Ġsetelah":2826,"imedia":2827,"Ġpemain":2828,"ĠIbrahim":2829,"ĠGrader":2830,"Ġindustri":2831,"za":2832,"23":2833,"ĠDewan":2834,"Sistem":2835,"edes":2836,"ley":2837,"Ġsenti":2838,"ead":2839,"ĠNov":2840,"ĠKebangsaan":2841,"Ġekonomi":2842,"ube":2843,"Ġdahulu":2844,"ĠAng":2845,"gos":2846,"Ġperl":2847,"Ġsa":2848,"Ġago":2849,"onda":2850,"ĠPahang":2851,"ĠPegawai":2852,"ts":2853,"Ġbag":2854,"Ġsentiasa":2855,"peria":2856,"awaran":2857,"Ġbud":2858,"Ġkap":2859,"Orang":2860,"Ġya":2861,"Kotak":2862,"adian":2863,"Ġ2012":2864,"ĠGoogle":2865,"oo":2866,"Ġrambut":2867,"ild":2868,"Ġ22":2869,"Artikel":2870,"ĠTel":2871,"Ġsegala":2872,"Ðº":2873,"Ġch":2874,"ĠTimur":2875,"ĠLoader":2876,"atat":2877,"GA":2878,"rak":2879,"Ġpenduduk":2880,"ĠNabi":2881,"ancang":2882,"apatan":2883,"100":2884,"Pak":2885,"eliling":2886,"ĠIst":2887,"utang":2888,"ĠHadiah":2889,"orpor":2890,"ras":2891,"Ġnk":2892,"ement":2893,"ĠArab":2894,"www":2895,"sm":2896,"fin":2897,"agen":2898,"Ġusaha":2899,"??":2900,"araf":2901,"inar":2902,"ĠAwam":2903,"ĠSri":2904,"Ġmati":2905,"Ġmerah":2906,"araan":2907,"Ġwarna":2908,"ikip":2909,"HT":2910,"andi":2911,"ĠRasul":2912,"ĠBN":2913,"ubur":2914,"Ġmenunjukkan":2915,"ugerah":2916,"unuh":2917,"75":2918,"ece":2919,"ikipedia":2920,"udukan":2921,"emah":2922,"asama":2923,"rama":2924,"uter":2925,"English":2926,"ĠNajib":2927,"KEL":2928,"enderaan":2929,"Ġsal":2930,"Ġmain":2931,"alankan":2932,"INI":2933,"ursus":2934,"Ġbank":2935,"ext":2936,"azda":2937,"ĠLat":2938,"lot":2939,"eluruhan":2940,"heel":2941,"athir":2942,"alia":2943,"Ġkhas":2944,"Ġterakhir":2945,"Ġlangsung":2946,"ĠInjap":2947,"MA":2948,"SR":2949,"ĠFlange":2950,"Ġ@":2951,"ĠLe":2952,"isk":2953,"UP":2954,"was":2955,"Ġger":2956,"uanya":2957,"afian":2958,"ĠTidak":2959,"ĠSup":2960,"adbiran":2961,"ĠSarawak":2962,"09":2963,"ris":2964,"ium":2965,"kt":2966,".âĢĿ":2967,"ĠSal":2968,"ĠPEND":2969,"ancis":2970,"Ġkew":2971,"Ġaut":2972,"ester":2973,"ĠHotel":2974,"ĠEsc":2975,"ĠKementerian":2976,"Ġ2010":2977,"ju":2978,"son":2979,"Program":2980,"UA":2981,"ĠPrivasi":2982,"ree":2983,"Ġmenyediakan":2984,"Ø§":2985,"Ġtadi":2986,"Ġmy":2987,"ĠOgos":2988,"Ġpos":2989,"ĠEk":2990,"ĠDunia":2991,"ĠAM":2992,"Ġit":2993,"rat":2994,"ĠUmno":2995,"Ġim":2996,"ganisasi":2997,"âĦ":2998,"ĠAf":2999,"aksi":3000,"tom":3001,"ĠSu":3002,"empatan":3003,"intah":3004,"Ġcinta":3005,"unggu":3006,"Ġpemimpin":3007,"Menurut":3008,"ĠST":3009,"ĠIndia":3010,"onton":3011,"ĠUnited":3012,"Muat":3013,"Ġperingkat":3014,"hidmat":3015,"app":3016,"udahan":3017,"RM":3018,"Lap":3019,"apati":3020,"Ġcukup":3021,"Ġprojek":3022,"AGI":3023,"erang":3024,"erjaan":3025,"Dengan":3026,"Ġpanjang":3027,"ĠPek":3028,"39":3029,"Ġbelakang":3030,"ĠKerja":3031,"ĠSeptember":3032,"Ġ2011":3033,"Xperia":3034,"EW":3035,"Ġperjalanan":3036,"OP":3037,"ultimedia":3038,"ĠMaklumat":3039,"taz":3040,"ASAN":3041,"55":3042,"Ah":3043,"ational":3044,"mah":3045,"Ġawam":3046,"Ġtengah":3047,"azim":3048,"last":3049,"âĦ¢":3050,"Jadi":3051,"PN":3052,"Ġrah":3053,"Ð¸":3054,"70":3055,"ĠAziz":3056,"Ġlap":3057,"Ġselalu":3058,"Ġhid":3059,"ikian":3060,"Ġtidur":3061,"lo":3062,"ji":3063,"ĠBulldozer":3064,"Ġsosial":3065,"Ġkont":3066,"Ġsiasatan":3067,"ĠSdn":3068,"Jumlah":3069,"issan":3070,"ĠYANG":3071,".,":3072,"ĠMEL":3073,"ĠRaja":3074,"abel":3075,"Ġonline":3076,"PRO":3077,"eet":3078,"Ġ21":3079,"vis":3080,"ĠPENGURUSAN":3081,"Ġma":3082,"ĠRaz":3083,"Ġdikenali":3084,"ĠSing":3085,"ĠPost":3086,"Perk":3087,"Ġbern":3088,"Ġdarah":3089,"Ġterkini":3090,"Ġpasukan":3091,"uch":3092,"PEN":3093,"olak":3094,"gerak":3095,"TUK":3096,"Ġpela":3097,"YA":3098,"asihat":3099,"ekod":3100,"ĠMAJLIS":3101,"azah":3102,"ater":3103,"Ġbebas":3104,"Quran":3105,"ĠFacebook":3106,"Ġpenggunaan":3107,"Ġumum":3108,"Ġwarga":3109,"ybrid":3110,"Ġtekanan":3111,"Ġdaerah":3112,"GM":3113,"Ġsebenarnya":3114,"Ġkesihatan":3115,"33":3116,"ĠAB":3117,"IDIKAN":3118,"awarkan":3119,"ahagian":3120,"ĠSek":3121,"Selain":3122,"ĠJepun":3123,"Ġagak":3124,"Ġbat":3125,"Ada":3126,"umpang":3127,"Kel":3128,"Ġcakap":3129,"org":3130,"ĠPerb":3131,"ĠKanak":3132,"ĠKertas":3133,"ices":3134,"Ġbidang":3135,"lack":3136,"ĠCr":3137,"Ġtalian":3138,"Ġuj":3139,"Ġbekerja":3140,"Terma":3141,"Ġbagaimana":3142,"Ġberikut":3143,"Ġkelas":3144,"Ġmengin":3145,"sur":3146,"itif":3147,"hh":3148,"ublic":3149,")}":3150,"ĠJer":3151,"KH":3152,"ĠAzmi":3153,"Ġ50":3154,"Ti":3155,"olks":3156,"ebar":3157,"Maklumat":3158,"atian":3159,"Ġmuka":3160,"wagen":3161,"ĠProgram":3162,"Ġkuat":3163,"olkswagen":3164,"DI":3165,"wid":3166,"ĠLelaki":3167,"Jangan":3168,"Ġundang":3169,"',":3170,"Ġberita":3171,"content":3172,"Ġnik":3173,"undi":3174,"Kh":3175,"engok":3176,"America":3177,"Oleh":3178,"Ġbelajar":3179,"inaan":3180,"ĠKAM":3181,"iah":3182,"Ġtim":3183,"hone":3184,"Ġsolat":3185,"oal":3186,"andard":3187,"rip":3188,"ype":3189,"manapun":3190,"osa":3191,"ĠJawatan":3192,"seks":3193,"ejak":3194,"PU":3195,"ĠMohamad":3196,"eknik":3197,"atuan":3198,"INGKAT":3199,"Ġcalon":3200,"Ġmesti":3201,"ĠBatu":3202,"hbar":3203,"Ġberat":3204,"Mercedes":3205,"46":3206,"Ġmeningkatkan":3207,"Ġjauh":3208,"esign":3209,"ilion":3210,"Pert":3211,"atut":3212,"Ken":3213,"2016":3214,"akwa":3215,"Mem":3216,"Ġmengand":3217,"Ġlaut":3218,"ĠTerbaik":3219,"ibatkan":3220,"Ð°":3221,"igh":3222,"URAN":3223,"Porno":3224,"pek":3225,"ĠSa":3226,"Ġsaat":3227,"Yang":3228,"lex":3229,"Ġkandungan":3230,"yu":3231,"anyakan":3232,"ĠMahkamah":3233,"ĠBar":3234,"erima":3235,"anakala":3236,"Ġperatus":3237,"EKN":3238,"agaimanapun":3239,"abung":3240,"ĠKL":3241,"ĠBank":3242,"ser":3243,"Ġterlalu":3244,"Nissan":3245,"isnes":3246,"ĠHospital":3247,"Res":3248,"Ġikan":3249,"Wanita":3250,"Ġ23":3251,"ĠMahathir":3252,"ĠPerh":3253,"ĠBuku":3254,"Ġjugak":3255,"ĠEmas":3256,"Ġsila":3257,"Panduan":3258,"ĠDisember":3259,"ĠTV":3260,"emui":3261,"Rumah":3262,"Ġpendidikan":3263,"Ġkepala":3264,"ibu":3265,"Ġkilang":3266,"set":3267,"illah":3268,"RI":3269,"right":3270,"ahaya":3271,"ose":3272,"ĠBukit":3273,"Ġberkualiti":3274,"unyi":3275,"adu":3276,"ingkatan":3277,"Ġmemastikan":3278,"ĠPersekutuan":3279,"ollow":3280,"orporat":3281,"URU":3282,"umen":3283,"ukur":3284,"Ġkesan":3285,"Ġthis":3286,"ĠUnd":3287,"PB":3288,"ĠBerita":3289,"ĠPEM":3290,"Ġselain":3291,"Ġduit":3292,"ĠPresiden":3293,"io":3294,"Ġpeluang":3295,"uf":3296,"lor":3297,"ĠFeb":3298,"urangkan":3299,"adual":3300,"Ġex":3301,"ĠAgama":3302,"Ġhuj":3303,"ĠDato":3304,"ĠEd":3305,"iburan":3306,"Ġbantuan":3307,"hy":3308,"En":3309,"ĠPanduan":3310,"ĠPengarah":3311,"ĠWheel":3312,"Ġpost":3313,"Ġsambil":3314,"ĠDAP":3315,"alk":3316,"Ġht":3317,"uktur":3318,"Ġkarat":3319,"SH":3320,"Ġnanti":3321,"rik":3322,"08":3323,"ĠPes":3324,"ilin":3325,"ewangan":3326,"ĠBadan":3327,"ĠDia":3328,"oda":3329,"ĠPerc":3330,"Ġâ":3331,"ĠPejabat":3332,"KM":3333,"Pusat":3334,"ave":3335,"Ġmenjadikan":3336,"tic":3337,"ance":3338,"ĠNik":3339,"uari":3340,"Soalan":3341,"ubuhan":3342,"td":3343,"Ġayah":3344,"Info":3345,"ĠKosong":3346,"Ġbola":3347,"ĠNasional":3348,"alis":3349,"lamat":3350,"EO":3351,"AKAN":3352,"Ġanggota":3353,"Ġsepanjang":3354,"Ġwas":3355,"Ġkon":3356,"Ġperang":3357,"ken":3358,"Ġberdasarkan":3359,"Ġlangkah":3360,"ĠPilihan":3361,"Ġdiberikan":3362,"Benz":3363,"ĠHaji":3364,"ĠHybrid":3365,"Ġbakal":3366,"ern":3367,"anggil":3368,"Ġmenginap":3369,"lasan":3370,"Ġduduk":3371,"Ġcantik":3372,"Ġbur":3373,"Post":3374,"ĠPENDIDIKAN":3375,"oleksi":3376,"Pautan":3377,"Ġbayi":3378,"bon":3379,"cik":3380,"imbalan":3381,"Ġny":3382,"let":3383,"Ġ26":3384,"Ġempat":3385,"Ġmurah":3386,"sel":3387,"Ġpandangan":3388,"Ġgolongan":3389,"ĠAut":3390,"Ġbij":3391,"erusi":3392,"Permohonan":3393,"Ġminimum":3394,"ope":3395,"lastik":3396,"ertai":3397,"Mitsubishi":3398,"icon":3399,"88":3400,"alim":3401,"ĠRamadan":3402,"ull":3403,"ĠMesin":3404,"Ġbas":3405,"Ġpautan":3406,"omun":3407,"Ġgadis":3408,"ates":3409,"ubang":3410,"TM":3411,"finiti":3412,"Ġbarang":3413,"osit":3414,"ĠWeb":3415,"yuar":3416,"Ġulasan":3417,"andingan":3418,"cm":3419,"06":3420,"Ġbangsa":3421,"ajaran":3422,"yuarat":3423,"ulihan":3424,"oga":3425,"ury":3426,"ĠMakanan":3427,"lip":3428,"apaian":3429,"500":3430,"isiko":3431,"embilan":3432,"dagangan":3433,"Ġnya":3434,"Ġlemb":3435,"atas":3436,"Â©":3437,"ĠKecil":3438,"udung":3439,"Ġasal":3440,"andang":3441,"Ġwith":3442,"Ġok":3443,"aksud":3444,"abis":3445,"ĠLucah":3446,"Ġkons":3447,"aib":3448,"ĠSelatan":3449,"Sp":3450,"ea":3451,"Ġfitrah":3452,"As":3453,"way":3454,"Ġputih":3455,"eja":3456,"Ġhampir":3457,"**":3458,"wp":3459,"load":3460,"ĠLazim":3461,"Ġsesi":3462,"ĠKM":3463,"ark":3464,"Ġberf":3465,"ĠPolis":3466,"ANA":3467,"Ġterj":3468,"Ġes":3469,"aturan":3470,"Ġsejarah":3471,"caya":3472,"Ġselamat":3473,"Ġkorang":3474,"edar":3475,"poran":3476,"embang":3477,"Ġdiberi":3478,"LAM":3479,"Ġcepat":3480,"Ġteg":3481,"mb":3482,"Ġberbanding":3483,"Ġlihat":3484,"ĠAli":3485,"Ġvar":3486,"YAT":3487,"unci":3488,"anjung":3489,"ahwinan":3490,"Ġnavig":3491,"ĠMuslim":3492,"ĠEng":3493,"onth":3494,"Ġik":3495,"embangan":3496,"ĠTaman":3497,"Ġnilai":3498,"ren":3499,"Bagaimana":3500,"PENG":3501,"rys":3502,"tanian":3503,"Ġmenang":3504,"ĠUNTUK":3505,"ich":3506,"Ġmaj":3507,"Ġindividu":3508,"ove":3509,"etakkan":3510,"ihkan":3511,"Co":3512,"Ġbapa":3513,"Ġkeperluan":3514,"eces":3515,"LI":3516,"ainya":3517,"faat":3518,"Dir":3519,"ĠPart":3520,"ĠSyarat":3521,"ober":3522,"34":3523,"Ġlat":3524,"zah":3525,"law":3526,"Ġtempatan":3527,"_.":3528,"ĠPERINGKAT":3529,"rit":3530,"Ġtambahan":3531,"emak":3532,"ĠPopular":3533,"dua":3534,"Sekolah":3535,"ida":3536,"Ġ$":3537,"sa":3538,"igi":3539,"Ġbaca":3540,"Jawatan":3541,"AKLUM":3542,"angkap":3543,"ĠRasmi":3544,"amer":3545,"alaf":3546,"Ġif":3547,"anyaan":3548,"ĠPROGRAM":3549,"andaran":3550,"Berc":3551,"umbuhan":3552,"ĠRep":3553,"aftaran":3554,"Ġkalangan":3555,"IHAN":3556,"iap":3557,"Ġsuatu":3558,"Eim":3559,"ĠQamal":3560,"ĠhitsEim":3561,"ĠhitsEimiza":3562,"opy":3563,"ongk":3564,"irik":3565,"kira":3566,"OD":3567,"Pembungkusan":3568,"ategory":3569,"ulat":3570,"Ġmenyatakan":3571,"iac":3572,"ĠCina":3573,"Ġdgn":3574,"Ġmajlis":3575,"Und":3576,"Ġent":3577,"eluaran":3578,"rysler":3579,"ition":3580,"ĠhitsMohd":3581,"Infiniti":3582,"Ġtelefon":3583,"omm":3584,"ebihan":3585,"ĠAbu":3586,"Ġminta":3587,"ĠSch":3588,"Ġdikatakan":3589,"==":3590,"Ġguna":3591,"eny":3592,"Ġbaharu":3593,"ĠPAN":3594,"ĠSukan":3595,"Ġseseorang":3596,"ille":3597,"idget":3598,"ombor":3599,"PI":3600,"Ġlengkap":3601,"Daftar":3602,"jah":3603,"ĠPembangunan":3604,"cur":3605,"enayah":3606,"Catatan":3607,"Ġhttp":3608,"\")":3609,"ĠYus":3610,"Ġadik":3611,"Ġterima":3612,"ĠMudah":3613,"ere":3614,"Sila":3615,"Ġberbeza":3616,"Hyundai":3617,"UMPUR":3618,"ĠBerkaitan":3619,"Ġtahap":3620,"ĠSistem":3621,"ĠEMAS":3622,"Ġkawan":3623,"Ġbakul":3624,"Ġasing":3625,"eluarga":3626,"ĠJAWATAN":3627,"Ġakibat":3628,"erlukan":3629,"ĠSEL":3630,"Ġlagu":3631,"ĠLap":3632,"ĠKepada":3633,"ale":3634,"ĠJaya":3635,"Ġayat":3636,"Pengurusan":3637,"Borang":3638,"Hakcipta":3639,"ĠNur":3640,"ĠKU":3641,"upp":3642,"omments":3643,"ĠRasulullah":3644,"ĠUSD":3645,"Ġbut":3646,"03":3647,"Ġbar":3648,"Ġambil":3649,"Ġsun":3650,"Injap":3651,"act":3652,"ĠSUHAI":3653,"rav":3654,"&&":3655,"Ġmembaca":3656,"Ġsering":3657,"ĠAlat":3658,"Bantuan":3659,"ĠKed":3660,"impinan":3661,"Volkswagen":3662,"video":3663,"akai":3664,"ech":3665,"Cad":3666,"Pas":3667,"Ġmemas":3668,"47":3669,"Keupayaan":3670,"ĠLUMPUR":3671,"enarik":3672,"ĠII":3673,"ĠBhd":3674,"hati":3675,"ĠLama":3676,"Ġbilion":3677,"ĠPerancis":3678,"ĠPENY":3679,"iku":3680,"ukti":3681,"Ġislam":3682,"Ġpelanggan":3683,"var":3684,"ĠSemasa":3685,"ker":3686,"Ġpelak":3687,"Utama":3688,"Ġmurid":3689,"vices":3690,"abah":3691,"Bu":3692,"err":3693,"ĠAssalamualaikum":3694,"48":3695,"Ġjenama":3696,"ektori":3697,"Ġmangsa":3698,"Ġlima":3699,"eel":3700,"âĢİ":3701,"ĠTo":3702,"edit":3703,"05":3704,"anji":3705,"ĠJu":3706,"Sep":3707,"wal":3708,"Galeri":3709,"Ġmasing":3710,"Ġlakukan":3711,"ĠKu":3712,"ikap":3713,"Ġkedudukan":3714,"ĠWikipedia":3715,"itle":3716,"atistik":3717,"ĠPERTAN":3718,"Ġtau":3719,"ĠUniversiti":3720,"ukai":3721,"ĠIng":3722,":\"":3723,"ĠIt":3724,"Ġenjin":3725,"Ġpembangunan":3726,"amar":3727,"idah":3728,"ĠMon":3729,"ĠTeknologi":3730,"ĠBag":3731,"EC":3732,"Ġasa":3733,"Chrysler":3734,"enalan":3735,"ĠNi":3736,"ĠPM":3737,"isme":3738,"Ġtujuan":3739,"ĠGuru":3740,"ĠBulan":3741,"SP":3742,"to":3743,"ivers":3744,"awang":3745,"peng":3746,"ĠMel":3747,"Ġsokongan":3748,"Ġhukum":3749,"iy":3750,"ĠAR":3751,"eraan":3752,"umpul":3753,"Pieces":3754,"atal":3755,"Ġsub":3756,"ANGG":3757,"ĠId":3758,"eperiksaan":3759,"Ġcontoh":3760,"Ġtengok":3761,"INGAN":3762,"opi":3763,"Ġmemerlukan":3764,"Ġnot":3765,"uci":3766,"ĠTEKN":3767,"ANTAN":3768,"ĠPiece":3769,"ĠBi":3770,"ĠMasa":3771,"AJARAN":3772,"Ses":3773,"ize":3774,"Pesanan":3775,"ĠPERAK":3776,"ĠTempat":3777,"ikirkan":3778,"meng":3779,"BER":3780,"Facebook":3781,"erta":3782,"Ġtinggal":3783,"ĠFar":3784,"ĠMasjid":3785,"AU":3786,"ĠBERS":3787,"hari":3788,"oid":3789,"ci":3790,"Ġnampak":3791,"ancongan":3792,"95":3793,"Ġberw":3794,"Apakah":3795,"Ġhilang":3796,"enj":3797,"Sat":3798,"ĠTa":3799,"Ġkejadian":3800,"Ġlaporan":3801,"Ġbertanggungjawab":3802,"amadhan":3803,"ĠLim":3804,"ner":3805,"ajet":3806,"ĠâĢ¦":3807,"__":3808,"Ġtubuh":3809,"enarkan":3810,"ii":3811,"Ġrujuk":3812,"Ġkeseluruhan":3813,"inat":3814,"Ac":3815,"Alat":3816,"agal":3817,"ĠAt":3818,"Ġpulak":3819,"ĠNovember":3820,"ĠPD":3821,"ĠTerbaru":3822,"ĠSaint":3823,"Ġsunting":3824,"umpa":3825,"Ġdisediakan":3826,"ĠFir":3827,"ulisan":3828,"ecara":3829,"Ġzaman":3830,"oman":3831,"KL":3832,"Ġpelaburan":3833,"Ġbisa":3834,"ĠPEMB":3835,"ps":3836,"aiwan":3837,"Keb":3838,"Boleh":3839,"oor":3840,"ĠCatatan":3841,"olusi":3842,"ding":3843,"radisi":3844,"Ġ.\"":3845,"ke":3846,"Ġkotak":3847,"ĠAZ":3848,"oin":3849,"ĠPakatan":3850,"ĠMod":3851,"dah":3852,"Ġapi":3853,"Ġpopular":3854,"ENGKEL":3855,"Ġkisah":3856,"Allah":3857,"Ġsitu":3858,"aha":3859,"imus":3860,"illac":3861,"put":3862,"atar":3863,"mati":3864,"Ġkeselamatan":3865,"Profil":3866,"Ketua":3867,"ÙĦ":3868,"Ġmembeli":3869,"Ġmenghasilkan":3870,"apura":3871,"Ġist":3872,"My":3873,"ĠValve":3874,"aranya":3875,"als":3876,"Nama":3877,"Ġsiapa":3878,"ĠPenc":3879,"ĠPh":3880,"ĠMela":3881,"ĠBoleh":3882,"ĠJam":3883,"Ġelektr":3884,"MI":3885,"Ġkadar":3886,"ĠWan":3887,"Ġ31":3888,"New":3889,"Pont":3890,"Ġ]":3891,"ĠExp":3892,"Ġkekal":3893,"idik":3894,"entukan":3895,"Ġhadapan":3896,"ĠPemain":3897,"ĠPenj":3898,"ĠBaju":3899,"Asia":3900,"apatkan":3901,"Class":3902,"KUASA":3903,"ĠTuan":3904,"Tetapi":3905,"ahiran":3906,"Ġperasaan":3907,"odoh":3908,"Ġpermohonan":3909,"ĠUt":3910,"Penafian":3911,"alafy":3912,"Ġpemer":3913,"Port":3914,"Ġmaklum":3915,"ĠBand":3916,"Ġpetang":3917,"ĠSya":3918,"ĠJanuari":3919,"aedah":3920,"ript":3921,"Ġbonus":3922,"Dis":3923,"utamanya":3924,"ms":3925,"Majlis":3926,"Ġyou":3927,"Ġcuma":3928,"jasama":3929,"32":3930,"aruh":3931,"Pejabat":3932,"anser":3933,"oller":3934,"afs":3935,"ĠPembungkusan":3936,"Ġq":3937,"VD":3938,"CT":3939,"Honda":3940,"Ġkak":3941,"hatian":3942,"Ġ27":3943,"olehkan":3944,"ĠBe":3945,"ki":3946,"Mar":3947,"Ġfak":3948,"ĠSport":3949,"EJAB":3950,"den":3951,"Ġnavigation":3952,"ĠPent":3953,"ĠGold":3954,"JK":3955,"Adakah":3956,"44":3957,"etapkan":3958,"ĠKemas":3959,"ptimus":3960,"adem":3961,"ĠLagu":3962,"ĠKen":3963,"ewasa":3964,"Ġremaja":3965,"Ġtarikh":3966,"ĠBanyak":3967,"Apabila":3968,"AMB":3969,"Nya":3970,"hare":3971,"ewaan":3972,"Ġmemilih":3973,"Ġminit":3974,"ona":3975,"impi":3976,"ĠBarat":3977,"Pontiac":3978,"Ġingat":3979,"Ġmengalami":3980,"Pr":3981,"SA":3982,"estasi":3983,"wasta":3984,"ĠMad":3985,"But":3986,"yam":3987,"ruari":3988,"umbangan":3989,"luk":3990,"Kanak":3991,"Tiada":3992,"ayam":3993,"ĠSPM":3994,"umuman":3995,"ĠKej":3996,"Ġsus":3997,"lukan":3998,"Ġpakaian":3999,"ĠPG":4000,"IZ":4001,"90":4002,"Ġsegera":4003,"ct":4004,"ĠCol":4005,"Ġkeg":4006,"Ġdilihat":4007,"tak":4008,"2014":4009,"ĠBersama":4010,"Ġsurat":4011,"Hari":4012,"Ked":4013,"ĠIr":4014,"ĠGURU":4015,"Tr":4016,"Direktori":4017,"uhkan":4018,"Lif":4019,"KUALA":4020,"Ġakhirnya":4021,"anggap":4022,"Ġmeter":4023,"MESYUARAT":4024,"Ġmengatakan":4025,"ĠNot":4026,"sip":4027,"ĠBAGI":4028,"ikel":4029,"Ġdisebabkan":4030,"ĠProduc":4031,"Bila":4032,"ĠSemua":4033,"ikl":4034,"ograf":4035,"65":4036,"ony":4037,"ĠTAN":4038,"akitangan":4039,"dapat":4040,"kand":4041,"encing":4042,"Ã±":4043,"GMC":4044,"oni":4045,"Old":4046,"amin":4047,"pad":4048,"Ġ?\"":4049,"ĠDasar":4050,"harap":4051,"imbang":4052,"Ġpengeluar":4053,"ĠKet":4054,"Ġsana":4055,"ĠSains":4056,"emerl":4057,"sanaan":4058,"artanah":4059,"Ġkewangan":4060,"ulakan":4061,"ode":4062,"ĠOkt":4063,"awar":4064,"Ġtertentu":4065,"Ġpasaran":4066,"ĠPal":4067,"ace":4068,"Ġsebahagian":4069,"Sk":4070,"riti":4071,"Ġins":4072,"incangan":4073,"masing":4074,"Ġmilik":4075,"ĠAbdullah":4076,"Ġ28":4077,"Ġberjalan":4078,"leks":4079,"antau":4080,"67":4081,"Fungsi":4082,"erv":4083,"omatik":4084,"efore":4085,"ath":4086,"Ġperubahan":4087,"Ġmusim":4088,"Ġdasar":4089,"ĠAman":4090,"Ġ01":4091,"Ġdila":4092,"HTC":4093,"ĠFr":4094,"Ġseter":4095,"PAN":4096,"ĠPerniagaan":4097,"ĠLuar":4098,"kitab":4099,"ĠTuhan":4100,"Ġwilayah":4101,"ĠKomun":4102,"ĠMay":4103,"Pam":4104,"Ġmelibatkan":4105,"Ġterutamanya":4106,"stitusi":4107,"Ġtanya":4108,"Ġkenderaan":4109,"Ġtenaga":4110,"oln":4111,"Su":4112,"geris":4113,"are":4114,"Ġsekiranya":4115,"indak":4116,"ikiran":4117,"ukul":4118,"Ġ(+":4119,"ustralia":4120,"ĠAG":4121,"ahami":4122,"ĠSah":4123,"BM":4124,"Sijil":4125,"Rencana":4126,"arak":4127,"ukkan":4128,"salafy":4129,"Ġkematian":4130,"Ġ40":4131,"Ġthat":4132,"tarabangsa":4133,"ally":4134,"Cadillac":4135,"ĠTengah":4136,"ARU":4137,"Optimus":4138,"ĠKELANTAN":4139,"ĠDarul":4140,"raj":4141,"elarut":4142,"Ġpasangan":4143,"ĠLebih":4144,"ery":4145,"oot":4146,"asaran":4147,"Kerajaan":4148,"Ġsur":4149,"ecah":4150,"esyen":4151,"AMAT":4152,"ĠEscalator":4153,"Kisah":4154,"Ġdemikian":4155,"ĠPakaian":4156,"Ġikut":4157,"Ġmencapai":4158,"Ġlaluan":4159,"incoln":4160,"ĠAtas":4161,"bi":4162,"lahan":4163,"Ġasas":4164,"Walaupun":4165,"ĠKomp":4166,"Nor":4167,"Ġpal":4168,"Bukan":4169,"Ġtua":4170,"isti":4171,"Ġterpaksa":4172,"TE":4173,"Gambar":4174,"ato":4175,"Ġmulut":4176,"ĠJulai":4177,"Ġumat":4178,"Ġkela":4179,"Ġpegawai":4180,"imia":4181,"alasan":4182,"Ġbalas":4183,"Ġunivers":4184,"Ġtalak":4185,"etengah":4186,"oard":4187,"ations":4188,"ianya":4189,"ĠInternet":4190,"ĠHas":4191,"umaat":4192,"Ġhadiah":4193,"Ġhadir":4194,"onik":4195,"erland":4196,"enih":4197,"ekalkan":4198,"Ġpenyel":4199,"asanya":4200,"poh":4201,"Jenis":4202,"Ġkomen":4203,"ĠMo":4204,"Ġ2009":4205,"ĠHad":4206,"Ġmenghad":4207,"Ġsiap":4208,"even":4209,"hana":4210,"Ġkemas":4211,"Follow":4212,"iana":4213,"orea":4214,"orld":4215,"Vitamin":4216,"angani":4217,"par":4218,"emuka":4219,"ĠKhas":4220,"ĠSEB":4221,"ix":4222,"ĠCer":4223,"Ġpakai":4224,"ĠHam":4225,"ike":4226,"Ku":4227,"ĠAnwar":4228,"CM":4229,",,":4230,"Mesin":4231,"antal":4232,"irian":4233,"ĠGambar":4234,"Perb":4235,"Ġmanakala":4236,"anta":4237,"Ġpercaya":4238,"uzik":4239,"Ġseterusnya":4240,"enuhi":4241,")âĢİ":4242,"indahan":4243,"ĠJenis":4244,"Mazda":4245,"ĠBagi":4246,"Har":4247,"Ġmaks":4248,"Ġ--":4249,"able":4250,"Tentang":4251,"ait":4252,"ĠBay":4253,"Ġpam":4254,"ĠAkhir":4255,"lobal":4256,"Ġunit":4257,"ĠJAWATANKUASA":4258,"Ġdiadakan":4259,"ĠKewangan":4260,"LOG":4261,"ies":4262,"ĠIl":4263,"Selepas":4264,"Ġdiam":4265,"agn":4266,"bl":4267,"Ġaplikasi":4268,"ataan":4269,"Ġsedia":4270,"utian":4271,"Ġjatuh":4272,"ĠMark":4273,"ĠPort":4274,"Man":4275,"sama":4276,"Ġeks":4277,"Ġoperasi":4278,"CH":4279,"ĠIndustri":4280,"Ġteknologi":4281,"ye":4282,"2018":4283,"IV":4284,"Ġsusu":4285,"ulasi":4286,"iq":4287,"Ġkehilangan":4288,"tera":4289,"ĠFilem":4290,"antas":4291,"Ġkerusi":4292,"Ġsedar":4293,"alil":4294,"ĠBAHASA":4295,"ĠYB":4296,"ariah":4297,"ĠPela":4298,"04":4299,"âĢ¦.":4300,"indah":4301,"ÑģÐº":4302,"indungan":4303,"Ġcomp":4304,"adio":4305,"ikgu":4306,"uzuki":4307,"Ġlo":4308,"66":4309,"OHANAN":4310,"Mercury":4311,"formasi":4312,"ajuk":4313,"AWAI":4314,"smobile":4315,"Ġsukar":4316,"harga":4317,"ĠUmum":4318,"ĠTok":4319,"ĠMENG":4320,"Ġmasjid":4321,"ĠDALAM":4322,"ĠPerlu":4323,"ĠInggeris":4324,"Ġcari":4325,"Oldsmobile":4326,"LEE":4327,"Es":4328,"alikan":4329,"ĠTiada":4330,"ĠhitsMOHD":4331,"hen":4332,"Ġterlibat":4333,"Ġmalaysia":4334,"Ġkhusus":4335,"amaan":4336,"AKYAT":4337,"impunan":4338,"Ġseri":4339,"Ġruang":4340,"Ġtepat":4341,"Ġsayang":4342,"omen":4343,"ĠEks":4344,"Anak":4345,"IKAL":4346,"ogel":4347,"EGAWAI":4348,"ĠGer":4349,"imbul":4350,"CB":4351,"ogg":4352,"ĠMy":4353,"ĠPK":4354,"ĠSol":4355,"Ġbunga":4356,"Ġsebalik":4357,"ĠSebut":4358,"Ġmenerusi":4359,"ĠPeri":4360,"EJABAT":4361,"Ġpasal":4362,"Az":4363,"entingan":4364,"gov":4365,"unung":4366,"ĠRoslan":4367,"estinasi":4368,"umahan":4369,"ĠNama":4370,"ĠRAS":4371,"ĠGu":4372,"Mengenai":4373,"Ġsamb":4374,",.":4375,"Ġsaudara":4376,"Ag":4377,"Ġpunca":4378,"ĠTurun":4379,"iru":4380,"inapan":4381,"Ġkajian":4382,"AWAH":4383,"DB":4384,"Ġketiga":4385,"baru":4386,"ĠOktober":4387,"Penc":4388,"lm":4389,"elanj":4390,"Ġgagal":4391,"Ġartikel":4392,"Ġkedai":4393,"ĠSingapura":4394,"ĠPengguna":4395,"Ġcatatan":4396,"Jag":4397,"Ġsenang":4398,"ool":4399,"lawanan":4400,"ĠBek":4401,"Ġbayaran":4402,"Ġpaip":4403,"ĠMet":4404,"ĠSw":4405,"Ġalih":4406,"jektif":4407,"Jenama":4408,"ĠFebruari":4409,"uruskan":4410,"ĠUtara":4411,"ĠSil":4412,"amkan":4413,"ekatan":4414,"impanan":4415,"ĠMuda":4416,"adangan":4417,"item":4418,"edahan":4419,"ĠSur":4420,"lace":4421,"porkan":4422,"Ġsepenuh":4423,"uni":4424,"Ġnaf":4425,"ĠDir":4426,"ĠPermohonan":4427,"Ġsoalan":4428,"Ġpekerja":4429,"Tambah":4430,"ĠMeny":4431,"Ġdoa":4432,"unjung":4433,"eld":4434,"ifat":4435,"Ġsib":4436,"ĠOrganisasi":4437,"Ġkualiti":4438,"ĠSelamat":4439,"ĠON":4440,"Ġtakut":4441,"enakan":4442,"istan":4443,"Ġbatu":4444,"ĠRahsia":4445,"Im":4446,"oma":4447,"ĠTemp":4448,"ajikan":4449,"ÑĢ":4450,"Ġre":4451,"ĠTur":4452,"Portal":4453,"Carta":4454,"SE":4455,"ĠISLAM":4456,"Ġpendapatan":4457,"ITIA":4458,"ĠTrans":4459,"irah":4460,"otong":4461,"Sebelum":4462,"ĠBud":4463,"Ġpengurusan":4464,"agar":4465,"ĠSuper":4466,"KOKO":4467,"ĠPANITIA":4468,"Ġjabatan":4469,"ĠUtusan":4470,"ugu":4471,"Ġkenapa":4472,"ijau":4473,"ĠAntarabangsa":4474,"rep":4475,"RE":4476,"ĠSetia":4477,"Buku":4478,"Ġpul":4479,"tir":4480,"For":4481,"Ġlokasi":4482,"box":4483,"kh":4484,"ĠSc":4485,"roup":4486,"utama":4487,"cayai":4488,"ĠRoller":4489,"Ġantar":4490,"ĠBunga":4491,"romosi":4492,"ĠSe":4493,"Ġtentera":4494,"ĠHidup":4495,"Sejarah":4496,"Ġtawaran":4497,"ins":4498,"ersihan":4499,"amanya":4500,"itung":4501,"Ex":4502,"eur":4503,"ica":4504,"ĠSed":4505,"ĠIsmail":4506,"aluan":4507,"Ġlupa":4508,"ĠMenarik":4509,"âĨ":4510,"Langgan":4511,"enerasi":4512,"Ġhotel":4513,"Ġmembolehkan":4514,"Ġjer":4515,"ĠTungsten":4516,"Ġdiambil":4517,"GER":4518,"ĠAst":4519,"Ġberusia":4520,"awapan":4521,"77":4522,"Ġplastik":4523,"ailand":4524,"que":4525,"eki":4526,"yle":4527,"unit":4528,"ERITA":4529,"ĠPKR":4530,"Ġmengeluarkan":4531,"BN":4532,"atur":4533,"SK":4534,"ĠHus":4535,"Ġtun":4536,"Ġdemi":4537,"ĠLembaga":4538,"Kadar":4539,"eep":4540,"ĠSW":4541,"Sukan":4542,"Ġmeminta":4543,"lar":4544,"Ġseni":4545,"Ġrasmi":4546,"Ġdiperlukan":4547,"uhu":4548,"ĠLog":4549,"empen":4550,"El":4551,"ĠDij":4552,"hamdul":4553,"adat":4554,"import":4555,"ATI":4556,"ĠKab":4557,"ABATAN":4558,"eut":4559,"urangan":4560,"Ġberhubung":4561,"ĠGh":4562,"aq":4563,"stag":4564,"umkan":4565,"ÑģÐºÐ¸":4566,"TR":4567,"Ġpertanyaan":4568,"ĠAK":4569,"iar":4570,"ustom":4571,"ingkas":4572,"Ġayam":4573,"opyright":4574,"xx":4575,"ĠApa":4576,"ADI":4577,"ĠPengh":4578,"ĠNet":4579,"ĠPerl":4580,"Ġsetahun":4581,"ĠPEGAWAI":4582,"Ġkayu":4583,"Ġmcm":4584,"Waktu":4585,"Pendidikan":4586,"ulia":4587,"angkang":4588,"Ġasli":4589,"ujukan":4590,"ĠSembilan":4591,"Ġuc":4592,"ĠKEM":4593,"Ġseramai":4594,"Ġtrans":4595,"BA":4596,"Ġmelayu":4597,"Carian":4598,"alal":4599,"ĠBas":4600,"Sumber":4601,"02":4602,"Siapa":4603,"Ġmenyokong":4604,"untut":4605,"Tan":4606,"Ġdh":4607,"Ġpengg":4608,"entian":4609,"utamaan":4610,"ental":4611,"ages":4612,"EH":4613,"rika":4614,"ĠKasino":4615,"ners":4616,"ejut":4617,"nama":4618,"oon":4619,"Ġbacaan":4620,"iaya":4621,"Ġberubah":4622,"abaran":4623,"ĠRamadhan":4624,"Ġmengurangkan":4625,"be":4626,"ife":4627,"adanan":4628,"oggle":4629,"afiz":4630,"Ġmelaksanakan":4631,"tain":4632,"ĠTwitter":4633,"Ġberwarna":4634,"Ġte":4635,"ENGAH":4636,"Ġmenulis":4637,"ĠRAKYAT":4638,"elamat":4639,"ĠKH":4640,"udin":4641,"ĠCon":4642,"Ã¨":4643,"wak":4644,"Ġmalah":4645,"https":4646,"etahuan":4647,"ĠPH":4648,"Ġmembuka":4649,"31":4650,"artin":4651,"Ser":4652,"Ġid":4653,"ĠKeh":4654,"Pers":4655,"59":4656,"antang":4657,"Ġmenghar":4658,"inggit":4659,"ĠPortal":4660,"sch":4661,"sl":4662,"Ġzakar":4663,"Or":4664,"Ġdo":4665,"Ġalat":4666,"Ġpulang":4667,"Hanya":4668,"Ñĥ":4669,"Ġpus":4670,"Ġutk":4671,"inkan":4672,"Ġmesin":4673,"ĠPELAJARAN":4674,"stagram":4675,"Ġfrom":4676,"ĠSK":4677,"Ġmengetahui":4678,"Ġkebanyakan":4679,"ĠPenggunaan":4680,"Ġfaham":4681,"AYU":4682,"oint":4683,"ĠMATA":4684,"Sy":4685,"49":4686,"Ġdirinya":4687,"Ġwak":4688,"ĠCinta":4689,"ternet":4690,"Ġlahir":4691,"Ġsihat":4692,"asis":4693,"pert":4694,"Saturn":4695,"TV":4696,"Ġterbuka":4697,"Kr":4698,"Ġprof":4699,"Tips":4700,"Sebagai":4701,"Lincoln":4702,"der":4703,"before":4704,"asakan":4705,"rajaya":4706,"Paparan":4707,"ĠPintu":4708,"Ġhe":4709,"Ġwidget":4710,"Dic":4711,"Ġisi":4712,"Bers":4713,"ongsian":4714,"OMP":4715,"ĠKap":4716,"iter":4717,"ravel":4718,"Ġcok":4719,"css":4720,"ouse":4721,"ĠTerbang":4722,"56":4723,"Ġbenda":4724,"Ġ29":4725,"adbir":4726,"pan":4727,"oka":4728,"Ġseles":4729,"Kia":4730,"Ġperhatian":4731,"tive":4732,"Ġkapal":4733,"emuk":4734,"Ġciri":4735,"ĠRazak":4736,"ĠWilayah":4737,"Ġsemb":4738,"eck":4739,"width":4740,"ĠLain":4741,"ĠBuat":4742,"uam":4743,"enaran":4744,"ĠKO":4745,"ĠIsteri":4746,"58":4747,"Ġmengandungi":4748,"Ġkal":4749,"Ġpanduan":4750,"Bercuti":4751,"Jaguar":4752,"Antara":4753,"ahanan":4754,"ĠWang":4755,"ĠAll":4756,"Ġang":4757,"Buick":4758,"Ġsiri":4759,"dis":4760,"raya":4761,"Berk":4762,"Memb":4763,"aunter":4764,"ingat":4765,"Ġdak":4766,"alanya":4767,"Ġianya":4768,"Ġwajah":4769,"âĨĲ":4770,"Sc":4771,"otos":4772,"waan":4773,".....":4774,"ĠAlor":4775,"Itu":4776,"sif":4777,"Ġpermainan":4778,"ejala":4779,"Ġkawalan":4780,"mart":4781,"Ġare":4782,"Ġ;":4783,"Laporan":4784,"Ġkaedah":4785,"rael":4786,"SEL":4787,"Ġutara":4788,"Ġantarabangsa":4789,"enan":4790,"Ġme":4791,"elat":4792,"ĠHAR":4793,"Air":4794,"Ġmenteri":4795,"Home":4796,"Ġmonth":4797,"ANI":4798,"awangan":4799,"Suzuki":4800,"Statistik":4801,"ho":4802,"kenalkan":4803,"unter":4804,"ape":4805,"Ġmenurut":4806,"elesaikan":4807,"Ġ2008":4808,"2015":4809,"TAR":4810,"Ġterg":4811,"Ġkoperasi":4812,"ilat":4813,"Ġdijual":4814,"elaskan":4815,"ancarkan":4816,"ops":4817,"Ġyear":4818,"ungguhnya":4819,"paÃ±":4820,"ampaikan":4821,"fit":4822,"sed":4823,"indler":4824,"Ġtempahan":4825,"Ġsuara":4826,"ĠDVD":4827,"Ġberi":4828,"ĠTimbalan":4829,"col":4830,"Br":4831,"ĠCipta":4832,"ARAH":4833,"ĠBAWAH":4834,"ĠPENYEL":4835,"Klik":4836,"ĠAD":4837,"ĠTH":4838,"aiki":4839,"Aktiviti":4840,"Ġbangunan":4841,"Selamat":4842,"ĠMinyak":4843,"Ġmenawarkan":4844,"ĠBola":4845,"ĠBert":4846,"ĠYusof":4847,"nik":4848,"Ġplat":4849,"ĠLa":4850,"ĠAkta":4851,"PADA":4852,"yn":4853,"ĠJumaat":4854,"Ġmeningkat":4855,"enangan":4856,"Ġberharap":4857,"uji":4858,"78":4859,"ĠBlogger":4860,"rica":4861,"Sekiranya":4862,"Bag":4863,"Af":4864,"ĠPerubatan":4865,"Ġkerjasama":4866,"Ġmendengar":4867,"ĠMSS":4868,"DINGAN":4869,"ĠMasuk":4870,"uali":4871,"ument":4872,"ph":4873,"ancar":4874,"ĠAv":4875,"araya":4876,"trans":4877,"Ġkebangsaan":4878,"Ġot":4879,"aus":4880,"Ġ:)":4881,"epan":4882,"Ġterc":4883,"ayudara":4884,"iet":4885,"Ġmenambah":4886,"esel":4887,"Ek":4888,"Ġpemilik":4889,"41":4890,"Ġpalsu":4891,"Kata":4892,"ĠZakat":4893,"tiraf":4894,"Ġbermain":4895,"lab":4896,"ikmati":4897,"Jom":4898,"ografi":4899,"etakan":4900,"oft":4901,"osak":4902,"ĠSiti":4903,"Ġwe":4904,"ublik":4905,"aba":4906,"rain":4907,"Ġuniversiti":4908,"Ġapakah":4909,"AJAAN":4910,"AKA":4911,"fah":4912,"try":4913,"EMP":4914,"ros":4915,"ormat":4916,"ence":4917,"ĠDiri":4918,"JA":4919,"ights":4920,"Resepi":4921,"Ġbiasanya":4922,"MAN":4923,"asut":4924,"ĠWaktu":4925,"reat":4926,"uga":4927,"ĠEur":4928,"oe":4929,"Ġsegi":4930,"ĠInternational":4931,"iber":4932,"ĠChe":4933,"Alamat":4934,"ĠKorporat":4935,"tin":4936,"ÙĪ":4937,"aparkan":4938,"atuk":4939,"Ġterkenal":4940,"ĠEkonomi":4941,"ĠKorea":4942,"ĠEh":4943,"Ġbercuti":4944,"Ġmeninggal":4945,"Ġperh":4946,"rev":4947,"elian":4948,"ONAL":4949,"ukaan":4950,"ĠShalat":4951,"uy":4952,"ĠNO":4953,"Ma":4954,"emahan":4955,"agia":4956,"ediaan":4957,"Ġsebelah":4958,"ĠWarga":4959,"Ġstok":4960,"ĠArch":4961,"Ġmar":4962,"Ġyour":4963,"Ġpengan":4964,"iwa":4965,"Ã§":4966,"Ġtali":4967,"go":4968,"ĠKAMI":4969,"ilaian":4970,"Ya":4971,"Ġsay":4972,"abu":4973,"ĠPUS":4974,"Ġsepenuhnya":4975,"Ġyakin":4976,"ustadz":4977,"ĠBEL":4978,"untukan":4979,"TU":4980,"ĠFit":4981,"Ġprot":4982,"Ġdilaksanakan":4983,"Tel":4984,"Ġmenjalankan":4985,"ound":4986,"Ġtungg":4987,"raul":4988,"Ġkad":4989,"ART":4990,"ALI":4991,"Ġsebag":4992,"ĠInt":4993,"Ġkarena":4994,"amba":4995,"Ġcon":4996,"Ġterutama":4997,"Ġudara":4998,"Temp":4999,"Ġbumi":5000,"pd":5001,"Ġgaya":5002,"ting":5003,"ĠLtd":5004,"pun":5005,"Masjid":5006,"Ġrak":5007,"asha":5008,"ston":5009,"Ġreka":5010,"index":5011,"ĠProducts":5012,"uncul":5013,"Katanya":5014,"arawih":5015,"Ġanj":5016,"Pet":5017,"hats":5018,"Ġpingg":5019,"emen":5020,"Zz":5021,"akarta":5022,"Ġterdiri":5023,"Terkini":5024,"Inilah":5025,"indungi":5026,"gian":5027,"oul":5028,"ĠServices":5029,"ico":5030,"Ġdoktor":5031,"iktiraf":5032,"inga":5033,"Ġpejabat":5034,"BI":5035,"ĠAW":5036,"ĠKES":5037,"Ġmaaf":5038,"bur":5039,"stitut":5040,"Cat":5041,"paÃ±ol":5042,"PEL":5043,"red":5044,"ĠHakcipta":5045,"emua":5046,"MM":5047,"Ġamalan":5048,"Ġbab":5049,"CI":5050,"Ġsebagainya":5051,"ipun":5052,"unca":5053,"Ġbersalin":5054,"Ġberter":5055,"ujudkan":5056,"ĠTEKNIKAL":5057,"kata":5058,"erbitan":5059,"RA":5060,"omunikasi":5061,"ubuhkan":5062,"Ġmeninggalkan":5063,"');":5064,"Ġberset":5065,"rul":5066,"ĠMENENGAH":5067,"Ġgaji":5068,"07":5069,"Ġperkahwinan":5070,"eritakan":5071,"adanya":5072,"Ġtar":5073,"Ġpendapat":5074,"Ġmengaku":5075,"Ġsaiz":5076,"ĠGOL":5077,"Ġdar":5078,".\"":5079,"Ġped":5080,"bum":5081,"isyen":5082,"Beg":5083,"Ġpuasa":5084,"Pek":5085,"ĠBarang":5086,"ĠUr":5087,"aging":5088,"ĠMD":5089,"IDM":5090,"kes":5091,"GAN":5092,"endar":5093,"ĠKek":5094,"Ġemail":5095,"TIS":5096,"Tuan":5097,"ĠAktiviti":5098,"ĠPP":5099,"Ġob":5100,"ĠMakan":5101,"janj":5102,"Ġmengadakan":5103,"umumkan":5104,"2017":5105,"Ġsibuk":5106,"Hiburan":5107,"HR":5108,"Ġbl":5109,"Ġbudak":5110,"Ùħ":5111,"Ġsahabat":5112,"Ġdagangan":5113,"||":5114,"Ġberasal":5115,"hamdulillah":5116,"ĠPautan":5117,"Dr":5118,"Ġotak":5119,"ux":5120,"Ġhebat":5121,"Ġtuan":5122,"ĠAustralia":5123,"ĠKEJ":5124,"ĠMuk":5125,"Setiap":5126,"ĠPEJABAT":5127,"ipan":5128,"Ġ198":5129,"amis":5130,"Ġng":5131,"ĠDUN":5132,"ĠRendah":5133,"Ġtradisi":5134,"reen":5135,"ĠUbat":5136,"Cerita":5137,"Ġsementara":5138,"Search":5139,"ĠâĢİ":5140,"atak":5141,"Ġpenulis":5142,"Terdapat":5143,"Ġseksi":5144,"order":5145,"ĠStates":5146,"intaan":5147,"uzu":5148,"Ġmandi":5149,"Ġbot":5150,"cel":5151,"Ġmatang":5152,"Maka":5153,"Ġpenghantaran":5154,"ĠImp":5155,"apur":5156,"LINE":5157,"FA":5158,"Ġperanan":5159,"ukup":5160,"CMG":5161,"mak":5162,"amera":5163,"ĠHid":5164,"ĠMont":5165,"Mungkin":5166,"Ġpelarut":5167,"uble":5168,"kn":5169,"amatan":5170,"ĠSalam":5171,"Ġperdagangan":5172,"Ġharta":5173,"Ġtugas":5174,"ustak":5175,"ĠSosial":5176,"Undang":5177,"Tarikh":5178,"Ġgel":5179,"ĠWorld":5180,"Ġbintang":5181,"tra":5182,"ĠSemula":5183,"Ġsikit":5184,"53":5185,"Ġditerima":5186,"Ġmemenuhi":5187,"Ġkategori":5188,"iness":5189,"Nak":5190,",...":5191,"ENDAH":5192,"Ġnombor":5193,"Kesihatan":5194,"janjian":5195,"Mah":5196,"Ang":5197,"Ġmengajar":5198,"nu":5199,"CC":5200,"ĠThailand":5201,"Ġsya":5202,"esional":5203,"Ġjawab":5204,"ĠAid":5205,"ĠMata":5206,"ling":5207,"egan":5208,"Sebab":5209,"akaran":5210,"ĠBaik":5211,"Ġmulai":5212,"Ġlatihan":5213,"anel":5214,"anjaya":5215,"Ġterjadi":5216,"Ġbet":5217,"Ġmenyertai":5218,"data":5219,"ĠBahan":5220,"ĠPap":5221,"Ġsejuk":5222,"Ġterbaru":5223,"ĠHigh":5224,"Penyakit":5225,"Ġperubatan":5226,"Ġgenerasi":5227,"Ġburuk":5228,"RAN":5229,"itor":5230,"AJA":5231,"otik":5232,"ĠJerman":5233,"IDEO":5234,"ĠIklan":5235,"enarnya":5236,"ANGOR":5237,"ujuh":5238,"ANGK":5239,"Mel":5240,"Ġpembinaan":5241,"Ġdaya":5242,"intar":5243,"return":5244,"ĠMelalui":5245,"Ġujian":5246,"oker":5247,"AGA":5248,"tiba":5249,"Ġrahsia":5250,"ĠSU":5251,"anyi":5252,"ajak":5253,"Ġversi":5254,"ĠMultimedia":5255,"ĠPertama":5256,"Ġpunya":5257,"Atom":5258,"TP":5259,"Ġdikeluarkan":5260,"ĠSeg":5261,"ĠKad":5262,"ĠMala":5263,"ĠPublic":5264,"outh":5265,"sya":5266,"Ġinfo":5267,"Ġrela":5268,"site":5269,"ĠZain":5270,"awler":5271,"Ġpemulihan":5272,"Isuzu":5273,"Ġtungsten":5274,"ĠPam":5275,"Ġbayar":5276,"saya":5277,"Lebih":5278,"Subaru":5279,"uruhanjaya":5280,"estoran":5281,"yss":5282,"Ġpokok":5283,"uangan":5284,"round":5285,"Ġkah":5286,"gai":5287,"ohor":5288,"Ġperbu":5289,"idi":5290,"tions":5291,"icara":5292,"ĠLaut":5293,"Ġmenjaga":5294,"Acura":5295,"Ġsusah":5296,"Ġkanan":5297,"INGG":5298,"izikal":5299,"ĠMB":5300,"umur":5301,"Ġsup":5302,"ĠSAW":5303,"isu":5304,"Ġwajib":5305,"Us":5306,"emaskini":5307,"rog":5308,"Ãª":5309,"ĠOtis":5310,"SC":5311,"ĠPERC":5312,"Ġnas":5313,"alid":5314,"Ġterkemuka":5315,"Min":5316,"Ġberkongsi":5317,"Ġwujud":5318,"Ġpesakit":5319,"urga":5320,"ĠPERTANDINGAN":5321,"Label":5322,"alisis":5323,"ĠLatihan":5324,"Ġseunit":5325,"Ġbr":5326,"Ġtok":5327,"Kongsi":5328,"Toggle":5329,"ĠKomen":5330,"ĠMaj":5331,"Ġpakej":5332,"Ġabang":5333,"errari":5334,"Ġkanser":5335,"nam":5336,"Kar":5337,"Ġgela":5338,"ĠSurat":5339,"UMA":5340,"ategi":5341,"angkitan":5342,"Piagam":5343,"ĠMal":5344,"ĠBUL":5345,"akul":5346,"Solat":5347,"ado":5348,"Ġkelihatan":5349,"ĠMalay":5350,"antalum":5351,"Ġrisiko":5352,"Ġberkuasa":5353,"Ġandroid":5354,"ĠSen":5355,"76":5356,"Ġdipercayai":5357,"evel":5358,"ria":5359,"aten":5360,"ĠSY":5361,"ĠCH":5362,"oji":5363,"ĠKita":5364,"edaran":5365,"ĠMoz":5366,"ĠBu":5367,"tau":5368,"):":5369,"PROGRAM":5370,"ĠAda":5371,"MAD":5372,"ĠTANAH":5373,"ĠMAS":5374,"ĠPelajar":5375,"ĠMAKLUM":5376,"asc":5377,"98":5378,"Ġ90":5379,"badi":5380,"Ahli":5381,"ĠIsrael":5382,"LA":5383,"ĠSR":5384,"Ġ(âĨĲ":5385,"awak":5386,"jian":5387,"ĠParts":5388,"Ġniat":5389,"ĠPengerusi":5390,"Ġmeletakkan":5391,"ĠJav":5392,"Ġorg":5393,"seg":5394,"No":5395,"ĠFre":5396,"andangan":5397,"Ŀ¤":5398,"Ġmotor":5399,"iasatan":5400,"tih":5401,"Sementara":5402,"bt":5403,"Ġangin":5404,"Ġsifat":5405,"Ġhendaklah":5406,"back":5407,"ĠSPR":5408,"Ġmembentuk":5409,"Ġkeras":5410,"ilip":5411,"Ġhabis":5412,"Ġmuncul":5413,"ero":5414,"ĠAkhbar":5415,"ĠHarian":5416,"eric":5417,"Kenapa":5418,"entuh":5419,"ĠBERSAMA":5420,"Lain":5421,"Ġ**":5422,"Ġsedih":5423,"Ġ60":5424,"ustakaan":5425,"ĠDoa":5426,"Ġringgit":5427,"ĠKan":5428,"Ġporno":5429,"ĠRahman":5430,"Ġbertindak":5431,"Ð¹":5432,"Ġkemudahan":5433,"ĠAfrika":5434,"Ġserangan":5435,"ĠRAZ":5436,"Hospital":5437,"ĠGe":5438,"osakan":5439,"ĠCont":5440,"Ġhas":5441,"erg":5442,"ĠIpoh":5443,"Masa":5444,"AMAN":5445,"ĠPertanian":5446,"Ð¾":5447,"Ġ_":5448,"EspaÃ±ol":5449,"Ġbergerak":5450,"enazah":5451,"pustakaan":5452,"GO":5453,"Ġditahan":5454,"ĠBT":5455,"Ġbinti":5456,"ahat":5457,"ĠFat":5458,"Ġkepentingan":5459,"ĠBerb":5460,"awalan":5461,"iff":5462,"Ġumur":5463,"ĠKumpulan":5464,"roses":5465,"ĠGrand":5466,"bjektif":5467,"umbang":5468,"unakan":5469,"ĠProf":5470,"linik":5471,"Ġmil":5472,"Ġsew":5473,"mo":5474,"Ġrep":5475,"Ġko":5476,"Ġsenarai":5477,"rome":5478,"Bahan":5479,"abil":5480,"Kumpulan":5481,"ILAN":5482,"Ġsar":5483,"ĠMerah":5484,"Ġinternet":5485,"Ġberhenti":5486,"Masalah":5487,"erved":5488,"Ġenam":5489,"Hantar":5490,"IRI":5491,"omo":5492,"Ġdijalankan":5493,"PAS":5494,"ĠYa":5495,"ciri":5496,"ĠALAM":5497,"Ġpengetahuan":5498,"ection":5499,"ĠZul":5500,"Ġmarah":5501,"ski":5502,"ĠðŁ":5503,"Ġpekerjaan":5504,"elakkan":5505,"unners":5506,"Ġsens":5507,"Ġberambut":5508,"ĠBENGKEL":5509,"ein":5510,"ĠTanpa":5511,"usiness":5512,"Ketika":5513,"Ġmempert":5514,"Ġselesai":5515,"anggilan":5516,"ĠPasir":5517,"Ġsekadar":5518,"Ġcukai":5519,"TH":5520,"akh":5521,"emis":5522,"abit":5523,"Ġdvd":5524,"ĠJABATAN":5525,"Melayu":5526,"ĠHarapan":5527,"Ġbergantung":5528,"DP":5529,"Ġsikap":5530,"gt":5531,"angunkan":5532,"Ġbertanya":5533,"Ġsaw":5534,"Ġbudaya":5535,"Perubahan":5536,"unnerseven":5537,"COM":5538,"ĠPosts":5539,"sion":5540,"Ġtop":5541,"ĠJawatankuasa":5542,"MAJLIS":5543,"Ġjual":5544,"ĠDAT":5545,"ral":5546,"ĠNas":5547,"ĠSatu":5548,"ĠKini":5549,"Ġdewasa":5550,"atutnya":5551,"Ġaktif":5552,"ambilan":5553,"Land":5554,"Ġpentadbiran":5555,"yid":5556,"ucing":5557,"amaah":5558,"Berikut":5559,"âĿ¤":5560,"rap":5561,"rasi":5562,"Par":5563,"Ġnikah":5564,"ĠBOL":5565,"asm":5566,"ĠMaz":5567,"CA":5568,"benar":5569,"Setelah":5570,"Ġno":5571,"Ġperkembangan":5572,"erba":5573,"ĠRover":5574,"Ġteman":5575,"inal":5576,"ese":5577,"ĠPerlis":5578,"Ġterh":5579,"inet":5580,"ise":5581,"ĠQuran":5582,"ĠSchindler":5583,"Ġdeposit":5584,"ĠBelakang":5585,"ĠGajah":5586,"Ġmisteri":5587,"Ġmenghantar":5588,"Terima":5589,"ĠSebutharga":5590,"EI":5591,"ĠKERAJAAN":5592,"udahkan":5593,"ĠZah":5594,"Ġint":5595,"Ġskru":5596,"Ġtarawih":5597,"ĠEN":5598,"43":5599,"Ġperut":5600,"ĠÃ":5601,"ains":5602,"Ġkosong":5603,"57":5604,"Ket":5605,"Ġpukul":5606,"Polisi":5607,"ĠPercuma":5608,"weet":5609,"Ġu":5610,"iaga":5611,"ĠFoto":5612,"Ġindah":5613,"ĠDit":5614,"erd":5615,"Ġditemui":5616,"kar":5617,"Ġmenjawab":5618,"ĠUst":5619,"Popular":5620,"angguan":5621,"Ġbagaimanapun":5622,"edahkan":5623,"Not":5624,"untry":5625,"Satu":5626,"ĠDENG":5627,"erbangan":5628,"Ġperkataan":5629,"Ġmuslim":5630,"Ġmemahami":5631,"raulik":5632,"Pelan":5633,"ega":5634,"Ġmembayar":5635,"Hal":5636,"ning":5637,"ific":5638,"Ġberapa":5639,"ilangkan":5640,"Ġtentu":5641,"ranÃ§":5642,"ĠLemb":5643,"ĠUstaz":5644,"ĠSoalan":5645,"olehan":5646,"ft":5647,"esb":5648,"=\"":5649,"IMAT":5650,"Star":5651,"Dim":5652,"Ġsud":5653,"uatku":5654,"Ġhubungi":5655,"Ġide":5656,"ĠCap":5657,"Contoh":5658,"height":5659,"Gadis":5660,"ora":5661,"Ġ.....":5662,"Ġdijangka":5663,"ster":5664,"ORM":5665,"ezeki":5666,"emuan":5667,"Ġmodel":5668,"ĠKata":5669,"ĠPutrajaya":5670,"Ġberusaha":5671,"ampai":5672,"ĠMP":5673,"ranÃ§ais":5674,"Ġklik":5675,"image":5676,"itis":5677,"();":5678,"undangan":5679,"Ġmultimedia":5680,"52":5681,"sik":5682,"Ġdianggap":5683,"ĠMAH":5684,"Cari":5685,"Eur":5686,"Ġtanggungjawab":5687,"Ġterbesar":5688,"ĠSumber":5689,"Ġdijadikan":5690,"ĠImam":5691,"ade":5692,"ĠCrawler":5693,"ĠPiala":5694,"ime":5695,"ownload":5696,"Media":5697,"Jalan":5698,"iket":5699,"ĠPeribadi":5700,"ĠStandard":5701,"replace":5702,"Ġharap":5703,"Ġtapak":5704,"Ġtudung":5705,"ĠAkaun":5706,"indu":5707,"elayan":5708,"Ġsebaliknya":5709,"App":5710,"ĠMartin":5711,"egi":5712,"Ġperalatan":5713,"vin":5714,"Ġstatus":5715,"itaran":5716,"âĢĵ":5717,"Ġbawa":5718,"Ġcahaya":5719,"ĠAbd":5720,"ĠOR":5721,"orban":5722,"Ġterbang":5723,"ength":5724,"Ġkering":5725,"Ġsc":5726,"Ġketua":5727,"Ġditetapkan":5728,"asiat":5729,"Salam":5730,"Ġlemah":5731,"ket":5732,"ĠBang":5733,"Str":5734,"orak":5735,"wanita":5736,"Ġfungsi":5737,"Copyright":5738,"ĠDvd":5739,"va":5740,"ronic":5741,"Ġimpian":5742,"efox":5743,"ecial":5744,"Portugu":5745,"ualan":5746,"ipu":5747,":\"\\":5748,"Indonesia":5749,"Ġsemangat":5750,"Ġdibina":5751,"ĠBukan":5752,"Ġagensi":5753,"Ġmembina":5754,"isau":5755,"CL":5756,"eritahu":5757,"Ġret":5758,"ĠMini":5759,"ĠBahru":5760,"ĠSusu":5761,"At":5762,"Ġmaksud":5763,"Ġataupun":5764,"AIL":5765,"uster":5766,"42":5767,"Cl":5768,"Ġmemohon":5769,"ealth":5770,"ĠPergi":5771,"ĠMaha":5772,"?âĢĿ":5773,"Ġundi":5774,"emaah":5775,"Ġautomatik":5776,"Ġharam":5777,"ĠRENDAH":5778,"olej":5779,"Malah":5780,"ole":5781,"dengan":5782,"anggup":5783,"Ġdengar":5784,"Ġmaut":5785,"elajuan":5786,"ĠKeluarga":5787,"Ġsepatutnya":5788,"Ġsukan":5789,"ĠSenarai":5790,"mata":5791,"agang":5792,"Ġlayak":5793,"elanjaan":5794,"Ãªs":5795,"Ġhospital":5796,"(){":5797,"atasi":5798,"cover":5799,"ĠSej":5800,"hu":5801,"lad":5802,"erlands":5803,"ĠPUSAT":5804,"Ġkhususnya":5805,"title":5806,"Ġcar":5807,"Kuala":5808,"ĠCity":5809,"ected":5810,"Ġstart":5811,"Ġjoin":5812,"Ġmanis":5813,"Ġbijak":5814,"reasi":5815,"ezaan":5816,"Ġcomments":5817,"ontact":5818,"ĠABD":5819,"ĠMR":5820,"Ġelektrik":5821,"KER":5822,"industr":5823,"Mus":5824,"ĠHati":5825,"ten":5826,"azil":5827,"ĠHARI":5828,"Ġanti":5829,"oyce":5830,"Mat":5831,"ÑĥÑģ":5832,"alakkan":5833,"Ġfir":5834,"Ġdisi":5835,"ĠPRU":5836,"Selangor":5837,"Ġso":5838,"Ġaz":5839,"late":5840,"memb":5841,"Ġfaktor":5842,"ider":5843,"juangan":5844,"Dvd":5845,"Penj":5846,"ormal":5847,"Assalamualaikum":5848,"Ġlife":5849,"Kec":5850,"Ġswasta":5851,"UNAN":5852,"ekreasi":5853,"ohanan":5854,"PAK":5855,"Kemudian":5856,"hd":5857,"ĠCat":5858,"Ġbertemu":5859,"Ġcadangan":5860,"airan":5861,"Ġmeneg":5862,"ĠDENGAN":5863,"Ġpu":5864,"ĠTerbuka":5865,"Rah":5866,"urunan":5867,"ogol":5868,"Ġmemulakan":5869,"riz":5870,"ĠFirefox":5871,"Ġangkat":5872,"SAN":5873,"ertaan":5874,"Posted":5875,"Ġteruk":5876,"ĠPelancongan":5877,"Ġurusan":5878,"ĠOleh":5879,"ited":5880,"Ġhamil":5881,"ĠNak":5882,"industrian":5883,"Sed":5884,"Ġdidapati":5885,"me":5886,"Ġinf":5887,"erhana":5888,"con":5889,"ĠDua":5890,"ĠKin":5891,"ĠIran":5892,"aud":5893,"âĢ¦âĢ¦":5894,"url":5895,"XCMG":5896,"enyum":5897,"ekah":5898,"Ġmenyimpan":5899,"Ġfuck":5900,"ekaan":5901,"ania":5902,"Twitter":5903,"ĠSetar":5904,"Ġtunggal":5905,"WA":5906,"ancong":5907,"lebih":5908,"ĠKawasan":5909,"BANG":5910,"ĠPUB":5911,"ĠYah":5912,"Ġaman":5913,"ĠAudio":5914,"Ġfoto":5915,"ĠTe":5916,"iput":5917,"ÑģÐºÐ¸Ð¹":5918,"PortuguÃªs":5919,"Ġsesiapa":5920,"ĠRawatan":5921,"ĠSl":5922,"Ġkesalahan":5923,"ĠBil":5924,"gh":5925,"].":5926,"Ġpakar":5927,"ĠAidil":5928,"ĠSar":5929,"ĠJadi":5930,"Ġjualan":5931,"ĠComm":5932,"okus":5933,"ÑĥÑģÑģÐºÐ¸Ð¹":5934,"Ġmasak":5935,"ĠTon":5936,"Ġakses":5937,"Ġpengeluaran":5938,"ĠData":5939,"Ed":5940,"vens":5941,"OC":5942,"IG":5943,"ambung":5944,"ĠCl":5945,"Taman":5946,"umat":5947,"ĠTapi":5948,"ĠBeg":5949,"Ġ03":5950,"Ġkarbon":5951,"amakan":5952,"estim":5953,"yatakan":5954,"Ġdel":5955,"Ġpemandu":5956,"ajuan":5957,"elayakan":5958,"ĠPU":5959,"oriti":5960,"Iklan":5961,"iral":5962,"Ġgas":5963,"Tah":5964,"uge":5965,"owered":5966,"allah":5967,"embak":5968,"Ġpembungkusan":5969,"Ġsektor":5970,"top":5971,"ĠPeperiksaan":5972,"China":5973,"abungan":5974,"Le":5975,"untungan":5976,"Ġselesa":5977,"Ġaudio":5978,"AKLIMAT":5979,"ĠSteel":5980,"ĠHitam":5981,"ĠSecara":5982,"Ġkebenaran":5983,"Ferrari":5984,"elasan":5985,"uluh":5986,"ĠSUKAN":5987,"egah":5988,"ebihi":5989,"Ġdikenakan":5990,"AIAN":5991,"Ġdibawa":5992,"ibir":5993,"alt":5994,"eran":5995,"Pilihan":5996,"ehe":5997,"Dicatat":5998,"Ġkejayaan":5999,"Ġkaya":6000,"scrib":6001,"ĠIB":6002,"Indeks":6003,"angkau":6004,"Ġsehari":6005,"ĠTips":6006,"Ġperuntukan":6007,"Ġpast":6008,"ÙĬ":6009,"Ġsepak":6010,"ĠINI":6011,"Ġmiss":6012,"ĠPERS":6013,"imat":6014,"Ġsoal":6015,"ĠEX":6016,"taf":6017,"olls":6018,"CARA":6019,"ĠSetiausaha":6020,"lobe":6021,"Ġref":6022,"ĠIz":6023,"Ġkota":6024,"Ġdana":6025,"ĠVan":6026,"Ġkontrak":6027,"ĠMend":6028,"Ġberkesan":6029,"Seh":6030,"ampur":6031,"Share":6032,"KINI":6033,"adilan":6034,"ĠPenerangan":6035,"uning":6036,"Item":6037,"mal":6038,"sian":6039,"Jadual":6040,"ĠBl":6041,"ANJ":6042,"ĠBayi":6043,"Ġmenghadapi":6044,"istiwa":6045,"ĠBur":6046,"ĠFin":6047,"Ġpeserta":6048,"metik":6049,".......":6050,"Ġtump":6051,"KS":6052,"uduhan":6053,"Mod":6054,"Amat":6055,"ikin":6056,"LIC":6057,"TS":6058,"ulum":6059,"ĠSeni":6060,"Ibu":6061,"awei":6062,"Ġbarat":6063,"Ġ300":6064,"ĠSeksyen":6065,"Maklum":6066,"Ġusia":6067,"ĠSUL":6068,"akna":6069,"Ġtamp":6070,"Ġpe":6071,"ĠOTIS":6072,"ĠCR":6073,"Ġsehala":6074,"Ġperlawanan":6075,"yssen":6076,"Pos":6077,"Ġborang":6078,"ĠSuami":6079,"YAAN":6080,"Ġjumpa":6081,"EKS":6082,"fitri":6083,"eguam":6084,"ĠOut":6085,"denum":6086,"Ġlamp":6087,"itas":6088,"ebriti":6089,"uawei":6090,"osis":6091,"amily":6092,"ipi":6093,"chi":6094,"ĠMach":6095,"seb":6096,"emerlang":6097,"ĠBet":6098,"ĠTalian":6099,"Ġ2020":6100,"wi":6101,"ĠPaling":6102,"ovel":6103,"Ġpulau":6104,"ĠBantuan":6105,"ukun":6106,"ĠKetika":6107,"UBUNG":6108,"engku":6109,"araj":6110,"jana":6111,"ĠParti":6112,"Ġharian":6113,"ĠADN":6114,"Um":6115,"Ġdada":6116,"pel":6117,"elahiran":6118,"Ġmerasa":6119,"ĠManusia":6120,"Ġneg":6121,"Ġmenolak":6122,"300":6123,"anyol":6124,"Ġhartanah":6125,"ampus":6126,"work":6127,"Pakej":6128,"ĠMust":6129,"ĠSan":6130,"ipt":6131,"ingin":6132,"ĠSejarah":6133,"ĠBad":6134,"aklum":6135,"Ġsemuanya":6136,"Ġsempat":6137,"Ġhutang":6138,"FranÃ§ais":6139,"Ġkerosakan":6140,"Kej":6141,"adik":6142,"ĠBak":6143,"ĠPL":6144,"ĠKing":6145,"Ġpembangkang":6146,"Dua":6147,"ĠLi":6148,"Ð½":6149,"emasan":6150,"bil":6151,"ĠSemp":6152,"Ġmengk":6153,"Baca":6154,"Fat":6155,"ĠBlack":6156,"Ġkm":6157,"ĠTioman":6158,"anja":6159,"ĠCerita":6160,"ĠSWT":6161,"inding":6162,"ground":6163,"ĠDib":6164,"ĠMag":6165,"ĠBharu":6166,"Ġsize":6167,"urna":6168,"Ġav":6169,"oom":6170,"ĠAH":6171,"TIV":6172,"Ġitulah":6173,"ĠPenyakit":6174,"Islam":6175,"Ġ).":6176,"BP":6177,"iklop":6178,"Ġmendapati":6179,"day":6180,"Sunting":6181,"orth":6182,"dalam":6183,"Ġdisebut":6184,"hai":6185,"Ġbahwa":6186,"Ġover":6187,"Ġperbuatan":6188,"ukuman":6189,"Er":6190,"Ġseluar":6191,"olid":6192,"Ġpositif":6193,"AINAL":6194,"ISI":6195,"ĠCent":6196,"Ġmengangkat":6197,"Ġmenyer":6198,"ademik":6199,"Ġhujan":6200,"ĠArtikel":6201,"atch":6202,"ĠDig":6203,"usun":6204,"Ġmenikmati":6205,"awl":6206,"97":6207,"cord":6208,"yl":6209,"Ġ''":6210,"esh":6211,"ĠSelepas":6212,"ĠMenengah":6213,"Ġmelebihi":6214,"ungkinan":6215,"Bar":6216,"ĠSaid":6217,"enangi":6218,"Jeep":6219,"SUS":6220,"ĠDic":6221,"Ġditer":6222,"Ġdek":6223,"ĠMU":6224,"erbitkan":6225,"ĠKeretapi":6226,"Ġminum":6227,"embagaan":6228,"ĠADNAN":6229,"bar":6230,"Buat":6231,"TAK":6232,"asikan":6233,"Bagaimanapun":6234,"ĠSaf":6235,"ĠGlobe":6236,"Ġlembut":6237,"Malay":6238,"ĠHulu":6239,"ĠKulit":6240,"Ġkencing":6241,"cs":6242,"dir":6243,"alendar":6244,"anies":6245,"Dunia":6246,"ĠBandaraya":6247,"Ġjantung":6248,"APA":6249,"OW":6250,"ĠLab":6251,"inter":6252,"olog":6253,"ĠBerhad":6254,"Ġ(\"":6255,"KHIDM":6256,"ĠSUHAIMI":6257,"sche":6258,"lusif":6259,"ĠMOHD":6260,"Rawatan":6261,"MY":6262,"ĠLilin":6263,"ulusan":6264,"uha":6265,"irasi":6266,"ulas":6267,"Ġmini":6268,"entley":6269,"ĠTerlalu":6270,"angkaian":6271,"ebu":6272,"Ġ09":6273,"ĠPengajian":6274,"imewa":6275,"Ġkakitangan":6276,"ĠSub":6277,"ĠBilik":6278,"Ġresolusi":6279,"Europe":6280,"ĠPeta":6281,"Ġpercutian":6282,"uktikan":6283,"read":6284,"Ġtime":6285,"Ġmengangg":6286,"Tahun":6287,"ĠJika":6288,"lian":6289,"ĠSand":6290,"lamz":6291,"Ġer":6292,"ĠPERCUMA":6293,"KK":6294,"wpi":6295,"ĠSuruhanjaya":6296,"ĠSes":6297,"Ġpelakon":6298,"ĠBH":6299,"Ġorgan":6300,"ĠPolitik":6301,"ampiran":6302,"ĠLori":6303,"Ġbukanlah":6304,"ahari":6305,"endalikan":6306,"Ġkatakan":6307,"Ġlink":6308,"Ġkenal":6309,"atau":6310,"ody":6311,"nak":6312,"acy":6313,"NI":6314,"olehi":6315,"ĠPenyel":6316,"Pencapaian":6317,"Ġkerap":6318,"FO":6319,"Ġbermakna":6320,"egas":6321,"Ġkursus":6322,"ĠPersatuan":6323,"ĠCompany":6324,"ENAR":6325,"ĠSeorang":6326,"iasan":6327,"ĠRoad":6328,"ĠSUHAIDI":6329,"ALAH":6330,"ĠSO":6331,"ĠhitsAINAL":6332,"Ġmeneruskan":6333,"ĠRAM":6334,"ĠONLINE":6335,"add":6336,"zi":6337,"ĠSyed":6338,"sunting":6339,"Ġhalaman":6340,"Ġbest":6341,"Ġhujung":6342,"ĠGOLD":6343,"ĠChrome":6344,"Ġdibenarkan":6345,"kurang":6346,"kep":6347,"ical":6348,"ĠExplor":6349,"Ġnasihat":6350,"ĠHal":6351,"segmen":6352,"Aston":6353,"ĠLiga":6354,"sep":6355,"RAH":6356,"Ġhutan":6357,"ĠRepublik":6358,"afsir":6359,"CE":6360,"Ġgetah":6361,"Semasa":6362,"TAH":6363,"adangkan":6364,"ĠSHAK":6365,"eutsch":6366,"ĠSUK":6367,"Ġdlm":6368,"Ġmm":6369,"pas":6370,"Ġ35":6371,"Ġbersetuju":6372,"ents":6373,"ĠGigi":6374,"rif":6375,"azali":6376,"seorang":6377,"Ġstandard":6378,"ANTIKAN":6379,"INGKATAN":6380,"ektif":6381,"amed":6382,"atah":6383,"ĠPekerjaan":6384,"ĠGol":6385,"Ġrancang":6386,"anjir":6387,"Ġbatang":6388,"rive":6389,"Ġwakil":6390,"Sebenarnya":6391,"ebuh":6392,"Ġgo":6393,"ĠSunat":6394,"Ph":6395,"imbangan":6396,"Ġsgt":6397,"Ġjawapan":6398,"Pengangkutan":6399,"abda":6400,"ĠExplorer":6401,"Ġlet":6402,"Ġringkas":6403,"Ġhaiwan":6404,"Main":6405,"XX":6406,"sij":6407,"Ġperbandaran":6408,"Ġiklan":6409,"Rolls":6410,"ĠPiagam":6411,"CO":6412,"Ġmahkamah":6413,"lumb":6414,"Menu":6415,"Ġsaraf":6416,"Ġkekuatan":6417,"ulus":6418,"ĠSo":6419,"Ġbesi":6420,"mem":6421,"elda":6422,"ĠDip":6423,"negara":6424,"Ġterlebih":6425,"Ġpelajaran":6426,"Ġmenjejak":6427,"Perc":6428,"Ġberlangsung":6429,"ĠTet":6430,"Ġpesanan":6431,"SO":6432,"Ġpengangkutan":6433,"Ġfail":6434,"ĠTentera":6435,"Ġpilih":6436,"Ġkecamatan":6437,"Rakyat":6438,"ĠBorang":6439,"chronic":6440,"ĠPenghantaran":6441,"ours":6442,"ĠSlot":6443,"ĠTali":6444,"\\'":6445,"Bentley":6446,"aklumkan":6447,"Ġpembayaran":6448,"ATIHAN":6449,"Ġmemikirkan":6450,"uhammad":6451,"gerakan":6452,"Ġga":6453,"ĠPentadbiran":6454,"tab":6455,"estin":6456,"MO":6457,"putus":6458,"Komp":6459,"Ġmenonton":6460,"SAAN":6461,"Ġfikir":6462,"ĠRed":6463,"Ġpayudara":6464,"Ġjust":6465,"LG":6466,"ĠMELAYU":6467,"Ġmenunggu":6468,"Ġmanfaat":6469,"La":6470,"PBB":6471,"ĠEmail":6472,"Ġdidakwa":6473,"ĠPuasa":6474,"chronicz":6475,"Ġjanji":6476,"otosikal":6477,"All":6478,"Ġserius":6479,"ĠRAZIF":6480,"ĠKong":6481,"Ġprestasi":6482,"Ġbersih":6483,"ĠDaripada":6484,"ATU":6485,"ĠKelas":6486,"Ġmembuatkan":6487,"ulauan":6488,"eth":6489,"ĠKod":6490,"Ġdesa":6491,"board":6492,"Ulasan":6493,"Ġkecuali":6494,"Ġsholat":6495,"Bek":6496,"PD":6497,"Kini":6498,"ĠKrabi":6499,"Ġpesawat":6500,"Ðµ":6501,"ville":6502,"Ġreal":6503,"Ġseng":6504,"ĠPri":6505,"yh":6506,"Ġo":6507,"ĠKualiti":6508,"ĠUndang":6509,"Ġbarangan":6510,"ĠRay":6511,"ĠMurah":6512,"ikutan":6513,"PH":6514,"incin":6515,"ĠDe":6516,"Ġoff":6517,"Gr":6518,"ĠTas":6519,"72":6520,"iayaan":6521,"ĠRASLIN":6522,"69":6523,"itt":6524,"VIDEO":6525,"ĠPantai":6526,"ĠSHAH":6527,"lands":6528,"oreng":6529,"egahan":6530,"Ġcarian":6531,"ĠPerkara":6532,"web":6533,"cl":6534,"Ġalasan":6535,"Ġmisschronicz":6536,"engaruh":6537,"IND":6538,"Ġbukti":6539,"ello":6540,"Isu":6541,"Ġpandai":6542,"Latar":6543,"Ġsekeliling":6544,"Memang":6545,"erahkan":6546,"klusif":6547,"ĠBakar":6548,"ĠBook":6549,"Ġluas":6550,"ĠAstro":6551,"ĠDem":6552,"Perutusan":6553,"Ġpengundi":6554,"Ġsebaik":6555,"Ġ2007":6556,"ĠPUBLIC":6557,"ĠDARI":6558,"Ġsumbangan":6559,"Ġtunggu":6560,"ĠMain":6561,"izi":6562,"ĠHome":6563,"Ġusah":6564,"Ġstruktur":6565,"entar":6566,"acific":6567,"ĠPerbandaran":6568,"ambaran":6569,"Ġsebulan":6570,"Ġbertujuan":6571,"Halaman":6572,"Ġpur":6573,"ĠDoor":6574,"Keputusan":6575,"elahirkan":6576,"Ġwbt":6577,"tian":6578,"ĠPakej":6579,"Aduan":6580,"Ġkimia":6581,"ajat":6582,"SB":6583,"Ġprom":6584,"ives":6585,"Ġkab":6586,"ĠLagi":6587,"Ġmenyelesaikan":6588,"esbian":6589,"Ġaspek":6590,"Ġgear":6591,"play":6592,"Ġpantai":6593,"Ġop":6594,"untutan":6595,"emukakan":6596,"ugh":6597,"2013":6598,"Ġjiwa":6599,"Ġtinggalkan":6600,"Ġmodal":6601,"ĠBerh":6602,"Ġmemer":6603,"angkawi":6604,"Ġdadah":6605,"aglamz":6606,"uasan":6607,"Ġkemalangan":6608,"utuskan":6609,"endirian":6610,"Real":6611,"ĠHan":6612,"angnya":6613,"Ġsidang":6614,"Ġmeluas":6615,"Pe":6616,"\",\"":6617,"Ġ1024":6618,"IMP":6619,"baik":6620,"ĠCor":6621,"ĠOce":6622,"insip":6623,"DAF":6624,"elabur":6625,"Ġnasi":6626,"Seg":6627,"Ġputus":6628,"ĠMesyuarat":6629,"ĠKUR":6630,"ute":6631,"isiatif":6632,"Ġarahan":6633,"Ġsempena":6634,"ĠPesakit":6635,"Deutsch":6636,"Ġkomputer":6637,"Ġsamping":6638,"Ġder":6639,"ĠPengan":6640,"Ġberterusan":6641,"amalkan":6642,"IDUP":6643,"Ġacara":6644,"nin":6645,"aliano":6646,"ĠSalah":6647,"ĠBacaan":6648,"TERI":6649,"ĠPanas":6650,"ingkan":6651,"olar":6652,"Ġir":6653,"ĠGunung":6654,"Ġmenuju":6655,"Ġseny":6656,"Ġlancar":6657,"OGI":6658,"Ġmenyebut":6659,"ĠALLAH":6660,"uaikan":6661,"ĠRe":6662,"Ġsungai":6663,"ĠPemuda":6664,"Ġprivasi":6665,"ĠTanda":6666,"Ġkemahiran":6667,"ĠProt":6668,"Sal":6669,"ely":6670,"ĠKeluli":6671,"Krupp":6672,"yssenKrupp":6673,"outube":6674,"ĠKAD":6675,"ben":6676,"ucuk":6677,"dot":6678,"onen":6679,"Ġtiub":6680,"Ġdapatkan":6681,"Ġsanggup":6682,"EWAN":6683,"ĠAPI":6684,"Ġpelaksanaan":6685,"ĠPangk":6686,"aif":6687,"ĠBila":6688,"ampuran":6689,"Ġkomuniti":6690,"Phone":6691,"so":6692,"89":6693,"TEM":6694,"ĠKomuniti":6695,"ĠSubang":6696,"ĠDik":6697,"Ġsaluran":6698,"Ġsedangkan":6699,"ĠItu":6700,"Ġrequ":6701,"ascript":6702,"edan":6703,"mark":6704,"odenan":6705,"Ġprofil":6706,"kel":6707,"ĠPus":6708,"ĠAngk":6709,"ĠAnugerah":6710,"ĠMalam":6711,"Ġpon":6712,"Banyak":6713,"van":6714,"ĠHD":6715,"ĠSihat":6716,"otin":6717,"ĠPlus":6718,"urian":6719,"Ġhis":6720,"ings":6721,"Dapatkan":6722,"Ġmerujuk":6723,"ĠDesign":6724,"ĠPadang":6725,"enek":6726,"Ġpengajian":6727,"ĠReserved":6728,"$(":6729,"ĠKEJOHANAN":6730,"gent":6731,"emaran":6732,"Ġjenayah":6733,"abalu":6734,"ugeot":6735,"uasana":6736,"etil":6737,"Ġdibuka":6738,"Peralatan":6739,"urik":6740,"Ġlogo":6741,"Ġkebaikan":6742,"appy":6743,"Ġbercakap":6744,"Ġjepun":6745,"Ġakhbar":6746,"Ġcoklat":6747,"Ġinstitusi":6748,"yo":6749,"Pela":6750,"iklopedia":6751,"ĠJakarta":6752,"tapi":6753,"AGAI":6754,"ĠPenuh":6755,"uatkuasaan":6756,"Ġbermaksud":6757,"ĠBrit":6758,"perk":6759,"On":6760,"ĠKon":6761,"Email":6762,"Ġhere":6763,"ĠSebelum":6764,"62":6765,"ĠKak":6766,"lassi":6767,"ĠAidilfitri":6768,"ĠPB":6769,"ĠMazda":6770,"Ġbaki":6771,"ĠPutih":6772,"ĠISO":6773,"ĠBut":6774,"Ġgila":6775,"Ġidea":6776,"54":6777,"ĠPermainan":6778,"Ġmemberitahu":6779,"macam":6780,"elesaian":6781,"ĠSens":6782,"Meny":6783,"Ġduk":6784,"Ġdilantik":6785,"andat":6786,"IJ":6787,"dari":6788,"Kek":6789,"ĠSLE":6790,"BAH":6791,"dnk":6792,"Ġbt":6793,"sifat":6794,"endi":6795,"oss":6796,"Ġ08":6797,"Ġmengandung":6798,"Ġmendakwa":6799,"Ġjangka":6800,"aily":6801,"Ġletak":6802,"Ġawak":6803,"Counter":6804,"Ġdokumen":6805,"Ġsaham":6806,"ÙĨ":6807,"ĠUlasan":6808,"Ġmoden":6809,"Ġpantas":6810,"ĠAvis":6811,"eknikal":6812,"Ġpendek":6813,"andung":6814,"Ġsec":6815,"ĠAyam":6816,"Ġbernilai":6817,"ĠSig":6818,"ĠMenggunakan":6819,"Seorang":6820,"ago":6821,"Ġdipanggil":6822,"ĠTender":6823,"lag":6824,"ĠMozilla":6825,"ĠCO":6826,"ĠSELANGOR":6827,"isian":6828,"Ġterbabit":6829,"Ġmenangis":6830,"ĠHukum":6831,"iw":6832,"Ġmengawal":6833,"olyb":6834,"So":6835,"ĠWah":6836,"sub":6837,"aikkan":6838,"Ġ500":6839,"utanan":6840,"Ġfizikal":6841,"Italiano":6842,"ume":6843,"ier":6844,"Ir":6845,"Ġmau":6846,"ugian":6847,"onic":6848,"Ġout":6849,"Ġcel":6850,"Ger":6851,"Lat":6852,"bb":6853,"Ġbu":6854,"utar":6855,"anggu":6856,"oles":6857,"jan":6858,"ĠAvisena":6859,"ets":6860,"TD":6861,"Ġmengapa":6862,"tentang":6863,"Ġkoleksi":6864,"SEKOLAH":6865,"ajang":6866,"main":6867,"cer":6868,"ĠhitsNor":6869,"ĠJangan":6870,"......":6871,"Amateur":6872,"embira":6873,"adbod":6874,"Koleksi":6875,"ĠBeb":6876,"ĠPengangkutan":6877,"ĠBLOG":6878,"Ġmenjelaskan":6879,"cayaan":6880,"Ġdihad":6881,"Ġinter":6882,"ĠJavascript":6883,"ĠPeti":6884,"ĠICT":6885,"ĠJul":6886,"entangan":6887,"Ġprofesional":6888,"elong":6889,"ENSI":6890,"abib":6891,"Off":6892,"ENTERI":6893,"ategik":6894,"buat":6895,"Ġli":6896,"ĠBINTI":6897,"obil":6898,"Bi":6899,"sw":6900,"ĠKursus":6901,"uasai":6902,"Ġpembelian":6903,"ĠMisi":6904,"Lokasi":6905,"ĠMore":6906,"ĠNEGARA":6907,"NYA":6908,"ĠAsli":6909,"Ġdr":6910,"alih":6911,"Ġmonths":6912,"ĠCukai":6913,"ĠRemaja":6914,"ĠIrine":6915,"79":6916,"aff":6917,"Ġtangga":6918,"ĠSHAKLEE":6919,"Ġcom":6920,"Walau":6921,"II":6922,"PEMB":6923,"pem":6924,"')":6925,"ederaan":6926,"orks":6927,"Qur":6928,"ll":6929,"eoCounter":6930,"ehat":6931,"ĠIlmu":6932,"enoid":6933,"aram":6934,"ĠSepanyol":6935,"UBUNGI":6936,"tah":6937,"ISAN":6938,"Ġmemandang":6939,"ĠRus":6940,"Ġberkahwin":6941,"Category":6942,"rane":6943,"ĠGR":6944,"ĠBarisan":6945,"Ġartis":6946,"Ġmenjual":6947,"apis":6948,"Minggu":6949,"Ġkonsep":6950,"INA":6951,"Ġpener":6952,"ĠLah":6953,"Ġentry":6954,"ĠRights":6955,"ikro":6956,"ze":6957,"ĠTarikh":6958,"Pengumuman":6959,"Ġye":6960,"ulaan":6961,"ANTU":6962,"\").":6963,"âĢĿ.":6964,"Ġmenyampaikan":6965,"Ġrezeki":6966,"eview":6967,"ĠSL":6968,"Ġ~":6969,"ĠIP":6970,"ĠPelajaran":6971,"Ġgula":6972,"ouble":6973,"Africa":6974,"room":6975,"Ġmenghitung":6976,"Royce":6977,"Ġwh":6978,"ĠAkan":6979,"ĠPos":6980,"nis":6981,"ever":6982,"ocument":6983,"itus":6984,"Ġbec":6985,"ancer":6986,"ĠSearch":6987,"Tanpa":6988,"ange":6989,"Ġ768":6990,"ĠKlang":6991,"ulung":6992,"ĠTID":6993,"Mari":6994,"ederlands":6995,"Ġbang":6996,"acu":6997,"Ġens":6998,"Ġpermintaan":6999,"ESI":7000,"ISMA":7001,"Ġdalaman":7002,"IRAN":7003,"ĠPetani":7004,"ailab":7005,"we":7006,"ĠFaiz":7007,"uruf":7008,"uruteraan":7009,"ĠKit":7010,"ĠPergigian":7011,"uduh":7012,"Ġberfungsi":7013,"ĠPark":7014,"yakinan":7015,"lines":7016,"orsche":7017,"TIM":7018,"Ġmenyak":7019,"ĠAntara":7020,"enaihati":7021,"ĠItali":7022,"ahi":7023,"emar":7024,"ahankan":7025,"ova":7026,"pos":7027,"Dem":7028,"ternatif":7029,"EX":7030,"Ġhukuman":7031,"epaskan":7032,"Ġrup":7033,"Ġrasuah":7034,"Ġwhat":7035,"Ġkot":7036,"EST":7037,"ahawan":7038,"Ġwatak":7039,"dara":7040,"ĠZaman":7041,"tiga":7042,"urunkan":7043,"oket":7044,"ĠBritish":7045,"ĠOperasi":7046,"ĠElektr":7047,"ĠMH":7048,"ĠSepak":7049,"Ġpelik":7050,"adam":7051,"Ġpintar":7052,"Ġimp":7053,"Ġucapan":7054,"olybdenum":7055,"Ġ1997":7056,"Ġkakak":7057,"KEJ":7058,"Ġbutiran":7059,"ewat":7060,"embar":7061,"AGIAN":7062,"iring":7063,"anggar":7064,"tn":7065,"ĻŁ":7066,"îĻŁ":7067,"Bisnes":7068,"epasan":7069,"ĠLirik":7070,"elle":7071,"ailable":7072,"Ġkelak":7073,"KHIDMATAN":7074,"Ġ32":7075,"Ġsunnah":7076,"ĠEr":7077,"ĠLin":7078,"ping":7079,"Kawasan":7080,"rus":7081,"esuaikan":7082,"----":7083,"ĠKinabalu":7084,"Ġtangk":7085,"masi":7086,"ĠIa":7087,"style":7088,"esaran":7089,"ĠOf":7090,"âĢĺ":7091,"indow":7092,"Ġmemegang":7093,"APAN":7094,"amm":7095,"Ġdara":7096,"Ġsampah":7097,"Ġdiketahui":7098,"ĠMor":7099,"important":7100,"tidak":7101,"ĠPaparan":7102,"This":7103,"tukar":7104,"Ġpuas":7105,"Lelaki":7106,"You":7107,"ĠSerb":7108,"Akhir":7109,"Ġjari":7110,"Ġwar":7111,"Ġtambah":7112,"ĠMu":7113,"acang":7114,"SU":7115,"Ã¡":7116,"ĠØ":7117,"ĠPasaran":7118,"ĠPUT":7119,"ahulu":7120,"Ġpanggilan":7121,"Ġsemata":7122,"anakah":7123,"Ġmemenangi":7124,"jazah":7125,"post":7126,"hal":7127,"ĠGroup":7128,"ĠKuasa":7129,"ĠPENYELAR":7130,"Ġinci":7131,"MU":7132,"ĠSETI":7133,"ondon":7134,"ĠEv":7135,"bers":7136,"Ð»":7137,"ĠEm":7138,"left":7139,"Lagu":7140,"KAM":7141,"Ġkarya":7142,"inah":7143,"Ġbantu":7144,"Ġteknik":7145,"Ġbrow":7146,"ANC":7147,"stem":7148,"Ġsimp":7149,"Ġpinggang":7150,"ĠCab":7151,"Ġgue":7152,"350":7153,"Ġsempurna":7154,"ĠGT":7155,"Ġmemakai":7156,"ickup":7157,"Ġmewah":7158,"Ġco":7159,"imah":7160,"NA":7161,"osh":7162,"ĠÃĹ":7163,"ĠMEI":7164,"Ġjur":7165,"Langkau":7166,"ĠPerempuan":7167,"Ġpeningkatan":7168,"ĠTAK":7169,"ĠKelab":7170,"ible":7171,"Ġtimur":7172,"mis":7173,"ĠPENYELARASAN":7174,"ĠHe":7175,"Ġmenentang":7176,"Ġresult":7177,"Ġkahwin":7178,"eda":7179,"FC":7180,"63":7181,"Ist":7182,"ekutif":7183,"ingkap":7184,"Ġperlindungan":7185,"BUK":7186,"ĠDarah":7187,"ĠIsu":7188,"Ġrama":7189,"Ġ45":7190,"kod":7191,"ĠTanjung":7192,"ters":7193,"usion":7194,"Penerbitan":7195,"Ġbilangan":7196,"tory":7197,"Objektif":7198,"ĠPinjaman":7199,"ĠRom":7200,"Ment":7201,"ĠBM":7202,"aih":7203,"Ġhamba":7204,"utkan":7205,"ager":7206,"Pembekal":7207,"UJ":7208,"Ġesok":7209,"Ġkitab":7210,"ĠNaz":7211,"Ø§ÙĦ":7212,"ĠInfo":7213,"ĠDak":7214,"ĠSigma":7215,"Ġview":7216,"Ġperaturan":7217,"Ġmengekalkan":7218,"Se":7219,"irus":7220,"akum":7221,"iano":7222,"Ġdihasilkan":7223,"Mohd":7224,"ĠGadis":7225,"Ġgunakan":7226,"ĠAy":7227,"Ġlam":7228,"ĠMSSD":7229,"Ġmesyuarat":7230,"ovasi":7231,"Bay":7232,"Dit":7233,"Ġperanti":7234,"LER":7235,"Ġmekan":7236,"ĠBERK":7237,"tahun":7238,"ĠKEPADA":7239,"ĠTiub":7240,"injam":7241,"Ġta":7242,"incang":7243,"led":7244,"Ġaliran":7245,"Aplikasi":7246,"off":7247,"angit":7248,"ambang":7249,"BERITA":7250,"eher":7251,"ekitaran":7252,"Ġmelahirkan":7253,"ashaari":7254,"64":7255,"afir":7256,"ĠMUH":7257,"ĠMun":7258,"ĠJualan":7259,"Ġtradisional":7260,"Ġisti":7261,"ucky":7262,"ĠLTE":7263,"enggaraan":7264,"ĠHassan":7265,"AINS":7266,"Ġkongsi":7267,"Ġkain":7268,"ene":7269,"elai":7270,"ĠAdam":7271,"ĠBajet":7272,"urikulum":7273,"Ġlike":7274,"ĠBy":7275,"Nederlands":7276,"Ġajaran":7277,"Ġdipilih":7278,"Ġmenges":7279,"Ġringan":7280,"ARIK":7281,"Ġkeuntungan":7282,"Ġbagus":7283,"Ġdaun":7284,"mula":7285,"ĠWire":7286,"ĠMenc":7287,"ganya":7288,"Ġjamb":7289,"Ġbernama":7290,"UTAN":7291,"ainkan":7292,"ake":7293,"51":7294,"Ġmenangani":7295,"Ġdif":7296,"Beb":7297,"Ġberani":7298,"Ġuang":7299,"but":7300,"tivasi":7301,"ĠTentang":7302,"ĠMemp":7303,"ĠGear":7304,"UC":7305,"hirt":7306,"kalau":7307,"clus":7308,"Ġerti":7309,"ĠBalas":7310,"ĠBot":7311,"Ġbangun":7312,"UG":7313,"ilm":7314,"iskin":7315,"Ramai":7316,"ĠMENTERI":7317,"ĠTempatan":7318,"ative":7319,"endang":7320,"Ġtulisan":7321,"Ġsensitif":7322,"cess":7323,"ĠAmir":7324,"Ġpertandingan":7325,"udit":7326,"ĠTravel":7327,"eria":7328,"pap":7329,"Ġmembenarkan":7330,"ĠPan":7331,"ĠBUK":7332,"Ġesk":7333,"Ġcontent":7334,"Keh":7335,"ewah":7336,"ĠEnjin":7337,"Ġmengenal":7338,"ĠDes":7339,"Ġsaid":7340,"ANTA":7341,"onok":7342,"AJAR":7343,"ĠMic":7344,"Macam":7345,"asiswa":7346,"MP":7347,"iyah":7348,"Daripada":7349,"Ġtimbul":7350,"ecair":7351,"jur":7352,"Ġbaginda":7353,"Raja":7354,"Ġadakah":7355,"otensi":7356,"Ubat":7357,"Ġlilin":7358,"impikan":7359,"ucu":7360,"ĠAwani":7361,"angkit":7362,"kurangnya":7363,"Ġlaw":7364,"Ġall":7365,"alai":7366,"Ġ80":7367,"ĠPengg":7368,"ĠUstadz":7369,"ĠKOTA":7370,"AKIT":7371,"dom":7372,"ongsikan":7373,"Pilih":7374,"mara":7375,"Ġtujuh":7376,"Ġbuka":7377,"71":7378,"Ġketingg":7379,"Ġhijau":7380,"Butiran":7381,"Ġgigi":7382,"73":7383,"kandar":7384,"elit":7385,"ĠPerhentian":7386,"Hai":7387,"ĠHotels":7388,"Ġpop":7389,"andangkan":7390,"umiput":7391,"come":7392,"val":7393,"lelaki":7394,"Ġbertanding":7395,"Ġperjuangan":7396,"ĠMulut":7397,"ITA":7398,"mod":7399,"uatkan":7400,"Ġensiklopedia":7401,"EE":7402,"Ġmengikuti":7403,"Pekeliling":7404,"ĠLo":7405,"KT":7406,"imau":7407,"Ġmembalas":7408,"Ġmuzik":7409,"Ġujar":7410,"ross":7411,"Ġmal":7412,"ĠDh":7413,"ĠCom":7414,"ĠMesir":7415,"rafik":7416,"Ġwa":7417,"Ġpembelajaran":7418,"ĠHalaman":7419,"Ġbersedia":7420,"GB":7421,"Kos":7422,"Ġdaftar":7423,"ĠMohamed":7424,"edding":7425,"Ġpenjagaan":7426,"Ġaj":7427,"urni":7428,"Ġsederhana":7429,"ĠîĻŁ":7430,"deka":7431,"Ġmemudahkan":7432,"Black":7433,"ĠMasyarakat":7434,"oktor":7435,"AJI":7436,"ooth":7437,"the":7438,"idebar":7439,"ombak":7440,"illar":7441,"entikan":7442,"peed":7443,"ematik":7444,"enzhen":7445,"ĠUp":7446,"Ġalamat":7447,"ĠTekanan":7448,"ĠInf":7449,"embahan":7450,"engaran":7451,"udang":7452,"OB":7453,"Tender":7454,"Ġflange":7455,"Ġcont":7456,"Ġrapat":7457,"ĠPickup":7458,"ĠPERJ":7459,"uliah":7460,"lumbalas":7461,"urung":7462,"rc":7463,"omba":7464,"Ġtertinggi":7465,"Ġeskalator":7466,"sikan":7467,"Pengalaman":7468,"Pakaian":7469,"ahaman":7470,"By":7471,"ĠZakar":7472,"Ġsekurang":7473,"150":7474,"Ġcuti":7475,"Ġhave":7476,"ĠPenumpang":7477,"Ġkut":7478,"Ġkiri":7479,"light":7480,"Pembangunan":7481,"ubaan":7482,"Ġkemenangan":7483,"Ġits":7484,"ĠTIDAK":7485,"Ġfree":7486,"kit":7487,"ĠBiasa":7488,"Te":7489,"ĠPE":7490,"Ġberdiri":7491,"TAS":7492,"ĠPat":7493,"imer":7494,"Ġavailable":7495,"ĠMED":7496,"anjutnya":7497,"erluan":7498,"clusive":7499,"Siasatan":7500,"ĠRAH":7501,"Ġemel":7502,"Ġcerai":7503,"Ġbengk":7504,"angkraf":7505,"Bul":7506,"Ġberakhir":7507,"Ġdilaporkan":7508,"Ġterper":7509,"enggara":7510,"He":7511,"idupan":7512,"ancaran":7513,"Ġseminggu":7514,"Ġmengubah":7515,"Ġengk":7516,"ĠMER":7517,"ĠSilver":7518,"sek":7519,"ĠStar":7520,"Aut":7521,"Ġminat":7522,"ĠCy":7523,"ĠRo":7524,"ĠPOL":7525,"ïģ":7526,"iner":7527,"Ġperlahan":7528,"Dewan":7529,"Semoga":7530,"ĠAgung":7531,"intahan":7532,"ĠShe":7533,"ause":7534,"ĠPelak":7535,"ormati":7536,"Negara":7537,"elasa":7538,"Stesen":7539,"Ġpembaca":7540,"Ġtolong":7541,"sem":7542,"Ġsituasi":7543,"Ġkempen":7544,"ols":7545,"ĠTengku":7546,"HIB":7547,"adia":7548,"Ġlar":7549,"iji":7550,"ĠTahunan":7551,"Komun":7552,"ĠCari":7553,"MDB":7554,"Ġseparuh":7555,"AJAH":7556,"gentina":7557,"Ġtingkat":7558,"ekap":7559,"Ġgangguan":7560,"etes":7561,"ĠFL":7562,"PSR":7563,"îĺ":7564,"ĠSholat":7565,"400":7566,"Ġfesyen":7567,"upaten":7568,"ĠPerang":7569,"ĠCE":7570,"alnya":7571,"ĠJawab":7572,"ĠBes":7573,"Ġsisi":7574,"ces":7575,"ĠSent":7576,"ĠMobile":7577,"ĠSpr":7578,"ĠLong":7579,"Ġmewujudkan":7580,"IMA":7581,"ĠTINGG":7582,"ĠAsas":7583,"Web":7584,"Ġberfikir":7585,"uahkan":7586,"Ġterasa":7587,"ty":7588,"ĠMasalah":7589,"Peluang":7590,"ambarkan":7591,"ĠMY":7592,"Ġkehad":7593,"Ġbrowser":7594,"hab":7595,"sedur":7596,"ĠAmerica":7597,"adium":7598,"Type":7599,"Ġkadang":7600,"ĠFila":7601,"ĠMe":7602,"ĠRoh":7603,"detil":7604,"ĠSaudi":7605,"rent":7606,"ĠHutan":7607,"ĠBudaya":7608,"illi":7609,"olum":7610,"ĠBOLA":7611,"ĠBisnes":7612,"for":7613,"Ġpromosi":7614,"ote":7615,"ĠPerhutanan":7616,"ampi":7617,"akkan":7618,"About":7619,"Ġpan":7620,"Ġsalam":7621,"iki":7622,"Porsche":7623,"ĠSakit":7624,"ĠDijual":7625,"ĠHakim":7626,"Ġbiar":7627,"ĠDrive":7628,"Mu":7629,"Ġet":7630,"ĠKhalid":7631,"Ġpantat":7632,"ĠKons":7633,"ĠKawalan":7634,"Ġdosa":7635,"Mengh":7636,"ĠÐ":7637,"ĠBerat":7638,"usteru":7639,"Ġ`":7640,"ĠRusia":7641,"oba":7642,"eras":7643,"ĠGate":7644,"Ġdimana":7645,"edera":7646,"Ġmaju":7647,"Peugeot":7648,"Ġjentera":7649,"ĠFelda":7650,"Alhamdulillah":7651,"ĠPenjagaan":7652,"ĠBest":7653,"ogram":7654,"Ġhany":7655,"Ġpah":7656,"ĠYork":7657,"!!!":7658,"ĠWord":7659,"ayangan":7660,"esis":7661,"ĠMax":7662,"ĠTruck":7663,"ĠLesen":7664,"Ġvs":7665,"Salah":7666,"hluk":7667,"ÂŃ":7668,"ĠZan":7669,"Ġkn":7670,"Ġ70":7671,"Ġseolah":7672,"ĠAmalan":7673,"Ġteruskan":7674,"dai":7675,"ĠKedua":7676,"ĠPeralatan":7677,"ĠKUALA":7678,"akta":7679,"Ġmengelakkan":7680,"Ġplatform":7681,"Ġmahupun":7682,"ĠRob":7683,"Qu":7684,"Ġpember":7685,"Ġsesetengah":7686,"adh":7687,"Ġperbincangan":7688,"Ġsetakat":7689,"ĠPromosi":7690,"unei":7691,"Ġday":7692,"Ġmengumumkan":7693,"bahan":7694,"ÃŃ":7695,"Ġhat":7696,"ĠKenapa":7697,"oli":7698,"Ġaset":7699,"Ġkerugian":7700,"ĠYDP":7701,"ihal":7702,"Ġkeutamaan":7703,"idangan":7704,"bila":7705,"aisal":7706,"ĠSewaan":7707,"ego":7708,"Ġemp":7709,"reatif":7710,"erk":7711,"Ġ1995":7712,"ister":7713,"Ġsedap":7714,"Ġtrend":7715,"sara":7716,"ĠPolisi":7717,"ĠNetwork":7718,"ann":7719,"Ras":7720,"ĠPemulihan":7721,"Ġtaman":7722,"Ġsunat":7723,"Seri":7724,"Ġgak":7725,"2012":7726,"Ġmore":7727,"Ġcuri":7728,"ASIONAL":7729,"isy":7730,"Ġtarikan":7731,"Ġjaga":7732,"ĠMi":7733,"UAL":7734,"Kedai":7735,"iktirafan":7736,"amsung":7737,"emput":7738,"ĠLangkawi":7739,"Ġpart":7740,"Perniagaan":7741,"ĠAlih":7742,"ĠMELAKA":7743,"Ġberhampiran":7744,"idb":7745,"Skip":7746,"Ġstoking":7747,"Kerja":7748,"Ġengkau":7749,"oven":7750,"Filem":7751,"exico":7752,"Ġmerangk":7753,"ĠBerd":7754,"ĠMari":7755,"Ġform":7756,"date":7757,"umiputera":7758,"ĠSebab":7759,"ĠSud":7760,"tukaran":7761,"Ġsuam":7762,"tro":7763,"otoran":7764,"ĠPerumahan":7765,"eneral":7766,"esif":7767,"ofa":7768,"Surat":7769,"ĠKisah":7770,"Ġmenutup":7771,"Ġgembira":7772,"Ġmenyel":7773,"Ġadmin":7774,"Ġkemudiannya":7775,"Tutup":7776,"ĠBersatu":7777,"ĠCantik":7778,"Con":7779,"otot":7780,"Ġmembunuh":7781,"ĠSINI":7782,"Ib":7783,"asas":7784,"DE":7785,"Ġnabi":7786,"Dik":7787,"elabuhan":7788,"esahan":7789,"OLOGI":7790,"Ġmenghargai":7791,"ĠLee":7792,"aul":7793,"iro":7794,"intai":7795,"lap":7796,"Ġev":7797,"ecent":7798,"ĠTahu":7799,"ilapan":7800,"IMAN":7801,"Ġmemasuki":7802,"LAN":7803,"Ġcabaran":7804,"ĠHong":7805,"ĠSP":7806,"\"}.":7807,"uaian":7808,"Mont":7809,"untikan":7810,"roll":7811,"ating":7812,"Ġmengak":7813,"utiara":7814,"kisah":7815,"Ġdaging":7816,"ĠWhats":7817,"ilikon":7818,"uncit":7819,"wpidb":7820,"Ġmengemb":7821,"ĠGST":7822,"Perh":7823,"Ġberikutan":7824,"Buka":7825,"Ġdihantar":7826,"istal":7827,"ĠPul":7828,"Ġlemak":7829,"Ġmag":7830,"ĠSaw":7831,"astera":7832,"ĠHj":7833,"Ġbro":7834,"ĠBab":7835,"latan":7836,"Wh":7837,"Ġberminat":7838,"Ġberpend":7839,"ombongan":7840,"orry":7841,"ĠAri":7842,"omotif":7843,"ZZ":7844,"Ġaduan":7845,"ampas":7846,"ĠPIN":7847,"ĠEK":7848,"ĠKPM":7849,"orkan":7850,"uluskan":7851,"Kad":7852,"ĠWar":7853,"Ġmeterai":7854,"ĠING":7855,"ĠPerindustrian":7856,"ĠSokongan":7857,"Ġkepadanya":7858,"mimpikan":7859,"less":7860,"Tet":7861,"key":7862,"tt":7863,"hor":7864,"color":7865,"ĠCustom":7866,"Ġrunnerseven":7867,"Dimimpi":7868,"ĠDiraja":7869,"ĠProjek":7870,"Kaedah":7871,"Pengenalan":7872,"ĠHana":7873,"ufti":7874,"ĠHadi":7875,"Ġraja":7876,"74":7877,"ayasan":7878,"SY":7879,"ĠMc":7880,"Seperti":7881,"Ġsasaran":7882,"akili":7883,"Visi":7884,"Ġ2005":7885,"ĠMusa":7886,"kem":7887,"ĠBerp":7888,"ĠSam":7889,"ĠTag":7890,"Ġpenginapan":7891,"ĠBo":7892,"URL":7893,"list":7894,"Ġtema":7895,"kif":7896,"Ġdawai":7897,"umpah":7898,"ĠBR":7899,"ĠBlu":7900,"ourt":7901,"zim":7902,"layer":7903,"Misi":7904,"Ġmakin":7905,"ĠGen":7906,"Kampung":7907,"Ġditubuhkan":7908,"AAAA":7909,"Ġ59":7910,"ĠTurki":7911,"ĠKhair":7912,"Ġterkejut":7913,"Ġ2006":7914,"itud":7915,"venska":7916,"ĠMUR":7917,"ĠARIF":7918,"Ġtand":7919,"Lapangan":7920,"ĠLapangan":7921,"rakan":7922,"hak":7923,"kadang":7924,"incangkan":7925,"Ġdubur":7926,"Ġmenentukan":7927,"ĠDAR":7928,"Ġanaknya":7929,"Ġmenyaksikan":7930,"ompok":7931,"Ġapp":7932,"ĠCal":7933,"ats":7934,"aint":7935,"DUN":7936,"iver":7937,"Baru":7938,"ĠDel":7939,"Ġmom":7940,"tim":7941,"Ġneed":7942,"IMB":7943,"ĠLand":7944,"85":7945,"ĠKD":7946,"ipis":7947,"ĠInstitut":7948,"EAN":7949,"ĠArchive":7950,"ĠPad":7951,"ĠPCB":7952,"zakar":7953,"ĠUndangan":7954,"Ġpenumpang":7955,"Ġwant":7956,"Ġkehadiran":7957,"pergi":7958,"ĠKEH":7959,"Ġmerancang":7960,"ietnam":7961,"Ram":7962,"length":7963,"Ġbimb":7964,"Ġrelau":7965,"Ġbunyi":7966,"Show":7967,"ĠDigital":7968,"ĠAduan":7969,"Ġdakwaan":7970,"Pihak":7971,"Ġpusingan":7972,"Ġmental":7973,"Ġinilah":7974,"KEJOHANAN":7975,"Ġberper":7976,"ebasan":7977,"atuhi":7978,"ĠPN":7979,"ĠDah":7980,"Ġskrin":7981,"Ġdarjah":7982,"Ġmet":7983,"Ġnew":7984,"ĠBelanda":7985,"Ġpendaftaran":7986,"ildren":7987,"ĠBerj":7988,"bel":7989,"erm":7990,"Kerana":7991,"salam":7992,"onan":7993,"Ġ,\"":7994,"ORT":7995,"Ġteb":7996,"naf":7997,"Ġtepi":7998,"Sudah":7999,"ĠSUNG":8000,"NOOR":8001,"Kemudahan":8002,"ĠMA":8003,"ĠCre":8004,"Bandar":8005,"itec":8006,"ĠBen":8007,"Ġpertumbuhan":8008,"ĠPelawat":8009,"egar":8010,"Ġbertambah":8011,"'t":8012,"link":8013,"Blogger":8014,"idin":8015,"Tun":8016,"Polski":8017,"WAR":8018,"uching":8019,"uaca":8020,"enting":8021,"Ġkucing":8022,"See":8023,"Ġpertanian":8024,"fol":8025,"Ġroda":8026,"iklanan":8027,"Ġsuhu":8028,"antara":8029,"ĠOmar":8030,"Ġbukannya":8031,"Ġsudut":8032,"Ġ),":8033,"Ġkunci":8034,"ĠTop":8035,"ĠKemahiran":8036,"Ġmon":8037,"Ġ1438":8038,"Ġbenih":8039,"Makan":8040,"lama":8041,"Ġpersoalan":8042,"Ġtelinga":8043,"MENG":8044,"Ġklip":8045,"Ġpihaknya":8046,"Ġtersenyum":8047,"ĠAwang":8048,"Projek":8049,"iam":8050,"Ġjarak":8051,"agon":8052,"Ġrekod":8053,"Sl":8054,"aktor":8055,"ĠKecantikan":8056,"ayakan":8057,"Ġ%":8058,"ĠSETIA":8059,"Ġbatuk":8060,"Ġresp":8061,"ĠTerma":8062,"PUT":8063,"ORANG":8064,"bahagian":8065,"ĠHyundai":8066,"endaki":8067,"ohan":8068,"apakah":8069,"Ġsent":8070,"Menteri":8071,"afe":8072,"Ġpatut":8073,"ĠTerakhir":8074,"ĠTrip":8075,"Nur":8076,"Rekod":8077,"Ġhttps":8078,"MAKLUM":8079,"ĠPendaftaran":8080,"HAR":8081,"yap":8082,"'.":8083,"ĠWarna":8084,"AMMAD":8085,"bot":8086,"Svenska":8087,"Ġother":8088,"Ġmu":8089,"Teknologi":8090,"ĠFaisal":8091,"lander":8092,"isma":8093,"afah":8094,"Ġbunuh":8095,"ĠKerjaya":8096,"estimoni":8097,"Ġdemam":8098,"ould":8099,"ĠMov":8100,"Ġskip":8101,"BENGKEL":8102,"Ekonomi":8103,"aaa":8104,"intas":8105,"erial":8106,"efin":8107,"ondok":8108,"ĠAnti":8109,"ENGGAN":8110,"Nik":8111,"Mag":8112,"Ġmengatasi":8113,"Dah":8114,"Ġkemungkinan":8115,"ĠReg":8116,"acara":8117,"Ġreg":8118,"ukuh":8119,"verter":8120,"Ġberasa":8121,"How":8122,"ĠRod":8123,"ĠDipert":8124,"Ġsidebar":8125,"Ġkelab":8126,"ÑĤ":8127,"Ġef":8128,"Ġrujukan":8129,"Ġanjing":8130,"Ġperak":8131,"ĠJas":8132,"skip":8133,"Ġlapangan":8134,"ĠSAINS":8135,"FORM":8136,"Ġpengunjung":8137,"::":8138,"ĠKADET":8139,"ĠMEM":8140,"edu":8141,"Betul":8142,"dia":8143,"omest":8144,"ĠShenzhen":8145,"ĠEmp":8146,"SELAMAT":8147,"Com":8148,"Ġsebagaimana":8149,"ĠUL":8150,"ĠDin":8151,"ĠMEMB":8152,"Ġperjanjian":8153,"Ġtumpuan":8154,"CEP":8155,"Ġinisiatif":8156,"Penjagaan":8157,"ukang":8158,"Ġdes":8159,"Tab":8160,"Ġkelebihan":8161,"ĠTenaga":8162,"ĠZH":8163,"Pulau":8164,"ilipina":8165,"PÑĥÑģÑģÐºÐ¸Ð¹":8166,"nan":8167,"ĠAmeric":8168,"asiti":8169,"Col":8170,"ĠSamp":8171,"Ġberumur":8172,"imbulkan":8173,"ĠPalestin":8174,"ĠSD":8175,"ĠBro":8176,"ILIHAN":8177,"emban":8178,"Berd":8179,"tinggi":8180,"Ġpeperiksaan":8181,"Ġrata":8182,"emproses":8183,"LD":8184,"akaian":8185,"Ġmasukkan":8186,"Contact":8187,"Ġleher":8188,"afikan":8189,"Ġep":8190,"zahrul":8191,"ĠhitsNorzahrul":8192,"ĠZanadanan":8193,"gmail":8194,"PJ":8195,"Kap":8196,"inium":8197,"Pemodenan":8198,"61":8199,"Sun":8200,"asang":8201,"KRS":8202,"Ġabu":8203,"AMP":8204,"Ġdrama":8205,"Ġmengamalkan":8206,"Ġtulang":8207,"ĠComments":8208,"Ġmotosikal":8209,"ĠSER":8210,"Put":8211,"Ġfitnah":8212,"ĠKomunikasi":8213,"HAT":8214,"ated":8215,"nia":8216,"untukkan":8217,"egriti":8218,"Ġuk":8219,"Ġberkembang":8220,"ĠJenayah":8221,"816":8222,"ĠFA":8223,"erap":8224,"Ġpengenalan":8225,"Ġmajoriti":8226,"Ġbahkan":8227,"wood":8228,"rist":8229,"Promosi":8230,"Jam":8231,"gambar":8232,"iarkan":8233,"imen":8234,"ummer":8235,"Ġanugerah":8236,"Ġmenu":8237,"SITI":8238,"eland":8239,"ajahan":8240,"Ġpapan":8241,"Ġdisini":8242,"Ġpoint":8243,"ĠLondon":8244,"ĠGran":8245,"ĠhitsNOOR":8246,"Ġulama":8247,"Ġmesra":8248,"Ġhand":8249,"ĠTown":8250,"arch":8251,"ĠSMK":8252,"margin":8253,"Ġokay":8254,"uhai":8255,"efa":8256,"ĠGhazali":8257,"Ġhalal":8258,"Ġkepimpinan":8259,"jen":8260,"Kdnk":8261,"Ġharapan":8262,"Ġmohon":8263,"ĠPutra":8264,"Ġtas":8265,"keb":8266,"usuan":8267,"Ġ55":8268,"arahkan":8269,"ĠPASUKAN":8270,"daerah":8271,"Ġbre":8272,"ujitec":8273,"enanjung":8274,"ĠMOD":8275,"araikan":8276,"iksa":8277,"spirasi":8278,"Ġmul":8279,"oke":8280,"ĠIskandar":8281,"Ġrancangan":8282,"\");":8283,"aria":8284,"Ġminuman":8285,"Ġhours":8286,"Ġov":8287,"ĠVitamin":8288,"Ġnie":8289,"ĠPAK":8290,"okumen":8291,"Ġportal":8292,"ĠSTPM":8293,"Mengapa":8294,"scribe":8295,"Ġselatan":8296,"ACA":8297,"Press":8298,"Ġgold":8299,"Ġdesign":8300,"Ġunik":8301,"Ġwill":8302,"Ġmeja":8303,"Ġsambutan":8304,"Ġditawarkan":8305,"Ġkart":8306,"ĠARIFIN":8307,"nyata":8308,"Ġtulis":8309,"Ġwww":8310,"Ġprinsip":8311,"imbangkan":8312,"Ġperset":8313,"pg":8314,"ampuan":8315,"Ġtunai":8316,"imu":8317,"Ġberdaftar":8318,"atalkan":8319,"ĠJack":8320,"Ġdibawah":8321,"ĠIns":8322,"Ġgejala":8323,"Ġorganisasi":8324,"2010":8325,"ĠSamb":8326,"els":8327,"Ġlaa":8328,"andingkan":8329,"Sah":8330,"Ġemosi":8331,"Ġpemerintahan":8332,"Ġsetia":8333,"kerja":8334,"()":8335,"mon":8336,"ĠMengenai":8337,"ĠVer":8338,"ungkan":8339,"iang":8340,"Ġmenyambut":8341,"alahkan":8342,"268":8343,"uburan":8344,"ĠBES":8345,"().":8346,"ĠPangkor":8347,"ering":8348,"Ġsuspek":8349,"wo":8350,"teraan":8351,"Ġ150":8352,"Ġgen":8353,"alue":8354,"Ġpenyelidikan":8355,"mes":8356,"Lembaga":8357,"Bersama":8358,"ugi":8359,"ĠKingdom":8360,"ĠSabtu":8361,"Ġmerasakan":8362,"Pengg":8363,"Tapak":8364,"ADAR":8365,"Ġdigital":8366,"elam":8367,"Ġribu":8368,"Ġantaranya":8369,"Sultan":8370,"Mon":8371,"ĠSPRM":8372,"ĠUl":8373,"Sekarang":8374,"Ġstrategi":8375,"ĠMAT":8376,"Ġmun":8377,"ĠMana":8378,"Ġberbuat":8379,"ĠSebagai":8380,"ĠSak":8381,"Ġhidung":8382,"ĠZUHAI":8383,"ĠBangunan":8384,"Ġmuk":8385,"ingo":8386,"rogol":8387,"Ġcipta":8388,"ĠTangan":8389,"endam":8390,"Ġsimpanan":8391,"Abdul":8392,"Kementerian":8393,"ĠZUHAIR":8394,"Ġcemerlang":8395,"Berkomunikasi":8396,"ĠAZUAR":8397,"Semakan":8398,"Bhd":8399,"Ġberasaskan":8400,"ĠReal":8401,"email":8402,"ĠTUAN":8403,"Ġlalui":8404,"ensik":8405,"Ã³":8406,"Beli":8407,"ungkus":8408,"600":8409,"Ġsyurga":8410,"Em":8411,"ULAR":8412,"Ġ99":8413,"Ġbos":8414,"tanda":8415,"ORI":8416,"Ġsee":8417,"Ġcetak":8418,"Ġtelur":8419,"ĠUsahawan":8420,"Perpustakaan":8421,"ĠRabu":8422,"Ġister":8423,"irl":8424,"ĠLaluan":8425,"ĠBeli":8426,"ENGGANU":8427,"text":8428,"Ġiz":8429,"ĠBenih":8430,"ĠHamil":8431,"Ġberdepan":8432,"orial":8433,"Ġsewa":8434,"occo":8435,"Ġmemutuskan":8436,"Bilik":8437,"ĠDatang":8438,"ĠMp":8439,"ĠKahwin":8440,"Ġpeminat":8441,"niah":8442,"ylus":8443,"Ġtuntutan":8444,"Google":8445,"Pemain":8446,"ĠRambut":8447,"Ġsing":8448,"ĠAwal":8449,"ĠEst":8450,"ĠTiga":8451,"ious":8452,"ĠKET":8453,"Ġmalu":8454,"Ġkekurangan":8455,"obi":8456,"Ġget":8457,"oks":8458,"Pap":8459,"Ġshaklee":8460,"ĠBrazil":8461,"onj":8462,"erahan":8463,"Ġtumb":8464,"upus":8465,"Ġdapur":8466,"ĠBAN":8467,"endali":8468,"Ġtol":8469,"Ġsaman":8470,"agalan":8471,"ĠBaharu":8472,"Ġprotected":8473,"ĠUR":8474,"surat":8475,"Ġmatahari":8476,"kifli":8477,"ĠKabupaten":8478,"PERTAN":8479,"Makanan":8480,"ĠBapa":8481,"acun":8482,"Ġpengambilan":8483,"enom":8484,"PRK":8485,"Kemaskini":8486,"ĠAZIZ":8487,"Ġpengajaran":8488,"ĠMaster":8489,"Ġpenyokong":8490,"Ġ48":8491,"ĠBayaran":8492,"Ġlogam":8493,"Ġsih":8494,"ĠTerk":8495,"ĠSendiri":8496,"ĠCAT":8497,"ĠKhamis":8498,"Ġmewakili":8499,"Ġsuasana":8500,"tereo":8501,"Ġtuhan":8502,"ĠDB":8503,"uu":8504,"ĠPanjang":8505,"Ġmesej":8506,"other":8507,"Ġpelacur":8508,"lahirkan":8509,"Ġfikirkan":8510,"Ġsimpan":8511,"Ġlampu":8512,"inder":8513,"Khidmat":8514,"Syarikat":8515,"ĠMengh":8516,"ĠANDA":8517,"Ġbiji":8518,"Ġinsan":8519,"EV":8520,"Ġberkes":8521,"Ġketat":8522,"ĠKOMP":8523,"ujung":8524,"ĠEnglish":8525,"Ġ>>":8526,"Ġsemester":8527,"ĠHi":8528,"ĠAgong":8529,"Ġbahagia":8530,"ĠKalau":8531,"protot":8532,"yukur":8533,"ĠVit":8534,"Tweet":8535,"ĠLink":8536,"Sesungguhnya":8537,"info":8538,"emukan":8539,"Ġlayan":8540,"ĠKajian":8541,"Ġmenghalang":8542,"Ġnikmat":8543,"ĠAuto":8544,"prototype":8545,"ĠHuawei":8546,"uction":8547,"ĠAhad":8548,"iraan":8549,"Ġmahal":8550,"ugal":8551,"Ġsex":8552,"VIR":8553,"anjurkan":8554,"Ġnegatif":8555,"ĠKali":8556,"Komuniti":8557,"ĠTar":8558,"ĠIND":8559,"âĢĻ.":8560,"Ġkementerian":8561,"inci":8562,"ĠSEK":8563,"ĠDiesel":8564,"ILA":8565,"alani":8566,"rim":8567,"Ġkuning":8568,"ERL":8569,"erjasama":8570,"MD":8571,"Johor":8572,"ancap":8573,"abrik":8574,"Ġjaminan":8575,"Data":8576,"GERIS":8577,"ĠAirlines":8578,"ĠDep":8579,"ĠKepulauan":8580,"Ġmenjelang":8581,"evisyen":8582,"ĠSULTAN":8583,"ĠINGGERIS":8584,"Ġsam":8585,"93":8586,"Ġtamat":8587,"Cer":8588,"Ġsewaktu":8589,"Ġgout":8590,"Ġpresiden":8591,"ĠCan":8592,"Audio":8593,"Ġlori":8594,"Ġhappy":8595,"ney":8596,"Ġtips":8597,"ĠBU":8598,"ĠAmanah":8599,"estiv":8600,"Get":8601,"afsiran":8602,"Ġmerawat":8603,"ipment":8604,"siaran":8605,"MEN":8606,"pm":8607,"Ġtakde":8608,"Ġkalian":8609,"Pacific":8610,"Ġdiubah":8611,"ĠQu":8612,"ĠKont":8613,"Ġmelindungi":8614,"ĠDaftar":8615,"irit":8616,"ĠPerjalanan":8617,"Sen":8618,"Ġkerjaya":8619,"Sejak":8620,"ĠEL":8621,"Ġcikgu":8622,"Ġmelainkan":8623,"Ġaksi":8624,"Ġpenjara":8625,"Ġmenahan":8626,"Ġpelan":8627,"gaan":8628,"Sets":8629,"antou":8630,"Ġmenyed":8631,"ĠSyariah":8632,"pis":8633,"ijrah":8634,"Ġda":8635,"Kaunter":8636,"ref":8637,"Ġmala":8638,"Polis":8639,"Ġperkongsian":8640,"ĠNoor":8641,"ĠRoda":8642,"ĠMewah":8643,"Ġbersamaan":8644,"ĠContin":8645,"bank":8646,"Ġradio":8647,"esak":8648,"hatikan":8649,":#":8650,"ĠWak":8651,"kg":8652,"ĠLokasi":8653,"Ġyears":8654,"DIN":8655,"ĠRO":8656,"kipun":8657,"Ġrestoran":8658,"ĠSS":8659,"ulen":8660,"ĠTeluk":8661,"Ġdiw":8662,"Ġreturn":8663,"},":8664,"Ġâī":8665,"Ġnasib":8666,"ĠUni":8667,"Ġterpelihara":8668,"ĠPertubuhan":8669,"Ġhakikat":8670,"Ġservices":8671,"Int":8672,"Belum":8673,"alent":8674,"okrasi":8675,"utasi":8676,"enci":8677,"ĠUPSR":8678,"unjungi":8679,"ĠYou":8680,"Anugerah":8681,"ETA":8682,"atangan":8683,"ĠJom":8684,"Mic":8685,"Ġgelap":8686,"Ġkelahiran":8687,"kuad":8688,"ĠPuan":8689,"ĠASM":8690,"ucapkan":8691,"Ġmiskin":8692,"ĠSaiz":8693,"AYAAN":8694,"UANTAN":8695,"Ġpenerbangan":8696,"iat":8697,"ĠHy":8698,"Ġimej":8699,"Ġsol":8700,"ĠLR":8701,"HAD":8702,"ĠMuka":8703,"ĠCamer":8704,"Ġ160":8705,"ĠJawa":8706,"ombang":8707,"elan":8708,"Ġ06":8709,"MIN":8710,"vert":8711,"Ġpeniaga":8712,"gen":8713,"Ġfunction":8714,"ekor":8715,"EA":8716,"fiz":8717,"Bags":8718,"idyah":8719,"IKA":8720,"Ġmenemui":8721,"eksport":8722,"Ġpemeriksaan":8723,"ilogram":8724,"ĠVisi":8725,"Ġpublic":8726,"ĠDim":8727,"ĠXL":8728,"Ok":8729,"ĠSee":8730,"ĠKok":8731,"entak":8732,"ĠBack":8733,"angkut":8734,"Ġsains":8735,"Ġdireka":8736,"ĠSin":8737,"Ġabad":8738,"RES":8739,"ott":8740,"Kenali":8741,"Secara":8742,"Ġcan":8743,"ĠKasih":8744,"Ġtir":8745,"ĠKat":8746,"iasat":8747,"ĠAyat":8748,"ĠKEC":8749,"dr":8750,"ĠVir":8751,"Ġjudi":8752,"akini":8753,"Ġpep":8754,"Ġfokus":8755,"ĠTahan":8756,"transform":8757,"Ġdisiarkan":8758,"Ø±":8759,"âĢĶ":8760,"itachi":8761,"ahas":8762,"Ġ!\"":8763,"ĠPengantin":8764,"ĠDipertua":8765,"ĠPERB":8766,"Ġlove":8767,"ĠPuteri":8768,"Ġgua":8769,"yhose":8770,"aringan":8771,"apuri":8772,"ĠKebajikan":8773,"aim":8774,"Ġfull":8775,"ĠRekreasi":8776,"Ġher":8777,"Ġberbuka":8778,"Ġistimewa":8779,"pemb":8780,"ĠGab":8781,"ĠCEO":8782,"Ġmengesahkan":8783,"endalian":8784,"unaikan":8785,"Ġkhidmat":8786,"otal":8787,"Ġmust":8788,"ayan":8789,"Ġsearch":8790,"Ġkalah":8791,"WAK":8792,"bas":8793,"Destinasi":8794,"ĠAss":8795,"Ġbersifat":8796,"Ġtegas":8797,"attr":8798,"Ġkesemua":8799,"enor":8800,"Ġmempertahankan":8801,"OST":8802,"Ġmendedahkan":8803,"Ġdipert":8804,"Penerangan":8805,"ution":8806,"angi":8807,"Ġmembuktikan":8808,"Menurutnya":8809,"Ġbanjir":8810,"Ġjarang":8811,"upe":8812,"ĠDom":8813,"Negeri":8814,"ĠEhwal":8815,"Kedah":8816,"Ġtukar":8817,"ĠTem":8818,"Perkara":8819,"phone":8820,"Ġperistiwa":8821,"Ġmemperoleh":8822,"Ġmmg":8823,"ĠPe":8824,"&&(":8825,"airah":8826,"iptaan":8827,"ĠInstagram":8828,"endera":8829,"ĠAgensi":8830,"ĠAtau":8831,"etengahkan":8832,"ĠSwasta":8833,"ĠTantalum":8834,"Ġberbagai":8835,"Ġberoperasi":8836,"Ġaf":8837,"elajari":8838,"ovatif":8839,"imba":8840,"egangan":8841,"FF":8842,"ĠPekan":8843,"arahan":8844,"ĠWarisan":8845,"Pendaftaran":8846,"sat":8847,"ĠSUR":8848,"').":8849,"Ġulang":8850,"Ġperbezaan":8851,"vinsi":8852,"Ġberjamaah":8853,"ĠOff":8854,"dik":8855,"ĠMAK":8856,"Ahmad":8857,"elamatkan":8858,"zer":8859,"Kom":8860,"quipment":8861,"Ġpimpinan":8862,"Ġkosmetik":8863,"Ġstesen":8864,"OHOR":8865,"Bola":8866,"Ġkasino":8867,"ĠLUAR":8868,"ines":8869,"esenan":8870,"Ġterma":8871,"Akaun":8872,"ĠTabung":8873,"War":8874,"Ġrosak":8875,"ĠJuly":8876,"efault":8877,"Ġpemilihan":8878,"ĠSyawal":8879,"pres":8880,"tung":8881,"Had":8882,"embunyi":8883,"Title":8884,"Ġbes":8885,"ĠCL":8886,"gk":8887,"Sa":8888,"olongan":8889,"Ġdialami":8890,"Ġkesedaran":8891,"Ġ2001":8892,"Ġmenggalakkan":8893,"ĠPekerja":8894,"enger":8895,"ĠSeh":8896,"Ġmemperkenalkan":8897,"Ġâī¤":8898,"Ġsengaja":8899,"alleh":8900,"ĠChar":8901,"(/":8902,"199":8903,"Ġmenuntut":8904,"betul":8905,"ĠRa":8906,"enam":8907,"ĠPenolong":8908,"Ġpenyelesaian":8909,"à¸":8910,"Ġjua":8911,"Perkongsian":8912,"injau":8913,"Batu":8914,"ĠIkan":8915,"Ġalbum":8916,"Ġtajuk":8917,"ĠKasut":8918,"ĠLepas":8919,"rg":8920,"ooks":8921,"ĠâĢĶ":8922,"ĠTO":8923,"Para":8924,"Ġala":8925,"Setahun":8926,"ĠGAJAH":8927,"ejah":8928,"ĠThis":8929,"ilkan":8930,"Ġlong":8931,"etan":8932,"ĠPUL":8933,"ENAI":8934,"ĠSula":8935,"ĠMd":8936,"Gaya":8937,"kec":8938,"niaga":8939,"Ġadd":8940,"ĠSunnah":8941,"ĠVis":8942,"orksh":8943,"atim":8944,"OPULAR":8945,"LEH":8946,"alut":8947,"engaruhi":8948,"\"),":8949,"ĠTech":8950,"Ġcedera":8951,"Ġhanyalah":8952,"MB":8953,"Ġnyata":8954,"ï¸":8955,"Ġporn":8956,"ĠPenafian":8957,"ĠKarangkraf":8958,"Ġsungguh":8959,"ĠKa":8960,"bukan":8961,"Ġpermulaan":8962,"Ġketidak":8963,"Nilai":8964,"ĠGelang":8965,"ella":8966,"Labels":8967,"ï¸ı":8968,"ïĥ":8969,"ĠBelajar":8970,"Ġbertukar":8971,"ĠThyssenKrupp":8972,"Â·":8973,"Ġkonon":8974,"Ġ02":8975,"older":8976,"ĠhitsZ":8977,"Ġwah":8978,"otongan":8979,"ĠPakar":8980,"usuf":8981,"Ġtrak":8982,"ĠEksekutif":8983,"Ikuti":8984,"ĠIstana":8985,"ĠPerdagangan":8986,"HAN":8987,"bunga":8988,"Surah":8989,"hp":8990,"Begitu":8991,"Ġ2004":8992,"Ġmenging":8993,"impalan":8994,"padding":8995,"ĠCiri":8996,"Kalendar":8997,"Ġmulia":8998,"Lirik":8999,"ARANG":9000,"Ĥ¬":9001,"anam":9002,"Ġtp":9003,"ĠAWAM":9004,"ĠSelasa":9005,"Ġmenjalani":9006,"ĠPendaftar":9007,"Muk":9008,"ĠTers":9009,"ĠMalaya":9010,"ĠKeputusan":9011,"Ġmember":9012,"Ġtenang":9013,"Ġtokoh":9014,"PUS":9015,"Ġmemperb":9016,"elated":9017,"meny":9018,"inea":9019,"ĠAkses":9020,"Bakul":9021,"ĠMS":9022,"hrib":9023,"idul":9024,"irman":9025,"Ġnafas":9026,"cle":9027,"PL":9028,"ihah":9029,"irikan":9030,"Ruang":9031,"Ġpenyanyi":9032,"Ġabout":9033,"ilding":9034,"Korang":9035,"ĠALOR":9036,"ĠMereka":9037,"ekapan":9038,"ĠUdara":9039,"ĠDiam":9040,"Motor":9041,"eraka":9042,"ird":9043,"itahu":9044,"ĠIsnin":9045,"usuk":9046,"Ġguy":9047,"ĠMusim":9048,"ĠJamak":9049,"VE":9050,"ĠPembinaan":9051,"Audi":9052,"NASIONAL":9053,"eral":9054,"ĠTour":9055,"vent":9056,"Ġwebsite":9057,"Ġditutup":9058,"epak":9059,"Ġsuruh":9060,"Ġqu":9061,"artment":9062,"ĠNaib":9063,"Ġsuci":9064,"ĠFilipina":9065,"Ġasy":9066,"101":9067,"Ġglobal":9068,"syar":9069,"ĠSimp":9070,"Ġkegi":9071,"ujian":9072,"Ġditulis":9073,"Ġlaki":9074,"uduga":9075,"ÙĪØ":9076,"ĠSurah":9077,"yyah":9078,"ĠBogel":9079,"ĠXXX":9080,"ĠFood":9081,"ĠResort":9082,"max":9083,"ĠPemas":9084,"uary":9085,"ette":9086,"ASY":9087,"ĠTR":9088,"ameran":9089,"Ġbuatan":9090,"ihi":9091,"Ġtutup":9092,"Ġlesen":9093,"ĠSiri":9094,"atuhan":9095,"Ġelse":9096,"Ġkod":9097,"mint":9098,"ush":9099,"ĠISM":9100,"aterp":9101,"Ġsejumlah":9102,"Tok":9103,"Fr":9104,"Ġbersabda":9105,"Ġsebelumnya":9106,"Ġpengilang":9107,"Doa":9108,"ĠSOL":9109,"Ã¨s":9110,"ĠPKG":9111,"ĠSMS":9112,"Beberapa":9113,"ĠHang":9114,"paduan":9115,"BMW":9116,"83":9117,"entuan":9118,"ĠHerba":9119,"Ġsawit":9120,"ĠKakitangan":9121,"SUR":9122,"urai":9123,"ĠJanda":9124,"angsapuri":9125,"asy":9126,"ĠKopi":9127,"ĠDesa":9128,"ampilan":9129,"capan":9130,"ĠMental":9131,"ACH":9132,"Ġkedi":9133,"engahan":9134,"Ġadil":9135,"Kon":9136,"Ġtangg":9137,"ĠPunca":9138,"ĠBrunei":9139,"Lagi":9140,"ĠKunci":9141,"ĠAmp":9142,"ĠSpecial":9143,"Ġtuala":9144,"far":9145,"Ġbogel":9146,"Ġtuduhan":9147,"Ġmenghubungi":9148,"ĠEnc":9149,"vice":9150,"Ġdiesel":9151,"Ġperbelanjaan":9152,"Pid":9153,"ĠNota":9154,"Ġtarik":9155,"Ġikh":9156,"ancing":9157,"Ġkediaman":9158,"ĠMarc":9159,"folio":9160,"arif":9161,"Ġle":9162,"ĠNurul":9163,"iak":9164,"Ġhidraulik":9165,"ĠTINGKATAN":9166,"Ġpantyhose":9167,"Ġkomponen":9168,"Ġlari":9169,"ALING":9170,"Shar":9171,"uzium":9172,"ĠBESAR":9173,"Ġpersekitaran":9174,"Ġterhad":9175,"UMNO":9176,"Ġnenek":9177,"Ġdinding":9178,"ĠWalk":9179,"ealand":9180,"ĠAGENSI":9181,"ĠHadapan":9182,"lasi":9183,"amping":9184,"Ġbecause":9185,"Ġreb":9186,"ĠGreen":9187,"rem":9188,"ganegara":9189,"Kajian":9190,"Ġmenimbulkan":9191,"ĠPeringkat":9192,"ĠTingkatan":9193,"Maj":9194,"unggung":9195,"Ġdisana":9196,"ĠDR":9197,"ĠDEWAN":9198,"Ġhit":9199,"Ġwajar":9200,"ĠEngine":9201,"thman":9202,"ENTERIAN":9203,"embara":9204,"abiat":9205,"Ġterang":9206,"ĠKuantan":9207,"Kereta":9208,"Ġpergerakan":9209,"ĠLaporan":9210,"Ġtek":9211,"ĠContinental":9212,"krit":9213,"Ġcompanies":9214,"Ġdiminta":9215,"Tube":9216,"ology":9217,"Ġmelaporkan":9218,"ĠKR":9219,"Mela":9220,"ĠHafiz":9221,"Ġisterinya":9222,"ĠSoc":9223,"ĠKEN":9224,"ĠDAS":9225,"ĠPDF":9226,"riend":9227,"Ġmemperk":9228,"ARD":9229,"ĠFeed":9230,"aming":9231,"Ġkekasih":9232,"Ġtersedia":9233,"neum":9234,"Ġusahawan":9235,"Ġbeban":9236,"asic":9237,"Ġtemb":9238,"IPU":9239,"aser":9240,"ĠUjian":9241,"engkapan":9242,"ĠMuzik":9243,"ĠEnter":9244,"Ġpelancong":9245,"rice":9246,"Justeru":9247,"ĠJohn":9248,"Ġpendirian":9249,"Ġkeses":9250,"Ġwalau":9251,"usahaan":9252,"alukan":9253,"Ġsejenis":9254,"erdekaan":9255,"Ġparas":9256,"via":9257,"Ġtaraf":9258,"Ġberikan":9259,"QURAN":9260,"Ġkelayakan":9261,"antah":9262,"ion":9263,"unding":9264,"ĠNavig":9265,"ĠLar":9266,"Ġkaca":9267,"DAP":9268,"ĠCikgu":9269,"quar":9270,"ĠPenyelidikan":9271,"Ġbisnes":9272,"Ġlangit":9273,"nn":9274,"Teknik":9275,"Ġpadi":9276,"UHAN":9277,"ĠMustika":9278,"Ġpendekatan":9279,"ĠWe":9280,"ĠPERT":9281,"Wah":9282,"Ġdinyatakan":9283,"Ġmerangkumi":9284,"Ġdilahirkan":9285,"isten":9286,"ĠBatang":9287,"ORAN":9288,"Keselamatan":9289,"Ġberkesempatan":9290,"YMM":9291,"Ġditerbitkan":9292,"ĠMr":9293,"Kenyataan":9294,"ĠSekitar":9295,"raft":9296,"Ġmatlamat":9297,"Guru":9298,"Ġcomment":9299,"ĠKED":9300,"ĠHasil":9301,"Ġauto":9302,"Ġberiman":9303,"ampan":9304,"ukaran":9305,"800":9306,"Ġkenangan":9307,"HUBUNGI":9308,"ebr":9309,"ĠNOOR":9310,"INFO":9311,"Ġlengan":9312,"tip":9313,"Ġberjumlah":9314,"indahkan":9315,"Pertua":9316,"Pegawai":9317,"Ġhayat":9318,"Mahkamah":9319,"ĠDIS":9320,"Kons":9321,"ĠSay":9322,"Ġmainan":9323,"Ġmenjej":9324,"ĠRid":9325,"stan":9326,"Bulan":9327,"Ġpecah":9328,"Ġmentah":9329,"Design":9330,"Ġserb":9331,"ĠDATO":9332,"ĠFC":9333,"Maksud":9334,"amansara":9335,"erbit":9336,"Ġroh":9337,"itah":9338,"Ġpemerintah":9339,"ĠBox":9340,"umpulkan":9341,"Akhirnya":9342,"ITIK":9343,"Ġdiperolehi":9344,"ĠMEDIA":9345,"DT":9346,"KONE":9347,"Ġsuku":9348,"ĠSof":9349,"ishah":9350,"Ġkol":9351,"Ġterpulang":9352,"ĠPetua":9353,"Ġsil":9354,"udayaan":9355,"ikini":9356,"ĠCel":9357,"PEM":9358,"Ġtab":9359,"ĠPET":9360,"Ġblogger":9361,"Ġgug":9362,"Ing":9363,"ĠAtasi":9364,"CR":9365,"wide":9366,"ĠSif":9367,"Ġdirumah":9368,"ĠUk":9369,"26800":9370,"Ġtermasuklah":9371,"php":9372,"Jualan":9373,"Ġhaji":9374,"./":9375,"Nas":9376,"ĠPertahanan":9377,"udak":9378,"Ġberdua":9379,"ĠShantou":9380,"ises":9381,"Cetak":9382,"ujah":9383,"Ġbapak":9384,"Ujian":9385,"ĠOne":9386,"Kursus":9387,"BLOG":9388,"iakan":9389,"ĠZealand":9390,"ĠChampi":9391,"Ġbis":9392,"Ġlawan":9393,"Ġburung":9394,"ĠBuah":9395,"Ġmelepaskan":9396,"ĠDrama":9397,"etin":9398,"Ġlewat":9399,"ĠBelia":9400,"Datuk":9401,"ĠXJ":9402,"Ġpenjelasan":9403,"ĠMenjadi":9404,"TARAN":9405,"fied":9406,"Ġpi":9407,"ertas":9408,"Shah":9409,"ĠPRK":9410,"sikologi":9411,"GAL":9412,"ipe":9413,"EAL":9414,"KAMAH":9415,"Ġnormal":9416,"Susah":9417,"ĠPI":9418,"ĠKhidmat":9419,"ooking":9420,"Suka":9421,",,,":9422,"ĠBintang":9423,"Ġ2000":9424,"Univers":9425,"Ġsebut":9426,"aktif":9427,"ĠPerlembagaan":9428,"DAFTARAN":9429,"Sumbangan":9430,"alsafah":9431,"abun":9432,"Ġmenggantikan":9433,"ĠTelefon":9434,"Ġpelancongan":9435,"ĠBal":9436,"Read":9437,"Politik":9438,"Penggunaan":9439,"ked":9440,"AJAYA":9441,"antauan":9442,"Ġamb":9443,"Ġamanah":9444,"Gu":9445,"isap":9446,"aterpillar":9447,"ĠWidget":9448,"Ġpurata":9449,"Pahang":9450,"IKEL":9451,"ĠIdham":9452,"Ġrupa":9453,"agnetik":9454,"Powered":9455,"Tawaran":9456,"bek":9457,"ids":9458,"Ġdisahkan":9459,"aksiran":9460,"imbal":9461,"ĠMinggu":9462,"emprosesan":9463,"isis":9464,"Ġcam":9465,"KA":9466,"fir":9467,"Jet":9468,"ĠGel":9469,"Ġ05":9470,"Hidup":9471,"Kedua":9472,"aly":9473,"Perbincangan":9474,"masalah":9475,"undingan":9476,"AHA":9477,"82":9478,"ĠCup":9479,"engkapi":9480,"ĠSir":9481,"ĠStor":9482,"can":9483,"ĠKau":9484,"iwayat":9485,"ĠEuro":9486,"ĠSmart":9487,"Ġ07":9488,"Ġpemikiran":9489,"ĠLag":9490,"Ġberdekatan":9491,"ommun":9492,"Ġdimasuk":9493,"ĠRancangan":9494,"Ġbersalah":9495,"Kerjaya":9496,"ware":9497,"ĠLeg":9498,"ĠBHARU":9499,"Ġ3000":9500,"imam":9501,"ĠHEB":9502,"ĠSEBAGAI":9503,"Ġsenj":9504,"jet":9505,"Ung":9506,"Ġpat":9507,"Diam":9508,"Ġpembedahan":9509,"ĠMAKLUMAN":9510,"anch":9511,"Ġperlukan":9512,"ĠIman":9513,"Ġmemandangkan":9514,"ĠKayu":9515,"Peraturan":9516,"AKI":9517,"Ġsesungguhnya":9518,"esifikasi":9519,"ipat":9520,"Ġmelancarkan":9521,"Berb":9522,"AIM":9523,"izab":9524,"ĠMUHAMMAD":9525,"ANGGAN":9526,"CD":9527,"utbah":9528,"Rep":9529,"Ġrasanya":9530,"Ġmeneroka":9531,"Top":9532,"ejar":9533,"Ġtanaman":9534,"Ġmany":9535,"ĠPAR":9536,"MOH":9537,"Ġrakaat":9538,"ĠBencana":9539,"kson":9540,"HA":9541,"WP":9542,"ĠBon":9543,"Ġhiasan":9544,"ĠKURSUS":9545,"ersih":9546,"ĠCast":9547,"Ġelektronik":9548,"Duduk":9549,"Ġmenganggap":9550,"ean":9551,"Ġperintah":9552,"ĠGL":9553,"azar":9554,"options":9555,"Ġhantar":9556,"ĠPara":9557,"Ġpasar":9558,"Ġ120":9559,"artawan":9560,"Online":9561,"ebarkan":9562,"olesale":9563,"Eng":9564,"vi":9565,"ĠJI":9566,"icy":9567,"otivasi":9568,"awas":9569,"ĠBat":9570,"indung":9571,"ejahteraan":9572,"leksib":9573,"Ġmakhluk":9574,"evelop":9575,"Ġseksual":9576,"iputi":9577,"mus":9578,"____":9579,"alif":9580,"Ġ1000":9581,"ĠFree":9582,"Sabah":9583,"Ġdihar":9584,"ĠBumiputera":9585,"Poskod":9586,"Ġbil":9587,"Ġsin":9588,"Ġpermukaan":9589,"kirah":9590,"Warga":9591,"Ġ1500":9592,"hum":9593,"ĠDil":9594,"ĠPERD":9595,"Ġkond":9596,"ERITAH":9597,"Ġmengakui":9598,"Ġkarb":9599,"ĠLib":9600,"Sus":9601,"Hasil":9602,"Ġdiperbuat":9603,"case":9604,"AITAN":9605,"ĠCommons":9606,"emangnya":9607,"Ġmenetapkan":9608,"Ġtem":9609,"alur":9610,"ijak":9611,"Ġsisa":9612,"umbaan":9613,"Ġlu":9614,"andy":9615,"oyal":9616,"Ġuruskan":9617,"ĠVietnam":9618,"Ġinovatif":9619,"Tukar":9620,"Ġsbb":9621,"emia":9622,"Perak":9623,"exclusive":9624,"KP":9625,"Ġmengundi":9626,"Ur":9627,"ĠHasan":9628,"ĠGred":9629,"What":9630,"eor":9631,"Jel":9632,"ĠHanya":9633,"Ġtag":9634,"ĠBerc":9635,"Ġmeri":9636,"KES":9637,"enangkan":9638,"ĠKedai":9639,"Pasukan":9640,"UTI":9641,"Ġberlak":9642,"ĠWorldwide":9643,"Ġgus":9644,"Ġterpilih":9645,"Ġpastikan":9646,"ĠUTAMA":9647,"Ġsuaminya":9648,"isang":9649,"PENA":9650,"Ġmis":9651,"Ġ1437":9652,"Ġ04":9653,"Ġkepercayaan":9654,"ĠKERJA":9655,"Ġtelanjang":9656,"ĠCF":9657,"Ġdengannya":9658,"Ġmark":9659,"Ġalah":9660,"ĠTom":9661,"ĠLeaf":9662,"Ġhadis":9663,"onald":9664,"Ġcelana":9665,"Ùİ":9666,"EMERL":9667,"ĠGlobal":9668,"Ġmenghid":9669,"ĠHaf":9670,"Versi":9671,"ĠMenj":9672,"Cinta":9673,"Ġruangan":9674,"ellow":9675,"Ġdinamakan":9676,"amilan":9677,"Ġjahat":9678,"RON":9679,"ĠDec":9680,"antian":9681,"Ġdingin":9682,"Ġmenumpang":9683,"Ġsebeg":9684,"Biar":9685,"MS":9686,"ĠXizi":9687,"Menc":9688,"ctric":9689,"akiman":9690,"Ġkredit":9691,"ĠPERKHIDMATAN":9692,"Ġenggan":9693,"uasakan":9694,"ged":9695,"ĠKEB":9696,"Ġsuk":9697,"ĠFarmasi":9698,"lunya":9699,"Ġperancangan":9700,"Ġul":9701,"ĠSex":9702,"sah":9703,"Ġmenyemb":9704,"Ġsenjata":9705,"ĠKo":9706,"Ġlawatan":9707,"Ġrel":9708,"Ġkecewa":9709,"enza":9710,"ĠGo":9711,"zz":9712,"Ġtiket":9713,"kk":9714,"acau":9715,"ards":9716,"ĠAbang":9717,"Ġadanya":9718,"uasaan":9719,"ĠMitsubishi":9720,"essi":9721,"Ġkamera":9722,"ĠFilament":9723,"BS":9724,"agikan":9725,"ĠInverter":9726,"versi":9727,"Ġtafsiran":9728,"Ġexport":9729,"ĠViv":9730,"TAU":9731,"?\"":9732,"ĠPoker":9733,"aza":9734,"ĠApi":9735,"eikh":9736,"Syarat":9737,"IDUPAN":9738,"epar":9739,"lugin":9740,"isahkan":9741,"ĠJPN":9742,"Ġmemasukkan":9743,"Ġterpantas":9744,"ril":9745,"ĠAmericas":9746,"Ġviews":9747,"estival":9748,"ĠShaf":9749,"ĠKlik":9750,"Ġmay":9751,"ĠCuba":9752,"burg":9753,"ĠForex":9754,"ustaka":9755,"Ġbuta":9756,"Ġjenazah":9757,"Pelawat":9758,"kau":9759,"ĠKaki":9760,"Ġtangki":9761,"Ġnelayan":9762,"Mudah":9763,"ĠMAKLUMAT":9764,"Bank":9765,"Ġangk":9766,"lug":9767,"ĠORANG":9768,"Pengeluaran":9769,"erto":9770,"Ġakal":9771,"ANGUNAN":9772,"Ġdipaparkan":9773,"Ġtumbuhan":9774,"ift":9775,"ador":9776,"ĠTI":9777,"Of":9778,"Ġnamanya":9779,"Ġdiperkenalkan":9780,"Ġpengantin":9781,"ambing":9782,"ĠOs":9783,"Ġtep":9784,"Yus":9785,"ĠTAKLIMAT":9786,"block":9787,"new":9788,"ĠCepat":9789,"Ġstabil":9790,"AKITANGAN":9791,"Ġmema":9792,"ovo":9793,"ĠBesut":9794,"Forum":9795,"Ġpencapaian":9796,"Ġkesilapan":9797,"ĠNasi":9798,"astam":9799,"iasaan":9800,"ics":9801,"impal":9802,"Ġ$(":9803,"akitan":9804,"UNGAN":9805,"Ġsabar":9806,"Ġpetrol":9807,"Eks":9808,"NAMA":9809,"Teks":9810,"Ġmakluman":9811,"Bl":9812,"sidi":9813,"null":9814,"Pemakanan":9815,"okan":9816,"ancur":9817,"KEN":9818,"Ġred":9819,"acing":9820,"Ġcawangan":9821,"ĠIndah":9822,"Ġmemainkan":9823,"Ġshare":9824,"Aman":9825,"nb":9826,"Ġmembangunkan":9827,"gota":9828,"ince":9829,"kali":9830,"ui":9831,"ĠKolej":9832,"ĠSektor":9833,"Ġvakum":9834,"Ġrefer":9835,"Ros":9836,"country":9837,"TIVITI":9838,"ĠTERKINI":9839,"angis":9840,"etta":9841,"ĠLive":9842,"Ġguys":9843,"ĠPengumuman":9844,"ĠKampus":9845,"Petua":9846,"ĠPerkahwinan":9847,"ahli":9848,"akluk":9849,"prises":9850,"ibukan":9851,"arakan":9852,"ibah":9853,"ĠLess":9854,"Ġbekerjasama":9855,"Ġteks":9856,"Bas":9857,"Ġgreat":9858,"Ġperdana":9859,"Ġunsur":9860,"ĠPokok":9861,"ĠMexico":9862,"ĠNadia":9863,"Ġkenaikan":9864,"ĠRAYA":9865,"siakini":9866,"hover":9867,"rb":9868,"agama":9869,"ĠGaleri":9870,"azkirah":9871,"hiasan":9872,"SHAH":9873,"Zakat":9874,"ometer":9875,"shawl":9876,"ĠHijau":9877,"ĠGAP":9878,"ĠDewasa":9879,"Lepas":9880,"Ġberjumpa":9881,"Stylus":9882,"display":9883,"Langkah":9884,"Teman":9885,"Ġfikiran":9886,"ĠWh":9887,"gus":9888,"ĠMAN":9889,"Ġmikro":9890,"Tip":9891,"ĠKenderaan":9892,"ajj":9893,"ĠKEMENTERIAN":9894,"ĠWomen":9895,"pam":9896,"Najib":9897,"ĠHartanah":9898,"oki":9899,"iles":9900,"unda":9901,"Ġpagar":9902,"ĠTube":9903,"ĠPERTANYAAN":9904,":-":9905,"OLEH":9906,"faatkan":9907,"Ġsemak":9908,"Ġpertemuan":9909,"mud":9910,"bottom":9911,"cep":9912,"ahtera":9913,"ĠPu":9914,"ege":9915,"RAJAYA":9916,"ĠKi":9917,"ĠAq":9918,"Ġadat":9919,"ĠJenazah":9920,"ĠOp":9921,"ĠAceh":9922,"ĠManis":9923,"Ġsat":9924,"Ġkt":9925,"ikuti":9926,"overn":9927,"JAH":9928,"Ġlapan":9929,"ĠReka":9930,"ehendaki":9931,"Ġberkhidmat":9932,"Ġcecair":9933,"ĠSERI":9934,"hlak":9935,"RMIS":9936,"Des":9937,"EMAS":9938,"ĠHamid":9939,"AKSAN":9940,"ampasan":9941,"Ġkeyakinan":9942,"Keratan":9943,"ĠSedap":9944,"ĠDijamin":9945,"EKA":9946,"ATIK":9947,"ĠASEAN":9948,"Sya":9949,"ictor":9950,"ilah":9951,"Ġdiketengahkan":9952,"Ġpenulisan":9953,"115":9954,"Ġpetua":9955,"Susu":9956,"Arrow":9957,"sesat":9958,"ĠYahudi":9959,"Ġmemba":9960,"Ġbelia":9961,"rag":9962,"isytih":9963,"Ġacuan":9964,"Ġditambah":9965,"ejas":9966,"Ġperhimpunan":9967,"Ġperumahan":9968,"Ġragam":9969,"Ġakhirat":9970,"tangga":9971,"ĠIsa":9972,"ĠZh":9973,"jpg":9974,"Ġpenubuhan":9975,"estinya":9976,"sul":9977,"Ġberpindah":9978,"uel":9979,"Ġgerakan":9980,"Daerah":9981,"Ġteramat":9982,"quare":9983,"ariat":9984,"ĠDay":9985,"Sama":9986,"umba":9987,"Subscribe":9988,"jauh":9989,"ĠDamansara":9990,"Ġ33":9991,"ĠBentuk":9992,"iu":9993,"apar":9994,"More":9995,"ĠSisa":9996,"ĠASME":9997,"asat":9998,"ĠNilai":9999,"ĠSEMPENA":10000,"Ġkegiatan":10001,"ĠTor":10002,"ĠLISAN":10003,"Ġcokelat":10004,"ĠFaizal":10005,"ĠPengedar":10006,"Pantang":10007,"Tanda":10008,"ikmah":10009,"uncak":10010,"zech":10011,"urungan":10012,"ĠPack":10013,"Ġberbentuk":10014,"Ġvitamin":10015,"Ġmenengah":10016,"ĠIdris":10017,"amatkan":10018,"lai":10019,"Ġberdarah":10020,"EF":10021,"ukupi":10022,"ĠKKM":10023,"ersihkan":10024,"Pent":10025,"miliki":10026,"aunsel":10027,"ĠKemajuan":10028,"Ġhalus":10029,"Ġmemaparkan":10030,"ĠBagaimana":10031,"84":10032,"Ġpengarah":10033,"HS":10034,"ĠCay":10035,"Ġmusuh":10036,"ĠBI":10037,"Ġtahunan":10038,"ĠArkib":10039,"ĠLEMB":10040,"Ġsempadan":10041,"ĠOLEH":10042,"JAW":10043,"pi":10044,"alifah":10045,"ĠYayasan":10046,"Ġketinggian":10047,"Ġbersyukur":10048,"uja":10049,"ĠRec":10050,"Ġistilah":10051,"ugut":10052,"Ġpopulariti":10053,"ĠKategori":10054,"ĠNg":10055,"Ġpayah":10056,"ĠHot":10057,"Ġmelawat":10058,"bung":10059,"edge":10060,"Foto":10061,"Sony":10062,"ĠKUANTAN":10063,"Panas":10064,"dy":10065,"LIM":10066,"ĠGar":10067,"yiddin":10068,"Ġkas":10069,"Ġsitus":10070,"Ġmenyumbang":10071,"Ġjangkitan":10072,"Ġluaran":10073,"Ġlembu":10074,"ĠASS":10075,"Mana":10076,"Ġdibayar":10077,"marin":10078,"Cukai":10079,"ĠCru":10080,"ĠCrane":10081,"Ġone":10082,"Ġjadual":10083,"ombong":10084,"ĠGas":10085,"ĠKuching":10086,"antungan":10087,"ĠArchives":10088,"Penulis":10089,"Ġfaedah":10090,"ĠSIS":10091,"iaw":10092,"Ġbatin":10093,"Kertas":10094,"Ġberguna":10095,"ukah":10096,"Sesuai":10097,"itmen":10098,"fiq":10099,"ĠPetaling":10100,"iyana":10101,"aci":10102,"Ġberulang":10103,"};":10104,"Ġsegar":10105,"agihan":10106,"Wholesale":10107,"ĠPelaburan":10108,"Ġland":10109,"PTN":10110,"ĠTaubat":10111,"ĠPand":10112,"oti":10113,"Ġade":10114,"ĠLogo":10115,"ehold":10116,"ĠRayuan":10117,"uriti":10118,"Kesan":10119,"Manakala":10120,"indaan":10121,"Ġmenegaskan":10122,"Ġdimasukkan":10123,"Ġmengec":10124,"siapan":10125,"UI":10126,"Saint":10127,"alib":10128,"Ġkesibukan":10129,"Bayaran":10130,"itional":10131,"Ġkebajikan":10132,"isha":10133,"AMPU":10134,"ĠUPU":10135,"ĠBELI":10136,"AKAP":10137,"action":10138,"Ġlubang":10139,"ĠFer":10140,"Abu":10141,"ĠPlastik":10142,"ĠHaz":10143,"Ġpemindahan":10144,"ĠJeli":10145,"lasik":10146,"terest":10147,"Ġkegagalan":10148,"Ġberdoa":10149,"Ġmemandu":10150,"EMPU":10151,"Ġbulu":10152,"Suara":10153,"Ġsch":10154,"ĠHARGA":10155,"EMPUTAN":10156,"YB":10157,"ĠElevators":10158,"ĠBt":10159,"manfaat":10160,"rivacy":10161,"tolong":10162,"Muhammad":10163,"Ġpoker":10164,"ĠBaca":10165,"ĠAKH":10166,"ĠOld":10167,"ĠKAKITANGAN":10168,"Ġorganik":10169,"Ġupload":10170,"iaan":10171,"TAKLIMAT":10172,"Penyel":10173,"Bet":10174,"Ġpandang":10175,"GS":10176,"Ġibunya":10177,"tle":10178,"emikian":10179,"uara":10180,"Pal":10181,"Ġmembuang":10182,"boleh":10183,"Kembali":10184,"oter":10185,"Pus":10186,"Ġpaparan":10187,"Ġkatil":10188,"Penyertaan":10189,"FE":10190,"Lemb":10191,"Ġkopi":10192,"ĠEhsan":10193,"ĠArtis":10194,"ĠATAU":10195,"Ġstat":10196,"ĠMoreSee":10197,"Lesbian":10198,"ĠAyah":10199,"CER":10200,"ealer":10201,"Net":10202,"AMIL":10203,"ĠSijil":10204,"Ġsemulajadi":10205,"Ġmenguruskan":10206,"ĠChampions":10207,"theme":10208,"ĠKEHIDUPAN":10209,"GP":10210,"ĠSalleh":10211,"Ġhidangan":10212,"umpai":10213,"Ġketerangan":10214,"UMPAAN":10215,"ĠEscalators":10216,"ĠAudi":10217,"Ġpelabur":10218,"????":10219,"imak":10220,"oday":10221,"awanan":10222,"abaya":10223,"border":10224,"ĠMUL":10225,"ĠMur":10226,"ĠGombak":10227,"ĠMAR":10228,"iskut":10229,"sijil":10230,"Ġkeupayaan":10231,"upu":10232,"Ġditeruskan":10233,"ĠWordPress":10234,"Ġrisau":10235,"87":10236,"lima":10237,"To":10238,"Ġluahkan":10239,"Ġkelajuan":10240,"ampaian":10241,"ĠTERENGGANU":10242,"ADEM":10243,"Ġmendaftar":10244,"Ġkadbod":10245,"ĠPenilaian":10246,"elek":10247,"ĠDS":10248,"she":10249,"ĠKanada":10250,"ĠParit":10251,"Ġkehendak":10252,"Ġbimbang":10253,"Dip":10254,"aftarkan":10255,"ency":10256,"ĠHidraulik":10257,"San":10258,"Ġest":10259,"Ġkegunaan":10260,"ĠPihak":10261,"Ġmencipta":10262,"Ġmengenali":10263,"ĠKanan":10264,"ĠðŁĳ":10265,"ĠRamai":10266,"vo":10267,"Ikut":10268,"iture":10269,"asif":10270,"Ġberadik":10271,"erjakan":10272,"ĠLum":10273,"Ġarab":10274,"Bolehkah":10275,"Ġurus":10276,"SIRAN":10277,"ĠSAH":10278,"ebak":10279,"ĠSeries":10280,"ĠTab":10281,"ĠPlat":10282,"Ġrangkaian":10283,"ĠAHLI":10284,"ĠSinar":10285,"ĠJamb":10286,"leksibel":10287,"Ġstud":10288,"ulatih":10289,"ĠANSI":10290,"apuskan":10291,"rastr":10292,"ĠHAS":10293,"ĠStadium":10294,"Ġbau":10295,"ONAN":10296,"ĠPermotoran":10297,"Pelajar":10298,"empatkan":10299,"value":10300,"osongan":10301,"Seni":10302,"AKSANAAN":10303,"ĠUmar":10304,"Perundangan":10305,"PEMBERITAH":10306,"cerita":10307,"Kelas":10308,"Ġdisk":10309,"Ġkeramat":10310,"MEL":10311,"kepada":10312,"ĠBangsa":10313,"ĠSeremban":10314,"ipuan":10315,"ĠMukim":10316,"roke":10317,"angkitkan":10318,"Ut":10319,"Ġfar":10320,"hou":10321,"ĠTerhadap":10322,"Ġtunjuk":10323,"Mala":10324,"ĠPENTAK":10325,"hhhh":10326,"webkit":10327,"Key":10328,"utut":10329,"Kelab":10330,"ANDUAN":10331,"ĠLu":10332,"ĠSkim":10333,"ĠKalangan":10334,"syarat":10335,"Ġpersembahan":10336,"Ġanakku":10337,"kawan":10338,"papaglamz":10339,"Ġjamak":10340,"inggalah":10341,"Ġdiletakkan":10342,"Ġpemberian":10343,"Ġmematuhi":10344,"ĠFX":10345,"Ġmajalah":10346,"Ġmencukupi":10347,"ĠHAJI":10348,"API":10349,"Ġdestinasi":10350,"ajam":10351,"ĠElektrik":10352,"86":10353,"lassified":10354,"Ġbiru":10355,"onia":10356,"Ġustaz":10357,"ĠBekas":10358,"ĠSemenanjung":10359,"Related":10360,"geo":10361,"ĠMARA":10362,"ĠSystem":10363,"ebatan":10364,"Your":10365,"perma":10366,"Ġmama":10367,"ampar":10368,"bahasa":10369,"Kau":10370,"Ġpeguam":10371,"ĠFB":10372,"FORMASI":10373,"Ġkasar":10374,"ĠMenu":10375,"Perl":10376,"otografi":10377,"ĠLebuh":10378,"ĠJIWA":10379,"Ġmengal":10380,"ĠKDN":10381,"Ġfant":10382,"CAR":10383,"ĠEnd":10384,"ĠTidur":10385,"Ġmenilai":10386,"Ġrem":10387,"Ġbasic":10388,"Ġsilikon":10389,"ĠPemuat":10390,"ormon":10391,"ized":10392,"Ġmut":10393,"Sur":10394,"ukis":10395,"Ġsenyum":10396,"minton":10397,"ĠTalak":10398,"ĠRadio":10399,"ĠStrategik":10400,"epsi":10401,"elap":10402,"ĠGPS":10403,"belah":10404,"ĠPES":10405,"etuai":10406,"yc":10407,"Ġ600":10408,"atasinya":10409,"Ġeh":10410,"IKUM":10411,"ĠForum":10412,"]]":10413,"Ġlingk":10414,"Ġlaju":10415,"Ġketurunan":10416,"Perihal":10417,"Ġpemegang":10418,"Peranan":10419,"Ġed":10420,"AIR":10421,"EMPAT":10422,"ĠKON":10423,"Ġamaran":10424,"ĠPERDANA":10425,"ihad":10426,"PERTANYAAN":10427,"Bab":10428,"Ġibadah":10429,"ĠAsal":10430,"Â®":10431,"ĠKamu":10432,"Ġkelulusan":10433,"ĠKALI":10434,"ĠPed":10435,"Ġdalamnya":10436,"ĠKeseluruhan":10437,"Ġdimiliki":10438,"ĠInc":10439,"eheh":10440,"IKSAAN":10441,"ĠCut":10442,"dt":10443,"yanmar":10444,"Ġmenggambarkan":10445,"agat":10446,"Ġkelapa":10447,"Ġlaku":10448,"ĠCeramah":10449,"ĠMIN":10450,"syarah":10451,"ĠGrid":10452,"Ġdilancarkan":10453,"IX":10454,"Ġlantai":10455,"ĠKor":10456,"ĠApp":10457,"Ġkecantikan":10458,"angsar":10459,"ĠSolenoid":10460,"\";":10461,"Ġberpuasa":10462,"Ġtegar":10463,"ĠVegas":10464,"lear":10465,"Ġsaling":10466,"ĠForensik":10467,"VI":10468,"SPR":10469,"andatangani":10470,"ĠPinterest":10471,"sson":10472,"wikipedia":10473,"Ġarwah":10474,"MALAYSIA":10475,"ĠGua":10476,"Kebanyakan":10477,"angkok":10478,"iliti":10479,"Ġmestilah":10480,"Cuma":10481,"ĠBERKAITAN":10482,"81":10483,"Ġmenghadiri":10484,"oung":10485,"anjawan":10486,"du":10487,"Ġjuara":10488,"Ġ36":10489,"Ġtetamu":10490,"apanya":10491,"Ð°Ñ":10492,"rilik":10493,"ĠOceania":10494,"Ġsehar":10495,"manakah":10496,"ĠFRE":10497,"ĠID":10498,"Hukum":10499,"Ġnovel":10500,"Ġkukuh":10501,"Ustaz":10502,"iller":10503,"head":10504,"cuti":10505,"ĠLiyana":10506,"Ġmenunaikan":10507,"ĠTanya":10508,"Ġgrad":10509,"ousehold":10510,"Ġpengaruh":10511,"ubai":10512,"Ġtitik":10513,"MT":10514,"Ġkawin":10515,"ĠHand":10516,"ĠBol":10517,"ĠHo":10518,"ĠÙħ":10519,"ĠDen":10520,"ght":10521,"Ġpopulasi":10522,"ĠKehidupan":10523,"Ġrencana":10524,"ĠLangat":10525,"Kelantan":10526,"Hotels":10527,"DUK":10528,"Ġkesempatan":10529,"Ġpembiayaan":10530,"Ġkeldai":10531,"Sembang":10532,"ĠIntan":10533,"Ġdikehendaki":10534,"ïĢ":10535,"Ġill":10536,"inggah":10537,"ĠRahim":10538,"Ġorder":10539,"ĠGuan":10540,"Borong":10541,"ĠGal":10542,"ankan":10543,"ĠMufti":10544,"Ġmenjejaskan":10545,"Ġbina":10546,"Ġteknikal":10547,"Ġkabel":10548,"GUN":10549,"ebaran":10550,"ĠRak":10551,"Ġsurah":10552,"oklat":10553,"urniture":10554,"Ġmemaklumkan":10555,"Struktur":10556,"cu":10557,"Ġmalas":10558,"ĠMES":10559,"ĠGre":10560,"LM":10561,"Ġsw":10562,"Ġplan":10563,"ĠMURID":10564,"ĠGaya":10565,"View":10566,"font":10567,"amus":10568,"ĠTerj":10569,"Timbalan":10570,"ĠKHAS":10571,"Ġgunung":10572,"Ġsula":10573,"Ġgroup":10574,"iser":10575,"Ġamp":10576,"ĠAudit":10577,"ĠAnn":10578,"Ġmne":10579,"udul":10580,"BAHAGIAN":10581,"akmen":10582,"Suami":10583,"AMAD":10584,"Ġcab":10585,"Bonus":10586,"Ġperg":10587,"ĠBa":10588,"usiaan":10589,"rastruktur":10590,"ĠBayar":10591,"Ġhiburan":10592,"ĠCawangan":10593,"ĠPERJUMPAAN":10594,"IBG":10595,"porno":10596,"ĠZon":10597,"SOALAN":10598,"Ġpemas":10599,"ĠSahabat":10600,"Ġlaga":10601,"304":10602,"Can":10603,"uduki":10604,"Ġrenang":10605,"utus":10606,"Ġsedemikian":10607,"sebab":10608,"etus":10609,"Ġtern":10610,"ĠBebas":10611,"engkel":10612,"KN":10613,"Ġrequest":10614,"ness":10615,"OOK":10616,"Ġtersendiri":10617,"Ġhatinya":10618,"spektif":10619,"angu":10620,"ĠPELAB":10621,"gr":10622,"Ġsembah":10623,"Ġbotol":10624,"lit":10625,"MENGENAI":10626,"Ġdpt":10627,"ĠKesan":10628,"ukisan":10629,"Ġsesama":10630,"TAG":10631,"ults":10632,"iel":10633,"widgeo":10634,"Ġbreast":10635,"Ġparlimen":10636,"Ġfakta":10637,"Ġsijil":10638,"Penginapan":10639,"ĠKongsi":10640,"ĠPasar":10641,"Tempahan":10642,"ĠNy":10643,"ehic":10644,"ĠPangsapuri":10645,"ĠSpecialist":10646,"ebuah":10647,"Ġgh":10648,"uhira":10649,"ĠGaji":10650,"ĠSumat":10651,"Ġrugi":10652,"Ġalternatif":10653,"ĠDol":10654,"Ġpenjualan":10655,"syarikat":10656,"ĠTechn":10657,"Siri":10658,"Ġbodoh":10659,"ĠKerana":10660,"Ġblok":10661,"Alex":10662,"yari":10663,"ismo":10664,"ĠPres":10665,"tur":10666,"onde":10667,"ĠPage":10668,"ĠFujitec":10669,"ĠSyria":10670,"ĠhitsZuhira":10671,"\"}":10672,"Ġmimpi":10673,"Ġovers":10674,"sin":10675,"ĠZHIPU":10676,"ĠAzizah":10677,"ĠKg":10678,"Ġdiv":10679,"ĠBawah":10680,"Ġmenyerang":10681,"ingatan":10682,"ĠMans":10683,"Terlebih":10684,"Ġmengatasinya":10685,"ven":10686,"Ġge":10687,"Ġserupa":10688,"Met":10689,"neumatik":10690,"Ġmengendalikan":10691,"Ġsemestinya":10692,"ĠTertinggi":10693,"unuhan":10694,"ĠAsp":10695,"ĠNat":10696,"Ġmencadangkan":10697,"Ġminda":10698,"ahar":10699,"ingkah":10700,"Ġwanted":10701,"ĠABDUL":10702,"sun":10703,"ĠBOM":10704,"ĠKuki":10705,"Ġseharusnya":10706,"ASS":10707,"ĠMalaysian":10708,"Ġpemasaran":10709,"empurn":10710,"ĠUniversity":10711,"Comp":10712,"ĠBingo":10713,"ĠFidyah":10714,"angkal":10715,"ĠSakura":10716,"emium":10717,"Ġkristal":10718,"ĠGolf":10719,"Ġbulanan":10720,"agaimanakah":10721,"Ġmenganggur":10722,"ĠBinti":10723,"ĠMUS":10724,"Pengh":10725,"aining":10726,"Ġmengisi":10727,"okal":10728,"ĠPemakanan":10729,"ĠKomputer":10730,"Ġdisesuaikan":10731,"Ġaras":10732,"reate":10733,"ĠSAB":10734,"Ġkepad":10735,"ĠMold":10736,"shirt":10737,"Dar":10738,"ĠMetro":10739,"Ġkeluarganya":10740,"UTAMA":10741,"ĠKeutamaan":10742,"ĠChildren":10743,"ĠVilla":10744,"ĠEksklusif":10745,"Ġmeliputi":10746,"Ġkeber":10747,"car":10748,"anjutkan":10749,"ĠGUK":10750,"250":10751,"Tim":10752,"ĠSJK":10753,"Ġmenghilangkan":10754,"ULAN":10755,"Ġsuntikan":10756,"Ġelok":10757,"ĠPelan":10758,"ĠPekeliling":10759,"Ġmenguasai":10760,"teria":10761,"abuk":10762,"skap":10763,"kota":10764,"!âĢĿ":10765,"Ġselanjutnya":10766,"2011":10767,"upply":10768,"pool":10769,"Ġtulen":10770,"ĠRantau":10771,"amik":10772,"Ġhelai":10773,"ordan":10774,"ĠPembersihan":10775,"ĠLihat":10776,"Pu":10777,"APORAN":10778,"Ġmenubuhkan":10779,"uminium":10780,"ulist":10781,"Ġwayar":10782,"olumnis":10783,"ĠKOS":10784,"enomena":10785,"Ġpil":10786,"ĠNig":10787,"Ġterdahulu":10788,"alimah":10789,"tri":10790,"hip":10791,"Ġkemampuan":10792,"ĠJamal":10793,"orkshops":10794,"Itulah":10795,"empuh":10796,"ulullah":10797,"filem":10798,"ĠKal":10799,"ĠNikotin":10800,"Mend":10801,"ject":10802,"Ġtolak":10803,"ĠPemandu":10804,"ahil":10805,"Ġpad":10806,"ĠKitab":10807,"Ġrupiah":10808,"ajud":10809,"Hummer":10810,"Kan":10811,"Ġjas":10812,"ĠBARU":10813,"ors":10814,"aksin":10815,"CIO":10816,"Ġaloi":10817,"Fatin":10818,"ĠIII":10819,"Permainan":10820,"Soal":10821,"atap":10822,"Ġloan":10823,"ĠJel":10824,"Ġjodoh":10825,"Instagram":10826,"ategories":10827,"Ġgelaran":10828,"Ġberpel":10829,"enanya":10830,"Ipoh":10831,"awakan":10832,"acity":10833,"Notis":10834,"Ġmenjejakkan":10835,"hadapan":10836,"Lag":10837,"Ġmasakan":10838,"ĠShop":10839,"Ġtumbuh":10840,"PART":10841,"ĠMENY":10842,"ĠMachine":10843,"ĠSaif":10844,"120":10845,"omas":10846,"Berry":10847,"Ġparu":10848,"core":10849,"ĠBAND":10850,"ĠYusuf":10851,"harina":10852,"Ġcall":10853,"Ġnafsu":10854,"Ġasia":10855,"Ġlatar":10856,"Download":10857,"raq":10858,"ĠKepala":10859,"Ġladang":10860,"ĠSudah":10861,"emat":10862,"ys":10863,"Ġgaris":10864,"atalog":10865,"ĠKAMAN":10866,"away":10867,"unty":10868,"bab":10869,"HRIMAN":10870,"ĠDASHRIMAN":10871,"che":10872,"Universiti":10873,"ĠPantas":10874,"Ġmembu":10875,"Ġluka":10876,"menulist":10877,"Ġceramah":10878,"imbol":10879,"Ġpadang":10880,"ĠBernama":10881,"Ġberlalu":10882,"Ġizin":10883,"Ġtheir":10884,"ĠMed":10885,"KE":10886,"Ġdeg":10887,"Mad":10888,"Ġ1999":10889,"Kela":10890,"Ġprepar":10891,"510":10892,"orb":10893,"mpau":10894,"Ġ47":10895,"Ġaja":10896,"ĠPADA":10897,"Ġrib":10898,"oth":10899,"ALIAN":10900,"ĠSUNGO":10901,"Keluarga":10902,"roversi":10903,"Mata":10904,"position":10905,"ĠSis":10906,"ĠComment":10907,"uruhjaya":10908,"Perhubungan":10909,"Ġhaba":10910,"Jan":10911,"Ġkelemahan":10912,"Ġstatement":10913,"Ġnyawa":10914,"ĠBumi":10915,"Tenang":10916,"Ġtalent":10917,"Berdasarkan":10918,"ĠExpress":10919,"Proses":10920,"ĠDisebabkan":10921,"Sab":10922,"ĠIsland":10923,"ĠBela":10924,"ield":10925,"andakan":10926,"fikir":10927,"Ġdikenal":10928,"92":10929,"ĠTradisi":10930,"AKIM":10931,"Ġajar":10932,"Ġbuang":10933,"Ġpengl":10934,"ÑĮ":10935,"aduh":10936,"Ġdidalam":10937,"Mr":10938,"Ġmenyerahkan":10939,"Global":10940,"Ġdiperk":10941,"ĠZakaria":10942,"EPI":10943,"ĠNews":10944,"rosoft":10945,"ĠTEL":10946,"wait":10947,"pes":10948,"ĠEric":10949,"ĠMul":10950,"ĠPump":10951,"Ġawek":10952,"ĠNote":10953,"Ġidaman":10954,"pend":10955,"ladesh":10956,"comment":10957,"erbai":10958,"Latihan":10959,"ĠKOM":10960,"ocus":10961,"Maklumbalas":10962,"ĠMurid":10963,"%.":10964,"ĠMati":10965,"ĠKP":10966,"ĠPembayaran":10967,"Lesen":10968,"ĠSekarang":10969,"Speed":10970,"Ġmilk":10971,"Ġpeta":10972,"jing":10973,"Ġram":10974,"ĠTERG":10975,"AWAT":10976,"Keadaan":10977,"JAYA":10978,"Segala":10979,"Ġsorang":10980,"Ġdibah":10981,"ĠTw":10982,"ĠBULANAN":10983,"ĠPenting":10984,"ĠAmin":10985,"Ġmenak":10986,"Undian":10987,"cta":10988,"Ġjemaah":10989,"MAS":10990,"tua":10991,"obium":10992,"sorry":10993,"Ġterm":10994,"ĠASSALAM":10995,"Ġpenat":10996,"Ġterba":10997,"ĠMT":10998,"Ġakademik":10999,"eron":11000,"LATIHAN":11001,"Ġpanel":11002,"ĠPages":11003,"ĠCzech":11004,"Ġmuat":11005,"ĠAIR":11006,"formation":11007,"ĠTuanku":11008,"Ġkil":11009,"Amalan":11010,"Emel":11011,"visyen":11012,"aco":11013,"Ġmerokok":11014,"Ġmakna":11015,"onaliti":11016,"Ġkononnya":11017,"Ġkok":11018,"Berg":11019,"ĠPay":11020,"ants":11021,"ander":11022,"alahgunaan":11023,"Ġmajikan":11024,"here":11025,"ĠPERH":11026,"DAT":11027,"perkara":11028,"ames":11029,"ĠPerancangan":11030,"ĠBerhormat":11031,"antra":11032,"ople":11033,"Ġvirus":11034,"Juma":11035,"ĠWest":11036,"ROS":11037,"Akta":11038,"AMBAR":11039,"ĠDrs":11040,"Ġjantan":11041,"Masih":11042,"ĠAdmin":11043,"ĠTrak":11044,"ĠMolybdenum":11045,"IHATAN":11046,"ĠPDRM":11047,"Serious":11048,"Noor":11049,"usa":11050,"anjaran":11051,"Ġmayat":11052,"ĠSiang":11053,"Warna":11054,"fire":11055,"romo":11056,"ĠBerry":11057,"known":11058,"Ġki":11059,"Ġentri":11060,"ĠSim":11061,"esies":11062,"May":11063,"ĠhitsJuma":11064,"ĠPELABURAN":11065,"ĠSI":11066,"Ġexp":11067,"Ġterdekat":11068,"urnal":11069,"etif":11070,"Ġ400":11071,"Rahsia":11072,"Ġmencuba":11073,"Ġmemanggil":11074,"Dato":11075,"erbaijan":11076,"ĠPeranti":11077,"Recent":11078,"Cuba":11079,"Ġsegalanya":11080,"Il":11081,"ĠKejuruteraan":11082,"ukhari":11083,"Ġpanggil":11084,"tika":11085,"ante":11086,"jae":11087,"ĠIbnu":11088,"ARTIKEL":11089,"';":11090,"Ġcuaca":11091,"tica":11092,"ademi":11093,"Ġmendalam":11094,"Qi":11095,"atalan":11096,"Ġdiorang":11097,"Ġplak":11098,"Privasi":11099,"UTER":11100,"Be":11101,"Ġcl":11102,"ESS":11103,"ENARAI":11104,"ĠLO":11105,"Khalil":11106,"Ġberharga":11107,"kita":11108,"Ġdie":11109,"Pinjaman":11110,"Tali":11111,"Ġback":11112,"ĠEditor":11113,"entangkan":11114,"ĠApabila":11115,"Model":11116,"Ġbelah":11117,"ĠPendapatan":11118,"ĠInovasi":11119,"Ġsetuju":11120,"ĠKompleks":11121,"itim":11122,"ĠPolicy":11123,"Ġtata":11124,"768":11125,"Ġlakonan":11126,"ejutkan":11127,"ukuhkan":11128,"down":11129,"Ġmenceritakan":11130,"ĠTEKNOLOGI":11131,"Ġternyata":11132,"stat":11133,"ĠTua":11134,"Text":11135,"ĠVi":11136,"bul":11137,"ĠPEMANTA":11138,"ĠBerkualiti":11139,"upanya":11140,"ĠTINGGAL":11141,"Ġsembilan":11142,"AHANG":11143,"Ni":11144,"jenis":11145,"Ġfirst":11146,"Ġlist":11147,"96":11148,"iston":11149,"ĠMerdeka":11150,"Ġpertengahan":11151,"ĠPenulis":11152,"ĠKemaskini":11153,"Ġlucky":11154,"ĠDigunakan":11155,"Ġagenda":11156,"Ġcincin":11157,"ĠPerlindungan":11158,"ģï¸ı":11159,"ĠTUN":11160,"Ġkeempat":11161,"ĠðŁĳģï¸ı":11162,"ĠKEW":11163,"ĠSastera":11164,"soalan":11165,"exus":11166,"Melaka":11167,"Ġneraka":11168,"ications":11169,"ĠFitrah":11170,"Ġ-->":11171,"ĠAsy":11172,"HP":11173,"Ġdika":11174,"ĠAds":11175,"Ð³":11176,"yorkan":11177,"Ġmisi":11178,"nl":11179,"ujudan":11180,"ĠKejohanan":11181,"}}":11182,"ĠTrib":11183,"ublish":11184,"uhur":11185,"rok":11186,"loth":11187,"Ġpelayar":11188,"Ġtelevisyen":11189,"ĠSUM":11190,"ĠAkademik":11191,"ambak":11192,"Sec":11193,"ĠHa":11194,"Äį":11195,"Ġsetempat":11196,"ANGGU":11197,"inerary":11198,"Ġ34":11199,"Tar":11200,"uatkuasa":11201,"ĠDapat":11202,"olet":11203,"Ġconf":11204,"mies":11205,"auhid":11206,"ĠPENDAFTARAN":11207,"ĠSyah":11208,"Ġcurious":11209,"rea":11210,"Judi":11211,"alog":11212,"ĠLai":11213,"itch":11214,"ĠKilogram":11215,"ĠWAR":11216,"Ġucap":11217,"Ġej":11218,"parent":11219,"ĠRingkas":11220,"atangkan":11221,"unch":11222,"yarham":11223,"ompat":11224,"apore":11225,"Ġfleksibel":11226,"Ġanc":11227,"ĠHabib":11228,"ALL":11229,"Ġbetapa":11230,"Ġmeraih":11231,"sb":11232,"ĠPENTAKSIRAN":11233,"Harini":11234,"_-":11235,"low":11236,"Ġmengemukakan":11237,"Masukkan":11238,"ĠXT":11239,"Ġgabungan":11240,"Android":11241,"BlogThis":11242,"320":11243,"ĠPelbagai":11244,"eden":11245,"Ġeng":11246,"aliknya":11247,"fan":11248,"94":11249,"(),":11250,"Ġ3500":11251,"Ġkomunikasi":11252,"ĠComplex":11253,"ĠHarta":11254,"Ġgem":11255,"ĠBOMBA":11256,"Ġseeing":11257,"Ġfamily":11258,"ĠDenaihati":11259,"ĠPemegang":11260,"Tiga":11261,"evan":11262,"Ġkecemasan":11263,"etulan":11264,"Ġvehic":11265,"aring":11266,"akt":11267,"Kira":11268,"%,":11269,"Ġdiumumkan":11270,"Sewaan":11271,"ĠClub":11272,"Korporat":11273,"abentuk":11274,"ADEMIK":11275,"ĠLan":11276,"Ġamal":11277,"astis":11278,"Jelly":11279,"ĠCeme":11280,"Ġterlepas":11281,"Ġmenafikan":11282,"Ġlambat":11283,"Ġrec":11284,"Ġberhak":11285,"Sehingga":11286,"ax":11287,"Ġmenukar":11288,"Ġsetengah":11289,"ĠKim":11290,"Ġcm":11291,"Ġdiet":11292,"Ġhangat":11293,"Ġrahmat":11294,"ahaha":11295,"å·":11296,"UZ":11297,"Ġcheck":11298,"Kota":11299,"otis":11300,"ĠKW":11301,"ĠJur":11302,"ĠBorong":11303,"ĠBS":11304,"ĠBANK":11305,"Ġprosedur":11306,"anggang":11307,"ELAM":11308,"sen":11309,"ĠÙ":11310,"ðŁİ":11311,"pasti":11312,"do":11313,"Ġlebar":11314,"ĠRakan":11315,"Ġiman":11316,"Ġlamb":11317,"Ġbad":11318,"Ġovercome":11319,"%;":11320,"ĠMarcello":11321,"ikah":11322,"ĠBakal":11323,"ĠKitar":11324,"ŀĹ":11325,"antaian":11326,"anusiaan":11327,"Ġpembuatan":11328,"adahal":11329,"Ġciptaan":11330,"ĠStatus":11331,"background":11332,"Trans":11333,"bo":11334,"ĠTafsir":11335,"ĠSemak":11336,"ĠMengenang":11337,"Ġsememangnya":11338,"revious":11339,"category":11340,"Ungu":11341,"Ġselebriti":11342,"iyyah":11343,"Ġsuper":11344,"ĪĪ":11345,"loma":11346,"Ġsurau":11347,"ĠKimia":11348,"BANGSAAN":11349,"cikli":11350,"Ġberlainan":11351,"ĠSaham":11352,"abb":11353,"ĠANAK":11354,"etap":11355,"VF":11356,"erob":11357,"ĠJAW":11358,"ĠWik":11359,"Menghitung":11360,"ĠZahid":11361,"VIRUS":11362,"Pemas":11363,"Ġhasrat":11364,"Sakit":11365,"ĠAnt":11366,"ĠPower":11367,"ĠSetiap":11368,"Pandu":11369,"UDAH":11370,"Arahan":11371,"ĠDa":11372,"AJIAN":11373,"Keras":11374,"ĠTunku":11375,"Ġsis":11376,"ĠKEBANGSAAN":11377,"Far":11378,"VC":11379,"ĠMungkin":11380,"ĠTERGANGGU":11381,"Da":11382,"ONGAN":11383,"æŀĹ":11384,"INT":11385,"Hye":11386,"IKUL":11387,"ĠMalik":11388,"Ġsyaitan":11389,"Ġrm":11390,"Itinerary":11391,"ĠTM":11392,"egal":11393,"å·Ŀ":11394,"ARAWAK":11395,"imatan":11396,"Ġdewan":11397,"kandal":11398,"èĪĪ":11399,"ĠAdalah":11400,"âĢ¦]":11401,"ĠKabinet":11402,"æŀĹå·Ŀ":11403,"æŀĹå·ĿèĪĪ":11404,"Ġpucuk":11405,"ĠexportURL":11406,"ZZz":11407,"ĠAzmin":11408,"Irine":11409,"asabah":11410,"izen":11411,"Alam":11412,"Tus":11413,"Ġoversupply":11414,"Tas":11415,"Ġbicara":11416,"Ġjiran":11417,"ĠBackground":11418,"Ġbaby":11419,"nr":11420,"Ġkecederaan":11421,"Ġpd":11422,"Ġlainnya":11423,"Ġmommies":11424,"met":11425,"Ġdita":11426,"ĠâĤ¬":11427,"Ġmulanya":11428,"ĠDila":11429,"atuhkan":11430,"ejuang":11431,"itro":11432,"Duduklah":11433,"Ġmengucapkan":11434,"idad":11435,"Ġbasically":11436,"Ġwidgets":11437,"akwah":11438,"berry":11439,"Ġbeberap":11440,"ME":11441,"Ġ});":11442,"Ġillusion":11443,"ĠPersiaran":11444,"akulti":11445,"ĠMembuat":11446,"oper":11447,"Ġba":11448,"Ġrun":11449,"ĠPaip":11450,"Ġkorporat":11451,"ĠØ§ÙĦ":11452,"ision":11453,"Ġera":11454,"ĠKajang":11455,"ĠAis":11456,"PEMBERITAHUAN":11457,"Samp":11458,"tick":11459,"Ġpremis":11460,"ging":11461,"Ġbakar":11462,"Ġpenyej":11463,"ĠMazidul":11464,"Ġkartun":11465,"omet":11466,"Ġkaitan":11467,"Jawatankuasa":11468,"Amerika":11469,"91":11470,"ĠHel":11471,"Ġdiab":11472,"ĠOl":11473,"ĠSetelah":11474,"Ġkor":11475,"EMBER":11476,"Up":11477,"ĠTerima":11478,"Yusri":11479,"DARI":11480,"piano":11481,"sal":11482,"ĠCam":11483,"enderah":11484,"ĠMENJ":11485,"atusan":11486,"Ġtopik":11487,"Ġangka":11488,"ĠSwit":11489,"Tenanglah":11490,"Ġillusionist":11491,"ersing":11492,"zan":11493,"imbing":11494,"Pengedar":11495,"Id":11496,"Ġceme":11497,"Case":11498,"Lupus":11499,"dea":11500,"ĠSeluar":11501,"ongkar":11502,"ĠDestinasi":11503,"Ġ37":11504,"Sch":11505,"eff":11506,"ĠKeg":11507,"ĠWidgetbox":11508,"inja":11509,"Ġfr":11510,"andum":11511,"Kaki":11512,"Ġberimpian":11513,"Ġkretif":11514,"Anwar":11515,"untukku":11516,"Ġfantastis":11517,"ĠIkutan":11518,"_-_":11519,"book":11520,"aduan":11521,"Ġwangi":11522,"evelopment":11523,"Ġ*#":11524,"ĠTadbir":11525,"Ġskim":11526,"ĠSus":11527,"Ġpembeli":11528,"Ġpahala":11529,"Ġbegini":11530,"ĠDivisyen":11531,"UANG":11532,"istian":11533,"Ġdihubungi":11534,"ĠLately":11535,"ĠProvinsi":11536,"ĠPelakon":11537,"omestay":11538,"Ġbermanfaat":11539,"ucap":11540,"Ġsegal":11541,"ubungkan":11542,"anghai":11543,"Ġsurprises":11544,"Ġsebenanya":11545,"ĠTindakan":11546,"ernary":11547,"Ġsambungan":11548,"Tu":11549,"ĠMCA":11550,"aKu":11551,"amas":11552,"Ġberceritakan":11553,"KUR":11554,"Ġkelompok":11555,"POL":11556,"Counting":11557,"ĠRE":11558,"Zzz":11559,"UMAH":11560,"Sebag":11561,"Ġrahim":11562,"runnerseven":11563,"tercipta":11564,"LAIKUM":11565,"Ġnet":11566,"Ġcr":11567,"ĠGad":11568,"Ġiternary":11569,"seperti":11570,"Ġirine":11571,"Ġpemasangan":11572,"eville":11573,"bungak":11574,"orgia":11575,"Ġtertakluk":11576,"Temanmu":11577,"ĠBerimpian":11578,"ĠBackgrounds":11579,"ĠNeoCounter":11580,"ZzZZz":11581,"ZzZZzZzz":11582,"NeoCounter":11583,"uceme":11584,"Ġshaaa":11585,"Ġasaaa":11586,"ĠpuTus":11587,"ĠASSALAMUA":11588,"Qiuceme":11589,"bungakikin":11590,"ZzZZzZzzZZ":11591,"Bercu":11592,"Ġhel":11593,"ĠYas":11594,"impa":11595,"Ġsiasat":11596,"Agama":11597,"Ġkur":11598,"ohamad":11599,"Ġvehicles":11600,"ĠPhoto":11601,"guru":11602,"Pengerusi":11603,"ĠBersih":11604,"ĠTempahan":11605,"ĠKamar":11606,"Bak":11607,"oj":11608,"âĢ¦..":11609,"eno":11610,"ĠDATA":11611,"ĠRock":11612,"Oh":11613,"Wak":11614,"BEL":11615,"ashi":11616,"OTIS":11617,"ĠRasuah":11618,"Ġsekaligus":11619,"sijilan":11620,"araja":11621,"ĠFakta":11622,"idan":11623,"Dikuasakan":11624,"ĠTaj":11625,"ĠPencegahan":11626,"Kat":11627,"ĠPeraturan":11628,"Alatan":11629,"Ġpulih":11630,"Kali":11631,"Ġcur":11632,"bert":11633,"aliza":11634,"Muh":11635,"ĠIL":11636,".$":11637,"ĠRES":11638,"hriz":11639,"Ġmuh":11640,"Ġpandu":11641,"Ġfat":11642,"CAT":11643,"ĠElectric":11644,"Ġdicapai":11645,"apaan":11646,"Ġcol":11647,"ashim":11648,"kereta":11649,"gadis":11650,"tainer":11651,"Ġlapisan":11652,"warni":11653,"RAHIM":11654,"Ġbawang":11655,"utin":11656,"ĠSarjana":11657,"has":11658,"ĠGuinea":11659,"Ġsusulan":11660,"ĠKETUA":11661,"ĠPengurus":11662,"uff":11663,"Ġdiikuti":11664,"amanan":11665,"Ġasalnya":11666,"muk":11667,"Ġjin":11668,"Contohnya":11669,"irim":11670,"tg":11671,"Ġray":11672,"Ġkomitmen":11673,"ĠTep":11674,"eterusnya":11675,"Ġterkena":11676,"ĠBergerak":11677,"ĠDhuha":11678,"Ġbibir":11679,"Ã¼":11680,"Ġentah":11681,"Sing":11682,"Ġkelmarin":11683,"ĠDARUL":11684,"enderahati":11685,"ĠWal":11686,"Ġbela":11687,"abitkan":11688,"Ġpemuda":11689,"ford":11690,"raine":11691,"src":11692,"Ali":11693,"vey":11694,"Ġkotor":11695,"syaikh":11696,"xi":11697,"ogen":11698,"een":11699,"abiskan":11700,"Ġmenel":11701,"Ġimam":11702,"size":11703,"Ġweek":11704,"iriman":11705,"anglima":11706,"ĠMAHKAMAH":11707,"isar":11708,"Farah":11709,"ĠProfil":11710,"AJIB":11711,"Ġinsiden":11712,"Ġbarisan":11713,"Ġjanganlah":11714,"ĠTee":11715,"Ġmekanikal":11716,"ĠUTUSAN":11717,"ĠBersalin":11718,"berb":11719,"ongg":11720,"ĠSerbuk":11721,"MR":11722,"ĠYour":11723,"Ġur":11724,"asai":11725,"ĠJALAN":11726,"upkan":11727,"struction":11728,"Ġditanya":11729,"ĠSEPAK":11730,"ĠSila":11731,"htar":11732,"Ġdakwah":11733,"ibur":11734,"Emp":11735,"ĠNic":11736,"ðŁİģ":11737,"ĠLuc":11738,"AWA":11739,"show":11740,"Ġimg":11741,"Ġpage":11742,"ĠKela":11743,"ATUAN":11744,"ĠMacam":11745,"Close":11746,"LY":11747,"cla":11748,"Space":11749,"ĠPUTERI":11750,"ĠRev":11751,"onial":11752,"MAH":11753,"ĠLabuan":11754,"tempat":11755,"abot":11756,"Ġketawa":11757,"Ġ43":11758,"langkah":11759,"Ġip":11760,"ĠPrint":11761,"osakkan":11762,"Ġ65":11763,"Ġborong":11764,")};":11765,"ĠPelabuhan":11766,"Ġmenyelamatkan":11767,"Ġbajet":11768,"ĠPapan":11769,"USAHA":11770,"ĠAF":11771,"umpat":11772,"Ġmencabar":11773,"satu":11774,"Ġmani":11775,"ĠKAW":11776,"Ġkedatangan":11777,"Ġdikongsi":11778,"ĠSandakan":11779,"ĠMekah":11780,"Ġtry":11781,"Ġrawak":11782,"ĠPasukan":11783,"Ġdilengkapi":11784,"Ġdikemukakan":11785,">>":11786,"Ġteras":11787,"ĠTN":11788,"Ġmemerintah":11789,"INAR":11790,"Ġpembersihan":11791,"Ġpenawar":11792,"ĠHonda":11793,"ĠKul":11794,"ategor":11795,"uke":11796,"abled":11797,"Percuma":11798,"ĠPelarut":11799,"Ġistri":11800,"Ġseakan":11801,"ĠFaz":11802,"ĠFungsi":11803,"ĠOcean":11804,"bean":11805,"ĠPenguatkuasaan":11806,"CON":11807,"Re":11808,"view":11809,"ĠKoperasi":11810,"Ġfacebook":11811,"ejap":11812,"pengeluar":11813,"+\"":11814,"Na":11815,"vest":11816,"Ciri":11817,"ganiz":11818,"Ġrunt":11819,"stereo":11820,"png":11821,"ĠHer":11822,"ĠGanti":11823,"ulator":11824,"ekabentuk":11825,"Ġjawatankuasa":11826,"Ġkitar":11827,"adinya":11828,"ĠMusang":11829,"auty":11830,"utupan":11831,"ĠBerg":11832,"type":11833,"Ġsiang":11834,"ĠSor":11835,"enaraikan":11836,"ĠhitsYusri":11837,"NS":11838,"Ġmelawan":11839,"avy":11840,"enne":11841,"Ġikhlas":11842,"Val":11843,"âĢĻ,":11844,"Ġpetunjuk":11845,"olek":11846,"ĠModel":11847,"pp":11848,"2008":11849,"amak":11850,"agung":11851,"Geni":11852,"zerland":11853,"Sup":11854,"Dulu":11855,"Ġ140":11856,"ĠKanser":11857,"dim":11858,"ĠJa":11859,"cal":11860,"ampong":11861,"ĠMyanmar":11862,"button":11863,"say":11864,"ĠHEBAHAN":11865,"Ġaq":11866,"220":11867,"limat":11868,"eum":11869,"inginan":11870,"Ġ44":11871,"Kitab":11872,"ohol":11873,"Siti":11874,"=!":11875,"ĠCreative":11876,"ĠPengk":11877,"Ġsesebuah":11878,"eling":11879,"ĠCuti":11880,"ĠRasa":11881,"barang":11882,"ves":11883,"Ġband":11884,"Kewangan":11885,"Ġtetek":11886,"ĠMarin":11887,"Ġmalaikat":11888,"Ġrokok":11889,"Garis":11890,"Ġmencegah":11891,"ĠAsing":11892,"Ġname":11893,"eluk":11894,"elancer":11895,"Ġnasional":11896,"ĠAlf":11897,"ĠJajahan":11898,"Ġpenerima":11899,"urans":11900,"irin":11901,"Ġplag":11902,"ĠDouble":11903,"esarkan":11904,"ĠYuk":11905,"Ġdiatas":11906,"(\\'":11907,"ebun":11908,"ELAMATAN":11909,"istim":11910,"ĠCik":11911,"Ġpercetakan":11912,"ĠLetak":11913,"ĠLED":11914,"ahlian":11915,"iskinan":11916,"Ġterperinci":11917,"Tor":11918,"ĠLembaran":11919,"odata":11920,"oph":11921,"Ġkebebasan":11922,"esterol":11923,"Ġmengan":11924,"ïĤ":11925,"urawat":11926,"Ġkonf":11927,"peny":11928,"Ġsyah":11929,"ADIL":11930,"Ġja":11931,"Ġbertugas":11932,"Ġasid":11933,"fiah":11934,"ĠSn":11935,"Ġ2002":11936,"Buletin":11937,"Ġche":11938,"ograp":11939,"pol":11940,"Ġali":11941,"impangan":11942,"Bias":11943,"oja":11944,"otan":11945,"Kadang":11946,"Ġasyik":11947,"ĠBusiness":11948,"Ġposisi":11949,"ĠSuka":11950,"Semak":11951,"abut":11952,"ĠRekod":11953,"alla":11954,"buahan":11955,"Health":11956,"Ġfood":11957,"ĠPELANGGAN":11958,"uasir":11959,"UTUSAN":11960,"wakilan":11961,"ĠFac":11962,"ULI":11963,"Ġberhadapan":11964,"Ġtip":11965,"ily":11966,"indexOf":11967,"ĠCond":11968,"ĠTamp":11969,"Ketahui":11970,"ĠJuara":11971,"ĠSemb":11972,"ÙĲ":11973,"Ġresepi":11974,"Ġperi":11975,"ADER":11976,"Ġperpaduan":11977,"ĠPep":11978,"ĠAbidin":11979,"Ġekor":11980,"ĠDoktor":11981,"ĠAdakah":11982,"overnment":11983,"Ġkhabar":11984,"ĠSensor":11985,"Sam":11986,"ĠBERITA":11987,"marhum":11988,"Ġcampuran":11989,"star":11990,"Ġpunggung":11991,"EDAR":11992,"BT":11993,"ĠSkrin":11994,"Seluar":11995,"ĠKapal":11996,"RESEPI":11997,"Bekas":11998,"Ġmaksimum":11999,"Pokok":12000,"Ġsulung":12001,"yana":12002,"ĠPercutian":12003,"Cap":12004,"Ġgoreng":12005,"Ġsubsidi":12006,"ĠRh":12007,"\\\\":12008,"Ġbertahan":12009,"AKAR":12010,"Ġotot":12011,"ĠSEN":12012,"diq":12013,"reza":12014,"Ġkasut":12015,"ĠPembantu":12016,"ĠMOH":12017,"ĠTaw":12018,"aful":12019,"ĠWajah":12020,"Ġhala":12021,"Ġkemasukan":12022,"iii":12023,"Ġselaku":12024,"Ġsaksi":12025,"Ġinformasi":12026,"ĠHish":12027,"bbean":12028,"Ġkesakitan":12029,"satunya":12030,"PKR":12031,"iram":12032,"ĠBagan":12033,"ĠAj":12034,"ĠBasikal":12035,"001":12036,"ICS":12037,"PELANTIKAN":12038,"Ġsudi":12039,"ĠBelum":12040,"juran":12041,"Ġamatur":12042,"ĠLATIHAN":12043,"istimewaan":12044,"ĠBaginda":12045,"AGAAN":12046,"ĠPengeluaran":12047,"resif":12048,"Ġpersetujuan":12049,"Ġdiluluskan":12050,"ule":12051,"];":12052,"aing":12053,"asuh":12054,"ĠSuci":12055,"Ġkimpalan":12056,"ĠATM":12057,"Sampai":12058,"Ġsangka":12059,"ĠPeguam":12060,"ĠMinutasi":12061,"ĠJim":12062,"Bur":12063,"Ġdikaitkan":12064,"ersey":12065,"oder":12066,"Ġbutang":12067,"Ġrum":12068,"amuk":12069,"Panel":12070,"Ġjadikan":12071,"Ġpemakanan":12072,"default":12073,"ĠPlay":12074,"akuan":12075,"Ġterbukti":12076,"ĠTukar":12077,"Ġdikawal":12078,"Ġkebakaran":12079,"ĠSPA":12080,"Ġhuruf":12081,"ĠAur":12082,"Argentina":12083,"Pertuan":12084,"jub":12085,"ĠLE":12086,"ĠSm":12087,"empah":12088,"urt":12089,"946":12090,"Ġsenyuman":12091,"Ġgerak":12092,"Ġthey":12093,"ĠEricsson":12094,"Ġ:-":12095,"IKULUM":12096,"erat":12097,"Mula":12098,"ington":12099,"epal":12100,"Ġklinik":12101,"ĠSad":12102,"Melalui":12103,"ERTA":12104,"Ġplayer":12105,"ĠJantung":12106,"ĠCameron":12107,"ĠBarb":12108,"une":12109,"ĠSiapa":12110,"Ġkongsikan":12111,"Ġancaman":12112,"ĠZainal":12113,"Ġbinatang":12114,"kala":12115,"ĠCruiser":12116,"semua":12117,"ĠKah":12118,"Bekalan":12119,"ugasan":12120,"Cerit":12121,"Ġrakaman":12122,"Prof":12123,"Ġcermin":12124,"enna":12125,"Ġmuhammad":12126,"Ġperlumbaan":12127,"ble":12128,"Remaja":12129,"Ġmengkaji":12130,"ĠWhatsApp":12131,"Sertai":12132,"Caj":12133,"Inf":12134,"Ġbahu":12135,"ZA":12136,"Ġmenyentuh":12137,"ĠUmrah":12138,"stant":12139,"Ġpemberita":12140,"emerlangan":12141,"bang":12142,"ĠSempena":12143,"lon":12144,"Ġpastinya":12145,"Ġcender":12146,"Ġrindu":12147,"Ġlip":12148,"eon":12149,"ĠEksport":12150,"ĠCategory":12151,"Rancangan":12152,"Ġcap":12153,"ĠParis":12154,"epadu":12155,"Cookie":12156,"Ġabah":12157,"pal":12158,"ĠOEM":12159,"Ġfaraj":12160,"wh":12161,"Ġsemoga":12162,"ĠTime":12163,"ĠTip":12164,"ĠRisiko":12165,"anka":12166,"Ġhang":12167,"nilai":12168,"Ġtayar":12169,"ague":12170,"rar":12171,"umbung":12172,"ASIH":12173,"Ġsamada":12174,"DANG":12175,"MOSI":12176,"ĠMoving":12177,"ĠHiburan":12178,"angsang":12179,"Ġuols":12180,"Australia":12181,"North":12182,"ĠFEL":12183,"Ġdimen":12184,"Ġmenjana":12185,"ĠKeadilan":12186,"Ġdibeli":12187,"CAP":12188,"izyan":12189,"ĠApakah":12190,"Ġwho":12191,"uality":12192,"Pelbagai":12193,"Institusi":12194,"ĠKAR":12195,"ĠĠ":12196,"ĠBekerja":12197,"antage":12198,"Ġgaram":12199,"ĠMSSPK":12200,"ĠCON":12201,"antun":12202,"ĠWajib":12203,"ĠMersing":12204,"Ġdisampaikan":12205,"Ġmenurunkan":12206,"ĠPULAU":12207,"dahulu":12208,"Kak":12209,"Om":12210,"Ġgelang":12211,"Ġmaha":12212,"asia":12213,"ĠVirgin":12214,"ĠDAA":12215,"inum":12216,"ĠDIN":12217,"nival":12218,"Ġditolak":12219,"Login":12220,"ĠKoleksi":12221,"erbang":12222,"SIS":12223,"zam":12224,"iPhone":12225,"pelajar":12226,"Ġserba":12227,"Ġhd":12228,"pindahan":12229,"ĠKemb":12230,"Menj":12231,"Ġeksport":12232,"Memp":12233,"ĠMir":12234,"ĠDaya":12235,"Ġpenyertaan":12236,"ĠMPS":12237,"Ġpenipuan":12238,"Ġatt":12239,"Ant":12240,"ĠEs":12241,"Ġsubjek":12242,"oral":12243,")},":12244,"Ġslot":12245,"ense":12246,"Ġdiing":12247,"onstr":12248,"anjangkan":12249,"ĠHAN":12250,"ĠColor":12251,"Ġvan":12252,"ĠMF":12253,"Ġtiap":12254,"Lib":12255,"Å¡":12256,"ĠKEWANGAN":12257,"ĠCoklat":12258,"Ġberhati":12259,"ĠAKU":12260,"AUN":12261,"ĠKESELAMATAN":12262,"Ġ38":12263,"ĠLangkah":12264,"izan":12265,"Ġmenep":12266,"Ġmembincangkan":12267,"yangkan":12268,"Ġalahan":12269,"ĠKelebihan":12270,"Ġdeng":12271,"UNJ":12272,"Ġjanda":12273,"ĠOutlander":12274,"ersial":12275,"Ġpersiapan":12276,"Bacaan":12277,"igres":12278,"ĠPerjanjian":12279,"angkalan":12280,"ĠSouth":12281,"Ġdikimpal":12282,"PERASI":12283,"PERIKSAAN":12284,"hadow":12285,"ĠAplikasi":12286,"ĠSayang":12287,"Sw":12288,"Ġmenekan":12289,"Best":12290,"eder":12291,"ourg":12292,"ĠUK":12293,"Ġtakkan":12294,"Ġfasa":12295,"ĠSOALAN":12296,"feed":12297,"ĠAMAN":12298,"ĠMesh":12299,"esuaian":12300,"Ġrawat":12301,"ĠInter":12302,"Ġ2003":12303,"lie":12304,"ĠWAI":12305,"AFIAN":12306,"afik":12307,"ĠActive":12308,"Ġlg":12309,"ocial":12310,"TERA":12311,"ĠSAMB":12312,"ghan":12313,"ĠTEN":12314,"Ġpendedahan":12315,"json":12316,"ĠMPK":12317,"Ġdihadapi":12318,"tengah":12319,"tual":12320,"Ġ'';":12321,"Ġnuk":12322,"'m":12323,"ĠTechnology":12324,"Novel":12325,"ongo":12326,"Ġpetani":12327,"Ġhigh":12328,"Isteri":12329,"Ø¨":12330,"Ġhantu":12331,"ĠZulkifli":12332,"105":12333,"MOHONAN":12334,"ĠAishah":12335,"ĠDatin":12336,"ĠPon":12337,"ĠKristian":12338,"ĠDesire":12339,"results":12340,"utorial":12341,"ĠREM":12342,"intangan":12343,"gar":12344,"Ayam":12345,"km":12346,"Diambil":12347,"Ġsm":12348,"Ġisyarat":12349,"Pelak":12350,"Tags":12351,"ĠPaduka":12352,"Terengganu":12353,"ungary":12354,"Jump":12355,"ekolahan":12356,"ĠUNIT":12357,"ĠTek":12358,"Ġkejohanan":12359,"zuan":12360,"ĠLift":12361,"Ġkekayaan":12362,"Ġmengulas":12363,"ĠBerkuasa":12364,"ĠJump":12365,"Ġbulat":12366,"rie":12367,"motor":12368,"ctnr":12369,"ĠGabenor":12370,"ĠSamad":12371,"ĠAC":12372,"menu":12373,"ujur":12374,"ĠPaper":12375,"avid":12376,"gerakkan":12377,"ĠSelebriti":12378,"utaan":12379,"indrom":12380,"duanya":12381,"Ġkerj":12382,"Ġkalu":12383,"ikatan":12384,"Ġdimaklumkan":12385,"Ġsekal":12386,"eader":12387,"ĠAP":12388,"ĠCompanies":12389,"ĠBla":12390,"OI":12391,"ĠPEMILIHAN":12392,"Ġdatuk":12393,"ĠMuhyiddin":12394,"Nabi":12395,"Ms":12396,"Ġbasah":12397,"arum":12398,"ĠManager":12399,"antap":12400,"BUKA":12401,"ĠPlate":12402,"ĠBeras":12403,"Ġsihir":12404,"Kont":12405,"oterapi":12406,"ĠFM":12407,"ĠMerawat":12408,"Ġwarisan":12409,"Ġliter":12410,"Ġmed":12411,"ungun":12412,"Malaysiakini":12413,"ĠNorway":12414,"Â¬":12415,"fe":12416,"ĠProses":12417,"Kepada":12418,"ATION":12419,"ahagia":12420,"Ġtangannya":12421,"elir":12422,"terma":12423,"Red":12424,"Ġmagnet":12425,"itain":12426,"Belajar":12427,"Ġpisau":12428,"ðŁĴ":12429,"unjungan":12430,"Ġend":12431,"ĠPagi":12432,"ĠImpreza":12433,"ĠIBRAHIM":12434,"agedi":12435,"KOL":12436,"ĠBangkok":12437,"ĠPur":12438,"Jer":12439,"ĠDO":12440,"ĠHaram":12441,"ĠYIN":12442,"Presiden":12443,"ĠSeperti":12444,"NOV":12445,"ĠOlder":12446,"eti":12447,"One":12448,"Ġjasa":12449,"ĠLiber":12450,"agak":12451,"asilan":12452,"Ġpenilaian":12453,"Ġpengesahan":12454,"Ġdisimpan":12455,"ĠMadinah":12456,"ĠCamp":12457,"ĠPTPTN":12458,"ekali":12459,"Pembangun":12460,"ĠTaksiran":12461,"utawan":12462,"Peti":12463,"ĠCaribbean":12464,"modal":12465,"ĠFurniture":12466,"ĠTHE":12467,"Ġdef":12468,"ĠCatat":12469,"Ġdec":12470,"ĠAlex":12471,"ĠLes":12472,"ĠPerhubungan":12473,"Seterusnya":12474,"ĠDH":12475,"falt":12476,"Ġmemasak":12477,"Ġmahukan":12478,"Ġtebal":12479,"itemap":12480,"aunseling":12481,"ĠPERK":12482,"She":12483,"seInt":12484,"abungkan":12485,"ĠPC":12486,"ĠVol":12487,"ĠSimpanan":12488,"ĠDuit":12489,"ampilkan":12490,"Ġjujur":12491,"mereka":12492,"ĠAzerbaijan":12493,"ĠBalik":12494,"ĠDisk":12495,"else":12496,"TADB":12497,"Ġpec":12498,"sekolah":12499,"Ġsentuh":12500,"ĠMasih":12501,"Ġwere":12502,"Newer":12503,"asmian":12504,"Hati":12505,"ĠDz":12506,"Ġpengec":12507,"ĠKlinik":12508,"Ġkebiasaan":12509,"Ġkafir":12510,"Ġtersembunyi":12511,"ĠAngkatan":12512,"ĠhitsLEE":12513,"anjutan":12514,"ĠLEMBAGA":12515,"Ġmengelak":12516,"Ġshe":12517,"ĠCoupe":12518,"Ġnih":12519,"Ġcampur":12520,"Travel":12521,"nav":12522,"taff":12523,"sumber":12524,"ĠTrail":12525,"ubu":12526,"ĠPakistan":12527,"ĠPorno":12528,"ĠCentre":12529,"itors":12530,"ĠArt":12531,"ream":12532,"Ġdipapar":12533,"ĠINS":12534,"ĠBangladesh":12535,"siapa":12536,"cap":12537,"hargaan":12538,"ĠTradisional":12539,"Tungsten":12540,"ĠWild":12541,"Ġtukang":12542,"ALITI":12543,"Ġpersediaan":12544,"Ġgambaran":12545,"Ġkegemaran":12546,"find":12547,"uaskan":12548,"Logan":12549,"Ġsarung":12550,"ĠTetap":12551,"ĠTenggara":12552,"Ġrequir":12553,"Ġmenyedari":12554,"ĠPELAJAR":12555,"Penilaian":12556,"Ġkolam":12557,"unggang":12558,"ĠDeposit":12559,"ĠPrius":12560,"onom":12561,"ĠMenang":12562,"Kosmo":12563,"ĠSIM":12564,"ertian":12565,"Ġakak":12566,"700":12567,"ĠHalim":12568,"Sungai":12569,"Ġmempengaruhi":12570,"atatkan":12571,"ĠMenurut":12572,"Komen":12573,"Ġditu":12574,"Ġph":12575,"allet":12576,"ĠIslands":12577,"img":12578,"Ġ{{":12579,"Cikgu":12580,"Ġsain":12581,"ĠLos":12582,"ikalau":12583,"ĠPendek":12584,"112":12585,"Rob":12586,"Ġkemajuan":12587,"Business":12588,"Ġpasir":12589,"ĠMil":12590,"ĠCross":12591,"uak":12592,"ward":12593,"Ġrev":12594,"ingguan":12595,"Ġsayur":12596,"ihatin":12597,"SMK":12598,"116":12599,"Ġpotensi":12600,"ĠMalibu":12601,"opacity":12602,"Classified":12603,"Ġpin":12604,"Ġmadu":12605,"amadun":12606,"ĠSon":12607,"ĠDagangan":12608,"minal":12609,"Ġmemuat":12610,"jangan":12611,"Ġnow":12612,"Ġmenamatkan":12613,"ĠIBU":12614,"BAIK":12615,"ĠFOR":12616,"enderma":12617,"sar":12618,"PKG":12619,"jika":12620,"ĠMaya":12621,"alade":12622,"Ġpuk":12623,"ĠTeknik":12624,"house":12625,"sak":12626,"ĠTRAN":12627,"Ġselagi":12628,"ĠCabri":12629,"ĠDickson":12630,"Ġbahaya":12631,"ajukan":12632,"paru":12633,"ĠPengiktirafan":12634,"empa":12635,"Ġujarnya":12636,"anto":12637,"ukri":12638,"pela":12639,"Ġsebegini":12640,"ĠOthman":12641,"wn":12642,"Ġseronok":12643,"Ġsekalipun":12644,"Ġalso":12645,"BO":12646,"Char":12647,"erra":12648,"Ġkorban":12649,"ĠLengkap":12650,"Ġbanc":12651,"ayati":12652,"ĠAccord":12653,"Ġbimbit":12654,"ĠKencing":12655,"!\"":12656,"ONI":12657,"ĠSEMASA":12658,"ĠOrig":12659,"ĠAGAMA":12660,"ĠKT":12661,"uattro":12662,"Ġpilihanraya":12663,"ibatan":12664,"Ġumrah":12665,"Ùĩ":12666,"alurkan":12667,"Ġketara":12668,"ĠYukon":12669,"ĠTahfiz":12670,"Ġmatanya":12671,"ĠGRO":12672,"ewas":12673,"ĠKharina":12674,"Zul":12675,"igresen":12676,"ĠVantage":12677,"ĠBerjaya":12678,"Insya":12679,"ĠPenang":12680,"Ġmemakan":12681,"cak":12682,"nie":12683,"Ġmenerangkan":12684,"arankan":12685,"Ġpenampilan":12686,"rey":12687,"Ġkilometer":12688,"Pengarah":12689,"ĠWakaf":12690,"Pelesenan":12691,"Ġberlebihan":12692,"Ġurut":12693,"Ġstress":12694,"ĠLyn":12695,"Ġsyariah":12696,"Ġperhiasan":12697,"ubi":12698,"ĠJalil":12699,"angkaan":12700,"ĠMulia":12701,"usuhan":12702,"Ġworkshops":12703,"anca":12704,"Tema":12705,"lies":12706,"ĠCutlass":12707,"edium":12708,"Ñĭ":12709,"ISAH":12710,"ĠURUS":12711,"PRU":12712,"ĠEscalade":12713,"olf":12714,"ĠSilverado":12715,"HIBLI":12716,"Ġakhlak":12717,"amerkan":12718,"Ġsang":12719,"ĠMazdaSpeed":12720,"ĠMoto":12721,"impulan":12722,"ĠSyeikh":12723,"ĠEdisi":12724,"Ġdibahagikan":12725,"ĠRashid":12726,"eringan":12727,"ĠOh":12728,"urator":12729,"ĠKecemasan":12730,"Tocco":12731,"Genio":12732,"GHIBLI":12733,"oyang":12734,"Ġmuslimah":12735,"ĠKut":12736,"ganas":12737,"Mesej":12738,"Ġanjuran":12739,"Ġpenjimatan":12740,"Ã·":12741,"ritik":12742,"Ġais":12743,"eca":12744,"Ġgamis":12745,"Ġteori":12746,"afar":12747,"ĠRose":12748,"entif":12749,"ĺº":12750,"Ġdemokrasi":12751,"ĠOLAH":12752,"Cipta":12753,"Ġha":12754,"master":12755,"Ġpenjawat":12756,"auf":12757,"922":12758,"ĠYan":12759,"usahawanan":12760,"luc":12761,"yayang":12762,"Barang":12763,"laku":12764,"agihkan":12765,"Ġdilindungi":12766,"ĠSEMB":12767,"ĠNUR":12768,"Ġaci":12769,"ĠAsh":12770,"ihatkan":12771,"Ġrumahnya":12772,"ĠCos":12773,"Add":12774,"aserJet":12775,"ĠSC":12776,"ĠResepi":12777,"YO":12778,"Ġrealiti":12779,"agih":12780,"Ġsubuh":12781,"Ġanalisis":12782,"Kelainan":12783,"Ġbukit":12784,"SX":12785,"WW":12786,"ĠKredit":12787,"ibub":12788,"UDI":12789,"Ġbiarkan":12790,"claimer":12791,"Ġpertukaran":12792,"onc":12793,"Ġmempers":12794,"betes":12795,"ĠAmat":12796,"usus":12797,"SMS":12798,"reak":12799,"('.":12800,"ĠWEB":12801,"Sin":12802,"ĠCorn":12803,"ĠPENYELAMAT":12804,"ĠMK":12805,"Ġsendi":12806,"Pintu":12807,"Huawei":12808,"Ġkonteks":12809,"Ġperasan":12810,"alakan":12811,"TIF":12812,"Ġyak":12813,"ANAK":12814,"JEK":12815,"Pengiklanan":12816,"rand":12817,"ĠPorn":12818,"Ġmenghormati":12819,"enjak":12820,"Paling":12821,"Ġleb":12822,"andra":12823,"ĠRoman":12824,"Ġmengharapkan":12825,"DS":12826,"ett":12827,"ĠOm":12828,"Ġbg":12829,"ĠKERTAS":12830,"ray":12831,"ĠEncik":12832,"angkakan":12833,"Ġmelangkah":12834,"Ġpertahanan":12835,"ĠTap":12836,"Ġselera":12837,"gig":12838,"Ġelemen":12839,"Ġsiku":12840,"rade":12841,"fer":12842,"entiti":12843,"lagi":12844,"Logo":12845,"Ġknow":12846,"wrap":12847,"Ġraj":12848,"Ġpembunuhan":12849,"BARU":12850,"ĠPLUS":12851,"Institut":12852,"ĠBUKU":12853,"Samsung":12854,"ĠBantu":12855,"romos":12856,"ĠMO":12857,"ĠSkru":12858,"ĠVitara":12859,"epatan":12860,"ĠPS":12861,"akwaan":12862,"ĠJemaah":12863,"Ġkesejahteraan":12864,"ĠPEMBEL":12865,"ĠBUKAN":12866,"elawan":12867,"ĠKrai":12868,"alimantan":12869,"ujang":12870,"angkuk":12871,"ĠTeknikal":12872,"Ġpersendirian":12873,"ĠPernah":12874,"Tanah":12875,"ĠDakwah":12876,"tag":12877,"uth":12878,"ĠLas":12879,"ĠModal":12880,"ĠPerbadanan":12881,"erma":12882,"lease":12883,"oshiba":12884,"ĠKDYMM":12885,"ANDU":12886,"Ġ39":12887,"ĠRSS":12888,"Ġberbincang":12889,"Ltd":12890,"ĠBall":12891,"ĠSky":12892,"lassic":12893,"ĠCahaya":12894,"Ġcorak":12895,"ĠTata":12896,"ories":12897,"ĠSuara":12898,"zo":12899,"uangkan":12900,"rumah":12901,"Ġtidaklah":12902,"Ġterjejas":12903,"ĠPINANG":12904,"Ġakar":12905,"Ġberpendapat":12906,"ebaskan":12907,"Ġmenduduki":12908,"Lower":12909,"ĠDepan":12910,"sium":12911,"params":12912,"Ġlelong":12913,"ĠJEN":12914,"ĠKilang":12915,"Ġuntung":12916,"ĠIbn":12917,"ĠPhone":12918,"ĠIntegriti":12919,"cc":12920,"Ġsampingan":12921,"ATE":12922,"Ġmenjamin":12923,"Ġsingkat":12924,"ĠVersi":12925,"EBOOK":12926,"ĠKWSP":12927,"NAH":12928,"ĠPagar":12929,"601":12930,"Ġmengakibatkan":12931,"Ġdaripad":12932,"Ġ41":12933,"Ġpencegahan":12934,"Ġletupan":12935,"Ġtandas":12936,"Konsep":12937,"ĠDaud":12938,"gb":12939,"Ġrogol":12940,"Ġ56":12941,"Ġmembabitkan":12942,"Name":12943,"tai":12944,"ĠChin":12945,"haliza":12946,"Ġdian":12947,"ERA":12948,"Lalu":12949,"Ġbalasan":12950,"ugat":12951,"ĠUlama":12952,"ĠSETIAUSAHA":12953,"baikan":12954,"asmikan":12955,"ĠPahat":12956,"andai":12957,"achok":12958,"Ġmenaiki":12959,"ĠQur":12960,"Ġpertubuhan":12961,"AV":12962,"CLASS":12963,"âľ":12964,"Call":12965,"ĠNub":12966,"antina":12967,"icaraan":12968,"zlee":12969,"Turut":12970,"ĠPTFE":12971,"ĠTahap":12972,"PG":12973,"RSS":12974,"Pad":12975,"Ġkuda":12976,"Ġwartawan":12977,"ĠOKU":12978,"Ġcik":12979,"Ġsenaman":12980,"uard":12981,"BlackBerry":12982,"Ġijazah":12983,"strumen":12984,"ĠOF":12985,"Ġmelanggar":12986,"nahkan":12987,"ĠAutomotif":12988,"RAGA":12989,"ĠHouse":12990,"RUL":12991,"sn":12992,"align":12993,"Ġhaid":12994,"Ġperangai":12995,"Ġusul":12996,"Ġkelantan":12997,"ODAY":12998,"ornia":12999,"osok":13000,"ĠWater":13001,"ĠRimba":13002,"Ġdibangunkan":13003,"Fi":13004,"atis":13005,"rading":13006,"AKU":13007,"ĠRang":13008,"orbanan":13009,"imaan":13010,"ĠBos":13011,"KET":13012,"Ġbelas":13013,"ibubapaan":13014,"anyakkan":13015,"Ġjambatan":13016,"Ð¿":13017,"TON":13018,"Ġben":13019,"ĠAustr":13020,"Ġberniaga":13021,"Ġmasanya":13022,"SENARAI":13023,"Ġfabrik":13024,"114":13025,"Ġcomel":13026,"ĠKris":13027,"South":13028,"oldid":13029,"ĠTouch":13030,"Äįina":13031,"ZER":13032,"kohol":13033,"HD":13034,"ĠSEJ":13035,"krip":13036,"Majalah":13037,"Ġ800":13038,"Ġpengumuman":13039,"rown":13040,"Ġkesal":13041,"ulatan":13042,"Sesi":13043,"Ġjambu":13044,"Ġhormon":13045,"Bagaimanakah":13046,"Ġgram":13047,"ĠService":13048,"ĠBetul":13049,"elis":13050,"ĠPuteh":13051,"ensif":13052,"ertakan":13053,"word":13054,"ĠPEK":13055,"aloi":13056,"Ġstill":13057,"Ingat":13058,"Rakan":13059,"ĠSama":13060,"siap":13061,"URUN":13062,"emahkan":13063,"BR":13064,"HIR":13065,"lac":13066,"udu":13067,"zos":13068,"each":13069,"Ġnur":13070,"ĠPendengaran":13071,"({":13072,"itra":13073,"Ġitem":13074,"olok":13075,"ĠGudang":13076,"ĠChat":13077,"alifornia":13078,"ĠKematian":13079,"ĠJuga":13080,"assin":13081,"ending":13082,"ĠEmb":13083,"Ġselaras":13084,"ĠTambah":13085,"ĠKelajuan":13086,"ĠUKM":13087,"Ġwedding":13088,"Ġsekalian":13089,"Ġstaf":13090,"Ġbencana":13091,"arium":13092,"engkapkan":13093,"ĠFe":13094,"ĠDara":13095,"ĠSid":13096,"ĠSerupa":13097,"We":13098,"Ġmengumpul":13099,"370":13100,"ĠAura":13101,"Tajuk":13102,"Ġkambing":13103,"kp":13104,"ĠTambahan":13105,"prise":13106,"estern":13107,"===":13108,"ĠOcta":13109,"ĠArgentina":13110,"Ġdll":13111,"AHAYA":13112,"Ġgitu":13113,"ĠOrgan":13114,"urniakan":13115,"ĠPayudara":13116,"ĠBILIK":13117,"ĠBeach":13118,"Ġsegmen":13119,"DARIPADA":13120,"ĠHashim":13121,"UNIT":13122,"ĠJok":13123,"ĠLTD":13124,"ĠContoh":13125,"ĠLove":13126,"ĠBerbuka":13127,"Ġlast":13128,"SELANGOR":13129,"MAR":13130,"Ġteh":13131,"Ġbersikap":13132,"Ġsudu":13133,"ĠYusop":13134,"Pentadbiran":13135,"acuum":13136,"Ġmemperbaiki":13137,"ĠDadah":13138,"izar":13139,"Ġindonesia":13140,"ĠSURAT":13141,"masa":13142,"Ð°ÑĢ":13143,"egram":13144,"menc":13145,"Ġmengembangkan":13146,"Ge":13147,"ĠJumlah":13148,"ĠObjektif":13149,"ĠKaz":13150,"AILY":13151,"Ġpiaw":13152,"ĠTawaran":13153,"Script":13154,"Ġtampil":13155,"ĠLS":13156,"AKAT":13157,"ĠBenar":13158,"Amanz":13159,"ĠEth":13160,"Ġdouble":13161,"facebook":13162,"ĠâĢº":13163,"Ġmendek":13164,"Ġperj":13165,"ĠADUN":13166,"imi":13167,"Pertandingan":13168,"Ġdirogol":13169,"ilikan":13170,"ĠMuar":13171,"atering":13172,"ifi":13173,"ĠSDN":13174,"Ġbertentangan":13175,"Catat":13176,"ĠMasak":13177,"Ġour":13178,"ĠKesatuan":13179,"ĠIbadat":13180,"Smart":13181,"iarah":13182,"Sinar":13183,"ĠSidang":13184,"ĠTempoh":13185,"antahan":13186,"ipas":13187,"ando":13188,"FR":13189,"ĠJen":13190,"Jo":13191,"uring":13192,"iTM":13193,"ĠOLAHRAGA":13194,"remove":13195,"TUAN":13196,"Ġmeskipun":13197,"Piala":13198,"ĠNaf":13199,"Ġbapanya":13200,"Assalam":13201,"Ġtd":13202,"angganan":13203,"Ġkurus":13204,"aitul":13205,"ĠNGO":13206,"Ġistana":13207,"kad":13208,"ko":13209,"Ġlulus":13210,"zal":13211,"Ġpenerangan":13212,"ujan":13213,"Ġmelamb":13214,"Ġwhich":13215,"umpama":13216,"ĠiPhone":13217,"Link":13218,"Ġudah":13219,"ĠIjazah":13220,"ĠMandi":13221,"ĠMajalah":13222,"uding":13223,"ĠDungun":13224,"orge":13225,"ĠDual":13226,"vertis":13227,"Ġsperma":13228,"bih":13229,"Bos":13230,"arden":13231,"Ġ180":13232,"ĠIndeks":13233,"ĠKeluar":13234,"180":13235,"ATIF":13236,"Ġwat":13237,"ACEBOOK":13238,"ĠMarang":13239,"ped":13240,"Atau":13241,"negeri":13242,"ĠRoll":13243,"Click":13244,"Rujukan":13245,"Lawatan":13246,"akam":13247,"Ġdicetak":13248,"ĠMadu":13249,"izz":13250,"ghanistan":13251,"Kasino":13252,"Sepanjang":13253,"ĠRASMI":13254,"string":13255,"Tinjau":13256,"ĠTokyo":13257,"Back":13258,"Ġmembersihkan":13259,"Ġterkand":13260,"ĠPenginapan":13261,"ĠSoccer":13262,"luang":13263,"Ġ51":13264,"USD":13265,"ĠShams":13266,"ĠSESI":13267,"ĠHighlands":13268,"ALAT":13269,"pur":13270,"ĠLevel":13271,"900":13272,"Nov":13273,"Sektor":13274,"Sekian":13275,"ĠFox":13276,"Ġkit":13277,"olly":13278,"Rasa":13279,"elor":13280,"Ġteksi":13281,"Menderma":13282,"Keperluan":13283,"rite":13284,"Ġkari":13285,"ĠMilan":13286,"Ġlebuh":13287,"ĠPengenalan":13288,"Ġlaks":13289,"Ġabdul":13290,"Ġmahasiswa":13291,"tainment":13292,"Ġsemakan":13293,"ĠWhite":13294,"ĠLot":13295,"Ġkubur":13296,"Ġmelampau":13297,"ĠKOSONG":13298,"Ġsinggah":13299,"Ġbelanja":13300,"pet":13301,"ergi":13302,"Ġmenaikkan":13303,"ĠJac":13304,"ĠMuat":13305,"ambahbaikan":13306,"ector":13307,"Ġdiselesaikan":13308,"Vari":13309,"ĠTaip":13310,"Ġlum":13311,"search":13312,"faz":13313,"ganasan":13314,"ĠSquare":13315,"ĠForm":13316,"AO":13317,"ancam":13318,"Ġ//":13319,"Perbelanjaan":13320,"Mil":13321,"ĠLanka":13322,"ĠNiat":13323,"ĠSilat":13324,"ĠFort":13325,"ude":13326,"Ġpersatuan":13327,"Plus":13328,"LU":13329,"pcs":13330,"ĠWeld":13331,"Juga":13332,"Feed":13333,"Ġlab":13334,"Ġjerawat":13335,"Ġmengira":13336,"tafa":13337,"Ġberlakunya":13338,"Ġdilarang":13339,"Ġsupport":13340,"Bintang":13341,"ĠSpring":13342,"suka":13343,"loy":13344,"sein":13345,"Ġsejauh":13346,"Ġteruja":13347,"DER":13348,"Lar":13349,"Ġlidah":13350,"ento":13351,"ĠTema":13352,"eku":13353,"arta":13354,"Ġbon":13355,"ĠSyurga":13356,"Sebaliknya":13357,"Casino":13358,"aharu":13359,"Ġperusahaan":13360,"Raz":13361,"rangler":13362,"Ġkacang":13363,"ĠMond":13364,"ĠCincin":13365,"Ġweeks":13366,"ĠLub":13367,"Ġmerosakkan":13368,"Pertama":13369,"Ã³n":13370,"ĠPesuruhjaya":13371,"Pur":13372,"ĠWay":13373,"Ianya":13374,"ĠAHMAD":13375,"ahagiaan":13376,"Ġkeganasan":13377,"ĠPrima":13378,"Ġbengkak":13379,"orneo":13380,"eve":13381,"ĠIzzah":13382,"Ġcita":13383,"ĠCher":13384,"Ġkapasiti":13385,"Ġpl":13386,"ĠTaiwan":13387,"113":13388,"ĠIT":13389,"etuskan":13390,"ĠNAK":13391,"Ġ53":13392,"Has":13393,"ĠColomb":13394,"vel":13395,"UKA":13396,"idth":13397,"Ġnotis":13398,"ĠTerus":13399,"Mi":13400,"Informasi":13401,"quran":13402,"ĠâĨ":13403,"ĠPembekal":13404,"ektar":13405,"Ġfollow":13406,"ĠKas":13407,"isalah":13408,"Ġstor":13409,"Imam":13410,"--------":13411,"Testimoni":13412,"Sar":13413,"POPULAR":13414,"ulkan":13415,"toLower":13416,"toLowerCase":13417,"Ġmencecah":13418,"Ġserbuk":13419,"kerana":13420,"ĠPa":13421,"onjol":13422,"ULA":13423,"Ġbergelar":13424,"Ġ[âĢ¦]":13425,"Ġformat":13426,"ĠâĢ¦.":13427,"Ġmengenakan":13428,"Ġspesies":13429,"Ġterlihat":13430,"Ġ}}":13431,"Abang":13432,"did":13433,"Ġmutiara":13434,"ĠREMAJA":13435,"Ġkemaluan":13436,"Sarawak":13437,"Sej":13438,"antut":13439,"Tur":13440,"Ġ46":13441,"Trader":13442,"enault":13443,"Ġpra":13444,"uela":13445,"ĠHalal":13446,"Ġterdedah":13447,"Ġmengganggu":13448,"ĠHebat":13449,"Ġdimakan":13450,"Privacy":13451,"ilir":13452,"ĠPENGADIL":13453,"ĠMos":13454,"Gen":13455,"Ġmengingatkan":13456,"Ġsimbol":13457,"Ġseekor":13458,"emputan":13459,"qa":13460,"ĠAin":13461,"FX":13462,"Sangat":13463,"Pernah":13464,"EDAH":13465,"Ġseimbang":13466,"udar":13467,"ĠTODAY":13468,"Ġyakni":13469,"current":13470,"yaki":13471,"Ġbagai":13472,"anie":13473,"ĠTawau":13474,"ansur":13475,"Bro":13476,"bagi":13477,"ĠKadar":13478,"ĠBritain":13479,"Ġajak":13480,"ĠKembali":13481,"otika":13482,"empuran":13483,"ĠLahir":13484,"aux":13485,"ĠChord":13486,"ĠSini":13487,"ĠHafiza":13488,"Kolumnis":13489,"Ġinfrastruktur":13490,"Ġerotik":13491,"dney":13492,"Solid":13493,"Ġmemotong":13494,"Ġdikesan":13495,"use":13496,"lec":13497,"Ġpenonton":13498,"ĠJOHOR":13499,"Aw":13500,"ictoria":13501,"EMI":13502,"Tekanan":13503,"ĠEurope":13504,"Ġringkasnya":13505,"Ġoper":13506,"Arch":13507,"Ġgoogle":13508,"enjata":13509,"ĠKur":13510,"Ġkreatif":13511,"Ġberbahaya":13512,"Ġmengesan":13513,"dit":13514,"Ġkontroversi":13515,"ĠUnknown":13516,"ĠNubiles":13517,"Ġagen":13518,"Offic":13519,"ĠBuff":13520,"Ejen":13521,"Ġberitahu":13522,"ĠEUR":13523,"ĠMahmud":13524,"Badan":13525,"ucian":13526,"aaaa":13527,"Ġusus":13528,"oster":13529,"Ġ42":13530,"AWAN":13531,"ĠPENINGKATAN":13532,"ANITA":13533,"ĠKadbod":13534,"Ġbercerita":13535,"ĠMok":13536,"ĠYahya":13537,"Ġdiperoleh":13538,"Ã¢":13539,"ĠTamb":13540,"ĠArm":13541,"125":13542,"ifatkan":13543,"Ġmenyeluruh":13544,"ĠJames":13545,"ĠJordan":13546,"Seksyen":13547,"Vi":13548,"ĠLinks":13549,"ordin":13550,"Ġany":13551,"ĠCav":13552,"ties":13553,"ĠUcapan":13554,"Ġmenipu":13555,"ĠProfesional":13556,"Tindakan":13557,"JEN":13558,"agaikan":13559,"Ġpengk":13560,"gium":13561,"Ġawning":13562,"Ġpadanya":13563,"Ġproduc":13564,"Terl":13565,"âĢĿ,":13566,"ĠPEPERIKSAAN":13567,"Saiz":13568,"Ġthem":13569,"ĠNigeria":13570,"esting":13571,"ebei":13572,"160":13573,"ension":13574,"ĠVivix":13575,"Ġpertuduhan":13576,"Ġdipasang":13577,"ĠGoreng":13578,"ĠBomba":13579,"edang":13580,"unyikan":13581,"esus":13582,"Ġlutut":13583,"Ġbercer":13584,"Ġkompleks":13585,"ĠPerlawanan":13586,"anting":13587,"HARGA":13588,"ĠFlat":13589,"ĠKEDAH":13590,"adalah":13591,"Ġbertajuk":13592,"ĠPintar":13593,"Ġtat":13594,"Ġdisip":13595,"apu":13596,"ĠFamily":13597,"laman":13598,"Keg":13599,"ĠJAYA":13600,"lemen":13601,"Ġkemurungan":13602,"ĠSwitzerland":13603,"cita":13604,"ĠFinance":13605,"ĠhitsFarah":13606,"AYARAN":13607,"Ġhairan":13608,"Ġpembantu":13609,"Tiba":13610,"sid":13611,"ĠHoki":13612,"Ġund":13613,"AST":13614,"ebelah":13615,"ĠPelacur":13616,"eft":13617,"Ġmengarahkan":13618,"Ġtersuai":13619,"Pemandu":13620,"Ġmengajak":13621,"Lembaran":13622,"Ġgraduan":13623,"Biodata":13624,"ewi":13625,"apung":13626,"Ġganda":13627,"feng":13628,"ĠJohan":13629,"ĠSat":13630,"ĠGuna":13631,"Ġpark":13632,"intangi":13633,"ĠSISTEM":13634,"Ġbetina":13635,"Ġmedan":13636,"ĠAlt":13637,"lamp":13638,"apt":13639,"ĠDulu":13640,"Ġkemerdekaan":13641,"char":13642,"ebus":13643,"Luar":13644,"ÐºÐ°":13645,"afaz":13646,"Ġobjek":13647,"ĠDo":13648,"ĠShow":13649,"ĠRIS":13650,"ĠAmpang":13651,"Mesyuarat":13652,"ĠTERBAIK":13653,"Ġ1439":13654,"ĠKetiga":13655,"JIAN":13656,"ĠVo":13657,"ĠMelak":13658,"ĠHarun":13659,"Rekreasi":13660,"jar":13661,"ĠBlue":13662,"Fir":13663,"Pertanyaan":13664,"ĠSAYA":13665,"adai":13666,"ĠSabu":13667,"Ġlay":13668,"ambi":13669,"ĠFreelancer":13670,"ĠGabungan":13671,"edonia":13672,"Ġmenyambung":13673,"Inter":13674,"ĠMilik":13675,"ĠmStar":13676,"ĠRujukan":13677,"Ġdikendalikan":13678,"entiasa":13679,"ukuran":13680,"ĠWith":13681,"IKASI":13682,"EMA":13683,"Ġmenghabiskan":13684,"Enakmen":13685,"Umur":13686,"Ky":13687,"ĠTubuh":13688,"ĠCopyright":13689,"PAUTAN":13690,"ĠTeh":13691,"idata":13692,"ĠIK":13693,"ĠSAL":13694,"ĠFesyen":13695,"Gejala":13696,"Ġ550":13697,"ĠTudung":13698,"ĠTARIK":13699,"ĠDiet":13700,"Ġekstr":13701,"Ġenable":13702,"Ġdiangg":13703,"ĠCOMP":13704,"Ġstudio":13705,"ĠSuk":13706,"Ġdisiplin":13707,"afa":13708,"Ġtertutup":13709,"GURU":13710,"Ġcarta":13711,"ĠJADI":13712,"Ġkonkrit":13713,"laah":13714,"Ġkomited":13715,"Sebuah":13716,"ĠNab":13717,"ffin":13718,"ĠROL":13719,"ĠLembah":13720,"ources":13721,"ĠGerakan":13722,"ĠWisma":13723,"ĠJIS":13724,"KOTA":13725,"bir":13726,"udud":13727,"Perbezaan":13728,"Kandungan":13729,"Hampir":13730,"ï¿":13731,"Ġbo":13732,"ĠAmal":13733,"Ġread":13734,"Semalam":13735,"ĠPELAKSANAAN":13736,"Sedangkan":13737,"Ġgu":13738,"ĠEmel":13739,"odua":13740,"Ġpeti":13741,"fie":13742,"UNT":13743,"Ġditentukan":13744,"Ġgemar":13745,"Ġstrategik":13746,"Ġhormat":13747,"Ġpelepasan":13748,"Ġtransaksi":13749,"ĠMall":13750,"ĠCaterpillar":13751,"unaan":13752,"ĠSeat":13753,"ĠAzhar":13754,"anjikan":13755,"Ġpersegi":13756,"ORTAL":13757,"IMPIN":13758,"Ġpenutup":13759,"lÃ¨s":13760,"TC":13761,"Ġcek":13762,"Â²":13763,"memp":13764,"AWANGAN":13765,"Ġcip":13766,"0000":13767,"Ġkecik":13768,"ĠTrump":13769,"ĠLG":13770,"Element":13771,"ĠSampah":13772,"ĠRUMAH":13773,"ĠJadual":13774,"POR":13775,"ziah":13776,"ĠSelama":13777,"dha":13778,"ĠMODUL":13779,"Nasi":13780,"Ġdiserang":13781,"fat":13782,"Ġmenganjurkan":13783,"ĠEncoder":13784,"Ġdaripadanya":13785,"='":13786,"ENC":13787,"Ġbertulis":13788,"DR":13789,"ĠPED":13790,"Ġstereo":13791,"ĠWindow":13792,"oyan":13793,"ĠPoland":13794,"ĠÂ°":13795,"nikahan":13796,"ĠTRANS":13797,"opan":13798,"dib":13799,"aylor":13800,"Ġ1990":13801,"TES":13802,"Habib":13803,"Ġmint":13804,"DAFTAR":13805,"PET":13806,"ĠMukhriz":13807,"MAMPU":13808,"ï¿½":13809,"lation":13810,"bulan":13811,"kat":13812,"ĠSelain":13813,"ĠDollar":13814,"trim":13815,"ongkong":13816,"ĠIreland":13817,"ajis":13818,"ĠBON":13819,"Ġcaj":13820,"Ġmenghisap":13821,"Ġberpeng":13822,"jit":13823,"Ġmenampung":13824,"ibumi":13825,"ĠPVC":13826,"ĠAksesori":13827,"ragma":13828,"Ġjah":13829,"ĠHajat":13830,"ARAT":13831,"Ġ1998":13832,"ĠAce":13833,"ramai":13834,"Cas":13835,"Ġditayangkan":13836,"Wilayah":13837,"MAT":13838,"Ġgelombang":13839,"prev":13840,"ekalan":13841,"gg":13842,"adir":13843,"eteran":13844,"ĠBL":13845,"taubat":13846,"Ġshow":13847,"ĠFi":13848,"Ġtuh":13849,"Ġtembak":13850,"eline":13851,"isip":13852,"center":13853,"ĠKosmetik":13854,"Ġurl":13855,"voy":13856,"ĠBali":13857,"ĠStaf":13858,"ĠBAL":13859,"ONOM":13860,"field":13861,"ĠSulaiman":13862,"ĠChrist":13863,"ĠHIDUP":13864,"Ġbersemp":13865,"Ġubah":13866,"ĠHilang":13867,"ĠNI":13868,"IHAT":13869,"ĠNaik":13870,"ĠMakmal":13871,"Ġpangkat":13872,"ries":13873,"YAK":13874,"Ġdurian":13875,"ĠSaddiq":13876,"ĠTu":13877,"ailkan":13878,"Ġpemenang":13879,"elaras":13880,"usta":13881,"ĠSurabaya":13882,"ĠHubungan":13883,"Ġdiketuai":13884,"Ġperisian":13885,"ĠLebuhraya":13886,"Calon":13887,"ĠGROUP":13888,"Ġbabi":13889,"Ġupaya":13890,"ĠShally":13891,"Ġpencemaran":13892,"Ġhadapi":13893,"Nasihat":13894,"anggaran":13895,"melkan":13896,"ĠTazkirah":13897,"Ġbeen":13898,"Ġpencarian":13899,"Rasulullah":13900,"ĠMotors":13901,"estimonial":13902,"SW":13903,"],":13904,"ĠAlternatif":13905,"wayatkan":13906,"Mal":13907,"ĠhitsSITI":13908,"ĠhitsNoor":13909,"spek":13910,"ĠShallyna":13911,"Ġdini":13912,"unkan":13913,"Ġlot":13914,"ĠAfrica":13915,"ATEG":13916,"press":13917,"ĠPERSATUAN":13918,"matang":13919,"++":13920,"Ð²":13921,"Ġmenump":13922,"aching":13923,"embung":13924,"ejal":13925,"agan":13926,"Ġngan":13927,"ahamkan":13928,"Ġ52":13929,"Ġupd":13930,"ĠEstate":13931,"bak":13932,"pers":13933,"rot":13934,"Ġkolej":13935,"Ġsebentar":13936,"qah":13937,"aban":13938,"Ġmendidik":13939,"document":13940,"eva":13941,"Ġbersalut":13942,"ĠShanghai":13943,"ĠSARAWAK":13944,"Hadiah":13945,"ĠFestival":13946,"upuk":13947,"ĠPrestasi":13948,"ĠJDT":13949,"Ġkuki":13950,"Ġetnik":13951,"Ġgangsa":13952,"Masyarakat":13953,"anasan":13954,"TIMONI":13955,"obs":13956,"Ġmustahil":13957,"Med":13958,"Ġdimaksud":13959,"ĠDakota":13960,"Ġrad":13961,"ĠFELDA":13962,"Ġpuluh":13963,"ĠPEMBANGUNAN":13964,"Ġberlari":13965,"1000":13966,"Ġsediakan":13967,"ĠSanta":13968,"ĠLandskap":13969,"gara":13970,"ĠEquipment":13971,"rafi":13972,"qi":13973,"ĠBig":13974,"Cont":13975,"ameter":13976,"ĠØ§":13977,"ĠSIRI":13978,"ido":13979,"Ġselalunya":13980,"luar":13981,"Ġmelancap":13982,"TION":13983,"Ġsilap":13984,"Book":13985,"Lo":13986,"inger":13987,"ĠEngland":13988,"Cor":13989,"Tambahan":13990,"ĠSewa":13991,"ĠChall":13992,"Ġroti":13993,"OTOR":13994,"Ġaje":13995,"ĠâĨĴ":13996,"ongfeng":13997,"INGATAN":13998,"oci":13999,"RAM":14000,"bnb":14001,"Ġ220":14002,"Ġmembatalkan":14003,"akia":14004,"Ġtik":14005,"SIM":14006,"YEN":14007,"ekad":14008,"aster":14009,"Erotis":14010,"IVER":14011,"ĠWikidata":14012,"TARA":14013,"Ġruntuh":14014,"360":14015,"Ust":14016,"ĠTimes":14017,"PC":14018,"Ġdikira":14019,"ĠVacuum":14020,"Maaf":14021,"ÉĻ":14022,"Ġpengikut":14023,"anau":14024,"JEMPUTAN":14025,"Ġriwayat":14026,"etakat":14027,"Ġkrisis":14028,"Ġdocument":14029,"Ġ63":14030,"Ġhy":14031,"ĠROLLER":14032,"ajarnya":14033,"Dokumen":14034,"Perkembangan":14035,"ĠPERTAMA":14036,"Reka":14037,"ĠKhat":14038,"ĠRew":14039,"ĠSweden":14040,"Bo":14041,"ĠSesi":14042,"wazah":14043,"lawan":14044,"ĠVen":14045,"Ġkritik":14046,"ĠAngeles":14047,"Ġtv":14048,"ĠKehamilan":14049,"enovo":14050,"ufact":14051,"ĠKarbon":14052,"utihan":14053,"eriksa":14054,"ĠTani":14055,"Ġperayaan":14056,"ĠKandungan":14057,"ĠWrangler":14058,"tanya":14059,"raja":14060,"Hutang":14061,"PAR":14062,"Pemasangan":14063,"ĠFASA":14064,"Wahai":14065,"Ġpuan":14066,"Ġmeman":14067,"ĠMarine":14068,"Ġkewujudan":14069,"cent":14070,"Ġletih":14071,"GERAKAN":14072,"ANGGILAN":14073,"ĠBlok":14074,"ĠMekan":14075,"ultasi":14076,"pat":14077,"ĠSuhu":14078,"ĠBalai":14079,"ĠNOR":14080,"fon":14081,"ĠNam":14082,"ĠBestari":14083,"Gambaran":14084,"))":14085,"SUKAN":14086,"Ġbedah":14087,"ĠIE":14088,"Ġdom":14089,"itos":14090,"upusan":14091,"ĠRuang":14092,"edak":14093,"Ġseluas":14094,"Ġbusiness":14095,"esto":14096,"ĠAsmara":14097,"PERS":14098,"asihatkan":14099,"Belah":14100,"alawat":14101,"Ġsambung":14102,"ĠKDNK":14103,"Ġmelanjutkan":14104,"KD":14105,"ĠTARIKH":14106,"Ġlarangan":14107,"dam":14108,"Ġmemf":14109,"nanya":14110,"ijing":14111,"ducation":14112,"ICE":14113,"ĠBid":14114,"ĠRencana":14115,"ĠFusion":14116,"ĠRAMAD":14117,"ĠPDTAG":14118,"rikan":14119,"Ġ190":14120,"zbek":14121,"ayangkan":14122,"ISN":14123,"rani":14124,"ĠMahkota":14125,"ĠPerpustakaan":14126,"Buah":14127,"angkala":14128,"ĠPAD":14129,"ĠDownload":14130,"ĠBit":14131,"Pelaburan":14132,"ĠPemohon":14133,"ĠSangat":14134,"ĠJUN":14135,"Ġpersekutuan":14136,"opsis":14137,"ĠCD":14138,"Ġmendatangkan":14139,"Ġmemeluk":14140,"impik":14141,"ĠSeluruh":14142,"Operasi":14143,"ĠRiz":14144,"Ġhakim":14145,"ĠPAHANG":14146,"ĠIC":14147,"ML":14148,"zat":14149,"KIB":14150,"Sehubungan":14151,"ĠTelah":14152,"ronas":14153,"Ġforum":14154,"ĠCaprice":14155,"Ġmembah":14156,"Ġumumnya":14157,"ĠShafie":14158,"elajah":14159,"Soft":14160,"abad":14161,"Followers":14162,"Ġforex":14163,"hatsapp":14164,"Luc":14165,"Ġformula":14166,"ĠNon":14167,"ARE":14168,"ĠSepanjang":14169,"Double":14170,"ahir":14171,"Ġ620":14172,"pin":14173,"Ġbal":14174,"ĠBAHAGIAN":14175,"Ġberpuas":14176,"mani":14177,"elesaan":14178,"ĠKangsar":14179,"ĠLalu":14180,"Ġkargo":14181,"Nota":14182,"esta":14183,"Ġdipakai":14184,"ĠZON":14185,"AYAH":14186,"ĠSiaran":14187,"hael":14188,"Ġpembentukan":14189,"ĠPROF":14190,"Ġbom":14191,"uno":14192,"iqh":14193,"Tahniah":14194,"Cur":14195,"Ġsite":14196,"ĠPOS":14197,"ĠAKHIR":14198,"Ġskuad":14199,"Ġtgk":14200,"rix":14201,"Ġsekejap":14202,"Bergabung":14203,"ĠTAB":14204,"ides":14205,"Ġsembahyang":14206,"Ġarus":14207,"Ġsolenoid":14208,"Menarik":14209,"ĠKontrak":14210,"ĠDapatkan":14211,"Adalah":14212,"KERJA":14213,"ADARUS":14214,"ĠTADARUS":14215,"USI":14216,"Ġdisertai":14217,"Ġgatal":14218,"ĠMALAY":14219,"utur":14220,"ĠDatu":14221,"ĠNotis":14222,",'":14223,"vensi":14224,"ship":14225,"slider":14226,"Ġmad":14227,"many":14228,"ĠBoard":14229,"Ġlukisan":14230,"eganasan":14231,"ĠHard":14232,"ĠHealth":14233,"oditi":14234,"Ġcenderung":14235,"ĠRAJA":14236,"Ġkant":14237,"Jelas":14238,"opping":14239,"Ġlif":14240,"ĠNamun":14241,"enduri":14242,"opia":14243,"ĠBadminton":14244,"hamilan":14245,"agnosis":14246,"ĠKaya":14247,"ĠWhatsapp":14248,"ĠIraq":14249,"ILAH":14250,"Ġmantap":14251,"Ġpenurunan":14252,"Ġkesayangan":14253,"antat":14254,"........":14255,"ĠKemboja":14256,"Ġdianjurkan":14257,"sakit":14258,"Individu":14259,"Ġtindak":14260,"Ġbikini":14261,"anakan":14262,"incir":14263,"Youtube":14264,"ĠRef":14265,"Ġcawan":14266,"rata":14267,"ĠSOLAT":14268,"ĠNasir":14269,"ĠKucing":14270,"Ġkebersihan":14271,"Ben":14272,"ormatan":14273,"ĠITU":14274,"Ġditukar":14275,"pihak":14276,"itude":14277,"Ġmenjatuhkan":14278,"!=":14279,"Ġbersatu":14280,"ARAPAN":14281,"ĠKEPUT":14282,"ĠQasar":14283,"Ġkehamilan":14284,"Pdt":14285,"ĠVisitors":14286,"ZI":14287,"128":14288,"wim":14289,"Pussy":14290,"ĠIkh":14291,"assim":14292,"yarak":14293,"Ġberkumpul":14294,"ĠSejambak":14295,"ĠCemerlang":14296,"ĠClass":14297,"Agensi":14298,"gasi":14299,"Ġbakat":14300,"Ġmembantah":14301,"Ġlatin":14302,"ĠAla":14303,"ĠPengkalan":14304,"Ġingatan":14305,"ĠAkibat":14306,"oods":14307,"ĠRestoran":14308,"OZER":14309,"ĠVIDEO":14310,"Ġmembekalkan":14311,"iptakan":14312,"ĠKempen":14313,"TERKINI":14314,"ĠTugas":14315,"itir":14316,"ahasa":14317,"ekodkan":14318,"Ø¹":14319,"Ġpenimbal":14320,"Aq":14321,"Hot":14322,"ĠHungary":14323,"Ġmenyifatkan":14324,"LDOZER":14325,"ĠBANDAR":14326,"untah":14327,"ĠPress":14328,"Ġnis":14329,"cat":14330,"Tujuan":14331,"eelofa":14332,"Punca":14333,"Ġimpak":14334,"MAKLUMAN":14335,"ĠKELUAR":14336,"erson":14337,"ĠAset":14338,"Ġdiiktiraf":14339,"ĠBULLDOZER":14340,"ĠSuhai":14341,"amo":14342,"utip":14343,"Ġhim":14344,"ĠVS":14345,"ĠMuhamad":14346,"pon":14347,"ĠRem":14348,"ehehe":14349,"roli":14350,"antiti":14351,"Ġape":14352,"buku":14353,"tice":14354,"ĠPerbincangan":14355,"count":14356,"Ġperhentian":14357,"URUH":14358,"Isi":14359,"123":14360,"Ġpesta":14361,"Ġpelancaran":14362,"Villa":14363,"Ilmu":14364,"ĠSepang":14365,"Lupa":14366,"Ġpneumatik":14367,"ĠKang":14368,"UST":14369,"KPM":14370,"Tetek":14371,"Cawangan":14372,"Ġklasik":14373,"Sokongan":14374,"ĠLadang":14375,"ambia":14376,"Malam":14377,"Ġkg":14378,"Ġmengus":14379,"PUTRAJAYA":14380,"Akan":14381,"ĠAST":14382,"SES":14383,"Ġpadu":14384,"ĠMAI":14385,"Paper":14386,"PENAFIAN":14387,"aker":14388,"elles":14389,"emerloh":14390,"ĠBooking":14391,"ikanan":14392,"ĠLEL":14393,"arag":14394,"ĠPertandingan":14395,"ĠHamzah":14396,"perempuan":14397,"ĠElec":14398,"ĠNavigasi":14399,"berg":14400,"tifik":14401,"murid":14402,"ĠRamli":14403,"ASYID":14404,"Ġclass":14405,"ĠMengapa":14406,"ĠPondok":14407,"ohn":14408,"Terb":14409,"empurnakan":14410,"ĠTAD":14411,"Ġfalsafah":14412,"Bukit":14413,"Ġdiwujudkan":14414,"ĠMarket":14415,"Ġtiang":14416,"ĠAnggota":14417,"yg":14418,"cha":14419,"Sains":14420,"ĠTINGGI":14421,"ĠYun":14422,"ĠSEMUA":14423,"ĠRap":14424,"Ġteliti":14425,"ĠPUN":14426,"Ġseharian":14427,"ĠSubuh":14428,"EMAHAN":14429,"pak":14430,"Ġ75":14431,"ĠKemaman":14432,"Ġanggap":14433,"Ġpolisi":14434,"ĠJentera":14435,"Tempoh":14436,"grafi":14437,"ariskan":14438,"Auto":14439,"TADBIRAN":14440,"ĠKESIHATAN":14441,"Ġdetik":14442,"Ġditangkap":14443,"Ġibnu":14444,"Ġperindustrian":14445,"STR":14446,"jubkan":14447,"Ġlebat":14448,"Kawalan":14449,"Ġkiamat":14450,"NET":14451,"Ġmemantau":14452,"ĠSeberang":14453,"iffon":14454,"Ġberpantang":14455,"Ġmake":14456,"Dec":14457,"adika":14458,"ĠMainboard":14459,"Benar":14460,"Ġ00":14461,"Ġyuran":14462,"anaman":14463,"tivis":14464,"ĠBUKIT":14465,"Din":14466,"Ġkamar":14467,"Ġmenyus":14468,"Ġherba":14469,"illion":14470,"semak":14471,"ĠSAS":14472,"ĠAnuar":14473,"Ġhow":14474,"viti":14475,"ĠKy":14476,"ĠStok":14477,"ĠSUS":14478,")}}":14479,"Ġkeadilan":14480,"ogyak":14481,"enteraan":14482,"Akses":14483,"eterai":14484,"Ġbuk":14485,"ĠINOV":14486,"lash":14487,"AIMAN":14488,"owi":14489,"Hakim":14490,"ĠThai":14491,"Dib":14492,"ĠKurang":14493,"ĠSET":14494,"ĠCha":14495,"Ġterbakar":14496,"Ġdiperuntukkan":14497,"efinisi":14498,"ĠBiru":14499,"ĠDaw":14500,"enge":14501,"Puan":14502,"ĠLeb":14503,"ĠKarat":14504,"EMATIK":14505,"Ġberikutnya":14506,"ĠMengikut":14507,"Ġdiabetes":14508,"ĠHussein":14509,"ĠSambutan":14510,"DO":14511,"Ġsend":14512,"Ġperiksa":14513,"Ġmemul":14514,"aharuan":14515,"ogyakarta":14516,"Ġmengalir":14517,"next":14518,"215":14519,"ĠSip":14520,"Ġdiagihkan":14521,"ĠUlu":14522,"ĠFizikal":14523,"ISASI":14524,"ĠBeri":14525,"ĠPOLIS":14526,"Ayah":14527,"onya":14528,"ewarna":14529,"Ġtalk":14530,"hanya":14531,"ANTUI":14532,"Ġrupanya":14533,"ubin":14534,"ijab":14535,"ĠShari":14536,"JABATAN":14537,"utr":14538,"Ġliar":14539,"Ġsalinan":14540,"Ġkeamanan":14541,"ĠCamry":14542,"oro":14543,"Ġterpakai":14544,"vensyen":14545,"ĠPenyu":14546,"ĠPERUB":14547,"isytiharkan":14548,"aidi":14549,"erican":14550,"Bilangan":14551,"nat":14552,"ohong":14553,"iteknik":14554,"erus":14555,"azanah":14556,"des":14557,"oliday":14558,"MAKLUMAT":14559,"warna":14560,"ĠCro":14561,"ĠEngkau":14562,"icip":14563,"ĠIslamic":14564,"Ġkarburator":14565,"Looks":14566,"Ġkebimbangan":14567,"IDEN":14568,"ĠCiv":14569,"Ġhektar":14570,"Ġsekian":14571,"ĠOb":14572,"Order":14573,"Dat":14574,"Ġimport":14575,"ĠMama":14576,"acar":14577,"Ġrawatib":14578,"Ġsepuluh":14579,"ĠZak":14580,"ĠGajet":14581,"Kelebihan":14582,"Ġpasang":14583,"aruah":14584,"Ġgay":14585,"DEWAN":14586,"Ayat":14587,"usnahkan":14588,"ĠLagoon":14589,"haka":14590,"Wedding":14591,"ĠAlmarhum":14592,"Ġkeinginan":14593,"lothing":14594,"widget":14595,"Ġbarulah":14596,"BAR":14597,"ĠDizyan":14598,"Ġebook":14599,"ENTANG":14600,"Lilin":14601,"ĠJPJ":14602,"lia":14603,"ĠStereo":14604,"BORANG":14605,"Ġtamparan":14606,"Ġpesan":14607,"Ġperundangan":14608,"ocket":14609,"ĠINT":14610,"stein":14611,"Ġ250":14612,"ĠPustaka":14613,"UGERAH":14614,"ancurkan":14615,"Ġsupp":14616,"Del":14617,"Ġ64":14618,"ittle":14619,"akhstan":14620,"curan":14621,"ĠXS":14622,"aire":14623,"ĠFreight":14624,"cinta":14625,"ĠJin":14626,"undur":14627,"ĠPERAYAAN":14628,"ĠUJIAN":14629,"Ġjurulatih":14630,"ĠMadrid":14631,"KEM":14632,"ĠMobil":14633,"ĠRange":14634,"ĠLak":14635,"ĠSafari":14636,"lanti":14637,"Ġmembesar":14638,"ĠStats":14639,"olakan":14640,"embau":14641,"ovakia":14642,"Bert":14643,"ĠGB":14644,"ĠMia":14645,"abs":14646,"Ġgred":14647,"Ġwhen":14648,"Disclaimer":14649,"LAS":14650,"unsur":14651,"Ġnorm":14652,"Ġdiarahkan":14653,"ĠFinland":14654,"Ġ[[":14655,"Ġsehinggalah":14656,"ĠPENGARAH":14657,"Ġtawar":14658,"Ġberagama":14659,"Ġkuku":14660,"ĠNASYID":14661,"ĠYoung":14662,"Ġmempelajari":14663,"ĠDE":14664,"ĠKOMPL":14665,"Ġbenci":14666,"ows":14667,"Ġpisang":14668,"aseh":14669,"Ġekar":14670,"Feedjit":14671,"Code":14672,"Denaihati":14673,"TAND":14674,"BB":14675,"Molybdenum":14676,"Ġpingat":14677,"celand":14678,"telah":14679,"tiar":14680,"year":14681,"dem":14682,"ĠTwitterKongsi":14683,"ideos":14684,"Grant":14685,"oros":14686,"ĠWin":14687,"pisod":14688,"makan":14689,"win":14690,"Ġseketika":14691,"ĠMonter":14692,"ĠOper":14693,"ĠSECARA":14694,"Pesta":14695,"ĠIniBlogThis":14696,"Ba":14697,"ĠKulim":14698,"ĠLancer":14699,"Ġvia":14700,"Ġkronik":14701,"ĠNepal":14702,"ĠAzman":14703,"ĠBACA":14704,"pag":14705,"Ġdos":14706,"2020":14707,"Jen":14708,"ĠDiper":14709,"ĠPanel":14710,"Ġcekap":14711,"etail":14712,"ques":14713,"Ġbody":14714,"ĠLAS":14715,"ĠRead":14716,"ULIS":14717,"month":14718,"ĠYe":14719,"ĠPENJ":14720,"ĠPEMBELAJARAN":14721,"Ġdealer":14722,"ĠInformation":14723,"Ġtajam":14724,"Ġbertuah":14725,"ĠANG":14726,"ĠTapak":14727,"ERAAN":14728,"umput":14729,"Ġterjun":14730,"Mis":14731,"kek":14732,"Ġpanik":14733,"West":14734,"Ġmari":14735,"ĠFranc":14736,"Ġpelar":14737,"ĠMaria":14738,
[...]
