[PAD]
[UNK]
[CLS]
[SEP]
[MASK]



!
"
#
$
%
&
'
(
)
*
+
,
-
.
/
0
1
2
3
4
5
6
7
8
9
:
;
<
=
>
?
@
A
B
C
D
E
F
G
H
I
J
K
L
M
N
O
P
Q
R
S
T
U
V
W
X
Y
Z
[
\
]
^
_
`
a
b
c
d
e
f
g
h
i
j
k
l
m
n
o
p
q
r
s
t
u
v
w
x
y
z
{
|
}
~









¡
¢
£
¤
¥
¦
§
¨
©
«
¬
­
®
¯
°
±
²
³
´
µ
¶
·
¹
º
»
¼
½
¾
¿
Æ
Ð
×
Ø
ß
æ
ð
÷
ø
þ
Đ
đ
ı
ĸ
Ł
ł
ŋ
Œ
œ
Ə
Ɛ
ƒ
ɑ
ə
ɛ
ɣ
ɪ
ʻ
ʼ
ʿ
ˈ
ː
˚
˜
Ε
Φ
α
β
ε
η
ι
κ
λ
μ
ν
ο
φ
А
Б
В
Г
Д
Е
З
И
К
Л
М
Н
О
П
Р
С
Т
У
Ф
Х
Ч
Ш
Э
Я
а
б
в
г
д
е
ж
з
и
к
л
м
н
о
п
р
с
т
у
ф
х
ц
ч
ш
щ
ъ
ы
ь
э
ю
я
ѕ
і
ј
Қ
қ
ҡ
ҷ
Հ
ա
ե
յ
ն
ր
א
ב
ד
ו
י
ע
ר
ש
ת
،
؛
؟
ء
ا
ب
ة
ت
ث
ج
ح
خ
د
ذ
ر
ز
س
ش
ص
ض
ط
ظ
ع
غ
ـ
ف
ق
ك
ل
م
ن
ه
و
ى
ي
٠
١
٢
٣
٤
٥
٦
٧
٨
٩
ٱ
پ
ڌ
ښ
ڠ
ڤ
ک
ی
۞
ۥ
۩
ܓ
ठ
द
न
प
म
र
ल
ह
ा
ि
ी
ং
ব
ল
া
ਜ
ਪ
ਬ
ਾ
ੀ
ગ
જ
ત
ર
ા
ી
த
ம
ழ
ி
గ
త
ల
ు
ಕ
ಡ
ನ
ം
മ
യ
ല
ള
ാ
ං
ල
ස
හ
ก
ท
ภ
ย
ร
ศ
ษ
อ
า
฿
ไ
ພ
ລ
ວ
ສ
າ
စ
ဗ
မ
ာ
ა
ე
თ
ი
ლ
ნ
რ
უ
ქ
ᄀ
ᄁ
ᄂ
ᄃ
ᄄ
ᄅ
ᄆ
ᄇ
ᄉ
ᄋ
ᄌ
ᄎ
ᄐ
ᄑ
ᄒ
ᅡ
ᅢ
ᅣ
ᅥ
ᅦ
ᅧ
ᅩ
ᅪ
ᅮ
ᅯ
ᅲ
ᅳ
ᅴ
ᅵ
ᆨ
ᆫ
ᆭ
ᆯ
ᆷ
ᆸ
ᆺ
ᆻ
ᆼ
ᇀ
ማ
ር
ኛ
አ
ខ
ភ
ម
រ
ស
ា
ែ
ᴀ
ᴬ
ᴰ
ᴳ
ᴴ
ᴵ
ᴷ
ᴸ
ᴺ
ᵝ
ᶜ
​
‌
‍
‎
‏
‐
‑
–
—
―
‖
‗
‘
’
‚
‛
“
”
„
‟
†
‡
•
…
‪
‫
‬
‰
′
″
‹
›
※
‼
‿
⁄
⁣
ⁿ
€
⃣
℃
№
™
Ⅱ
←
↑
→
↓
↳
⇒
⇨
−
√
∨
≡
≤
≥
⏩
⏪
ⓒ
─
│
┌
└
■
□
▪
▬
▲
▶
►
▼
◆
◊
○
●
◠
★
☆
☎
☏
☐
☑
☛
☞
☰
☺
☻
♀
♂
♠
♡
♣
♥
♦
♪
♫
♬
♲
⚂
⚃
⚕
⚜
⚠
⚡
⚽
✅
✉
✌
✍
✐
✒
✓
✔
✗
✨
✿
❀
❌
❓
❗
❝
❞
❣
❤
❮
❯
➖
➡
➦
➨
➲
⟶
⠀
⤵
⦁
⬇
⭐
、
》
【
】
こ
て
に
ほ
ん
ツ
・
㎡
东
中
人
亿
会
低
体
佛
党
入
全
公
共
典
务
千
升
华
卫
喜
國
城
塞
大
字
寺
川
州
年
庆
慧
成
担
探
提
收
放
整
文
施
旅
日
智
朝
本
林
正
民
水
沾
法
浴
游
眼
禅
简
繁
群
考
胸
興
节
范
語
讨
设
调
负
账
费
赛
路
边
进
道
邦
量
雪
韓
马
體
鮮





























































































































































ﷲ
ﷺ
ﷻ
ﺍ
ﺎ
ﺮ
ﻟ
ﻤ
ﻪ
ﻴ
﻿
（
）
，
：
￼
�
𝐚
𝐢
🇲
🇾
🌀
🌐
🌞
🌟
🌷
🌸
🌹
🌺
🌻
🌼
🌿
🍀
🍃
🍋
🍓
🍗
🎀
🎁
🎈
🎉
🎤
🎶
🏠
🏢
🏥
🏻
🏼
👀
👁
👆
👇
👉
👋
👌
👍
👏
👤
👨
👩
💃
💄
💉
💋
💎
💐
💓
💕
💖
💗
💘
💙
💚
💛
💜
💞
💟
💥
💦
💪
💫
💯
💰
💵
💸
💻
💾
📁
📌
📍
📘
📚
📝
📞
📢
📣
📥
📧
📱
📲
📷
📹
🔊
🔥
🔴
🔵
🔸
🔹
🕊
🕮
🕹
😀
😁
😂
😃
😄
😅
😆
😇
😉
😊
😋
😌
😍
😎
😏
😑
😒
😔
😘
😙
😚
😛
😜
😝
😢
😣
😥
😬
😭
😱
😴
🙁
🙂
🙈
🙋
🙌
🙏
🚗
🚙
🤔
🤗
🤝
🤣
🤦
🤩
🤭
🥰
##e
##n
##t
##r
##a
##l
##k
##d
##i
##s
##u
##b
##g
##p
##h
##y
##w
##o
##m
##U
##S
##A
##D
##I
##P
##E
##K
##9
##7
##c
##v
##j
##q
##1
##0
##5
##B
##L
##3
##6
##8
##R
##T
##4
##x
##f
##M
##т
##с
##и
##д
##е
##л
##я
##ん
##z
##ل
##ت
##ه
##H
##G
##N
##O
##Y
##V
##C
##2
##F
##J
##×
##Q
##
##
##
##
##²
##⁣
##­
##د
##م
##Z
##W
##¬
##÷
##‎
##X
##ف
##ج
##و
##ر
##ا
##‬
##�
##ط
##٧
##ح
##ق
##ن
##ذ
##а
##р
##™
##
##ᅣ
##ᆨ
##ᄉ
##ᅩ
##ᄃ
##ᅳ
##ᆯ
##ᄋ
##ك
##ي
##ء
##र
##ा
##ठ
##ी
##ع
##
##
##​
##خ
##ł
##½
##ː
##ɪ
##у
##к
##ы
##ة
##🤩
##١
##٢
##н
##ц
##о
##ـ
##і
##ч
##ш
##𝐚
##¥
##€
##в
##💵
##💰
##ˈ
##‏
##ک
##
##
##
##
##
##
##
##
##
##🤣
##ز
##ب
##س
##ى
##ᅢ
##ᅵ
##ʼ
##´
##°
##👍
##✨
##ь
##ı
##❗
##😆
##😙
##≥
##ა
##ე
##რ
##ი
##ə
##
##
##♥
##х
##ʻ
##ص
##м
##ᅡ
##ᆫ
##ᄀ
##ᅮ
##ᅥ
##ش
##🌹
##ж
##
##
##щ
##®
##п
##г
##✔
##٣
##٦
##💓
##⟶
##●
##⃣
##
##
##ᴬ
##ᴺ
##¦
##♡
##💖
##э
##з
##қ
##
##🤭
##ث
##б
##😎
##ڤ
##ю
##
##
##
##
##
##
##
##
##
##
##
##
##
##
##غ
##
##Æ
##❤
##
##
##
##
##−
##α
##£
##💚
##😍
##😘
##
##
##Н
##ъ
##
##❌
##💘
##Ø
##œ
##
##º
##‍
##ٱ
##ض
##ᅧ
##ᆼ
##ᅯ
##ᄒ
##ᆷ
##👆
##◠
##ф
##ր
##ա
##ն
##→
##‌
##ß
##
##
##ท
##ย
##
##ᆺ
##ភ
##ា
##ស
##ខ
##ម
##ែ
##រ
##ی
##К
##ພ
##າ
##ສ
##ລ
##ວ
##
##¾
##
##
##ظ
##
##
##
##
##
##😬
##🔥
##ð
##ᄂ
##✅
##💻
##ﻟ
##¢
##ו
##ב
##ø
##ᄌ
##
##ᄅ
##👌
##
##٨
##©
##
##ᅪ
##
##
##
##
##🎀
##±
##
##
##ﺮ
##ﺍ
##ﺎ
##
##
##ד
##ᄁ
##≤
##
##
##
##
##💕
##
##
##☺
##
##
##
##
##א
##
##🌻
##
##
##
##ε
##ν
##ι
##κ
##η
##😊
##٥
##ᶜ
##😱
##٤
##
##ᅦ
##٠
##ﻴ
##æ
##😇
##
##🌸
##ᄆ
##
##ɣ
##া
##ল
##ব
##🔊
##ᄇ
##
##
##
##đ
##µ
##ᄑ
##
##
##😄
##ѕ
##Я
##
##🏼
##
##
##
##😁
##🥰
##ᄎ
##
##˜
##❓
##٩
##
##ᴵ
##🔹
##˚
##
##म
##
##¯
##ह
##ि
##द
##
##
##─
##👩
##
##
##
##З
##
##¨
##□
##🙏
##🏻
##μ
##℃
##ɑ
##า
##ƒ
##👋
##⬇
##⚕
##💉
##👨
##ҷ
##
##ᴀ
##👇
##О
##Т
##С
##А
##ᆻ
##ภ
##ษ
##ไ
##💸
##อ
##ร
##ﻪ
##ᆸ
##Ш
##🙈
##▪
##☞
##ɛ
##♂
##▶
##﻿
##ி
##ј
##ʿ
##■
##😂
##💋
##🎈
##❀
##¹
##★
##😭
##
##þ
##🍃
##🌼
##⭐
##ڠ
##
##💞
##㎡
##😢
##←
##
##
##¼
##♀
##¤
##✌
##ת
##
##
##ल
##🇾
##
##
##📱
##💫
##ᄐ
##
##😀
##
##
##😚
##λ
##
##ŋ
##➖
##👏
##
##⠀
##ע
##
##💐
##ש
##י
##ר
##Р
##த
##ம
##ழ
##😜
##🌷
##🎉
##
##
##😴
##φ
##😑
##‪
##⇒
##
##⤵
##پ
##ښ
##ਪ
##ਜ
##ਾ
##ਬ
##ੀ
##Ð
##አ
##ማ
##ር
##ኛ
##Հ
##յ
##ե
##ﻤ
##😉
##
##💪
##ᇀ
##🎁
##👉
##
##🇲
##
##ી
##ા
##М
##
##🙋
##⚡
##💥
##ﷺ
##
##📢
##💃
##💛
##³
##│
##ۥ
##Б
##မ
##ာ
##စ
##❞
##ლ
##📲
##🤗
##
##Г
##И
##β
##⁄
##😋
##𝐢
##न
##ο
##
##
##ാ
##ല
##►
##😅
##ᅲ
##
##✿
##💜
##➡
##💙
##
##മ
##യ
##ള
##ം
##
##♣
##🤦
##⚽
##
##
##🍗
##У
##📝
##💯
##😛
##
##🌞
##ᄄ
##😃
##ং
##ᴳ
##
##😔
##Ε
##ᅴ
##
##✍
##
##Ф
##ᴷ
##ᴴ
##
##💗
##
##
##Е
##В
##Л
##П
##Д
##ほ
##こ
##😝
##ᆭ
##🤔
##
##
##Œ
##ಕ
##ನ
##ಡ
##🌟
##👀
##ⁿ
##📞
##
##📌
##
##⏪
##ศ
##▼
##🎶
##
##☆
##🌺
##🌿
##प
##📣
##ก
##
##📍
##Φ
##
##😏
##√
##👁
##📷
##🎤
##❣
##🏠
##🍓
##😌
##ર
##ツ
##۩
##😣
##Э
##○
##Ч
##ქ
##თ
##უ
##ગ
##જ
##ત
##♠
##త
##ల
##ు
##గ
##
##😒
##ڌ
##ස
##ං
##හ
##ල
##💟
##
##🍀
##に
##ᴰ
##😥
##Х
##
##⚂
##⚃
##📚
##🌀
##⚠
##📘
##
##۞
##🙌
##🙂
##ᴸ
##💄
##ﷲ
##
##↑
##ဗ
##Қ
##❝
##🚗
##♫
##て
##💦
##฿
##ნ
##ĸ
##💎
##
##♪
##￼
##≡
##↓
##♦
##🙁
##ﷻ
##🍋
##🕹
##◆
##ܓ
##↳
##✒
##👤
##🔸
##Ł
##Đ
##🤝
##🚙
##
##▲
##📥
##ҡ
##▬
##♲
##☻
##Ⅱ
##
##☎
##⏩
##☰
##
##🕊
##➦
##☛
##∨
##🏢
##🔵
##♬
##✓
##🔴
##an
##er
##en
##ar
##at
##ah
##ang
##al
##ak
##am
##in
##as
##el
##em
##un
di
##ad
##kan
##eng
##it
##tu
##ya
##ik
##es
##on
##ap
se
##il
##or
yang
##is
##ur
dan
##ul
ber
##ag
##ai
##us
ke
##id
##ing
##um
##ut
##AN
##ol
##et
##uk
##ir
men
##ek
##ia
per
##ih
##ada
##emb
##ari
##ung
##ab
##aw
##tuk
##ti
##aj
ter
##da
##eb
in
##ay
un
##ara
##alam
##im
##akan
##ta
##om
##atan
untuk
##ed
meng
Per
##ama
##engan
20
##ro
an
##aya
##eg
##eh
##aan
##ian
##ud
##ga
dengan
##nya
##ep
##uh
##ent
##angan
##ku
##ER
##and
##ub
201
##alah
##ot
##os
ini
dalam
seb
##asa
##ok
##eri
##up
##end
##ac
##emp
##ita
##ana
##AH
##ain
##asi
In
##AR
##uan
##pada
dari
mer
##ri
ker
##idak
Al
##ala
##aran
memb
##ong
##adi
##oh
##og
##agi
##AT
##EN
##amb
##ib
itu
##ant
##lah
tidak
##alan
##ukan
pen
##ahan
Ber
##IN
##amp
##ata
mem
##ati
ad
##ua
##si
pada
mel
##per
aku
##uat
##ter
##ic
##sia
peng
An
##aman
sek
Ter
##ami
##le
sem
##ip
##AS
##iti
Peng
##od
##agai
##ali
##oleh
Pen
##00
##anya
##st
##ec
akan
##eka
kepada
##af
tah
sel
##pa
Mal
##yak
##alu
##elah
##AM
mas
##tau
##he
##ingg
##AL
or
##au
anda
##uar
##ew
adalah
##ej
##leh
##ini
##ika
##apat
ju
##uc
pel
Un
##angk
##aysia
atau
meny
berk
saya
##asan
menj
##op
##AK
Malaysia
##ebih
Ker
kel
##ig
oleh
boleh
tak
##gun
##EL
pro
##aru
##api
orang
##aik
mereka
##atu
##apa
##angg
##EM
ada
##anj
##if
al
##anc
juga
Pro
Sel
Is
##iri
##tr
tahun
Sh
##az
kes
##yar
telah
2019
bers
##elak
##kh
##ila
##orang
bah
##ANG
##ist
##re
##ula
Ch
##ind
##uj
pem
##etu
##ina
##UN
kita
##ont
##aja
Ar
Di
##ort
dib
am
##uka
##ump
lebih
##enar
##udah
##yat
bel
pemb
##tama
ser
Sek
##eta
##ow
PER
neg
##uah
bagi
##ch
dia
##imp
##ihat
com
##uran
sebagai
##ulan
##tas
##ov
##iz
daripada
##angs
dis
mak
##arang
##IS
##UR
##eo
##duk
as
##awa
##utan
ni
10
##log
hari
##epas
##ubung
Men
Am
PEN
##apan
lain
##ers
memp
ia
##IK
kem
##lam
##ihan
##li
##san
##TA
kami
##ja
##ma
##arga
##utu
##ON
##ikan
Pel
##est
lagi
dik
Bah
Sem
##anyak
##arah
##iv
##ine
##lu
##tar
##ob
##its
##ES
mend
satu
##ingk
##umah
apa
##usan
##mas
##anan
##ra
##lum
##anita
nak
anak
##unya
19
##edia
##bu
sed
ters
ak
##ajaan
##lis
##perti
##ungk
##arkan
Pem
menjadi
Pemb
##gunakan
ap
##AD
Kes
seperti
Dan
##isi
As
##iran
ag
min
kerana
##antu
St
##OL
Kel
SE
terb
Neg
##AI
##ebut
Mel
pas
##empat
##had
##esar
ses
##anak
##anti
Ind
##US
##awatan
##inggi
##umb
##ima
##uhan
ket
tan
##ilik
##ug
is
##era
to
menc
##ayu
##angkan
Ad
dapat
pun
##ideo
##itu
##aian
##olah
##iau
Mas
##man
##ori
##agian
##ual
dil
##tara
##erah
lalu
masa
##ram
Meng
##art
##ARA
##int
ken
##ota
semua
##AJ
##OR
##ajar
##IL
##ikat
##na
##itan
Untuk
Mak
12
##aga
Bel
##ef
Yang
dah
KE
##etak
##AY
##cara
##inya
Ab
##upakan
##idup
Islam
##und
Kem
tet
##unan
tu
terl
negara
En
##ook
pend
##IT
DA
hits
##amat
##UK
th
##idm
mengh
baru
mana
RM
##ust
##ingga
Ke
##AW
##akat
keb
and
sah
##av
##rah
##ahu
##mp
##elaki
Ap
merupakan
dit
kaw
Seb
##gan
##ING
Dalam
Tag
berb
Allah
##UM
sh
##ran
##IA
##ation
kep
##uala
##elum
##UL
Kami
bukan
bert
##angat
##ID
##unia
##alau
the
##orm
##sp
Kh
##IM
beb
##omp
Moh
Mer
Pr
si
atas
##akyat
##OM
##adan
secara
sebuah
Ak
ti
##nah
Dat
kec
seorang
sen
##ungan
DAN
en
##urut
sama
rumah
Set
perk
ked
##ni
PR
##oc
##usi
##atkan
##tik
wanita
##entang
##jap
##ill
tersebut
11
Saya
##ubungi
14
st
##ucah
##ambil
banyak
##aku
##ingan
berl
kata
##wa
man
Tan
of
##amai
perlu
##unc
##aun
Az
##endiri
15
##unyai
##ij
##ira
##ord
##ulu
Ah
##imb
##khidm
Aku
##lumat
##khidmatan
buat
##ev
##th
hanya
##andar
##ongan
##yarikat
##alkan
Or
mempunyai
##uda
##ikut
##abila
##alui
##ex
##usia
peny
##ateg
##akit
dip
##tan
berkata
##mad
##tiv
##aca
Lif
##ERAH
dua
Laman
##ger
produk
##asar
baik
blog
##yah
##uma
Ini
13
##edah
set
sej
##aikan
seh
##ost
##oy
200
##ani
sebelum
Mah
##ht
##inta
ht
memberi
##ihak
UT
##AB
beliau
##nl
##tim
kereta
sudah
tinggi
Melayu
##akukan
2018
##atang
##oll
##inan
ar
##angsa
berj
##gin
##ess
##uang
##mi
##ihatan
bahawa
Pak
##tion
selepas
Pend
ben
lelaki
Pol
ialah
sep
bek
pin
##las
Anda
har
##istem
##gi
makan
Mar
##aling
##inc
##tor
##onus
kh
DAERAH
aw
Pada
##enis
jadi
##uku
16
##ate
##TAN
Dr
##dul
sendiri
##arik
##aki
Maj
##ilihan
Negeri
##abatan
##IR
besar
##onal
##ator
##ohon
BER
##agaan
##uru
Sp
##olat
Air
serta
ind
##otel
##awah
##all
##kini
seks
##atanya
##unj
Sep
##asil
##unt
##gram
keluar
bersama
##idikan
##akah
##our
Ser
##ATAN
diper
air
cer
cara
##ena
##ENG
##lan
##lik
##ambar
tetapi
##engah
##angor
##ish
la
##ks
##ungg
##ca
##lim
bulan
##ez
Ment
Th
So
2016
##ungkin
Hubungi
berm
##uti
##otak
##abat
Pas
Gr
##erapa
Pi
##AAN
##enai
##ry
##olog
##uli
##awat
ketika
##udi
menggunakan
##unga
PENG
masih
melalui
Produk
##ore
sangat
##ilan
Tah
pol
##akar
Par
##ie
##no
Pin
pihak
pr
diri
##ember
##ons
##dang
mener
##enc
##any
Kep
Terb
##uz
Kerajaan
kerajaan
dunia
##usat
##ee
Mes
berd
Blog
bi
##ses
Kuala
##aha
##awan
by
##hir
pers
membuat
mendapat
berh
antara
##ipta
kar
amp
##entu
Hari
##ear
berp
su
sahaja
##ekan
##nline
Ag
##hadap
Dengan
masuk
##amu
Selangor
##uruh
##ei
Pul
##etua
##ino
seg
##isan
kur
##yakit
temp
##UAR
us
##ekn
Unit
KIN
##AG
Cat
SEK
par
##ack
Video
##alaman
##acam
##atakan
##uasa
##aju
apabila
##99
samp
rakyat
##OH
##aktu
kom
TAH
##UT
Peny
jika
SEM
tahu
dir
##ld
##tif
##anjang
##osi
##ment
Tr
##ank
Sy
##awab
Um
##umlah
kali
##EK
##otor
beberapa
##engk
##20
30
my
kawasan
Seks
sini
##EG
##upun
##aerah
Si
dij
utama
##ilah
Bonus
yg
Keb
##itik
##AP
##khir
UTARA
KINTA
keh
PAS
##ologi
perc
##ard
SM
Menteri
seti
Hotel
tentang
2017
Mohd
Perm
##omb
kanak
##alik
##erb
##ones
##aks
Dis
##uduk
Ti
sekarang
IN
##itam
##angunan
##ilang
bin
##upaya
terus
Inf
##erl
setiap
##masuk
##ail
Hak
##mana
##amatan
Jabatan
17
tempat
##anggan
##OG
##ampung
##abi
##aji
##rol
##ayar
um
##edi
##steri
katanya
##tp
bawah
18
##tern
##ingkat
Man
terhadap
##ERI
Abdul
terd
DI
##ayah
##ond
##ital
tapi
##ular
##ou
##endah
Che
##ne
##uas
##alian
Majlis
Cara
##urusan
iaitu
##aitan
##mu
##jek
Ras
##one
TAHUN
mungkin
Kod
negeri
Bahagian
Tak
kerja
Pers
Car
ramai
Aw
hati
##yarat
##ert
##ight
##OLAH
AL
Perkhidmatan
Bers
Bahasa
##onesia
pernah
hidup
harga
Br
##50
##ader
##enarai
##eks
Berita
And
##bagai
mes
##aat
digunakan
tel
##umber
tr
2014
http
this
BIN
##amad
Datuk
##mail
Joh
##ura
##antan
##anduan
Sekolah
##oran
ah
##age
##ambut
##awai
Mus
injap
##ilem
salah
SEKOLAH
terp
mudah
##etul
IS
##ell
sekolah
Dari
video
termasuk
##PM
pertama
##amah
##ff
pul
had
##ambah
kek
Kotak
##isah
sk
Pulau
##agu
##roid
##amun
##uatu
##UH
ibu
sebab
##ender
##tikan
##askan
##yen
##ebab
Hy
##eluar
##ikal
##itar
Bar
perm
Negara
Sab
jam
##ET
pak
##eal
laman
##omi
##ve
##adar
pula
##lang
##arna
at
##UAN
KOM
##ha
kat
China
MEN
kej
ek
sur
##ler
res
tanpa
##bat
AS
##asino
##tiviti
pent
Res
##urun
Utama
Kom
nama
##ola
Bunga
pes
terletak
##alas
##umpulan
##qu
sehingga
macam
Dia
sy
lucah
##ilih
Ia
##uman
Indonesia
MES
##pl
##oz
##autan
Seri
##asih
mul
mata
Har
##uta
##ru
Kereta
##ASA
masalah
lama
cont
##ubungan
##elamatan
##ver
The
Por
syarikat
##gk
Pet
24
Mem
ab
terk
paling
##ast
##alat
##guna
Wanita
##utusan
##ach
melihat
##ens
maklumat
##ebabkan
Ketua
##uri
##ome
kalau
manusia
##unjuk
ka
PT
##isa
##adang
Co
##erja
Apa
##ohonan
rasa
##ge
##10
##16
UM
##iba
2015
Harga
Ket
##old
Ben
##han
Orang
##IAN
did
##hat
emas
00
Jika
##ulis
##tur
##niagaan
lah
hingga
##inggu
##ampu
PEM
##gunaan
##empuan
##ce
Kec
New
sekali
##gg
##ajib
Shah
##OS
Ib
##ilai
##ensi
PEL
semasa
100
##perasi
so
isu
##ikir
##OK
##adis
##rop
mengg
Sul
el
25
dem
##ejabat
kini
pert
mahu
##uba
##apkan
##udian
##ivers
##enang
##anas
##embali
##ategori
suka
kira
##epat
Chev
##TI
##UNG
##ebook
Rumah
Kr
dih
Muh
##urah
##rolet
##yarakat
Chevrolet
kan
pelbagai
##antuan
##ous
web
##antik
TER
##ongsi
##opular
undang
##NO
##uskan
Berk
jalan
Min
Sub
##UARAT
##YUARAT
MESYUARAT
bak
##onomi
##agaimana
##IH
memang
bila
pelajar
##enter
Tidak
im
##tikel
dim
penyakit
##alaupun
Semua
##ox
##ili
luar
##atif
Ken
##LE
##sc
Dasar
##esi
Pes
terbaik
beg
##ajian
dep
isteri
##oto
##aid
berlaku
membantu
##lat
Kesihatan
perkara
##port
semula
##atus
berc
##ekat
mengenai
Cer
Perk
cerita
for
Eng
Ik
Online
##acebook
jenis
##ungkusan
malam
Anak
Go
##ity
##adaan
Senarai
##ahw
berken
##akin
##egawai
penj
Put
Ahmad
999
##adiah
Lucah
##ss
Pendidikan
##din
##jid
raya
##ARAN
##adb
##ite
##ihara
KON
pergi
##jaman
Pusat
Pri
##ediakan
Se
Us
akhir
Johor
##anda
##eli
Pengurusan
##AMA
##unting
##esen
##osp
turut
kedua
##min
##ajah
mengambil
22
Jalan
Rah
##arian
pilihan
##ulit
000
US
Program
##ly
betul
##eter
ahli
It
##ikit
##ith
badan
Maklumat
##ile
sus
Sej
Ac
##atik
Ex
##uai
Perd
mus
Memb
MAL
Tempat
21
##ainan
##oa
##UB
##ED
El
##land
datang
kr
##awak
sakit
Sain
hal
##daf
SH
kurang
tiada
sampai
##untu
Makan
mencari
ingin
berkenaan
bentuk
Sar
je
kecil
##anding
##anggung
tiga
Sistem
##iks
sedang
Port
##ospital
kamu
Solat
AN
kau
##lee
##sk
##enggan
gambar
Ma
##30
bay
BIL
Bin
##ustri
##ukar
on
il
##elihara
##iliki
Sk
mengikut
##ibadi
memas
Log
##ahkan
Android
UN
##upa
##aa
mah
##idang
Injap
keluli
##ibat
##ekal
Panduan
##cipta
Bagi
sistem
Tel
##eknologi
##akhir
Dew
Tim
##DA
##engganu
##over
memper
Lap
de
sp
Tahun
Syarikat
##akap
perj
tert
##are
bahagian
Daerah
mod
pet
##ick
Beliau
##lus
perempuan
##se
mula
##ASI
##engar
Lo
Sal
##enti
No
kal
Motor
Kelantan
##gu
bahan
##aksan
UMNO
PK
Jawatan
##ungai
Ass
Bul
##di
##rans
pand
##umpur
Post
makanan
Ek
diberi
perb
maj
ma
##ajaran
##antar
##ts
bahasa
##ungsi
50
maka
Tun
Lat
##IC
Ros
##uck
Ahli
lap
Facebook
##iden
Alam
sebenar
Mat
##angka
##adah
Ram
##idupan
ganti
##spot
ul
##mar
##PS
##anjut
Kar
ras
rawatan
##urn
Jen
Su
lepas
Im
Bi
##ANGAN
##tis
##LIS
KONE
##IKAN
Perb
##AC
minyak
##angkah
ur
pengh
##ham
##ubah
##ammad
masyarakat
Merc
##air
Com
For
##akkan
##aiz
ik
Kanak
Besar
##usnya
Perak
##erj
##rip
##inggal
Terkini
##emu
KU
Terengganu
Tapi
blogspot
##SIA
KER
##kuasa
##ayang
Bh
ch
bar
dic
##ARI
Mei
Nor
rendah
perl
awal
23
biasa
##xy
imp
kembali
Rakyat
buah
penting
##yataan
26
MALAY
##antai
##angsaan
tiba
benar
Mul
##de
##okok
Bl
##raf
Lumpur
SP
suami
hitsM
##ey
##ikasi
##indakan
keadaan
diken
Sultan
Ele
Pejabat
program
Bandar
keluarga
supaya
Terp
berkaitan
juta
##arikh
##rid
melakukan
Tanah
##auh
Sur
##vasi
##dn
berada
Pap
kos
##ink
tangan
Kos
berg
Ford
##uki
##entera
mampu
##osial
var
Sun
ku
Pah
Baru
##aud
Lihat
##esa
##USAN
##elakang
Kita
NEG
##ukum
Keselamatan
cuk
Melak
##lish
Asia
##angsung
##una
##agangan
Lemb
Kalau
My
Gala
Catatan
##asaan
kemudian
kaki
##jawab
akaun
199
Str
##kamah
##wan
##iversiti
At
Ed
##ign
Prof
Galaxy
##ive
Piec
##IB
Pembungkusan
##anah
##IF
##elas
Maz
##aklee
##enterian
Ark
amat
##ilangan
##ips
MAJ
##als
filem
perkhidmatan
agama
##ash
inf
Sen
KEL
Mesin
penc
Tet
Tinggi
##men
Buku
Media
##amil
##ujud
selama
##ungi
##ema
din
Peta
tahan
##ogle
2013
wid
##endak
##ujuk
##alon
Tw
Dar
menerima
##RAM
##ekanan
dig
parti
sebanyak
Pek
tanah
##unction
waktu
Le
data
politik
hak
##impin
Permohonan
BAH
##antung
##UD
berjaya
##lin
##ue
Boleh
Perdana
Ibu
str
para
kena
##ikum
jen
##agam
##yam
masing
Ked
##aka
##KU
##SS
##ml
pek
MALAYSIA
BN
Arkib
##rib
sumber
wang
##aftar
##ism
##EP
##ide
pinjaman
Temp
##atuh
kon
Ph
Assalam
Bay
##asatan
##out
##lange
Fr
function
##okong
zakat
##amal
##AYA
##ustr
##get
Mereka
Op
##ubahan
Artikel
Dir
##okasi
##etik
hubungan
pasti
pintu
Nasi
##apak
tanda
sesuatu
dibuat
Ada
Buk
##amanya
menarik
##isasi
##ANAN
MAJLIS
Stat
sejak
##epun
##uddin
##ualaikum
##unjukkan
##anggungjawab
##iranya
Kampung
##ayaan
##ace
##of
##ingkatkan
Raya
put
40
media
mal
##ilayah
Bu
buku
La
Jadi
##pe
Kota
##vd
##aluan
Toy
##itab
syarat
##oad
##kah
##uit
Sukan
##bar
shalat
27
##engg
##umi
depan
Hospital
membawa
SR
Af
##utus
Jan
kehidupan
terdapat
Pautan
Quran
##alanan
##ww
rakan
ST
##andu
memberikan
##AND
Melaka
ac
##erit
##aip
Penc
Inst
##idur
terj
##gn
balik
##INGK
Intern
Nama
Casino
##ood
Nov
Sus
Sabah
jumlah
##ril
##12
Kategori
Kedah
##ahui
##OT
Oleh
##limen
Alat
peribadi
##ookie
begitu
##enuh
##antikan
##ser
##ubuh
##ONG
##likasi
##ory
Sungai
##ebat
kasih
ment
##ton
Kur
Tiada
komp
##utup
Terpelihara
##sten
Val
belum
Muhammad
Toyota
##erika
ex
Ul
Sl
Kol
##uaran
##encana
guru
jangan
2012
Dunia
##asarkan
sebarang
bl
Kaw
Soalan
Gambar
seluruh
bandar
##ams
##lass
Hal
##ropah
##esiden
##ungsten
##erica
##nes
Li
##ock
Hakcipta
##isik
bilik
cuba
##60
##ampak
Dewan
log
Jenis
##awi
AM
walaupun
##ikm
##OGRAM
Eropah
##ullah
##ric
##adz
##000
PROGRAM
28
Google
Sept
Perc
##EB
it
##iling
##AKL
Pam
www
Con
EM
angg
diter
tindakan
Amerika
##co
Pilihan
##tua
turun
if
##ambahan
##ANT
##eriks
##aliti
##epi
Ju
##ALA
##antaran
SEL
##imum
Jangan
AD
##fi
AR
##str
Sw
Popular
keputusan
Pegawai
PP
Perh
pagi
Jul
Masjid
Bag
Kerja
##ect
Jun
Lelaki
Em
kulit
he
##UMP
Pahang
dilakukan
hasil
Kementerian
##emaja
minggu
##enal
English
Gal
saja
gel
##jin
2010
##ulang
##tarab
Taman
pos
emp
tuj
terut
##18
pengalaman
##KAN
sal
up
dulu
##rahim
Airport
##ary
##apun
Cl
Comp
##tarabangsa
Shaklee
html
perniagaan
TV
Mac
Tuan
sekitar
sedikit
mat
KL
##awal
be
Pelanggan
##iza
##ire
agar
gol
Ir
##eles
##AF
##irkan
tempoh
menyebabkan
percuma
Masa
Najib
##AIN
##taran
##inggalkan
##orp
muda
Roll
content
Terma
##UKAN
##uny
ubat
dok
##olong
##avig
##agen
Penj
##itamin
Ses
##egang
Namun
komun
##adakan
kuasa
harus
Assalamualaikum
##inasi
##68
##itter
##efon
##aksanakan
##araan
mur
##etah
Raja
##angun
Sup
daerah
##ial
beras
##ivid
##iew
fit
##row
##eman
##ice
penuh
##eluarkan
##ersi
31
NEGERI
bekas
mar
##andungan
Peranc
##impan
panas
Bantuan
09
##bil
##alak
JAW
##okongan
but
Kal
##iss
aktiviti
Cr
semakin
main
##eksi
kenyataan
##ektr
##erta
Portal
bekalan
arah
Rasul
Nabi
ya
##eed
##ishi
35
##eme
##vator
mendapatkan
Privasi
##angga
mk
##usaha
Sah
baju
##acaan
##aburan
##pr
Borang
##udio
Batu
kampung
##40
post
aut
Ok
ilmu
memiliki
ger
jawatan
MEL
##ayan
Hadiah
Selamat
##ais
kumpulan
##asilkan
2011
##itkan
##ekutu
semalam
Sri
##22
##ubishi
##itsubishi
##ubatan
##orn
Pinang
hendak
##ork
kaum
##AA
naik
namun
Kertas
ib
##eriksaan
pusat
Aut
##abel
April
PENGUR
##esan
##istik
##urkan
##jaya
pl
Web
Mahkamah
Not
##za
##PU
Dod
##angkutan
Parlimen
##kualiti
##AZ
##ct
Elevator
##ungguh
##ampir
##eza
##olak
##ENT
##SI
Menurut
beli
AB
sunting
keper
Sarawak
Semasa
Gl
PTG
Lebih
##ban
##mm
Dodge
##OP
kertas
##war
##uf
tengah
khus
Jer
Vol
pemain
Sing
sesuai
##onda
Muat
polis
##obile
Waktu
ditu
Timur
semp
sub
Flange
##intang
Mod
##entara
tetap
##entuk
##ualiti
mati
##apai
Arab
hitam
mew
##ase
setelah
##alatan
Daftar
##enaga
AK
##ldoz
But
##EJ
Des
Kej
Be
Nur
Info
##OD
Jumlah
Wik
Pembangunan
Bulldoz
proses
Bukan
##EMB
kap
Perl
##te
lat
##GA
To
ayah
##azim
##OHD
con
##alankan
pembekal
Ibrahim
##aksa
##aksi
SK
##uter
RM1
Polis
Ni
ekonomi
pengguna
AP
PEND
##Rookie
##ividu
##21
dekat
##aris
##lic
##abar
PEMB
##ame
##ower
##la
Makanan
##ka
Cont
##ahun
aj
##amaan
##ALAM
Raz
##erti
##ere
usaha
##hi
Semb
29
lanjut
##ium
##ikh
##undai
##ALAN
##LIN
##ahwin
##form
##engkap
##ayat
Mad
Selain
Hyundai
##alami
##35
senti
##alator
Mitsubishi
warna
sun
rah
##gos
##ult
##akw
industri
bag
##elur
hid
projek
cinta
nk
##ju
India
sentiasa
Rek
Sed
Dato
##orong
Banyak
##urus
##ekutuan
##UHAI
Bank
Ali
##upayaan
Porno
##rin
Yus
##operasi
##iman
##ewa
##24
segala
Agama
##inar
dahulu
penduduk
Bulldozer
bank
Grader
Kebangsaan
Aktiviti
##sus
##dr
##sian
Umno
rambut
##ATA
##edes
##oi
##angkat
Mon
bat
Bhd
Av
##own
September
bermula
pemimpin
Berc
Presiden
ago
##duc
##erangan
Selepas
Ast
Teknologi
##awaran
##peria
##TM
pant
merah
##adian
Loader
Awam
re
Esc
langkah
Xperia
Syarat
menunjukkan
ing
Nis
United
Pengarah
khas
PENGURUSAN
Bagaimana
kol
##daftar
PERTAN
##apatan
terakhir
Komun
kuat
##etahui
##buhan
Aziz
##bah
##eliling
03
##orpor
Kemas
ciri
01
##ement
##ADA
Sumber
DAP
kew
Nik
##ny
gadis
langsung
##ST
Rep
Pert
Lagu
Jepun
gen
Lain
##ji
##rom
agak
cukup
Bukit
jelas
alam
barang
warga
bertu
Mudah
co
tim
##ipedia
##ugerah
Abu
##unuh
KAM
kisah
##hh
##udukan
Far
##asama
panjang
Badan
##ela
Pl
##ley
menyediakan
YANG
peringkat
was
berita
##PK
##END
60
Ger
Jam
##eluruhan
##alin
tadi
##AHAN
##heel
##jian
Mazda
Sejarah
##athir
ayat
Mohamad
Ogos
PD
online
##afian
Sil
kesihatan
##adbiran
sl
bagaimana
lemb
Feb
##ron
KUALA
tidur
em
cakap
##ree
##ester
##uch
kawan
##con
Bulan
bern
##ding
Mo
Guru
laut
selalu
##px
belakang
Sc
Pemain
Komp
Organ
Bek
TEK
Ya
Sol
perjalanan
##afs
##gak
##able
Terbaik
sebenarnya
calon
darah
##intah
trans
kelas
##andi
##onton
Sec
Benz
Twitter
ikan
saat
pasukan
Tips
Pakaian
awam
dikenali
##udahan
##apati
Sat
muka
sosial
bidang
Galeri
##erjaan
##UP
Akhir
##brid
penggunaan
##AGI
Perniagaan
Fat
##enderaan
Sch
##timedia
##udaya
##igi
siasatan
pam
Meny
##alia
##ASAN
nya
##80
berikut
##UA
##ITI
bur
Tentang
Kata
##unggu
Sdn
##25
##ational
##ikian
Penafian
##son
tekanan
rep
Bersama
bebas
PB
##taz
Re
mengin
umum
Kan
selamat
##MA
terkini
Wheel
Dic
##idmat
##ancang
##RM
Nasional
##oth
org
##tic
Ramadan
Mercedes
Sa
jauh
Universiti
Kisah
surat
Nissan
solat
bekerja
##io
Sebelum
Buat
nilai
##asihat
Disember
Fir
##rig
talian
prof
Kew
##der
##azah
Azmi
##uanya
##ahagian
Kepada
##IDIKAN
##ave
Ing
##awarkan
##igh
Haji
##ITA
##earch
Mahathir
Emas
meningkatkan
##atian
belajar
Saint
##LAH
Bahan
mengand
##ices
##agn
Terl
berat
##les
pat
fa
##EW
##umpang
##itif
##ublic
kesan
##erang
sambil
Nak
kilang
pendidikan
##wagen
##oo
Persekutuan
##kswagen
##ments
All
Beg
##try
Filem
duduk
##70
##alahan
KM
##isk
Kumpulan
##agaiman
PENDIDIKAN
Itu
cantik
kandungan
terlalu
huj
duit
##engok
##andard
bantuan
##ebar
Muslim
Vitamin
##ich
##akwa
##ype
##emah
Salam
##ose
##ext
PM
Had
##TUK
##osa
nanti
##eknik
##INGKAT
Col
bij
memastikan
bas
Il
kitab
Rasulullah
##pek
peluang
##eorang
baca
Part
##ilion
BERS
##ize
GM
##inaan
Do
##ibatkan
##agaimanapun
peratus
##khbar
De
berkualiti
bu
##URAN
selain
pandangan
MENG
hab
Iklan
45
##uhkan
##initi
Apakah
kepala
terima
empat
##anakala
##atuan
Sya
##anyakan
Bila
##isnes
##AU
Cad
##Am
06
##rat
##aktor
Satu
##orkan
##be
##stadz
Ta
anggota
pad
##TC
jugak
cepat
murid
##ally
ok
bakal
bapa
Cerita
##abung
Profil
##emui
op
membaca
PENY
##ans
berdasarkan
##umen
##ingkatan
Old
perang
Antara
##ollow
bayi
##orporat
Volkswagen
##aham
##amin
##ekt
bangsa
Paparan
##arut
##URU
Mont
EMAS
PAN
Penyakit
Kosong
##adual
Pent
##illah
Home
##ancangan
Keh
##tak
mengur
Masuk
golongan
##illa
##ohd
Apabila
Sij
Berkaitan
##uktur
##iburan
menjadikan
sepanjang
##unyi
##ilin
JAWATAN
adik
Mengenai
##ahaya
Fil
karat
berf
##15
with
USD
Kecil
Honda
Ku
diberikan
lihat
##omosi
##eet
murah
##lastik
Lazim
Selatan
Lama
Ro
##bon
##ance
putih
lagu
Sijil
navig
##ull
##sm
Adakah
Kon
Seg
teg
menang
Hybrid
menginap
##app
Undang
hampir
##YA
UNTUK
Tok
##araf
##INI
##anggil
##AKAN
asal
minimum
pautan
##sy
Dvd
contoh
##IHAN
Bak
cat
##sik
bunga
Ketika
ulasan
menyatakan
sesi
korang
##uari
angk
Lembaga
##awanan
##imbalan
II
##ope
Piagam
##alang
semb
pengeluar
Gu
##undi
##ukur
individu
bola
##luan
sejarah
wh
##osit
##uarat
zakar
id
Wan
##andingan
wp
Serv
Pengh
keperluan
##ajuan
May
##yuarat
##ulihan
Fungsi
sw
##apaian
berbanding
##isiko
minta
majlis
##udak
##RI
##inda
TEKN
fitrah
https
Perancis
##ida
hukum
pelanggan
143
##rn
ny
08
tempatan
Penger
Cina
##rav
Menj
##fa
##urang
Tarikh
Kap
top
##audara
##YAT
##cm
Search
##iku
##elang
Baju
Fer
##andang
suatu
Gen
##iah
kons
popular
tambahan
##aturan
Sebagai
Pesanan
##unci
dgn
##ahwinan
Singap
GURU
##ANA
##ove
Lim
##EO
##rys
Glob
##tanian
##eja
guna
perd
##etakkan
Anwar
05
buk
Terbaru
kalangan
##asta
##way
Kek
mangsa
Bo
Rasmi
PERINGKAT
##faat
Tetapi
Dua
telefon
seseorang
War
##cik
##ober
##embangan
Ubat
PERAK
Bas
##anjung
##ille
##ihkan
nasi
Keluar
San
##AKLUM
##angkap
KEJ
##asaran
Has
##tusan
##anyaan
##amadhan
asing
##erh
##iac
##19
Blogger
##daftaran
dikatakan
PH
tahap
##imiza
Qamal
##Eimiza
hitsEimiza
not
##opy
Infiniti
##awang
##sport
Sains
Kewangan
##ategory
Band
akibat
November
Rawatan
kotak
##ubur
##sa
##ech
Dit
##oid
Gold
lengkap
##rik
##14
##rysler
Ekonomi
hitsMohd
Wikipedia
##ibu
##eluaran
Sport
Sila
berbeza
##fy
Imp
Jaya
lima
bakul
sering
##ainya
##eraan
Luar
SPM
YB
##zah
islam
##ombor
baharu
##tiga
##aib
Muk
##akon
##andaran
Penyel
Keupayaan
Rencana
##17
LUMP
Tanpa
Pakatan
LUMPUR
tengok
##amar
##erlukan
Jom
bilion
Penggunaan
hilang
36
Hidup
pembangunan
Pal
Sebab
##13
##ENGK
SUHAI
##arap
penyel
##ongk
siapa
Hanya
AZ
AG
Seti
kedudukan
tau
Rahsia
##PT
tanya
ins
Ur
Met
tujuan
##impinan
Malay
jenama
Laporan
##irik
Cinta
Januari
Maklum
##dara
berw
kak
DUN
##CT
PG
##res
##caya
##dah
lakukan
Austr
tar
ambil
tubuh
nampak
KH
##sud
##ektori
##ner
##gerak
##asanya
##atal
maklum
soalan
Gh
##atur
##anji
zaman
enjin
bisa
TAN
##itle
BL
cuma
sokongan
##ikap
impian
laporan
Surat
##idah
##hone
api
memerlukan
MB
Chrysler
tinggal
ingat
email
pelaburan
Te
##ebihan
##uangan
##enalan
Gadis
Kenapa
##isme
kejadian
##alk
##umpul
Masalah
##akai
##eturn
gag
putus
Pieces
##eperiksaan
##INGAN
rujuk
Piece
Ka
SEB
keseluruhan
Klik
Walaupun
Abdullah
##ukai
##IP
##ANTAN
##isti
mesti
##ition
##uci
BAGI
##AJARAN
ut
Khas
Atas
Pont
bertanggungjawab
##ikirkan
##ade
rel
Eur
MP
32
Tambah
##ancongan
2009
MAKLUM
33
##ury
Kawasan
##adisi
##atas
##ormat
ON
##eral
dr
keselamatan
PKR
disediakan
sc
##ANGG
keg
pulak
Chr
##TER
##ix
Ham
sala
bonus
Tungsten
remaja
##ajet
Direktori
Tuhan
permohonan
Perlu
Dapat
##enarkan
BENGK
Dem
##bjek
##let
##oman
navigation
membeli
Main
Ip
kadar
Warga
##utang
##umpa
Bola
Zakat
return
##td
tud
Siapa
##75
hadapan
##isis
##illac
elektr
net
Tur
##emas
##edar
KOK
Polisi
Sebut
##ulisan
##aiwan
menghasilkan
##ulah
##oga
Timbalan
##IZ
perasaan
##ahiran
you
##ations
##ugas
dasar
Barat
BENGKEL
Valve
##ayakan
Okt
te
komen
Land
inst
##ahami
Kini
##PA
Produc
kekal
petang
##adem
JK
Darul
tarikh
KEM
Mark
Kadar
Menar
Bur
##inat
##har
war
Seorang
pembel
##mer
##jasama
Net
NO
nik
Optim
##entukan
pegawai
Pos
MD
##idik
pakaian
info
minit
ed
##oin
KELANTAN
akhirnya
Jag
sya
organ
Menarik
##odoh
Tengah
##DI
Akta
mont
##LAM
##eel
##bo
Industri
Je
Cari
situ
##olusi
Email
Internet
##ebr
lo
America
Kasino
##ber
##LI
198
##jah
##ayaran
sekiranya
siap
memilih
Pengangkutan
##45
icon
Isteri
Ulasan
##den
Pakej
Pengguna
##ki
##ater
Pintu
##hatian
##VD
Pant
por
disebabkan
Super
##olehkan
segera
mengalami
##ait
Pontiac
##EJAB
##wal
04
##estasi
des
90
Optimus
##antau
cari
Suz
##atat
Cipta
##geris
##KUASA
dilihat
Korporat
##ript
##SP
Utusan
unit
##awar
Instit
##ewaan
##ruari
##umbangan
##impi
meter
Doa
pemer
##ony
kenapa
##ayak
kewangan
mengatakan
##MI
Setia
##umuman
##rit
Black
##AMAT
sup
HTC
berjalan
##utnya
pasaran
##bi
KEP
59
##ale
Organisasi
musim
##sh
##ifat
wilayah
Dig
##ona
terutamanya
Penerb
perubahan
sebahagian
##ass
seter
##aruh
tua
##emerl
Langk
sana
GMC
##lo
##anggap
melibatkan
##ograf
Siti
asas
##unakan
bot
##ern
He
##akitangan
Kad
Berb
tertentu
milik
do
##AMB
2008
dew
##yum
Hus
KES
##isyen
##etapkan
Escalator
that
##opi
##hy
kenderaan
Wilayah
Julai
ro
Umum
Carta
hadiah
kedai
Daripada
##artanah
##ba
malaysia
prot
Akaun
tenaga
Kab
##erasi
diam
DALAM
pasangan
widget
##incangan
TR
##ulat
LT
##kand
TH
ist
Singapura
##omatik
saudara
tun
seri
Wor
salafy
55
Trans
Ins
Isu
##efore
doa
kemas
are
HAR
kematian
##leks
PERK
##oni
Ge
balas
umat
##ery
Jenama
Setiap
##ikgu
Mart
Halaman
Lagi
Mata
##right
##insi
laluan
##edit
##IV
JAWATANKUASA
##ikiran
Audio
mencapai
pakai
Resepi
demikian
What
go
##ukul
##day
Pelajar
Mungkin
Roller
Pertu
Cadillac
##oln
Dim
Follow
Pat
dar
##asakan
talak
Inggeris
say
Khal
Antarabangsa
Ismail
terpaksa
##ci
##ARU
Februari
pap
##indak
month
Ltd
masjid
BAHASA
menghad
##alsu
##iq
Gre
seterusnya
##ecah
Seh
BEL
pus
Secara
hadir
##ertai
Mur
##ulasi
Oktober
##incoln
Turun
##eran
Latihan
##EC
manakala
##onik
Hid
Arch
Franc
##ike
##imia
Samp
jatuh
Beb
punca
##umaat
kajian
##inj
Cap
susu
##erland
ruang
teknologi
kerusi
percaya
##ataan
Penerangan
Salah
operasi
Barang
Dik
##orea
##gle
simp
##ode
Perj
Minyak
##etengah
##tn
li
##angani
aplikasi
sedia
Tender
##lukan
sayang
Foto
Ipoh
##emuka
##SA
senang
sukar
##ken
Statistik
diadakan
batu
##asis
##irian
##antal
Melalui
PEG
##uzik
OT
##enuhi
year
Carian
disi
##indahan
sedar
kehilangan
artikel
##pun
takut
Bilik
sib
RAK
samb
SY
Eks
Peralatan
uc
run
ISLAM
##endali
39
pekerja
##utian
##tera
Pengerusi
Roslan
##KM
48
Dij
pasal
Susu
tepat
##emak
##tud
##65
PN
##iana
SW
Mercury
##ariah
rama
mcm
##omo
##amkan
Ustaz
02
er
BM
##raj
terlibat
MAS
ikut
we
65
Copy
RAS
benda
alat
##ica
JP
Class
Ramadhan
khusus
##adio
##abur
Terd
##indungan
sil
##adu
sebalik
Pelan
##ск
KOKO
alih
1M
##OHANAN
gagal
Aduan
KEJOHANAN
lahir
##abu
##smobile
##ekalkan
Utara
##AWAI
##ajuk
Int
Oldsmobile
##unung
Dah
##CM
34
menerusi
catatan
Komen
Alamat
hitsMOHD
Zul
before
me
##isteri
Bisnes
##In
##impunan
AW
tentera
##LEE
get
gov
sepenuh
bayaran
##empatan
##IKAL
##luk
##ogel
Jawatankuasa
##asat
lokasi
70
paip
jer
Suzuki
kl
COM
Pertama
bab
Lincoln
hotel
tawaran
##imbang
ketiga
Misi
##CB
##EJABAT
pendapatan
Setelah
##entingan
jabatan
Terima
##estinasi
Muda
##umahan
##arg
37
dh
##ulakan
Pag
##mah
##ng
perh
Wang
SO
RAKYAT
##umkan
##DN
##inapan
07
Jumaat
PEJABAT
##ure
ayam
kualiti
pengurusan
lif
Data
MSS
##AWAH
wak
##elaskan
melayu
menyel
Sembilan
sihat
##ated
Real
PUS
Portu
##ainkan
Keluarga
Percuma
motor
Eh
porno
##alangan
Ang
##edahan
##lm
SET
PEGAWAI
Alor
Perkara
##erv
##unjung
Perp
wat
siri
##irah
##istan
mesin
Komuniti
80
Hiburan
##ekatan
plastik
diambil
lupa
43
GR
Kia
Bil
##elanj
kayu
Roy
Perubatan
Cam
seni
demi
menjej
##ube
##esyen
##ITIA
##esai
Seni
budak
PANITIA
Australia
mengeluarkan
membolehkan
isi
##aporkan
##eld
pertanyaan
##otong
38
##11
##iru
##fit
Bet
##ijau
Anugerah
pengg
Sekiranya
##akanan
Keputusan
IP
##yn
##oma
##abah
##enda
diperlukan
##tir
KO
##tain
DAT
Pe
Inilah
Sm
##roup
Baca
col
CH
Politik
meminta
##cayai
from
berusia
Langgan
##yle
kapal
##esu
##imbul
asa
Baik
##ersihan
##ero
melaksanakan
##ikmati
##itung
##uali
rasmi
EN
sila
berhubung
Suami
Pan
Isra
##ailand
##awapan
##yang
Mari
OR
bacaan
##eki
link
##uth
kaedah
seramai
Lokasi
JAB
setahun
malah
mengurangkan
##empen
pulang
Und
500
##uts
##hamdul
terg
##eck
##uhu
##arikan
wajah
##urangan
##ATI
##ски
Up
##ental
menyokong
tumb
##arak
Korea
asli
mulut
##ustom
##ingkas
menulis
membuka
berubah
panduan
rek
##sur
Pengg
Contoh
kebanyakan
##ners
Ist
faham
##ahawan
utk
br
##uni
##bjektif
##ADI
item
##angkang
Diri
##HID
Fre
berwarna
Mengh
##GER
Terbang
##untut
Buick
Wh
##entian
Bercuti
DVD
##afiz
##indah
apakah
##rika
Bal
##utamaan
Piala
Maka
##lex
##iaya
menurut
sul
has
mengetahui
##EMP
##abaran
##ting
dirinya
suara
##oggle
##agram
##ujukan
width
sar
Imam
Vi
Dip
Design
JABATAN
##ENGAH
Vir
comp
sahabat
International
##udin
MATA
MR
Fit
menteri
permainan
PRU
Wah
44
no
##etahuan
terbuka
##anol
Thailand
Razak
##inggit
Saturn
kadang
Penjagaan
bangunan
Rahman
##aduan
PELAJARAN
##ejut
Power
Dok
##jar
kategori
cok
##aut
Aman
75
##mat
Ev
Sebenar
perhatian
PERS
Copyright
##oint
Hab
You
##itor
kawalan
Esp
Lapangan
ianya
PENYEL
##amba
Grand
##emuk
intern
gaya
##rajaya
##AYU
##ravel
mengandungi
##aq
Tanda
##amis
az
jawab
anj
##ongsian
##adangan
##oka
Pus
Simp
##even
##ouse
##adbir
Jaguar
Promosi
star
Menu
Kursus
Minggu
kah
OTIS
Kelas
##ool
##juan
Lirik
antarabangsa
Ay
Terdapat
LG
Mu
Tas
Projek
##ies
##enaran
biasanya
Zain
##aunter
Mend
Perubahan
##alanya
tungsten
##dea
High
seksi
Mic
Nas
koperasi
Shalat
amalan
tuan
tempahan
##ormasi
Sementara
maaf
universiti
##ahanan
IB
tok
##xx
mendengar
utara
Martin
##angnya
sifat
##que
##iwa
##enan
##otos
##tin
kerjasama
KAMI
##ejala
dijual
Indeks
##aus
##PAN
daya
karena
size
kad
Off
meningkat
Hati
bumi
##awih
wajib
tungg
##lahan
gr
##32
menawarkan
99
dilaksanakan
nombor
MAH
##awangan
Paling
BLOG
##yan
##kenalkan
pemilik
PAR
##ancarkan
Star
berharap
##ungguhnya
##embang
##unter
skip
menambah
Tali
Pengumuman
terc
bermain
##indler
Akhbar
BAWAH
Schindler
Kit
Jualan
##ayud
RM2
teman
##MM
Otis
kenc
##IRAN
segi
tugas
ped
More
KP
kebangsaan
bersetu
##adikan
##enangan
Cukai
##usah
KEB
pan
pengan
sebelah
kanan
Bab
Seksyen
##adanan
meninggal
##ights
palsu
Lib
Dil
SUKAN
##DINGAN
int
Bern
doktor
stok
##ument
##elesaikan
##ancar
PERC
##ayudara
puasa
##araya
Katanya
##etakan
##rok
Hukum
Berikut
47
Comm
##AMAN
##udu
##RA
menjalankan
tali
pejabat
Aid
reka
terutama
##arm
##ografi
##tiraf
bintang
buruk
Dib
##ence
##unit
##ico
##AJAAN
##acur
Jerman
your
Permainan
AH
DARI
Fak
Afrika
Putrajaya
Panas
##uji
##esel
bercuti
car
terkenal
hebat
Zah
##aiki
Israel
Public
BUL
PERTANDINGAN
##ora
matang
yakin
Jadual
pokok
Posts
##ux
##CH
beri
pingg
sepenuhnya
##ajikan
##tum
##ANGK
Berh
##rev
dakw
sebag
rak
##ONAL
Laut
By
PL
wujud
##emahan
##agia
##ediaan
fir
udara
##ublik
css
sikit
bersalin
##erita
##ilaian
World
##go
##untukan
##ARAH
Standard
Products
meninggalkan
##idi
##raul
Pertanian
##iter
##emen
##hen
perkahwinan
saiz
penulis
##aksanaan
##88
##ros
Atom
300
pener
Multimedia
##rain
Red
##asut
pendapat
del
Visi
ustadz
Services
##bum
berter
terdiri
Kelab
segmen
sibuk
##66
##DB
Hu
##rari
gaji
##uncul
Label
##BA
##JA
MU
port
Bent
otak
MENENGAH
##ado
pri
##erg
##rul
##amakan
Pendaftaran
##ampaikan
IK
GOL
Kedua
##akarta
harta
sebagainya
##GAN
Harian
Iz
Berm
##America
jual
Beli
marah
##ato
##tra
index
Rendah
Sosial
BOL
##zZ
Perlis
Ramai
##iktiraf
sementara
Id
Bacaan
modal
Berd
bet
##AKA
latihan
##adanya
ujian
##ther
Irine
##yb
mandi
Lab
MY
##indungi
mengadakan
##line
##01
TEKNIKAL
mengaku
##akaran
KERAJAAN
Gol
rahsia
sew
##inga
##TERI
tradisi
Menc
es
kanser
Hantar
Moz
##alaysia
berasal
##AKS
##33
KUR
Van
States
peranan
Bus
Manusia
versi
##ys
EK
##ukaan
##62
Kons
Kedai
Lilin
hitsN
Jav
dagangan
Bayi
plat
##uam
tolong
BT
##aging
##aksud
##raya
pakej
Merah
##epan
soal
Les
Hi
##rica
punya
Toggle
Hotels
Kak
##umumkan
perdagangan
##ipan
memenuhi
berkongsi
agensi
mil
penghantaran
##hamdulillah
##harga
kont
##ski
nikah
Fin
sejuk
HARI
Med
perbu
##evel
off
indah
Yusof
pembinaan
Sebutharga
##uzu
##gues
dvd
diterima
mulai
Harapan
Sand
##OC
Pinjaman
cuti
Abd
##intaan
##EST
XCM
##endar
mengajar
Pasir
VID
perubatan
##uble
Parti
##ii
##anjian
pelarut
keras
##atutnya
manis
Koleksi
##lace
harap
generasi
##ustak
XCMG
TP
Pekeliling
sm
Saf
keku
##iness
menyertai
klik
##aaa
Remaja
pesakit
##apur
sedih
pu
Isuzu
PUT
Kat
Bat
terbaru
##LINE
dikeluarkan
##ingat
##rif
Peti
habis
##cel
pemulihan
TANAH
##esional
SU
susah
angin
menjaga
##77
##round
Cre
##tup
niat
##anjaya
Subaru
Mini
2020
Ayam
Book
risiko
bayar
ye
##FT
SAW
Kerjaya
Perg
Pelawat
##23
##ANGOR
terjadi
Bro
VIDEO
Setiausaha
Pencapaian
##uju
##ops
##alisis
foto
##yss
import
terh
##ENDAH
BERSAMA
Maha
kemudahan
EX
##anyi
Diper
Kajian
Ver
Pelancongan
Angk
##nu
Kongsi
Kemudian
Persatuan
Lori
Memp
##ubat
##29
ME
Lin
##imah
##awler
Pand
kelihatan
kongsi
Acura
##TU
height
serangan
##uruhanjaya
##estoran
##ujudkan
Dicatat
Ri
Mesyuarat
##oker
##MAN
##tive
senarai
PUSAT
Qur
umur
##icara
King
internet
SELANGOR
##INGG
Macam
ref
Bert
##izikal
terkemuka
##ins
##AJA
BERITA
##cl
CR
image
berkuasa
Pihak
hendaklah
pekerjaan
android
Item
seunit
Diam
Gab
meletakkan
faktor
Reg
Peperiksaan
##site
##hati
##iff
dipercayai
serv
ketua
perkataan
Khidmat
##tah
##ategi
##angkitan
##UMA
kepentingan
##ubang
berhenti
##oe
sekadar
Dapatkan
##antalum
Amalan
##jil
Liga
Lesen
membentuk
##fah
muncul
mengen
bergerak
##adat
sens
Malam
PBB
Parts
Surah
##egr
KAD
Pekerjaan
Aidil
Aplikasi
##urga
Bang
pengetahuan
selesai
model
budaya
ALAM
##ise
##sel
join
SHAH
bertindak
##unca
RAZ
Pentadbiran
Keg
##eric
enam
##hp
##ket
sol
##ene
Sakit
Bad
##IRI
Semp
ABD
ringgit
Lepas
Penghantaran
SS
##ild
Hitam
sikap
Cor
Kulit
kontr
##tom
##JK
##bur
##omun
Sewaan
mm
dijalankan
##wah
##ALI
Kerana
##cript
##ustakaan
##her
##abil
Gigi
Yah
muslim
POL
berambut
##etapi
title
Mana
ditahan
Pelak
##osakan
audio
Jeep
##imat
##roses
Mag
bergantung
pukul
binti
misteri
##EE
##ucing
comments
cukai
RAM
##lak
Mi
##emis
kencing
Tab
salam
Sudah
##taupun
##ps
BUK
##ukup
bertanya
perkembangan
Objektif
##linik
anti
saw
pentadbiran
##78
##umur
menjawab
Can
Kin
new
Han
aktif
##yl
##ILAN
hubungi
instit
sukan
##erved
City
##itis
Gajah
Cal
fungsi
Ilmu
Republik
maksud
Ray
bawa
skru
##tact
Travel
Pembekal
##even7
##69
berapa
dewasa
DENG
Kualiti
Belakang
Para
Category
pakar
Akan
##yid
Bayaran
kosong
##anggilan
abang
Must
penerb
le
runners
##ogol
##DP
MOHD
Espanol
##angunkan
Malah
runnerseven7
ng
bagaimanapun
Sihat
mengelak
##omunikasi
INI
pe
##aparkan
Del
memahami
49
##eft
Nya
tentu
tapak
Teng
Rec
menghantar
tudung
deposit
##hai
##allah
She
##amaah
Mor
temb
Operasi
hospital
Peribadi
##ambung
status
Warna
ms
peralatan
cahaya
##ambilan
Pemuda
##board
pur
Ujian
Rover
Suruhanjaya
##amatkan
##sion
##enangi
tanggungjawab
terbang
haram
av
Puasa
##iket
membayar
Talian
cl
##kup
##ider
over
BR
berusaha
##edaran
iP
tarawih
##ezeki
##MAD
ditemui
masak
peg
##ilat
lemah
Menggunakan
BH
dijangka
##aras
##ape
##ific
##ion
##angguan
##untry
##edahkan
Sin
##ago
MA
sebaliknya
pulau
##raulik
Rob
what
Xperia™
naf
dianggap
##udahkan
##IMAT
##ownl
membina
##PP
Sekarang
Tekanan
##tinya
##ilangkan
her
Pantai
Hasil
ataupun
dijadikan
Terlalu
##olehan
bijak
semangat
##rog
cadangan
Pic
Nilai
life
batang
ditetapkan
##ney
##CA
perut
Slot
##anggup
Firef
Crawler
cipta
##akna
MS
Memang
##ORM
terbesar
PRK
kering
kesalahan
Wak
maut
##taf
##emuan
khususnya
dengar
multimedia
replace
sec
Pengan
memohon
##37
##ited
Me
##ning
Emp
##ingin
Iran
##gt
##ster
##28
Sum
Out
##amera
Ferrari
Syed
Er
hamil
undi
Rel
Keluli
Terbuka
Said
Masyarakat
##AIL
##ega
sepatutnya
Rekod
km
Tentera
##eritahu
Sebenarnya
Lah
Perund
Audi
Seperti
##indu
dibina
##ese
mis
akses
##isau
##ealth
##ownload
PU
Berp
##orban
##ength
##org
automatik
##ier
##uatan
Petua
Rus
Ton
##IG
Sam
miss
swasta
sektor
artis
Kamp
time
layak
##eritakan
##ronic
##asiat
##gkau
##TIK
##enz
SMK
Bahru
sesiapa
Firefox
API
elektrik
urusan
Hai
tw
Kemaskini
##ormal
95
46
RENDAH
##enj
Balas
Tiga
KOTA
195
fuck
muk
DENGAN
##emaah
Kemb
peruntukan
teruk
rup
angkat
Padang
##inet
PRO
##lop
##ipun
meneg
##ikul
##CC
PUB
##esh
##TS
##NAN
SUK
perp
##ten
PIN
borang
bertemu
##erlands
jualan
##buk
Top
54
SUL
memulakan
kota
##elanjaan
##reasi
pengeluaran
def
##ezaan
##uster
##azil
out
Institut
bal
##antas
KR
Gunung
Spec
Jakarta
##ark
Pasaran
Mach
##atasi
Gaya
didapati
kursus
menyimpan
##ected
##ус
##umbang
pemandu
kebenaran
##UNAN
Univers
##ohanan
##AGA
MENTERI
tunggal
jah
##insip
Perempuan
Siri
Pengajian
INF
gas
##alakkan
ISMA
##ARIK
##ustrian
1024
Pengenalan
##ehe
##industrian
Kali
##rup
##agang
dlm
bukti
##asm
Steel
##ertaan
Rev
menyer
Best
Posted
Hakim
Setar
bil
##rap
##GO
karbon
kejayaan
kaya
Instagram
semuanya
##ancong
##aklum
jumpa
peserta
##скии
##pp
janji
PERCUMA
Kawalan
##ekah
selesa
barat
pembungkusan
dana
Fel
tump
Stesen
usia
##nam
##усскии
dikenakan
##adilan
FR
##okus
hutang
##iput
sehari
tp
Destinasi
##ania
Tioman
##mo
best
Gel
dibawa
##itaran
##oriti
Betul
itulah
##urat
dada
##airan
tamp
##tukar
menu
##mal
TAKL
sain
##ERS
##eras
menghadapi
berkesan
Faiz
gl
##uge
sepak
dek
Mulut
sat
CO
##ical
Barisan
##untungan
Yo
TAKLIMAT
##itas
##ebihi
##ukun
##TR
Mr
##AIAN
CE
##ret
##ibir
##egah
perbuatan
##BP
Leb
##abit
##ampur
##orth
Kuasa
##ipi
##erhana
Kau
##aser
Pad
##ANJ
Adam
wakil
Hulu
Belum
Pu
Fl
Pesakit
start
merasa
##yyah
sempat
Penerbitan
##estim
watak
CAT
##ras
##my
##akh
##uning
##ria
perlawanan
SWT
Astro
ONLINE
Siasatan
##istiwa
SEN
jantung
##vens
##metik
##94
##awei
Mun
##awl
Pengalaman
menolak
##asiswa
mengk
##erba
##EH
##FA
Globe
##ikmat
##su
harian
##ikin
Pilih
##oalan
raja
sehala
kerosakan
##omen
SL
dara
##alil
Mol
lembut
seng
Pangk
Sokongan
Bharu
##yssen
Perumahan
bahwa
Thyssen
hamba
##YAAN
Brit
##igian
hartanah
##iaga
##41
pembangkang
##denum
seluar
##LIC
##fitri
Tip
Forum
##arch
##tions
##ebriti
PERTANYAAN
pelakon
minum
##ground
##ampiran
##erd
mini
Show
Whats
Park
##udut
##amily
Max
disebut
##UBUNG
##36
Road
2007
Penuh
RAH
UTAMA
Expl
##elahiran
hujan
##emerlang
mengangkat
##uha
##KINI
LAT
Menengah
##anyol
SHAK
##anja
just
mendapati
UL
##elasan
##osis
DR
On
HD
TAK
view
ALLAH
Ciri
Latar
KEN
positif
Pemakanan
back
##erk
Cab
Bagaimanapun
Kong
##gh
Bandaraya
##scrib
Company
uk
menikmati
hujung
##OW
##ukkan
melebihi
Bot
##ative
keter
hel
ICT
##emasan
##inding
##ANC
Sens
Keretapi
Semula
Portugues
puas
besi
nasihat
menyus
ajaran
terma
Kaedah
##ading
Global
##72
##kn
##taranya
adakah
##gas
##SC
##jen
Fuj
fikir
jawapan
percutian
KPM
##pt
##irasi
Berg
##utsch
iklan
##ral
##estin
58
halaman
##ukuman
gila
haiwan
##work
sgt
##afik
##urna
##cord
##500
Alhamdulillah
sb
##AINAL
Sunat
kakitangan
Berhad
##uatku
play
kecuali
Kesan
150
Berj
Zaman
kenal
PAK
160
##ungkinan
gula
entry
##90
##hu
ADNAN
##orer
Chrome
##Co
bus
Din
##TIV
##siklop
##bt
##asangan
##embagaan
pah
cel
kerap
Belajar
gu
##ademik
##jana
left
Walau
mahkamah
standard
bukanlah
sungai
SUHAIMI
manfaat
Francais
mengangg
##WA
MELAYU
Aston
doc
Huawei
##ole
sijil
aspek
af
tunggu
bermakna
Moham
##anies
##lusif
ta
Peraturan
##sche
##apis
##yana
Mew
katakan
all
##OB
hutan
fail
resolusi
Cuba
wah
##angkaian
Bentley
pandai
Mengapa
##ebu
##IMP
Tutup
menonton
Rolls
pilih
Perpustakaan
##bian
dokumen
meneruskan
Plus
##48
idea
##eria
met
##ambang
bersih
carian
##lamz
dibenarkan
jiwa
##ection
##ange
inter
Naz
##timewa
##ody
##ents
MED
wpi
Atau
Murah
imam
pengundi
kekuatan
bersi
##endalikan
Bakar
##elar
getah
Perutusan
rata
##olehi
GOLD
tab
teknik
search
pelajaran
payudara
Amir
SUHAIDI
bersetuju
peraturan
##ulusan
hitsAINAL
Penulis
Saiz
Tapak
PKG
##ely
Pasukan
serius
sanggup
kemalangan
This
menunggu
##date
ISO
dadah
##afsir
alasan
##yh
terlebih
Tiub
Est
Rekreasi
pesanan
DEW
ringkas
det
Jel
acara
pengangkutan
##ALAH
Of
Rancangan
##aram
SELAMAT
luas
##adangkan
logo
ros
pembayaran
MUH
rancang
ko
tiub
##ANTIKAN
Tour
prestasi
##INGKATAN
Teknik
Dri
Cikgu
Pengedar
barangan
saraf
##anjir
Asas
Bajet
##ektif
##ISI
##63
pesawat
pelik
memikirkan
Ustadz
jepun
Explorer
SUR
perbandaran
Royce
##ute
Anti
Bangunan
Rom
##ahari
##uhi
berlangsung
##200
Kaki
Perang
Sunting
sumbangan
Semoga
SPRM
##ajak
Sig
Perbandaran
##aklumkan
##erp
eng
desa
membuatkan
Enjin
kecamatan
Rambut
sedangkan
##egas
kemahiran
##irt
Tanjung
Putih
##wat
Tukar
institusi
pelaksanaan
Subang
##ateur
didakwa
Auto
sebaik
Sepanyol
struktur
arahan
##fat
saham
##ME
pantai
kebaikan
##aim
Pengeluaran
muh
##chronic
Americ
Ep
Pokok
misschronic
misschronicz
##HI
##SAAN
sholat
##otosikal
##55
bang
##orak
RAZIF
bertujuan
TI
We
sebulan
##ulauan
Krabi
##riz
##aliano
##azali
karya
##skalator
##tika
menyelesaikan
##ATU
##rupp
RES
les
awak
SER
send
PUBLIC
stat
Oce
tambah
sekeliling
##ajat
##incin
##tt
##tai
##emua
MH
Cantik
menuju
his
Benih
SC
##iayaan
##ANI
RASLIN
##oreng
Agensi
##tri
dot
komputer
tinggalkan
##egahan
TID
Borong
##lands
Buka
pendek
##ings
##71
##utuskan
Ayat
saluran
samping
gear
Qu
Kl
Puan
FA
kimia
MSSD
##ives
bes
Share
Langkah
Door
##klusif
dapatkan
berterusan
Your
Elektr
requ
##ikutan
akhbar
##ewat
Feed
##erahkan
##Asia
Neo
##ambaran
##acific
##ulas
wbt
kakak
##yatakan
MELAKA
Tawaran
##ty
menyebut
##42
sidang
##LEH
Ruang
komuniti
meluas
sempena
jenayah
bt
menangis
pon
Samb
PERT
Semakan
##gerakan
##untutan
##ipu
Peluang
rem
Masih
##entar
##emukakan
BERK
Nad
##aglamz
##zi
pag
##ello
##ress
CEP
SHAKLEE
koleksi
privasi
Itali
Perjalanan
PET
lancar
Pelajaran
Kemahiran
##uasan
SUNG
mengam
##OGI
##isiatif
Versi
Hutan
Smart
mengapa
bercakap
Link
Mozilla
##okr
merujuk
pengajian
One
baki
Aidilfitri
##aul
mau
Nota
profil
bos
Wire
##ekut
bermaksud
##urian
Sams
##utube
Bekas
##vers
##izi
##aten
kiri
pop
HUBUNG
How
UPS
##Krupp
Pergigian
eks
ThyssenKrupp
##onen
##aif
##ingkan
##ucuk
Tengku
Rights
coklat
Darah
tand
##ye
##akili
Kecantikan
About
mengandung
##67
Dh
1997
persek
##ampuran
Comments
konsep
Khalid
Hong
dibuka
duk
belah
Back
##haari
ucapan
##box
AC
style
Jawab
letak
##ascript
##sed
##tudi
##odenan
Kemudahan
Custom
MAR
Tempahan
Punca
Klang
##otin
##atih
jangka
##utar
##acara
dosa
hi
Berat
Tor
##lassi
Asli
##ambat
##SH
Om
Reserved
kurangnya
768
here
British
##emaran
DEWAN
memberitahu
dilantik
##ume
##ugeot
##abalu
##appy
##eron
Langkawi
dipanggil
##akum
##emar
Penilaian
memandang
Jenayah
free
##AGAI
##27
fizikal
##enek
kahwin
##uatkuasaan
SLE
Abang
##dung
Logo
Sama
Cent
bernilai
Ikan
Peugeot
moden
menjelaskan
##nin
##siklopedia
mendakwa
##elesaian
Sektor
Akses
pantas
##ulaan
B16
form
68
pembelian
Mobile
##impian
Gelang
##ugh
sid
##ound
Petani
Tar
##dnk
##isian
##Al
mengawal
Pemulihan
NEGARA
Bintang
dihad
##reat
##etus
Kdnk
kab
Avis
Kitab
profesional
SETIA
Kaunter
tangga
##eknikal
##argai
real
daun
Buah
terbabit
Model
##Ex
berkahwin
inci
##gent
menjual
rezeki
pelacur
FL
diw
Javascript
jari
##aih
esok
##ugian
perlindungan
##utanan
Perbincangan
Cel
Mohamed
ringan
##oket
53
##aranya
##ISAN
Roh
MAKLUMAN
##onic
120
##44
##ville
##KL
##XX
Avisena
Budaya
CARA
SOALAN
KD
Word
kot
jaga
bec
Group
##oot
margin
hitsNor
biar
##pen
##SM
##embira
laki
##adbod
ja
img
hukuman
##anggu
##egan
menyampaikan
##PEN
##aikkan
##cayaan
BINTI
tujuh
months
##obil
permintaan
tulisan
anaknya
##ategik
##ols
##itus
##entangan
##zZZ
LATIHAN
##amilan
Suka
IND
Gear
##NA
PERJ
##CL
Mesir
##ajang
Sepak
##Counter
Bes
Long
gue
sunnah
Powered
Semen
TUAN
rasuah
##rane
bantu
admin
##alnya
Kuan
##26
##ORT
##ederaan
NeoCounter
dalaman
diketahui
Get
##enoid
mempert
##nis
cur
##elle
##ling
##ahirkan
Felda
Sinar
##73
Alex
KADET
KERJA
jur
Sas
##lamat
98
Butiran
Bapa
##ulus
like
##ANTU
##acu
Suara
da
sungguh
menyak
Pakar
menghitung
Kinabalu
##HIDM
##ft
berfungsi
Lee
Hassan
##95
##uluh
sampah
Kembali
Zakar
transform
##mark
Lip
butiran
day
tangk
GT
2005
Hadi
##ederlands
Telefon
gunakan
Cy
TIDAK
##LAN
mu
##SUS
Deutsch
SMS
she
panggilan
lilin
kunci
##ancer
lang
tips
##erap
pintar
paru
ulama
Ters
memegang
##uruteraan
said
mewah
##dom
##yakinan
Dep
TERKINI
##ayasan
bre
Proses
rec
gigi
##enaihati
peningkatan
vir
ev
Terk
daftar
Reka
Porsche
bagus
wa
##ternatif
##ANTA
##ikro
##Amateur
MAKLUMAT
Perhubungan
Teks
brow
pinggang
HUBUNGI
Hafiz
##room
KED
Play
##NYA
Seluar
url
##uruf
Pelbagai
##lines
Dec
##daan
semata
GST
Tahunan
##van
Archive
Mc
##ybdenum
Da
text
##HIDMATAN
##stem
##inah
##IO
bilangan
dif
##INA
##daya
sempurna
hat
mengekalkan
Tempatan
KURSUS
88
kain
##ahankan
##epasan
Biasa
##tivasi
##AGIAN
leb
semak
Penumpang
##jazah
##anggar
bengk
##ailable
##iring
memakai
Italiano
leh
aliran
can
BAC
mesyuarat
mengenal
Pelaburan
Rusia
##esuaikan
Penginapan
Dom
PERKHIDMATAN
##osh
OLEH
Semak
##indow
sedap
PENYELAR
##ondon
Hj
ujar
Kepulauan
##ubuhan
##ake
important
rapat
CL
##HR
bernama
Hot
##abda
memenangi
Tem
##enyum
##ping
##jan
Magn
Langkau
menentang
##balas
timur
mekan
keuntungan
##sikan
Sigma
berani
menangani
##acang
buka
Navig
##ella
bangun
##IMA
##asti
melahirkan
##ova
Saudi
##ehat
##anakah
Pembinaan
##acy
Soc
Aq
KEPADA
pembelajaran
See
Usahawan
else
peranti
##alih
SEM8
Iskand
muzik
MEI
jamb
##mara
KET
hijau
##by
##press
Sumbangan
##p3
PENYELARASAN
Blu
kn
dihasilkan
##tle
KAK
ep
##ours
##ible
tradisional
Tangan
##epak
##pload
gangguan
##uktikan
##74
SD
##ekutif
##ingkap
##usion
tingkat
DATO
##ates
##AMP
##adik
##AIK
##ENSI
pertandingan
Luc
ashaari
##ganya
##Ar
##ovasi
Laluan
John
taman
##buh
aset
Vis
Perhentian
##BI
Viv
Tabung
##play
menges
Muka
Drama
baginda
Brazil
emel
dipilih
##ager
design
mesej
Trip
penjagaan
erti
Kasih
##ESI
Ghazali
##ikulum
##orial
##udit
membenarkan
##UG
##afir
AF
ribu
disini
LTE
##cess
diperb
Jack
MER
nabi
Pemandu
2006
##enggaraan
##ulaj
Bersatu
MUR
##ause
ketingg
##read
Adv
Awani
part
##nd
##ple
Penolong
PENT
perjuangan
timbul
sekurang
sederhana
Komunikasi
flange
Bos
sensitif
berkh
Palestin
Master
separuh
alamat
add
fesyen
aduan
far
##iskin
Duduk
MT
56
##LER
Bon
cerai
mengikuti
Tahu
WAR
Wid
album
Silver
comment
dat
##tih
Turki
##wi
uang
bersedia
pd
##oli
1995
##sw
BMW
Rakan
fil
GL
##hb
Hel
##tumbuhan
ir
pot
##to
Fi
membalas
RE
Pickup
##endang
##spirasi
##clus
Sejak
Menjadi
Angg
##me
Oh
sesat
##ecair
RM3
##UC
##AJAR
BOLA
Khamis
Live
kempen
##umiput
berdiri
pantat
memudahkan
Ahad
promosi
##timb
ensiklopedia
##AINS
##ote
ID
##impikan
Sesuai
##angkit
bertanding
perlahan
Tenaga
##atangan
MAT
##UJ
dimana
##afe
have
##incang
BAHAGIAN
##uahkan
Nederlands
terper
Cawangan
Kam
##bas
trend
##iano
Cro
Jas
vs
South
##nia
##andangkan
kemenangan
Musim
Belanda
its
Business
UR
med
Rak
Gran
Sor
hany
Sabtu
color
resp
##entuh
Brun
Sholat
Leg
setakat
tertinggi
blogger
##edding
##tac
sisi
Musa
##utkan
Perhutanan
terasa
TINGG
##epaskan
Emel
keutamaan
Alih
##akuan
##onia
FC
situasi
Isnin
MOD
##ahaman
DAS
Hana
##AJI
mewujudkan
##ulajadi
##engaran
##afah
MUHAM
##76
##arangan
##led
Zulk
Filip
##ampau
minat
Jump
Vill
berakhir
right
Drive
seminggu
mohon
##uliah
##omba
##deka
skrin
Tech
Euro
pembaca
eskalator
makin
berfikir
Agung
available
Notis
dilaporkan
tem
##antang
##entikan
##ASS
Uc
Menang
##46
Kahwin
Cetak
##yo
##embahan
##ubaan
kehad
mengubah
Download
##adh
##79
Persi
berpend
ING
##ikl
perbincangan
Europe
Terakhir
##APAN
##come
more
##clusive
PERM
Berl
tertu
MEMB
##anjutnya
##angkraf
##enggara
Nurul
mom
Shenz
bunyi
Skip
Sunnah
Char
Maksud
bagai
SI
Sesungguhnya
##ancaran
teruskan
ala
London
facebook
Akhirnya
tuk
XL
##akwah
Os
Filam
reg
Kenyataan
tag
Rod
tas
tarikan
York
##bitkan
##intahan
Free
browser
seolah
auto
Shenzhen
Sim
Tindakan
Dijual
##adium
##ourt
Noor
sex
DAR
miliki
Sets
Habib
NASI
YDP
curi
jentera
Selasa
##EX
##etes
##IMB
max
Pekerja
Ari
##otik
Tanya
sor
##gentina
##jata
dubur
length
Perdagangan
Wat
##elayan
gejala
prinsip
##elit
sing
Perundangan
##jur
##upaten
##ormati
##AJAH
##elong
Iskandar
EL
Zan
SIS
Network
Sty
platform
detil
##ply
box
MIN
Perkongsian
TERB
##untuk
##obal
mengelakkan
suam
##ahagi
##ambarkan
Bernama
cabaran
Gate
Viet
Awang
cr
##PAK
inilah
Idr
##top
Saw
Warisan
MK
mental
##sedur
Kalendar
Berkomunikasi
upload
hand
merangk
mahupun
Rasa
batuk
sesetengah
maju
sunat
kerugian
gak
daging
##Nya
Contact
Hamil
##oom
Perindustrian
##BM
##iner
Molybdenum
Pembel
wor
##LM
SEM9
menutup
##oba
Perkahwinan
Say
##usteru
##aisal
Truck
##ekap
##edera
##itec
##rail
SJK
Skim
##ogram
iz
##sara
lemak
##asang
mengumumkan
Membuat
Adalah
membunuh
1000
78
##aria
Dulu
iPhone
Mil
anjing
##hluk
##dai
##isy
##ihal
berhampiran
pertanian
abu
DB
Sir
portal
sa
##terest
##ayangan
Kakitangan
pember
Naib
stoking
kelab
Ped
Omar
div
engkau
simpan
Lembaran
Beberapa
Teman
kontrak
SAINS
##oul
Zon
##etup
berper
kemudiannya
setu
Awal
cikgu
gembira
##atul
##aza
##KR
ri
olah
Div
PUL
Den
Tert
##umiputera
Denaihati
##43
Terj
syurga
##reatif
drama
##iji
demam
##exico
fak
##UAL
West
memasuki
tema
Ki
Pekan
sasaran
##iktirafan
Catat
kelebihan
##ister
UPSR
tulang
##esis
##AMAH
##atar
Setahun
mengak
##idb
Kenali
Kolej
Keratan
Jamak
menghargai
Airlines
##abuhan
##OLOGI
##kit
Farm
SINI
##amm
##ces
##otoran
##esif
STPM
Faisal
Plat
tersenyum
dihantar
Pur
Slov
bersabda
##com
Pertubuhan
Contin
kucing
malu
Lu
Tingkatan
rekod
DIS
600
berikutan
##ilapan
kepadanya
persoalan
Istana
##iki
##onok
41
##47
Digital
ARIF
Es
berminat
full
public
sam
penyokong
website
##ugi
app
country
Amp
##iro
Amin
##aci
##omotif
CF
must
##ring
Gaji
bunuh
##buhkan
##utiara
QURAN
Penyelidikan
##esahan
##istal
##ilikon
menentukan
##uncit
wpidb
shawl
ulang
1438
purata
Panjang
##IMAN
##eth
Cast
mimpikan
##ufti
Putra
Diraja
ditubuhkan
Amanah
Gas
meterai
POS
##rent
Disebabkan
PCB
##ombongan
kehadiran
85
TM
##ampas
Rabu
Double
Uk
papan
Kamu
Enter
penginapan
penumpang
masukkan
bimb
pertumbuhan
tepi
magn
Tube
Mov
suhu
tokoh
##atah
##uluskan
Muzik
dakwaan
##idin
Tema
bukannya
Undangan
UNIT
sidebar
Datang
sudut
pendaftaran
merancang
Dimimpi
teb
140
sr
mahal
mengatasi
benih
##Th
layan
Kok
##CO
dawai
sebagaimana
menyaksikan
kod
need
klip
Yayasan
##erial
1MDB
Pemodenan
Hang
darjah
Puteri
Peringkat
patut
SPR
eksport
terkejut
##ibah
ALOR
perjanjian
##itud
inisiatif
Sahabat
want
190
##TAS
pusingan
Tu
##so
##venska
Tafsir
show
##EAN
Ne
bertambah
RSS
##incangkan
call
tukar
Pernah
Korang
radio
##ompok
fitnah
Her
roda
##ily
##alani
Pasar
ANDA
telinga
kemungkinan
Majalah
##aff
pengunjung
Type
Hit
jarak
bahkan
Kir
##erluan
##ildr
##ERL
Anj
BU
rujukan
relau
PAND
Asy
##UKA
Walk
td
der
##yap
cover
harapan
shaklee
Mukim
##Star
menurun
Juga
Ikut
Green
mesra
berumur
##ildren
other
perak
rev
##ebasan
##eikh
Kopi
##atuhi
rancangan
Mewah
ister
##ever
##DAFT
##khlas
BES
##baan
##ucu
##uching
Africa
anugerah
##achi
Keadaan
peperiksaan
##uaca
Kunci
Brunei
##iklanan
##ajahan
Sekitar
lapangan
##umpah
SEJ
##estimoni
Roda
##obi
##31
##RAH
HEB
pihaknya
Hartanah
mun
gold
berdaftar
2000
berasa
##49
petua
tuntutan
KOMP
Gar
##red
organisasi
BAN
one
##OV
Inter
jp
##oles
point
LR
menyi
##UMB
JOH
Kul
ORANG
Nah
Kompleks
PASUKAN
tumpuan
##verter
okay
Sak
Teluk
Tweet
##atic
perg
PERB
DE
##ungkan
minuman
NASIONAL
SAB
##hari
MAN
pengenalan
Engine
Argentina
mengamalkan
##andat
KUAN
Shar
##embak
gmail
##intai
Kelebihan
hidung
Agong
##order
majoriti
##uasai
##ondok
nikmat
term
mmg
##alaikat
##ENGGAN
Pid
Status
strategi
##istian
##ukuh
abad
KEC
tir
##ating
leher
Ha
unsur
##emput
will
Ho
Pendaftar
meja
##book
tol
hit
Bekalan
nie
beradik
qu
Sendiri
Town
digital
2004
Maklumbalas
motosikal
Pelakon
Struktur
MAK
Tumb
##AAAA
Khair
##ahulu
Kabupaten
Rid
laa
Mexico
setia
Pages
##kod
memer
Segala
##asiti
kepimpinan
Bakul
##ho
MEM
##emban
##nan
##ILIHAN
peminat
tumbuhan
Rujukan
Kenderaan
##fol
pelan
Bentuk
##afikan
aksi
Sis
telur
tulis
Artis
Biar
JPN
Asal
insan
Trak
pemerintahan
lampu
##zahrul
hitsNorzahrul
Zanadanan
##asana
##ETA
##inium
penyelidikan
MEDIA
##ayangkan
protot
Wajah
INFO
emosi
selatan
Champ
antaranya
sentu
##untukkan
##egriti
Hadapan
Peranti
TERENGGAN
Syariah
IT
Herba
pengajaran
fikirkan
##tukaran
##NOOR
SULTAN
Peg
PENDAFT
result
ditawarkan
bis
sambutan
Ban
Klinik
Sesi
lori
berkembang
Tambahan
Beri
tuhan
hitsNOOR
##HIR
1438H
tunai
RO
MENGEN
1Malaysia
Institusi
unik
dibawah
Cup
merasakan
love
##iksa
suspek
##alog
Doktor
##nyata
Title
menun
##isma
berasaskan
Mos
Ikuti
menyambut
hours
sbb
42
persetu
kemb
##arahkan
IM
##enaraikan
simpanan
Bangsa
##endaki
Pangkor
2001
Vietnam
Nat
Kasut
##arapkan
Kebajikan
Swasta
menjelang
sin
##agon
cetak
Lalu
##EA
##scribe
berbuat
FB
Peranan
##eland
penjara
Perlembagaan
kekurangan
Kingdom
Keutamaan
##lad
51
ARIFIN
cita
Tahan
peristiwa
Bengk
Inverter
Radio
Ayah
##ampuan
##ensik
##afsu
biji
##rank
terang
Caj
Jur
Vit
see
Polski
Tantalum
Md
##tereo
North
##andingkan
Bend
tajuk
##endirian
Fujitec
##less
##usuan
##ifli
peniaga
##ages
Ibnu
##anta
memutuskan
suasana
##uu
##teraan
##alue
Petaling
Food
Kehidupan
IC
saman
dapur
Sepanjang
sewa
Filipina
CON
kart
CEO
##alahkan
bahagia
AZIZ
Sehingga
sih
Kuching
Hat
Muz
##rama
Sampai
##ingo
##erry
VIR
Oc
##illar
XXX
##oke
padding
Paip
cemerlang
##atuhan
##afaz
Pengantin
Batang
Cepat
kil
Marc
BELI
ZUHAI
##ucky
nasib
Classi
Daman
Tom
kementerian
Kejohanan
takde
jarang
##asif
##irl
pengambilan
Murid
Hum
Sony
ketu
##hab
ZUHAIR
Ero
rogol
matahari
##kuat
happy
AZUAR
##batan
Ba
52
##endam
Ceramah
logam
long
##lor
Pinterest
Tempoh
Baharu
##imbangan
##ird
##iam
ketat
KB
##ekaan
##isten
##ungkus
berdepan
merawat
##ombak
##ULAR
##pm
Perlindungan
share
Diesel
Tud
##ksh
##inal
##KK
negatif
kuning
pern
CAR
Faizal
halal
mewakili
##ris
Benar
gua
Iman
lalui
kerjaya
##occo
MUHAMMAD
Pertandingan
TERENGGANU
pi
hakikat
Lesbian
RM100
News
LUAR
##ankan
##urai
restoran
TEMP
sains
Sangat
menghalang
SOL
teks
##niah
berkes
Malaysian
pep
Umrah
Susah
##II
##ctric
melainkan
Cuma
Soal
protected
HARGA
##upus
##erahan
##anjurkan
Edisi
fr
TO
Prev
kalian
semester
##agalan
Cas
##LD
Forex
##unkan
imej
Color
##ults
Kandungan
##acun
refer
Mula
sewaktu
Jawa
July
pecah
Wal
##enom
Pay
menahan
##ajari
57
##38
##ahi
porn
PDRM
PS
perkongsian
Read
bogel
Fakta
kelahiran
presiden
400
Shant
jaminan
melindungi
prototype
lewat
check
##emproses
##URL
lari
Ms
Bags
bersamaan
##1M
Pantang
##uction
tamat
old
KAR
##inder
Svenska
asy
stesen
menyed
##ORI
Sud
nenek
land
mo
##yukur
##omest
POP
##fal
document
first
TAD
penerbangan
jar
Tahap
##cer
Baginda
gout
Desa
Tamp
##ANS
Hasan
##ualan
miskin
##HS
##imi
Priv
Vic
nas
Mp3
gelap
kelak
##HAD
Perancangan
konon
##ancap
Stylus
yah
##GERIS
Ann
INGGERIS
Kuantan
##abrik
AGENSI
##evisyen
Mengikut
red
mon
khidmat
Ko
diubah
##Press
PDF
##350
pemeriksaan
Inc
##estiv
##Sh
perbezaan
years
##ERIAN
Shaf
AHLI
##usun
##iaan
Justeru
Manis
yo
##ijrah
services
jua
attr
terpelihara
tegas
Cik
Riz
banjir
penyelesaian
fokus
Special
##400
800
istimewa
##okrasi
##GR
TEL
##APA
##utasi
JEM
judi
et
KM5
mempertahankan
##kipun
bersifat
##ORAN
menemui
##dy
##enger
Informasi
Samsung
Lum
berbuka
##ulen
hadis
##kuad
Pres
View
kalah
##entak
Pembayaran
Shantou
##akaian
##AYAAN
##unjungi
Resort
KUANTAN
Jenazah
Bol
menggalakkan
Pang
##ombang
Syawal
Jamb
Atasi
ANAK
##ipment
Ehwal
##ette
kesemua
direka
BI
membuktikan
Menurutnya
memperkenalkan
##idyah
export
##anasan
Bayar
##ucapkan
bisnes
Kil
Kayu
mengesahkan
Suh
##ids
Box
Mustika
disiarkan
berbagai
Ganti
sab
##irit
ketidak
Eksekutif
menuntut
mendedahkan
##mb
beroperasi
sengaja
##64
memperoleh
kesedaran
Dipertua
kosmetik
LEMB
pimpinan
##neum
Gejala
Bolehkah
Janda
Kari
##otal
Penyertaan
##yhose
##apuri
##arat
seksual
pemilihan
Hand
Keperluan
##App
##endalian
tiap
Educ
sabar
##afsiran
Dani
##els
##late
Udara
roh
##awati
komponen
Keras
Kampus
##uburan
tenang
##imu
##olar
##enor
##ution
isterinya
MUS
Ash
category
Nic
kasino
null
musuh
##rigin
Tuj
##ious
SAH
ill
Haz
arab
Sif
##upe
Cuti
##Tr
ASEAN
##andangan
theme
Calon
Kapal
Malaya
##imbulkan
BUKU
permulaan
##asas
AWAM
##etengahkan
Prov
penyanyi
Dewasa
##ovatif
ASME
KDN
cam
about
##back
##phone
Ky
berjamaah
##ines
##erjasama
nyata
Lawatan
KKM
aja
nafas
menel
##ering
Karangkraf
usahawan
Sedap
amb
UTUSAN
tutup
Sex
conf
buatan
Belia
##quipment
hanyalah
##esenan
walau
dialami
cedera
batin
##Ku
##SB
##etan
Manakala
bapak
##ematik
global
fl
##SU
bertukar
trak
lesen
memperb
nur
Admin
burung
dikongsi
mulia
GAJAH
kenangan
gug
cab
Archives
##UPAN
sebut
tal
Pengurus
Alum
ditutup
##fiz
DS
PES
##61
##PR
Xizi
PERD
##injau
Labels
lu
##ture
perbelanjaan
rasanya
Novel
##eraka
Rayuan
##08
##iraan
##trol
Cay
suruh
##tung
menjalani
pelancongan
Percutian
Nig
Ny
sebelumnya
tuduhan
##tip
##antara
tangg
##Kongsi
Seter
125
##hrib
suci
##esaran
##anam
##engaruhi
##atalkan
POPULAR
##ilding
normal
Bogel
display
LTD
let
TINGKATAN
dinding
##imba
Indah
##kaun
reb
Mental
##esak
hitsZ
ditulis
pengilang
Keseluruhan
Saif
tarik
##ohan
kaca
Garis
persekitaran
SEM816
Kepala
MENGENAI
Juara
1500
dilah
##okan
##impalan
##CI
band
Chan
##thman
pendekatan
##inea
UK
vitamin
##isu
##itz
haji
##set
Jal
makhluk
##lander
sejumlah
langit
Tenang
Terus
Heb
Rab
##emukan
MARA
##ERIT
pelancong
##ehold
DUNIA
adil
Def
Berdasarkan
Camp
Pun
Pembantu
##idul
##etin
kedi
pergerakan
##100
tern
##Allah
##ady
NOOR
##ekapan
name
Sent
list
terhad
##niaga
sawit
Qi
mendaftar
diesel
Arahan
Gred
63
##inci
kekasih
##uduga
kediaman
MAHK
##arahan
Metro
##atikan
SERI
##cover
ki
##ayari
dilahirkan
matlamat
Nadia
menimbulkan
because
tip
suku
paras
WhatsApp
##ukah
ustaz
hayat
rupa
##elat
bro
##angkut
##idangan
##ards
tersedia
Bencana
tuala
##eti
sejenis
##ault
##onj
Hijau
Seremban
taraf
##ilkan
BAL
##enting
dimasuk
##CR
berikan
kelayakan
menghubungi
##6800
JOHOR
Kejuruteraan
NGO
##oks
Aish
bau
BESAR
MO
merangkumi
pantyhose
##angsapuri
Pertahanan
sesungguhnya
Kanada
##aper
pemerintah
180
KEMENT
wajar
##aktik
##ime
Sebuah
Plu
##Eur
##agat
##engahan
disana
##ERIK
Continental
Wil
##asai
Umar
Gua
##pd
Water
termasuklah
Ra
##ology
Sayang
##entuan
hidraulik
perintah
disahkan
Ren
WordPress
mentah
TN
lawan
Hubungan
lengan
##ganeg
Fatin
Poker
##asic
Hampir
kond
##irikan
##ancing
##ories
sisa
Ucapan
##tot
##sor
options
Encik
Bebas
Desire
hantar
melaporkan
Lebuh
diminta
##egar
SUNGO
##syar
padi
kawin
##kar
Tidur
Seterusnya
##ealand
pendirian
##iga
memperk
format
Semenanjung
tiket
src
##lumbaan
dinyatakan
##unggung
##wayat
Isa
companies
KEMENTERIAN
##kg
Kira
##folio
berjumlah
Kredit
Coll
##riend
##ujung
Stadium
##UTER
suk
mainan
##inkan
3000
Pусскии
Khai
##iet
##aming
penutup
pasar
##rogol
KETUA
JI
Pendapatan
Masukkan
sch
##itahu
buta
page
pemikiran
##OSI
##ejah
##Sp
##engkapan
##va
Pagar
KOS
amanah
berdua
diterbitkan
##98
melepaskan
Kontr
##cs
beriman
##abungan
beban
##usahaan
Forensik
##erdekaan
memandangkan
block
diperolehi
bottom
##ohor
Perkembangan
##HA
cecair
nov
du
##antah
##nn
##sikologi
Audit
member
terpulang
Akibat
Sisa
##akini
##CE
##UHAN
pastikan
Lan
alah
Widget
##salam
##wood
##ises
berkesempatan
Ref
Idris
Hard
penjelasan
Individu
##AV
may
##mint
rosak
Plastik
POLIT
##akonan
Cand
ade
##sson
tanaman
##ky
##AUN
order
Fa
menggantikan
S4
##YMM
SEBAGAI
##simum
php
Pot
##EMERL
##ooks
##indahkan
kas
##KT
##uatkan
heh
SB
Penguatkuasaan
##nly
Selama
##ingatkan
Ye
Parit
Bumiputera
dirumah
1437
##umpulkan
WH
dirogol
PROF
##ath
kamera
##ival
##iakan
value
##ekor
satunya
##ics
kredit
##onti
GAP
prep
Farmasi
Zealand
##26800
GH
##caman
DO
Fe
Zh
spl
Pertua
BS
##encing
##aitkan
Api
##G01
Cur
Ejen
pembedahan
Escalators
ANSI
##embunyi
ARTIK
XJ
ABDUL
##wide
##fied
GPS
Idham
Insya
Sn
hiasan
mama
plan
##enam
cawangan
Zulkifli
berdekatan
Sembang
##tudio
##aily
Taip
senjata
Editor
pencapaian
MAHKAMAH
##erima
BHARU
PENDAFTARAN
Komputer
Niz
##alsafah
Dih
Lang
##udang
jahat
Yan
##ikini
bersalah
font
Restoran
mStar
sorry
huruf
lawatan
##AJAYA
senyum
##ubuhkan
perlukan
penamp
Kanser
perancangan
##anch
baby
kepercayaan
Daya
SUMB
##erpillar
pagar
ph
elektronik
menganggap
pil
##ahl
##uary
Wholes
##emprosesan
##ege
Hamid
melancarkan
group
Guinea
##aksiran
Dong
##gus
##indung
tep
##apakah
menyemb
Pacific
MENJ
PAH
##engkapi
Hadis
##tab
menetapkan
PI
many
##ications
meri
##antauan
permukaan
Team
##BT
Nampak
Diet
results
INS
Pemuat
Bawah
meneroka
Risiko
each
FM
##iaw
MOH
Amanz
Commons
telanjang
##iskan
meros
Poskod
##ersih
rakaat
##azar
belia
Saham
##esifikasi
Damansara
PERH
Kemajuan
dengannya
##emia
##quar
##utbah
III
Malaysi
##ions
##ott
Taj
##ANGGAN
##kson
jodoh
ruangan
Yahudi
cre
Ol
melip
Taubat
Kraf
Bud
##imbal
Mufti
##reen
dingin
##lear
suaminya
Haf
##akluk
mengakui
##oter
kecewa
Women
KW
TEKNOLOGI
##TAG
##khlak
##artawan
ADUN
PENGG
ASS
##isang
ge
##iber
Maaf
Eksklusif
kesilapan
aloi
diperbuat
Mati
Berkualiti
##angi
##ASY
##ejahteraan
##azk
akal
Dokumen
##leksib
Guan
gus
penulisan
##skap
Judi
##evelop
##peed
bung
##RON
Tradisi
nelayan
ARTIKEL
dinamakan
Ketahui
Worldwide
Nikotin
Pemegang
memasukkan
##ebarkan
Shop
##icy
istilah
Undian
mengundi
JALAN
inovatif
Prot
kegi
##akiman
##elly
##een
terpilih
gerakan
uruskan
HAJI
##AITAN
##vin
namanya
Print
wik
Kor
##emangnya
##acing
kegiatan
case
##essi
Phil
enggan
##oor
sebeg
FX
kenaikan
membangunkan
##isod
##roll
##93
##tnik
Wholesale
Sit
Ambil
##02
menumpang
##rim
Leaf
Imej
katil
Page
Pd
##ooth
celana
Less
find
silikon
##DE
Mengan
Americas
tangki
##istr
PEK
Day
adanya
JIS
Jamal
exclusive
##AST
##ARD
Hous
##ANGUNAN
RM5
adat
Dav
petrol
lip
##onald
##estilah
##isap
##lami
tafsiran
##awasan
MUL
majalah
diperkenalkan
##ador
##ILA
faedah
Naj
##ander
lapan
##aktif
Persiaran
Besut
Bumi
border
kt
##alunya
Dak
##ERITAH
views
##TEM
##ekod
pelabur
##oft
Balik
jenazah
Jual
RAYA
##TAU
Simpanan
##Europe
Gombak
Furn
Caterpillar
##ahtera
memainkan
fikiran
Fort
Virgin
Khalil
##ORANG
eh
rupanya
jpg
ibunya
Syeikh
Mencari
##tarik
Sebalik
Electric
Tertinggi
##hum
Click
Kah
##ego
pengantin
62
PEMBERITAH
pengarah
Salleh
PART
##raq
Ais
mencipta
Vegas
##aksana
KEW
lubang
MPK
stabil
Filament
dipaparkan
##iang
Kebanyakan
Skrin
DIN
jangkitan
kut
pertemuan
aman
Bantu
Prestasi
cap
##enza
jadual
Syah
bekerjasama
##estival
##ift
terpantas
##ized
##burg
est
type
awek
urus
PUTR
mayat
Kas
##azkirah
Pack
Aceh
Time
##turan
##Blog
great
Getah
pucuk
##via
mema
KEHID
makluman
##erto
##ulti
##ustaka
KEHIDUPAN
Pengk
SEMASA
perdana
Digunakan
lembu
LAP
black
UPU
##arusnya
##apar
HEBAHAN
KAKIT
payah
##emaskini
Duit
surah
Hidraulik
##kk
Hutang
kecantikan
gara
KAKITANGAN
PELAKS
bulu
guys
Rasuah
novel
Los
UP
Kuki
##PENA
Mendapat
##PADA
##UNGAN
perumahan
##ujah
##akitan
ditambah
berjumpa
CER
perhimpunan
acuan
##34
vakum
bodoh
Dijamin
##astam
Kg
halus
##001
##ancur
##oney
Christ
fakta
mimpi
##sidi
BAND
Itulah
##97
berkhidmat
##amping
menyumbang
hover
sempadan
Papan
jas
keyakinan
##prises
Aj
PERDANA
ero
##ince
##yu
##alut
Pembersihan
##ejar
penubuhan
Inovasi
ob
Ng
Pump
POLITIK
Lex
berbentuk
Kehamilan
##ometer
Perjanjian
Bt
kebajikan
Series
##par
Selebriti
elok
Jeli
action
##EKS
250
gi
akhirat
##iasaan
Kempen
##ibukan
Syria
HR
Hitachi
keterangan
Mold
Umur
SARA
tahunan
##TIVITI
##IHAT
##etta
menengah
line
Suk
juara
pandang
SEMPENA
stud
berpindah
kaunter
allah
ketinggian
Penting
Photo
Anggota
ladang
Porn
LISAN
##put
##actor
DATA
mikro
bersyukur
after
##faatkan
##RMIS
Portug
Serbuk
##ujian
Budak
Intan
Automotif
melawat
##AHA
laku
paparan
pemegang
##embangkan
Stok
##undang
Dana
##oki
1999
ragam
memba
Crane
ATAU
Azhar
berdarah
MURID
##overn
##ipe
kehendak
diketengahkan
##ehendaki
mencukup
situs
##ampasan
teramat
Yusuf
##krit
##ambing
Sastera
##ein
dimasukkan
Tump
##Class
PENTAKS
##GP
tek
kegagalan
semoga
lantai
tantalum
Azmin
anakku
Rantau
berulang
Pagi
##mud
Cadangan
##arina
Tiba
Ingin
##estinya
Elektrik
Tunku
cokelat
memaparkan
poker
menilai
mengec
kopi
Comment
Kurang
Ungu
Begitu
##quare
##ariat
botol
##ersihkan
DARIPADA
segar
##isytih
##ikmah
luaran
Ehsan
Kolum
##zech
3500
Rock
kadbod
dibayar
##hhhh
berguna
makna
last
1437H
##PUTAN
Enc
Pantas
##DT
Youtube
wikipedia
##stan
##esuaian
Mia
##Af
Terlebih
CIO
berdoa
Tudung
Cru
Jah
pembeli
##aunsel
MENY
Hol
Solenoid
Akademik
Memberi
Bakal
Manual
populariti
##GB
##IAG
membuang
64
PROM
menegaskan
PUTRAJAYA
##yc
##alifah
Mesh
Bingo
Tags
pemindahan
malas
sorang
##aba
##ihah
Aishah
Creative
Harta
Techn
rm
mengal
##yiddin
Ja
Pangsapuri
TUN
##taraf
Yas
##uja
hidangan
keupayaan
##AMPU
##okal
menguruskan
##ESS
biru
Count
blok
Win
Navigasi
titik
##etuai
Premis
kegunaan
Rahim
Perihal
##ombong
##amas
##antungan
Pertanyaan
Kim
pemberian
asia
##itmen
kesibukan
##itional
##Arrow
organik
kelajuan
##DIN
##roke
##iarkan
Wakaf
##ukti
NUR
Cahaya
##uriti
memandu
semulajadi
inv
Kanan
ketur
Moto
TAL
dalamnya
rangkaian
tunjuk
Sarjana
Pep
tolak
##list
##AKAP
Bersalin
##ealer
risau
bimbang
Wr
##uncak
sia
destinasi
peguam
##lasik
Pencegahan
jantan
PELANTIKAN
persembahan
Terhadap
##rb
Elevators
laju
JEMPUTAN
Datin
mengenali
diteruskan
Permotoran
##PTN
keturunan
##ett
Law
##ovo
Victor
ibadah
Pengiktirafan
Viral
Mangsa
##See
HRMIS
##53
RM10
Cos
##ajj
##agihan
##ERASI
jej
Champions
Tat
papaglamz
Strategik
Fidyah
##act
University
LE
Na
MoreSee
##tangga
Peguam
System
##AMIL
hiburan
##upu
mematuhi
##utut
Grid
Dub
luka
##lasi
WAN
Kabinet
gunung
Apple
Karya
##UMPAAN
laga
PERJUMPAAN
UKM
kasar
##ambak
Key
##AIR
Tuanku
keramat
##ACH
luahkan
220
##lement
background
AIR
Zahid
arwah
##etupan
suntikan
bg
kelulusan
Kalangan
fe
PELAB
rencana
resepi
##umpai
SURAT
##iskut
diletakkan
##bank
##marin
##ADEM
##outh
mencukupi
##abaya
Talak
tegar
Turk
mol
basic
saling
##ms
Nombor
##MAT
##wn
##atim
##ould
tetamu
##ANAAN
Pustaka
##iture
Bre
amaran
keldai
##allahu
##leksibel
Ain
Kamar
Sekali
Azizah
Saat
##ulatih
##apuskan
BARU
Santa
##rastr
ceramah
##ency
##erjakan
jamak
JIWA
Paul
##osongan
##ONAN
ucap
try
Rem
Divisyen
Koperasi
##empatkan
Liyana
Cameron
kamp
pengaruh
Form
Fesyen
family
KAN
Ketiga
panel
Seminar
Club
buang
GUK
##angkitkan
ef
##ll
##aly
AKTIVITI
MAI
saksi
Perlawanan
PIB
garis
webkit
dimiliki
Pemimpin
Older
nafsu
Telah
Computer
Katal
KALI
Commun
vis
fant
Enak
KHAS
Eksport
##otografi
##zal
##ORMASI
breast
PROD
Ball
PTPTN
##inggalah
menggambarkan
mestilah
Nasihat
##iller
##ricsson
menunaikan
kelapa
Mukh
pembiayaan
##uasakan
##ref
Adik
dilancarkan
untukku
Cut
##92
Malaysiakini
Tir
##rag
Golf
Express
##enangkan
##jet
##ebatan
##injam
perund
##imak
##ukisan
LAMAN
##hou
Arm
PANDUAN
Labuan
##ATIK
##ormon
Oceania
RUM
Sumat
jin
Family
bakar
Penang
##hid
##perma
##minton
Geor
Children
dpt
KEDAH
Buletin
kabel
##intas
##elajari
##WAK
##atasinya
che
aq
##epsi
##older
bad
Sid
populasi
Pop
bina
PA
Ust
berpuasa
hatinya
pengl
MPS
Langat
kemaluan
Der
##ipuan
menghadiri
BERKAITAN
HI
Bilangan
##ors
menjejaskan
Jawapan
request
##EKA
Merdeka
##anjawan
##yuman
kukuh
kesempatan
amal
sembah
lambat
Alt
##FE
Letak
##hal
dikehendaki
SPA
Taw
Cok
menyerang
ray
Pemasangan
personal
##ERIKSAAN
Kilang
##ampaian
Bagai
##syarah
BERN
anim
BAD
teknikal
seharusnya
##umba
Pelesenan
Pendek
With
Dikuasakan
position
BAY
Kitar
Trib
menghilangkan
alternatif
PADA
Aur
Subscribe
Medan
##versi
Tep
##angsar
sesama
ATM
berpel
##angkok
OSC
WP
##asy
memaklumkan
Angel
sedem
minda
renang
##very
Sedang
entah
THE
WEB
##rilik
ubatan
rus
MCA
ED
mne
Czech
Sakura
parlimen
Tee
penat
Island
tat
##cep
Deposit
idaman
##iser
week
##ARANG
Konsep
PULAU
bend
BULANAN
MOT
##eville
penjualan
HID
google
Pandu
##geo
##SY
die
##isha
Las
##uel
kelemahan
##inggah
##iliti
##FC
tersendiri
TARIK
mengisi
Wash
##oda
##39
##artment
kepad
BOM
sedemikian
end
Kencing
##ness
Mir
OKU
##etulan
hitsR
##OOK
Kajang
##aining
##ets
##lion
##manakah
rib
##elek
masakan
rugi
mengendalikan
serupa
Melihat
Privacy
meliputi
##emium
PEP
Tadbir
bicara
##udul
hd
peta
bulanan
##ismo
##sin
muat
##ukis
Faz
Sad
Aug
menguasai
##usiaan
##rastruktur
gem
##anmar
Drs
Paris
aras
##itch
Wa
Muhyiddin
ASSALAM
2002
Sensor
next
kemampuan
Household
mencadangkan
lim
Login
Zakaria
KAW
loan
##Ind
##ebuah
##spektif
Specialist
overs
semestinya
keluarganya
pemasaran
Sind
menubuhkan
gelaran
widgeo
Dipl
##uduki
menamp
cm
kok
##ehic
shirt
##uhira
nyawa
ZHI
KOR
dakwah
kristal
##teria
wanted
ajar
Tek
Tal
Wajib
Dakota
hitsZuhira
selanjutnya
wayar
Siang
ZHIPU
##po
ram
menul
##igr
Bekerja
Jelly
PEMANTA
pertu
mengatasinya
Binti
Ringkas
##onde
##alif
helai
jiran
disesuaikan
##neumatik
menjejak
##unuhan
##gy
Niat
double
malaikat
##itim
128
Sempena
dikur
Note
##This
menganggur
##wak
terdahulu
##UI
Laser
##antian
setuju
Ingat
ال
Georg
Penamp
Sertai
##andatangani
padang
tulen
##cu
stop
izin
plu
Kematian
tumbuh
latar
jom
their
##erusi
Dagangan
Kimia
##acau
##ajam
Myanmar
high
tercipta
entri
Micros
kononnya
Tut
Mandi
iman
faraj
Pengiklanan
virus
Sheikh
deg
Hummer
PEMBERITAHUAN
Perbadanan
angka
prev
##anjutkan
Pesta
##ames
##ordan
PIBG
##NS
Isi
diikut
##iver
##ision
Bersih
##ukaran
Miss
Kris
##ARE
SESI
PELAKSANAAN
##awakan
##enomena
menak
majikan
berhad
Machine
##Africa
Jim
##kshops
2003
Tugas
feed
lakonan
milk
Guna
HAS
tetek
MF
rupiah
##angkal
kir
fat
pej
Panel
Tazkirah
berlalu
PELABURAN
Senaman
Complex
panggil
pembuatan
##aksin
mengel
KLIK
Sant
PENTAKSIRAN
TARIKH
prepar
Gad
Pelabuhan
SAL
##omas
AMAN
Perbelanjaan
##ters
pemuda
##ajud
##impal
menjejakkan
##LIM
##ategories
##empurn
menyerahkan
##AWAT
didalam
Hish
piano
usul
key
##amik
kelantan
Inform
##jam
##urungan
membu
##enanya
##56
cik
Alatan
diorang
sembilan
##acity
DIR
komunikasi
ternyata
sis
##away
Tua
Serious
Fitrah
##titi
Templat
merokok
PV
haba
##ebak
bo
KAMAN
##arif
Kelajuan
##HRIMAN
DASHRIMAN
Shang
##ekolah
Mama
Berry
TINGGAL
##aco
##imbol
prov
menulist
##91
jemaah
statement
Jantung
Johan
##ublish
##urnal
memanggil
JEN
dikenal
Personal
selebriti
Dakwah
##Of
##manfaat
##ece
skim
Recent
akademik
##cal
topik
surau
ts
##roversi
Bait
FEL
SEJARAH
Art
Ant
Empat
syaitan
BANK
##uruhjaya
Penduduk
segalanya
AKU
misi
Roman
syaikh
TERG
##ots
Musta
Capri
Dapur
ne
betapa
##UTAN
cincin
Cond
##ren
Jok
Trend
Berhormat
Bidang
OF
##ggak
informasi
talent
cuaca
rahmat
Son
##hor
lingk
Monte
give
gatal
und
ha
Bermula
terba
Cincin
##GS
agenda
KT
kelompok
##itah
SEC
diperk
widgets
RM4
menceritakan
##ladesh
prosedur
Beras
##erbai
##ocus
neraka
Sewa
Hebat
setengah
SAMB
diet
Kolumnis
KOL
lainnya
##ADIL
Mesej
Diambil
mendalam
Perintah
##ARAI
##AKIM
##MIN
Domin
pertengahan
Uni
##obium
Subuh
##apanya
kor
persi
wr
lucky
##irman
terdekat
##Berry
##IAH
mengemukakan
Himpunan
mencuba
##alahgunaan
pahala
Akadem
##etif
##wait
SAYA
##EPI
Ads
class
bulat
##tima
urut
keempat
##antra
premis
Hye
rindu
NAK
##IHATAN
##asah
Aksesori
edge
now
##TV
Album
berharga
##anjaran
nl
hangat
##kannya
SISTEM
Ijazah
##ople
##hip
lebar
Cookie
Siaran
##AMBAR
BIS
##Juma
##etika
indonesia
##esies
hitsJuma
gabungan
Policy
##inum
Keadilan
televisyen
dewan
Mers
mag
Nub
kecemasan
janganlah
Modul
Basikal
BAK
##erbaijan
setempat
keses
MAMPU
##ware
Kosmo
Sukar
Don
Cong
kalu
##olet
Menghitung
Doll
Ob
penawar
MSSPK
BlackBerry
Mengenang
Mis
Building
Contohnya
Len
Swed
##low
Harini
active
##tica
tertakluk
##ging
Microsoft
##ukuhkan
##akwaan
##AWATAN
Ut
Bid
##kota
Chord
##aring
Merawat
Yuk
##iston
##entangkan
Taiwan
gerak
##ahagikan
Health
pelayar
mulanya
diab
png
meraih
##96
Cook
ctn
##light
##atalan
sememangnya
##asak
SENARAI
Itiner
Blok
##yorkan
Mand
##UZ
CD
Strategi
##known
menukar
##heim
##ujudan
XT
roy
terlepas
BOMBA
Dz
fleksibel
hantu
##uhur
curious
Import
ciptaan
##ANGGU
abah
Cars
subjek
Pakistan
##ompat
##ingatan
##isahkan
Nanti
CN
korporat
Gudang
##mies
Kilogram
##ahaha
otot
kecederaan
warni
##fire
PORT
kartun
##ikah
food
berhak
diumumkan
Norway
Perut
Itinerary
BACA
wangi
ekor
hang
punggung
KESIHATAN
Kadang
syah
Enakmen
##TH
Bergerak
Ceme
hasrat
##far
Gerakan
menafikan
edu
Zaid
##ejutkan
##ahar
##anusiaan
seeing
##BlogThis
Lyn
Background
ramadhan
button
plak
##ante
##ble
asyik
Pandangan
PAHANG
vehic
DARUL
support
Maya
berlainan
peri
sambungan
##ADEMIK
Lub
mengucapkan
Apr
Website
Coklat
rahim
Pil
puk
Ulama
PLUS
##KRS
##abentuk
BUKAN
Tajuk
##andakan
PRODUK
era
##astis
HAN
Rangkaian
PC
VIRUS
##vi
Alp
##entif
amatur
Dhuha
PELANGGAN
##ject
mani
Teh
PELAJAR
##usri
##eluk
##anggang
##cle
Add
Marcello
Sambutan
##ELAM
Motivasi
Zainal
overcome
##VF
##iles
Ibn
##52
2500
istri
Lupus
sangka
Review
##inja
bawang
ikhlas
Provinsi
rokok
hehe
##ants
##adahal
update
RESEPI
##tus
Manfaat
##upply
##ANGSAAN
##esanan
goreng
pemasangan
Angkatan
begini
##aimi
klinik
##cikli
Lima
campur
uols
##ulkan
ii
Allahyar
Lot
Kerjasama
kelmarin
pulih
PPD
Chat
KEBANGSAAN
bibir
##CD
Tenanglah
##untuh
##AIKUM
Azerbaijan
##erob
Duduklah
TERGANGGU
Lately
##MY
##imatan
England
Penyelenggaraan
##ONGAN
penyej
Tetap
##kandal
body
Close
##rea
Modal
AUD
Niaga
Sandakan
binatang
Bangladesh
##AJIAN
exportURL
##IKUL
kaitan
##UDAH
oversupply
##auhid
##ULAN
basically
fi
Doc
lapisan
##ganegara
31hb
mommies
nasional
SIM
Pesuruhjaya
##arta
siasat
petunjuk
LEMBAGA
##asabah
Bagan
Mazidul
sekaligus
beberap
##aiman
Berbuka
Gabenor
Kuwait
Aura
illusion
pisau
##olly
##300
terkena
KUN
Ven
Sebag
puan
kotor
PEMILIHAN
##lima
##alipun
##atusan
SARAWAK
Booking
##UTI
buahan
bajet
##berry
jae
##antaian
Elec
Resipi
LED
##ui
seakan
Sidang
ketawa
Soccer
Belah
##uara
kuda
konf
Daun
Bulanan
##KN
bermanfaat
##zzZZ
##enderah
Order
##mun
##UST
illusionist
ceme
##aduh
KWSP
Makmal
IBU
komitmen
Ikutan
Chin
##ongkar
disel
Good
##mau
Hung
Surabaya
Widgetbox
segal
menyelamatkan
Pasangan
Lupa
##jilan
Tokoh
Madinah
berimpian
fantastis
##izen
kretif
##itro
dicapai
##andum
##utin
OEM
barisan
TIPS
dihubungi
Counting
EUR
Marin
##Speed
Maghrib
##pasti
Mekah
##imbing
##embalikan
asalnya
aKu
teras
Pemilihan
##omestay
TRANS
##ATE
raj
diikuti
sebenanya
surprises
Fas
berceritakan
##car
datuk
asid
##EMBER
Unknown
##LA
Temanmu
##ternary
PE
irine
iternary
Backgrounds
super
Pemohon
Vari
Haram
insiden
bungak
Berimpian
Shams
ASSALAMUA
LAIKUM
##Tus
20rb
##zZZzZ
##ZA
shaaa
ZzZZzZ
##uceme
asaaa
puTus
##ikin08
Qiuceme
bungakikin08
ZzZZzZzzZZ
Bercu
PUTERI
##vey
Ocean
Iv
##tein
Jentera
Kedudukan
Hil
Mersing
Jemaah
vehicles
kedatangan
##amanan
National
##ERA
bid
Related
Kont
SUS
pandu
KEWANGAN
##ogen
Colomb
Seluruh
pembersihan
dec
siang
Hilang
mengan
susulan
Rh
Barb
Jac
muhammad
ba
Kucing
##amer
Alb
Penerbangan
Fakulti
Jordan
dikemukakan
##olahan
##atangkan
melawan
Nam
##atuhkan
posisi
H1
##ven
Bahaya
jawatankuasa
##UNT
BON
Pelarut
##epal
##oss
##ubungkan
##gen
66
##tainer
##evelopment
##ATUAN
ctnr
takkan
mencegah
Bed
AT
Masak
Plate
Musang
penerima
Conn
mencabar
##aliza
Bahrain
Mahu
lg
mekanikal
abdul
garam
REM
##IND
Wahai
WAK
Sof
opacity
##raine
Testimoni
fasa
borong
PEMBANGUNAN
Demi
Cu
ditanya
PTFE
memerintah
cip
##UANG
PENC
SEPAK
##JAYA
##ague
##aing
##orb
##arakan
##KP
##ford
Kaz
Malik
Cerit
Accord
Turut
kebebasan
##enderahati
kasut
sesebuah
##eak
pdf
penyertaan
Lux
##89
Freel
Bach
##HT
subsidi
##AJIB
##evan
Kecemasan
##abitkan
Rose
RIS
Rub
cermin
Jajahan
DAA
Ish
terperinci
GAMBAR
dilengkapi
khabar
kesakitan
##Ch
kemasukan
Solid
kitar
MRL
##HAN
##ategor
FOR
##apaan
Kristian
parse
KPK
kari
basah
##AWA
##azer
Bangkok
Buff
Lampu
Khus
##gr
PENGAKAP
Skru
rum
rawak
Suci
##ashim
perpaduan
vol
percetakan
##fiah
Inv
If
player
elemen
##uard
##zan
diluluskan
Idea
TKRS
108
diatas
Watch
Abidin
Nigeria
Rio
##abled
campuran
##EV
Tata
##struction
tukang
Big
bahu
kebolehan
senyuman
##egi
PENJ
maksimum
##bean
Nab
##avy
berhadapan
##sul
kimpalan
Tay
sang
##imen
TEC
Allahyarham
Asing
pres
##adinya
Offic
Paduka
Serb
##Yusri
ancaman
hitsYusri
Bukhari
Octa
##fiq
Newer
they
##SK
##ars
dipert
bertugas
##auty
##itzerland
##LY
Perbezaan
##ebun
kafir
Depan
akak
Mukhriz
yak
Diz
Kejayaan
Tand
Jelas
##inginan
##enne
##urunan
##ulator
##ajukan
##oph
butang
semakan
##ete
kebakaran
van
Mohon
Shanghai
##isar
keti
##RAHIM
Reb
samada
menep
Meningkatkan
##ohol
##ze
##onial
##urans
##RO
plag
Berapa
##bl
NOR
RAMAD
Georgia
##AIM
Mobil
##ELAMATAN
persetujuan
##ahlian
Elantra
bertahan
##esterol
##iskinan
lay
##odata
Wisma
TENT
##nel
##agak
ais
Khat
Mich
who
KESELAMATAN
##istim
madu
bahaya
##Case
##urawat
Kesatuan
Trail
janda
rasul
Vel
##ores
AHMAD
Islami
loc
SEMB
menyentuh
##sanaan
sulung
##ICS
Love
PTS
##takan
selaku
##eum
##erai
Aliff
Kecederaan
pemakanan
##oja
petani
##eling
##emap
##ograp
indexOf
##DANG
Halal
current
teori
##wakilan
61
##ror
Phone
Staf
##uasir
Oli
##dress
Kain
Berjaya
serba
Pelaksanaan
json
Radi
White
menjana
Way
tangannya
mengkaji
ali
Categories
Po
Kay
ESP
Samad
dikaitkan
JAM
Karbon
Liv
Gereja
##resif
##atap
ubah
##we
jadikan
window
##OI
##WP
##oji
gh
Carib
Kesalahan
rakaman
Som
##aful
##ph
seronok
Visitor
sudi
##TARA
comel
##Space
Pertuan
##alla
##diq
##reza
Bun
lum
##akunya
Tokyo
##Int
IKLAN
cender
slot
menekan
Minutasi
pec
berhati
##araja
Katalog
dikawal
##xi
pastinya
##ENAR
kerj
adam
Marqu
tayar
550
perlumbaan
Bestari
Akademi
##istimewaan
gelang
##ONOM
disampaikan
Ericsson
YA
##anjangkan
##jub
KHID
terbukti
Tetek
membincangkan
PERL
Membaca
penipuan
##empuh
##eny
UPM
##ejas
Blue
Kerusi
Wedding
power
##marhum
deng
bukit
AGAMA
Rimba
##ejap
Papaglamz
stress
Corn
##impangan
##limat
akhlak
##EDAR
##asuh
pendedahan
alahan
maha
##amak
##IKULUM
##overnment
Cir
Paper
##HAR
KERTAS
pemberita
Freelancer
down
Rena
Moving
Cruiser
##abiskan
Sala
Ireland
duanya
kongsikan
isyarat
tandas
dibeli
Technology
Pussy
jasa
market
##oder
PERUB
FAQ
##ersey
##zo
Tubuh
Pa
Maria
Bella
dipers
##ugasan
KHIDMAT
##otan
##600
Cloth
Othman
##USAHA
RUMAH
Mond
Caribbean
warisan
Sebaliknya
##emerlangan
menurunkan
Tujuan
Rang
##epadu
benc
Oct
ditolak
WAI
nuk
persiapan
Syurga
Logan
##chen
kekayaan
##ray
PINANG
##angsang
Taksiran
Tri
##etap
##bek
##umbung
FAC
##HB
Gabungan
rawat
##antage
Switzerland
##aharu
Raf
##ibur
Rama
Tingkat
Window
Plan
Lengkap
pengec
Menara
Suhu
sihir
Percetakan
Pembangun
Dizyan
Lar
matanya
sum
LS
Awek
##erbang
tata
Active
dikendalikan
##nival
##iyah
penilaian
selagi
Cross
jujur
George
Ketu
Ianya
Berkuasa
##ife
##MB
##alti
Sportage
sentuh
##ulai
Ath
130
Manager
tersembunyi
dihadapi
73
mempers
##stereo
Pemasaran
##FTAR
Acara
Outlander
##ofa
memasak
##pi
magnet
House
Poland
620
kejohanan
PROMOSI
##abiat
##adam
dikimpal
##uke
pertahanan
JDT
##oper
lelong
##INAR
##empah
##uality
##ALING
##ersial
pengesahan
kebiasaan
LO
Lift
IBRAHIM
menghormati
Integriti
##eda
##asional
Rap
Centre
Membeli
Tap
Kena
##ingkah
Jalil
Golongan
hy
requir
tebal
PEMBEL
Anjing
Hadith
muslimah
biarkan
##iarah
dimaklumkan
PEPERIKSAAN
Festival
##AFIAN
Jangkitan
##OHONAN
##sb
persatuan
kolam
##ourg
Origin
Logam
Madu
##ense
were
ANG
Cons
ujarnya
Born
##ghan
Semalam
##lie
sayur
##hana
##anka
Dadah
##nb
##ра
LAPORAN
##ALITI
Balai
SUMBER
kurus
PERMOHONAN
nih
Muzium
analisis
Vivix
Rich
Kelainan
mengulas
Sweden
##intangan
Bit
PENAFIAN
mempengaruhi
GRO
umrah
Monaco
BORANG
Yahya
korban
Tahfiz
contact
##ekali
3D
Naik
Wild
Dubur
Companies
Pendengaran
sarung
kemajuan
##isalah
##irin
Bagaimanakah
Daud
disimpan
Waf
AKHIR
James
pertubuhan
Jin
posts
Membantu
##zuan
Coupe
##aster
MENARIK
Whatsapp
##Jet
Haiwan
##onstr
Gag
demokrasi
##uruskan
single
##ea
persediaan
Proton
gambaran
##Tube
Payudara
Mender
mant
pasir
##utaan
##ahagia
Puteh
##ATION
##16L
our
konteks
KDYMM
SEM5
HAL
udah
mahukan
PENTA
Kembara
##itain
leg
##bih
##hadow
JPJ
setting
##unjungan
Cher
Loji
Impreza
Nasir
Analisis
TUD
YIN
##agedi
Thomas
Size
Pengambilan
PAD
PT3
follow
Aset
pilihanraya
tv
Soft
##ique
Classified
Tenggara
tran
know
Malibu
Furniture
ROS
##asilan
Lahir
penampilan
Sales
alukan
##utawan
darip
Ten
##ihad
Tradisional
potensi
##gain
ump
Mekan
Umat
Usaha
Total
kegemaran
puluh
##falt
Spring
##ector
sendi
Like
##aunseling
yakni
syariah
tik
pertukaran
Prius
Touch
parseInt
V8
##enia
menyedari
mustah
Lit
EKSA
menerangkan
82
kesejahteraan
sekalipun
1998
Bicara
DN
Full
banc
params
##oterapi
kant
Sebarang
##alur
realiti
##asmian
Service
Sarah
memakan
##anjutan
Fox
##IKA
contohnya
saud
hitsLEE
PERSATUAN
URUS
LEL
also
##304
Jauh
anjuran
gemp
##fikir
Next
OLAH
Jimat
them
Mix
Uz
dipapar
TUR
Islands
ONE
Portugal
Yukon
pengumuman
penjawat
untung
menamatkan
##ikatan
##utes
Brand
Non
Menonton
Escal
Dickson
##cat
ketara
Perhimpunan
kala
balasan
##ahuan
akar
oper
BILIK
1990
##ged
##ungun
hala
Teknikal
perhi
JADI
##ertian
##oro
mengharapkan
SETIAUSAHA
melangkah
Bengkel
##unggang
rumahnya
##gerakkan
Halim
Seat
##agama
Dubai
KITA
memuat
PENTADB
KIS
Minda
Level
berlebihan
perhiasan
Oper
##ingguan
SA
##ikalau
portfolio
Cabri
##ihatin
IPOH
##IX
dibahagikan
pengk
Guang
kambing
Mulia
Amal
##nak
Penyusuan
dian
perangai
kilometer
##amadun
##argaan
Marang
Yes
hormon
Diab
##IBLI
cek
perasan
selangor
haid
##minal
pembunuhan
ALI
Sedangkan
##val
##uatt
FELDA
siku
bimbit
pencegahan
bengkak
senaman
gamis
subuh
##rus
Month
72
ZON
Rashid
##ganda
Promo
penjimatan
wartawan
##eca
eksp
aci
##ibatan
Pembelajaran
##alurkan
remove
singgah
##mit
##jauh
Vantage
##elan
##ucap
Kharina
##rie
##lies
Sweet
##fan
##osok
medi
dilindungi
KAMP
##chi
##ONI
##igresen
American
BANG
JAYA
Muhamad
selera
Tran
##angkaan
corak
Genio
teh
Links
workshops
Cutlass
center
Step
SDN
merosakkan
Escalade
Silverado
HOT
Tocco
##AUTAN
GHIBLI
Kang
Kacang
menjamin
Villa
mut
SABAH
MazdaSpeed
5S
##arankan
produc
COMP
##allet
BAHAN
##aimer
wal
Mayat
ape
Prima
sperma
##okh
Hashim
Ponti
##abungkan
Fu
KDNK
##usahawanan
Dara
sebegini
##yayang
which
medan
##Malaysia
jambatan
MOHAM
jerawat
##ujur
LaserJet
##imantan
BERB
##fer
tidaklah
REMAJA
110
##issa
##IE
Advert
##claimer
CP
trim
persendirian
Vo
Pergi
PENYELAMAT
##iak
melanggar
Seksi
staf
Simpan
##agih
Mahmud
berpendapat
meman
berbincang
ijazah
Ladang
dimakan
Krai
Husse
##JEK
bencana
gram
mengakibatkan
Daw
sind
dibangunkan
Eth
##adha
Sew
##itulah
SEMUA
##angkakan
Que
##ington
singkat
##KA
menaiki
istana
Baby
letupan
terjejas
Mutiara
##idan
Memilih
kapasiti
##adari
Kud
agen
Hungary
Nord
Tang
wedding
##arn
POLIS
meskipun
Lembah
Vitara
Job
##epatan
keberk
Fatihah
##izan
Wel
##ritik
##ross
dri
Pengunjung
Ibadat
Ampang
RAJA
##asikan
Bari
##angkuk
YO
Milan
sampingan
Petrol
menduduki
Bomba
Trump
##ayati
still
##ped
Frank
selaras
dom
##IAAN
210
##oshiba
##BAIK
Perolehan
Bukti
##erra
simbol
Serupa
ISM
Cermin
##entiti
German
GB
SAS
perusahaan
##ERTA
EP
kacang
masanya
Edit
Weld
HIDUP
##ujang
Polit
Rosmah
##lymp
Pahat
Biodata
kesal
parah
youtube
Nepal
only
Beach
##agihkan
dll
ren
##ifi
##ebaran
lutut
berniaga
##upan
mendek
Nav
Ui
##sium
Goji
sekalian
##lease
TAB
membabitkan
##tg
##plin
terlihat
##ebaskan
shadow
Sekian
Profesional
BANDAR
lab
Disclaimer
JUN
Menderma
Shari
Just
pengikut
Sang
Cukup
##haliza
ganda
PERTAMA
PVC
Muar
Flu
##SX
berkel
Islamic
GAL
Japan
Math
Tamb
DAFTAR
##asmikan
##51
Dungun
bertentangan
HP
Kekal
##syen
PERN
kit
##kohol
##ward
Bahkan
upd
piaw
##ornia
Panglima
membersihkan
jambu
##icaraan
lulus
##zlee
penerangan
Tahniah
##idap
Dun
Pondok
fabrik
memperbaiki
STAT
OLAHR
##ibub
bersikap
Lou
Spesifikasi
Etika
Tawau
Work
Tinjau
kraf
OLAHRAGA
##ODAY
UJ
Lebuhraya
Jus
Kelahiran
mengumpul
cerit
lidah
Airb
business
Urus
##ipis
##ambahb
Pembelian
##orbanan
##ibubapaan
##AHAYA
jgn
Harap
mengembangkan
Kreatif
##RUL
##imaan
Kosmetik
Naf
sudu
gil
Ramli
##stat
oldid
##yr
Silat
77
Fiq
##ADER
Square
##aire
Insan
Visitors
David
Gambaran
##atatkan
Anuar
park
##ganasan
##oyang
bapanya
Harun
##pert
Calif
Harakah
mahasiswa
gitu
jel
##dahulu
##emahkan
Hoki
kubur
##VE
lawak
##km
Sehubungan
##rey
##KS
##nie
Madrid
TERBAIK
Alf
Pembersih
Theme
##ubu
##prise
##ensif
##ugu
kend
KAS
##58
##antina
lebuh
pangkat
Pn
##VI
##engkapkan
Dual
Goreng
kg
##eve
PED
##estern
Yusop
Mohammad
Makkah
spesies
JAN
tampil
keganasan
##JAH
forum
##niakan
bon
BUKIT
Cash
##assin
belanja
melampau
kecik
##esarkan
California
IE
AID
SATU
##itra
sejauh
Landskap
##rown
KOSONG
Kut
##adai
teksi
Inspirasi
Flat
##lar
##acuum
ajak
Hiasan
##Pacific
dilarang
##usnah
Young
Sulaiman
##bit
##egram
Terdahulu
soc
##AILY
##master
Afghan
##bul
serbuk
terkand
MODUL
##ukri
SEBUT
objek
##ال
##idd
Send
menaikkan
##abot
##antahan
berlakunya
Badminton
diselesaikan
Peristiwa
dicetak
kembar
pra
xxx
GMT
mutiara
##ilikan
Kemboja
Maritim
##angganan
patah
BB
punc
Izzah
Huj
Britain
rela
mengira
700
##ugat
##EBOOK
##uaskan
mengenakan
Finland
notis
RASMI
##ZER
seekor
Photos
Kawan
Maszlee
ekstr
Cav
menggel
detik
##apt
liter
menipu
##utr
kompleks
Kejadian
Bali
teruja
Almarhum
kontroversi
graduan
Mendapatkan
FACEBOOK
UiTM
KM94
Game
kreatif
##ancam
Takut
##ker
##ingati
bisik
Belanjawan
Highlands
sekejap
##usta
Pengawal
asmara
##150
caj
SOP
##esting
##house
silap
KELUAR
Pembedahan
##icon
Persidangan
any
isti
erotik
mail
Terbitan
SUB
Card
Market
mengganggu
##elis
##ijak
kemerdekaan
##ulung
pembantu
End
wahai
LAIN
##elawan
##lec
Ukraine
##amo
##anie
menanti
Sini
##alet
Lanka
make
radi
##zos
infrastruktur
appl
##eno
stereo
##ARUS
Finance
Single
Singapore
then
klasik
##ambahbaikan
Aff
mengingatkan
pemenang
JUR
Previous
Papa
Khutbah
Khasiat
Penyata
##tainment
LP
SIRI
##ihatkan
betina
Wrang
##udayaan
Yam
memotong
weeks
Bau
Jo
menyeluruh
Rup
usus
Vacuum
Tol
Wi
Press
RM50
##impulan
enable
##eku
bergelar
PDTAG
USA
Pemindahan
seimbang
Alternatif
CAW
Engkau
wrap
Surau
mencecah
##enjak
Pelacur
penonton
Wrangler
forex
Asmara
Ci
khal
##luang
terdedah
##ahagiaan
Pameran
kolej
awning
sayuran
Perf
Adat
padanya
ARK
adv
##YAK
10000
JAWAPAN
PAUTAN
TODAY
toL
bercerita
sokong
##ektar
##03
mengesan
peti
kemurungan
berbahaya
PENGARAH
##owerCase
toLowerCase
usah
##loy
##ARAT
Durian
nor
Tunjukkan
diperoleh
Sampah
Monter
md
mengajak
Cha
##pcs
rad
Mengulas
##etuskan
Pra
##MP
gar
##uela
pn
Sepang
Perkataan
Dek
Kamus
SOLAT
Zam
Pemer
Hafiza
##aders
Amat
dikesan
PENGADIL
Isti
Temb
Kaya
Cemerlang
##eor
beritahu
selalunya
align
Sungguh
Kara
Pengkalan
roti
Renault
Sta
##emputan
tembak
label
PENINGKATAN
JU
Plas
##olf
Milik
Erotis
Cabaran
##iar
##Farah
merta
##yaki
##naf
riwayat
hairan
##eluarga
Kadbod
graf
Husam
Serangan
pengedar
ringkasnya
ragu
Matematik
thumb
##mon
ISU
Jay
pertud
Pintar
##URI
Klip
gelombang
cs
LA
Eksp
carta
##dney
KSS
##lon
Petunjuk
Biru
hakim
##qa
transaksi
Sifat
pertuduhan
roll
Cheng
##ension
Mondeo
pesta
dipasang
Tasik
##empuran
menghisap
Nubiles
EC
DH
Entri
Angeles
##Trader
Hajat
##UTUSAN
sambung
##ule
tid
bertulis
ingatan
Env
gb
sebentar
menghabiskan
##elor
Image
##ektor
Du
##ght
Mahkota
Pink
##anjikan
mengarahkan
##OMP
Jurnal
strategik
Barangan
##gar
Thai
diangg
##oral
hadits
bertajuk
Oil
menyambung
##ertakan
##cent
Hakikat
Otak
Yun
Ulu
tertutup
##Per
##gium
170
##AKAT
##ifatkan
Burung
ORGAN
Shafie
pelepasan
ditentukan
##oster
Cruz
Seberang
Kart
Sara
durian
Alahan
Sydney
etnik
alum
##aph
salinan
##unyikan
##uding
Adun
Karat
Indian
GROUP
##ugut
##Qu
disabled
PUN
Ace
LAGI
##core
Nus
##iteria
GER
upaya
##star
1439
exp
Dev
##ulatan
hitsFarah
Minuman
Pener
##sword
##ucian
##FF
Indiana
ROL
ngan
##etro
Senang
##Name
##HP
TEST
tisu
berta
tersuai
##hd
studio
Hebei
##EMI
Puerto
larangan
BOLEH
diiktiraf
gig
komited
##enggel
##intangi
##ento
lahan
LRT
ASTM
true
France
Victoria
##feng
menampung
tuh
Menyediakan
Sabu
diserang
PANGG
letih
Penasihat
Chall
##mbuhan
Iraq
##ALAT
##eff
Sejambak
cons
daripadanya
101
quran
konkrit
jan
puak
Bachok
##ipas
berpeng
MASA
Ulang
melancap
perisian
##edonia
Diabetes
Kemaman
mad
Hadir
LANTIKAN
Misteri
148
APA
sn
##ekalan
Bergabung
##tual
Montana
##apu
BERNAMA
pencemaran
##IKASI
Fau
Fail
babi
menganjurkan
persegi
TERBARU
bakat
gemar
##elbagai
Marie
##idata
##ejarah
Azman
been
Encoder
##ources
FASA
##ICE
Carol
83
Zen
Terjemahan
pencarian
instr
pesan
Micha
sekian
Estate
table
berlari
##ilap
##udud
67
KANAK
##ils
##krip
disiplin
hormat
ug
Jum
OS
##eci
##apung
##odua
Ariff
Tuk
dos
##alakan
##ikahan
Times
Royal
##antut
ADA
shop
Eko
##afar
##rani
##isip
##anca
TAW
##ormatan
krisis
Sunway
Mesti
##IMPIN
Penyu
##API
KUL
##BN
perayaan
##TIF
book
Did
Daniel
##Tw
CAD
Jej
Mut
bersetubuh
Faktor
##kp
##ziah
lukisan
Pendapat
anak2
##agan
PERING
Sitemap
March
TU
##opan
gay
##nab
##anyakkan
formula
Mengg
mustahil
cak
menump
CAWANGAN
##fur
76
Kun
##alihan
##che
Nahas
Baitul
KEK
##edang
diketuai
site
##SITI
Zak
bom
##akam
INOV
##rak
Masakan
##eder
ditur
BULAN
Romania
Fizikal
MASUK
memeluk
Hamzah
##fo
##ongkong
Demam
##ITE
Pdt
mendidik
bedah
runtuh
Wikidata
kewujudan
PORTAL
Hadits
ditayangkan
PELANC
Looks
Angkat
univers
KISAH
168
##ragma
##PH
dimaksud
##isasikan
via
aje
bersemp
belas
mengus
≤1
Pelik
gangsa
melanjutkan
##sijilan
##ewas
Elektronik
sediakan
##jit
adab
WANITA
how
Pain
##orte
##ка
##eteran
Rew
Fast
Saddiq
##fie
##sch
pembentukan
NAMA
Jak
kebun
Posisi
Sambil
karbur
Dist
kritik
Pengl
##oyan
##Element
Ikh
membatalkan
hadapi
Material
cucu
Selera
##aini
melkan
##impanan
Kulim
oh
bersalut
##arden
FREE
Lisa
Pastikan
Caprice
Shally
PBT
##qi
tgk
fre
##mart
Tinggalkan
polisi
Sky
##arasan
dikira
##wayatkan
Marine
periksa
hitsSITI
hitsNoor
Shallyna
##Sel
memperl
twitter
##54
##ATEG
kuki
##lation
##Text
Syar
Agak
360
##ilm
Kebenaran
##ohong
HARA
Secret
kamar
persekutuan
##kala
##APAIAN
Kurikulum
KERANA
Herb
##umn
##aching
##emat
bersatu
Ub
##esto
Willi
Baling
Semakin
##ufac
UJIAN
Exco
kiamat
##ries
Afghanistan
INT
HIB
Sip
rg
Pembiayaan
Hyd
len
##net
##upuk
DAPAT
MRT
herba
under
##IMONI
sembahyang
instagram
##awas
##rafi
INTER
Remb
memf
##izz
Borneo
STR
##ULA
##ahamkan
##ukuran
tiang
Fusion
##cus
##auf
Equipment
demo
mendatangkan
TEM
Agar
TESTIMONI
Tani
misalnya
Taiping
##An
Khairul
Saudara
PPIM
##IVE
Jar
Sudan
Nob
nis
Ru
seluas
umumnya
Low
Tulang
##aseh
Psikologi
##akia
Mengandung
Fatwa
Suspek
direction
##ves
penurunan
arus
##wazah
gerai
##ajarnya
##idupkan
Kalimantan
##sas
INST
Asri
sams
Russia
Kangsar
mantap
Gula
ITU
##dir
##utihan
##ted
##unaan
##eriksa
Fatimah
Yog
MIL
##andom
##ailkan
Kelayakan
Organiz
##adilah
##esta
PANGGILAN
Amb
memul
Airbnb
Maran
padu
Bill
##ар
Seramai
sign
Civ
ang
Meter
kehamilan
LAS
##ultasi
Entertainment
Sha
him
Board
Datu
kebersihan
Over
Istimewa
cawan
kepuasan
Pemeriksaan
ga
Hussein
##upusan
##irm
Qasar
keadilan
create
pelancaran
parent
##ature
don
Kelulusan
Stereo
##masalah
VI
pasang
skuad
##ijing
##iram
buih
##OMB
##inisi
Serbia
Education
Mengenal
##ude
berpuas
Sierra
falsafah
ES
dipakai
kesayangan
##estimonial
535
##TE
diku
##itos
Kebudayaan
ROLLER
SES
##dan
##inger
##POR
##opsis
tawar
##rint
##impik
Apartment
RM8
cenderung
yuran
bir
dianjurkan
berpantang
Universal
##iw
Anim
FES
diabetes
ditangkap
RM20
wan
klu
yaitu
impak
kargo
disertai
##DER
Osman
berkumpul
##ijab
KUALITI
mov
##amerkan
TINGGI
Jet
Urusan
gajah
Biasanya
memprom
##icip
Kn
##unding
Butter
TADARUS
diman
##TION
##elesaan
Diploma
Ly
latin
Bertu
Lago
bikini
##string
bs
nyany
Lag
Roz
##eva
motivasi
mj
##qah
138
Life
##owi
Safari
solenoid
##asihatkan
membekalkan
Communications
##eelofa
##nanya
##viti
Denmark
team
Pelancaran
Saud
Gajet
ejen
ebook
append
Taylor
memantau
Robert
Kend
##iday
benci
PERSEK
AY
hot
##erat
Selesai
Sign
##lp
Karnival
Mempunyai
##onjol
IL
##ship
kontraktor
##oditi
KOMPL
BANT
HIBURAN
user
slid
##ication
##angkala
Pemilik
Aliran
Open
membantah
##etuju
kuku
Memper
diperuntukkan
keamanan
Camry
Megan
##vensi
1440
##agnosis
##enci
Price
##osikan
DATUK
WCB
VS
Papua
Telegram
perhentian
##etri
##yp
ARKIB
perundangan
##incir
##erson
##oci
diwujudkan
Francis
Duk
anggap
##105
sepuluh
Information
##OX
##onom
when
##wim
##itude
##ILAH
##adir
Belgium
KM510
alami
pening
PTD
Song
##AYAH
seharian
Extr
God
menyifatkan
barulah
praktik
Dukun
##abut
flex
Tweets
KAJIAN
ditukar
mengalir
##rick
GEL
##rr
##itir
shah
A3
CIN
keinginan
XS
f0
nota
MM
##gai
##celand
Banjir
##tice
Nasib
rehat
penimbal
TALIAN
89
Arif
Kubang
Skuad
Fasa
kalo
Today
TNB
##LDO
didaftar
Persek
##untah
##ellow
mintak
iii
Austria
Mainboard
makcik
Tangk
222
BULLDO
sv
menjatuhkan
pneumatik
liar
##uaan
##anggaran
MOTOR
ganas
AMANAH
Rico
SMFA
ibnu
Agen
KRS
##ekodkan
##URUH
Bunyi
##gasi
##usnahkan
terbakar
lebat
Kass
MAC
##ENC
jurulatih
teliti
##sikal
berikutnya
pew
##PER
Edge
bit
hektar
Celebr
Beijing
peneroka
##astikan
perindustrian
Krismas
rob
PERLIS
##ambia
PEMBELAJARAN
rgba
yahoo
Gangguan
##emerloh
Cry
Nick
##une
terpakai
ular
Ishak
peringatan
Inn
kebimbangan
krim
gugur
Lail
santai
Buruh
BULLDOZER
NASY
##Online
Daily
##fon
soleh
Hub
gred
Jaminan
Sao
gemuk
##hea
##ikanan
Bendera
berkuat
Jikalau
##eramah
Carbon
nil
##eksport
Maybank
prib
##eline
penguatkuasaan
norm
##EMAHAN
TRANSF
##ONGK
PERINGATAN
##aharuan
##ows
118
Perspektif
##anaman
##abuk
dipenuhi
kuih
##grafi
CS
Hujan
seketika
warganegara
NASYID
fal
tindak
Pasti
PENTADBIRAN
##iffon
##yy
##adika
kuan
rajin
Semuanya
simple
giveaway
##izab
IPT
none
Stats
Raj
menatap
diagihkan
pastu
sehinggalah
tajam
mengerjakan
##tivis
Kemasukan
beragama
##enteraan
pingat
##undingan
sumpah
Aisyah
Khan
Siv
bn
Tumpat
Ultra
##atri
Tangga
tahi
heheh
##yakarta
Darjah
cina
Batal
Mong
melamb
Ratu
pekan
pisang
mempelajari
69
Panggilan
Kekosongan
##cha
##engaruh
##jubkan
Sentral
Entah
panik
##zim
320
slider
Fokus
Wood
##ISASI
Hisham
Adab
talk
##luminasi
##Call
##ANTUI
EV
membesar
AKAUN
TEN
##zam
##ele
Cafe
YAB
Lancer
Dataran
##vensyen
##empurnakan
dealer
Petron
Publish
Range
##tack
Diskaun
##isytiharkan
Training
Antaranya
NOV
SECARA
karburator
BERT
mendorong
naj
##ocket
Iron
Rakaat
ILM
pemohon
##aps
##azanah
insya
rawatib
ov
tamparan
Tayar
bertuah
Terapi
lot
pj
Chef
Brek
Sebaik
Atl
KLIA
pondok
SHANTUI
##anting
mencintai
Lagoon
than
Code
doakan
Jasin
nggak
cili
would
Fitnah
##estari
QR
diarahkan
Rukun
##uasaan
Freight
##Type
Lemak
Laci
Pelabur
Kabel
Sikap
Kitchen
PERAYAAN
CINA
RM7
Prinsip
Thur
AKAN
download
seram
survey
break
Motorola
##PN
rumahtangga
ekar
##etugas
##uw
1996
##UGERAH
cekap
##ancurkan
Simpang
lingkungan
mengut
lamanya
##ush
BR1M
objektif
Slots
##akhstan
penyelenggaraan
kronik
##acuran
##jo
Meri
mic
Amaran
Intr
Automatik
test
##aruah
temuduga
pelantikan
Ubah
potong
terjun
##ipp
Western
penyediaan
konsisten
##auman
A4
RAHMAN
soft
##hhh
6D
Let
##ising
riba
Kelengkapan
##ejal
Tuah
Excel
Feedjit
kuala
lirik
sara
##AKAH
Anth
##undur
kutipan
Pangkalan
Mikro
##ideos
Gila
NEW
Ballroom
##arag
##ahasa
kpd
updates
##stein
menyebarkan
Saiful
##onc
DAILY
TwitterKongsi
Java
Episod
berpendapatan
pejuang
Temerloh
##By
Jed
racun
IniBlogThis
DBKL
ditarik
SUNGAI
##AKU
Keganasan
Mee
Hor
nada
Colombia
Meja
Pakai
Mustafa
TT
sewajarnya
ukuran
##ariskan
##ional
terkandung
Sib
peperangan
Menulis
sejahtera
kecekapan
Wed
container
Homestay
##AIMAN
Prosedur
bebibir
geram
##amples
akrilik
##elles
##formasi
Kontrak
timbalan
MYR
lazim
##ULIS
aksesori
HARAPAN
lumpur
zon
##ession
Hawai
##JAU
##AKI
Ridzuan
Pertumbuhan
Kering
tingkatan
mara
Penggantian
Sujud
dicadangkan
##enge
navigasi
Gem
Pergerakan
First
Windows
MC
lurus
##ke
##ahas
##57
##onya
Mimpi
##ebel
akta
##etulkan
Leave
jet
dibunuh
buasir
##ewengan
Greece
Eight
pm
Hur
##umput
berahi
##INT
bersuara
nikotin
open
href
##tifik
atlet
##TAND
TAS
##ites
FAM
SULAIMAN
##olakan
Mampu
##acar
PERBAND
1439H
##IDEN
LEB
Mujah
Cayman
##ubapa
substring
estate
menawan
element
Karena
##For
##TML
##otensi
##olongan
##iances
Timor
slide
skandal
pentas
Product
##antom
Sibu
##EMATIK
Pasif
##anakan
halangan
Berkesan
##SYEN
default
Care
keluarkan
##cikli00
puncak
##dam
keker
bawak
January
penemuan
menghentikan
Jaz
pertimb
apatah
##FX
MATEMATIK
pemprosesan
##uruk
##awaan
melakukannya
Clothing
diturunkan
statistik
tangkap
##320
Darat
Heart
##Btn
ham
##imatkan
dipl
Impian
diserahkan
Kluang
##off
area
BENT
memimpin
runcit
berkem
##USI
Kaum
bertempat
Meg
Mara
bolehlah
Penerbit
4x
Harus
Slip
diskaun
Hind
pindaan
mengejar
menyemak
terfikir
PROS
MRSM
Ayer
menangkap
merampas
Under
##sen
##uage
ditunjukkan
Kuning
##apang
Hp
penyebab
Personaliti
coll
tang
FESTIV
Khusus
##ergi
Penubuhan
Emir
Great
##NI
Qatar
mari
Protege
berpakaian
BHD
Pertukaran
##ografik
Magnetik
Bina
bol
Mall
geng
print
CAL
Tahoe
dibaca
diamalkan
Plugin
Riy
Trac
Permata
equipment
csv
Sindrom
lib
LAWATAN
dikh
Phantom
Flor
PERGER
landasan
##eros
KPI
##AWAN
##olution
Cai
ganjaran
##ompin
##egangan
##eler
##uchong
Undi
##intahkan
Pengendalian
Valent
KEMAS
Inflasi
Neelofa
perairan
KOMPLEKS
Izz
Vers
kul
Jiwa
##linikal
OK
Wakil
appliances
Bonde
Mainan
requires
Tourism
PENGGAL
##acher
actionCall
actionCallBtn
Pontian
MALAM
Xia
FESTIVAL
PERGERAKAN
Limau
##airah
NI
menger
Taska
terkawal
##Pro
##aikum
konflik
Educational
bangkit
JAS
Teras
Prim
ABA
subscrib
Update
Pod
FacebookKongsi
##bir
Duster
dimulakan
Imigresen
##asia
##ways
##CTV
basuh
difahami
viral
Resolusi
Hill
Aras
Scot
kabinet
Aam
Haid
menyes
Ringan
Sebanyak
CY
Faraj
Kamal
ANTARA
TE
basikal
Kamera
review
Jour
##etooth
membiarkan
patung
##ergasan
##lay
TURUN
Janji
sesekali
##Share
Plug
##ulingan
PERBANDARAN
light
tewas
normally
lak
##Mu
loji
pensyarah
Office
Penapis
ROAD
penguat
Awak
terendah
pengusaha
Comel
##uguran
Manufac
tepung
Ih
RF
Yassin
Premium
Sg
Nu
lic
##ganas
Mega
JB
##TOR
##down
##iding
sembuh
menggesa
Jelebu
kemanusiaan
perkauman
Tro
IX
netizen
Asp
memelihara
Lengan
ORGANISASI
Jarak
##esor
hikmah
##iking
eff
tong
SRI
respon
Bapak
##ules
berjuang
bengkel
enter
##JID
##atiku
teratur
dalil
##daus
Terh
SOH
##ATIF
abg
Simple
Oral
79
##ubin
Envoy
##imbangkan
Pulley
fenomena
##zz
dur
yatim
##IAGAAN
tamu
sesawang
Kapsul
JA
##ujaan
Arabia
Fab
HAM
Butang
Dur
hajat
##emes
memori
padat
Dollar
YouTube
sesak
yer
tempah
Conf
Selalu
lam
syar
merdeka
general
menepati
Thread
Rope
bleh
Jokowi
##antur
RM30
Canc
non
Teruskan
Sejuk
lesbian
PERNIAGAAN
ast
##ribd
hadith
ban
perhubungan
KA
cal
sir
Formula
bimbingan
cint
sms
Last
##iqah
##abak
##endaharaan
##etish
asrama
##awesi
##okkan
019
Member
disokong
Pusaka
##ipat
sim
Rembau
menandatangani
Mansor
word
memperuntukkan
Seragam
laser
GOLF
kalis
penjual
CIK
Kassim
Vs
##igami
alkohol
##St
melayari
##NES
Permit
##aramkan
##ench
telus
JENIS
##RE
MX
##ezakan
Player
sebesar
SV
SAM
Roses
LI
Sale
Kazakhstan
##etapan
penambahbaikan
##andung
muz
login
bendera
Stud
persekolahan
event
sentuhan
##ardhu
Asma
Spins
menyiasat
rantau
##onstrasi
Corpor
dorang
Botol
MASJID
##ebum
mengejutkan
304
Selayang
bersesuaian
##ln
Bookmark
hus
pampasan
##660
Tonton
prop
Yogyakarta
Sensation
TEMPAT
sarapan
Quatt
Senti
mobil
sayap
melanda
Hay
##aingan
##field
##لا
##urikulum
##EMERLANGAN
elak
##okhtar
panc
Rosli
Chic
RAMADHAN
##59
##acatan
umno
Petronas
##ream
##ERITA
trafik
Mary
Cabriolet
Ibadah
Realiti
Omnia
berpeluang
haha
dikemaskini
motorola
Petik
Selanjutnya
jaringan
INOVASI
cent
School
Kadir
Xcover
tahniah
Rain
Teb
##anturismo
Daging
Granturismo
##roporte
Tepee
Quattroporte
AJ
bancian
terapi
##aditional
pemandangan
ANUGERAH
mengurus
##BO
##ulunya
mb
Jessi
mengangguk
##etakat
Iceland
svg
melantik
Putera
RAKAN
dialog
berpunca
DASAR
AKADEMIK
ih
penyusuan
##arin
Track
mart
##OLONG
BERSATU
Setakat
##sol
Tutorial
SED
OP
mawar
Partner
##He
Puchong
menghadap
Tahajud
Jeddah
Sebulan
melarikan
Kraft
pengurus
Muhar
##ICARA
##AIKAN
##IMPUNAN
Hingga
##EI
Gunakan
script
Jent
jus
Русскии
abd
##3017
Rog
##olia
Maur
##azon
Ditulis
Hawaii
pengorbanan
##UDIN
Rais
Photosmart
move
Bog
Suatu
PAKEJ
##kad
bersem
Rank
##нс
PENGH
gps
##Ad
RAHSIA
##odes
Kapasiti
Bluetooth
CCTV
ipar
##mani
Kw
cerah
##incare
membakar
Faedah
TA
##entunya
amalkan
puisi
ER
tub
##rikulasi
##acunan
kaligrafi
pohon
##OMPOK
##enue
taubat
mand
##ingkasan
disiasat
Kuliah
JANGAN
PDT
8000
Besi
Bor
App
Jean
Transit
Wong
pay
##angkalan
##mur
pengasas
Chong
KM53017
##usahakan
900
STAND
denda
Cans
Aksi
##cast
complex
Resources
DBP
Rantaian
home
mn
menyalah
Fiji
kastam
rights
Batuk
##ekuensi
##AGE
ketinggalan
Camb
kampus
123
Italia
menghapuskan
Canada
rej
verti
Sambungan
Penutup
keluaran
serentak
##osak
bakteria
Miri
taktik
patuh
##inson
USB
Syn
addClass
bomba
Olimpik
##rar
MUET
##mir
testimoni
##antic
tipu
##ident
Ars
jag
Tablet
girl
##injauan
Jil
Aktif
spec
##unculan
PENGIK
Pember
edisi
senyap
Selak
##ahabatan
ABA26800
Jab
penjaga
##NAH
##akti
there
Boy
maz
##juran
Bisik
##fahaman
Spa
Gren
hidupnya
GO
Biskut
##LEX
##ucible
##alg
seump
Bimb
manakah
V3
##irim
bantahan
berehat
arrow
Pandang
papa
mertua
penempatan
bangga
##ULI
##ADILAN
KELAB
##edak
mencetuskan
Farid
Leon
##OST
ditinggalkan
menolong
nampaknya
KUMP
Minta
Coc
##alim
Alk
batas
Yaman
##XU
##igit
Pasifik
##vent
Street
##ogrid
zah
##Health
##alawat
Tukang
tersebar
##amili
111
dicipta
Pengikut
influ
##oon
insurans
Diego
bercerai
gereja
Rewards
Congo
MIC
dipindahkan
##zen
##ayanya
County
##ISIAN
Followers
SAMBUTAN
##ENDIRI
Sesiapa
ps
disambung
Sudut
##igo
Berhenti
##ety
AUDIT
QY
Legend
Enterprise
two
farm
##juangan
ci
false
tular
ENG
Toshiba
rom
ILMU
ler
##idth
##epe
again
selari
mendesak
Muslimin
relevan
##isikan
input
dikalangan
##UMAN
Pusingan
##alai
Pow
dimaksudkan
budi
APM
mobile
##iptakan
##ajipan
##nat
tauhid
Sifir
##ono
tegur
Pidana
ASY
Rib
cond
jimak
dong
##afal
nafi
FF
Kebaikan
kuliah
##Script
into
menjadikannya
bosan
Grafik
paten
hitsROS
berbunyi
##asiliti
ARAB
Maul
BLOGGER
second
List
Ox
##ados
keduanya
Development
berupa
##ancy
reserved
KG
##кра
eksklusif
PERUBAHAN
Visa
Azlan
tingkah
Translation
Petang
Biro
sujud
write
Zikir
##geria
most
sulit
menanggung
piawaian
Sesetengah
##INK
##auna
Ferro
rukun
##AWLER
mengab
##ario
melabur
Perpindahan
pussy
CRAWLER
nyer
Matang
penghasilan
ABA26800XU
##olik
PEMANTAPAN
##370
RM500
Exc
ekoran
Sumatera
PENGEDAR
Akh
Line
##Tag
##CLASS
dibandingkan
##ENDER
Rot
ambik
BANTUAN
menyeru
##краі
stroke
TEKNIK
Diameter
ZUL
Sebahagian
Rabi
Spare
##нсь
Saluran
##ANGAT
Sari
ten
AO
disemb
Terkemuka
##краінсь
moto
##iayai
##ewaskan
Bilstereo
Cle
##agenda
serat
meneliti
pengerusi
com™
Metal
Fly
December
kupu
Hen
sapa
##uruan
87
Papar
Sentiasa
BICARA
cy
utusan
##atering
SGS
Tig
KS
YAHAYA
##ITAM
##GUN
Perisian
InsyaAllah
seles
Mesra
subscribed
##egal
diterj
Penjelasan
ayahnya
BISNES
Dongfeng
Langsung
##kt
##iu
Syiah
##paun
##atis
Hon
inginkan
bikin
Slovakia
jemputan
##ingkai
Virginia
##To
##eraian
Transaksi
Tong
ibadat
Santai
##RAF
keping
##краінська
Aluminium
hamp
reaksi
every
##elakangan
Sinopsis
BAB
##ifa
dirujuk
ekzos
BBM
Lay
Suri
permas
Kuih
kesesatan
ide
Tanaman
##untungkan
AGONG
Platform
OM
BAG
bererti
transition
Juli
Dipos
KM9465
Pemprosesan
##ooter
##AMRI
##PD
##eha
4G
##avor
##aidah
niobium
Civic
##316
Stain
pk
berisiko
target
Classic
Perodua
ass
NIL
STANDARD
##estone
polit
Fri
##aihi
##sak
##onim
pengendali
keje
translate
TD
##alis
River
seminar
Perlombongan
##vador
##ulin
##Plus
##adun
Persoalan
Jambatan
##X4
mineral
League
Tinggal
ra
bumbung
##atia
Manch
alhamdulillah
Spin
TRAD
##rg
dibuang
KEPUTUSAN
##resi
Kuat
##ejet
sertai
Penyalahgunaan
Lakukan
diantara
menghina
PRU13
##emon
##utri
mahir
imageCLASS
##ogn
Music
DC
##daily
##IFA
##akasan
Diamond
WANG
##estyle
##xt
Fath
##otai
BUAT
na
##ividual
KECEMERLANGAN
##utuh
final
##emari
Meskipun
PENTING
##qd
PANGK
gur
sekatan
memuaskan
sentim
penyi
sarjana
##roduc
##luaskan
158
Mingguan
##abad
Ikhlas
degil
Hold
VII
##tiang
Artic
Mokhtar
Palsu
penghujung
Reply
##AIH
Tokong
perwakilan
Razif
350
Olymp
##emburu
##Sc
kefahaman
Tulisan
menyuruh
##ITAN
insentif
##6D
5000
##EAL
fer
dirancang
dapati
Pass
##ecially
Semulajadi
JavaScript
pic
##anjil
##BS
Berkongsi
sekumpulan
Nikah
##IVERS
Gi
berupaya
Well
imun
aluminium
RAMLEE
pelabuhan
Dian
membangun
Kaca
Sunan
johor
SERTA
pindah
komersial
##tick
##ALAMAN
Bandung
##itikan
##BIR
Kekuatan
##other
##ekad
CIMB
mendirikan
##URA
BAPA
Pear
persepsi
malang
MAKANAN
SEKARANG
WAKTU
lisan
Ink
##aux
COL
ay
rundingan
##trik
##embuhan
Pemenang
##SHAH
##agic
pegang
SEM922
##ongs
Pemantauan
dijumpai
Golden
##illo
mengakses
pembukaan
##aloi
##use
medium
JAD
Melakukan
Ning
MAD
##OO
Dj
URL
Sisipan
Saringan
Politeknik
kejatuhan
perlembagaan
##emala
Siapakah
255
rent
June
##ampungan
RALAT
terdengar
##bangan
reply
berpengalaman
byk
RAHAYU
rekaan
Costa
bertar
niaga
mamp
dimuat
Holiday
berbicara
Officejet
Tamil
Chi
aneh
Machang
##rost
Febr
BAJ
Bangi
Minum
71
peduli
kesus
Ill
##roker
Tungg
##enna
penglibatan
Ship
Rad
##eaker
Berambut
1994
identiti
Championship
Cin
Penyelamat
##prus
rutin
##elir
DES
semenjak
social
JUM
pemantauan
beza
##HM
found
rintangan
##bour
##opia
##anggih
Fah
##lash
Pantat
Unc
Rakaman
##mont
##ugerahkan
juadah
Equ
jd
##anto
Cot
Za
##enian
mereal
##antasi
Kanun
##OWN
regex
##entasi
tingkap
rohani
##ource
BUD
Pandan
##olan
Keyakinan
penerimaan
##boy
##erse
COMPLEX
Bio
KPDN
Soh
Majid
bersaing
pengawal
##125
Ummah
##unami
merc
SCH
nom
##ission
Mujahid
##elut
##stal
Usul
##ajui
##perties
KELOMPOK
Lailatul
bini
##oros
keistimewaan
AMALAN
Mik
Gps
kag
Mill
##iharaan
Colorado
##tics
##erty
Associ
##ENCE
rayuan
alt
##tiar
##ano
ARAHAN
disambut
karb
##itinya
##uatemala
click
Ts
JKR
Yasmin
Haj
Year
##udar
KINI
IV
JAKIM
Sampul
BEK
Holly
PRU14
##INAAN
Pengangg
AZIZI
Penampan
Focus
او
kesabaran
##ajibkan
fotografi
##utrisi
siaran
geg
potongan
##gaan
##isia
henti
Kastam
84
TAR
Harimau
Morocco
Sharp
some
Wali
Lite
Pengeringan
AJK
memaksa
##izer
Cerai
Washington
##iani
Pengasas
Trop
##vel
Maharaja
##LP
October
siti
game
##jak
##impa
##YO
Azan
berjanji
Invest
ISMAIL
Juta
Tarik
##teri
##ampai
melarang
##arus
##rough
menampilkan
##UARI
Siap
##UDDIN
Hantu
tanggung
AWANI
Poly
diseb
Regional
##anau
lembaga
Jelajah
fb
fiq
tur
aurat
mendekati
Bendah
##asinya
##osip
Sonata
##import
##well
anggaran
Nisa
##rogen
Tanam
##EEL
Serai
HARIAN
penerbit
PERHIMPUNAN
heavy
Canon
##adak
seper
ungk
##tipu
instrumen
bertudung
Rompin
Berjamaah
deb
##upai
William
sif
##vat
##juangkan
Tamu
bagian
Algeria
kud
Industrial
hitsROSLAN
##med
panic
penerbitan
##يو
hantaran
##urnian
sinar
##ONOMI
Rezeki
Trending
Mum
Penyanyi
sejati
smp
pemutar
HER
dinar
hawa
menempatkan
##wani
matematik
##alisa
##ikharah
##تو
merasai
berpotensi
Bermain
Iq
##did
##kanlah
##joy
##ITAL
RD
Tolong
Rizab
2017M
Ilham
akui
##uduh
kepalanya
AU
Events
Hidung
wajahnya
##mais
Motorsikal
gesa
Infografik
dibentuk
##hatikan
mencatatkan
pegangan
##ongkat
berin
penyejukan
Hip
##stra
##dayaan
memasang
people
DIB
Test
1980
Takwim
kolesterol
Salahuddin
##UTERAAN
study
Vib
maksudnya
##rew
##LINA
penghargaan
94
Temuduga
TIM
melayan
tempatnya
Original
Tahukah
##eritaan
custom
pemaju
awalnya
pulangan
##okasional
##AWI
##sapp
##ulurkan
Genting
SAR
##FR
curang
Sik
nav
Michael
RTM
##ingya
Union
TV3
PEMBINAAN
Eksotik
3g
beranak
berbau
Membayar
##Hp
##omasi
##uras
MTQ
Bulg
SEKSYEN
Dalaman
##lina
Rona
PERKH
enak
##enggong
##Jo
Chicago
tugasan
Avenue
memanfaatkan
fin
kus
##tenance
EKONOMI
berkat
Kepimpinan
Corporation
Lelong
Cuit
DJ
Servis
Venez
REKA
nipis
##ifesto
DEUT
##emimpinan
Sau
Takaful
Magnet
PERKHEMAHAN
bertur
TENTANG
February
dirawat
muntah
##eres
ketentuan
LBP
Princ
skit
BERH
##rahman
KK
PARTI
saintifik
##ESIONAL
LH
ATAS
kelengkapan
berasingan
KAL
##du
##angkatan
menjauh
Dup
##erpool
added
##amaica
107
ADUAN
Emirates
protein
##logan
paksa
##ashar
bercinta
##سن
##ecut
Manufactur
UMT
Candy
xde
kejuruteraan
Dengar
Yuran
kalendar
Vinc
ketak
##ANDU
pelacuran
USIM
Siasat
##Peng
##nye
##NAIM
Vand
penyelewengan
DEUTZ
kemaskini
ton
Canselor
YAY
Melancap
##ualian
Hantaran
Dada
DARULNAIM
asp
PENER
percubaan
hujah
mencatat
##ameter
Join
Tanj
##uak
milf
pengurangan
jersi
##ugar
pameran
LU
sombong
Patut
terbunuh
Mono
##angku
##elakkan
transit
KJ
kemiskinan
menara
MAKAN
Iklaneka
hom
mee
##aska
##afizi
BENTUK
Bea
Budd
##SHAHRUL
mencer
##Pan
hitsSHAHRUL
##actory
Juni
92
Organik
##OND
Manchester
viv
spek
##ritis
Eq
tom
menjayakan
kebahagiaan
Kehakiman
##ashi
plugin
membela
bercampur
speed
lautan
berkait
Ty
Alasan
Ga
Properties
Country
Slide
##fitel
Haut
UNIVERS
kalimah
Sofitel
kepakaran
ANJ
Kemalangan
ribuan
ISTAN
##enjar
menaik
brek
news
##ontak
seribu
episod
##aiban
Rahmat
film
##ebalan
subur
Segera
##IKIN
Psik
ckp
mengerti
##lahi
Agro
fucked
Cayenne
Latin
##ential
Edition
tingkatkan
marin
##agement
rakannya
##elanjakan
YAYASAN
level
ret
##mualaikum
Trin
##do
ketenangan
HGR
KASIH
manual
senior
MV
memperolehi
##ktop
Boliv
ملا
kompet
GALERI
Ana
PENGISIAN
##erangi
##ques
tunas
##isahan
PERP
Republic
Hist
Liberal
##uaraan
##elbagaian
Biji
Kant
74
##rict
Kesemua
MESTI
Matahari
##ehouse
MAX
##dong
BEB
KTM
Supaya
Konvensyen
ملايو
dolar
vari
Kurus
pemahaman
Cyprus
beraksi
Pier
##215
Rej
##sema
MANJ
khat
Seed
baginya
Bung
ADALAH
tengahari
Tanggungjawab
Wolf
##urutera
Semeny
SING
Kond
kipas
maya
Store
murni
beserta
lar
baiknya
91
sempit
Fair
##esti
##eluargaan
##awawi
Head
Light
##batch
Sejahtera
##G02
mempromosikan
bertaraf
350000
Tam
dibentangkan
##oalkan
tum
Ammar
says
kejah
SUP
##nr
##apisan
diproses
Macau
dhuha
Bis
Cakap
shopping
Germany
Lor
Stop
hudud
##tuduh
Louis
padahal
##stone
Kup
pa
Nizar
bsn
##3K
tembakan
PPS
Penyelesaian
pelayan
disenaraikan
kehebatan
##enas
##ultanan
Kepentingan
Sekurang
good
CC
sekeluarga
##IRA
##erma
##intis
kene
Biz
Gall
Loc
keseluruhannya
MUDAH
Aspek
##ibil
##duh
##agar
##utur
penutupan
Rawang
WW
##urban
Gib
Fadz
##ULU
rasakan
Mekanikal
Panasonic
Punch
Semenyih
##550
##GU
jantina
##bekistan
kritikal
888
Firdaus
##otte
mekanisme
menambahkan
##enggelam
##ricul
MH370
Traditional
MoJo
Guatemala
اوتو
menguntungkan
sas
##met
ghaib
Cuaca
NatOnline
iPaper
اوتوسن
emak
Jatuh
tragedi
teringat
##Info
inovasi
Lok
##adap
persen
Pisang
kelima
Merangkap
Fire
ZL
ol
TAMAN
sulam
Rantai
kebu
suc
Pengesahan
Falsafah
Jerantut
##eer
cTrader
Film
ketahui
##Height
TK
ASET
##ancais
beauty
Kustom
Maju
Langganan
##UNA
Karaoke
berbahasa
Karim
Grip
Lynn
Gadget
##PC
menjemput
##AID
4x2
##ampiri
VLE
SEBENAR
pedagang
berpegang
Cheras
Enam
Beranda
86
Siku
work
##rad
##menia
amik
##antui
Select
##illy
Konf
digelar
permasalahan
594
1993
##ias
drop
Adib
Rohingya
JPA
mengembalikan
Pengendali
##akamkan
##Query
XAA
maruah
##uv
Seng
##TERA
Peningkatan
97
##ield
##agh
##embourg
DOC
##iko
attack
JADUAL
moh
Perbendaharaan
Rp
##owo
##ourse
##epikan
##ACK
didik
selected
Peter
tuju
##lawan
##arth
Bron
##yatuan
Liverpool
SEO
Ess
logik
Rindu
##atutan
JUMLAH
simptom
##ORMAT
Chile
##ellite
##yung
ditanam
##icken
hah
Peniaga
memanjangkan
kekuasaan
##bahaya
PEMANDU
ditak
penghuni
Trafik
Syukur
penggantungan
LW
State
dimensi
friend
Coast
terlupa
VIP
Dewi
chiffon
menyusun
East
Rafizi
Perjuangan
beralih
PJ
berhasil
Sulawesi
Girl
MET
fetish
##anga
diuji
L5
BUNG
hancur
##elai
Lumut
Fotografi
baja
##asekolah
Hardcore
Kaunseling
way
saingan
##ajakan
##IDA
CARTA
##lemen
JO
TS
penjen
Joe
jQuery
##erjaya
TMJ
Persediaan
##arium
KETI
Khairy
##IFI
##ribut
konsert
menemukan
maintenance
mengulang
Register
Yg
##inggakan
Permatang
mulakan
world
##eorangan
Wager
Qadar
najis
##rasah
sant
hitsH
diharapkan
##andra
PASIR
##ahad
didedahkan
solid
LASER
Stainless
Bir
##ZZ
##ILL
Abi
merealisasikan
##ongg
lapar
##urch
persidangan
perlulah
Yak
##Bl
652
well
Panama
CERT
HANYA
seawal
Lic
balak
##Net
biarlah
minutes
ABU
##sar
##usu
memerh
pelawat
dituduh
##cons
Johari
##isen
Dyn
##eret
Pilihanraya
nuklear
Cherok
EKS
Adr
kenalan
##ompak
MEND
dagang
Booth
pesat
##count
Antar
##essa
##iklan
Tetingkap
terikat
Muslimah
SILA
Titan
Megane
hakikatnya
wakaf
Mahf
Jersey
Made
##maisuri
Rohani
TERIMA
SIA
fahaman
serb
loop
dijadual
##apus
Benda
even
Siber
mengadu
Hanafiah
kebetulan
##istret
Baq
compl
UNIVERSITI
##anche
KOMUN
##ography
Pengajaran
##uriat
Italy
TANPA
##siat
BF
RC
Fabrik
Gat
PETRON
efektif
##apor
Salvador
mentor
address
persetubuhan
Prop
Mek
menetap
Report
Padi
Channel
##QA
##elaks
Merokok
Taib
Jari
mengundang
prostat
Iklim
##AWAL
prihatin
660
SEG
Belt
AMK
Amy
##ajarkan
Ziarah
ratus
dias
KAMPUNG
demonstrasi
Kegunaan
whatsapp
moral
##injal
keindahan
##algia
Ric
txt
mencuri
##anggah
##fm
header
General
servis
tafsir
Riwayat
Aiman
Yellow
flo
dibatalkan
ISA
pilot
tin
Jamaica
##Sl
##mes
1985
TADBIR
ramalan
Diana
Garam
##enggam
SJKC
LANGK
Forester
kebanyakannya
##NIV
resipi
##iy
Mulai
pal
apa2
Bellow
kebij
tertekan
mengalahkan
##umbat
kompr
Thund
##emparkan
Cool
Bedah
berkenan
Keahlian
gasket
CERITA
##Kini
FAR
##edu
##siapa
Kone
KEMB
bincang
kaji
saran
##ando
##ATSU
MAHA
manja
##juh
kesuburan
Arah
Fuck
##HG
Stan
##xia
Sports
Dalil
##ungut
##agas
Penyej
Konsultasi
##asrat
##ZI
##ULAT
bersemangat
##lr
kejam
BNM
Filamen
use
penyampaian
tabiat
##EMERLANG
Hidangan
OVF
Warehouse
##pal
CEMERLANG
bersungguh
KELAS
Cherokee
##WAN
keberkesanan
pertolongan
Pentadbir
influenza
SUCI
jalur
Perikanan
terperangkap
cook
pertamanya
##ovice
Bikini
Nev
diguna
MBJ
##kara
Alm
Wei
kriteria
head
Bahar
kesah
PROFESIONAL
Hijrah
##JANG
##afat
Kangar
Hamidi
##itions
750
##ente
##uarakan
Demikian
peluru
UNDANG
som
Malta
Khabar
##aptasi
bh
Katil
Tome
DIAM
Razali
##ibahasa
meluluskan
Drop
Kop
Pingg
assalam
sebabnya
Story
Mail
##eping
##tahun
Keldai
##TON
##afa
Sasaran
Hall
##mall
##HEN
being
##GOV
KOP
##ENCANA
galanya
##LIMEN
hard
Roti
##vo
Lc
##Width
Shawl
SJKT
terkait
##uga
##ugal
Hond
1984
##raga
##Post
##EEN
keliru
liga
93
pengiktirafan
LOG
##angis
##ERD
ULASAN
##aban
Peru
Carolina
##3G
PKS
perbicaraan
##itual
Nurhaliza
PRES
syariat
Lexus
step
Urai
LOP
##ejay
##siah
##ewakan
syukur
Rental
Keempat
FAT
HIJAU
##itasi
Suria
SEM921
MESRA
waris
##afasan
berdagang
kondom
Lanjut
##ctica
##usa
ceria
##intir
##ogo
Wall
markah
HIV
Adnan
Armada
Kemerdekaan
##elia
##nal
column
Gaza
##angguhkan
Alloy
Make
##ongkang
KETIGA
##anjat
keber
road
rock
Komponen
IJ
dikurniakan
tentunya
Pilah
##ADAT
KAWASAN
1992
Persembahan
petugas
##GN
berucap
Upaya
Ebook
JOM
##ollo
Pelekat
pengertian
Croatia
diaf
Siam
Segamat
COR
Medical
Laz
##ulangan
kapas
PARLIMEN
##tax
company
asfalt
pangkal
dianggarkan
##eritahuan
optim
Maser
RA
SEMBILAN
Tunggu
temu
Hindu
PENOLONG
perbualan
Penglihatan
pusing
Puisi
menumpukan
HUS
Nikmat
Telur
##ambique
188
##antuya
Biasiswa
##elintir
menimpa
dicukur
buruh
pernikahan
Penerima
MENC
Gug
story
rangka
##orf
pengiklanan
Nex
Telek
##ebang
IR
terbitan
Room
##ISIS
JKKK
dihadiri
keag
coc
##JIL
JAWAB
zoom
##unjukan
MPM
Lipis
Please
LAST
lucu
##ulk
Bob
RAG
Solekan
Riyadh
##uld
Isyak
Axi
##elih
##este
Fib
Vaksin
##KAH
##egrasi
Tekan
##emens
REP
bertenaga
menjilat
Dominika
Cancel
FIZ
splited
FIFA
gelak
Bayangkan
lambang
##isher
Habis
Od
firman
travel
##erhaka
##tiva
Gemp
Spur
diafragma
Ca
Manek
Columb
obat
MP3
Tumbuhan
Gara
##egakan
##ismillah
PEMBANTU
MI
lamb
dinafikan
TUDUNG
##pose
pernafasan
Bazar
##AKAR
Dut
Was
tertarik
dinaikkan
##strak
rapi
##win
PERTUAN
melengkapkan
berturut
bait
diajar
berair
1970
##eksaan
##ahasan
Masterbatch
Tunas
Persaraan
##etujui
psikologi
##encies
pric
melaka
##tifikasi
slip
DIRI
##onna
menyiapkan
Althea
##ARAAN
Yunus
pelekat
Lenovo
merasmikan
PELAWAT
##rifugal
bun
OST
##ylene
Pembangkang
TRAV
Keusahawanan
tergolong
bercadang
titan
pelarian
sembelit
Bosnia
##yes
Kakak
didaftarkan
##NIVAL
beribu
Rat
SENDIRI
asap
##uP
##sigen
##ITAR
##ACA
BAS
kun
Kebersihan
Suntikan
ternakan
Malim
pengendalian
Rujuk
Disk
aff
Genesis
MINIT
##RU
Oliver
Normal
Teka
tekan
Alana
Pena
menjimatkan
Bursa
Tangg
ditembak
Spot
Moga
Sumatra
BAR
Ekstra
Alumni
inner
##avel
big
GE
##bang
Sorento
##icarakan
Pensijilan
Rekabentuk
Teacher
ster
Kiriman
pertimbangan
Penyidik
keluasan
96
Transformasi
mulutnya
ISTANA
YG
zikir
dipotong
kebal
##YATAAN
tq
Silicon
PIND
Meninggal
PAKATAN
##JUNG
Laur
##rankas
Nok
Baja
Sehari
bising
job
KARNIVAL
bersempadan
McD
##erbitkan
Datas
Setiu
KOMPUTER
school
kebudayaan
LAZ
FRE
ketakutan
gund
disk
Sov
##768
##mg
menguji
##AZLINA
Patah
DAH
##iringi
##ugaan
BERAT
Deejay
mikrofon
moga
tadbir
HOTEL
Tob
Sea
universal
keatas
memor
LELAKI
TRAVEL
LAH
Cell
##ful
menonjol
##uritius
menyesuaikan
##akui
##ylon
Fadh
Gil
mendi
Mass
##PORAT
##lia
##etar
terengganu
Pendang
Tiket
Armenia
Seseorang
Pearl
##Panel
PPBM
Upah
merangkap
KORPORAT
Francisco
##ADAH
Password
BAHARU
Kalung
Km
tegang
Mahasiswa
digantikan
Format
Jose
Hom
##edari
Grup
Chinese
lembaran
menakjubkan
Ventu
menanam
DNA
Ext
jasad
DAIH
Farah
Kasar
Generasi
Pesawat
Uzbekistan
iv
jutawan
DAIHATSU
berbu
Venezuela
##128
KOKUR
Tengok
Terat
Bentong
##SE
Magic
origin
SYARAT
Machin
dendam
LC
Indera
##yamuk
Tulis
udang
##HAM
Pembaca
Xiaomi
ASYIKIN
Pasu
DARJAH
TOK
pedas
tekak
##view
shar
Panc
integriti
##annya
ikh
penguasaan
Jodoh
##haan
##uasana
##2u
Sumb
##head
cemas
##endan
Jasa
Zero
gal
sales
##tamad
##GV
Elak
pertik
health
##fly
digalakkan
Det
Ringkasan
##edung
Taklimat
menjalin
Yaak
##eon
Tunisia
labuh
Gor
dijelaskan
Amar
induk
Bulgaria
##Samples
actionCallBtnText
SUAM
Ori
sampaikan
SIJIL
cabang
gantung
##essage
Anton
Resp
KOKURIKULUM
##daulatan
##ecahkan
Kenangan
rantai
Terminal
Assalammualaikum
##Gov
Makluman
menyusu
Biarkan
##esk
Kolam
memperlihatkan
##olis
Shipping
Language
##osio
Butt
WARGA
ditempatkan
612
SEM822
V3F
Syaikh
Segmen
azab
asasi
PROFIL
farmasi
Speed
berputar
canggih
komik
PILIHAN
Central
ibar
derma
Membawa
Cip
berdaya
bp
LGBT
Guangdong
SIR
##uro
##OTO
REJAB
feel
##ather
Menerima
Korban
NAZ
##inati
Azam
wasiat
LASTAR
##onian
hitsAZLINA
terjemahan
Suasana
seberang
##orasi
peminjam
uploads
##osk
Manjung
sahih
Prab
Tex
PERTANIAN
Firman
supp
pengganas
Shamsul
Nexus
ISTI
Slider
laz
Mig
Pemanas
Kampar
bujang
keterl
bertahun
bateri
##ocol
Captiva
Cecair
##ucks
Setempat
KUMPULAN
Ruangan
##ahnya
alm
lag
##encina
Bani
Brankas
Malaikat
cup
seksyen
Powder
Terr
pendakwaan
##larasi
##quran
##embara
##earning
BSH
Gerak
Perfume
apapun
SHAR
om
##edarkan
menekankan
Alban
siapakah
##Code
Crucible
##odi
Sahaja
Raid
pengund
tahanan
UTC
##biotik
penglihatan
##ONE
besaran
##ALU
Tampin
Suku
##efahaman
Hikmah
kemana
KBS
outer
Balasan
AMG
FCC
24Info
24InfoHealth
##rina
Era
Akar
disyaki
berfirman
##QU
Cros
BUNGA
berhasrat
1991
##berg
layanan
DEAL
Fiqh
spekulasi
##amana
sebutan
blu
##ilia
REL
WA
##pot
tiroid
VIRAL
tunduk
##entrik
bersara
vertical
mood
Perbu
##adiyah
##aren
dihormati
Instr
plug
##icipal
##ussalam
dicari
vaksin
bergambar
rab
Jami
##ecahan
ciuman
Medi
##yakitkan
##inn
hidden
##vis
##erox
kepadamu
Luxembourg
##urangkan
memeriksa
##ecuali
##AKIT
kenali
modul
##zhou
DIY
Singh
diriku
##JR
B40
Rica
taknak
##itary
membangkitkan
simpati
control
##uler
Hos
PRAS
Cooking
dihukum
Apollo
##olo
Telinga
Bou
Gian
magnetik
berkawan
Pindaan
##riot
Shirt
UB
Yamaha
##EAR
##amit
Cop
Tunjuk
nadi
RISALAH
perihal
busuk
IAC
##cuador
PBS
EXCO
##Mal
BERHAD
TAMIL
menandakan
ahmad
Qib
##angkau
##eph
SHEN
PETRONAS
##jiang
WIFI
Zub
span
##EMAS
Opsyen
Challenge
kunjungan
praktikal
Teg
KELUARGA
Dif
Latvia
pertempuran
OB
menghidupkan
Mozambique
##YDE
inspirasi
Organization
##ctnr
listctnr
Rai
Bean
##onyet
tenggelam
##ehatan
Khemah
hina
taks
Nelayan
##tronic
TAMB
##ALUI
REF
binaan
val
Stroke
MW
##APAT
Ikatan
ikuti
##ason
segelintir
BK
##rvat
##iyyah
komposit
balai
##ikam
kemarahan
Jerawat
##gsm
##ajaiban
silat
Peri
##ibo
diluar
MUK
mir
##aringkan
Janganlah
nes
##omestik
jarum
Laju
##oal
##ito
##ARIAH
Bahari
SUN
Honduras
##eaming
MENJADI
Sumpah
kesukaran
cend
teguh
setubuh
##SW
SHOT
dinamik
domestik
Wir
match
Jos
menewaskan
##ahanda
NILAI
##FM
Talib
RI
khasiat
pemacu
##04
berjudul
kesed
Point
Aspen
81
Stra
bagaikan
MonoSpace
disyorkan
china
Dy
mangkuk
5K
cuci
uj
meraikan
Usia
##epatitis
Sering
Welding
Happy
ej
##miah
##ihi
##EMIUM
respons
##DM
KLYDE
PAT
bong
##alukan
ECR
denggi
##atured
Centrifugal
Queen
DIK
##PL
PUASA
Majistret
Angin
ibarat
##ithuan
MELALUI
Diterbitkan
##rostatik
##ewan
Ji
##wich
komentar
Tuntutan
cir
kuil
Menjelang
Topik
##GAS
DT
PIAG
##oen
OctaFX
Jagung
##itsu
##ABI
Kembar
Yesus
gim
Dor
CSA
dato
PIAGAM
pg
##UU
Buang
##rvatski
1px
##ASAAN
Asrama
DIA
1987
Sets
##ois
##laah
posting
BIMB
TB
Instant
HADI
KATA
##loyment
dibincangkan
sos
dibantu
kedengaran
RT
mengukuhkan
belian
Used
bersabar
ele
Semangat
Asam
##eranian
periuk
Rupanya
Kekasih
Jaafar
Aurora
##eem
OnePlus
RAGBI
ECRL
author
Saifuddin
ari
Mobiles
pod
Puncak
##moni
##olok
Naim
puji
##dik
##usikan
jalanan
Peserta
parents
1200
tubuhnya
1280
##La
kalinya
Dn
mi
awan
APR
##timbangkan
Py
Rey
mengancam
Brid
##add
pakatan
dinilai
##ABY
##WAR
PAP
Mauritius
##arafan
Malang
india
Kutipan
Hanger
jejak
Jobs
Jawi
Cerpen
##elilingi
##umpuh
Tembak
##AHIRAN
Salim
MIS
kelikatan
Jessica
Etnik
August
terbalik
Lautan
Permaisuri
house
Penyediaan
Nar
##olta
redha
##alun
memproses
bayangkan
Brother
##urung
ketegangan
syahwat
Buddha
##erikan
AYAT
##ETER
Mom
##etti
melihatnya
empayar
RON
##bal
digantung
Hilangkan
Lawak
Nan
construction
caranya
Berw
Dedah
pujian
children
Studio
diak
Memandu
##uguay
MENGH
Potongan
contest
His
berz
serah
##umbangkan
##isioterapi
biskut
Bersepadu
##lamak
arc
YBHG
Amirudin
##imedia
laksana
BAYARAN
kebelakangan
Ringgit
Nora
TRANSFORMASI
##untung
HJ
neo
Komik
Bercakap
makmal
Titik
Agenda
perbandingan
##enah
##itioner
Municipal
hilangkan
memulihkan
KEADILAN
Kapas
##ANGSA
BO
Citro
pura
Slovenia
##iranan
look
Abbas
Permulaan
##imbangi
respond
Bernam
Access
##OLA
Twist
##ANJANG
sabun
bergabung
Dol
##zh
Scribd
Wahab
Gagal
jururawat
tayangan
##KI
skala
Bac
##EF
##ipulasi
##715
kritikan
KENYATAAN
Sav
Pengetua
diberitahu
absol
Empayar
pricing
menuduh
perkampungan
Silinder
PERLU
##rigid
dijemput
Sudirman
Advertis
KANAN
##APP
Lahad
damai
Profesor
EXT
Citroen
erat
##ecat
terjatuh
##presi
Caravan
Center
wad
berbaloi
silam
dikunjungi
live
tender
Samar
##ianat
menyerah
##reati
4V
LOK
##thing
sopan
Sederhana
sultan
Yakin
witir
berkurangan
Emb
commun
getElement
hil
persahabatan
Tunggal
holder
agresif
plus
meyak
##hire
lan
##ungutan
tk
besarkan
pipi
##ketatkan
##UDA
Risalah
##ahul
jelaskan
Bolivia
NAJIB
menggerakkan
laras
##ems
##ept
##acak
Genap
475
Dosa
cor
##USIF
KAKI
himpunan
zat
##imal
Insp
modern
##ohamad
##yer
##lien
##mpu
perlombongan
##lul
CT
pelatih
while
baka
Geg
sendirian
Jururawat
ELE
##udup
PENGURUS
##uments
Istiadat
316
pip
##amy
BAKAR
Serdang
SN
Adawi
hehehe
##ulitan
sedekah
dipandang
munasabah
##ingkirkan
##eransi
Nina
##JEN
monyet
Komentar
upah
geran
MotoGP
Larangan
##thday
Raub
##ean
Speaker
Fik
Memahami
vot
kelemb
Azizan
##tulu
hargai
Anna
MINGG
Wafer
PROT
sepasang
Puk
pengakuan
total
SSR
RS
##wh
##amic
HEL
Sirap
B22
##IDE
LPT
There
dirimu
Matlamat
litar
##apse
##ENA
Keterangan
WAJIB
##ambungan
Tribute
kepadaku
confession
jak
##can
Guard
##OID
##enali
##uckland
bazar
dibangkitkan
arr
NIK
direkodkan
suri
Sinaran
kesian
kacau
##ocor
PIS
Marsh
Geogrid
##etihan
persaingan
trading
kecemerlangan
dedah
##reas
inc
CRUZ
PERAT
##HL
Little
Imun
##rowave
Mengatasi
##aguay
Voya
Rokok
##x768
Pensyarah
menyekat
sejam
memfailkan
##percayaan
Escape
##Id
650
Tony
##UTUP
Jaga
malay
liputan
agung
SEM816D
Yu
##360
TAHU
disertakan
Pengeluar
Satellite
membah
UC
Wis
Syaitan
Buffer
ELBI
##USNYA
Goods
##sip
NOT
dibebaskan
taat
Penimbal
Calendar
penyebaran
Phot
Gur
Yong
suntiang
Kehad
tro
Rail
##izik
berperanan
Auckland
tampak
Istilah
biasiswa
Libya
cakera
Hendak
Sebelumnya
penganjur
Pulang
Uncategor
Bund
##erior
molek
Terms
##rod
ques
PETALING
split
##atukan
aktivis
Berjalan
##utuhan
esp
alaihi
TAHAP
elaun
MTQSS
##just
dipetik
##ــ
planet
Maserati
NY
mencetak
STATUS
CRUZE
musnah
Maut
pria
sasar
berisi
##ovan
rusuhan
XG
##acat
PEMIMPIN
memperjuangkan
Tum
Straits
##akes
##asurat
RM6
##nakan
berkep
Bagus
selia
Sentu
lebihan
cool
gempa
112
bersiap
mazhab
##ibia
Perdata
san
diurut
Buloh
Konica
##BAN
Optima
Nokia
hai
sit
##ADU
Navigation
Beet
Pip
##empol
kalsium
penunjuk
seragam
didirikan
Wit
##idad
putar
silver
Sai
buru
Wala
##ancou
TEG
bersaiz
PN16
kurikulum
PEMANTAUAN
Vend
dn
Ariffin
sastera
BATU
##ully
agencies
FUJ
ank
kitaran
menghampiri
##eliruan
Belize
Senjata
lel
Dicukur
GOST
Perasmian
nangis
##kanun
Lembut
##essional
Wikimedia
Syafiq
Bahagia
Zakir
Baki
##arie
kata2
Verna
Bijak
ideal
Pipe
ibubapa
##oakan
##niat
kejutan
Lagipun
Mahfuz
Dang
Motosikal
TPM
STA
##ULLAH
ibn
hitsMohamad
Social
bb
##ius
Factory
desc
##utrien
diameter
Perkilangan
Tetamu
Gay
dekad
berangkat
##orra
perpustakaan
##Raya
wali
askar
Tandas
Lucky
terganggu
##anet
dianugerahkan
HAB
Lenggong
kesem
Selangorkini
urutan
Zenith
Texas
##ithuania
kedah
##Hy
Station
berkali
Enzo
Persekitaran
Lokal
menyakitkan
##GI
puteri
##YAH
##olitik
HAF
Nitro
Sedia
##utik
Molding
##nas
##usuk
memindahkan
##лг
kompos
Pantun
Check
BERL
Soph
Dimensi
tonton
##elamat
iya
##syat
##TIN
Sewaktu
##ORA
parut
##aron
##ebus
templat
pinggan
Kehadiran
swt
Husin
IPG
Isma
Alkitab
pengarang
minima
classi
Perusahaan
##ardi
dimeter
lafaz
Maxx
##ълг
##erus
##iriah
##ългар
Tau
ASB
Calc
Hebahan
SEMULA
Padahal
BAHRU
Kus
Sidek
##ългарски
menggabungkan
HAKIM
##g2
##amaian
##ondan
##suai
Mamat
Kecemerlangan
Loop
##HARGA
##entury
Nikki
hisap
Site
##unyaan
pribumi
kabin
##EDIAAN
Tabika
##ycra
TAWARAN
Bug
RED
Perip
##ENALAN
RM12
BERM
keselesaan
spread
Embas
telek
dimainkan
Only
##uss
ketenteraan
Ujar
Pauh
##ifilm
Fan
Litar
PAL
##hairah
##siding
##mum
gemuruh
Curi
Ach
kebas
Employment
##ingkali
##emoji
STAR
Penjara
PAC
##emm
membezakan
kesimpulan
Baghd
##urairah
aura
A105
mempercayai
Bib
Mali
##SURI
Anas
Pita
Hidayah
Multi
Hello
ketahanan
Any
Magyar
Campuran
Individual
azan
MERAH
##OF
Xpresi
1366
Voyager
fuj
Mengurangkan
SEMINAR
Disini
Kids
Kebakaran
Jalal
##bau
tertuduh
##etrik
Sb
##abl
penghulu
##ught
Belarus
berdosa
##cdn
##kub
##izat
tsunami
Maahad
##echt
Altantuya
Baqarah
banglo
upacara
##EMPAT
SEM919
##900
##uhai
Sabak
6204
perf
penapis
gergasi
scheme
Tapah
##onsor
mitsubishi
Serta
Other
##Kad
##UTUAN
Youth
1f
Relaks
##kin
system
##tunya
dikurangkan
pukal
Sell
Magnum
PERSEKUTUAN
Dai
H3
Soviet
kehakiman
Ecuador
PATI
Stock
pita
JPS
lit
##cc
wood
##zer
##olehpercayaan
##umpaan
Viper
Taurus
SETER
Khir
HATI
Wawasan
muzium
##anjangan
pendatang
##ASM
Donald
DIJ
maxcdn
##Eng
sepertimana
Tul
Pengec
mark
Wagon
bersed
Tunai
Deng
MyGOV
INTERN
##herals
JKM
Milestone
ISTIADAT
NFC
Membina
##cepatkan
kejahatan
SETERUSNYA
mutlak
##rinter
Stoking
zahir
Peripherals
CAS
Iya
filter
##ewek
DPS
Hud
Suite
##elung
fardhu
##asher
diangkat
BILA
Mengambil
SEPT
##Na
disebutkan
Gun
##kulator
##orna
Dinding
rumit
markets
berun
Bera
Operator
##arti
ikatan
##igan
Sukarelawan
##7Rookie
Lapar
postdate
Tarikan
Bedroom
Hurairah
##uareg
Khazanah
Bintulu
katak
memasarkan
mukim
Dinar
##band
##AAAAAAAA
asalkan
##asifikasi
Holdings
lemas
20px
##ewoo
##IKIR
Beetle
##riminasi
##zania
PW
skrg
Pertuturan
badannya
Rum
Kehilangan
cubaan
##ILING
Sahih
chef
##KIN
Abah
melay
images
fatwa
Santi
##vet
M35
##UMEN
artic
##unty
laci
##erib
rumput
Mans
Elakkan
petroleum
1440H
Nylon
##unggah
prim
Teams
##aragua
ULANG
Gripper
Bai
Kesultanan
Touareg
160K
dikuasai
I30
dikongsikan
Induk
MOHAMAD
Sena
Rupa
##inggalan
##tikaikan
36x
ansur
##OSH
INFORMASI
oksigen
Allaah
artinya
##vensional
##ebumikan
Raider
##hed
Durang
Laks
tarian
bangs
SEP
Zainuddin
dinasihatkan
absolute
Juz
##vas
Kelapa
Q4
ungg
taw
##anbul
twemoji
36x36
Durango
COP
Vokasional
##ancouver
##orkeling
Uruguay
bersepadu
##obe
sent
Termasuk
singing
Variasi
rover
prog
##AWAB
CHE
Kamil
##DMA
Crosst
##elo
jurang
very
kadangkala
Demo
ELECT
mengikat
Azila
Kedi
##iup
##308
pakcik
##hirlp
##hirlpool
TRADING
Lamb
fac
Albania
tes
PENGENALAN
HAK
##lav
##opter
mempersoalkan
Vancouver
unt
could
Spectra
FIR
Cho
Mau
membimbangkan
royalti
kian
diisi
##impah
##ONES
dikumpul
Highlander
##sir
SEBUTHARGA
KI
##embiraan
##ridge
Prem
dipegang
##Fr
salahkan
Kokurikulum
Crosstour
Imsak
##ungku
##uple
##ogan
berlakon
PMR
letakkan
##agut
banget
##Two
penyalahgunaan
tiri
BINT
pinjam
offices
Rodeo
zalim
##2nya
diuruskan
##acor
SMA
POST
##owong
berbilang
BALING
Kub
Mengangkat
##tudies
Labu
kup
##TIKA
berpatutan
ukh
Pemanduan
birit
Pandai
Mai
Forest
Marquis
mens
##iabil
##suri
kewajipan
selesaikan
##elaka
MUDA
##rera
##abul
##ANCANGAN
blackberry
touch
centers
terapung
wrapper
V12
melanggan
##egasi
##urano
##izar
Mariner
Sifuli
##ungkai
Droid
dev
##obak
Walkman
dibiarkan
shops
kedap
Kecekapan
UPD
##pedition
##eway
013
Turismo
##asukan
berurusan
Designed
PRESIDEN
Movie
tenggara
SENI
Ceritalah
##alagi
Bint
RANGK
##olla
##ko
##icial
1989
bing
ZAI
Cameras
omb
Akrilik
HQ
SAP
khalifah
Penjawat
FXTM
HARAM
##raulic
X10
zam
Blazer
RM200
##asilah
Ganjil
prom
Saudia
Quality
##icator
kebangkitan
BACAAN
Carl
Ster
Imbangan
Dal
Khalifah
##mmm
Sauna
Altima
JER
##ambu
tahfiz
penghawa
Outback
cemburu
fff
Semester
Imran
Panamera
##embar
##itive
pemiliknya
fem
SAHAJA
dahi
DOA
Fabric
kuman
nan
Klinikal
sta
Sprinter
XK
dugaan
kesucian
##ukanya
DiR
Phy
Razr
recent
jalang
jelasnya
Memandangkan
serbuan
Expedition
##42G01
baris
Strad
mentadbir
white
Niobium
##MAH
##entingkan
9001
##gua
##INE
collapse
Bismillah
Jib
TPPA
##impun
Jason
KAH
mengek
melambangkan
Bronco
KERANJANG
Lembu
Montero
Semporna
Uncategorized
Murano
##ecil
##UAT
Tentu
##Hubungi
Ramalan
Tribeca
##4Rookie
Penggera
##9001
Perai
MKZ
Sekuriti
Suburban
##isytiharan
apart
SAN
tertulis
LAZIM
##rigidaire
Fisioterapi
Lug
bersejarah
##iskal
1986
Miata
Lumina
nyamuk
Rosak
CINTA
Stradale
resume
Zar
kura
depa
Elizab
Bibir
##ingkir
tertanya
penyelidik
Celebrations
##hol
Untung
##vinator
hatiku
##6Rookie
Spain
Wildfire
done
westing
DROID
DB7
westinghouse
B18
##asikal
penasihat
Energ
Mitos
##incian
##coin
Jurulatih
Koh
XE
##tod
Pendedahan
cerato
ForTwo
Zur
##engang
kedalam
##Blazer
##Hybrid
SCDMA
Wnd
TrailBlazer
Dawn
Sensation™
Wndows
##mel
ActiveHybrid
Walkman™
pembakaran
Posting
penyimpanan
##tttt
jati
##rene
##opa
Macedonia
menghidap
masing2
##3Rookie
Украінська
Esok
##osting
##275
menjerit
##eof
Televisyen
Limited
##cia
Shalawat
BERTU
Academ
menunjuk
BANTU
ditemukan
##ostalgia
Nazri
Connect
Pengetahuan
angkasa
##700
##OSS
kekalahan
vi
##GH
kepunyaan
Gue
Resta
TAPI
GAR
Banj
Nabila
##ukakan
uz
Jejak
Jentolak
lun
sabah
##bin
##ghfar
Lebar
Galvan
Tomato
Konkrit
service
Alif
ICERD
sekel
Construction
EU
Mawar
Fantasi
kurangkan
tanggal
Ikhwan
HAD
Hart
##SIAN
Mald
Kimpalan
Yunan
Tempah
komunis
Microwave
Trim
Julia
walk
##embahkan
##akapan
boot
arak
Bush
copy
##allallahu
##It
Bia
##cam
AND
##timate
selsema
menegur
report
yea
##epasi
Tue
##zema
##ilasi
Nazrin
Chel
pemuka
pembentangan
menerbitkan
5m
kurma
getaran
BADAR
mempamerkan
ampun
Jeneral
DYMM
##PJ
dijamin
autonomi
peratusan
Petra
eksekutif
Bantal
bilang
teguran
KEPUTERAAN
##izie
2016M
BELAJAR
bingkai
##ffee
X5
nyatakan
tit
ponti
##etiaan
##eals
ketidaks
OPERASI
950
menguatkan
Bunuh
Pelancong
Galas
XV
##ibdenum
lorong
##hirt
Racing
CATUR
maksiat
menghancurkan
parit
##bab
semesta
##pet
Nordin
ketum
penanaman
##etail
USM
radang
##ains
GIG
##undiang
##celona
kitorang
mabuk
##rac
##ontan
Alias
GRADER
eap
##hah
meletak
eapecially
DM
Hamba
bantal
##ease
##gor
disalurkan
atasi
Kesuburan
emb
Penggali
PINDAAN
Penuntut
powered
##erdasan
playboy
CCC
gm
RADI
Tujuh
Fenomena
dakwa
risalah
darat
mengkritik
office
Wind
##rof
##anggakan
Block
KURIKULUM
Revolusi
##RIVE
tersenarai
##egro
Anis
##UKU
##imanan
dipaksa
##resh
Nenek
##lek
premium
Conc
Scan
berperang
SAF
broker
##obia
Now
Pembuatan
pencerob
##isai
hasilnya
lok
Electronic
NET
##urukan
##rauma
agaknya
Ternyata
Tadika
webmaster
##point
##AHSURI
hitsMAHSURI
Bow
##ALKAN
##ratul
Paraguay
ASAS
naib
bubur
##gian
Mantan
##abol
##kues
pengganti
Our
Saksi
kumpul
##aidi
Kongres
Jempol
##town
##EKOLAH
Government
Berpuasa
child
BIMBINGAN
##uangkan
ulas
##armonian
##imau
Keibubapaan
Keracunan
photo
##anker
##utsal
menghubungkan
merebut
Elizabeth
Penulisan
MyB
selamanya
CM
Arth
Mongolia
Uthman
Percubaan
hukumnya
##anggi
kemunculan
MENGHAD
Brook
##iya
Clin
lepak
pemilikan
maupun
Neth
MUSLIM
##odo
ditanggung
berpisah
Situs
Jerai
Templates
Nafas
##zir
kekosongan
Hydraulic
##ategorikan
KM5301768
Lithuania
Minimum
Berbeza
##xxx
ISO9001
Garden
mengatur
##haj
##adil
Gerai
Dekat
quality
Path
Sut
##urg
Selcom
Tatacara
sunyi
shj
BERD
AGUNG
Seo
mp
1960
Rundiang
##DING
##iesta
KANG
Pecah
Sos
##ORE
dibungkus
Rasanya
kawal
PPR
##more
##ming
akn
KEBER
spesifikasi
Lily
##ibody
##eeee
Muharram
sesudah
Sund
licin
Force
1988
##eni
rest
Pembatalan
Maksudnya
berkunjung
##empas
baw
asma
UE
tertua
##alls
##kaedah
Huda
Racun
Yatim
waktunya
##engers
##aven
berniat
Asian
##ebelahan
##3K2
##bak
##ELL
Estonia
tangkapan
D3K2
##9Rookie
##gyz
##hyl
menyesal
Vincent
##orno
Berikutan
menyalahkan
penghormatan
WOR
tri
Asar
##opat
Tangki
Jong
bermasalah
Pembukaan
Barbados
PALING
##antis
##ELILING
alaikum
billion
##Pel
Cub
tl
Kening
##fatkan
##ikistan
Perlumbaan
iklim
EF
##omon
##unjang
pantang
robot
##awuf
membesarkan
JAR
##ports
uji
##erc
Slaid
keagamaan
##NM
##asalah
MODAL
adiknya
##640
##unikan
cyst
Lac
seiring
Silikon
hijrah
Ghana
reformasi
mr
mengisytiharkan
Kuda
ao
melupakan
Lam
PRASEKOLAH
##utarakan
Jambu
Lev
resdung
Istanbul
##alib
hidayah
boy
kesesakan
Zulkaedah
f1
##time
##ulik
Qay
Sana
gall
Arena
Perancang
CPU
manifesto
kam
diperketatkan
made
Pern
##rov
KAND
jem
##aput
Azera
siber
Plaza
##ekar
Sainte
tembaga
Alexis
Adawiah
Oman
Memohon
SYARIAH
##yim
win
zuriat
MSV
tikus
ROC
##yk
location
dial
Lantai
##edik
Counter
nescaya
Presint
##tub
Saidina
##job
##engerusikan
focus
Kepuasan
Kenya
Lagenda
Mam
dilanda
##rix
diwakili
grid
Amiruddin
tahiyat
DiRaja
skrip
wira
seo
PBD
Terg
##abiatul
Barcelona
AI
##iche
Nusantara
##openg
iron
BERSIH
semacam
Pelantikan
##EGR
Terlupa
##mission
##acakan
##UDI
Fiesta
##enap
tahajud
ana
ucapkan
KEDUA
memuji
geografi
SIMPAN
##ibar
Trav
##conom
Umm
boss
Sharifah
PANGKAT
Yani
##umat
Bizibody
pengundian
Zag
##rab
260
Lelongline
Fasiliti
map
Asm
Suhaimi
##unyit
RM300
GAD
sebaiknya
##WAH
bermimpi
##minkan
##95350
Turkey
##ENGG
##yai
tercapai
Urut
penjenayah
Kediaman
Kotor
umpama
close
CFD
Pulai
##iabiliti
##Ti
Razer
Ez
##ETAP
Mengk
MiniSpace
Kesilapan
RX
berib
PENGALAMAN
Fo
Bukankah
##yard
relative
##riott
trek
SYAWAL
ANJURAN
##ompet
dataType
Bengkak
##UANGAN
menjel
Phoen
##autkan
interest
hitsRabiatul
##ANGKU
these
Hem
Mid
##ilam
Intranet
##inox
##iliate
inform
SITI
ready
success
Text
Grab
random
##asepak
Menjalankan
Ug
##ahsia
KM95350
Laki
##fu
Inisiatif
Netherlands
KM953503G
DEP
Glass
aid
10px
ZAKAT
##ihir
memupuk
lantas
bud
Perasaan
Keris
PENGEL
Skincare
UI
YUS
bergaduh
Linked
Deb
##lv
Konsert
bungkus
Jad
##115
MUAT
Machinery
FOTO
kub
terbentuk
HOM
menyalurkan
DIT
menggoda
##mary
PEKELILING
##ongsor
Menerusi
Verde
Aqidah
Temui
saj
##eimbangan
##AJUAN
gundik
Ever
meriah
Pindah
##ONGKOL
mandat
##ustry
Guyana
ugut
IPTA
1959
HTML
##uff
##TORI
takdir
##efault
Penderaan
Arn
dipengaruhi
persamaan
disifatkan
##bourne
##tad
##asib
tanam
Autom
khutbah
poli
Alexand
230
##irakan
Bogor
Investment
##hiy
Balak
Duli
##ABU
Butik
Harry
selamatkan
PINJ
##Daily
Pulse
916
hur
disamping
Perkasa
diperkatakan
##ebihnya
Sabda
provinsi
Menjaga
Lemah
Tanzania
grafik
Jon
Ramlee
##enegro
Merancang
Ashraf
##ball
JM
##ubarkan
memusnahkan
mengumpulkan
diputuskan
serangga
Urban
##erin
##illes
harganya
##IPTA
karang
##dukung
Capital
secukup
Pencarian
fast
mengingat
Keseksaan
diraja
Portfolio
##utter
##ething
molibdenum
Astra
##akatan
file
##aiqa
pegi
##ianya
Saleh
Akhirat
Unik
pelincir
pembaharuan
code
round
Majikan
tamadun
Pengarang
prak
Nicaragua
##sive
Bear
##ukus
##BJ
##imanya
##ehensif
105
SOK
##YEN
Penguat
kakinya
##2Rookie
diff
setinggi
Chang
Content
Nap
##ening
Arau
LIVE
##ison
Mawi
##ongga
##COM
Themes
FAK
Keuntungan
Granules
##udaraan
##82
2021
##inggian
##ajjal
pengamal
amnya
bela
ketepatan
##reativiti
##iramid
Hawa
Charm
KELEB
baiki
##1Rookie
##istol
jagung
##html
##ekup
arnab
Ther
terputus
Swaiqa
poster
##akm
pangkalan
berhijrah
Perkakasan
PPZ
Prabowo
KELEBIHAN
##ustralia
##eburi
nye
##itia
##sea
transformasi
menyeb
##yuk
dipersetujui
Europa
aoemm
fas
intelek
Century
keibubapaan
Qibod
Fasha
Anthony
##orat
akidah
##рп
kearah
Mot
rasional
intim
##uliaan
carb
Tarawih
beredar
dipimpin
TERUS
kalori
Consult
kuantiti
##ikopter
keletihan
saudaranya
Bimbingan
berserta
Subhan
ila
miliknya
sd
##arahi
mengingati
bersah
##irat
Sofa
Dini
memecah
komedi
Writ
jil
Terhad
Penyerahan
dimas
Chal
AFC
##INO
langs
ud
lek
Kahwinmall
Asid
Pengangguran
ribut
memukul
Shad
Scotland
DRIVE
lycra
veteran
asian
BERBUKA
Pierre
ditangani
Materi
Ghani
##cb
##UTH
kedaulatan
deh
Andorra
Crystal
tunang
Rabun
Rend
taklimat
Palembang
##EDAH
Redmi
berbual
##tl
mengunjungi
##eronokan
Create
Mangga
##TAR
##ahit
Percaya
etika
INTEGR
KM953503G21
diagnosis
##etia
Bell
##iety
moz
Ward
los
keahlian
berlubang
Angola
PINJAMAN
Rayyan
Prix
##menistan
Honor
Latif
Pac
Siew
##TIC
incl
Betong
Kyr
Slim
hafiz
##edaan
merayu
qasar
NAS
Shopee
kesusahan
muslimin
##ongkek
IH
clear
rap
silinder
##LB
menya
##acle
1974
Pelepasan
Perpaduan
##fitnah
Vito
jasmani
CADANGAN
415
Massa
u200
Swift
##NING
heb
Shol
merosot
LB
lega
##url
untuknya
Adi
People
pentingnya
Gaz
hahaha
##uture
wujudnya
380
imag
cookies
##ista
Ansi
record
Brown
ego
meluahkan
Krim
##key
Webmail
RANGKAIAN
Cili
Terusan
Kontraktor
Wira
SELURUH
penganut
menakutkan
AIM
Jana
Amirul
today
16K
##oes
##tube
##edakan
putera
##oriasis
Duta
tengk
##for
Charles
##iksyen
meletus
Kecuali
Separuh
Perundingan
KPKT
Pemerintah
Nom
dz
##ILANG
japan
##kam
Summer
##esifik
bandung
bual
Bawa
WAH
Jenny
pahit
##AFA
Okay
memburu
##afkan
penyimpangan
kekec
kuota
##elanja
LK
nyanyian
bumiputera
##ISME
DU
Paya
Tuc
jimat
##sil
Anne
##ingankan
Pedas
Geng
menyukai
eB
government
TAHUNAN
Cairo
nb
Berta
alatan
##hur
##TAI
Penjual
Gener
##ONESIA
Memulakan
path
Lomb
Mengetahui
##afas
bertolak
##gyzstan
Hamb
mendadak
##alonan
KUASA
##HBAR
smart
Roth
TUK
Notebook
mufti
##IMAH
dihadapan
SG
KENAPA
Bodoh
Mant
Insy
topi
535275
##umbu
Bateri
Fai
perolehan
Kanta
pertikaian
Yunani
Hij
##word
same
##urance
KECIL
##IBA
Plastic
pencipta
Jinan
##friend
PSS
PELANCONGAN
##itania
NR
##BAL
teki
##800
##ENANG
keterlaluan
turn
##ilo
Tagged
deny
Onn
jug
keluhan
ip
Trailer
PapaG
Detik
BonusRaya
Penutupan
cocok
bergaya
memetik
menjaringkan
##suran
##EKSI
price
penuntut
FREEMIUM
Boh
≤2
##riger
mendatang
Biss
celah
membetulkan
##ardo
##Play
karangan
AKHBAR
menyangka
PENIL
meroyan
gaduh
contr
seku
Peruntukan
##iform
##ocera
Suy
Senyum
Gig
cerpen
##eller
pepejal
##emo
menghar
##imbab
Meninggalkan
N0
##VER
##issi
kejap
Pix
##OKI
Moun
Selalunya
PROJEK
##idu
chalet
Antigua
##hod
280
Rogol
Tiong
digambarkan
Bertiga
ANAL
LPT2
##enderungan
##ements
source
Rumahtangga
Sey
crepe
Tub
trip
saing
typ
spot
mantan
menget
115
sepi
Kampong
Baghdad
Trimester
deklarasi
menyerupai
pontianak
terser
Marvel
layar
mohd
night
Process
maghrib
ELECTRON
##hta
##aleh
##urufoto
oren
##262
Bahamas
Memasak
OVF30
PAGI
scroll
Hamp
##ubati
strok
Nabawi
##azine
TERBUKA
sebak
##angkiti
Leone
Samoa
PEDAG
chan
tambang
firma
Fortune
Kudat
##iving
##180
Lec
Lafaz
ges
SIAPA
mempertimbangkan
AMP
DATANG
Rotary
menelan
DIREK
DEALER
##encanakan
Viano
law
Commer
##onokkan
Maldives
Yaakob
Luka
treler
laptop
1983
Publishing
Lidah
##okuskan
Disney
pinggir
pembatalan
disambungkan
ow
##asihati
INDONESIA
kandung
Call
##HEP
##etusan
Kentu
bersebelahan
Sedikit
JPM
Bermuda
Sayyid
399
KATEG
pp
berperingkat
cair
##itau
Tajikistan
peralihan
IKUTI
##tiwa
menyenangkan
D7
Runcit
##EPAS
ij
pengiraan
Lady
Laos
Jangka
##cas
truck
Russian
Oxford
Kronik
karton
##gers
Ceritera
##DR
mendatar
##elitian
MULIA
##rot
##endek
menyeronokkan
moss
Peraka
##imbabwe
Lati
kepelbagaian
merek
Reading
Luis
Pneumatik
haruslah
Ayu
berkemungkinan
Rabiul
Siput
##enung
##azir
##alais
pemborong
##IST
sampel
bijirin
Kiamat
Cenderahati
##dal
menoleh
assalamualaikum
think
BERSEP
##ifah
Autor
cry
##okratik
menyiarkan
Kesejahteraan
pertahan
den
titah
Kacau
##minya
direman
##ionis
Perakaunan
Liputan
Marriott
lumayan
##tons
##angkai
hidrostatik
Staff
##anon
derita
##он
Perunding
DOR
##ENS
LGP
Hubungi
##azi
pinang
Norsk
Yasin
PENILAIAN
Hujung
Eva
LEON
dirampas
##apatkan
kite
mengu
##ersil
GREEN
Irfan
Tools
##rasi
Uganda
stadium
Memakai
BERSEPADU
Berlin
rejim
pembuangan
##ggris
tasik
Kyocera
Columbia
Ming
Richard
menentu
##oton
Nicole
Caves
VV
##isim
impianku
KATEGORI
AE
LIM
Hoist
bidadari
ceritakan
Menangis
PENCAPAIAN
jihad
penambahan
bla
Jamaluddin
Student
XAA308
XAA308NA
printing
##Jabatan
##ask
Produktiviti
Terkenal
garisan
TOP
SUKA
##emakan
responden
##LIAN
##enh
822
OG
terbit
Senaraikan
Putri
GEN
##FIZ
Frekuensi
PEDAGOGI
Aud
##uy
##umentasi
Boat
Shantui
besarnya
bermacam
Tengde
McDonald
Banner
##rier
Memastikan
pusaka
Jamil
Desktop
ET
TX
Malangnya
Saja
Nuk
##suhkan
KEMAHIRAN
KEMAJUAN
Menghilangkan
BSN
LIK
##SITE
dihadap
Ong
##ashion
Hussin
##erapy
atur
phone
px
secepat
##aving
##Key
##UMUMAN
PERATURAN
ml
131
##wara
Cek
Hob
##EMM
penyejuk
lumba
##akter
disebalik
hip
##ipper
##milik
##Scroll
Sap
Tobago
Games
##Ker
##estrol
visual
##81
Protein
epal
JANUARI
kecacatan
Oz
pemerhatian
Capaian
##eroon
SSM
Penyi
Guide
Nizam
Mamp
beralun
PPPM
Sani
anal
Pengurangan
##ulistiwa
LEBIH
Terap
PENGUMUMAN
Moden
Zhe
menantu
KedahL
Tuang
##enstein
Ala
Supp
Bertam
kutu
perspektif
##ished
Highland
bersendirian
##ASMIAN
tuntut
ikon
Guam
hyper
lapang
LEE
DOK
sebegitu
830
##uraida
##Master
##ocoran
Fauzi
Tauhid
##LET
membentangkan
##ABYTE
##embaraan
syeikh
bertaubat
LAB
BANYAK
GIGABYTE
##izza
Grenada
Jutawan
##ym
slogan
SUMBANGAN
##untuhan
Buntar
##esiti
seringkali
Dhabi
giliran
Lukisan
Melbourne
MEDI
##isin
pembiakan
galas
bolehkah
10K
KOAK
##adamkan
menyusahkan
##ibouti
kesedihan
AV
pola
jangkaan
WEBSITE
Tamadun
sofa
PPP
Kesian
Baba
##empit
dikaji
##tease
teruna
175
##107
TEKS
Sev
tor
bayang
mengetuai
Emiriah
1969
Jane
560
##ahak
##unang
melekat
kawan2
MANJOI
memerintahkan
012
Pengesan
##ammadiyah
Printing
Vakum
##ianna
##arikei
##usuri
##ugg
Hrvatski
lelah
Sempadan
jgk
##empurnaan
bersel
Warta
Asalkan
genre
Misalnya
Bertuah
##ough
##icap
kejiranan
BONUS
mengguna
Author
Folder
Montenegro
Pusp
##234
KOAKADEMIK
##hm
Fraser
##atil
ant
saye
anhu
Sci
Pocket
seberapa
##acita
Gon
pendidik
tido
##igur
Pelupusan
##aaaa
Valentine
diusahakan
menenangkan
Makmur
##quo
Refriger
LAG
Mira
berang
ditamp
material
##ematic
aturan
##has
solo
Bulu
##america
short
##ippines
Autoradio
##emani
gandum
Malu
lin
##mic
menyanyi
Secur
##LO
separa
Trinidad
paham
sint
kelamin
##asarana
##reg
##okimia
berlayar
Veron
tertumpu
ekstrem
ELECTRONICS
Udang
aziz
1976
sejagat
##falfa
##URE
Evo
student
Adapun
Than
Dialog
Address
Belud
ANWAR
PUAN
##aporan
KOLEJ
Keningau
Memiliki
Sunny
CONTA
Jimeng
Tabiat
##erapan
##osistem
limau
##uskrip
ibrahim
menyerap
TON
##orium
##angguh
##suaian
core
##owa
Semi
408
Ec
pikir
##thers
tunjukkan
menggunakannya
##ubal
Gost
tut
berapi
##embung
##IAGA
Engineering
##ukarkan
terbina
diwajibkan
Turkmenistan
Baj
poligami
##NIK
Saad
##TANT
JKT
BEST
##eksual
Relaksasi
TG
Chap
disusun
1982
FEB
##hon
ideologi
##oksida
bukak
TETAP
bdn
berlepas
##encia
EH
Stac
Kebebasan
##andainya
poket
##kuiti
##atie
Soul
SPP
##DPE
Lus
ll
Shahih
PKNS
mengamuk
kasi
berlagak
##ahului
PESERTA
iftar
kesannya
pernyataan
Gemas
##roli
butir
##tend
##orthy
Sabar
Bawang
Akidah
jun
penceramah
probl
mukmin
##uq
##enggugut
cub
##ned
##CRA
PENGER
kelainan
perbankan
AOEMM
Jeff
LANG
Pew
##video
testimonial
Handrail
##azz
kagum
ve
##ibbah
Intel
pengecualian
Cote
Paru
##1850
Gusi
Qaseh
SANTA
Zuraida
turunkan
babak
Debat
##iasan
dilepaskan
Sayur
ori
##je
Madya
##BB
keimanan
Azimat
skin
hamzah
meta
Stone
Begitulah
KM37
WIL
##ampunan
##elasah
##encian
##Selangor
meg
##06
Prog
Safety
kebiasaannya
menggun
Butterfly
Tian
##enak
Sham
papar
DIREKTORI
##roduk
harimau
Serius
saf
Pengadun
Namibia
NZ
##adia
##istics
merogol
##183
Kumpulkan
##IBAT
teka
Berlaku
puluhan
Avengers
##lection
Berani
radikal
Ling
Zambia
Jackpot
##PE
pelumba
berbulu
##asiun
##ists
Awas
##ayalah
PERASMIAN
nakal
sehinggakan
##epakatan
##raktik
Alang
Wahid
berbeda
Prec
375
Hah
eP
mengiktiraf
produksi
Zhejiang
HITAM
##cina
umah
Additional
products
WR
##indari
Ningxia
Fun
SOSI
##enguk
smpai
Kyrgyzstan
##OUS
##aww
terhenti
tukaran
tiruan
Perayaan
penggal
##mos
membant
Berpantang
Ryan
Subjek
##diri
lapor
NUT
dikebumikan
memajukan
Mulakan
BA
lepasan
Dumb
ask
##elli
Klasik
Hani
##itang
##awanc
##ohm
##ESTER
KERETA
rombongan
Kemenangan
SHARE
kapita
difahamkan
##zheim
##atrik
diucapkan
summary
kesemuanya
Asfalt
Santiago
audit
Cooper
asam
menderita
menyenaraikan
KOPERASI
##avelength
BINTANG
##07
Mua
Keluaran
seumpama
##KLUSIF
KPDNHEP
Maksimum
produktiviti
SST
Tarian
peredaran
diharamkan
Guad
##OOL
Ranau
##amine
PELB
Wittur
keguguran
KSSR
CAPAIAN
Umi
##hes
Perabot
merangsang
Friend
Bilakah
CIKGU
Karang
##dut
handphone
Florida
##akut
Shopping
Definisi
through
Buruk
Wavelength
Kebesaran
##amster
655
WHEEL
##kid
Bangun
MT4
bed
Contr
Cord
##fe
Pengering
remeh
mendoakan
LOADER
ZHEN
##iksel
##ubahsuaian
MPV
Khairuddin
automotif
Reno
##indas
##ADANAN
nam
sambut
Berter
##ILI
KEAH
ditandatangani
JH
Testimonial
much
##nt
Then
sindiket
kanker
erotika
Galvanized
peka
Aruba
dijadualkan
PELBAGAI
KEAHLIAN
##char
Smartphone
KADA
Ditanya
816
Dajjal
##nox
Jamie
Avi
135
Biarlah
##angkali
Bosan
##affic
MEDIASI
pelindung
tertawa
##asmine
parking
ZAMRI
##aratan
Kapita
STRATEG
kwn
money
ziarah
##ARKAN
menciptakan
aqidah
Hajj
membayangkan
Kemanusiaan
komoditi
kekeliruan
##araku
menaip
slov
##1850G01
KM371850G01
Usah
Gam
MUT
kestab
SOSIAL
mac
ratusan
Jalur
##UAH
##NE
##20BJ
Dilarang
DAA262
Somalia
DAA26220BJ
KVD
Seksual
MIT
##ead
berangan
bongsu
kestabilan
beramal
##anty
##church
680
Rhen
##umar
mengalu
sye
Ubatan
asar
##alaq
Melawat
Eus
dilalui
ingatkan
buaya
Pingat
##kel
##ERG
kecoh
##sanakan
akad
BY
atasan
scale
mengutip
Coffee
penjuru
##angkar
pendengaran
Memperkenalkan
Management
maal
animasi
##ualaf
Lucy
date
BERTUGAS
tertera
karangkraf
mencerminkan
Riv
kejar
##eton
field
TW
##acana
salutan
posted
pundi
PANAS
kerabat
antibiotik
##LANAN
##ede
menyempurnakan
CALON
sentimen
##SON
##iawan
PENGIKLANAN
PAJ
DALAMAN
VAL
maklumkan
kubu
Barakah
##gaulan
##uuuu
melatih
##ontot
Kecergasan
##ription
Aust
kenduri
Gemilang
Wain
Sabri
Kenduri
Prasekolah
dijaga
terjebak
Dibuat
LENCANA
hero
number
Chiku
char
##ARIAN
Chain
##giat
liabiliti
##unda
kerna
##703
mind
##IQ
berganda
transport
458
BEBAS
rod
##ungguhan
iluminasi
putaran
genetik
Teori
Ketinggian
##tudung
temui
Cotton
##udh
Phoenix
##633
##ruz
103
##efin
RM15
THC
NS
RoHS
Ethi
Inkjet
Perbandingan
Pemberitahuan
penyulingan
##ISS
Alhamdul
membiayai
##EMA
BP
Peraduan
berkomunikasi
Fem
lauk
bertiga
Ivory
Billah
Duc
pekat
Langit
Moldova
Ronald
umbi
##inyak
##iha
KEH
##overy
Cape
perabot
Rollers
DAK
Pit
Ping
Sia
karier
##under
Tinta
104
Terjun
TUNAS
##urrahman
##anced
those
should
Jacob
Injil
FIT
##hiyallahu
Lis
Modular
Jho
##Su
dibolehkan
SEKS
expl
##alem
Prin
Leste
VIV
##change
atasnya
Madrasah
##cept
##USTRI
Rating
College
nisbah
Makin
Sahar
FIZIKAL
Lekap
Terim
ghairah
##elangor
Pembentukan
iblis
menyembunyikan
berpaling
##143
##UX
##agne
EKST
##asio
melepasi
Sahari
Johnson
advert
Troli
Sendi
MAZ
GLC
BANGSA
gerbang
tgh
INDAH
INSTIT
TL
petisyen
##titude
selidik
berkuatkuasa
##kuburan
FGV
pakcikli00
##GUNAAN
seumur
##ums
Pemakaian
Komoditi
why
##orbankan
retak
kepemimpinan
Sop
tabung
##ugurkan
##ULUS
##ingini
##road
telahpun
membel
​​
Anarm
KVDLM
jersey
##ubuk
##uce
Chen
UEFA
resit
Porto
##awancara
Pemanasan
bala
pemilih
lepaskan
##Hz
District
mengag
pengkh
dikembalikan
ungkapan
Zaf
##GE
income
kekunci
Jihad
formal
##optim
B2220
##VES
Utiliti
Saji
Asasi
30K
Jln
Norm
raga
ulser
uzur
Beat
Kamarudin
disarankan
PERBADANAN
##echtenstein
##idor
Larut
##oller
##anyikan
Asyraf
dituntut
Penyampaian
Kulai
SIL
##Com
Dahulu
##olas
kenyataannya
Makcik
##alv
alim
CHINA
pemodenan
Teratai
Rhe
diharap
##UBLE
JKPAK
Jimmy
Menjawab
pupus
##ibility
##Sub
##ERK
##AIP
nbsp
##EKNIK
Tawar
lanjutan
SEBEL
GLA
Camar
biarpun
Luk
##mid
mementingkan
Christchurch
VOC
Logistik
Ost
load
RM25
Sokong
##ALL
animation
Prib
abdullah
Mariam
##enjara
NOTA
##engka
Muadz
RISDA
AAD
jiw
##idangkan
menit
Peratus
B12
development
##len
Gong
USTA
Spotlight
perokok
PERKARA
sets
lupakan
##umer
mengaitkan
Gim
dialu
##online
##UNGSI
DOUBLE
Restaur
##FN
##JUNGAN
##izing
MyH
Realme
penganjuran
Maktab
SEMAKAN
Oklah
##eces
##irinya
games
Panda
##ilmu
##ITTER
Ilahi
nahas
##eger
Hangat
Eskalator
lingkaran
Eb
room
450
Gob
Tisu
##fr
Monro
Pimpinan
Wani
##eted
Triple
Fle
Gan
##MU
KONTIN
##sg
terminal
RM40
penarik
Atlantic
Kebun
508
LOKASI
indeks
sure
Beauf
rez
##emik
elakkan
PENGAJARAN
Djibouti
Pre
##aguan
ORDER
TELAH
mengenainya
couple
pedalaman
##ubual
memerangi
##qwa
merendah
perlaksanaan
##eterinar
perbahasan
KONTINJEN
##ondo
Premier
Shin
SEM65
KIM
##ebankan
Iftar
Ancaman
Emma
921
where
DIC
matawang
Kalkulator
6019
Onlytease
2din
##DW
##ilaan
PKN
RINGAN
panggung
bersekolah
Addin
MUZ
106
mengabaikan
##rary
##awanya
##estar
Bissau
sawah
SKMM
##cky
EKSKLUSIF
##hg
K5
bercetak
keburukan
Siakap
BRI
Dolar
massa
mirip
kuc
lapis
membebaskan
##elakinya
##aksasa
pecahan
##aro
memuatkan
Penanda
AirAsia
TERS
Bertempat
Snow
Font
Barangsiapa
started
Mazlan
mengimbangi
##ASTA
permit
Dagang
Cubaan
Zaki
INISI
APMM
Berf
Laa
##aung
Awan
Biarpun
ajax
##vir
pertar
##eribadian
cetakan
pengagihan
INISIATIF
##worth
does
D8
cewek
##empedu
##fast
Peladang
dikekalkan
KSSM
melancong
training
Legal
Benarkah
BAT
days
TEGAN
zika
##allam
setan
##owjob
Alpha
meringankan
GLOB
Marshall
##ortu
liat
INDUSTRI
Vibe
Matt
##ganegaraan
PANT
Corner
Tuaran
harinya
menyamar
count
Most
##eroll
Harris
wayang
bersenam
##lyn
Sesyen
Ultimate
Lew
luahan
##ici
##usim
Golek
Rhenium
##afi
##enscina
Research
##roducer
LHDN
Joy
SKIM
Mauritania
contin
Sanitary
PEMUL
maybe
beramai
Menikmati
KOLEKSI
Dulang
WF
Akhlak
##ILIH
perhatikan
630
Wales
Mistik
##onto
##adankan
dimenangi
Codes
Ry
##udhu
##Child
##ongkan
UTM
Fuz
##ALOG
438
LCL
perosak
akur
KDL
355
Penyejuk
Wangsa
Kentucky
roket
meyakinkan
got
Melaksanakan
ECONOM
menggamit
Lorong
dibakar
mencuci
Lancar
Tersedia
Ey
Wide
cash
Selat
psik
Caranya
mkn
##raviti
Lewat
Asc
ion
dijanjikan
225
598
berundur
Islamiyah
Katakan
Idrus
Zimbabwe
trop
beku
Epson
Saing
##HER
ABDULLAH
Essential
JEL
##ifer
menghukum
Fern
Henti
Assalamu
Lipat
kasihan
dor
599
##ATS
Bertudung
kesulitan
keharmonian
Sync
disedari
berterima
##TK
COMBO
Joko
Iluminasi
Kompang
##UCK
Court
berminyak
##ogenik
BE
##endung
weblog
personaliti
##didam
LPP
klien
Kongsikan
Adamdidam
Omega
##amous
##AHTERA
##OSP
dimanfaatkan
ternampak
BONDE
Alfian
BAGAI
##ATO
berkempen
sulaman
1963
Segalanya
kelabu
Accessories
Didik
keusahawanan
##elapan
RM9
##wanda
##Out
BEN
profile
Tutor
Cameroon
##UBAAN
Mukmin
INSTANT
##urukkan
##elakuan
lada
##iblat
TOL
rampasan
Kesedaran
Difahamkan
##ving
bertanyakan
Found
Kesimpulan
menerajui
Tumblr
batik
##adijah
menampakkan
Cend
##Portu
thn
LAGU
mutu
acc
GDA
##cial
##Limau
##afan
##ivil
terbaharu
Chris
1981
Murni
Safar
Bij
kafe
##aduhan
##AYANG
Siswazah
Mons
bez
Rani
##fera
Camera
UHM
penghancur
liwat
##999
Kubur
##Australia
Coaching
KedahLanie
mudahan
KUNJUNGAN
Beaufort
Krisis
##swana
##taine
Shell
kedudukannya
Burger
lazat
komb
Paracord
Neraka
Semarang
lamp
##nik
Dad
mud
Pastu
001
PETUA
SirapLimau
##osed
Mencegah
NOVEMBER
##PIN
BILANGAN
Compass
radhiyallahu
Production
SEM520
troli
ketagihan
dividen
SEPTEMBER
##vert
Carlo
JKJR
mengukur
Keistimewaan
##IRAH
Madagas
Majoriti
GLOBAL
dirasakan
TLD
##Pak
##ebon
dahsyat
Solomon
Hollywood
sahkan
berpengaruh
urat
AIDS
mp3
kewar
Zuhur
NX
Zal
##chelles
Kompaun
soya
pembaikan
##rigu
##ejek
pentadbir
Aer
payu
##05
##idrat
Juan
Mub
##estina
diteg
sukarelawan
Lampiran
POW
Quan
kaunseling
Palace
EKSTRA
FAMIL
##ebra
Takkan
Sheila
##arbon
Berhubung
Kalu
Perhatian
Zionis
##angkin
Makhluk
Wartawan
##yaz
Yusoff
Candle
##ulikan
Sesuatu
nafkah
Vil
penis
tetapan
##kripsi
Pendekatan
TERK
Template
kegembiraan
lampau
wabak
Seminggu
Gro
Atlet
gelas
Peminat
something
##entit
merebak
BERP
Buatan
SIHAT
Daftarkan
wasap
TABUNG
SUAMI
Kerosakan
melompat
Engk
SUARA
##ammam
longkang
##Dunia
puting
Zuh
##empor
##ews
##langed
maknanya
Bersetu
perceraian
Baoji
adakan
HE
jawa
gang
kencang
##spek
5G
penuaan
Khatulistiwa
hol
kuah
##lasses
##ablanca
##xis
Haute
kebencian
too
##yapu
Dealer
##RY
art
Fed
Mani
Imperial
komprehensif
human
Syariat
dilipat
Kompos
Annuar
Zamb
Kerian
Mukasurat
##iful
Lav
##650
Appl
mengeluh
Prince
##kait
##utz
##GERA
HM
MANA
Olah
vokal
terselamat
trig
##airi
Die
##ulation
Drum
diperhatikan
bercanggah
menyembuhkan
CONTACT
102
Pelayar
##ANDAAN
Roket
banduan
bocor
keretapi
Planet
bingung
##ountry
##ales
segan
##otho
sayangkan
Mengurus
##eview
KENAIKAN
period
TECountry
ECONOMICS
RASUL
##EALTH
pencuri
htmlPanel
apiCode
TECategory
userKey
apiCodeSamples
userKeyURL
Ariz
Uj
Zizie
layari
kerjanya
dre
##face
##deg
##zheimer
##exox
Andre
penarafan
##ezer
darinya
GOT
PENANDAAN
OUT
huhu
orangnya
DESA
MyGov
question
Tin
jeti
kesehatan
teater
Medic
Fad
Hir
##struk
three
PTGS
SAMP
melew
melegakan
menggariskan
##atural
TLDM
##MEN
Sedih
##ikayat
##rame
sejurus
Syaz
##runan
136
diranjang
SEJAHTERA
Cellular
Ef
##raft
learning
##Lebih
Fitri
menembak
Andaman
Laguna
##akmuran
165
##verse
designer
rot
side
##hem
diarah
bantah
pembunuh
##asty
Mineral
maria
nizar
Kurangkan
##Index
hitsHJ
jubin
slides
##RS
##flow
visa
Kerap
##aziran
Casablanca
benua
kekeluargaan
pekebun
##optik
penyerahan
kekerasan
##lit
Chicken
Ukh
Veteran
##ajjud
Kartun
##eshow
state
##ANTARAN
##awinan
Project
ling
rasminya
Penjaga
V3F20
pix
Portugis
Ret
rampas
MLM
fos
khemah
##tamar
Strok
Tepat
dtg
##ilet
##angsangan
Tular
abangnya
Segar
kilogram
##Fi
##ongkok
Flam
Abad
MURAH
Philippines
WWW
##ibiliti
Benin
##arisi
##KD
157
Merupakan
Filed
membimbing
enjoy
INSP
##211
items
mengkh
Cabutan
##Forex
PEMULIHAN
##Video
##sey
babe
##lect
diganggu
building
geli
kilat
##opor
##jok
##andarin
Banking
Mendengar
Night
lasak
such
penyata
593
dekati
PELANCARAN
against
Pom
berbelanja
community
C5
keseronokan
Dnars
Bong
##anaan
##otcom
penekanan
365
##ecom
TAHFIZ
INTAN
Pinggang
tanggapan
##Ap
##alonkan
read
##UKAI
bernafas
##Gen
Senegal
blue
Perwakilan
take
145
SEGERA
bagitau
MISI
dibekalkan
##eksa
susunan
##Masakan
##rich
Hishamm
##aur
diingini
Amalkan
Element
Penghulu
Muadzam
Lad
RBT
##477
takziah
NABI
special
##ardin
Rekaan
##IGN
Jama
Penn
Ramb
##nita
tatkala
ZAIDI
##eru
##stil
##LISH
langgar
spa
Berwarna
##rer
Swing
BET
Kepong
PUBG
Graders
Wangi
mencium
Komb
TOUAR
stand
ketiadaan
Ai
Gift
##rem
BADAN
TOUAREG
Cak
Greg
bonet
Dream
flu
##Pusat
##inch
Trading
AnarmNet
Give
##inggung
perlakuan
mengulangi
HT
Vital
DIG
SASO
##ilu
kebesaran
966
mg
Kupang
Jamaah
Vig
##jolan
Budi
Terc
Pemikiran
harapkan
kurung
debat
maks
mengutamakan
##inginkan
##rang
##INC
Area
GAYA
Kand
Peribahasa
square
##otongan
Insi
ehwal
Haiti
Philips
duka
##linya
##illon
munisip
kang
hampa
bent
##MANA
KEJUR
INTEGRITI
Leh
taip
##ubagaimanapun
penyerang
That
Universe
##esch
Dimana
Derma
gam
kondisi
Situ
##illing
Implan
##UJU
gun
Sabun
Liechtenstein
##gaskan
membawakan
rece
##6M
zz
##cos
##ibaan
Pengertian
##odam
##umentari
GAA
Rizal
APRIL
##egon
berkorban
PERIB
Stasiun
TIADA
Puas
Ashar
##rete
DV
Micro
pedang
liberal
HOSP
kembang
tow
salahnya
##MENT
bernasib
##ESTASI
Fag
betul2
##erie
disuruh
##ouri
direncanakan
Hakikatnya
disiapkan
##ANGANI
Motion
sarang
##ол
merakamkan
1948
License
##ashboard
desakan
SUKU
Tanjong
ISTERI
Gateway
dsb
menter
pentern
kren
Huss
##oring
##real
Ceb
Hero
hinggalah
Menanti
peluk
dihentikan
MPP
##mbangkan
##ians
KTL
menegak
##everage
Pengujian
Pakcikli00
persatu
Nadz
diutarakan
Syukri
Tib
202
Makna
##onsil
inflasi
##zm
penyayang
terhasil
Nerus
rantaian
Lov
Sepatutnya
Azt
Kamaruddin
Hiz
LY
##eliharaan
Chik
##ASSAN
ann
Riau
gusi
terlambat
##untingan
Pemberian
510
##epit
Piston
Berdaftar
Menyel
cukur
weight
HABIB
KM510703
##USTER
Angkasa
mercu
Face
##ck
##ikari
Seoul
UD
cn
menamakan
##trum
klau
##das
##irukan
menegakkan
KM51070342G01
diganti
Unduh
##SEL
Surin
##sterdam
Kala
terawal
Alfalfa
##izinkan
265
CED
Kiri
##amen
##ahuilah
Suomi
dimeterai
adegan
Ps
##Kek
Maryam
meet
##nail
Diplomatik
Run
low
Penempatan
Mengajar
##ITY
peluh
didi
##eep
##ohkan
tinjauan
mengantuk
B2
HS
QS
tajaan
mengemas
Niger
Tamat
##tut
ilm
##wares
Hishammuddin
##iasi
##iskrim
sahabatnya
Wayth
berkurang
belanjawan
Fred
##ontik
menyembah
W1
KUB
##0000
##yakan
terowong
##anggapan
Mentah
Berasaskan
Harakahdaily
##ERTAAN
Journal
akh
chat
mig
kesatuan
Rif
##cow
Telaga
Duty
medical
munisipaliti
MAY
##utip
##quel
##urt
susut
JIKA
BERJ
Mengand
HORMAT
SHOP
Sedunia
##qman
##akinah
kampong
Bendahari
takhta
Mizan
##Event
Musafir
##eluasa
PADUKA
Rach
Wow
pasport
Laksamana
Atur
Pilot
Arizona
Salinan
KERJAYA
Greenland
Hariz
Ethiopia
HDPE
##teraksi
Keli
burger
menunggang
tour
##oux
Kristal
kembung
badminton
NOTIS
##рпски
LUC
TwitterShare
##ativa
Aloi
##incu
##egara
##stit
Penampang
Resume
Dalat
TC
Tengg
SMT
kebaikkan
Liberty
konvensional
Calais
##artakan
Chua
Bloglist
au
eM
Matrikulasi
ThisBlogThis
Bergambar
##hia
##sky
Cruze
BIR
Soleh
huh
##ERENCE
Penjualan
diselamatkan
##aganza
wuduk
terbahagi
Crown
OKT
PENGERUSI
pembersih
HOSPITAL
Marina
diterjemah
staff
Fari
Tef
Ucap
Skin
CB
matrikulasi
Shukri
777
melonj
IX35
jahitan
molekul
Pati
PETA
##mator
Agus
coz
circle
HOKI
process
memerhatikan
BAIK
berbakti
Palau
effect
##alvani
Ria
Mengenali
XS183
Nuh
##ernaan
Ayahanda
ketujuh
##zaliman
Articles
##acker
##amsendiri
error
MEREKA
sinis
Luna
##usn
##econom
##OLL
##oreh
berlesen
bergegas
##ansuri
help
face
2019M
sepupu
AAA
GAM
Kai
Inner
Syams
menyuarakan
kelembapan
Fur
wain
##ADUAN
113
Dot
##aikal
Drag
Ketibaan
##erm
##ompang
reda
Pertemuan
rc
kawen
##cy
Pharm
sig
##sies
mengenalpasti
Collins
Junior
jerit
##ultur
kombinasi
menasihati
pemberi
PENGHANTARAN
Cum
##assar
BUY
Marketing
IMAN
Jie
##516
serendah
DEM
##rose
angan
##IDIK
Lompat
perasmian
##ajo
Kekayaan
Poster
##HAEN
##code
##uling
mencoba
bertarikh
##Hiburan
Compactor
SETAR
FROG
##DS
##angkapan
##iley
Systems
cirit
keputihan
Brasil
Limbang
tablet
Dayang
##ontal
Amsterdam
menggeleng
AEON
Perbankan
KLANG
Sawit
PEKER
114
Laporkan
piksel
##empar
kesesuaian
Lebanon
SEBELUM
##Ah
memalukan
dikec
##ORK
Journey
bdndiri
##aze
Tahir
Penyimpanan
Lesbo
Tulen
Gom
Kambing
RAY
tabs
Noh
Bry
kesungguhan
##ivery
tercantik
##UV
Bayan
Beauty
Tongkat
ESS
Tenom
kenyang
kelenjar
Pencampuran
stu
Here
##formance
##riah
PERPUST
##entam
Isle
KEGUNAAN
##yanya
109
Bloom
Linen
Shadow
##inambungan
Selidik
Pengas
mendukung
Pendarahan
Works
oldhtml
Datoh
##incirkan
##TO
Mahsuri
multi
##orning
pencen
Valley
BERSEK
##todontik
Telok
Buta
bertunang
ALAMAT
dimasak
##alinan
##apas
Barbu
Parsi
##emai
vars
famili
reti
Laptop
Perhiasan
golf
##aitun
kemasan
Ent
Slovencina
##epa
##qas
##ucer
275
1965
penjajah
658
Iwan
##qamah
mengungk
curve
Gelongsor
##Kereta
dy
##zahirkan
Robot
Kapten
Batam
##self
ketul
LKIM
##mann
LIKE
membuatnya
pembesar
##kshop
Rm
##adab
1967
Seal
##imut
Geran
PERJUANGAN
##Br
##luster
TUDM
Mengandungi
002
Week
Kript
##onne
rebus
Cukuplah
Skandal
##eliti
membenci
major
##ARIKAT
feeds
lumpuh
##Data
Beng
Serian
MENDAPAT
UA
Malawi
##ABAT
Spir
Spark
MENU
istikharah
since
Nasuha
Sipitang
habuk
utamanya
Cyb
less
Army
##union
NK
Natal
terbanyak
Pahlawan
Sempurna
unggul
anakan
editor
Tari
cun
##mond
017
teratas
ROY
menyalahi
sekeping
Oren
Muscat
##ayangi
memujuk
##501
kebijaksanaan
##ejuang
konek
whole
Integ
Arifin
tabah
##ansur
##izam
imgurl
Conditions
TENDER
Benn
Kutu
Wayar
TENG
sepertinya
Veronica
Lawas
diwar
##ikot
##perimen
Madonna
care
##PB
##ordin
##amalkan
Lane
FUNGSI
menikah
apply
mempercepatkan
Hilir
##Slide
BOLING
##iiii
please
dipelajari
lc
nilainya
BAGAIMANA
pengacara
Pemborong
BAJET
definisi
bul
ART
3300
sengit
140K
TUHAN
Saman
1950
aspirasi
takaful
jamin
PENYERTAAN
##economics
##oner
lelakinya
##PUASAN
DIRAJA
Pucuk
teringin
##antapkan
buktikan
meriwayatkan
##etts
##ESTA
Joseph
##antarkan
watch
ads
pengalih
Haw
PX
Pari
Plum
##ohidrat
gelanggang
##tuh
Biografi
922
PARA
Skop
Faziani
Stacy
dlu
AWD
lebah
operator
women
berke
##letter
pahang
Tragedi
Preview
MPSP
VALVES
##ITH
Gelap
removeClass
Xpose
##kina
Peringatan
serang
tetingkap
Mars
KOMUNITI
Veterinar
moe
##edikasi
Musik
972
Dam
##ASIS
Purw
campak
##egaran
pengisian
menjangkakan
tertinggal
CAN
Fermator
##x4
##GT
##ahuluan
zina
Tugasan
rongga
asnaf
entiti
Ustazah
ISBN
datangnya
##yani
apalah
##ijik
Bhutan
undangan
##tre
Scar
sebagian
Sinonim
diasaskan
xs
##jukan
##estor
Elite
dera
hara
menjanjikan
dikategorikan
Ketentuan
##ikmatan
Credit
kids
205
##epek
Menghad
pati
127
keperibadian
bermul
menghulurkan
##irds
Judul
##And
##entik
Reviu
tpi
Samarahan
tradingeconomics
berjaga
##iatan
offer
Seychelles
tarif
##ustar
##ehan
kemuncak
Idah
jutaan
inline
amazon
Kebiasaan
Supr
AIDIL
Ear
suai
EMB
domain
Hav
##endela
##nion
##timpa
Travelog
festival
Kansas
rang
Berbahaya
driver
mengas
serantau
##ats
##endi
menjurus
Ard
Kesenian
Penyelaras
330
##VID
diakui
protes
sap
TAJ
##ehkan
publish
##lasan
##tibar
Kuantiti
featured
prosiding
spesifik
kadang2
dilupakan
301
sweet
##reneur
215
LEAR
Gendang
##look
##Kan
toggle
Alaska
##Suite
nutrisi
##abas
##angsungan
Bahrin
terlampau
jawapannya
cium
Ara
132
Noble
void
perintis
gandar
PERIBADI
mega
##MAR
##indo
Sarapan
Five
##uzul
Botswana
Iklankan
MOHAMED
KDL16L
penalti
French
Nawawi
cow
124
PIALA
Mud
##omagn
berleluasa
Rwanda
kuar
##engat
kemelut
mendahului
setiausaha
##alit
groups
khalayak
hir
Sarat
Hair
MEMP
YH
##ESCO
Discover
Sumedang
##VIEW
##isir
OIL
##tit
##xial
##ISA
##tention
Jones
disalah
##160
MALAYSIAN
latitude
##isit
BINA
liur
Guangzhou
insyaAllah
piston
KLUSTER
gastrik
Sow
dengk
rakyatnya
Muatkan
BookingSuite
##GC
memecahkan
DIALOG
Dewa
PROSES
berinteraksi
Pribumi
menyasarkan
Buaya
Vid
Terapung
syarak
Oklahoma
dihapuskan
SETIAP
A234
Dump
Dilakukan
Sahkan
Version
typeof
Bom
bac
Menyimpan
ALAN
##9C
sinaran
Lynas
kebanyakkan
Break
penyedia
Poli
TENPIN
HA
Paras
##abama
Khadijah
binari
Faso
XS143
WILAYAH
Teflon
DIL
##akhiri
##Pal
berpanjangan
rekabentuk
berkelayakan
Robo
hide
Iblis
Pinn
##inois
tentulah
Tumbesaran
jugalah
screen
Informatif
kri
Fahmi
Punggung
##ERSI
Nut
Pallet
arif
terdiam
sistematik
##editasi
push
CW
##aby
##uruvideo
lintas
##sign
##etails
Kedutaan
BAWA
capai
dad
##imin
Masteri
diperm
kreativiti
##rob
MALAYA
place
##odal
GAT
Stem
##edisi
terjaga
Chelsea
dibuktikan
1978
##APAK
##pu
young
Ledang
pendarahan
Mert
dijangkiti
PELAN
1957
MENGHADIRI
cenderahati
Pencipta
perjumpaan
Taipkan
Tree
ZAR
##enggang
berunsur
MIX
RUU
cacat
pain
empar
##hul
##ehi
Kenal
professional
Cyber
##Pakej
SAMA
dak
Exclusive
complete
Waris
Waq
Tac
keta
##ston
##anggut
Jibril
Katering
##usuhan
##ukir
##erly
Amazon
Corr
Contest
JASIN
Sebagaimana
penyumbang
Ayub
lazimnya
LEARNING
bahagi
RM60
HH
hamb
tawarkan
toilet
##aziland
Madi
Graduan
Kebolehpercayaan
##ensa
sabung
cas
##intik
Belle
##ATER
47500
Pok
Vw
Versatil
GET
##agli
kraft
wordpress
Paint
##ubar
longtitude
UUM
pasif
##CIK
Kelly
##astian
Prod
kecundang
Baum
motif
selebihnya
hidupan
##esion
BUR
pasca
Anjuran
Tungku
Pengangkat
dahulunya
8S
##vok
##BER
##ат
##osan
resort
Created
memperkasakan
##aunselor
BENAR
alur
Recovery
ucapannya
##ecutive
PROFESIONALISME
pencerobohan
Kinta
Sarikei
##IAL
kesetiaan
tshirt
interview
KFC
Pelanggaran
ihsan
##jat
sosok
digerakkan
##AYARAN
Streaming
Paste
sembang
cengk
four
SURUH
##ifikan
PEMUDA
Pir
Qad
kontena
##De
kelakian
##Malay
Hend
##ASIHAT
PRA
##ICT
giat
##ensis
diperti
Kerabu
Indones
terdesak
dukun
ummah
sport
##NN
never
##not
##110
angkatan
##aganda
Bermasalah
DEL
Mandarin
judul
Spirit
susun
poin
##mn
##tach
menyewa
File
Ide
##azak
TIMB
CLW
Ustad
PERUBATAN
fish
##court
berdiam
Minat
##FIT
kin
##idence
Pengakuan
##Cl
Scott
INSTR
##Is
##imbas
##ahyang
Chad
Pesan
10894
ABA26800XU5
Wasiat
Acet
cabul
##parent
own
PERCUBAAN
memancing
arena
ONEX
Dynasty
980
berkumpulan
jilat
UHMWP
iOS
diulang
stay
freeroll
merenung
meres
harmoni
Spr
bio
##rel
mengaji
##IKET
##☺☺
Berguna
1979
Khor
Flo
##gaul
sebilangan
PR1
INTR
Sufi
gets
gugat
kiriman
Volt
reputasi
##pasar
jajahan
UHMWPE
8mm
##ISTIK
##askular
Alwi
pengaw
berbogel
Agricul
MARHAEN
##UCER
Jilid
Tp
mengejut
lompat
petikan
Mys
Packages
Diari
revolusi
LADA
Qadha
189
Gempa
##ukuhan
benang
AMIN
BUDAK
10894D
Saraf
307
maafkan
Riuh
slideshow
Komisyen
keyword
Snap
##ukh
##edo
Akustar
SS400
perpecahan
baring
Statut
##Asian
##arisan
Komersial
gosip
komisen
Extreme
PASTI
PERSEDIAAN
Penat
movie
dorongan
berland
JAIS
Viking
berjangkit
etc
##pin
Lifts
pikiran
berpecah
##erhati
Herz
kantoi
##SWK
hos
nyaman
##okol
masam
mengirim
ONEXOX
364
Insider
saintis
soket
##ontent
##UMPAH
mendarat
Energy
899
Bermin
arg
##acca
temannya
Lubnan
##vokesyen
##non
##410
Kompas
terangkan
##adiahkan
lobi
##ampurkan
PENASIHAT
Cart
Erit
berus
##olve
Passport
Pinnacle
##XY
HEBAT
membebankan
reman
Grain
SRC
Mind
Will
##AKAAN
weh
andaian
VIII
Qing
disebarkan
##entur
Cambridge
menyarankan
mengorbankan
kecergasan
PRIV
Mazhab
Sr
tg
menemp
BEX
##tura
SBK
HOL
Ted
dw
biz
nutrien
sle
Kerajang
sosio
Pengaruh
Rugi
Bercetak
water
##emont
Husna
tomato
kiranya
##andan
##ectic
SWASTA
GAA26800
Chip
CSR
##lock
dibelanjakan
Sekadar
tersusun
kecenderungan
secukupnya
zul
nurhaliza
Front
##uliharaan
##ifikasi
##OSIT
Akibatnya
ECO
section
Tie
dielakkan
Podcast
##onologi
##AWANI
##lyde
BERTULIS
##enu
VISI
malahan
helikopter
sedari
Burundi
##ASAH
ub
##anjur
##usnahan
Name
##YAR
##okai
keberanian
FacebookShare
04A
overflow
8269
beransur
pengas
menemb
undian
##INAN
##elusan
##ancial
Marudu
birthday
dibelasah
##ENTIAN
##arged
Wy
##andy
Penawar
ketetapan
Romantik
Dab
engin
Beban
Daim
sukakan
##ukita
Patriot
F1
##angkasan
##ertib
Lak
sekitarnya
##Tags
ekuiti
##alm
Buy
##ucakap
##ugikan
berhimpun
Stress
nilon
Teki
gegar
kabar
Parameter
AFF
##olitan
Brooke
Jasmine
laksa
##ane
0m
Aver
##alir
galeri
CARI
hasan
##enaan
##uret
menari
##WAL
Shahriz
Ops
EMAIL
course
##apalan
Michigan
2m
5mm
bayangan
Ghost
korek
EURO
strip
##shire
##anis
setaraf
pengeksport
exam
##aksikan
##emy
ash
##atatertib
piala
perjudian
dicampur
Jamuan
problem
Mike
Pav
Titi
kekej
Excelle
Jadilah
keadaannya
Smith
##IRASI
plac
pemergian
Sheet
Damai
Fac
REK
Suction
##limited
tergantung
CF8
Situasi
Stu
##lier
Infrastruktur
pencuci
kantin
Wave
##ective
surv
PERPUSTAKAAN
Icon
tersayang
upper
siling
##pro
Keramat
disitu
muhibbah
mengelirukan
Berterusan
SBP
diberk
organiz
Rehat
ish
Mayotte
1971
Penghargaan
Map
Photography
##uano
##evo
##limau
PEMBAYARAN
happ
Kalsium
bilstereo
Dongg
Bitcoin
Kwee
Cirebon
Foot
kalimat
blh
Outlook
PELUANG
jongkong
kop
##ektrod
Hukuman
Shield
tetapkan
1952
TUJ
##usuh
Lifestyle
Bonn
##3000
Imm
Irian
cop
kemuliaan
Vald
Pertempuran
##eut
Isya
maharaja
disukai
disempurnakan
Kid
Nostalgia
Hatch
Madagascar
DOWN
##uzz
##schild
##tity
alik
Medina
Continue
mengecewakan
##emporari
Autow
##orin
##entum
beraya
berenang
Kekurangan
makam
hitsABU
Plus500
DUA
Dammam
##JI
ditipu
overhed
melewati
DIM
JUAL
YBhg
Latiff
##ibati
##augh
Watak
Kob
##olin
##iger
##arto
digabungkan
karakter
75m
merempuh
sejajar
Manila
Illinois
Fibroid
BANJ
pelaku
Kegagalan
Tow
berpeluh
Xin
bersenj
Chair
persis
dinikmati
terbongkar
solar
sut
##Mar
Vanuatu
offset
berak
keradangan
##usher
Gout
tertidur
Faroe
berfikiran
KAUN
LEN
##unk
##icom
hous
##amata
##aisy
Networking
Zhipu
GREENB
gitar
##EUR
Virus
dihadapkan
Bendi
float
penebat
##AKIMAN
Concrete
##INGGA
Pertengahan
Hala
Tempo
tematik
Cetakan
RMK
##2019
##ANJAYA
Eas
##Lo
##oria
Nuzul
##kl
pembuat
dijawab
slick
Netizen
deretan
##biah
pengsan
kong
##eges
Berkh
diterangkan
Bertemu
##erinya
Penyatuan
PLAY
jubah
##920
Gabri
diterjemahkan
berlandaskan
SIV
pengumpulan
##waiter
wis
Syam
tentukan
Marcel
##nesday
Jumat
##Fone
##tie
perkosa
berlian
##ilau
terkorban
##ingkiran
##omberg
Sambal
##elisihan
INSTITUT
Rothschild
##acanya
counter
3600
Dumbwaiter
Autowalk
##qp
digigit
Jaket
Grow
Dansk
Hepatitis
Rawat
Tinjauan
difikirkan
buluh
##bet
##ampi
Moscow
Insight
Shaw
##isauan
ATS
Qar
dibintangi
penyelamat
Fiat
##NK
theAsian
Warganegara
##hao
BRAND
munafik
Anc
menunduk
theAsianparent
##ges
ungu
Siemens
musibah
##32D
Suriname
Bujang
pengangg
##agukan
H2
Kubu
kriogenik
##Spa
pengangkut
MIA
CA
Apapun
terhadapnya
NURUL
Bisa
Yemen
##ilis
##ides
##acruz
both
##HD
penelitian
Date
kejuaraan
##lot
Ternakan
Zahnita
Hanafi
WHATS
1366x768
ly
##Butik
terpengaruh
Exim
Acuan
terkesan
perpindahan
Hayat
RUN
hem
kakD
##alsy
Nampaknya
Amatur
Relau
pencalonan
Liberia
010
maksudkan
Omni
Disyorkan
sukarela
mercun
Manufacturers
Islamik
##esse
suppl
pengalihudaraan
pencernaan
plate
OPT
##urahan
customer
Lund
hanyut
membaiki
Term
Apatah
diingatkan
##lett
faiz
jurutera
##unaikan
##uted
##br
KM477
Menambah
Insurance
Hatta
##umper
##uttle
##ishing
##2017
Sedar
##AUZ
BAYI
ANALISIS
meletup
Kehebatan
##malaysia
##Cenderahati
pembahagian
Permintaan
attention
6m
Dedahkan
##tag
macamana
SEM518
##andong
##eless
Ular
Terlepas
Sharjah
Materials
Bennett
##unut
menyatukan
Arwah
ombak
Meh
topArrow
leftArrow
DUIT
Rajah
lik
##Pengacara
FT
##uca
##Pelamin
Barbuda
Famili
##ية
memadai
Dark
Opera
##Booth
##x6
Walkways
Kot
Pohon
##Kompang
##agina
Veracruz
Kosovo
40200
##URUHJAYA
berunding
##ido
Vanessa
##Katering
##Gubahan
##Juruvideo
##icia
Stor
##ronesia
##oire
Fluor
TAM
##Kanopi
Dilancarkan
BALAI
ditangguhkan
Syafie
PID
pcs
##The
Pesona
Dikunjungi
Tonga
Sentuh
##etuk
##awagam
ilaaha
Oasis
##perty
dihargai
235
radius
Zeen
s72
##ribute
dikuat
Onexox
Alexandria
didengar
Principe
sapu
##UE
142
nikmati
Sekret
Haziq
Lubang
##esokan
MAIP
TENTERA
Meriahnya
##embirakan
Terut
##Padam
##ozhou
aidil
Sempat
224
##unyian
DAPUR
PESURUHJAYA
Barium
LIHAT
kelam
Whit
BalasPadam
tayang
Heh
##lvania
PR1MA
FP
Lulus
##uaian
##emang
maki
Dilindungi
Fif
bohong
McL
zain
##ENZA
better
HALAL
Equat
##arij
SMP
STEM
##ALAU
##sylvania
going
Hobart
NC
Veri
##uslim
##ANTI
Spline
Wag
##oming
januari
Bergabunglah
dilanjutkan
Klyde
tits
##unnion
##ingen
berkala
Mais
Geografi
Evolution
mempertingkatkan
DISEMBER
RASA
dirasmikan
PPK
tarikat
Rabb
##ATIONAL
Thurs
cacing
bagiku
Tumpuan
Aida
##oko
164
KESEDAR
##ares
##MA360
Wad
beratus
percakapan
RAMADAN
original
KANGAR
diiringi
kelangsungan
fan
##awasi
mengena
##antha
Basah
##660G
KM477660G
Dham
##epah
iddah
Pitas
gif
biologi
Jeans
Batas
##ibawa
Takbir
interaksi
Plain
Lesotho
Gambia
Valencia
Farhan
Jacketed
Occ
fix
Stand
seksa
256
##linda
BPA
HOW
Ketidak
BERSEKONGKOL
pengawasan
PhD
RM150
Teresa
Caledonia
UPSI
Sofia
Physi
Mertajam
ITEM
Eld
memaks
ROK
ear
diikat
Visual
jemput
Kegiatan
##IMPINAN
SURUHANJAYA
##ahim
KEPUASAN
Badar
NST
Decor
Paulo
Nevada
##ABILA
Escort
Pennsylvania
Belanja
Event
##olek
Arkan
Aduh
trauma
Tahi
Moon
labu
1945
limit
##ulur
##laq
4X
##Tim
barah
cic
##MAP
##enya
melukis
mempertikaikan
GERAKAN
MWIG
Frid
PPM
##uruterbang
Pinjam
Brav
Rintangan
Wee
dipisahkan
Senator
KHAL
Advertorial
Dataset
Lut
Karangan
MAG
##oza
cum
article
padan
okt
yayasan
Antonio
Mener
##USIA
Akbar
Chaozhou
bontot
diedarkan
SELEPAS
nominal
1st
Mualaf
##upi
political
Lun
##apeim
bomoh
membahayakan
mall
##opak
dasarnya
TEGANUKU
##ISH
aib
along
encik
suapan
mesh
From
dipertimbangkan
WHATSAPP
rx
##Page
##xid
merakam
kred
Cebuano
Lek
konsesi
Sholawat
zarah
192
Suis
dicekup
ADAM
PENERB
Tambahnya
Verona
tatapan
##Ville
##ultan
Jadikan
berkhasiat
kompetitif
Penyulingan
Purata
Shaari
##رح
Salak
Austin
FJ
240
Processing
Down
Submission
golek
BUYER
pang
##eeq
123C
Article
Sung
denai
##ulirkan
##uder
Strand
##PPP
kasus
##BON
ditekan
155
spir
##olle
PASCA
Leong
##jannah
Marah
kelakuan
Jebat
cle
Angka
sensasi
Lazada
Xxx
tawan
confirm
cendawan
pub
dist
##oping
KEMASUKAN
Lock
##bach
##IDAH
diceritakan
333
##engs
memihak
##tures
Penguatkuasa
AADK
SINAR
petak
ditimb
CATATAN
Berikan
##mak
##astik
##kuasakan
##175
Institute
Zaidi
jilid
Gitar
##EMENT
Samurai
Jumpa
##ilas
Pelaporan
SKPM
perangkap
komersil
Urin
##ovic
##uncung
Commercial
kemahuan
##uakbar
Yapeim
##abella
track
##ubahat
##ikai
##het
133
koyak
Henry
message
##inition
Tucson
BANGUNAN
berjemaah
gener
Kapit
Torrent
Silang
TANGAN
##WN
ilmiah
Fargo
Auta
##lig
##Up
SEAL
Sunah
sarat
VITA
##muk
##paz
Penolakan
##aaaaa
Kadangkala
Penter
Penanaman
Meterai
Bra
rank
##yarakatan
person
Maine
Thursday
Dap
Burkina
Overs
pallet
##anna
DIP
trigger
##Solat
##8Rookie
Diambang
tersumbat
TERAT
##area
MAIN
##ADO
ditinggal
##asihi
506
pergaduhan
jurnal
taq
berukuran
##ived
Lind
Beluran
207
RM45
statik
MAIWP
nyanyuk
Acc
Galian
kekangan
MENINGKAT
Latitud
Karl
Comoros
warna2
Walaubagaimanapun
mengutuk
baj
##alar
rar
tandai
ACR
perempuannya
Ukuran
diakses
Kabin
Kaji
pujuk
Display
santun
Sihir
fill
PERHENTIAN
Sienna
##LIST
JUNUS
gegelung
##ZS
pengubahsuaian
##achus
Antarctica
##rir
PENYAMP
ingatlah
Dali
mlm
Cyberjaya
dwi
Gir
LIMA
Nice
##watakan
Betapa
LAMA
citi
##wangsa
pengembangan
kesenangan
##erbo
Melancong
Berkel
engine
Patologi
Pengundi
Lanjutan
##sinya
Terasa
Tekak
Raud
ngeri
ukhwah
penderitaan
rebah
dun
fel
hor
156
LANGKAWI
SEA
They
Sandra
##allaah
Horiz
##ebutan
##lias
RMT
Swaziland
py
Gabon
KIMIA
sumbang
##ween
MENUJU
Jerus
##atrix
VIVIX
FAS
##esit
Biologi
blowjob
Jakim
wala
##unggak
Faham
##egu
meluangkan
Financing
Mummy
Perbuatan
kenikmatan
bandaraya
Philip
Diunggah
PRESTASI
##6200
tadika
Bersamaan
Daro
Agriculture
##INDA
##ipah
Muhd
KUIS
WaktuSolat
Zahar
DAKWAH
kurnia
##ohanian
Alpes
Bada
SEPAN
butik
Workshop
##USD
sak
bersumpah
mendeng
tropika
fidyah
##AAH
PO
Pasang
terkilan
Hasyim
RL
162
Selamatkan
4mm
##idz
Yelah
##yun
pelupusan
##iplin
penderaan
T2
Tuhanku
advertising
##yong
##HTML
berkelah
Ibni
PANDU
Yaz
Longitud
bru
seraya
##ihani
RAMAI
Jati
saks
SEORANG
Olahraga
berdebar
mukanya
sawan
Sunda
KUNING
variasi
##855
ditimpa
diploma
##epang
Menguruskan
PLC
##CAC
##uatiri
Prel
##igny
##ruddin
##bie
Markets
Lexmark
penamaan
Duplex
Massachus
Meal
muatan
##FL
perkh
spontan
swing
mendiamkan
KAYU
Steve
francais
##FITRI
Xerox
##SEM
##FB
Bhg
##optimumkan
##ESTAY
LHS
cermat
Insurans
penubuhannya
Susulan
Corolla
lipat
##centric
Allahuakbar
BAHAS
tergugat
HIK
pink
##8871
BUM
Singkat
keraguan
Sultanah
JURUT
##jad
Suplemen
Khairi
Hishamuddin
Hope
##akas
Sponsor
bisnis
##awap
##UKUM
Denpasar
cot
jelah
wahyu
BAJU
kapan
bernombor
Ranti
nit
##onent
antar
Terkejut
Bord
bkn
##qim
##osari
Venture
##tul
Malacca
Pasca
##clip
Tambunan
Rita
visi
kabur
tib
aka
270
kezaliman
Teruk
keseimbangan
Std
Renungan
GREENBOC
PENYAMPAIAN
Zin
gedung
won
##oil
129
Jes
myM
##ikhlasan
komplikasi
ADAB
Haq
##umbers
##ousel
Emo
DL
GS
##unangan
kesenian
Ketagihan
Herbal
panah
Perosak
##ees
##iburkan
MINDA
gamp
Style
buncit
##yalah
kerangka
##oomla
buli
keenam
##AGAAN
Gamb
leka
parameter
HIG
sad
selam
master
Metals
Massachusetts
ramah
bersambung
##SMS
information
Dakwaan
Liar
pelanggaran
Ruby
pemburu
IPD
berpuluh
55200
310
Kemurungan
GP
Qura
Sanggup
##enggu
berku
Kenaikan
##KIT
Alc
benz
TERM
coli
6019316
##ought
menyelamat
60193168871
JUL
pergaulan
merentasi
##ELA
##ANTAR
##anganj
##angkung
kecerdasan
jeragat
##case
perawatan
tangisan
DEPOSIT
Nash
shalih
musik
JURUTEKNIK
disember
penyembuhan
lec
##Sem
##lank
Barnes
SPAD
Solo
dakwat
Pepejal
Asisten
CLASS
##Esp
##apusan
menasihatkan
Eff
HHR
dipenjara
ditugaskan
PENGAJIAN
diatur
5px
##akian
satelit
ceritanya
TIMBALAN
sahur
172
Musuh
pergigian
Overspeed
##aves
Meet
duta
berarti
latino
Quest
Ges
Haris
Bertanggungjawab
Trophy
kesediaan
Linux
AIDILFITRI
najib
##erne
mempel
WAL
rempit
BAYAR
TUV
Rumi
Ceramic
##123
##Posted
Puspanita
range
Carn
ditujukan
EDUC
sifar
lantang
Berbasikal
STATISTIK
Doz
memisahkan
Letupan
ansuran
DIAMETER
Jurutera
yt
##iant
##ERT
sambal
illallaah
latinos
##itiviti
sepadan
preg
##menung
FSC
##ailah
menapis
opsyen
HARAKAH
mitos
##83
islami
Trunnion
Bersejarah
Maxis
Ariel
5L
debu
##edic
##ects
berbangsa
Monroe
Jew
##iable
SYARIKAT
flip
Jaringan
Ilmi
Resorts
jamaah
terpisah
Pencen
penggambaran
samun
Syuruk
permata
SERV
##aliran
pencampuran
Janna
diisytiharkan
Kelana
Admir
##wais
212
padaku
menyedihkan
cipap
Eritrea
jadinya
##upas
Pentaksiran
menonjolkan
Nark
Vall
Denggi
Uang
Inkues
Stev
Bakery
##Dev
##umu
juz
##ills
##eroboh
FOC
HULU
Ion
meninjau
##anten
pengedaran
##ihatinan
Asnaf
227
pergel
##MYK
Intelek
pedih
Are
Nun
Kejuaraan
Distribut
dalang
##ANGE
Euskara
Lake
ratu
##yukuran
##ediatrik
Cinematic
P9
##upsi
Prihatin
Haha
##uages
penentuan
##ARAYA
penyus
Dewanganj
spesis
JAL
Expo
Rata
MINGGU
Permukaan
Kesinga
119
arth
BERAS
Lapisan
Wednesday
Yellowstone
Indonesian
seludup
##318
Kren
exco
Analisa
##osts
OGOS
##ination
beranggapan
Repair
Lestari
Cube
KomunitiAWANI
pondan
tanjung
##utions
Atik
yus
Terper
Seram
Disesuaikan
Pukulan
Lop
##udge
Anemia
##ipar
Discovery
616
##aktub
signifikan
SINGAP
##UDU
Tea
Sorry
kay
password
psoriasis
Bee
Abby
switch
optimum
pereka
##angsangkan
##EMBAN
sarawak
mangkat
##uraikan
##andarkan
Menyebabkan
##izinan
Helena
product
F304
Malas
Kelemahan
stim
Private
justeru
##Ht
disus
Lipur
saranan
PIH
##omputer
Sepenuh
booking
Tolak
terbatas
##undred
##eutikal
pause
Merlimau
Acco
Kanopi
Legacy
larang
biri
Pemas
DeVille
PESANAN
3G
save
dihidangkan
JKPA
##ether
##maseutikal
Laila
AWAL
guide
Ginjal
Hajar
dual
semut
962
CU
Istikharah
##affar
poskod
3000S
KOD
Kebetulan
brand
##ewatan
pages
Zheng
ginjal
dimusnahkan
kd
rempah
Ortodontik
Delhi
##asteraan
##urr
Arang
##CHING
bonda
##atta
Pendirian
Boon
Jelasnya
gigih
AQ
dikutip
Gegar
UMRAH
Interm
##ungkook
terbabas
tetiba
Seribu
Concord
thumbnail
##ederakan
buatkan
Haron
Kejam
butuh
##embungan
diaorang
##IPI
lobak
##610
menyayang
8X
Nafsu
wife
disangka
Esa
##ucat
316L
ZAH
##eluw
Shuttle
##H1
##NU
##edap
Jambi
##Francais
Suapan
##indik
Oregon
berpandu
based
Mursy
Bez
N9
homestay
KADAR
Chuck
Kemurnian
##ITIM
Konon
catch
##loe
english
##kal
Ihsan
MyBooks
dipukul
dihubungkan
Matrix
After
##hhhhhhhh
REPAIR
Beta
terkeluar
Imunisasi
Yi
dompet
##250
##°C
Liyang
ELEK
Pure
wafat
ornam
Taktik
Ditahan
##ledge
Zara
mc
##85
1975
dipul
Rina
##agakan
Chek
##charged
Sperma
Barbie
Headunit
Lingga
citer
simen
Menangani
Collagen
##anduk
##heed
186
Fattah
taktikal
sharp
Dzulk
Miskin
##arib
Mandian
MBJB
meminum
Akak
##yssey
studies
Bakti
Delegasi
##udupan
sale
mekanik
290
tercinta
##iddle
##mers
##egak
memikat
kelap
Banding
##pertensi
Hindi
Flex
U29
mingguan
keju
##ools
Wujud
TRUCK
Baituljannah
CUTI
Pautkan
##eposit
terkumpul
Fisher
Encl
##urahkan
Gerbang
Uh
##oya
Bersyukur
Memancing
Ainul
Brig
Kij
belikan
Pemangku
Abe
Marz
##Portugues
##eoxid
arti
UNIS
nekad
pewarna
TIN
Yin
Ani
khasnya
MBMB
##ikus
##okaan
anggur
Baiklah
ketibaan
Fame
Linda
##vc
pengasuh
##ANGKAN
prat
berdikari
PERAKA
Anggaran
ca
##nels
Toronto
EPIC
tube
merugikan
Flying
Cow
fot
##siakan
bagitahu
Header
##grade
Kawah
PEMAKLUM
longgar
Chenghai
##yi
sekutu
Senior
##clipse
SALAM
##yrik
##OLLOW
PERAKAUNAN
##utih
sebiji
##icks
Org
Seronok
##ences
##ulia
Expert
Norh
Michel
Human
##aye
Shandong
skop
1B
##aky
##eout
telaga
##aibkan
eksentrik
##ESEN
Pembaharuan
216
IG
hub
sugg
cerdik
Kiribati
Kac
Vivo
SEM522
McLaren
EDUCATION
Hasilnya
ulangtahun
pari
Palm
PEMAKLUMAN
Zep
Steven
Tasbih
Kunak
Missouri
##umbahan
Bulk
Honey
##idas
lembah
syabu
##arutan
berilmu
##TAGRAM
PING
lantaran
pajak
##acq
Guest
Getaran
##rosse
FOLLOW
##rove
Kecacatan
Cole
GAJI
SUMPAH
##ilawah
302
Emerson
Demak
bole
que
membas
##UBUHAN
kegelapan
DULI
G3
##abilan
##liyah
really
Deep
Aqsa
MAB
##urk
Submit
slow
Michelle
kerjayanya
Kiz
##Suka
Penyebab
SOAL
Bright
INSTAGRAM
Cenang
dini
Elaun
AWANG
tasawuf
Jackson
##ovaskular
##ardu
##eviews
btn
##mati
menerimanya
Modena
RM250
Abduh
hist
##urau
lubuk
##OUR
##qpila
hijab
Impak
Sandha
JEMAAH
radiasi
Hobi
##qip
Kaabah
bangku
Danish
insulin
##eriaan
Pemanggil
Juling
kabut
bawahan
Mahir
Berbanding
##ahsiaan
MIM
##rate
Superint
dewasa1
Persiapan
SOLD
AIN
117
##quin
FOCUS
dewasaLebih
KRIKET
furn
##tritis
menghala
belaka
Baripada
kuno
dibersihkan
abis
penampan
Controller
Mengeluarkan
lelongline
##dirkan
##ibong
##AMAL
ahlinya
bilah
##sing
KHAT
va
##OA
##usif
Bersihkan
tembok
gemilang
Dish
##aplikasi
didunia
1436
Ranger
lagipun
CERAMAH
Sentuhan
204
Kecamatan
##raw
##ATUL
MDP
Memperk
Berjangkit
Corp
jama
Forget
##inki
celik
Adegan
Jerusalem
caus
account
Bulldozers
##nm
Meniup
Panitia
dikuatkuasakan
Jengka
Starr
pemberontak
Nid
splits
samseng
Hussain
Natas
##uput
kete
720
Dos
Teater
##stery
Remy
##Time
##ican
berpusat
masalahnya
Ekin
accord
##atin
##UNAAN
Fitting
JBPM
Hikayat
Sonic
kurun
153
2mm
##usinya
##entas
STOR
##lh
intan
Odyssey
tenter
setara
##IMPUN
Handphone
syiling
Plag
priv
pengecas
##bell
##AKE
Minnes
small
Otot
##urner
Emosi
zakarnya
BELAS
kotoran
##uap
##ETAK
##otherapy
##iii
FOK
185
seumpamanya
bulatan
##nifer
Lucia
2px
##ament
takhir
surl
TwitterDev
##EMPUAN
formated
##eil
Statistics
Kalam
ost
##tually
Anita
arang
Minnesota
Bubur
##fl
Selagi
Garcia
HOMESTAY
Ganjaran
##icious
dikejutkan
##anyon
Bakri
Dahlia
berkemampuan
SIRKIT
Friday
##mag
EPS
berkenalan
MASYAR
Fadzil
668
kesahihan
##ensive
yahudi
Herzeg
Bagikan
tergesa
reben
Ulum
santan
Oppo
##RIS
Along
berkebun
Potensi
Migrain
defisit
USTAZ
##inang
pengajar
Jade
UV
larut
peha
##DF
##lein
Lintas
Sumbawa
COD
Lia
perolehi
penanda
Carrera
Fund
Chiang
martabat
##opok
Cherry
dipamerkan
VIEW
GU
Tes
kumpulkan
membiak
Peters
meriam
differ
dihalang
APABILA
Dikemaskini
UniMAP
jawi
##itanya
landskap
Administr
C9
Temu
##DX
##zaman
Contac
Ahlul
Disiplin
BIASA
##JEKTIF
435
penguatkuasa
Bendahara
##ael
##ль
berbangga
##ICAL
batasan
PERMATA
##ayman
teaching
ENERG
##aharui
rusia
##asir
diulirkan
##erhentikan
##autiful
##tafs
mentua
##rosc
Shqip
##abatkan
Alabama
penamat
Pembaikan
penyandang
MARITIM
mono
Arsenal
C7
##OUT
##lient
Association
BC
Yaris
##Z1
Ungg
tagged
MASYARAKAT
mengemaskini
didorong
Kompet
##ominasi
bungkusan
100000
Dirasat
Kiara
G6
Buasir
DET
##acob
##TAB
MALL
telekomunikasi
Eclipse
Queens
jaket
Gang
kristian
tertunggak
Maryland
430
buntu
sepakat
instant
##pihan
##oud
##etch
Mengubah
dkt
Pemujaan
Lord
##atory
cegah
tumpang
##ubi
1966
##ression
kelentit
Buffet
Athlet
berkepentingan
Cour
##ENANGAN
##antangan
Alj
Pound
Vu
##pur
##Un
##apers
##iab
Kesakitan
TERHAD
##ongsang
Palsy
MASALAH
Hambar
##eat
Berkanun
Corak
Sorokkan
##ograph
GADIS
saksama
rizab
Passat
NUTR
KAFA
Punya
PEREMPUAN
definition
##yrrol
RB
kulat
##bed
Ditambah
dark
Muam
HAFIZ
##EKAL
##esium
penyatuan
##ujuran
##AKARTA
ketagih
##Html
apalagi
##olid
Sander
ACC
padah
##sica
##LIND
Mirage
siapkan
##ekonomi
Dibawah
ketiak
LANGGAN
around
numbers
##Indonesia
Rahnu
iktibar
electric
##Deutsch
LUP
Penyayang
habiskan
Alexander
mengusap
ENGLISH
MOK
SAI
dram
fiskal
##yair
Diterima
Bergaya
muak
kentang
##abarkan
PEDULI
Auri
Bour
Kalah
flat
##رب
##ayal
##UBA
Alien
rcp
MPKB
##uttering
TUJUAN
Jujur
##imbah
Mustapa
##consin
##aguna
##AKON
terluka
Logik
memorandum
Bikin
##ART
Pahala
pkai
VO
cell
Erotika
dikhuatiri
##uil
##oven
edit
Sedekah
##1425
##raham
Latest
##ustru
Labuh
Wisconsin
##stronomi
##roh
STS
SPAN
TIND
mum
sekular
Penel
##quir
menyerlah
##ppi
SBH
LULUS
takbir
tercemar
rakam
##bala
##OLAAN
##tikai
Tenness
##AUZDIN
diyak
penunggang
##onder
##epatah
DEMI
##bulan
WFAUZDIN
PIHAK
berhutang
hehehehe
##hair
berlum
##ebo
timing
Cint
##epuk
membandingkan
dirasai
##adison
Documents
fau
151
1956
##Espanol
bawaan
##INES
mematikan
hum
pengel
NAF
Zoo
##erio
mendaki
without
SEREMBAN
Bosch
PENGGUNAAN
Tepi
##lg
##okrat
SIMP
fahami
ngn
##atani
Ring
u2
seberat
persaraan
insaf
julung
##untik
##andukan
merangka
balan
ubi
Pening
Menak
Charl
SEBAB
Esper
thanks
##odin
menjumpai
ornamental
JAKARTA
Keper
gaun
##ohongan
##aste
##syad
rekreasi
Ivoire
lt
##anjak
##ATOR
grad
Nari
Penghawa
kual
##ajalah
##injen
Sharm
promo
tutorial
##asaki
Apart
Zhao
luah
##ald
##turi
Industry
Tennessee
Adaptasi
Nikita
garang
serahkan
Bilau
##ANCE
Instrumen
Loke
M45
bebanan
Siasah
##ffin
##icky
TEMPOH
##apolis
dipel
jsonp
cintakan
##udaratkan
##main
jalanraya
Bulat
TRAIN
Bail
Cucu
kekadang
exc
##Antar
##hin
##atto
##izu
benjolan
Rapid
semen
##ilahkan
##akn
AWAS
Record
##ERSIHAN
##hil
##CING
Isyarat
dibubarkan
Elok
Ngah
punyai
##ouf
Avery
##ов
purba
##aktifkan
Telekomunikasi
terpel
WARNA
Tulahan
016
##utamakan
Jennifer
Bellows
Hex
kesempurnaan
Membintangi
##ANGGUNG
Mubarak
Canyon
heart
pukulan
##Aid
adjust
##ORAL
andai
Telecom
Challenger
Marrak
KELOLAAN
gad
PENDAFTAR
Ferrous
##fyan
Publications
Kamarul
Cuff
Biaqpila
ruam
peruncit
##endakan
membelanjakan
LUCAH
Ting
kayak
Ris
beh
HASIN
##Indian
ric
##eweng
Tommy
Ihya
mamat
Reaksi
##ENDERAAN
DON
16px
Penyokong
Att
Supreme
writ
##GM
berhubungan
Village
Dayton
Jol
##IDS
memperluaskan
ABAD
B7
Rawa
subhaan
ABA26800XU2
AUIS
lantikan
759
Eastern
Nabil
##tel
##uya
okey
Countdown
Supplies
anth
kebocoran
Ekzema
Syafi
KENDERAAN
menderma
perselisihan
gelar
hitsZAMRI
Aturcara
ease
ranjang
##AWL
Syi
Heavy
Pageviews
PLAN
BEKALAN
diingat
##khah
Ulser
cabut
efek
##blog
##asian
Isham
Bara
birds
fizik
##F1
Diaf
gallery
Hormon
TINGKAT
meni
##atifikasi
Avalon
oem
##ANTIK
##fort
##emilangan
##idae
Mississi
taksiran
Traffic
Serangga
termaktub
LANGKAH
Vern
##ourage
Minit
Nebr
##ukau
##ABALU
Neon
Versa
rabun
Menghasilkan
##cling
fib
wait
P
##itat
sebatang
##indukan
221
##eluwapan
Mississippi
Cheese
Profile
dataran
##ayam
Rejab
yan
semburan
Pepper
##ariti
prevent
overl
Maid
ketim
Unlimited
INILAH
Trooper
cad
##NER
PERDA
Cycle
MANUSIA
menjauhkan
dsp
##BAH
##enakan
Load
Switch
sampul
Kuil
ulamak
##andingi
Sentosa
lebuhraya
Cover
jamu
Skyl
Arabic
Dilaporkan
Louisiana
SUH
berpandangan
Dominica
580
kac
##ihin
Ste
FAMA
eS
hobi
keajaiban
bersamanya
kehormatan
##ajiban
bergel
sebatian
##igital
##uncur
##AMBUT
ikhtiar
Science
Dawai
dap
Designjet
SUNNAH
##oterm
Written
Liza
Mengawal
eq
SEMANGAT
SIEM
##luas
JUGA
capaian
##rum
energi
##tionary
##ENGGA
Loire
mbsb
Pemisah
##2016
Snorkeling
Leher
Admiral
##Follow
pematuhan
KERENGGA
PENJARA
terserlah
Quantity
Anil
##drome
didenda
S5
##ised
penjajahan
diskriminasi
514
penyemb
Dikeluarkan
Curve
##ayy
##igurasi
480
Madison
mendalami
DEK
biaya
lena
berst
Mentor
Final
Rabbit
Random
##AYAN
exec
Komunis
Extension
Lai
Sco
##rihatinan
220hp
##JAWAB
kelamaan
MENANG
Freestyle
Videos
##ahayaan
atom
Emak
Gugatan
ketimuran
unta
menyah
##etek
bersinar
Carrier
KEMENANGAN
payung
Maknanya
KINABALU
Sandwich
solek
Ashley
HADIAH
625
##ITM
RON95
Alah
Bris
Fronti
Angelina
R1
##ontakan
##UNGG
toksik
Tingkatkan
terbiar
dinaiki
scuba
PRIVASI
Hubungkan
##sana
selang
Edaran
Bugis
Pg
##aware
KHAIR
register
Footer
Talk
sangat2
Buluh
##siklopedi
SIEMENS
berkilat
Beam
Field
tipis
Aub
RANTA
##UNJUNG
kaabah
Elemen
FIN
Tiff
Beruas
kepingan
taj
##tani
AMAL
Kalimah
Error
Tadi
tapisan
##okep
dikumpulkan
##imumkan
elektromagn
Foods
keberkatan
cadangkan
##86
WiFi
##CK
Penjaja
OBJEKTIF
japanese
ever
janin
dius
##ugambar
ajaib
hairanlah
Accounting
gebu
KAP
paj
kesinambungan
##aunch
TVET
Freezer
ig
##shah
jahil
Berlian
Innova
Campur
jaan
Sharaf
116
Tanggal
FOKUS
Jung
Yeo
##ANGGA
Darus
Berdoa
tn
menyebutkan
##wor
amy
##ugor
##AKANG
berhemah
184
KERATAN
Insentif
amin
PELAKON
##ELI
banyaknya
##ANDAT
Ricoh
##Antarctica
520
Rendang
##ilaku
Marino
sinonim
Ummi
UCAPAN
Pharmac
##tib
Kriteria
Bangkit
hu
TERATAI
Spectrum
Lanyard
Every
##DIS
##egarkan
Medit
wince
kecam
Terbaharu
Dart
##fakat
##action
Shay
pendakwah
Polar
jahili
Cm
Sikit
memantapkan
Ameno
cergas
Dukhan
ROH
pesaing
Minolta
##rooms
Gibson
0000
Integrasi
Gle
Ummu
Install
##nnnn
Tracker
##kandi
Amber
305
##ichai
Kawat
Putus
poll
##WIM
abadi
238
LOND
Socket
##indasan
Academy
wo
G20
Rachel
Haa
##bird
Kerugian
Moore
Short
KUCHING
978
HAMIL
bali
sedaya
##ancak
Populasi
##Wiki
Amran
menceburi
Betung
Ava
ZULK
Rally
menangg
Keroh
Elsa
##antinya
dreaming
Ron
##ecur
pertambahan
KESAN
1972
Kelima
CTS
sape
setem
##OGRAF
Salmah
##PortuguesP
Rig
##overs
KANDUNGAN
TINDAKAN
RAT
##umbuk
SHAWL
sendirinya
KDM
Arkansas
Nebraska
sensitiviti
Girls
LEM
Right
Tarm
Renang
hb
##DAN
seratus
rambutnya
PG00
376
Larutan
PADANG
##ecticut
##kes
##epend
##oneer
CashOut
pengadilan
##obat
diperluaskan
Connecticut
trofi
Hampshire
Pemasok
cuc
1973
pancut
Gatal
Spect
Dami
terjawab
##ifas
Biokimia
518
Panggil
plants
##eur
Pedro
##roscopy
pank
JKKN
TravelMaster
Honghai
Ingatlah
Puding
##arapan
Sekatan
Its
including
Lundu
RID
Rabat
Serah
menzahirkan
MSN
Nabawan
tertipu
suis
Executive
tebing
pensijilan
alergi
TAKZ
Jombang
##ATANG
##stematrix
ez
##rec
##WARE
terjamin
ULAMA
##arnain
Sajian
samar
##BL
Aluminum
Rogue
##isl
mengongkek
##acai
padanan
least
sehat
Myvi
infiniti
327
Campo
Konflik
kecintaan
dipecat
cars
Giveaway
OH
##Sab
Regency
samsung
Thunderb
Ira
rahang
##hadaman
Seville
##ural
provokasi
677
Oster
POD
Button
Navigator
hish
between
1g
420
919
Three
Who
MOHON
senario
Graf
CoQ
Nova
AMB
##ASISWA
persimpangan
Maafkan
CAMP
Ginger
bergaul
##FMD
han
Aswan
GALA
pump
Ende
MoU
##erman
mengaibkan
Chow
tunggakan
romantis
325
syak
Edward
Q10
detail
rangsangan
salji
##hys
penerokaan
Sentra
Aspire
halau
Masing
##1600
spy
Syarie
Fleet
sumb
##apit
Askar
kuatkan
paper
Affiliate
Clean
Wolfberry
##730
Purwakarta
arthritis
Kash
tersangat
menghayati
RDS
##getar
##ecker
kemarin
ABS
##anne
##akalanya
##HIJ
BAGAN
Bintan
299
##lil
Gelombang
Hatim
G5
Reh
menyimp
##azig
PBPPP
Futsal
##epid
SIB
Labs
Fiksyen
Lapis
Jember
Relay
##lb
pengembaraan
isya
PRP
Andrew
halia
Vermont
viewed
##UDUGA
Zai
pistol
237
Darussalam
Delaware
yahya
Pula
RCI
few
Keajaiban
Binatang
TEMUDUGA
Spectroscopy
IALAH
Pembentangan
Sungguhpun
ZL50
Lil
Siswa
Lakonan
##KG
##afak
toleransi
##mph
##tifkan
Peneroka
Banjar
##PortuguesPусскии
##Pent
##Porn
##avator
Kav
belayar
Mengerjakan
##SUL
##inggikan
konten
KAWALAN
Kolesterol
Fajar
cep
##asri
##ERON
Self
Disc
Vienna
Countries
stic
BACK
ping
Dinasti
mampan
bersenjata
Cekap
feb
##yaris
Samsudin
Antid
kiraan
Fis
##elihan
Mendidik
Sanaa
Diafragma
Aktivis
Pekebun
BANDARAYA
ujung
R8
TUTUP
Rhin
feri
TECH
Rim
gudang
Inggris
Ketenteraan
Akauntan
Cali
RUJ
##owit
Colt
Hasmah
Laborat
Jelajahi
Sebelah
Bidaan
Persekolahan
Celebrity
HFMD
Pisau
berjimat
SPEC
FORUM
JOB
plas
UMAT
##ById
getElementById
##RAW
##indar
##OLEH
dipengerusikan
Opel
Demokrasi
##ANGKATAN
Delima
Newsletter
degree
Medium
Daik
##alier
Tank
Telanjang
MULA
Sandi
##esc
tersohor
lenyap
Deg
E53
FIL
YONG
ganja
##araskan
inbox
tembakau
Var
##PAA
used
rotate
Lingk
1968
##UND
##hatul
FAMILI
Idaho
sadar
##geri
Halimah
##SIP
##PKN
ZL50GN
ho
keboleh
##enzo
ISN
MH17
Rebus
GALAXY
KAT
##ulut
Marudi
##adise
petanda
##vik
Terkait
suaranya
TIGA
##imbau
Eti
български
2030
Tabuk
XF
BLACK
Ran
bebola
Zainul
Fortun
PSM
Aluan
##ancuran
Jamek
Doakan
grafit
ROM
Mahm
##133
Mulatto
Manama
KSB
M1
Penuaan
##IMUS
Maximum
##erosotan
G25
NL
select
pemanasan
Aminah
menghafal
##elkan
memburukkan
stres
Bash
lekat
##List
1977
##elaraskan
tasbih
pucat
##aira
menerus
research
perlantikan
Menyokong
currentSlide
Comb
Togo
##estarian
bertemakan
benteng
Tegan
mengusahakan
penyeludupan
Frontier
Meta
Shak
dokumentari
tambahnya
Jieyang
##eT
mengalah
##ALONAN
##ungkaran
Official
##PortuguesPусскииFrancais
##abakan
Mount
##embilan
siarkan
berteraskan
PENCALONAN
Fathani
HOLDING
settle
187
##UDAYAAN
Joomla
julai
UMS
didikan
Supers
Lubok
Pernikahan
##Pentadbiran
Gio
##HMAN
##ures
##ewanya
Pendakwa
Julau
diplomatik
TUKAR
dengki
HU
Nay
##ahah
##usukan
##anjakan
Membunuh
terangan
Pastinya
anakanda
412
Slam
Vas
bintik
##ukit
LaC
kakaknya
##redible
saudari
ogos
kening
Econom
Jr
memikul
vivix
tmp
##wit
##ᅡᆫ
Penggantungan
Concorde
Menantu
Serat
Money
##undra
##engkung
syok
##UDUK
Fujifilm
##isiplin
Madiun
dikelilingi
resolution
Potong
asasnya
##OLOG
126
440
##ifica
##obalt
REST
Taala
HARTA
MODULE
pujaan
##ombre
languages
GUA
##voi
RM13
teen
diwartakan
Pematuhan
Perlukah
royong
lambuk
PROTON
##esome
shoes
Kodak
##orano
Corsica
singa
##dar
beracun
##sanne
organizations
Pangkat
##basan
##eto
Praktik
Banting
Dental
Hajah
##310
Chenor
##uliakan
Ekor
zim
melek
dilayan
rxz
Fact
SAHABAT
Electra
Babi
Cind
menerapkan
religi
Cabang
Bri
come
akun
Olympus
berstatus
Layak
##ticip
Fireb
##rifkan
mengesyorkan
Kelihatan
Muslimat
Berlebihan
MUKA
self
Cream
Jem
marketing
TAKWIM
Rae
KAMPUS
Applications
pawagam
takda
Amirah
Kawasaki
Replace
Packaging
menjelma
rub
##eos
##ча
##AIB
##IMBING
LSS
Antik
Plant
##izaki
Bonet
AYAM
Scotia
Et
##ст
pemakaian
Melissa
Leica
WARISAN
LKT
Piaw
Tasek
Vin
##eston
syg
dibuatnya
acro
##dad
##ZUAN
##aborasi
awet
Tiap
Sampingan
ROKET
Z1
jln
AMPANG
##asutra
Charger
##adaban
##afic
Andai
##LINDUNGAN
Hukumnya
parkir
ISI
Bois
Achi
##fuck
##ularan
Burma
TEMA
penyiasatan
Thanks
NISS
disentuh
Berkenaan
Plots
Gerhana
PERSEMB
##but
pengesanan
Nathan
aqiqah
RAV
perisai
##paq
diperiksa
Lubuk
Tiguan
lalai
257
SCI
Anjung
Ij
oral
KLN
Hael
##gma
dirah
Alquran
bilal
##ometrik
melimpah
pemerhati
sehelai
##hyr
Mustang
##pura
mudahnya
##uthor
mengangkut
Pengel
Santo
RoboForex
cadang
Carmen
PEMENANG
gerhana
duga
memberangsangkan
Gonzal
bile
##ilir
PERLINDUNGAN
Trucks
diciptakan
Lucerne
##itungan
##agaran
keikhlasan
bijih
Rhode
Wyoming
Beh
IKAN
##aina
Syura
didepan
Refrigerator
Suf
Aztek
Idul
##uria
Workers
diyakini
Zohor
PERSID
Washing
##och
##ulse
merajuk
membicarakan
278
Supra
Luxor
##PortuguesPусскииFrancaisDeutsch
NAM
dewa
RESIPI
Castile
4R
Abid
FUJI
torch
NISSAN
dang
Bercinta
diriwayatkan
clone
##aiyah
Commander
Identiti
club
Winar
##어
SX4
##emaskan
lucahPentadbiran
Sulayman
WARKAH
GDA26800
Saratok
Gurun
teng
##pski
ekosistem
Sebabnya
mengalihkan
PERSIDANGAN
Pemandangan
##ssss
KALAU
##abahasa
crawler
MKS
Navara
Aeros
hentikan
Aneeq
##AJU
direct
##usen
Seles
##hiah
Christmas
HASIL
RANCANGAN
##py
PERUM
##tique
##enteraman
285
TASKA
poliester
Hanan
Why
masin
##obar
##oooo
beruntung
kuali
1955
mendekatkan
Kemp
##agus
indon
UNI
Jahitan
##ONS
Magazine
MKT
EMB501
Gub
ketapang
Akupun
MediaWiki
Ronaldo
Hmm
ASP
Calstar
Cruise
jack
pacar
Brady
ABC
Incoterm
##fir
##zani
chuck
Rajang
Agihan
mercedes
##oseksual
Newsp
##gypt
##ANGGUNGJAWAB
CMYK
membaik
Arc
Tanta
Badrul
Dongguan
Landing
##apha
jawaban
bersempena
LONDON
Derhaka
kolestrol
MTU
resam
##IZA
Padam
kewarganegaraan
diatasi
keizinan
peliharaan
##untum
Passenger
kelewatan
PENULIS
Kepakaran
##lika
Pengairan
galak
Abb
Petikan
bergurau
konspirasi
Bands
tercetus
##PRK
##onado
288
WN
segenap
AMT
Mozart
ramuan
D6
##mata
Crossfire
khalwat
martin
##oice
121
Cougar
Ridg
##HH
Menyusu
Occitan
cong
##qis
Conditioner
gluk
Lion
##agnos
Hassel
Muktamar
series
Najaf
Gemuk
Hosh
Ninet
ayu
##amarkan
pemotongan
##ithin
Bukannya
SANYO
Nomor
PERSEMBAHAN
Jor
pemakai
melampaui
##BANGSA
##umuskan
Kemuncak
TAHI
##2018
##enje
Mosul
##edaya
menusuk
##ARY
memacu
berlarutan
tren
male
Erd
##TRY
##LOAD
Bey
Torch
312
meminjam
##ALIAN
EnglishEspanol
getElements
recording
##quoia
Stores
300M
##imiyah
NOVEL
conditioner
Liana
##ukung
sepasukan
1001
Various
Shahrizat
bob
Enzim
KLCC
dagu
##isode
Rahang
SKILL
diamond
Grey
##lea
##anyo
dicatatkan
Radiasi
G8
KM946514
Fifth
TOSH
SLS
TOSHIBA
klinikal
seruan
disayangi
kehidupannya
IPhone
Regal
PAKAIAN
Kahfi
dianggotai
##unner
CF3
ditampilkan
kiblat
##wid
##umpat
##udly
##pers
kutuk
Desc
IKIM
Marquee
##lecting
bertelur
dipinda
jahit
DUK
fixed
membasuh
Kalabakan
sifatnya
##ogenic
sivil
darjat
##abang
difailkan
Purple
Sajak
leng
##utral
Universities
Muara
SENS
Cogn
Fon
row
##eriahkan
heater
marble
BAGINDA
stereng
##norm
##ALANAN
Tebal
gemb
terpenting
salur
MR2
Hode
nad
##TIR
Paparkan
Madina
##vette
saringan
##ziarahi
perunding
RAF
##Phone
Allahu
Cress
Diamante
Aqiqah
##maan
Daewoo
Monterey
TUG
##roy
##oso
Almad
conc
Payung
Excavator
Daytona
AAAAA
mach
Φ78
##ovie
##isien
pribadi
Haikal
Sememangnya
Sequoia
darurat
ahad
##ancies
Sahur
Vendor
CWT
PERUMAHAN
PANG
##alaan
Penemuan
TANDA
itik
##iatri
memperhatikan
##dometri
Kontroversi
6204ZZ
Aina
##Force
tunjang
PERANG
siar
Gratis
Fal
negro
ketelusan
Avenger
GTS
##880
Penyembuhan
reading
Hodeidah
perancang
##abalan
##obatkan
stations
FLANGE
PERJALANAN
345
##ILIK
pendengar
Kevin
##isioner
##sue
alquran
Kebahagiaan
migrain
oktober
Bec
##inari
dibesarkan
mengharamkan
diperintah
Agadir
menggantung
semput
Bonneville
GBP
NB
nice
penukaran
Pajakan
laksanakan
##amax
Ditolak
pembelaan
Ow
##lewat
thought
pt
paha
Chem
134
ark
Jelawat
Cemp
SAND
SLR
Luqman
kutip
fiqh
Laboratories
##ROT
##1855
##andai
melacur
terbaca
Buih
TMS
denaihati
Span
Saliran
Montego
Hafizh
Moselle
Padah
##rian
kerang
berketu
Pon
duda
##dil
##EAK
##NIAH
##enalkan
Belaga
Suites
##UGH
suggest
##84
##inas
##jauhan
bertembung
Putatan
##Ton
Inch
##acao
Keter
Tepung
dikenalpasti
fosil
##istina
Moral
MPKK
Clothes
Dyson
##orama
berseri
##yrene
kredibiliti
Tumpang
Accent
Terpakai
Director
Millenia
furniture
##ns
Aneka
tersirat
##artabatkan
fik
Kerabat
pesara
Important
lombong
sony
amir
IDEAL
210hp
TWITTER
NPS
citizen
Juke
TTS
bib
Diwani
##ADE
Sahara
Scope
Gearless
PEKERJA
370
460
KPN
318
serpihan
DBS
##inesia
PENERBITAN
##ribution
Tracer
kejang
##165
Telecommun
getElementsBy
Cod
LIP
Gigitan
Body
ain
khazanah
press
Compaq
Kanowit
##raries
fun
##ears
percintaan
Khaimah
ANTARABANGSA
Jl
##blad
berumah
##lisiti
Wirid
##Timeout
Timb
olymp
diimport
teres
Performance
merob
terhangat
Maxima
FBI
Probe
sufi
gt
palet
mana2
PRIN
Senin
Osaka
Pha
jagaan
Pembeli
TEMPATAN
##UXE
Tacoma
Zebra
sejenak
ikat
berganti
transfer
##ynn
Jawapannya
channels
Prelude
Fortuner
IPA
Jantina
langganan
##PANITA
Mohammed
canon
Jis
Maw
Rox
rim
##imer
Serba
Idaman
Berdekatan
muktamad
L7
seru
Azure
Dragon
Ce
##AMU
bloggers
Andrea
##UBI
Satar
HIP
TUMP
UNDI
DRAMA
merekodkan
penger
jalankan
firms
Colleges
bersedekah
##sif
keji
##OTHER
PUSPANITA
Fiorano
Megat
fiqih
816L
##Atl
jamuan
begitulah
Ukur
816LGP
stores
berlatih
Blogging
ASLI
##bane
batal
tags
KPDNKK
Beverage
Upl
##ESO
##OSA
Animals
Winaray
insp
INTERNET
##charger
BUT
moyang
vide
restu
Reunion
Libre
Encore
Watches
BETUL
cowok
RAV4
##nil
##Nav
diperl
Sarung
Defender
ANGK
menggunung
Menuju
kaumnya
Kekeluargaan
Basra
Fujitsu
##OMBANG
ECH
Langs
##zie
Shab
dirakam
PEMERIKSAAN
Aurat
suh
##ISE
259
kapital
Offices
smua
BERHIMPUN
##Atlantic
##fisher
##zar
##upah
Ensiklopedi
elit
Alamak
##uatkuasakan
Tourist
Welcome
drive
Lau
Q5
ashar
Electrol
##185593
Festiv
Jetta
Oya
cx
bersolat
membanteras
##normalan
##tij
Seiko
logistik
Veloster
Generator
##cher
##OVO
Sonoma
UIAM
jumaat
##Pen
##ии
penolong
Amana
Topaz
Evans
Dibuka
##ayanan
aktiv
TAHNIAH
POLISI
WRX
##walk
##aganya
Replies
Brandt
Perlahan
Pensi
paste
Pasal
Wars
##PAQ
Haba
Tours
##lighten
penahanan
##umpamaan
pembaziran
Pelet
Erotik
UPDATE
rentak
##CS
kemakmuran
Nasheed
PKNP
Acetone
##MAL
Alim
Berubah
##igil
176
Telup
Jeragat
Dining
tangguh
LOOP
sg
##oj
Libraries
##arki
Primera
##rigue
Mystique
Hundred
berpesan
Eldor
2M
Hans
casio
##acan
Prom
Anderson
SPN
JOIN
413
9100
##emumur
Arg
##ERAHAN
Membakut
CLK
singkatan
Terbit
ranking
Polaroid
Rome
perib
Ibubapa
sensor
EnglishEspanolPortuguesPусскииFrancaisDeutsch
Whirlpool
##CAST
fucking
Lennox
Tangier
##beri
##YI
dishes
tegak
carousel
Kingfisher
##boards
GAG
##ended
berkec
##oreign
261
Aveo
jelajah
##furt
MILITAR
propaganda
aidilfitri
Lela
##Baron
agihan
PENGAS
Uphol
ustazah
fig
Makam
##arnaval
Anaknya
Celica
menganalisis
Embassy
sola
##iazi
##angkalian
Rossi
GELOMBANG
pixel
##ambi
##impit
Menawarkan
perkapalan
DB9
Diskusi
Integra
Oem
city
##inin
selimut
##oys
SKILLS
B9
LIN
##kali
##isaukan
##OTAK
Niah
Organizations
Lemas
##etang
PRADO
##aksinasi
Chee
Incredible
ferrari
kunjungi
resah
MDS
Equator
Gayah
##umal
penang
##anggota
Shan
Avanti
MENGUR
mean
hebatnya
Bergantung
produktif
BELAKANG
PROMO
Horizon
Sd
203
##ASKAN
Barch
##apakai
sindrom
TEACH
dipastikan
iPad
tandatangan
rasulullah
outerHeight
Printers
Eos
##Category
Berahim
Penggred
Topikal
pengkaji
Evoque
Tiffany
Telecommunications
penduduknya
lenovo
init
##iven
Sebring
##ezv
##ghada
koma
FX50
tika
##etas
##arau
Traktor
505
Fluence
h2
mai
issu
Kemungkinan
manik
Grik
CONT
220Hp
Zamri
8m
las
##ancil
Kebaya
Hospitals
curricul
Najran
Maulidur
Beretta
Mard
218
Sekretariat
##hac
Stealth
away
aston
##raktikkan
GTI
saka
##uktamad
pelupa
dikembangkan
##erano
COMPUT
Zaenal
Hijab
carnaval
pac
##ilek
##oidisme
Hurghada
selewat
Dimiliki
##ogne
Chloe
Sulit
Sahm
Touring
Butterworth
##finder
sekat
##ovina
dokter
Cavalier
Extrav
CEL
Vega
Iaitu
patrol
Fashion
qadha
##UTIF
Sable
Kenny
Coretan
DIAMALKAN
kalanya
DAEW
Tanamsendiri
Perlukan
Tuhanmu
volkswagen
rolls
DAEWOO
Meski
Pulsar
179
Kritik
Fujairah
riak
BUFF
Previa
##terra
half
Stanza
Ump
uts
Manuel
##ondaan
Chalets
##kum
##ronics
GTO
Weston
praise
SAY
olehnya
Museum
Vanden
##mlm
X6
##apore
Menawan
[...]
