[PAD]
[UNK]
[CLS]
[SEP]
[MASK]
!
"
#
$
%
&
'
(
)
*
+
,
-
.
/
0
1
2
3
4
5
6
7
8
9
:
;
<
=
>
?
@
A
B
C
D
E
F
G
H
I
J
K
L
M
N
O
P
Q
R
S
T
U
V
W
X
Y
Z
[
\
]
^
_
a
b
c
d
e
f
g
h
i
j
k
l
m
n
o
p
q
r
s
t
u
v
w
x
y
z
{
|
}
~


¡
£
¤
¥
¦
§
©
¬
®
¯
°
²
³
·
¸
º
½
¾
×
ð
÷
Đ
đ
ı
ɴ
ʀ
ʏ
ʔ
ʕ
ʟ
ˆ
ˍ
˘
˙
ˢ
α
ε
η
ι
κ
ρ
σ
χ
ω
Д
Н
Ф
а
б
в
г
д
е
и
к
л
м
н
о
п
р
с
т
у
х
ч
я
є
ѕ
і
ԍ
נ
ا
ب
ة
ت
ج
ح
خ
د
ر
س
ش
ص
ط
ع
ف
ق
ك
ل
م
ن
ه
و
ى
ي
٠
١
٢
٣
٨
ٱ
ټ
گ
ی
ݏ
ಠ
ಥ
ฅ
ง
ว
๏
๑
༼
༽
ლ
ᄀ
ᄁ
ᄂ
ᄃ
ᄄ
ᄅ
ᄆ
ᄇ
ᄈ
ᄉ
ᄊ
ᄋ
ᄌ
ᄍ
ᄎ
ᄏ
ᄐ
ᄑ
ᄒ
ᅡ
ᅢ
ᅣ
ᅤ
ᅥ
ᅦ
ᅧ
ᅨ
ᅩ
ᅪ
ᅫ
ᅬ
ᅭ
ᅮ
ᅯ
ᅱ
ᅲ
ᅳ
ᅴ
ᅵ
ᆨ
ᆩ
ᆫ
ᆭ
ᆮ
ᆯ
ᆰ
ᆱ
ᆶ
ᆷ
ᆸ
ᆹ
ᆺ
ᆻ
ᆼ
ᆽ
ᆾ
ᇀ
ᇁ
ᇂ
ᴀ
ᴇ
ᴬ
ᴮ
ᴰ
ᴱ
ᴳ
ᴴ
ᴵ
ᴶ
ᴷ
ᴸ
ᴹ
ᴺ
ᴼ
ᴾ
ᴿ
ᵀ
ᵁ
ᵛ
ᵞ
ᶜ
‍
•
…
‪
‬
″
‼
‿
₋
₩
€
⃣
™
←
↑
→
↓
⇧
⇨
⇩
∀
∂
∅
∆
∇
∪
≦
≧
⊙
⊥
⋆
⋋
⋌
⌂
⌒
⏩
⏪
ⓦ
─
┆
┬
┻
╥
╯
■
□
▶
▷
►
▽
◀
◁
◆
◈
○
●
☁
★
☆
☉
☎
☑
☕
☝
☹
☺
☽
♀
♂
♚
♛
♠
♡
♣
♤
♥
♧
♨
♪
⚠
⚡
✅
✉
✊
✋
✌
✏
✓
✔
✕
✘
✧
✨
✿
❀
❁
❃
❄
❌
❍
❖
❗
❛
❜
❝
❞
❣
❤
➖
➡
➤
➵
⟪
⟫
⤵
⭐
。
〃
《
》
『
』
【
】
〒
〜
い
く
し
な
へ
ほ
ま
コ
シ
ノ
ミ
ヨ
リ
ー
ヽ
ㅂ
ㅠ
ㅡ
ㅿ
㏂
㏘
东
丽
乱
事
介
仕
图
天
女
孩
小
弃
彡
感
放
故
方
日
明
春
朝
正
渡
灵
爱
片
田
绍
美
聪
胡
能
艸
花
虎
西
言
论
评
诗
话
语
辺
量
题
高


︵
﹁
﹂
﹏
ﻌ
（
）
／
；
Ｃ
＼
＾
｀
｡
･
ﾉ
ﾟ
￣
￫
�
𝐀
𝐂
𝐃
𝐄
𝐈
𝐋
𝐌
𝐑
𝐒
𝑺
𝒂
𝒄
𝒇
𝒉
𝒌
𝒍
𝒐
𝒕
𝒖
𝓜
𝓪
𝓰
𝓷
𝔂
𝔒
𝔢
𝔫
𝕎
𝕒
𝕓
𝕕
𝕖
𝕚
𝕟
𝕣
𝕤
𝕥
𝕦
𝕨
𝕪
𝘏
𝘐
𝘢
𝘤
𝘥
𝘦
𝘩
𝘪
𝘭
𝘮
𝘯
𝘰
𝘳
𝘴
𝘵
𝘶
𝘸
𝘺
𝙏
𝙖
𝙗
𝙘
𝙙
𝙚
𝙛
𝙜
𝙝
𝙞
𝙠
𝙡
𝙢
𝙣
𝙤
𝙥
𝙧
𝙨
𝙩
𝙪
𝙫
𝙮
𝙯
𝙸
𝚆
𝚊
𝚋
𝚍
𝚎
𝚏
𝚐
𝚑
𝚒
𝚕
𝚗
𝚘
𝚛
𝚜
𝚝
𝚞
𝚟
🇩
🇮
🇲
🇾
🌃
🌇
🌈
🌊
🌏
🌐
🌙
🌚
🌛
🌜
🌝
🌞
🌟
🌠
🌧
🌱
🌵
🌸
🌹
🌻
🌼
🍀
🍃
🍖
🍗
🍙
🍦
🍭
🍶
🍹
🎆
🎈
🎉
🎊
🎡
🎤
🎥
🎧
🎨
🎬
🎲
🎵
🎶
🎺
🎼
🏆
🏍
🏹
🏻
🏼
🏾
🐂
🐅
🐈
🐍
🐛
🐣
🐵
🐹
🐻
🐼
👀
👂
👄
👅
👆
👇
👈
👉
👊
👋
👌
👍
👎
👏
👐
👑
👣
👨
👩
👫
👬
👭
👶
👸
👹
👻
👼
👽
👾
👿
💁
💂
💃
💅
💆
💋
💌
💐
💓
💔
💕
💖
💗
💘
💙
💚
💛
💜
💞
💟
💡
💥
💦
💨
💩
💪
💫
💬
💯
💸
📄
📌
📍
📎
📓
📖
📚
📝
📞
📢
📣
📩
📱
📲
📷
📺
🔔
🔝
🔞
🔥
🔫
🔮
🔶
🔷
🔸
🔹
🕊
🕌
🕕
🕧
🕵
🖐
🖤
🗣
😀
😁
😂
😃
😄
😅
😆
😇
😈
😉
😊
😋
😌
😍
😎
😏
😐
😑
😒
😓
😔
😕
😖
😗
😘
😙
😚
😛
😜
😝
😞
😟
😠
😡
😢
😣
😤
😥
😦
😧
😨
😩
😪
😫
😬
😭
😮
😯
😰
😱
😲
😳
😴
😵
😶
😷
😸
😹
😻
😽
😾
🙀
🙁
🙂
🙃
🙄
🙆
🙇
🙈
🙉
🙊
🙋
🙌
🙍
🙏
🚀
🚩
🚫
🚶
🛀
🤐
🤒
🤓
🤔
🤕
🤗
🤚
🤟
🤣
🤤
🤦
🤧
🤪
🤭
🤷
🥀
🥰
🥴
🥺
🦄
🦋
🧠
##e
##y
##o
##m
##a
##b
##r
##i
##l
##n
##t
##u
##p
##g
##h
##d
##k
##E
##R
##S
##P
##A
##H
##N
##K
##U
##w
##c
##s
##f
##I
##j
##z
##G
##ᅡ
##ᆯ
##ᄋ
##ᅳ
##ᆫ
##T
##²
##v
##8
##5
##4
##D
##Y
##O
##F
##q
##x
##C
##L
##1
##2
##7
##6
##3
##9
##B
##👌
##W
##M
##ᅮ
##ᆷ
##ᄀ
##ᅧ
##ᄃ
##Q
##ᄎ
##0
##о
##а
##п
##ᅲ
##ᄂ
##ᅵ
##ᄌ
##J
##ᄉ
##ᆼ
##😉
##ᴼ
##ᴺ
##ᴳ
##ˢ
##ᵁ
##ᄁ
##ᅦ
##ᄅ
##💕
##ᅩ
##ᅢ
##😑
##ᅥ
##🏍
##❤
##😭
##ᵞ
##Z
##😂
##😏
##🎶
##ᄄ
##ᇂ
##م
##ن
##ᄆ
##ᆨ
##😁
##ᆸ
##ᄒ
##😋
##😝
##X
##ل
##ᵀ
##ᴬ
##ᅯ
##V
##ᴹ
##😔
##＾
##ω
##ᴱ
##ᴰ
##ᴵ
##ᇁ
##ᄍ
##𝙜
##𝙖
##𝙧
##😜
##س
##☺
##ᅪ
##ᆽ
##ᄏ
##🙈
##ᴷ
##ᴴ
##𝕣
##𝕚
##𝕥
##𝕖
##𝕟
##ᅱ
##✅
##ᇀ
##ᄐ
##⭐
##🤣
##𝙚
##𝙘
##𝙥
##𝙞
##ᄇ
##ᆾ
##ᆺ
##😘
##¬
##❗
##😒
##𝚘
##𝚗
##𝚎
##♥
##ᄑ
##ᅴ
##｀
##ᆻ
##🇩
##ᆭ
##ᅨ
##𝙩
##😊
##😃
##⏪
##▽
##〒
##נ
##м
##😍
##ᴿ
##ᅬ
##シ
##𝕕
##𝕦
##😣
##ᆹ
##ᅭ
##😢
##ᆱ
##ı
##😆
##─
##┬
##ノ
##ι
##χ
##𝚛
##𝚐
##𝚝
##˘
##😚
##ᅣ
##€
##™
##ح
##د
##○
##🎤
##👾
##
##
##🤔
##✔
##˙
##�
##ᅫ
##ᴾ
##е
##и
##ч
##г
##𝘰
##𝘴
##𝘵
##ᴸ
##я
##∀
##￣
##✨
##😪
##ع
##🏻
##‍
##♀
##🙇
##𝘯
##𝘥
##𝘮
##𝘦
##●
##👅
##¯
##๑
##🍶
##ا
##😙
##😐
##ᆩ
##😦
##😵
##😧
##👏
##ᴶ
##ᵛ
##ᴮ
##😅
##😰
##◁
##º
##ك
##و
##ر
##😩
##🎉
##🎆
##ى
##д
##ﾟ
##😄
##😫
##𝚒
##𝚟
##𝚞
##💙
##𝙛
##🌸
##💁
##ᶜ
##т
##🔥
##🥰
##💌
##🤪
##🙏
##😖
##💛
##💖
##💞
##💨
##🔶
##🔹
##ي
##𝔫
##𝔢
##♡
##𝙤
##𝙣
##👭
##🍹
##🙄
##ه
##👑
##🎊
##😨
##😬
##🎈
##ᆰ
##💘
##∪
##Ф
##𝙝
##♣
##😳
##𝙫
##𝙨
##𝘩
##👋
##ت
##💗
##📓
##в
##н
##👈
##𝙢
##ᅤ
##🔔
##❛
##🎵
##ة
##💋
##👨
##🙂
##🌹
##𝙯
##𝙮
##💓
##٠
##١
##٣
##𝘪
##❖
##🏼
##👿
##😠
##⚡
##ᆮ
##ق
##💪
##🌈
##÷
##😱
##😞
##ᄊ
##❃
##ص
##ب
##ー
##ᴀ
##ʀ
##κ
##𝓪
##𝔂
##𝓷
##𝓰
##❜
##⌒
##ლ
##к
##📝
##😤
##ㅡ
##😎
##×
##³
##😟
##ᄈ
##ط
##💥
##👍
##♧
##✊
##😀
##є
##у
##💩
##😛
##□
##ⓦ
##𝕪
##し
##ほ
##ف
##𝙪
##б
##💜
##😷
##❣
##✌
##🙋
##∇
##🙉
##¤
##𝒖
##𝒄
##𝒌
##𝒐
##𝒍
##𝒂
##𝒉
##💔
##𝘭
##😕
##𝘺
##🤭
##❄
##𝚑
##𝚊
##α
##ѕ
##👹
##𝚍
##☝
##リ
##😌
##ɴ
##ԍ
##ᴇ
##ʟ
##η
##𝙠
##𝙡
##ಥ
##🍃
##ج
##®
##✋
##خ
##💃
##😴
##🌼
##σ
##ρ
##ᆶ
##😹
##ಠ
##¦
##≦
##🕕
##𝘢
##🙊
##р
##і
##🏾
##🎼
##⊥
##←
##😥
##🌧
##𝙙
##х
##¸
##🐣
##🦄
##🥀
##😲
##😶
##⃣
##ㅠ
##🤒
##🤕
##コ
##𝘳
##╥
##🇾
##い
##👉
##↓
##👇
##گ
##ی
##➡
##▷
##▶
##へ
##ʏ
##⇩
##👬
##♤
##𝕨
##𝕒
##𝒕
##л
##💚
##ε
##𝘶
##🐂
##🔫
##🙍
##📣
##😇
##😡
##🙌
##🔷
##🔸
##🙆
##😾
##°
##an
##er
##en
##ang
##ak
##ah
##at
##ar
##in
##ya
##al
##am
##em
##el
##as
di
men
##ku
##un
##tu
##ap
se
##kan
yang
##ad
ber
ke
##nya
##ik
##eng
##is
##il
##au
##ing
ter
##ir
##it
mem
aku
##ih
##ul
dan
##on
##ag
##ur
##uk
##ut
meng
##id
##anya
##ari
##um
itu
##us
##es
##ung
##ek
##engan
in
##ai
##or
per
dengan
##ti
##ud
##et
th
dia
##pa
##da
an
##aj
##ama
tak
##ia
##ol
##ed
##aw
##ay
##eb
##ab
##idak
##agi
##ga
##uh
memb
mer
##ada
##ep
##adi
tidak
##akan
##angan
##ana
##amp
##im
##tuk
mel
Aku
un
##eh
##ok
mas
##alam
ini
dari
##ata
##ali
##uat
##apa
the
untuk
##ua
##ac
seb
##aya
sem
ada
##amb
##ara
##om
##asa
##ati
##and
sek
##ita
apa
##ib
##api
##alah
##ukan
##eka
kam
##ot
##ant
##lah
##udah
##alu
tu
##inya
lagi
kau
##ihat
##gi
to
or
##end
ni
##emb
##ent
##per
be
kel
sudah
##ong
and
pun
##ahu
##ain
mereka
akan
orang
##os
##ri
dalam
nak
##aja
##ja
##isa
##elah
sed
ju
Al
##emp
##up
##uka
sel
##alau
##ue
##ena
si
##ou
ters
meny
at
##int
##uar
##alan
##iri
juga
menj
Dia
##angg
kep
ker
##eny
bel
##annya
##aki
of
##ika
ad
hanya
##orang
sama
bers
##ambil
ia
ar
bisa
##ic
##ini
##aik
ng
##ter
##ra
pada
mend
##ub
dah
##eg
##atu
kamu
##ow
gue
sang
##umah
masih
seper
##uku
melihat
##aku
pul
saya
##angk
##enyum
al
kita
##aat
me
kar
saja
##ian
##any
##ingg
##iba
##af
you
bar
seperti
mengh
tahu
is
dis
##ila
##oleh
kan
##awa
ken
rumah
##uan
lo
mul
ya
kata
ben
samp
su
##he
tangan
bah
ser
menc
terl
har
tapi
##uj
kem
##dah
##apat
as
anak
sangat
##engar
##ungk
##ip
ing
##ej
sambil
##od
##acam
ket
##ebih
buat
mak
berd
membuat
##anj
hati
##apan
wh
##ew
tadi
##ob
##ec
##inta
ses
satu
An
##gak
tiba
##na
ku
##ajah
karena
##ly
##ve
keluar
pen
st
##awab
so
hari
##ulu
##arang
##arah
##gh
semua
saat
kes
bukan
kat
##ungg
pas
##oh
##le
terus
kalau
##empat
kali
##anti
jadi
##ind
pergi
##amun
bert
sedang
##nah
##hir
send
mau
on
Tapi
##ala
##cap
##bu
##agai
lalu
##olah
##uduk
##ikir
pr
kemb
##ilik
##bang
lain
##sa
aw
sampai
Tak
mengg
##unya
nya
##mu
masuk
mata
lebih
macam
berb
pel
##wa
##eri
##ahan
makan
en
tem
##ungkin
sendiri
bal
kembali
Dan
wajah
adalah
ak
kec
berj
menjadi
tan
##re
##op
ked
bang
set
##asi
tanya
my
##utu
In
##elaki
boleh
##atang
##gitu
bi
##amu
mana
her
##si
berl
##ekat
duduk
##ver
it
sekali
ol
Ar
berk
lang
##epat
baik
baru
##andang
##yah
##uc
Ter
##anyak
pernah
##elum
##inggal
##epas
seorang
he
##ira
tet
memang
kami
was
dib
pin
##akin
am
rasa
tempat
##ayang
for
##uah
##aran
##ikit
##pun
ingin
tersenyum
diri
##ima
that
Kau
dulu
##adis
re
oleh
##ebut
hal
man
ap
lelaki
harus
berh
kak
teng
##era
##asih
##sung
sah
##isi
kepada
##AN
##ith
begitu
lah
##akit
mat
lama
seg
##und
tel
cer
benar
pak
##erapa
##elas
arah
banyak
Per
beb
datang
Apa
atau
sep
##ani
##ayah
dep
##enang
gak
dir
terk
sekarang
##arnya
##idup
sekolah
##ilang
##enti
atas
##aktu
dapat
langsung
tau
##art
kenapa
pert
##udian
##aling
aja
##ont
ha
selalu
berg
bes
##ie
##her
sebelum
jawab
with
Di
pintu
##arkan
dua
##buh
##aa
##awan
air
sh
suara
##hh
##ampak
##ill
je
##tul
##ahun
##uri
ucap
had
##aha
##ingga
peng
##anggil
malam
suka
mungkin
tersebut
keb
terb
gadis
telah
kelas
##unggu
Kalau
ang
##ina
depan
pula
##ght
##mana
##arik
dit
##ry
Ad
##ust
salah
kecil
##atan
##atap
senyum
sedikit
Mak
berjalan
##kut
##auh
tanpa
sini
##unj
belum
##ha
##akang
beberapa
udah
Gayah
tert
Mer
jalan
berp
ti
En
##st
##mm
Alang
waktu
lu
##our
##jak
##imp
jangan
memandang
awak
##ore
bagi
teman
Ia
##aju
ketika
dekat
##jar
terd
##empuan
Ken
mulai
nanti
##asan
do
##idur
bersama
Re
##uatu
##tah
Ber
##if
##uang
##angkah
menya
sebuah
ab
berada
##ce
##aaf
setelah
kal
kemudian
##aga
##aka
Sem
balik
##hirnya
Se
his
ch
##ch
##aca
pulang
tahun
##entang
siapa
namun
Seb
##mp
##ami
menatap
tubuh
Ya
##ingk
menuj
##ere
##est
gi
##yn
##jadi
##akukan
dik
but
##one
mendengar
menuju
us
la
jika
Saya
##ny
##akap
belakang
Han
##ess
masa
hidup
seh
##ump
##yi
##all
semakin
Sh
dip
##ine
##alas
we
ibu
nggak
co
perempuan
pad
##za
##ons
terp
sakit
Mereka
##emu
##anjang
##ahkan
##ell
As
tidur
sih
##antu
tur
##ef
Kenapa
##atuh
##angis
sebab
Ak
gel
##man
min
mengangg
dil
##uru
##ome
did
##abis
muka
jam
##ulan
Set
yg
terlihat
laki
up
The
Si
cerita
##entu
##ack
kepala
matanya
put
##ta
fr
pem
berdiri
##erit
Kak
memberi
##uruh
tengah
not
##anita
##unc
##tiap
##unyi
ny
Namun
##ukup
tentang
are
go
##inggalkan
merasa
Ada
pasti
Sel
##aman
##AH
ok
Pak
##amat
##ro
Tidak
abang
##ajar
jauh
keh
##uma
##olong
cepat
nama
ag
##utnya
He
kedua
bahwa
##andangan
dirinya
##esan
Ira
diam
##ela
mahu
Kamu
##ark
sayang
Am
##lahan
##ee
##uld
akhirnya
##ook
kur
##aknya
memper
Th
##ma
bila
perl
Ch
bilik
cinta
sahaja
ayah
##ampu
segera
mengel
##ampir
semp
##asaan
##ilah
ujar
ga
besar
ikut
Jangan
##oy
##ae
takut
sp
mes
pl
##omp
cakap
kamar
##agaimana
wanita
Sek
punya
ne
##out
Bukan
##ungan
##asanya
mengangguk
##oba
perc
##ikan
kena
##ejut
tetap
##hati
ac
cukup
ger
##amanya
mula
Yang
tangannya
sebagai
meja
##ate
sesuatu
##ist
bangun
this
buku
mengambil
So
kn
betul
##az
berc
##th
pagi
sana
##enarnya
menger
##ingat
kerana
##li
##angkat
Kar
kasih
kerja
bad
##anc
have
##uda
she
terlalu
##utus
##oc
##antik
marah
menarik
##eorang
membuka
##ast
biasa
adik
Setelah
sen
##usia
##etak
tetapi
##ilih
##pada
setiap
baw
berm
Ok
tim
##abat
##og
Ay
kuat
Dah
no
mencari
jelas
mama
##arna
##aikan
##antai
af
##unjuk
##ous
##uanya
perlahan
##ER
##iku
em
paling
##uba
kot
##se
sec
tr
##utan
##iq
Itu
Gue
##akah
##egang
berdua
nampak
##bila
Ibu
##ish
your
ingat
kalian
siap
memas
##gu
##iran
Wh
Iya
seseorang
maaf
El
Men
##tinya
kaki
##etika
bak
luar
##isah
##adaan
panggil
terh
mener
sej
from
##alanya
##ibir
can
##ukul
jatuh
Su
penuh
kay
##itam
##ula
##ingin
Dengan
berhenti
perk
meninggalkan
daripada
lupa
Oh
by
##ame
banget
Tanya
perasaan
##alaupun
ex
##ays
all
##iat
##essa
Eh
Hy
##antas
##kannya
##unt
Ini
##oo
##ond
kawan
##ka
Jadi
Air
##ambut
##ba
kok
##ey
##av
panjang
##AK
agak
just
##erja
ot
##adar
Pr
Sep
##ubah
##han
##apak
kalo
##icara
##eta
##obil
kh
Kata
le
el
hingga
kamp
pertama
cantik
##angat
sebelah
main
dih
##utup
##uli
terkejut
##apun
##ike
Nad
him
##ju
##agia
pemb
Lo
iya
##uhan
gitu
out
cuba
##aura
##iliki
##asakan
##abar
##nyata
##iz
Mem
pend
tua
##usaha
perlu
##ers
kek
hand
menangis
Hanum
cuma
##ulis
sempat
apabila
balas
menoleh
Ap
##ci
##atinya
##AR
pan
pandangan
sur
##alnya
##afas
berlari
##ungguh
mampu
terjadi
##ight
Kita
pikir
mengen
##ich
##iak
##anku
habis
##asil
mati
masing
##atakan
selama
Mungkin
bag
##engg
amb
bertanya
agar
bl
Suri
bilang
manusia
##adang
##sud
menunggu
pia
turun
lepas
minta
tinggal
know
##entar
And
percaya
terasa
##ally
beg
seles
mobil
ruang
Mas
Mal
##inggi
masalah
Un
sebenarnya
Nur
##unia
##adap
##ekerja
tengok
naik
bahkan
##iam
dim
Ayah
Raka
lihat
hampir
##ard
kini
bibir
ant
##aid
ru
bawah
bas
##ks
wajahnya
##ikgu
##ould
##umpa
terg
Bi
langkah
mot
##akhir
situ
Ah
menutup
kenal
bagaimana
te
Mel
hitam
##ais
Aw
bud
##ohon
tertawa
##ost
##awat
##odoh
##ki
pakai
##ug
##app
##ANG
keadaan
huj
menyer
ib
##agu
putih
dengar
like
##win
dem
pers
lemb
Allah
eng
tepat
ye
Ale
ay
##ev
##anda
baju
##ibuk
kas
##upakan
bertemu
keluarga
##rang
mendapat
Mama
##ahal
what
menggel
memiliki
merah
one
##omb
##usan
You
seng
##ort
dr
##NG
##orm
sus
##umb
bis
sejak
##wan
##aham
sm
##aru
mo
look
Entah
malah
##la
fo
##inc
berkata
##olak
about
pesan
##ura
bu
##endak
menjawab
##unakan
ped
senang
##iru
sahabat
##ation
dunia
##ff
##amai
Is
time
##eda
cl
wor
mulut
Kem
sering
melakukan
##alik
##ij
##engk
##ick
##iti
malu
nafas
Sudah
##AT
cari
##ingan
pulak
gua
makanan
kakak
##ide
senyuman
sin
##atih
##ayan
papa
##erak
entah
lap
bur
##tup
terj
sehingga
membawa
##antung
tolong
which
bung
kereta
##utkan
beli
berusaha
It
mand
##uran
ah
Lagi
##de
soal
bulan
##oon
##engah
##ebar
Tan
lem
##yan
Ng
##atanya
ketawa
##ect
##angnya
Dari
aj
ist
##ven
##indu
eh
##ambah
##tur
angg
Saat
##angga
sibuk
bahagia
menahan
##ite
##inggu
pos
say
##arap
Me
##unda
int
br
budak
bern
Le
melangkah
kepalanya
##aris
She
pukul
##kus
berubah
pip
mencoba
tiga
##kah
##eluk
##imana
At
##imin
##esi
Ab
##itar
##ach
Abang
deh
fe
were
will
hendak
Lalu
20
##eli
memberikan
Be
##own
hatinya
mal
pu
##ile
Shin
manis
semb
Karena
pria
milik
##osok
terdengar
benda
Ses
Yus
com
##jalan
some
menik
##mb
##ase
they
dap
tunggu
##atnya
##ual
10
melepas
##enc
selesai
Ke
mur
Aira
tinggi
ro
Seper
Maaf
Meng
ever
##ose
hilang
yakin
antara
pe
menem
memer
bawa
Kami
##alkan
##AL
##aut
barang
es
##ingung
disini
semuanya
Semua
want
get
tenang
##ris
##ii
##ace
##impi
##uncul
Hari
saling
kej
##iling
hadapan
Hanya
op
berlalu
ambil
res
teg
##alk
biar
##atin
menunjuk
##ulit
said
##erita
##mi
##entak
mengangkat
##tion
nih
Shinyn
ternyata
Ucap
seri
Sed
bet
##kum
##lan
berw
katanya
##ingkat
##yun
##ran
Siapa
dig
mus
them
memp
##angkan
##fan
##una
##ehe
##oto
Lut
kos
##irah
ey
back
terima
##uman
memak
any
aneh
when
motor
##yo
secara
dimana
indah
rem
sat
Ha
##arat
##ajam
##inga
Ti
para
keras
don
kisah
mah
##ambar
Jawab
##AM
menur
Er
jumpa
##lo
mu
##ungkook
##ihatan
er
##der
##ng
bingung
##uni
rambut
perm
awal
##ait
Tet
##unduk
Tiba
gr
##hone
##orry
mandi
kampung
fikir
muncul
kag
car
there
walaupun
##usnya
pandang
##ahah
tubuhnya
Nak
kant
Iz
##apkan
kayak
menggeleng
sis
tiada
kesal
sedih
##entara
##anji
sikit
lembut
##enting
Lisa
memegang
okay
menit
berat
ruangan
memanggil
##awal
hujan
tat
disana
des
##hl
##ihkan
Sej
kanan
afiq
##EN
membaca
Ind
gw
##imu
bakal
SM
##uy
##ash
Ben
##sel
##aring
mengal
belajar
sy
##arin
Ma
##ca
Ri
Van
cew
##ink
##urkan
gila
pat
memeluk
de
##enek
##ambat
pertanya
bergerak
##hatikan
##ham
ob
##nie
badan
No
##efon
##ulang
##ough
meminta
str
##cik
ur
ver
##ibat
maksud
tajam
seakan
##agian
darah
samping
merasakan
rindu
##uit
##gn
##ola
lantai
sepertinya
##sya
mb
tany
hub
##ihan
Orang
##we
kejadi
##iss
bay
##ahwin
if
##uarkan
##gg
##hing
bunga
Sya
sengaja
would
##AS
##ewa
seolah
sud
their
membalas
##ahaya
term
##ni
berwarna
dapur
##ely
##eling
cara
sk
pelan
##ikuti
pac
##ampai
##ampiri
bec
lakukan
sil
terdiam
cikgu
kejadian
memilih
membuatku
bab
now
##uch
##adanya
segala
##di
pasal
##epuk
Jimin
Macam
##gas
sungguh
##oll
Awak
li
dingin
ramai
sebentar
Memang
Vanessa
love
tuh
dong
mengingat
war
mengatakan
Man
ul
Gadis
Jika
Tanpa
uj
every
Baik
peny
##tuju
##age
##IN
diper
berku
other
Nanti
##atas
##ikirkan
##tua
##etik
bahu
more
demi
call
##enuh
berani
##inding
##ajak
##aikum
##intai
membuatkan
##uki
semula
##jalanan
##ck
menghampiri
warna
##yung
##wo
##ice
tanda
Naura
hel
##enung
##anggung
Na
##ayu
Nam
##salam
rasanya
terakhir
menyel
angin
Untuk
namanya
Kali
Sy
##oko
lari
##itt
##uti
##antar
sekitar
Ir
here
kiri
##ily
##asib
What
sadar
##isik
who
Eng
par
##riend
mimpi
um
##ori
##anding
il
qu
Dalam
po
pingg
cont
dic
cewek
panas
Hai
kaw
##ree
Bu
gimana
korang
Kemudian
St
##yam
than
pet
##ment
##ikap
kosong
baca
muda
see
##afe
bus
Tetapi
cow
temen
##uu
##ataan
mengus
Ser
guru
berter
##atur
melepaskan
bos
##angi
Ib
mengerti
##unuh
##ans
pertanyaan
happ
penting
gelap
fir
tentu
tangga
##isau
##hana
could
Mana
down
off
Sekarang
Kel
nada
part
then
We
##etahu
seketika
Tuhan
##aeh
kelihatan
##ambung
into
##asana
kaya
Af
menggunakan
temannya
##rol
##teri
Suara
SE
Leia
##ass
read
##tif
Nadya
Hah
kaget
Ye
##ungi
telefon
susah
Sampai
##paya
langit
Ker
Tangan
##aksa
##ause
##ewat
lif
##ne
kearah
##uskan
##ory
bagian
bekerja
##tas
mengeluarkan
##oi
##pr
##ebat
##ars
sosok
##asar
Reina
faham
pol
##ese
kurang
dok
wat
##kat
suatu
##ye
kehidup
##arak
##old
Mari
mudah
tampak
##tiga
Udah
##ho
berapa
##irik
bermain
emp
##kk
##ekati
##dul
##fore
Wajah
bantu
membantu
##etakkan
Ray
lengan
##ikin
##ings
ask
bot
over
##ge
##amah
##anggu
minggu
terbuka
mengapa
alasan
con
how
##ulah
##awar
been
##reat
##eci
##enangkan
Mata
Sana
##uf
apapun
serius
our
##utuh
buka
##ukanya
hubungan
##ock
Jessa
makin
##unan
##iring
##asaran
menerima
perjalanan
##nik
anda
Anak
##okok
Seperti
Beb
rapat
tep
ibunya
sc
##onsel
malas
dek
pus
##mati
suami
make
##andai
##angku
##aksi
let
padaku
Ketika
##capan
##akannya
Hanna
##otong
kemana
berhasil
But
Dar
serta
anaknya
very
pohon
tas
##amkan
tanah
buruk
lantas
neg
Mes
##askan
##ulai
##tim
Ang
##entikan
Sri
Put
Ratih
Em
mendapatkan
tatapan
akhir
laju
##alaman
foto
dij
still
padanya
##ade
Har
pilih
##dara
##omong
##aysia
Nab
ut
mendekati
menunjukkan
##umi
bener
Fais
##dy
##angka
Akma
Walaupun
##irl
Faisal
##eter
##imb
##ilan
menyamb
##asm
berbicara
##tikan
##ebab
only
Ara
DI
Ked
##van
mengikuti
member
Haura
Jungkook
Seh
suruh
seluruh
ajak
terc
##usi
pipi
before
Ari
bagai
dat
long
pelajar
Danang
Lutfan
dengannya
Kep
cowok
Satu
mengu
Annie
Aslan
minum
##ood
Boleh
rumahnya
Akhirnya
##co
##utuskan
kota
tingk
##entuh
lebar
soalan
menemukan
memikirkan
##of
Az
ponsel
##iwa
mesti
has
##ity
merupakan
siang
janji
##vel
##elak
##gain
emang
##ungnya
biasanya
gambar
tamp
ma
##ekan
takkan
selepas
##impan
##self
Sae
harap
##irkan
##angkap
##aruh
pon
sl
##unyai
head
##asuk
maka
Min
Memb
suk
##upanya
Biar
murid
hid
lewat
##pon
telinga
Sebab
##able
##are
Puan
Baru
tamu
menolak
amat
##AP
im
##itas
tugas
Rana
##arinya
Kal
##oga
##ky
bagus
##ig
bunyi
pekerja
stu
way
##isan
mendekat
berbeda
Lelaki
much
##ekali
jugak
Her
bicara
##ought
##lis
think
kuc
##ucu
good
eyes
sedar
Bag
bikin
##tor
##osi
da
##uth
##anggup
berharap
mempunyai
Bagaimana
kadang
##apas
##aian
##day
SMA
Aleena
Mark
lay
##alagi
##onton
gag
jend
jerit
kertas
##lease
##fikir
sekel
apakah
kehidupan
perg
##orong
ucapan
perhati
Ra
##lat
peduli
My
ins
Pas
pes
##alang
dahulu
kursi
##ning
##YA
##ilangan
##edar
bunda
kom
##min
Terima
itulah
berlaku
Kur
bapak
cr
##edam
selamat
ngomong
Kh
luka
menyad
lemah
##eman
##apai
kahwin
oh
##fa
kira
Bang
Tuan
Im
##ote
nger
Pad
##etul
##pe
##edia
supaya
usah
after
terhadap
liat
penasaran
again
hah
sam
##angkit
##enggam
dinding
##uara
##akkan
Terus
Dev
gara
lagu
payah
Sur
jaga
##EL
penj
sendirian
gini
##erin
##erah
201
lima
yah
##anjutkan
menunduk
##tutup
som
##elan
melirik
seru
Ku
Kam
two
kakinya
Zah
Ni
##ones
##etahui
diorang
##abr
membuatnya
sinis
Kan
Kat
##erikan
##here
##aaa
day
kemarin
aje
##thing
first
dada
tulis
start
jantung
may
##iarkan
sorry
keg
setengah
Mau
##ru
##rul
buk
cahaya
ll
##ise
menyus
##unci
##apter
Malaysia
Yusuf
Papa
sabar
terbang
top
fokus
##itahu
Dat
Yo
Alisa
##utar
terpaksa
memakai
pemuda
sanggup
##kip
##ota
##ainkan
Sal
##AA
##KU
##urus
menikmati
Nabila
coba
sebelumnya
Atau
Beberapa
duit
om
##aks
##ahnya
##epan
too
Terl
Yedam
kit
memutuskan
kedai
sisi
##OR
Ali
bodoh
tip
teriak
##ember
turut
rep
##enya
##asya
##olat
##ukai
##anyakan
nenek
perb
##ajaran
##hluk
right
bersuara
##egas
rah
##ting
mengej
Hmm
gem
##anjut
sembari
pec
##ound
teringat
##umam
pantas
##adinya
jari
##ving
##ukur
Apakah
Om
Yu
guy
Ing
comp
sar
Mat
biru
semangat
menghadap
##aitu
semalam
menghela
Sam
pura
##ikut
pelik
enak
memasuki
ten
batu
##so
##ona
Seorang
##ebabkan
##yik
Okay
Sin
erat
##asmine
##enal
menghilang
kataku
mataku
posisi
Bila
Dam
bola
fl
Kin
Nawal
##uga
##xt
##andu
begini
Masih
##vi
##ewati
##kipun
cok
seraya
kehilangan
Cikgu
teb
##su
der
hang
##ongk
jen
##cang
##qu
Sayang
##ium
##act
panggilan
ka
##oss
eks
##ili
##vers
need
got
hi
kir
cerit
Begitu
##IS
##ubuh
Wah
even
jah
##untu
berpikir
boy
jaw
##AU
diriku
tepi
Matanya
##imat
karna
enggak
Belum
kapan
leh
acara
lambat
putus
##ird
unt
mengalir
ged
##ling
##uaranya
Haz
bangkit
##ens
##embunyi
because
ketak
lainnya
pakaian
Jasmine
Mend
sal
##engaran
##ejap
perkara
melihatnya
##opi
girl
olah
ub
uang
##land
ayat
Dua
kr
nasi
##ved
besok
Maya
Wid
fam
kor
##emput
menurut
Gak
##ake
##arti
perut
##ante
dibuat
ik
kaca
##amba
heran
pengh
berteriak
##onesia
##gan
##ino
##uck
bek
##aus
##imi
gro
lampu
masak
mengeluh
Hani
##phone
melanjutkan
Padahal
Pada
rest
##tiv
mencintai
while
Sebenarnya
##hhh
##audah
##ents
##ittle
##ahari
##anjak
gor
kac
tawa
katil
aq
makhluk
berangkat
##AHAH
##indah
##iki
##awatir
hantu
kab
risau
sikap
thr
##imah
suasana
Rasa
mom
bernama
satunya
Buat
rupanya
##tar
keber
empat
##ayangkan
Rick
##rah
##arusnya
##adapan
##etar
padahal
puas
mengusap
jendela
Bab
Bahkan
mis
pap
well
inter
take
tuj
bukannya
kun
pint
##wah
##enak
sedangkan
end
Malam
sup
Cinta
Kes
##led
bat
kul
lar
ri
form
Cuma
jarang
kon
sambung
##atkan
keku
bibirnya
ketakutan
temb
##ganya
menepuk
Eja
Op
##apannya
Nggak
buru
##ram
menyadari
Lepas
mod
pandai
asal
memperhatikan
Hati
napas
tah
ragu
##rib
##amit
kantin
tahan
##osa
mulutnya
##ething
##icia
Iq
kalah
salam
Mar
##IK
##emas
##ora
wr
sementara
ketemu
Sejak
bul
hangat
##PA
sampe
kasar
Mir
##apain
bersalah
##kau
##ikat
terang
membel
##ujur
Sebelum
Mb
kub
pungg
meletakkan
dahi
adiknya
sahabatnya
##baal
tanyaku
butuh
lau
lahan
little
##aiki
sepi
##unji
kulit
park
tuk
kucing
Diana
bercerita
khawatir
cel
ko
ngel
##unjung
##ty
##aro
##isya
pindah
ve
kampus
Rub
Sup
buah
##oran
perang
##tic
mengenai
tangis
bau
taman
##UN
##jah
##ujuk
memben
pendek
keny
##ated
##embira
terlebih
asyik
Pen
kut
kuli
##etuk
##iap
kedalam
##ouse
inf
kotak
otak
dew
sorang
##ner
##atah
berakhir
##angannya
menjerit
##ope
Widya
bin
##akar
nyaman
jawaban
esok
something
Datin
Eun
imp
##ward
kening
sahut
most
nam
##wi
berfikir
##aghan
##intang
never
badannya
Meaghan
Ujar
##andung
alm
Ruby
Us
Mr
Part
walk
##uai
##ather
##enuhi
Rickie
jan
##amping
##alui
meski
Dis
nasib
##udi
Alicia
keputus
Melihat
perhatian
##ways
##andar
sore
##ence
##irahat
bertu
Perempuan
##eritakan
This
basah
bisik
##uthor
face
##unkan
where
Kakak
Lee
Sen
din
hasil
##ban
takde
rakan
##asis
##ulurkan
menjaga
benci
terbaik
Rain
##other
selain
##ople
angkat
Kok
Kini
dad
tanganku
Indonesia
menghentikan
best
Il
che
##ank
##engih
##itra
menjauh
##raf
its
bergegas
perkataan
deng
fil
##caya
mengajak
##ion
##ful
30
friend
sudut
KE
hutan
jom
##get
##uluh
pelajaran
##ream
should
meneg
##oa
Arka
terdapat
hot
lelah
pelukan
lega
surat
phone
sia
kecewa
going
setuju
mengetahui
##ambutnya
Sekali
sekeliling
Hal
Rumah
Senyum
dul
##jid
beranjak
kepadanya
bahasa
hatiku
dokter
sapa
temp
arm
##ody
Rani
Riz
Tr
##ary
##iksa
Aryan
Damya
made
santai
##iakan
##IL
stop
##pl
##zz
##ild
Assalam
mengenal
##IR
##ji
##emen
##tus
##ibu
suam
Lang
Pel
menyes
akibat
hands
12
Sah
##inda
bersiap
isi
harapan
melewati
kamarnya
##uput
sesi
pake
terhenti
Lulu
##ernya
minit
last
tek
walau
##ehehe
##arta
jer
##air
bed
sung
around
Bunda
Naju
##TU
##etan
chat
##abiskan
menikah
##aehyung
Najuwa
merenung
##hea
Balas
Uza
komp
Oke
##inger
##itik
sangka
##mma
tarik
##lia
##esa
found
Uzair
Masa
##yy
##rian
ngan
##umpah
Hiru
Lu
Lika
singkat
##ned
##va
##ohan
kedengaran
room
##lum
##uali
nie
kalimat
Nadia
Mbak
Dav
##elaskan
Alex
people
remaja
kawasan
Jam
perasan
menyentuh
matahari
novel
pandangannya
pacar
rom
saw
looked
00
tok
##gk
away
Eunji
Sungguh
Sorry
##kh
##ikasi
tutup
life
kunci
mant
##ince
thought
Baiklah
##bar
##etulan
detik
talk
meninggal
teruk
##ehat
urusan
Banyak
kabar
mukanya
didn
id
seku
berarti
##ijau
##ole
Soal
bercakap
Ariyn
keputusan
bo
try
keper
##icar
story
api
Sementara
Jef
ide
##jur
##eran
mera
kencang
ayahnya
kuliah
Ais
AKU
gug
kopi
##ujud
dilihat
petang
cik
simp
heart
pikiran
maj
menyukai
seharusnya
Selamat
##encana
ujung
##HH
sofa
Ayu
##ualaikum
termasuk
jannah
laa
suaranya
##eku
##ren
##jin
##urna
prod
geram
Cepat
tand
##alami
tersengih
Setiap
feel
kond
lucu
new
depannya
##ool
##aji
tuan
Nah
mengin
okey
Mawar
ialah
pag
##ton
##UR
menulis
##ebelah
bahawa
Karen
wait
##te
menel
really
Rayyan
15
Evan
Seg
pi
##ret
##lin
##tt
##ves
##illah
##ure
apalagi
##arissa
sing
##ush
kakaknya
nik
##ses
membiarkan
##iman
isteri
berbunyi
Jo
Ran
ayam
ek
##emuan
penc
pro
##sion
didalam
##umber
##ance
Taehyung
Yoon
##ath
kenangan
berjaya
work
jel
##orak
##ried
Hyerin
rec
##ron
##go
##IM
##umur
kepad
kekasih
ekspr
Waktu
##ening
##alahan
ataupun
Sambil
tinggalkan
##ert
##tia
meet
##ella
cur
##AD
##emah
Tiada
siswa
Mo
tambah
berisi
serangan
hadapannya
pengen
Tolong
kend
why
##obrol
berpaling
bangunan
istri
great
sad
##IT
bangku
Ariki
##akitan
gelak
membuang
sesuai
bertahan
Ras
Sama
Tadi
sau
##ahagia
mbah
coklat
suaminya
fin
rak
menyuruh
Ternyata
Nurhana
Bun
Keb
Ot
Sakit
yo
##eong
##ave
kayu
Nama
jarak
##be
##hyun
##ital
sedari
elok
terjatuh
mengucap
gembira
kain
##ON
##akarta
hadir
Sepertinya
ulang
jahat
Bima
Lebih
menenangkan
always
##uci
speci
Prince
happy
hehe
lanjut
##akt
sop
sarapan
jawapan
tum
##EM
ketua
##ulkan
being
menyakit
kerj
biarkan
nk
##iah
melalui
mencapai
##ontak
Rez
Hey
tegas
mbak
guys
Cik
sulit
curi
come
pej
##gus
##jek
tertutup
##ampur
pilihan
Varo
cal
cap
memberit
bareng
katakan
tell
sejenak
Sehun
##ped
##ida
##read
Lagipun
gen
##adu
berasa
these
Encik
Kalo
Sp
book
lip
inst
sekadar
##antara
kehad
memastikan
##imak
door
Ed
##urut
##esaikan
menghabiskan
##nikahan
Katanya
kus
please
night
Nenek
Tentu
Hana
kantor
##uhay
under
Pert
Kedua
Tasya
rel
tingkat
##upa
##dak
dilakukan
sempurna
hujung
mar
nangis
##ony
##endam
bukanlah
Sedangkan
Jin
Yah
mang
##ongan
also
Habis
pah
##my
Arna
##asal
kesakitan
house
jej
menemu
##awanya
Anna
play
##asang
##engok
Bers
Lis
puc
##rin
##ral
##pis
##endang
gerbang
##andra
luas
They
alam
asing
Akan
gl
kol
berker
##mpul
goreng
through
film
Marissa
each
##akamu
diatas
##isnya
##les
bahan
##ompat
##ollow
Maria
kup
##omor
##anyi
gun
guna
##elakang
ment
island
menceritakan
##akaan
Selepas
##ormal
Namj
dec
few
udara
##iv
##akat
##esya
Hyuri
laugh
##uhayr
Citra
jodoh
sunyi
toko
##aduh
ind
mengejar
Zuhayr
hebat
##ever
##okan
##rr
##UL
##ibur
##anjutnya
CH
jin
paham
##erang
##tukar
ngapain
##aff
##uji
Chapter
Okey
jenis
BA
##eks
give
##ello
next
negara
##ukkan
##chool
pekerjaan
diter
##ungkan
minuman
asked
Nampak
Rad
##den
##wn
bertiga
pegang
##ING
##reak
teling
senja
Hyung
hidung
Jelas
solat
##friend
##ampa
##omi
menjelaskan
hanyalah
Hyun
sure
same
##ened
##ire
sedap
Elco
Namakamu
Dato
Jeff
Pin
swe
##dar
##aket
mencium
istirahat
Betul
baby
gumam
red
rambutnya
##irim
tersentak
sesekali
stay
Adit
To
bap
membas
##osp
##utut
didepan
How
Puput
##ilai
##etro
att
kanannya
Perlahan
kalinya
hidupnya
pemilik
Oppa
Kim
sw
##aek
##itu
sekejap
apart
punggung
Tari
##ulus
Daram
Pagi
jungkook
jiwa
##ONG
##ape
membeli
melupakan
masjid
Kay
Mah
beri
##ekik
diberikan
Ayie
justru
cint
gu
sew
##alikan
##otes
betapa
umur
bosan
tampan
Hingga
Red
must
went
##io
pusing
Jom
Um
##agak
##agam
sebaik
keluarganya
Dahlia
bumi
La
##lam
##ENG
##ahi
kesini
Terk
##undur
sepanjang
Adiba
tiap
##asiswa
ekspresi
Or
hijau
jur
kl
tertidur
meraih
Magi
lab
##engus
menyed
berbalik
Selama
engkau
##sia
##emy
berikan
menghad
penat
Riza
Kalian
tingkah
Bah
dag
pamit
small
pagar
On
many
##iya
##atus
##idd
melamb
show
gerak
berkumpul
Dir
rasakan
sab
tante
##ivers
Izz
11
sok
##sy
##ater
##alih
##ord
jawabku
Iqbaal
Ranti
##rip
##empatan
Adam
##incang
ilmu
bagaikan
Bisa
Dasar
hmm
laut
##zin
##enjak
menekan
berkali
Yusof
menyambut
sesiapa
Cu
Rasanya
Wan
hahah
##ex
##ted
##dir
help
Devan
Tim
##ayar
##esta
##hamdul
layan
mengam
Putri
Ginger
##iel
##tan
##zy
menangkap
##epon
menjeling
kerusi
count
exc
gur
##ikian
##esar
##ekolah
hahaha
PO
Sera
kump
tali
##ihak
mengec
pernikahan
Amer
seni
kasur
rela
##yukur
##inar
setia
bertukar
ketiga
abah
Syaf
senti
diku
##ekeh
Alan
berbagai
dirimu
##tulis
Sebuah
Amb
letak
peg
teh
##qal
dibawa
real
Aduh
meskipun
Kuroko
Wa
bintang
##gar
##ared
##usuk
##intas
Naira
If
##ail
membunuh
melemp
##syad
Assalamualaikum
menyapa
Pasti
perangai
##icarakan
Far
Hawa
Jer
Meny
gaya
lum
leb
mag
##line
##akh
##ement
##olo
seben
Maksud
berniat
puisi
Haiqal
duluan
cafe
ganti
##anggar
keduanya
family
tud
##hil
##UK
##adak
mengur
##abut
sejuk
menyerang
miliknya
kepadaku
Rezky
berita
doa
Hahaha
Kinaya
author
cat
pokok
tunjuk
##erhana
##alaikum
##iff
patut
##ospital
fine
##iapkan
diff
dirumah
##ancur
Ayo
##anja
mengalami
tubuhku
menyelesaikan
pucat
ner
menamp
bentuk
prob
##eft
putri
Mendengar
bekas
Faz
Vira
dh
members
menjalan
terkenal
Raina
Lama
Mul
Peng
Sar
ge
denganku
##indukan
Adri
Bukannya
panik
roti
menemani
Just
Nasib
Teri
melawan
ape
Ade
Shana
pipinya
Yaudah
##uhkan
took
berbisik
contin
water
Pem
##yak
##endiri
akak
Elish
follow
##vin
##amar
##akuan
elo
##ering
##erakan
kecuali
handphone
Bagi
fel
##cha
tern
##aiz
tertarik
ayo
beliau
Izran
belah
miss
yaitu
halus
cover
place
acc
Jung
Ris
batin
name
##mad
##do
mengarah
sebalik
##intaan
##imakasih
izin
left
##ss
##ester
##ainan
##ohong
Takkan
tergelak
years
##ashi
utama
Kris
normal
##atangan
##oni
##pac
##gig
pasangan
dikatakan
group
Bapak
Kwan
Tunggu
geng
sya
##hi
##ken
##amin
##adan
##ingku
terku
mengikut
##olog
##abu
belas
arahnya
##amatkan
That
Huh
Ren
Syah
vote
##mat
##iy
##ensi
menaiki
##ajin
semoga
ade
lapangan
Syafiq
BER
May
Yes
bon
##tain
##won
##eris
beritahu
bersyukur
##ubang
sepatu
ucapnya
##allen
Why
Abdul
mengalihkan
high
tujuan
Cla
came
gat
##rinya
##top
##akapan
##onal
##ebak
myself
Ters
##aaaa
menatapnya
oppa
Luc
Salah
Tu
##oda
##ket
##epak
belanja
alat
kaku
rapi
##let
##unga
##idaknya
kanak
kebetulan
Semuanya
Semoga
Yoongi
De
##yakin
##anggan
since
someone
leher
kacau
Jong
Pandangan
Sil
##yu
##embus
jujur
gigi
sehun
kehadiran
bant
del
dasar
##port
##ene
mengalah
##hair
chang
emosi
lapar
ahli
Maafkan
Benar
home
##ui
##ucap
karya
menghir
loh
sehari
smile
Dit
abu
##engku
memukul
Anda
geleng
feeling
Sesekali
kirinya
Tubuh
Yohan
halaman
sak
keep
menyebut
##umpang
Hei
class
tanyanya
datar
Nik
Tha
bim
bapa
mamat
pres
dibuka
Amel
menutupi
pecah
jaket
##date
kesed
tandas
sentiasa
rib
menemp
menghub
berganti
menyamp
##astik
patah
kuning
Ast
Zai
cu
gant
hospital
hancur
raut
yuk
##elap
plan
gagal
Jaz
Ny
membah
##atikan
##ender
##rey
rupa
langkahnya
drama
Ta
buang
school
those
##awah
hard
##kke
kad
ramah
##ET
menang
memulai
##ations
mengerj
Airina
##ombor
bantuan
Bagus
terbangun
Panggil
hak
kang
nanya
pal
##US
##itan
dist
menatapku
menganggap
kud
##yang
##ts
diantara
ass
Then
Tariga
Cukup
##tions
##imut
puluh
super
Akbar
oke
##engkap
menyesal
Moer
Mate
TER
cita
fav
memej
Aline
duduknya
pertemuan
nyata
comel
warga
Moerni
Ikke
Jaeh
tent
##ilas
##aukan
melompat
##ajaan
kerumah
pass
terkekeh
kebahagia
Reya
inform
dewasa
YANG
nas
mengac
##esat
sekaligus
##ontan
Radit
Pintu
Ehh
Wanita
sun
##iw
menggenggam
##ompok
agaknya
##embunyikan
kondisi
bid
baj
deg
hadi
##bi
##kala
##irih
angguk
Ilham
Br
beng
gelas
mind
pop
##rama
menanyakan
seem
##abung
##oke
kesana
berhadapan
word
Rio
until
Ac
Jakarta
mil
nod
##onok
##eth
ungk
kesempatan
##hira
kakek
memasang
After
tenaga
mengucapkan
Fazar
Lor
Makan
gon
##ahami
mengetuk
inc
##ebu
seminggu
disamping
mendengarkan
felt
##alak
##ute
##umu
##tian
##awak
##ekatan
Malay
everything
Kepala
memberitahu
mark
sa
mengemb
bersih
tempatnya
segalanya
desa
Otak
Cl
les
tind
##ampung
niat
Alhamdul
harinya
sepenuh
mood
daun
ceritanya
Eunha
Dok
Jan
Mang
Mia
Netro
##als
##asai
sekedar
today
jawabnya
basket
Ingat
AN
Sung
kala
potong
##atar
menet
aman
manja
anggap
100
tegur
kenyataan
sopan
menemui
Gallen
Jun
Non
tun
##row
##yap
##alaku
mengab
##emburu
menyimpan
menyebabkan
bahagian
does
ext
Raihan
memutar
perf
##intah
gugup
Muka
bro
body
hantar
##yarat
hisyam
Pip
Peter
Seri
henti
thing
##osh
When
Tangannya
Es
Huj
Rid
Well
dar
ear
kap
##ema
##oma
kemas
kuasa
mendengarnya
Amirah
mengenakan
sungai
##aekhyun
Redza
Teriak
Bel
Tany
ajar
hyung
lok
ph
takdir
berbuat
Sof
menggelengkan
pinggang
almost
Don
jemput
##OL
soalnya
Apabila
pengg
##ifer
pemandangan
situasi
Meski
tulisan
Ge
Not
Tel
cam
dri
hat
menolong
menonton
mengaj
Airy
pesanan
tumbuh
Bid
Ger
Mom
Nat
cons
gar
nan
umi
##eja
##ross
##nak
##uas
##akala
memenuhi
perp
three
menyiapkan
anything
Bagas
Cel
Fr
Please
bayang
ev
##joy
menaruh
##idah
##asaannya
##ongak
sesaat
tebal
KAU
Li
PER
kafe
raya
##aq
##ias
mengend
another
##atian
sekelas
selanjutnya
terlepas
senj
Suasana
both
Yoora
kekuatan
Pat
Zack
bunuh
pa
mendengus
penamp
##ungkinan
telat
menyal
Max
bayi
conf
find
##ungku
reaksi
##wards
Do
Ky
ikan
##oice
##to
##ten
##arm
##elam
##ited
##ullah
##arikan
akal
cermin
terkena
Siap
##ideo
deket
Jazman
AL
Hampir
Jen
Mimah
Ziwa
band
bird
cep
cle
mun
##EK
##aksud
berant
untuknya
penulis
sepeda
angk
Maka
Walau
tanggung
##esai
##antang
terlambat
bergetar
##ookie
Itulah
telinganya
Qisya
TAK
lubang
##dan
##sw
##adah
##ilet
##orkan
##ently
mewah
harga
##orea
temanku
Berb
ponselnya
Zahin
There
lawan
##san
sebut
##oth
kesay
paksa
ditarik
dipanggil
Menc
wanted
Lorna
Aifer
tangg
zaman
##cm
##unter
mengaku
##ower
menghind
sesak
mengganggu
pacaran
saudara
species
memejamkan
kebahagiaan
Bl
Bur
His
break
dur
mor
riak
sor
maklum
##leep
Kamal
hotel
sub
##by
memec
menyangka
serentak
ucapku
bercanda
Khadi
kitorang
perbuat
calon
Dulu
boc
##nn
##ness
##cc
##auan
menggig
anj
membant
##ampang
keren
peluang
##ingkas
meneruskan
pembicara
anggota
Pandu
rehat
tar
##ld
##ES
apaan
lahir
telepon
separuh
Adik
Pria
kejap
##hlas
obat
mengingatkan
POV
Sang
Tuah
Val
rap
tolak
##tw
##jae
##ikiran
Terd
##elasan
terkadang
musuh
Dad
Gimana
Lah
##lish
##apati
mendadak
siapapun
bayar
bayangan
point
botol
##ologi
gap
game
tump
wah
##OU
##tip
sederhana
disitu
Takut
baiklah
update
##ancar
senyap
##usahaan
memerhati
membersihkan
Kab
Miss
saj
orangnya
##indung
buta
Cho
black
Sedang
penyakit
Irfan
cour
nombor
vill
##res
##dh
##DA
##emukan
untukku
kesalahan
Rey
burung
motornya
beda
##antikan
bebas
doang
##onster
Seketika
percakapan
##light
Namjoo
dadanya
father
##AG
##ull
##uke
bersikap
ngga
sepasang
ganteng
##enalan
##ating
##atihan
Keluar
Heru
pejabat
##ready
sewaktu
18
Day
Ex
Nas
hor
pihak
tumb
ditu
berambut
##autif
##ulur
##ebel
yaa
such
app
jalanan
bawak
##inginan
umum
Wajahnya
Membuat
##autiful
Aq
Heh
kons
mari
##uter
selamba
##ief
Akashi
##untung
comment
##syaf
Terlihat
Dew
fi
side
##akai
##ikal
##ingungan
selimut
pasukan
mahasiswa
differ
Hidup
Ikh
gil
huku
lamun
##jang
##enangan
##ekor
univers
##andakan
tuanya
already
ister
##ebihan
awalnya
looking
Afiq
Jeffrey
Kec
darinya
list
met
sand
ty
video
##isu
inilah
semacam
toilet
disebelah
Syari
Irsyad
Emang
##osial
gedung
Kas
beh
iaitu
memin
ala
pelanggan
topik
Echa
Tok
dl
dgn
huh
lengkap
##lihat
dahinya
kene
bahunya
terluka
##ipu
Makasih
abangnya
near
Meskipun
##abrik
Kidd
cemas
ego
nunggu
tab
weh
##yuk
##oin
##no
##uja
##UM
##ingkan
##awakan
##ipta
mengerutkan
kum
##ria
sif
kematian
soon
Arsyaf
##ched
padamu
Selesai
feet
lumayan
17
Zul
iku
pis
sant
simpan
##pp
##OM
##asha
kegi
##isti
##isasi
##abatan
melainkan
melihatku
seragam
##ombong
digunakan
restoran
senior
Aud
Dem
Rais
TH
jadinya
luk
nomor
run
wujud
##sh
##anks
##arga
##ture
##aul
beautiful
##oses
kering
ref
apalah
ceria
terduduk
##ejutkan
persatu
pedang
menghadapi
cemburu
##OK
##uta
things
menyembunyikan
bersem
Aril
kebingungan
belakangnya
coc
gonna
hope
lho
pay
##jo
##edak
##otot
##ains
terletak
aktiv
open
SinB
nah
sn
##ei
##AY
##ilat
##ajuk
dalamnya
adanya
Apalagi
ujian
berkerut
sweet
Alah
Cerita
Langkah
Zik
misi
sisa
ta
tomb
usaha
khas
Entahlah
sudi
Haznik
Hazrul
idea
Alhamdulillah
Kadang
cuman
hai
##kw
answ
berdoa
##ley
heard
diberi
gig
ambik
mobilnya
Unt
permintaan
tingkap
large
nikah
Ro
##adz
##usak
##ampok
All
berjumpa
sepat
sepup
without
selesa
hadiah
Ikhwan
GU
Mad
free
pur
##rak
##endah
##ukung
disebut
Danny
hidupku
spe
##outh
Mengapa
gam
rakannya
##ceng
##ze
##erta
beralih
##ukaan
kedatangan
bagitahu
world
malca
permainan
care
kawannya
slow
Miren
##ampainya
kesedihan
dosa
samb
wom
yet
memul
asik
dibanding
hair
bakalan
##ition
reading
country
Thaq
Rah
Sec
Sarah
far
leg
##ping
##EH
##uny
und
bersedia
Semakin
menyambung
Faiz
Hil
hug
lupakan
pantai
berasal
##amaan
pundak
serba
Pergi
pembicaraan
Aimi
Mil
Vin
fak
mohon
##ded
##UT
##II
semenjak
##irip
mew
disebabkan
Dania
sekalipun
berkel
kotor
##incin
maksudnya
##abrak
Naj
hold
own
##ilkan
##idi
##esti
membang
kepalaku
kemari
enjoy
mother
person
cocok
Hay
lurus
mint
na
number
pep
##red
##00
##arung
memahami
semata
meera
kelasnya
Bukankah
menyerah
##venir
better
produc
Hae
Hatinya
Ki
ja
lib
mundur
nek
told
##araan
##osen
menyeb
##ohyun
peluk
pelayan
terbi
leave
tatkala
termenung
meeting
sepenuhnya
Hm
batang
col
jimin
kont
singg
tapak
yaudah
##alin
##imas
##ouvenir
Berh
chapter
usia
plastik
Love
lemas
##kenalkan
Hujan
Rog
Sm
Tentang
lorong
tw
tong
##ins
##antan
##ustakaan
Lagian
memaksa
kabur
moment
##aktunya
ganggu
jag
mikir
##anas
##iranya
mematikan
##esak
##right
##anggap
prom
##unjukan
Sekolah
For
Jae
Nae
Ros
cuti
done
kai
maya
maju
piring
##ial
##ger
##ker
##adari
sayap
bertambah
sepuluh
fikiran
penjelasan
kitab
Syarief
Baekhyun
Kampung
##pect
##sik
##eskan
seluar
mean
ampun
diken
kasihan
##ilingi
sister
ikhlas
Bibir
Rama
Viv
latihan
##arangan
##ason
##apus
sembuh
Diam
doing
week
gerai
baginya
memerah
Luth
pinggan
deras
popul
Tyo
nakal
geli
move
DIA
Kataku
IN
Laki
Pe
hur
ringan
##ergi
##enda
##iness
menandakan
memakan
mengirim
##eki
##aib
pasar
Thank
biliknya
laptop
kulihat
menegur
Gua
Qu
fuck
lak
lirih
ranjang
sleep
tadinya
##eer
menungg
taknak
making
Airil
doktor
layar
Bunyi
Mid
bulu
mess
nonton
##eon
##jung
##zan
##asinya
sial
menyenangkan
ngobrol
bangga
##ANA
char
Ahmad
memerhatikan
Izhan
Datuk
Are
bor
rata
##ft
menak
##tually
##kandar
##ito
##osan
art
setahun
old
terbaring
khemah
ready
tipis
mengamati
Dae
med
mcm
ran
##amak
seen
mencuri
sekalian
##ously
pergel
Haha
Marah
Rima
cry
mirip
diem
##itung
sebari
sebulan
toget
bersamaan
mengelak
deep
busuk
Ibunya
##ORONG
together
Cantik
Hahah
Mira
Raja
bir
mac
waktunya
keter
##isinya
order
adam
sound
Seohyun
tidurnya
##ARA
tekan
Haih
Manis
kegiatan
Rin
Rem
Sis
coll
iq
jad
kue
lot
voice
##takan
##faat
##jok
##arl
seter
##itkan
##udra
sekilas
along
##indungi
nyawa
Arisa
maafkan
sejeong
sebelahnya
Ish
clos
Sudahlah
misteri
Vivy
19
Bud
Feli
Phil
TU
gunakan
hamba
##dam
##way
##OT
beredar
##utama
mengatur
arahku
Perasaan
Thanks
knew
kayaknya
khus
SMP
Darus
CHORONG
membasahi
Thaqif
AS
Dinda
Jul
Wulan
dark
parah
##lem
##agram
##usah
##ampus
bersel
mendorong
kemungkinan
##veer
Rei
##inginkan
Islam
getting
Edwin
Der
Go
hehehe
jamb
##anakan
berper
##iter
##ided
Any
##rees
berkawan
telapak
##ampakkan
##impin
mempert
demikian
Ranveer
sosial
##mal
mengantar
semasa
##ibadi
##anto
organ
menjel
ngasih
menggoda
berjanji
Argi
terpaku
area
gave
bye
Alea
quick
pov
tembok
ungkap
Eli
Let
NI
nur
tik
tir
tuhan
##mah
##rat
##fon
##ered
##ably
melayan
##okap
sebagian
kelompok
isyarat
sampah
kesan
ent
reach
dikel
front
acuh
helm
Fat
Sat
Sand
hani
jem
naf
##iet
##sil
##esok
##ampuan
rumahku
whole
bising
##iji
model
celana
menyakitkan
tindakan
Natta
Fel
Jep
Nya
cab
mahal
wa
##zab
sebarang
##bualan
##hhhh
##ching
nothing
mengelus
kamarku
Tiga
liur
##aksikan
Supiah
senjata
Good
cincin
##igh
##gai
##anna
diambil
##its
memainkan
mengisi
##udul
##ible
kelibat
kerajaan
mendongak
barusan
prof
short
pengalaman
Reza
dipenuhi
Airin
Nadhira
ular
Kerana
2019
bapanya
Mateen
Sa
Ted
lil
sent
##ber
##ono
##idik
##ept
##ric
ingatan
##arikat
Ash
Selalu
dihadapan
Abis
kegel
morning
course
Dela
Zex
hp
heh
kah
##entuk
menanti
berusia
melayang
##omba
mendapati
beban
Adakah
abis
##jual
tepatnya
sukses
ceritakan
menghubungi
behind
Zexion
08
16
13
Bagai
Bagian
Hilang
KL
Nino
PAR
Suka
rokok
##yen
##ern
Alesya
sign
##ection
Melati
Surti
Senja
denger
sebenar
Roger
Farah
Jav
One
kid
mamanya
media
nilai
papan
ranc
won
##ID
##eral
kew
##itarnya
denganmu
##olan
##egan
##egup
tengg
telev
having
Syahir
birds
Arilyo
Keh
Khair
mont
rum
taw
##fir
##aren
##alunya
##emat
menep
mengubah
anim
##omas
selamanya
asa
##reas
memasak
antar
ilham
polos
friends
armor
kerjanya
Fhea
pant
tk
##asalah
ditutup
berbu
awan
Diah
Menurut
musim
menyusul
tukar
Agak
hening
reb
##IB
##iknya
terper
perih
bersandar
##ical
white
online
forest
appe
Perk
bagiku
diluar
murah
##angkuk
started
islands
bantal
Pipit
Khadijah
pisang
DAN
Raf
Sing
Suh
Sop
cor
sir
##pt
##fi
memaling
memesan
memotong
mengant
perasaannya
towards
jual
alami
##ipkan
segan
agama
Thomas
mesin
sejarah
expl
Masuk
Nov
tujuh
tangisan
Hyunra
sifat
Brian
Jalan
Lain
Rindu
bend
kuda
pic
tit
##KAN
##akaian
sever
berulang
ngajak
berbincang
telunjuk
##oney
pendapat
##enggaman
dimulai
Abi
negeri
Samudra
tukang
majlis
Segera
capek
kumpulan
bocah
mintak
singgah
Sun
cre
fall
ii
post
ra
tulang
vis
ketu
##iden
##usun
adel
makasih
Anton
Ayra
silap
samar
Sofia
pergelangan
Cal
Duduk
Ga
IM
Tempat
Tahun
jap
##rab
##ph
menusuk
##issa
##itif
##aget
##ekas
##edek
ketahu
berdebar
##indak
pret
##very
##hae
dateng
Gila
Jerit
Now
##inat
##emani
disaat
##iptakan
##ejam
##ode
wajahku
setidaknya
dibilang
##undang
##atuhkan
pusat
rahsia
pintar
Dirga
APA
kind
##AB
##LAH
##idor
membayangkan
##ampau
semester
##tera
Arr
dibalas
amarah
telpon
##ife
menyap
Seolah
istrinya
ques
couldn
dibuatnya
walked
Laila
perpustakaan
isterinya
bersemangat
Kemb
Mba
cek
gul
ham
ren
subuh
##rasi
menari
berumur
##omel
minat
dress
called
ngerti
##ensem
ubat
single
words
##istiwa
Aiman
Jantung
bentar
ehh
fact
kian
laku
mba
pisau
saran
##bb
perj
manakala
sengih
##ormat
Sesampainya
dapet
parents
##rolan
polis
Tanyaku
PR
canggung
ed
kikan
pond
##IH
##TA
##inkan
##asia
##urn
mengump
perub
arwah
disel
inginkan
hairan
berpisah
memandangnya
utk
MEN
gab
hour
light
rint
##cle
untukmu
pasrah
turn
turned
##olongan
##ARI
mount
quite
pinggir
ngerasa
konon
ngeliat
mangsa
Zaiza
Taza
bajunya
Dewi
Milo
Te
ais
campur
jelah
kand
pinta
rencana
##etuju
##ress
##inasi
##ahankan
setan
##illa
kebi
child
nyari
spontan
busy
sukar
Faizal
terbiasa
Elizab
Elizabeth
Des
Kasih
Pl
Rara
Tante
dendam
gula
kill
lus
natur
sum
sombong
titik
menambah
##iko
teruja
adek
##tern
mengger
enam
Sebaik
iblis
Yeah
Senyuman
sekuat
Bunga
Can
Hehe
Tahu
Tomi
jar
kuk
lamanya
pri
##yat
##rik
##ring
##anga
##usy
membutuh
menghulurkan
##ipat
bertindak
segar
shock
food
comm
Biarlah
menghilangkan
Jeremy
Cuba
Nek
Ol
Tara
meter
nd
tunduk
##tuh
belie
seronok
kemampuan
makcik
big
shit
##ween
stud
daerah
korban
keberadaan
trying
mengerjakan
memalingkan
Bar
pang
rookie
##aryn
##inj
##esalan
perutnya
sela
##auhan
anggukan
Mengh
musik
memanggilnya
berkun
study
handsome
Esok
Jujur
LO
Luke
Pun
Ratu
celah
reg
tungg
##ged
##arut
perusahaan
though
##edu
##atif
Pernah
bergel
siswi
menundukkan
##ongkok
diterima
Ka
Yana
days
omma
dijadi
##ukir
##orban
##olek
##ampas
org
tersadar
artinya
pasang
Bert
respon
syarikat
Iblis
Langsung
Waalaikum
tudung
Hang
Sangat
Teman
Tengok
fit
nang
sap
##alem
##aba
kemarah
##odo
##acamata
berdekatan
menjadikan
dapatkan
Selain
emas
menyerahkan
Mei
pacarnya
Enggak
parkir
month
Ery
Haf
Mun
Mus
imm
kiss
puan
##yraf
##pula
##anan
##aur
memori
mengejutkan
perbualan
##uhyun
melarikan
##oub
Aneh
stand
kebaikan
Berd
kejam
Yein
lift
Sanaor
##view
pahit
Kyuhyun
Fir
Lily
Sempat
UN
breat
cem
pek
rajin
##ahil
diikuti
##ica
##ubungan
berdegup
tetamu
##uahkan
gelisah
##istan
bungkus
pukulan
coming
caranya
menyelamatkan
beneran
parkiran
menempel
Ne
Wanda
ceng
lun
lamb
lutut
##iasi
##tle
##woo
##ject
##GA
mengobrol
##umat
sekian
##osip
bersamanya
aroma
Daniel
cerah
least
Tania
##turunan
Ingin
wrong
apartemen
favor
Gise
Josh
bub
duga
genggaman
kunjung
souvenir
##hrib
##amaku
##tusi
##aged
##endong
sudahlah
meyakin
ama
Sean
mesra
Ayuni
memasukkan
Biasanya
year
##angkul
Angga
layaknya
ground
lips
cepet
##lihatkan
Zikry
Aina
Lena
Qash
haha
mon
might
ris
yu
##likasi
tertuju
##utin
##abah
melotot
##uple
##angkai
maupun
once
wasn
memandangi
minyak
dihadap
between
happened
##enyap
membenci
daddy
young
melambaikan
gatal
different
seterusnya
Giseii
BU
Gi
Hak
Korang
Pap
mimp
pengan
마
seat
##ulat
##iaya
merindukan
##egah
suci
balasan
berputar
trans
Ibra
sepatutnya
several
Ega
Malah
Pesan
Yelah
fun
lulus
manggil
rendah
##EE
##cak
menjemput
protes
Insya
pink
tertunduk
cool
leav
masalahnya
Mesti
layak
Young
check
Hyungwon
berantakan
Demi
Ahh
Korea
NAK
Pet
Sai
dosen
join
##TER
##astian
menelan
##omat
kamera
##otan
keret
##egur
Terp
halte
berpakaian
Sebagai
##eful
perlukan
Sedikit
obrolan
sampingnya
polisi
omong
keningnya
Bahasa
Ih
Ist
Lantas
cup
rob
##ster
##ahabatan
##awai
##awatan
##ayakan
melekat
kelam
keluh
mendarat
mendatar
dised
pener
past
enough
pinj
Read
used
Seseorang
##timewa
bukti
tipu
Kinan
jejaka
BAB
sebaliknya
By
Ohh
##uw
berempat
##tick
sesama
berbaring
nampaknya
##itamin
tergantung
Iskandar
##arapkan
problem
Kabeer
membutuhkan
Hish
full
trees
##ien
##TI
##angsung
##daya
##abuk
harta
##mmm
Chila
kakiku
##umbuk
sembunyi
kagum
memegangi
daging
Singap
Aust
Bad
Bec
Besok
Cross
Kota
Nia
SA
##egitu
##suk
##ᅳᆯ
##OO
##ines
menampakkan
##irit
peristiwa
##ebook
inget
##indir
Inilah
requ
##thur
##lied
pikirannya
Awalnya
ibuku
susu
##erakkan
Ersa
boyfriend
Sahir
14
Kai
Of
Ruri
Zaf
kt
sul
##iang
##eni
##tiba
##ebik
##aci
##ici
ngeb
kesel
sampaikan
Intan
kebun
dipandang
##ungguhnya
ubah
membentuk
Ruriyn
Nita
Nuc
Res
Rob
baya
hensem
later
pain
tang
##din
##eret
##org
##ajib
##embak
##odorkan
Indah
tetangga
Asal
memperkenalkan
mesej
lepaskan
##appy
Yusra
office
Rayi
tembakan
Supri
Aisyah
jejak
Niken
iqbaal
perubahan
50
Gr
Tepat
Ul
##sinya
menangg
##iting
perd
masakan
barisan
Anth
##reen
Terasa
End
abs
couple
##manapun
##istol
melakukannya
terjaga
Err
Rizal
jurusan
Untung
memulakan
meyakinkan
Anthony
Ji
jump
kyo
wond
##back
##kn
##asannya
##iled
terutama
memat
mengajar
##anye
disek
berteman
telur
ditempat
##azif
bercampur
second
penduduk
Indira
bukit
terukir
##affron
mengabaikan
Hehehe
Seng
With
mouth
nulis
saku
##ril
##ror
##rangan
##tin
mengerikan
##acter
seberapa
bersah
arahan
seribu
##isikan
##onta
sho
kebelakang
##ches
##umput
Karin
secepat
pember
menuruni
everyone
bulat
curiga
menjalani
kapal
perbuatan
Java
Kaki
Kelas
Kawan
atur
job
##jawab
##erai
dibu
key
##ikah
log
mulu
mencer
##ujung
proses
##eee
##isten
enggan
kasut
sinar
##loe
Ejaz
##denly
Did
Fad
Rai
SI
pil
##lit
##wh
##arn
keindah
##arian
##ork
antusi
merek
sebanyak
##ative
##anjat
status
##bangkan
##siapkan
##mpat
##ijik
##ngan
##rafia
mantan
Sarrafia
Adriana
Bis
Luna
Sha
kuku
lencana
mung
sumpah
ust
vi
##bed
teriakan
perintah
berdarah
##anikan
kecilnya
sedikitpun
timb
engga
istana
Kelihatan
komen
sajalah
kegelapan
Arrani
Author
Hek
Kari
Nafas
Your
genggam
pok
##지
##ano
##alut
keturunan
##iks
##isahkan
##esokan
sebegitu
##inggalan
dibelakang
memperlihatkan
demam
tegak
mayat
Rasen
underst
perfect
Dayuh
woman
Sophea
AR
HAHAH
Som
Wait
gas
ton
##zie
##enguk
memujuk
mengan
mengulang
##anting
mendatang
dibawah
keben
memperb
mengerny
Andika
##ANGAN
##iii
Manusia
untung
koridor
dewan
menampar
Adriz
muntah
24
Every
New
tulus
wis
wangi
##AC
##angkut
berikut
##udang
membawanya
##endra
ngej
berkaca
sekolahnya
kebanyakan
menyala
##AMA
mengejek
interest
kendaraan
berbual
dijadikan
Qashah
antusias
Bye
Dr
KAT
Mara
lancar
sol
##oal
menengok
menunjukan
##olos
##empar
menjatuhkan
gelag
Chloe
thanks
lengannya
mendekatkan
penghuni
namaku
ternampak
lukisan
##unyian
character
quickly
Car
Fah
God
Mik
Woo
dara
ir
mine
##uak
##kin
##ungkus
##adaannya
##embang
kelak
menyaksikan
bersembunyi
##angkali
barulah
keluarkan
akrab
bijak
Arthur
half
ditolak
bercinta
lemak
Whats
suamiku
##times
##ausah
dlm
Tat
fig
##amer
##ult
##etakan
meres
##ries
##egar
alih
disuruh
##epaskan
ucapannya
tijah
dipakai
Asyraf
Terlalu
famili
Order
melemparkan
continu
Saiful
Nuca
Qais
Tunjung
lepak
mall
pub
ros
##lek
##pad
##sek
berad
mengukir
tetep
ditanya
Shah
nafasnya
strong
Khusy
kesayangan
believe
Khusyir
Amm
Buk
Desa
Happy
Kang
Kul
bamb
hm
sontak
vari
##po
##RI
##aking
##ukar
##edih
merajuk
sigh
bersebelah
kemeja
step
berkenalan
berharga
pemer
Dahlah
desc
mengusik
conc
komun
krim
papanya
impian
Audy
Lihat
Sabar
dak
leng
occ
tatap
##mar
##nam
##net
##zi
##alat
beruntung
meman
##onenya
##ident
berdiam
bergabung
sholat
diletakkan
actually
blue
Masalah
terganggu
tears
lemari
malem
memeriksa
maybe
##AAAA
riang
Abiseka
Eryna
Raga
SD
basi
gay
rumput
tv
tra
vol
##eza
##yarak
##tara
##pam
##ᅳᆫ
dianggap
menim
##idikan
##umlah
##ungut
merep
##ongsi
##angkir
makanya
berjuang
sepatah
ditemani
Seung
close
Sheila
skrin
ekor
finally
Kembali
Dib
Pa
Zaid
cream
dpt
mawar
##nci
menaik
keinginan
##ulikan
##ages
##urau
##awarkan
membuk
##antis
bersinar
menghal
mencebik
harini
berdeh
Ingg
use
plac
gerakan
Appa
paras
melempar
nodded
mungil
25
Nada
Neg
Pro
Vitamin
four
gangg
tegang
wish
yak
##lukan
##pir
##hat
##isyen
##ehan
##apikan
##ants
alone
alisnya
asap
Perang
besi
Sharyn
sens
pikirkan
mengenali
persis
yeah
Daripada
kejauhan
Engkau
Puteri
supp
komputer
##akhiri
kangen
answer
menyebalkan
colour
Mikha
Beg
Rupanya
cas
cember
ngi
pick
ringkas
yes
##elia
memohon
dariku
bahaya
##odi
penumpang
prop
Merah
##esign
##love
Irene
thank
kirim
Aisy
Ridho
Ashley
Ikut
Mujur
pistol
wang
##llah
##less
##side
##fort
mengungk
melindungi
##embuskan
menyodorkan
add
berkahwin
Perm
Perampok
dikenal
sayangnya
##engkel
however
melambai
Lucas
meminum
khusus
Bet
Hello
Jual
Umi
dam
jas
mangkuk
sihat
##oe
##lim
##hwan
##zah
##elakaan
##tie
arri
Argh
materi
##round
White
Lutello
##ASA
Niel
Ain
Coba
Jih
Loh
Meci
Namanya
Pend
SP
Sayu
Tenang
flo
hormat
jarinya
jiw
muk
zain
##mir
##kon
##OS
##enan
seekor
beres
membayar
##ampaikan
##antinya
sedia
##aikat
soft
kedepan
sihir
upon
##ancarkan
seneng
sayur
contact
dinner
menghiraukan
hatimu
bersebelahan
Ajak
Darah
Juga
Sambung
Tau
WA
daya
pabrik
raja
usi
##ister
##illy
##onc
##urat
##using
melah
##ubung
menghalang
Terb
Terimakasih
hear
Perc
ujarku
brought
rahasia
Mataku
kaunter
Rizki
gunung
menjalankan
sepupu
Rosma
berkunjung
Qaisara
KAL
Rose
Some
Via
Wanto
lel
less
ntar
yell
##EP
##aras
##adakan
##eksi
##etnya
membaw
membicarakan
membebel
melab
##ihatannya
prog
peluh
berhati
Keadaan
Ucapnya
remember
Bangun
mencintaimu
menginjak
Terdengar
gapapa
Calandra
##yarakat
cemberut
Bor
gamb
libur
suh
shir
sbb
wind
wajar
##bagai
##UNG
##wal
##eningan
##ilau
##itau
##gian
tersisa
ngeri
terlelap
prep
berbeza
##ustom
Makanya
berpandangan
##stal
##thday
Menjadi
Melayu
Ngah
memaks
Angin
##APA
kaos
larut
jelek
pondok
kebiasaan
Jauh
Rika
bandar
port
says
yoon
##NYA
##erd
##tual
##ukis
merta
##ataannya
##otol
kaum
menyemb
pulled
ketidak
kecelakaan
ucapkan
pengsan
Sial
##enggang
tega
persahabatan
Ketua
Jawabku
Kepalanya
jantungnya
##untut
##ujurnya
talking
decided
GUE
kemarahan
Karim
Ammar
Ham
def
gus
mi
monster
pot
woi
##uangan
##TS
##arai
##engek
merapikan
melesat
orangtu
##aikal
asli
membuatmu
pribadi
senyumnya
tikus
##room
bermaksud
Elv
canda
Ayahnya
sayu
pergerakan
##etulkan
menyakiti
Reno
present
menghindari
giliran
tenggelam
Dini
Joh
Rat
Rambut
Tae
Will
iki
mia
pings
tut
tree
##him
##ahagian
##ular
##ider
##eduh
nipis
##arahi
mengelilingi
##ancurkan
poss
brother
cewe
hidungnya
insan
finish
Maybe
Dokter
berikutnya
AIM
Haikal
LU
Tengku
cak
cac
dorang
della
##luk
##uap
mengawal
menginginkan
often
arti
istimewa
kenalan
pening
retur
##ither
##ontarkan
sehat
tergel
penjaga
kekurangan
tahulah
punggungnya
tempoh
David
Rasy
menyalakan
universiti
question
Youngjae
keindahan
Kek
Pantas
Ry
Rind
lag
lekat
ribu
sumber
tend
##이
##utes
mengaw
##ude
##omma
keringat
menghantar
seram
olehnya
Soalan
##ancang
ingatkan
Loan
ajah
serious
grab
Syak
paruh
menyusuri
Davi
Pemuda
Naeun
organisasi
Crossed
Della
Mi
Mamanya
ahh
dest
dev
mamah
sit
tamat
##rod
##pris
menentu
melamun
seberang
sekitarnya
menyoal
menghapus
##nye
watak
memberanikan
lehernya
special
##ralia
dibandingkan
Dimas
Eiji
Malas
cul
gaduh
mini
pesta
rutin
tamb
##elat
terimakasih
inv
membac
##empas
kemudi
##engaruh
kembar
tanaman
Arj
##ibatkan
warung
studi
inside
serupa
Katia
complet
Sayangnya
Risdan
change
membahas
hukuman
Haez
menakutkan
Deraman
Teddy
##phonenya
pretty
Bak
Buku
Balik
Key
debu
fail
garis
mampir
pujuk
uku
##eel
##nis
##ding
##ancap
diangkat
##irannya
##udar
menyatakan
##anggal
menghampir
diseb
berlangsung
berguna
pengunjung
spot
otaknya
khabar
Abah
malang
opo
Deva
Salt
mengarahkan
mengalahkan
tentunya
Serius
lokasi
Momo
Burhan
Budak
Singapore
gangguan
Bandung
HA
Kr
Sara
Sini
bohong
duk
eff
ih
naya
##nanya
##ingnya
##ungap
##andingan
lagian
nice
##rich
mej
ast
##reet
Inst
dibalik
harusnya
##eraan
##ention
setelahnya
bukunya
timur
emak
trus
else
worry
Ngapain
menurunkan
fikirannya
tasnya
Hmmm
Sahut
waiting
Terkejut
Jaehwan
informasi
kids
Harap
Ket
Kev
Sher
Uh
Weh
YOU
cop
jiran
rac
sape
die
##kuk
##utang
##ibi
adiba
berser
disambut
##obi
pastu
berbentuk
berlagak
mengelap
ikutan
##etail
cloth
bring
hadapanku
syarat
Engku
kolam
Mulut
nasihat
Woojin
Kevin
22
Ika
gudang
lidah
psik
table
wal
wanna
##ED
##woon
##ale
##itnya
diajak
##ajan
taking
merawat
sekiranya
##ukannya
berdering
ditambah
keheningan
perasaanku
##ondon
lead
##ects
SEK
almari
pelukannya
Izzat
gurau
maghrib
mengembalikan
Valdo
AIMI
Dil
Ica
KAM
Mulai
Para
Salam
Yalah
fac
ji
jog
line
mek
##ging
##cal
##IAN
##ᅡᆯ
##agh
##ussalam
perawat
##ajari
membalik
##lahkan
toh
kelakuan
##empak
Angg
menggerakkan
kecik
tiang
Chot
##unty
Andang
dimas
sayup
menguasai
2018
gedik
meneguk
village
01
Hw
Makin
Nai
Suaranya
Susah
gitar
hon
hay
land
por
##ᅡᆫ
##aseh
meninggi
teras
##ager
##uruk
##ungsi
##tive
Ald
aduh
menderita
keseh
berbanding
depanku
berpel
berpindah
Seakan
bagitau
males
##aiton
quiet
##cayaan
tokoh
Umar
Astaga
doesn
penampilan
breath
Rasyid
AM
Hid
Hadi
Idam
Kisah
Mahu
Tasha
Zaiton
janj
matang
##me
##uannya
##Allah
##UH
##tump
mengep
merangkul
##imis
masanya
##upan
adil
##ows
##inggung
kesian
##ucuk
##awanan
chila
goda
Soalnya
meninggalkannya
Prabu
##juangan
panah
##ENT
stress
business
mendekatinya
tahap
guess
Sungwoon
menggigit
membangunkan
keretanya
Australia
pingsan
Arjuna
Bulan
Emma
Hu
Sir
Win
puji
##OH
terangkat
##eser
##ekak
peri
##adian
tuju
##angguk
mencengk
butik
kurus
##oyang
menganggukkan
Meira
grup
##itting
samad
membelakang
Langit
Kebetulan
nafsu
understand
Che
Nih
Park
sob
berangan
kejar
##aganya
mengek
##oken
##uaca
keliling
tersedar
sangatlah
makna
##eck
berbagi
berlebihan
Percaya
angan
##unjungi
Reyn
See
##mpulan
siapkan
Biarkan
Awal
##incess
##ffee
##ALAM
become
sukakan
imam
support
cuek
memecah
slowly
menghampirinya
21
Bisik
Kad
Sita
ci
hawa
law
lingku
mabuk
panggung
tp
##ean
##oan
##pen
##fek
##IP
membeku
masyarakat
##acher
##ukum
allah
barunya
keluarg
jadikan
bertanggung
bebel
shop
##uangkan
dilepaskan
true
perkahwin
Sepanjang
##ohonan
satpam
syukur
Azam
repot
membenarkan
gener
lebam
PART
##firullah
dihadapannya
shirt
Clove
Hi
Malu
Minggu
Rasya
Tambah
Wow
capai
cuci
lawak
lenyap
saksi
tot
yelah
##du
menged
##aiyn
##orge
merubah
##ental
##ukainya
aktif
share
salahnya
memandangkan
Sebentar
minutes
fruit
spesi
blood
mempel
Harus
Wahyu
girlfriend
Joe
Nampaknya
menghirup
lesu
menggigil
Reyhan
mengantarkan
Fidi
Hel
Hadz
Mis
Mobil
Pukul
Tinggal
eat
gh
judul
##tpad
##fal
##fast
##vis
##qman
##erj
##kul
terfikir
tertulis
##ediat
merayu
##epian
sebatang
jug
sip
##uard
adegan
mendukung
Anne
encik
hey
pakcik
ship
pengawal
Ady
pikiranku
Isy
melangkahkan
##eliyn
##aitan
botak
crush
kegem
arms
simple
produk
cintanya
Amboi
probably
##endirian
Sengaja
kebenaran
beradik
AD
Badan
TV
cut
cond
dream
fur
gaji
jemb
low
pack
rusak
##lakukan
##gah
##sur
##alukan
mengandung
mengulurkan
ann
anti
semak
bukankah
sendu
onok
lalui
terkesan
bergaduh
terbel
pastikan
##mail
bermula
bakar
smiled
peti
Azan
Raess
Pertama
Namjoon
miles
Keluarga
yuyi
Cin
Cha
Hake
Mur
Maj
Omma
Tuh
batas
domp
ip
tawar
##onya
##ove
##lh
##IA
##aninya
menendang
##isung
##ido
##ors
anter
semesta
puncak
ngak
mendes
##opak
biji
baiknya
##ANT
Janganlah
bermimpi
berminat
tergesa
terjun
silahkan
others
English
boss
##aksanakan
Aliya
perihal
##roduc
##ediately
Hakeem
Bintang
Cahaya
Gumam
IS
Woi
card
cute
data
dont
hingg
lomba
suri
##eo
##ead
##App
##ahannya
##allah
menu
##aps
##apar
##ume
##ampar
darimana
##uatkan
menghar
benak
asisten
stood
makannya
kecut
##ANYA
Apaan
usai
pembaca
looks
mahukan
dear
##iringi
Kurang
##untum
kabut
Mrs
mengintip
America
bidang
Telefon
Patut
egois
tombol
explain
poket
melabuhkan
Fl
IPA
Kup
jantan
kost
##gat
##kara
##ately
meneku
berehat
##aufal
memint
akun
##ajat
##awi
##imanya
melayu
melintas
##uarga
bersatu
isinya
standing
##ghter
saatnya
enter
##AND
##under
Berk
dipegang
nyatanya
adikku
sejauh
Benda
##uuuu
bantuin
payahlah
Zahira
gede
salju
kacak
Marvin
##ILA
boat
rakyat
Pertanya
##iyakan
aktivitas
dikenali
natural
pangeran
Hafiz
pengantin
Berapa
Cont
Dimana
OR
OS
Tian
hell
lalang
##rill
##inal
##urai
##ides
##aight
##tiup
melingk
mendung
##inggit
reti
ditengah
Berl
Seiz
##chi
usul
##ities
malaikat
Hariz
against
menyusahkan
Halo
lamunan
liburan
kandungan
familiar
Seizun
Faq
KK
Suatu
Sumpah
iri
lawa
nae
rek
son
##cing
##cepat
##ahaha
##amamu
berf
##ajukan
merinding
melipat
##ehwa
##ambarkan
terlupa
asrama
##arth
ditahan
ditinggalkan
berpura
diketahui
##AHA
Who
##cium
fikirkan
Maehwa
ujarnya
readers
jantungku
import
romantis
##pisahan
George
THE
Baju
Dunia
Jisung
Mya
Nu
OK
Saka
Zoe
galak
lost
lebat
paman
ug
wes
wall
##erahan
##arannya
keti
##onda
mengunci
selagi
alis
alaikum
##leas
able
nyanyi
##atever
kerjaan
##untun
Prod
known
buy
200
eyman
Minhyun
lauk
bertubuh
Alexa
romance
Hyunsuk
membasuh
membantunya
menepis
Even
Janji
Kerja
Liam
London
Mint
Ram
Tamin
WH
case
lik
panc
radi
tried
##med
##fer
##anak
##erti
##aruk
##yal
menawarkan
seiring
ketus
##ebaran
Alisya
##owing
aliran
disekolah
assalam
##capai
berbohong
Dane
##inggalin
amel
reda
reason
terkedu
bergurau
janganlah
##estilah
Akiff
kurangnya
mempersiapkan
outside
road
resp
eyra
memeluknya
berkulit
Emeliyn
menyusun
keberatan
pegawai
bimbang
ribut
##dhito
Faqar
Cow
Kej
Lima
date
fisik
garang
gesa
kamb
rind
##more
##boy
##hip
##sis
##JA
##inese
##alur
##amam
meneb
##adangan
anc
##abur
##ayaan
orangtua
##osed
Alvin
belom
alamat
bahagi
ketat
Ardhito
dibiarkan
begitulah
awakmu
Semenjak
padam
##arkir
Menj
Lagipula
SEM
kony
simpati
Terkadang
karyawan
event
tanggal
fakta
tongkat
Jepang
mountain
immediately
Dik
Lesti
Mag
Mengg
Nick
Pikir
SU
aeris
btw
detail
hit
ice
rock
##vo
##alis
##emang
##asat
menabrak
##irang
akur
mengem
##ession
##ekap
melebih
tutur
touch
kemaren
temui
##asiun
Araiyn
dirasakan
beserta
tertinggal
himself
dimaksud
pedangnya
sahabatku
sembilan
straight
reply
##iksaan
Tubuhnya
birthday
jemari
Khairy
hamil
jarum
Dengar
ITU
Pokok
Ust
Wat
bicarakan
ck
cucu
duka
gampang
hir
kli
mie
rice
##okus
##ainya
##ies
##akna
##itter
mengemas
mengiyakan
##uss
indi
##awas
membisu
membetulkan
mering
tidaklah
keluhan
##eget
menghembuskan
##epatan
among
rez
rekan
aplikasi
pertar
Revi
sehingg
didep
sayangkan
began
pipiku
manisnya
resah
##etahuan
Kereta
Imran
Tria
Davina
keperl
breakfast
five
jaera
hurt
request
Aldrich
perkahwinan
Ag
Mimpi
NG
brian
daf
efek
juta
lim
lant
late
lantang
oper
tertera
perh
perjalan
##tice
##ebahkan
unik
stat
Term
Perg
sepak
haq
memandangku
##ift
##umpur
padang
Setidaknya
perlakuan
##ists
mengerling
times
pembantu
bernafas
##mione
obtain
hubung
jeritan
Segala
mempertahankan
rancangan
ketukan
menanggapi
program
Haezrill
Beli
Kanda
Meg
Ong
Paling
hab
hop
mug
ohh
pian
##bat
##bab
##rup
##ahak
##emua
##aster
menapak
menipu
sea
ketuk
mengay
##ummy
##esel
##awang
keliru
##riw
##upun
##anggut
buatkan
kuih
kesunyian
menggosok
heav
hadap
angka
terpejam
Kakek
afhim
habiskan
whats
##omblo
positif
memanggilku
cowo
thinking
Salman
cokelat
walking
memberitah
catatan
Claire
mengajaknya
anjing
bubur
yoonmin
Bamb
Fira
Fakh
HP
Hand
ae
aut
bayangkan
fans
geg
van
##lai
##can
##fic
##ᅡᄅ
##emasan
##engang
mengira
mengakhiri
##ekt
##ety
##edulikan
meluru
##enteng
belikan
bersekolah
kese
seped
##ifa
sakitnya
ago
tristan
begin
teen
sometimes
dead
Terlebih
boys
saleh
mengajakku
kepercayaan
##HHHH
excited
kumpul
continue
syaitan
hukum
dikeluarkan
Sunny
sapu
view
mengantuk
Pertanyaan
Hol
Haa
Kiat
Nisa
Tia
Tina
Where
cic
kandung
roll
tol
##lic
##hyuk
##NN
##GI
##ery
##ero
##eline
dialah
menembus
##kusi
##eboh
##abaran
##imuti
sebutan
##andarkan
##ending
tersel
bersedih
baring
terlintas
kesah
segelas
jawabannya
terburu
Seong
Masing
##ected
##rans
penyesalan
Seru
Angel
pergilah
Salmah
ikatan
000
dilihatnya
menelpon
Bersama
clear
Nasrul
ketahui
disediakan
gelagat
kemudiannya
pertarungan
40
Desi
Eur
Eva
Pulang
Saffron
YA
bg
bun
bund
gang
gosip
jus
miliki
ringgit
##eun
##men
##tember
##ato
mentah
berist
keatas
teramat
mengikat
##used
##tib
membela
teruskan
maut
pelbagai
terbuat
chan
coffee
Amir
gaun
##uliar
introduc
pojok
membereskan
tipe
sabda
seemed
Hilmi
Smith
tawaran
##ematika
Borne
konyol
meringis
Dih
Dapat
DAH
Ina
Kuc
Mimi
Tua
cause
dagu
fight
jul
ndak
ninggalin
tepuk
tawanya
##sal
##soo
##OD
##ᅥᆫ
##erg
div
berpac
##etap
##olate
##uhh
mele
melaju
sebak
##enty
##entangan
bersetuju
ketinggalan
kesepian
bertahun
##vern
Endah
##entuhan
tengahari
##uncur
notif
pendidikan
Malays
digenggam
live
living
diperb
komentar
ngerj
peculiar
##cayai
kepergian
##omorrow
mustahil
kesayangannya
Sandria
televisyen
lunch
wonder
timbul
AB
Bodoh
Del
HAR
Hendra
Ko
Muda
Monster
Nor
Pep
Pemb
Sud
Up
Ujang
aira
ba
jijik
lek
mm
mist
##band
##lu
##20
diw
perjuangan
##ajian
##edakan
##abaya
meronta
melarang
##ended
menyis
ngant
mencu
terlibat
##ecah
forget
tengk
kelasku
berpamit
chief
badanku
expect
kekal
music
rambutku
ponselku
gemetar
Pelik
James
mental
sebenernya
From
maklumat
pemberian
lingkungan
Cer
Den
Fach
Mon
Muh
aura
cium
maki
rindukan
sajak
##sat
##fy
##ihir
peremp
##ebr
##eping
melong
##ico
karen
kartu
pasien
berhubungan
menyalahkan
choc
terharu
lepastu
menyeramkan
Aleesya
bisu
##amaian
penyebab
telefonnya
##imbing
girls
##TUK
sadari
Bagaskara
wahai
##AGI
giginya
SAYA
Nuqman
Seongwoo
Bay
Caca
Call
Da
Dee
JANGAN
Kom
Kena
Land
Laju
Naufal
Ringga
bincang
hate
janggal
song
tin
wide
##hentikan
##qy
mengadu
##use
##esh
perpisahan
##eby
##ueen
kerum
adda
menghancurkan
prot
berkom
doc
Berg
abund
Semalam
spec
Sekejap
##ooo
Pram
Andai
selesaikan
teacher
perso
Sesuatu
kejutan
anyone
##ashback
SEB
Mariam
##dulikan
letih
##APTER
tugasnya
jendral
papah
supir
##asiswi
##ITA
cintakan
information
Clara
Geram
appro
Hahahaha
reached
mematung
continued
berdehem
rezeki
Ath
Datang
KEL
Lin
Linda
Nay
Umm
aunty
fast
gone
hany
##lik
##ser
##enam
##elai
menimb
##untie
##engir
##ago
mengat
##orn
sebeg
self
selera
menyukainya
melihatmu
sesungguhnya
mengganti
Arza
amaran
##undukan
##undred
menyay
##nyanyi
memberiku
##lies
Elsa
surpris
pakaiannya
Erik
patung
suddenly
Sehingga
pesawat
Imah
pintunya
Iqqy
kulitnya
mengecek
seharian
tunang
artis
jadwal
mengernyit
##pirasi
Borneo
Aom
Btw
WO
cintai
kilat
rat
san
sambut
umm
##yle
##UA
##far
##VEN
##emikian
##asarkan
dibang
menump
##usul
##abil
##ampan
ungg
tuaku
kelab
menjual
mending
alarm
mengharapkan
Takde
telfon
jeans
##aafkan
dikit
Akak
nyaris
kurasakan
ayahku
tetiba
mov
pedih
malaysia
esak
eye
Seharusnya
2017
kenyang
Junghwan
bidadari
clean
tumpukan
INI
tendangan
membalikkan
daftar
Kyung
MEM
Mio
Tur
Var
Vote
fell
hent
mangga
nantinya
tri
wak
##oj
##kr
meni
berupa
keyakin
tertump
taksi
melay
##ibas
niatnya
##embut
##aining
##riz
##upuk
##enyak
means
serak
##ungkam
##anjir
pasir
##empatkan
##indra
##idupkan
terdekat
##ceed
mineral
frust
##oyo
betullah
##though
Meninggalkan
kakakku
betah
##young
indahnya
petir
binatang
##emenin
mentari
##ield
Jaehyun
during
##kwk
undangan
ransel
hours
months
leaving
ukuran
Instagram
OSIS
Europe
berpamitan
23
Bola
Pu
Rus
Tom
Yolan
bac
ca
design
fan
gausah
hous
hambar
hundred
kuh
uh
##rap
##UP
seumur
bernyanyi
##ilin
mengundang
##oro
perhatikan
##uding
##udukan
##edah
##elahan
sedemikian
Alindra
tersedia
menyanyi
menciptakan
stasiun
pertandingan
##rystal
Adis
Merasa
##nyataan
satupun
Jawabnya
deal
skin
liar
contoh
happen
menyambar
bukak
##tivasi
##rahim
namamu
Usin
##ADI
gunanya
##ucapkan
Junki
Bibirnya
fucking
##silahkan
081
priv
UNTUK
menaikkan
tergeletak
Fachri
AP
Aan
Cew
Jaga
Kise
Mati
Senang
Tangis
Uj
ban
cau
fath
hom
kasi
lena
non
nga
suar
sarang
sentuh
slight
wed
wife
##leks
##EO
##fin
##ahat
##innya
##emahan
##ilir
mengena
mengetik
##imbang
sebesar
##antren
menyah
Anj
penutup
penjual
strang
awk
##uture
airm
terbahak
Maklum
abi
nyuruh
acah
yourself
memasukan
pembunuh
Loi
##odohan
drop
Putih
Usai
menginap
relations
attention
pokoknya
Doktor
Black
anjir
payung
menjelang
Aomine
BE
Eton
Jasa
Nissa
Rambutnya
Saf
Vi
Yaya
ciri
gk
han
lam
##ez
##rong
##KS
##zar
##atannya
##alai
##asnya
mention
##umuran
##esona
##orok
perumah
##etir
##pailah
##ebes
##antly
mendiam
alif
loved
##ecak
sesat
matter
terkel
terbayang
terbakar
minah
jaman
##istem
bermakna
Memandang
Univers
bibirku
##apped
laporan
terjebak
anymore
menuruti
permukaan
tanyakan
paper
riuh
tunjukkan
mengikutinya
delapan
peper
fitnah
membawaku
Cowok
keperluan
persoalan
ADA
Blat
Co
Duh
DENG
Mukanya
ST
cuc
earth
langgar
nepuk
##bo
##bal
##rem
##PS
##An
##sir
##alth
##ingai
mengag
##oli
##olok
meluncur
sebal
atap
kutu
##induan
menggaruk
##utur
review
dikasih
##uruf
##arkah
plat
across
Ayang
bakso
pendiam
saying
biarpun
urus
##ature
gagap
Rania
kekasihnya
talian
boneka
gatau
Pandangannya
Zaim
Celebes
Secara
memperbaiki
floor
annoy
ngerjain
sebegini
Blateng
Botol
Kut
Nana
Nini
Pac
PAS
Saja
Ze
bwe
cadangan
laaa
pekat
##etua
##ming
##dang
##HR
##well
##inan
##elc
##ikkan
semena
kelihatannya
kepastian
##razy
##afal
kemerahan
kesib
sendir
menggendong
berhak
haih
Seku
Hannah
##eeya
plus
maafin
expr
handphonenya
team
menyeringai
biarlah
grand
India
became
##ution
##uuu
Suraya
box
palsu
mengacak
tiket
WhatsApp
Ratna
kesehatan
jugalah
beristirahat
Hais
Iman
Ramai
Ten
Tah
Tidur
custom
green
kacamata
ow
pleas
veget
##raga
##has
##amakan
berak
beras
berir
keempat
##ured
melel
meledak
keli
kelapa
kelebihan
tersedak
nge
loud
lock
##ipp
tiba2
harian
Arsy
tengkuk
##ision
terkej
pertanda
nyaring
Seluruh
mempercepat
jelaskan
September
level
##izinkan
##engkar
Sesaat
permisi
Standing
pesantren
pinter
Disana
stopped
piec
curious
CHAPTER
menyedihkan
feelings
menyampaikan
bengong
Kiu
student
cengeng
Agar
Bau
Dewa
Pul
Qans
Sapa
cuaca
eas
future
human
laci
mad
mir
omb
puj
sim
vir
##bah
##bum
##linya
##nih
##night
##AI
##form
##jol
##가
##ademy
##user
membulat
Aliff
kept
ketenangan
##intainya
stalk
amira
rey
matamu
tertentu
above
##ingkai
didengar
China
##ikuk
Menya
##unting
build
##ATI
Its
diperhatikan
dijawab
flow
bekal
Hatiku
hahahaha
Maksudnya
ribuan
passed
##ungkur
membangun
berperang
Oleh
shoot
Airan
Aiz
Lia
Puas
Sab
Swe
TID
Yuk
bob
banjir
either
fre
hant
izz
ki
ras
##EY
##zal
##val
##que
keadaannya
##itis
merebahkan
##ayal
kelamaan
tersungkur
##ubuk
mulus
##ipan
##ecut
kesek
terusan
bertepuk
bertengkar
ong
kembang
berkec
Terg
cerd
kebawah
terpampang
minim
note
##AHAN
kurasa
memperdulikan
emb
Sugar
Memangnya
bego
Biasa
broken
pegi
silat
##ories
##asukkan
perhatiannya
Aliyah
Begitulah
##untuh
shoulder
favour
Berbeda
Valina
Rozy
Luthsya
##agedi
##anyeol
Pokoknya
kerumunan
keyakinan
Cak
Dek
Eomma
Jess
Jarak
Kejap
Lun
Mu
PD
TO
jumlah
tew
##ilannya
memut
##urga
perse
tuala
meena
mencuci
##iplin
Anto
pastinya
menggantung
temukan
##siapan
telan
Kenan
##ingkali
Shinta
##eyo
Meili
opened
berwajah
##load
Indon
versi
##INTA
Stop
scream
insects
pesen
teringatkan
company
kulakukan
naskah
speak
sambal
Satria
menentukan
keluargaku
KKN
##riwil
menyahut
Asa
Here
Rico
SOU
az
basa
buntu
doub
ges
hina
lic
ratu
tomorrow
##hasil
##anah
##eras
##unyah
bertulis
##ilayah
##ilbab
memuji
##esil
##otor
kelopak
Aly
##anyikan
berdetak
ste
makanannya
##opong
setapak
berkenan
datangnya
pertamanya
senyumannya
Shilla
terputus
terpinga
Amzar
acak
##ancam
menerus
##evi
##ijab
Keesokan
Tio
Tetap
Sejun
Sejujurnya
Benarkah
Maza
berterima
##terior
batuk
Rizky
jernih
sekumpulan
books
instagram
lautan
##pacara
tentera
##kerut
membelakangi
menyayangi
Bapa
Hp
Mamah
Pandai
Zain
damai
hampa
jawa
manggut
toleh
ump
##어
##atal
##alitas
##els
##eless
##ised
akupun
##umbu
##usband
##ether
##epi
##atives
##otak
barat
disc
bahas
buatan
Antara
kutuk
##ghfar
shah
shot
pengawas
jalannya
tight
##ancing
##izza
tergamam
tea
Lei
##aseong
##unior
warm
Matahari
Penat
recei
Mulia
menemaniku
saking
Academy
markas
menghindar
memecahkan
ikuti
menyapu
Kulihat
menimpa
Rindi
Hwaseong
chocolate
Kyungsoo
Bilik
Dy
Kapan
Long
Os
Po
Pabrik
Ucapan
cair
cabut
doh
gent
mud
pinga
tulah
내
##tg
##gap
##SS
##erat
##emangnya
##astic
dius
menimp
menengah
##apalah
seisi
terng
danau
menguatkan
itupun
##esarkan
##eke
pernyataan
melukis
##acau
##ibe
six
##angkal
kemal
penumbuk
bertentangan
berbinar
balkon
setakat
bergem
hadapi
Rega
Berp
butang
cook
Akhir
Kakinya
surround
Abby
memerlukan
memelukku
silam
held
uminya
mengusir
Minyoung
leha
menurutku
momen
bath
ngantuk
ident
news
laughed
Umur
gurunya
menetap
menetes
ALLAH
rintik
lusuh
tanganya
mengungkapkan
arrived
mengawasi
jembatan
dompet
melebihi
Alysa
Com
Cafe
Fu
FAK
Guru
Kit
Kulit
Tegur
Wo
Yun
Zam
blah
eon
ludah
lec
nor
ram
rather
##아
##enj
mena
##unikasi
##itabr
memikir
memandu
meraba
##ambang
terser
tersesat
kerap
bersep
menghiasi
kenakan
terlanggar
bertarung
pelangi
berlatih
reali
kaka
ditak
tertanya
kalung
gelang
putra
pemikiran
##oof
Loe
Loq
anehnya
convers
muridnya
selamatkan
Kamelia
JoAn
calm
telingaku
menyampah
aktiviti
Inggeris
ghaib
Fakhrul
perempuannya
relationship
Qansha
##itabrain
JoAnne
45
BTS
Fird
Girl
KER
Like
Ph
Pos
San
Tengah
Zian
bole
bright
dry
lad
letakkan
nal
rais
udh
##mate
##lok
##nida
##EB
##DAH
diisi
menukar
sear
berga
ketul
##itadi
diaorang
taken
##gaan
membungku
##ambek
##ander
##antau
##osal
##jaan
Alfan
tersipu
menyandarkan
##ukun
##anjur
menggambarkan
nyam
temanya
aksi
beside
Akmal
nyokap
Selalunya
gaes
secret
##incangan
##iiii
##eritaan
digel
muak
watch
Keduanya
##ongkar
jurang
dagunya
potongan
Frame
Quin
macem
tirai
usianya
orangtuanya
mejanya
hubungannya
menimbulkan
##VENIR
perumahan
SOUVENIR
Firdaus
Batin
Ck
Dekat
Ment
MER
Nain
Owh
Peny
Sund
Tin
mampus
money
nn
nana
nemu
ring
smp
tangkap
yohan
##iar
##ijak
##son
##zed
##ammad
meningkat
##aughter
teresak
##agang
##ores
##epil
seks
##aluan
Alamak
##upai
menduga
##egun
##anjian
whatever
kesalah
berbahaya
berkas
dibaca
Perjalanan
Kalaulah
##str
hister
##umpai
Siwon
Chanyeol
Karna
##ocong
meninggalkanku
Prilly
##ombongan
Kemana
entahlah
ajelah
sembarangan
resmi
uruskan
ligat
wattpad
membelai
bertugas
mantap
neraka
Takkanlah
Daddy
typo
tekanan
animal
##aurant
First
favorit
Patutlah
important
ombak
izzat
Bas
Cari
Giz
Kub
Minta
Panas
Razif
Sak
Ur
biaya
du
hh
kp
korea
mach
rent
rej
sistem
tisu
##ying
##resi
##lang
##nnya
##emari
##ingly
##ihi
##uling
##aria
##immir
masam
semudah
##otkan
##endy
andai
bersabar
sepertiku
iseng
benc
kemenangan
##ipas
##ejar
##oboh
##ghh
menggaru
kecepatan
bolehlah
berked
shook
Adrian
kura
Chinese
##ogle
bla
##engkak
lapang
anggun
Haeri
##AMP
Syimmir
pinggangnya
Marie
push
tercengang
Kuala
ekon
Tolonglah
Kayaknya
sebaiknya
Ditambah
disebelahnya
gamau
promise
telunjuknya
visit
##urnama
Munah
bungkusan
Next
Hisham
sembunyikan
Robert
bersahabat
Syakirah
mengekori
radio
mendiamkan
##elcome
FAKHR
Jawa
Krystal
Pang
Ped
Semb
Vitabrain
fem
hik
joy
native
wajib
##een
##rek
##got
##set
##ahh
##engat
terikat
##ultas
dance
mengurus
mengarut
membukanya
meletakan
##andi
##andeng
kelabu
##ubungi
##ukuran
pulau
succ
##ipis
whis
menggantikan
berbunga
ditunggu
kalangan
chance
goes
percuma
mainan
budi
ayu
susuk
##selves
pertanyaannya
omongan
Sahabat
kehadirannya
Kayak
seems
drive
pepohonan
jambu
gabisa
Kasihan
Badannya
Zafren
ustaz
tonight
menghargai
FAKHRUL
Sn
Song
azz
bow
bentak
cawan
debar
fill
gaj
jok
jomblo
kari
kris
mam
pam
sumur
tido
wood
##bangan
##not
##pek
##vid
##WA
##aturan
menantu
berisik
memunc
memisahkan
memalukan
menguc
##idang
takpe
membesar
##ambahkan
##ibah
menyimp
##anggang
bersamamu
##ication
ngin
##angkak
##apatkan
star
peluru
##ucc
certain
ditangan
Semasa
##ingkah
butter
##emui
mahupun
kursinya
##ousand
perkenalan
exper
Airis
elu
##asilkan
ibarat
##tupid
comfort
round
petu
sampingku
waras
sekeluarga
membelek
Raine
menjauhi
curang
kusut
cintaku
##ripsi
pegangan
bergantian
kado
tax
populer
mimpinya
interesting
menghalangi
John
studio
terkejutnya
Aman
PM
Purnama
Rina
Yas
cold
derita
feby
husband
kop
mim
neng
##jan
##anut
##kuh
beranda
akulah
##ulik
mengut
##olaknya
##ayap
##ando
##giang
##ongg
bella
ngambil
ngambek
karang
karuan
mencuba
haram
makes
##obati
style
herself
Arah
berkh
Diorang
pengin
terbalik
##ryan
##nyeong
sebabnya
##eritahu
##amanan
##eeee
perli
Suami
exact
ibub
smir
Atm
Mengingat
tegap
diganggu
Erna
Maesil
berkurang
Syifa
memberhentikan
sampailah
##ORANG
menjauhkan
Timur
ANAK
Tanyanya
Maxwell
rapuh
holding
children
jiwanya
membacanya
clothes
berpacaran
Cewek
azzura
Cakap
Coa
Fian
Hitam
Lucu
Mol
Pol
Paat
Siti
Zuru
cekik
dalem
email
galau
golongan
hum
jid
jemp
jalur
kuj
lelak
mai
rain
rose
ranting
woo
wav
##oja
##uari
##peci
##anian
##atapi
##aranya
##emaskan
dif
##iksi
##idahnya
##ets
membakar
merebut
sebatas
seksi
kelelahan
terserah
paket
haa
pengetahuan
ditemp
aba
dipikir
wear
putar
Amin
emos
dimiliki
bahuku
Ibuku
menguap
Kesian
meraung
menyuruhku
Timor
membahagi
tumben
##estial
Fatimah
mengumpulkan
students
pinjam
whatsapp
DENGAN
ekonomi
Zuruga
Bin
BANG
Foto
Fitra
Ja
Kira
Mic
Mayang
Miz
Naf
Qarl
RE
Rosa
Sore
Sumat
ain
bisikan
den
dare
gund
jua
jajan
junior
kin
ojek
pent
sitting
tara
upacara
##eul
##mit
##jub
##ele
beradu
berucap
teris
##agap
##uknya
mengintai
##esen
##orangan
##epit
##andanya
nii
Ala
Alam
Alaa
tersendiri
kerinduan
bersalaman
pulas
alasannya
harapkan
##ewakan
laluan
masukkan
berkongsi
##idupan
sekolahku
dikamar
terpisah
Thunder
bermata
truth
panjangnya
Malik
Uncle
motos
hitamnya
posisinya
pekan
menemaninya
Erwin
Seronok
Ibrahim
Yeong
Imriz
penjuru
jahil
##indahkan
ending
Mirza
Usop
sekelilingnya
Jinki
playing
gumamku
Celestial
menunggunya
##osankan
Felma
Suho
Waalaikumsalam
##amerkan
jasad
SPM
spesial
Isyana
piano
##vernment
Aizan
tewas
ternganga
Emm
Gita
Gui
KEN
Lap
LAGI
MENG
Naik
das
daughter
et
god
hobi
trip
##lock
##wak
##wat
##sunya
##angatan
menuntun
##auma
mengkh
##ebatan
##ained
menjej
bela
appa
##itha
chuck
usang
Hanee
pemandu
Elang
Suzy
surga
blog
kasian
worried
Kemarin
##auty
Irwan
Story
pekerjaannya
menyadarkan
Imam
Baby
hasilnya
getus
bengang
driver
##elamatan
Jeno
berantem
angkot
tanggungjawab
Haeun
crying
Philipp
lilis
lakuin
lusa
InsyaAllah
pilu
damn
Aik
Dip
Fac
Gun
Gambar
Jej
Kuu
Kuntum
Laras
NO
Nasi
Note
aa
bank
bicar
det
ign
nolak
rul
raga
teka
upaya
wilayah
##lina
##inci
##apasan
##ingati
memarahi
mengunjungi
mengunyah
##usa
inha
##antap
town
##embusan
menghant
kedinginan
bangsa
atasnya
bergema
tertahan
Beruntung
##chip
These
##ampire
pandanganku
percayalah
Masjid
basuh
lembar
##andainya
sms
foot
menjawabnya
istilah
Noah
penyel
party
Harga
Kedengaran
topi
sarung
konco
sahutku
gugur
kerjakan
lipat
bonda
Silahkan
Hayyan
popular
tunggal
KATA
Tatapan
rosak
Sherin
kambing
Termasuk
whisper
Mizuki
Aj
CEO
Geng
Hara
Lumpur
Maha
Ouh
RM
Singa
TAH
cm
chair
dukung
eight
hutang
heboh
ig
nom
pik
til
이
##uapkan
##gen
##sara
##게
##alatan
berdaya
##ikatnya
teragak
memaafkan
mengk
##usen
persiapan
##udh
thousand
melebar
##endi
sediakan
##anyian
menghibur
diser
disapp
bahak
##obos
bales
apanya
shr
ditunjuk
diker
usap
##ampiran
##oyak
dihiasi
##izzie
pendengar
kekec
bisnis
mulutku
##encanakan
Ucapku
kantong
babi
dipert
petunjuk
seeing
partner
SEL
kehidupannya
utara
##emanan
Zahrin
perbincangan
deretan
restaurant
sikapnya
instead
covered
terkunci
Lucy
disampingnya
target
message
Fateh
##rict
creep
dugaan
Betapa
##aghfirullah
Varel
Puisi
beriringan
kesekian
conversation
Kuuga
27
Eff
Gav
Ho
Jari
Mian
Nazif
SW
Suk
Sepat
Sosok
Tuj
Taman
cent
girang
hew
ikat
lan
lekas
nj
ouh
save
##rest
##kya
##sha
##zik
##VE
##akon
##akter
##alal
menuntut
##edit
membosankan
ungu
##eha
##ehkan
##uaz
jualan
siku
tersusun
##irikan
##olehkan
mulakan
kesukaan
akad
diben
lahh
temankan
kalut
given
dipaksa
dideng
memperm
menerimanya
blur
dimasukkan
drink
ajakan
Sedap
Tiara
syok
sky
tamparan
gemas
tebak
olahraga
##airs
kepadamu
kenderaan
Pertemuan
baper
Izzul
Time
Ambil
nerv
running
purp
Peanut
##efully
Fahmi
merespon
ciuman
Hadzkya
mendesah
menekup
obtained
Muhammad
tertumpu
keliatan
membungkuk
##pecially
Agus
Cind
Dino
Empat
Hall
IPS
Jar
Japan
Jatuh
MAK
Pinta
Rajah
bingkas
cir
caus
foc
geb
kil
kriwil
power
sila
sast
sav
wayang
##rina
##ther
##vely
##atat
diucapkan
bernya
kebang
##isika
##ingers
##itia
mengizinkan
melampau
##ombang
##ibik
##udahkan
kelap
##inter
seringkali
asam
ingg
berborak
berlima
forgot
manc
bergaul
angkut
tertancap
Kenzie
Berc
abaikan
sehelai
exp
Andi
Ketiga
roda
grow
membalasnya
dongeng
mengingatnya
Kerol
sukai
imag
stuff
Imel
keberanian
miskin
internet
Disebabkan
jelingan
Spirit
gelengkan
consider
nungguin
Berharap
Remaja
##berry
televisi
rumit
Rafi
renata
Fadhil
Prof
tambahan
cicak
awkward
bertuliskan
shahril
Osaka
lelakinya
Bonda
Ely
Fio
Gel
Gro
Tumb
crazy
hol
jingga
lemp
munc
milih
ria
stupid
tast
wart
##ys
##EG
##elago
##turi
sewa
season
beranak
##agon
##ajarnya
melibatkan
##ambur
##andom
beku
selang
bersamaku
##ices
##rait
##raid
alang
karakter
barangkali
dise
disert
serv
serasa
Annyeong
stream
soci
##mualaikum
kecantikan
kedudukan
manager
pengecut
terbaru
##stem
Berm
cho
##chen
##estinya
##ynal
terpana
menganggu
mempersilahkan
notic
tragedi
Ell
menerpa
pembel
mengenalnya
menyerupai
buruan
comes
##arinda
menghampiriku
dicari
Build
##yeon
Harusnya
gagah
neneknya
gemuk
##ongket
menyedari
mengurangi
Terserah
palm
mewak
Quotes
common
Because
disekitar
proposal
melahirkan
assalamualaikum
respons
individ
heavy
kesibukan
kemalangan
##chipelago
05
Boy
Budi
Ik
Kala
Lay
Nite
Ryan
Sontak
Yup
bom
duni
halau
kaf
luc
miring
pangku
rawatan
spa
tag
tes
tayang
##etu
##oq
##pet
##kal
##where
##jana
##anam
##enom
menawan
menambahkan
berenang
memus
##urusan
##ekam
##aip
membat
membul
merangkak
kelu
punca
alias
penya
haritu
##ghhh
menggangg
segini
##aniel
Energi
##mmmm
menyayang
##akainya
dipel
##abisan
nyengir
Selagi
Amru
Thong
trop
surau
bawahnya
kasus
susun
smart
Isha
grat
##yeong
Harapan
kubur
##yyu
majalah
nikmat
##aktir
married
playboy
menyediakan
hmmm
menampilkan
market
mengakui
fix
Kehidupan
describ
defin
shopping
mempelajari
ckp
Pepper
cerdas
Sumatra
90
DARI
Gil
Hebat
Jeon
Kana
Lanjut
Rim
Rupa
SH
Santi
bil
bokap
ele
haus
honey
huruf
kim
lian
laman
latar
tingg
treat
##ras
##38
##eraikan
##enap
dial
##tum
##aup
##utch
##ampi
##omm
juara
##angkis
loceng
staring
sendok
Takpe
nyamp
settle
Archipelago
berhampiran
Berj
Berjalan
wei
nyenyak
betulkan
Elo
dihukum
langkahku
##odohkan
menurutnya
temennya
scared
somew
hiasan
thoughts
kolej
laughing
mengamuk
menghubung
cuak
Januari
earphone
macet
Perkasa
perjanjian
Waalaikumussalam
Masalahnya
membukakan
Kejadian
didepannya
Pergilah
specim
terisak
Imelda
Bodo
Ef
Gl
JU
Kir
Must
Paman
Tampak
Wawa
Wister
cah
cipta
dang
dye
ejek
hyun
lingk
mummy
nemenin
oom
rang
stick
ulah
udang
##mau
##ney
diantar
##engsek
##orat
perampok
peralatan
##okong
##action
##embur
sedarkan
belaka
bersihkan
ngg
ngeh
##ters
although
kitaorang
##afa
isok
loe
bergumam
pengetua
chest
usik
terpandang
nyel
kehangatan
sempit
gerangan
bawang
emo
examp
brown
escap
Sedih
betina
sisinya
##ASI
menyelimuti
##kyu
liatin
penjara
report
bertubi
Senin
tumbang
Sphere
glass
mengecup
degan
sorot
Berhenti
##agetkan
BUAT
Becca
mendatangi
racun
KAMU
mmg
melongo
movie
Russia
houses
Wisteria
AY
Ev
GAK
Ghea
Kum
Kimi
Lomb
Ntar
Rian
Rookie
bong
bodo
duanya
hu
hello
napa
rok
rame
simb
via
##ble
##iaman
##xx
##ᅥᄅ
##elit
diikat
sex
berang
kekan
##enger
##ilit
##irm
##ulas
##arif
tubi
Alfin
adakah
##ubat
##egangan
baris
ish
aslinya
berdosa
##hirah
nyaw
akh
##asiat
Pers
pertolongan
jalani
berpusing
hidupmu
dipeluk
mempercayai
##ogo
sebelahku
ayub
kasir
##ency
##ALAH
especially
##ashion
maksudku
##andingkan
tercipta
##count
maen
##fair
Surabaya
topeng
Samarinda
forms
binti
Izzrul
Farhana
##UKA
changed
daritadi
early
phot
membantah
##ault
Hakim
placed
hinggap
ORANG
melingkar
Ustaz
##tibanya
Tenok
smirk
membahagiakan
gundul
didengari
COM
Dur
Je
MR
Wana
Yaa
Yuna
camp
egg
iman
rub
tap
tumpah
##rary
##gin
##AJ
##IC
##alar
##alit
dijalan
ditulis
dicapai
menda
berman
keamanan
##onceng
##adiahkan
##ampun
meletak
melengk
##okkan
darimu
##ots
lagipun
##entasi
selatan
menjenguk
aleeya
terlanjur
stare
##antic
proy
awek
enjin
apatah
berhembus
##ills
Shel
nyanyian
sempet
plant
knock
mengerang
##iranan
otot
handuk
balasku
mobilku
diminta
personal
Atas
Athirah
milikku
##ALU
menitis
desain
##END
straw
hubungi
Kerajaan
membantuku
scr
scar
cross
evening
Kesuma
##yyy
##ttt
Jerny
Astaghfirullah
Panggilan
Terdapat
type
women
animals
Agaknya
ketahuan
dibuang
Permisi
Percayalah
kegemaran
further
Produsen
WHAT
Beliau
sepedanya
lamaran
Cakra
Ceng
Come
Fak
High
Jarang
Litha
Med
Mac
XI
Yani
bini
cengk
dorong
epis
fly
gold
hiru
kipas
lent
lewati
peka
pocong
rayu
tor
wad
아
##nim
##tawakan
##wb
##MM
##는
##amuk
diiringi
menentang
menundukan
menolaknya
##iland
terbu
memic
##ihara
aniq
membenc
membawakan
melamar
Akupun
##ayalan
sememangnya
kerus
##enyut
adu
##tered
ali
diserang
loc
serahkan
anakku
##ewet
kesuka
keselamatan
matematika
shut
berpuas
berpapasan
dikelas
terparkir
tidurku
Akira
trust
elekt
Masnah
Ayahku
##ombolan
Abr
##encian
Keisya
resort
remang
therefore
obser
Serta
Wei
Kamar
misalnya
kenyataannya
dadaku
produser
mentang
terngiang
incl
AND
Junkyu
extrem
berkeliling
mikirin
##reasure
##omatis
Reader
komunis
merepek
possible
Bambam
wedding
histeris
Book
Dita
Jay
Joni
Kafe
Lagu
Nani
Noy
Pah
Pal
Say
TK
UP
alah
debaran
hap
jgn
jangka
kina
klin
luck
lelap
mit
mara
mami
mual
nunjuk
roof
##yuar
##har
##을
##YE
##enalkan
diatur
##adilah
berkut
keynal
##udung
##olakan
merampas
merdu
##iburan
##alahkan
tug
##osong
Aldi
##empaskan
##enazah
dahlah
album
menghid
menghidupkan
mencelah
kesekolah
kesemua
kesabaran
menggandeng
banglo
berkaitan
dibantu
dibicarakan
halnya
giving
Asyik
putrinya
memberikannya
act
afraid
allow
Apatah
##enggol
knows
menikam
##encan
##rance
path
Namaku
dating
Minhyuk
ubun
writing
otakku
dengerin
countries
##ajinasi
durian
rapih
tumbukan
twenty
Jepun
Saerah
Barangkali
##sterdam
terbelalak
ipar
doctor
Ujarnya
fathih
butterf
Philippines
hewan
wartawan
proyek
Beng
Bus
Bawa
Baca
Bee
Cemp
Cass
Dutch
Kun
Kio
Lampu
Laks
MANA
Nath
Ori
Oli
Son
Trans
Yuri
aid
bungkam
file
fair
hodoh
hentikan
ijin
jud
kikuk
luah
lirik
lidahnya
nim
sg
saka
sma
yee
##rung
##ually
##kop
##ᅡᆷ
##23
##emis
##elir
menilai
menebak
##ado
keingin
##ilu
##ingatan
terik
memanjang
menganga
mengadakan
##usuri
peraturan
##uha
membaik
meriah
oren
##oskop
sight
size
menyir
bersila
##ics
##angkas
alas
yaaa
suff
Ani
kuy
berteduh
energi
berlama
dibel
terkec
Adalah
dekatnya
doakan
dokum
Berkerut
belakangku
padat
didekat
##unculan
kehabisan
Char
kne
Okta
##ograp
Dahi
Eleh
Menatap
menerobos
exam
exist
##untilan
penderitaan
##ARANG
mengenalkan
2020
tegar
carl
Sejenak
Manakala
helai
watching
negatif
Harris
Zahra
omel
river
Sebelumnya
info
shower
sabtu
belanjaan
Dear
Thailand
haiwan
leaves
tatapannya
membuktikan
gusar
Cinnam
Denia
caught
piece
Bos
Diri
Hus
Haw
Haid
Mika
MAS
Oi
Ojan
Pilih
Wey
bait
fingers
iyah
ivan
mika
metro
syah
utuh
##ranya
##ior
##nab
##uasa
##ke
##kota
##Nya
##IG
##atuk
##atukan
##alakan
##alasan
##elly
menembak
##unaikan
##onan
##usahan
##oroh
##epet
melukai
melanggar
melaksanakan
##oker
sebahagian
##riage
selalunya
sialan
menyindir
menjalin
mendiang
isn
maknanya
##anjikan
bertaut
onto
pelindung
temu
##opang
banyaknya
besarnya
jeong
salahkan
##ific
dikirim
Selang
neigh
mengambilnya
##ingatkan
emily
Menunggu
sejati
learn
dihantar
surf
Malca
laper
Tiap
Tetsu
carry
Izlan
##aringkan
syurga
system
##asmin
memberinya
Hermione
peserta
Kurasa
kitchen
replied
rahel
tembak
namja
simpul
projek
##EMP
kupu
Farid
batinku
Cukuplah
nearly
##OTE
Khairil
November
berpelukan
airmata
terkeluar
pujian
Abraham
##yuarat
Nathaniel
neighb
07
Aja
Dingin
Fang
Gap
Iris
Jumpa
Lambat
Nell
Niat
Our
Penc
Rayan
Sandra
Taku
Ver
Wina
bingkai
cetak
duh
fashion
hulur
nyi
natives
ryan
runtuh
sara
singk
val
##pelah
##ko
##akaman
##elakan
##astikan
diadakan
menahannya
##ikmati
terpac
##agis
mengis
##esal
periksa
##atic
##ibatnya
tow
Alice
sick
sigap
menyeka
menyingk
menyakat
##anggakan
arya
mendalam
##ubris
disampaikan
disiplin
mencegah
berdasarkan
Anis
stabil
berbalas
wajahmu
aka
berjaga
##reed
shout
temanmu
diketuk
terpasang
kehendak
##arkirkan
Ami
ingatannya
bakat
handle
kenalkan
##ugg
yeoja
draw
##ational
bran
Tiang
wouldn
Manalah
##angkung
Harry
Azim
imut
parking
project
menyuruhnya
Spontan
diffic
menyampuk
santun
Audri
sepupunya
keterl
closer
picture
Negara
ngikut
completely
memberitahukan
Malaysian
meniup
frustasi
memikirkannya
motosikal
bernyawa
klinik
tugasan
##untilanak
Cinnamon
29
Ai
Aya
BK
Buy
Bella
Disa
Fikir
Gar
Hur
Hendak
Jebat
Kuat
Katakan
Levi
Motor
Ruangan
SER
Sibuk
Wir
Wind
bengkak
hembusan
jenguk
jenazah
kontak
mut
pudar
sos
sani
sasaran
##aung
##ruk
##tun
##dari
##dung
##LE
##ahiran
##ined
##alous
##apanya
beruk
keesokan
##enge
teratur
memilik
memendam
memanjat
mengik
##umuman
##ushing
##ekad
perit
##iaan
memburu
merengek
melap
##embar
##embung
kerut
menghangat
disisi
bening
seratus
maks
##ewatinya
penonton
soul
hariku
kesulit
##uduki
press
Perusahaan
##ilangkan
pertamaku
airport
shall
ditemukan
Adi
Reihan
weird
terpotong
gerutu
tradis
Elen
perkenalkan
Prill
lean
panitia
##ormati
opini
mempedulikan
Haah
grad
mengatakannya
Emir
maunya
formed
Marina
tangisnya
saudar
menemuinya
gumamnya
Once
extra
##ebelin
renungan
mengumpat
Olibe
mix
cacing
grabbed
ngakak
Kucing
berkomunikasi
hanyut
Haise
easy
TIDAK
bicaranya
example
Buka
Def
Faham
HAH
JIM
Mukan
Mami
Sw
Sari
SAM
Tawa
Tatap
Treasure
Vinc
Wafa
bri
dini
flight
hiks
jut
jilbab
leka
lompat
mony
nar
ntah
rombongan
sut
tal
tonton
##rot
##nat
##ualan
##pas
##dirkan
##UU
##che
##fokus
##jukan
##OW
##akut
##tui
kebu
keher
##audara
terengah
akui
##ulusan
mengada
mengurut
##idan
##usukan
##esinya
perak
peringkat
melon
mask
##ihatin
orig
kelakar
tersimpan
menyetuju
menyengat
bersungguh
mendah
##egil
##atuan
##ianati
menghasilkan
mencintainya
keman
stor
state
berbah
##ahanda
Danial
older
berkat
dibeli
amaz
kebencian
Berani
dikep
terpel
Chili
trauma
kayanya
Princess
Apapun
Andreas
dimakan
kenalin
##awatirkan
bisanya
##aliknya
mahluk
Erin
maksudmu
England
bacaan
kearahnya
tingkatan
famous
##AHAHAHAH
Lepastu
write
idol
pejam
##iddle
Amerika
sakti
umumnya
lamunannya
PARK
Novly
mencerna
figure
bambu
yakni
William
finished
honest
generally
Hallo
##enomena
AW
Anya
Bro
Con
Cara
Gelap
Hui
Iza
Laut
Mohon
Toni
auntie
cangkir
cungap
deda
fif
ganj
jasa
meh
meg
neck
qaseh
sind
tone
##ract
##jam
##ᅮᆫ
##asama
menanggung
menumpang
##unk
##apah
keha
memu
memaki
mengak
mengeny
mengomel
##iday
peribadi
thick
takt
##edi
membeb
merusak
##ime
melutut
##ibaskan
##entingan
tersinggung
menyanyikan
##intih
menjulurkan
kepikiran
##afikan
menghantu
disayang
disimpan
benang
##ections
hero
health
##akiti
angkuh
Berarti
wey
Asia
Siang
pemain
notebook
nyangka
##ogy
secangkir
sejam
rugi
tergagap
text
##ANGG
ibuk
drum
themselves
Rion
##ewaan
silu
Syukur
Engga
temenin
politik
##kkk
askar
conn
scene
tenda
needed
Lepaskan
modern
celebr
##fully
KEM
kompak
sawah
sekujur
kondisinya
Yoona
curhat
sadarkan
However
apartment
##iyya
Amelie
assist
mengendarai
Mencari
Khadija
Aqilah
sandal
##faatkan
heheh
signal
mountains
ustadz
astaga
meninggikan
sendirinya
favourite
Comment
bergaya
Sundari
nervous
Tumben
dokumen
Takuya
JIMIN
keheranan
02
70
Bul
Bell
EN
Emu
Id
Jum
Kn
KU
Kaget
Luka
Ruang
Raff
TAU
detak
ej
hamp
irama
las
sukan
sumb
tgk
##eve
##bing
##ler
##noon
##AW
##juh
##리
##anasan
##aly
menumbuk
##untuk
beribu
##ikel
terindah
mengetap
##orot
##uddin
##ebasan
merog
melilau
melajukan
##oteh
Alif
##intasi
bersorak
menghentak
isti
harm
ketempat
buatnya
##ober
pasai
jadian
bertun
princess
awas
menggeser
kecoh
kecemasan
berlindung
cerewet
terbesar
ditel
ditekan
Enak
gelabah
Setakat
account
mengeratkan
sense
Ehm
mainkan
blok
lembaran
##ffah
Sesungguhnya
kosan
##yonya
Maira
empunya
gagak
Pasal
Matt
##zzam
majikan
##ushed
except
tuduh
jaketnya
kudengar
Brun
Jane
garam
Exo
huge
library
jago
menunggumu
bendera
menggeram
risih
Istri
genggamannya
length
places
Jihoon
melahap
yelled
gambaran
return
total
anterin
memintaku
approach
Ummi
##board
terserempak
exactly
Disaat
kehairanan
Abu
Bali
CER
Dh
Fin
FARA
Hami
Juan
Juli
Nic
Punya
PEN
Rud
South
Tutur
Udin
Wal
Wae
Warna
cina
due
dayang
galanya
hood
jep
jack
jeling
koc
lower
ml
middle
rab
random
sasa
sentuhan
win
##oint
##lawan
##gr
##hy
##hal
##UAN
##ced
##sang
##juan
##GAL
##OP
##해
##eram
##inilah
menemb
teringin
##itor
##ukk
##ukah
mengenang
mengancam
perku
diab
mertua
merengus
melelah
melanda
meluahkan
##alian
semu
selingku
tersentuh
tersembunyi
menyebar
menyantap
belak
nged
##akuannya
pulih
disangka
kananku
makam
sesuka
berbaju
pelawa
Terh
ambang
halal
segenap
terbawa
##impit
abadi
sehabis
##umpuh
weeks
padan
##hatikannya
perkarangan
##untungan
khayalan
dimensi
situation
##umbung
smiling
buzz
pedas
Kemal
ajaib
feed
murung
wants
Erm
muzik
Syed
empuk
mengutuk
##elakangan
Omar
kritik
napasnya
celetuk
Assalamu
sungjae
Jefri
meneliti
berisikan
Bahwa
Timmy
distrib
##iwaru
mengendalikan
menyalami
Mencintai
sambungan
kontrak
lilin
Bagaimanapun
Petang
##uwings
perduli
sighed
Pendek
suhu
perjalanannya
surprise
0812
platform
building
mengutip
Gavin
mendahulu
Izaac
Bentar
Din
Fik
Fath
Main
Quran
Uzzam
Zara
Zeline
borak
deter
dtg
easil
fut
field
jengkel
liter
map
none
teduh
uk
wali
##yati
##millah
##nologi
##guard
##key
##UAR
##ense
##elok
ditur
berkum
memetik
mengah
mengaji
mengingati
##esima
insya
inches
##uduh
membisik
melewatinya
##andy
sekret
##entrasi
##ouw
adv
mendaki
mendesak
mulia
tanganmu
terlampau
ketap
berdecak
stories
menggod
ampl
tempatku
manalah
telling
bergantung
shar
penger
ditelan
doi
terpesona
##efore
Sialan
Pakai
spoke
##ompuan
##ocks
menariknya
##ondong
kekesalan
dimin
##edaan
##tures
getaran
kagak
silent
parts
##assar
tercungap
tampar
komik
afternoon
##ELAK
##utarakan
pape
interview
Opel
Cepatlah
didalamnya
##ADA
Speci
dilakukannya
attemp
attack
menghadiri
Tersenyum
Belajar
tired
entir
sensitif
##oncat
Dilihat
quietly
period
unggun
Sweet
mimik
disertai
Wirawan
kesulitan
melelahkan
easily
Bayu
Cap
Dim
Deni
Iffah
Jack
Kant
Kais
LAH
Look
Last
Mestilah
Nyonya
Two
TAP
Yakin
aiman
azan
celing
celan
gend
kook
lat
tt
web
ward
##lation
##ST
##cup
##zim
##CH
##asuh
##asta
dihir
segi
terurai
##irat
##irnya
##itanya
##ihh
##urit
mengejut
mengenangkan
mengobati
mengagetkan
peringatan
##abang
uncle
##ehal
##acan
##acak
##amburan
##omen
##endahkan
beza
Alis
menyuap
puluhan
alunan
barangnya
isu
maksa
whose
##ecess
##ops
kediaman
Arma
Tert
amik
ceramah
sepakat
diruang
##heran
pengl
pengumuman
tertegun
berpeluk
usual
##umpung
dipukul
pemimpin
nota
Chan
spend
plants
plastic
action
##azir
siapakah
While
kekok
##ksh
persemb
lembaga
ayatnya
bisakah
terjumpa
muslim
skip
silence
diperlakukan
Serentak
##atures
tampaknya
##ongkrong
Hanif
koper
dulunya
Lupa
idaman
prov
proper
##ADO
rele
redup
followed
meneteskan
PERN
fakultas
nekad
nurin
waalaikum
Suhu
guling
cakep
returned
lagilah
sehinggalah
gegendang
meletup
Deeja
ummy
slightly
Sekurang
seksama
berkedip
petugas
Atmik
nomer
membulatkan
sgt
terkecuali
Gapapa
Brunei
entirely
55
Ahhh
Bikin
Cessa
Ged
Gito
Hot
Hijau
IT
Jaw
Kon
KAN
Lumi
Queen
Sk
Samp
Sub
Temen
Xander
bol
buj
bibi
dukun
hy
hajat
hijab
jung
led
ladang
lose
larat
lori
madu
roh
siti
tangkai
uda
vampire
wild
##ooth
##lak
##tai
##YY
##inja
##ales
##untah
##adam
##ilaku
terucap
memudar
mengig
##ussi
##oreng
membentak
membujuk
melawat
sembang
kelima
jubah
##emparkan
menyetir
##intik
keram
ngurus
kenali
suit
sesosok
Anuar
pensil
kesil
kesusahan
katak
prac
berjarak
setinggi
##sign
Terang
amo
forever
##arance
regi
rekannya
halo
halang
apakan
keburu
ditangannya
Makhluk
Kenapalah
##ereja
laun
fresh
mesyuarat
gerimis
badai
notice
sejen
##untang
##eyeon
kampusnya
surah
ambulan
Suriyati
ayden
##ALAN
menurun
Benji
objek
kawin
Sering
firasat
offer
##imbangan
tampil
hidangan
terhadapnya
##ossible
membelikan
working
general
indonesia
lebay
syaf
mengerjap
cepetan
universitas
Kasturi
Hilman
mengirimkan
seenaknya
kononnya
sulung
irsyad
gayanya
merepotkan
Inggris
Kupikir
julukan
Suddenly
melayani
eonnie
pentas
kelaparan
mancung
dedaunan
AK
Before
Cat
Comel
DALAM
Haaa
JE
Jian
JADI
MU
Mula
Myan
MAC
OF
Pekik
Rom
ceb
cakar
dal
gih
gantung
jia
nona
pekik
pompuan
safe
wkw
đi
##RR
##wich
##ator
##elik
##ased
meneng
menunaikan
seadanya
##ilar
##ility
teri
tercium
##itari
memimpin
##urity
interior
##ajang
takda
membuy
melintasi
semut
sekeping
ori
##entap
selangkah
menyip
kepul
##inggir
menghembus
serumah
##odia
berdes
Ann
street
##antian
##indari
prakt
menggambar
berbaik
itself
hei
berhamburan
Perlu
direct
kebers
gadisnya
ditinggal
dipotong
##zairi
minda
minute
memperhatikannya
Choi
spread
Sekitar
Sui
pembawa
iyaa
berlarian
Nurul
Awan
##inct
Ngomong
anggrek
About
result
death
kawalan
##timbang
dijaga
longer
headed
koma
Devi
ubi
mencintaiku
sambungnya
final
##rrr
##UKAN
mengajarkan
villa
huhu
Najma
Siska
misterius
Rafa
sirna
perjodohan
Desain
##orbanan
cemilan
secepatnya
Everyone
travel
softly
cultiv
leader
ancaman
ratusan
Maklumlah
annoying
Sabtu
nnti
hhmm
cekikikan
jempol
tilam
amplop
06
28
AH
Dadanya
Deris
Fil
Hening
Hubungan
Jemari
ME
Rap
Tulis
Tegas
Zh
avo
bata
bent
buli
bimb
equ
eating
gentar
iye
jih
kuntilanak
mestilah
nel
nari
nyah
paru
remb
rich
siling
squ
##yl
##lung
##tober
##uage
##duh
##ahhh
##arapan
##ilt
memarkirkan
##urah
##idence
membagi
meraup
apa2
##embangan
##osir
menjumpai
menjalar
belacan
pulut
islam
disentuh
disukai
diskusi
mulanya
sampul
menggema
##opoh
berlanjut
Arya
manapun
dirasa
##ontrol
Dialah
jealous
tertekan
tertangkap
Beritahu
Sebaliknya
##ynna
butir
Shan
goyang
Amad
Elok
terhempas
perkataannya
otomatis
Apalah
matikan
Masak
menyeret
resiko
##ahahaha
desk
maksudkan
baba
ujungnya
##time
tercinta
Biarpun
gemar
Ingatkan
former
Iqbal
Disini
tempo
tekak
tekad
gugurkan
batinnya
horror
listen
berkelip
dikelilingi
appeared
ngeliatin
komunikasi
Negeri
KALAU
tujuannya
Chaeyeon
perhaps
vegetation
flowers
Sanilin
raised
lingkaran
Windry
membuyarkan
26
Aida
Fi
Feb
Gu
Hem
HAN
Hasya
Ion
Jed
Kot
Lizzie
Nd
Pi
Pho
PUN
Rhi
Sc
VB
Ven
YE
atuh
finger
fault
gob
hip
jour
jurus
meb
mira
megah
net
nekat
rid
rot
rong
runc
sci
taruh
tail
wow
wings
##tory
##AIN
##cake
##zia
##YUN
##emar
##elnya
menum
menamatkan
seven
berujung
##iley
##auda
memelas
##ulullah
##etin
##ajai
takes
##olet
##edera
##ayne
##ebil
membaringkan
merem
merap
merokok
##ampungan
##ampingan
meles
meledek
##oki
##ambak
mendo
##akuin
kanker
penakut
stesen
##ohongan
##indungan
bertingkah
prihatin
##saeng
berbadan
Danish
Intern
berlawanan
##vered
##ucon
depresi
dirawat
terkesima
##awanc
shalat
pengajian
Kenangan
##iform
dikira
pemakaman
nye
agree
memperlakukan
bercerai
Api
club
##itive
mandir
bru
opp
mempr
anyway
desis
pertanyaanku
urat
Syaida
##INI
##utiara
parut
ill
ilang
makeup
dijemput
bagaimanapun
Kamis
mengejarnya
Haziq
perutku
Trus
sungkan
Rezuan
realiti
missed
accept
menempuh
Jaehyuk
degil
Exc
##unyinya
##insip
Tedjo
rebah
mimpiku
ngejar
bamboo
yellow
portrait
destinasi
klien
mengayuh
abundant
Athiya
Dyaks
lady
selingkuh
belakangan
futsal
Rhiynna
35
Aish
Ba
Bumi
BOL
Bosan
Daeh
Doa
Jena
Kuh
Mor
Mila
MEL
Nano
Qhas
Sepas
Tw
TEL
Vino
WIB
baekhyun
fa
greet
keng
kaaa
layu
luahkan
mid
mukul
nongkrong
patuh
tentara
wan
yela
##ea
##yt
##mer
##mara
##lemen
##dk
##sing
##vasi
##OB
##eranya
##elop
dihati
dialami
menancap
##kup
##tuhan
##ingu
terheran
##itek
memikat
##ulia
mengekor
mengitari
##usin
##esit
##ebe
membelah
merindu
##epot
melenggang
unsur
sebaga
semestinya
##oter
##ented
kepo
kerah
aduk
arnab
##angkala
alka
alright
##afia
stok
bertolak
berjualan
bangs
amp
shan
terbata
Adli
lux
##ifat
kalim
Sebelah
Hans
Kakdi
tetaplah
Ayla
Supaya
cantiknya
Memper
keker
suram
dengarkan
bernapas
puak
resemb
musnah
strugg
##presi
imajinasi
Kalimat
kegembira
korg
ritual
komplek
indic
Mahasiswa
Mahasiswi
Dirinya
kasurnya
Justru
Nyoto
distance
pengganti
answered
Najmi
Anyelir
terperanjat
appearance
Sebaiknya
Anehnya
pekarangan
merekah
mengernyitkan
Seungho
suhunya
memaksakan
candaan
mencengkam
Flashback
ugut
lekang
European
cairan
Pacar
Gizex
taste
elev
nyampe
MRS
Cempaka
jeonghan
Fikri
Qhasidah
09
Aam
Fajar
Get
II
KADO
Lan
Lum
Mina
MUR
Ooh
Penuh
Rita
Sunyi
Saking
Toh
Tinggi
Tug
Woy
Wendy
Yan
Yudi
bolos
bunyinya
fes
fish
gebu
hulurkan
hafal
jwb
lh
lih
nurut
oi
pup
rimas
sr
welcome
##bert
##uih
##uaikan
##jem
##GG
##51
##angu
##akhirnya
##inn
diary
menajam
berebut
##ikalau
##ikalnya
##auk
##irakan
##agum
##aguan
##uto
##ekah
thin
##ajuan
melep
melaung
##alaminya
sebelas
##antak
##lahir
##inyal
beauty
menjabat
keramaian
##ically
alhamdul
menghay
menghitung
suc
mencekik
ketinggi
##ech
kuper
staff
bertengg
prinsip
Ars
berkembang
dibunuh
pertahan
##aaaaa
##impal
Seminggu
Seo
Seok
##entangkan
Seben
dikejar
weak
##atuhan
gelaran
Sigh
nyeri
nyebelin
##arket
perlawanan
bercahaya
truk
bakul
menerangi
##enggut
dimatikan
dimarahi
Awas
ayunan
mandiri
position
##ALL
Eron
deser
Bener
sket
##etahuinya
kearahku
##iringkan
Keputus
pesakit
##ISA
bedak
maruah
pahlawan
nerima
izinkan
##OLAH
##EKA
refer
Langkahnya
gigit
undang
menegurnya
Sisil
Julia
Bagaikan
occasi
picked
Hamid
Elvy
Ryzal
rutinitas
Winwin
SEMUA
menyisakan
search
success
Micca
kekecewaan
Sepatutnya
angkutan
muncung
mewakili
space
kebutuhan
Sepasang
04
03
AT
Bantu
Dada
Detik
Fine
Gab
Gino
Hoi
Ila
Kus
Kaya
KIM
Mwo
ON
PU
Par
Panjang
Ron
Reki
Suruh
Sasha
Tuk
Tab
Yoo
ari
cub
comb
dorm
jati
kaitan
lie
lanjutnya
mamak
noh
numb
pantang
ret
raf
rampas
rengek
sik
talu
tenung
wet
##ius
##nan
##gasi
##dus
##kar
##RY
##sana
##vir
##akaran
##ahatan
##unat
beringin
##engi
##istic
##iles
terisi
##itah
##onakan
##urnya
##esy
##esek
##eknya
##oritas
meremas
merasai
merancang
sebagaimana
selembar
menyatu
keping
keped
kerang
bersenang
##angkatan
allied
karl
##afaz
menghulur
disusul
serang
mencuit
berdebat
stage
menggapai
##sive
Arvan
berkeli
berhubung
teliti
Permana
Pernikahan
direction
haz
airnya
jeda
berpeng
pulangnya
Setan
peminat
percintaan
jelasin
jelasnya
aff
##ished
cannot
Pres
##ized
kekar
pikirnya
Andra
engah
motif
tolonglah
Lega
malay
grown
SMK
depa
berkuasa
diceritakan
Ariana
stuck
##akson
gemuruh
##IKAHAN
bully
dadah
cheek
menegakkan
Tristan
tandanya
waited
Joanna
Kebi
sopir
redha
relax
##yakini
Abdullah
menyebutkan
Actually
bodyguard
##yaratkan
mengendahkan
bandara
membanting
lamunanku
Kecuali
sandwich
sepatunya
jagain
questions
##ouble
menempelkan
favorite
robot
Bisakah
ngiang
window
menyembuhkan
disebuah
berseru
psikolog
SEKOLAH
mengepal
Holly
rolled
Bayangan
cengengesan
received
bergeming
taxi
emosinya
Cindy
noticed
specimens
ciptaan
Special
sebagainya
Aamir
berkeliaran
EX
Eiy
Fit
Gausah
Haji
Jog
Lab
Lho
Mall
Raz
Raut
Remy
Sent
Swi
cake
gej
gosok
gubuk
jangk
lumpuh
nampan
oepil
paha
putuskan
rada
tul
tall
그
너
##oper
##pal
##gunakan
##sed
##GU
##은
##ᅳᆷ
##akunya
##elle
menuding
menatapi
sedaya
##engahan
##urawat
##ajurit
##ayanya
membesarkan
meleraikan
sekala
##ibutan
lagipula
kaulah
bew
kelemahan
##osing
kepandai
belok
##ianat
##anjutan
storm
kesi
bertenang
endah
baling
Teringat
manner
appr
haven
kebil
terbatuk
Semesta
Hantu
dipasang
covers
Pakaian
sayangi
##lier
Setelahnya
memasuk
##ARU
blond
Suriya
Andri
suster
smooth
motivasi
##engkaran
beliin
err
perminta
beraturan
##hamana
merasakannya
Manisah
Manfaat
control
kehidupanku
Kepada
Azri
slip
Baginya
sekelip
Padan
usahanya
##AAA
perbedaan
Wahai
untungnya
keberadaannya
Supir
jerkah
jelita
glad
kupikir
accomp
hardly
hakikatnya
TERUS
Acara
Makanan
Jannah
broad
penulisan
Mencoba
isteriku
Rahman
occur
Johor
berpeluh
Cheung
condition
sehinggakan
Nayla
Turun
wakil
suaraku
Anjir
meleleh
similar
persegi
Kitorang
kpd
Snow
Facebook
focus
tropical
Lombock
simbol
episode
Lakshamana
Tetsuya
Tatapannya
Raffy
berkumandang
journey
Aa
Bahu
Barang
Back
Bentak
Camb
Fuh
Gen
Gini
Has
IG
Jah
Komp
Kunci
KITA
Liat
Moh
Mist
Nis
Naga
OM
Sul
Sok
ij
jakarta
kk
kapas
kongsi
mkn
nut
naga
nembak
papi
rama
tarikan
yok
##yar
##airkan
##ied
##cam
##고
##Val
##enanya
##akal
##emin
##ements
dilah
diinginkan
meneri
menangkis
berukuran
memel
memudahkan
mengir
##umsi
##etes
##etron
takjub
##ayy
merintih
##epl
meliar
##andan
##endung
##endara
orange
##inting
##uarakan
keraguan
bersembang
ngump
mendelik
##angkoan
sepertimu
disadari
disunat
kenalah
lobi
mencairkan
harganya
assign
##obe
katamu
ones
princ
berbau
item
berkep
diberitahu
rev
sepuas
pengurus
Adel
kecilku
berpesan
##impangan
##orean
terdiri
Kening
tiduran
dilap
dilontarkan
Setengah
Siangkoan
##entur
##rove
Amsterdam
gerombolan
##ocyn
marahnya
##ogn
Ayolah
menerangkan
menerawang
Airyn
elvan
dihar
balasnya
##ugerah
##icken
terjawab
terjerit
sembah
##oseok
##rise
kejut
biarin
Have
RiVal
everywhere
temenan
tercabut
hasrat
risaukan
intern
Kesal
Mirrah
idola
menelefon
menelepon
Hyungsik
labuh
dikur
missing
accident
district
TERB
PERGI
confess
confirm
ALL
subjek
Kasim
legs
pundakku
weekend
closely
jemarinya
rancak
sumring
kukuh
volcan
Jihyo
effort
berfungsi
KELUAR
strange
Pulau
Sakura
reject
disappe
kebanggaan
disetiap
Mustahil
Translation
ngikutin
bertunang
Kaiser
Phoebe
volcanic
500
Besar
Daf
EH
Gw
GEL
Had
Hir
Menang
Nona
Rest
Sl
TOK
Vani
Wyn
Zue
cha
denda
fina
fiz
flat
fungsi
gemb
guard
hob
jengah
luluh
muaz
pij
reka
rawat
wo
wong
어
##bur
##ls
##lon
##long
##ground
##daknya
##kas
##RA
##UD
##sus
##inari
dijual
##unuhan
##ading
ketimbang
##ille
terakhirnya
##ihhh
##onolog
mengetahuinya
##ektif
##ete
takl
##awo
##abi
merona
meremang
darip
##uaya
sian
menyempatkan
keributan
belong
berserakan
bersendirian
arrang
menghempaskan
disiapkan
mencabut
asalkan
##ungkiri
berduka
berdampingan
##obat
##obek
pensi
kesej
##antiasa
proc
berbaris
berbaur
temani
berjongkok
bioskop
berlumuran
berkira
Perut
separat
berganjak
pengorbanan
Revan
terpancar
##oooo
dihad
##ALI
resep
remind
mahasiswi
##AMB
Noor
sudden
dinginnya
Still
bosen
Afina
minumannya
Surat
Katrina
Salwa
Salsha
flashback
tebing
jawapannya
Mendadak
kabarnya
mode
Soalku
ekst
mengecewakan
dikunci
following
bengis
Class
lesung
##emaah
tumbuhan
Siapakah
munah
konsep
##UMAH
##ship
productions
collection
rebus
##fied
Plastik
menggerutu
Canada
Terpaksa
cupcake
mekar
kegemarannya
Major
hiraukan
operasi
hentinya
mengagumi
MEREKA
experi
dasarnya
menghantam
creepy
Efzia
eggs
mitos
Cassy
menyetujui
merogoh
Rudy
sharp
TAPI
celananya
MACAM
avoid
Beri
Bryan
France
Hat
Hope
Jag
Jumat
Lik
Lala
Muk
Mamp
Mart
Mmm
Mamat
Nala
Ru
Right
Sus
Sol
Santai
Tocyn
War
Was
Wor
atuk
ava
baki
canc
cite
est
hape
hiburan
jum
klo
kawal
kode
lol
lempar
narik
paku
till
##pu
##girl
##SA
##sk
##ᅡᆨ
##도
##akanya
died
ditiup
##tuanya
##apur
berair
berencana
##iking
##ilap
memanas
memancing
##ully
##urung
mengenggam
##oris
perw
ana
##ayaran
##agic
membuntu
membalikan
membuak
##epok
melindung
unc
sebangku
kamit
##antunya
Ales
menjamah
##ege
##angkaian
benaknya
serabut
haru
staf
##inden
bertalu
bertembung
Taklah
##vert
berkorban
manik
begitupun
terbit
berputus
terduga
##cean
##estasi
wearing
dilayan
Setahu
frame
kurung
aca
senantiasa
Ayman
secantik
sejuta
sejujurnya
knowing
Malac
yea
moved
worth
bungsu
##tured
fear
puasa
kisahnya
obli
stret
ulangan
diperk
helaian
##itten
fire
##imbas
memberontak
Minum
crow
ngomongin
reput
jawatan
konf
dululah
berkeringat
hahahah
planet
militer
Sungrin
100m
subject
horor
closed
Jantungnya
Desember
killed
bersahaja
logika
Tatkala
supposed
complete
walid
Berkali
##fiction
HARGA
Calla
peperangan
ditakdirkan
nyamper
nemuin
nginep
social
rooftop
Hawwa
keterlaluan
amount
##ajaiban
kegembiraan
AC
Fiyya
Gre
Ide
Jon
Jeong
Kayu
Langk
Mam
Mudah
MAT
MAU
Nang
Ob
Reg
Tog
Yap
Yud
Yuni
Zula
aula
cell
fake
fasal
hung
hamb
iy
kunc
kantung
muah
nun
pid
pom
ray
rantai
ssi
sump
uangnya
whe
wip
거
모
##rawan
##ration
##ps
##pot
##SI
##AYA
dikan
diingat
menopang
##kanya
##ileks
terlahir
memancarkan
dandan
##uruskan
mengas
mengup
mengesan
##ario
##ungu
##orasi
##olf
##oles
##ebrow
##omu
Alasan
Aldo
##ouch
tersebar
belek
adm
bersantai
ngada
ngeg
asmara
bertanyakan
Take
menggemaskan
Arab
dibah
##unding
bergidik
within
Dion
pengakuan
kebahagian
kebohongan
tertinggi
berpend
Setibanya
dikawal
dikejutkan
Sethe
upload
##uncang
##roat
spent
plak
Karel
badanya
##ancis
Oktober
Ohya
Mungkinkah
Andre
Malang
##ormatan
##engkapan
Meja
tenangkan
respect
remark
Indo
Riva
darahnya
##ggest
diperlukan
Rayhan
akhirat
insiden
Since
needs
##lands
Kokom
cheeks
##tttt
Sarawak
##ensive
changes
perform
Seriously
Ridwan
photo
menolongnya
penampilannya
deketin
Kecil
tombak
GUA
Madam
mewujud
dikenakan
khusyuk
menjelma
diselesaikan
bergelar
Papah
Grosir
perdebatan
various
Murah
liked
notifikasi
nganterin
peperiksaan
Arsyya
doubt
digelar
Mianhae
Agustus
bermanfaat
##encananya
butterflies
ganjil
mendoakan
kalimatnya
MURAH
lihai
melepasi
ketinggian
sumringah
BL
BB
BEN
Cici
Dora
Eks
Great
HARI
ID
JB
King
Lengan
Lembut
Mias
Risau
RUMAH
Stu
SANG
Teh
Tell
Toko
VOTE
aud
bing
bolong
buaya
cli
civ
dom
ff
galas
hentak
lamp
layang
lukanya
lolos
mian
nilah
pati
paran
rare
ratus
singa
tiri
tongk
viv
west
보
##eq
##mas
##rop
##pihan
##KK
##KT
##jud
##에
##Do
##DER
##11
##emi
##emon
##asahi
menon
menata
menter
menempatkan
seumuran
berundur
##engkan
memekik
mengad
##eko
inn
inci
pernik
thir
anissa
takutnya
merayap
uniform
sebaya
seminar
##andalkan
beat
kelahiran
pundaknya
sedan
Alhasil
menyuarakan
##alannya
below
adj
adri
menghap
kenang
rumahmu
mencatat
terlempar
##ipi
stared
soo
bertegur
Aru
Arc
berkelah
tetes
forward
##ANJ
##ontar
salahku
Rev
Berat
choice
usually
terpenting
dilupakan
dilalui
upah
##entum
agenda
##elaan
Amar
perlindungan
ikutkan
plk
bercel
Karya
jelasku
##ulaan
Hye
cubaan
##enggel
basikal
teori
##apping
ayahanda
malahan
sinetron
Leaf
sembab
Maafin
kejahatan
mush
skripsi
diciptakan
Tanganku
##arso
##hood
const
Emy
mendekatiku
Azzan
pesannya
Sure
teriakku
gemer
flower
ekskul
ceritaku
kacang
ended
modal
shoulders
Pelajar
Jamal
pacarku
identi
feels
proud
koleksi
Raden
apartement
jururawat
klau
Maksudku
tunangan
darjah
garau
angkatan
Burung
##tipu
Raisya
refleks
laknat
profesi
Perkataan
menyapanya
nyariin
regret
kissed
shoes
Nafasnya
publish
pemerintah
mukaku
lelucon
##erdasan
Anggap
Reynji
Contin
ketiak
Tangisan
expression
diusap
jidat
SWT
Group
escape
nyawanya
Nellina
mengisyaratkan
memuaskan
##ogyakarta
determin
PERNIKAHAN
Keputusan
Eiyka
RiValDo
daripadanya
Alesha
Zulaika
Bo
BR
Bilang
Best
Deg
Eon
Emp
ENG
Gem
Gaya
Gara
Geli
Gitu
Hab
Jap
Jil
Kud
Mird
Natas
Nice
Risa
SAY
Temp
Yosh
Yasmin
benteng
cong
ded
fenomena
gal
host
ianya
lapan
mr
pena
pew
pair
test
vic
yena
zona
##aan
##bak
##rac
##nin
##kam
##cent
##JU
##ankan
##erous
##asalahan
seti
keajaiban
##irt
memory
mengutarakan
intinya
peran
##timb
merencanakan
##imate
melayangkan
melatah
melepak
kelat
punc
##enaan
adi
##owan
aldo
meant
kantuk
bench
sampuk
terlena
asalnya
asks
##anjung
keser
kesenangan
kembarnya
menggerakan
menggebu
tema
akik
bias
Arwa
hall
sepantas
##aniz
pertemanan
pertengkaran
bergambar
shad
terbuk
ditemui
Mery
Kenal
dikala
pemenang
nyesel
agreed
Ame
bercuti
bawakan
emangnya
Menur
perkembangan
perkampungan
lupain
Ehem
menyertai
ahj
brengsek
malunya
Sedar
Haish
permasalahan
##hlaskan
tanye
becom
bosnya
lenganku
fotonya
mail
gagang
credit
Wahh
Mending
koran
batch
written
jeruk
jerawat
##teen
nikmati
pencuri
worked
kenduri
Edgar
stayed
umurnya
Farhan
catch
##lets
changing
##engkung
Nothing
camera
Liana
sekelasnya
perbuatannya
tumpuan
Kabuki
konser
tabah
reflek
collect
Anyway
##arenakan
ngerasain
shocked
ndok
Berdiri
Fadh
Shaz
##fortun
memaksaku
lawannya
Hadzry
##emangati
tengking
Tommy
Fuad
##struc
female
KENAPA
Jejaka
dipertemukan
membatalkan
gratis
##elitian
jutek
narrow
Jawapan
kesilapan
avail
Malacca
Mirdad
62
Buru
CR
CINTA
Eris
Epis
Guy
Jel
Jeng
Kuk
Lok
Mm
Poc
Ponsel
Rul
SO
Sebut
Suci
Tik
Uang
dodi
fot
gereja
hih
hunter
kara
kandang
lha
osis
pupuk
rara
rimb
raba
silih
sorak
tib
uc
valu
wae
yan
##eti
##oud
##many
##bel
##nes
##posa
##hah
##hih
##ahaman
##alinya
##amarnya
diar
diikut
##apin
seandainya
beria
terangguk
##itely
##agaku
##eksa
thus
throat
##awasan
##ebarkan
##epek
##adikan
unnie
master
sebahu
##lahi
##embesi
##entr
##empel
tersangkut
menyenggol
keruan
mendong
kartun
menghuj
isak
disalah
hargai
##iput
##leigh
bertat
prec
nyamb
enc
kecer
sett
Inu
##siakan
##sigen
berkilau
waspada
diber
sahutan
berguling
Diper
##illion
ditepuk
ditangkap
##asananya
Semangat
chicken
Should
tentangmu
mengelamun
percayakan
adikmu
yours
terhibur
dihulurkan
pendam
kekac
panda
turunkan
Andar
Biologi
demo
##evan
sengal
##engking
Ngga
poster
broke
pujaan
murni
carried
carefully
Sejati
Novel
##niah
##niaga
Memanglah
Kertas
Emangnya
tingkahnya
tampang
Kalisa
##kyou
menyadarinya
##aksana
flash
formal
bule
buahnya
Penulis
bertuah
teksi
tarikh
tanduk
menuliskan
Rasulullah
Today
Kayleigh
guide
klakson
hahahahah
ribet
##enderung
Baguslah
mengajukan
tumbuk
Google
mempertemukan
Perkara
creature
Jantungku
bergelut
lambai
younger
##omatik
mengulangi
Carter
occup
berdeham
Sometimes
orangtuaku
Krasa
##lhoon
dibangku
private
##eyoung
bathroom
Zammar
Giliran
surface
amazing
hoodie
distribution
shania
nyamperin
Langkawi
adriana
Jilani
Bir
Bulu
Biru
BEL
Bahagia
CO
Duit
Him
Jend
Jadilah
Kong
Kump
Name
Never
Por
Pink
Sim
Sew
Sikap
School
Souvenir
Tar
Tadinya
YG
bibik
deri
emm
fat
fisika
garu
kinda
necess
rer
ruk
rotan
rungut
sindir
tam
tgh
wid
##lain
##nel
##EX
##FF
##60
##elet
##asuki
dipa
diarah
diman
##kun
##adai
berurusan
keju
##ises
##ingi
##agukan
mengesat
mengiringi
##idmat
##usai
ancang
meru
##eption
##anduan
bear
menyendiri
menyemangati
##uary
menjaganya
kepanasan
keponakan
alex
##ujin
ketar
##ework
print
proker
Takdir
menggila
pelat
pelac
wash
sepele
pertengahan
##tulan
terbatas
angel
ditatap
counter
dilarang
puteri
putranya
pemalu
##maan
mengeras
##ancy
menarikku
bermonolog
Ayat
noona
training
menertawakan
##ohongi
putihnya
##eva
moon
##incangkan
Ishh
Meida
##arisha
diganti
permulaan
grin
##diot
kiriku
poin
Steve
berterus
##yeo
Mariposa
asking
tasku
##timpa
Anggi
dijelaskan
dijanjikan
Ariff
menemukannya
Tuanku
2016
repl
Damn
Illhoon
##play
Assalammualaikum
menelfon
genap
laba
tuduhan
terkutuk
##engkuh
distinct
mengacungkan
increas
camtu
nanar
Membuatku
lukis
Hayo
kontr
sayapnya
berselang
terperangkap
commun
problems
public
variety
Percy
Huzairi
Handphone
##ᅡ라
Delima
tengkorak
Daun
licin
Nainna
hikmah
comfortable
shrug
ditunjukkan
dibenarkan
choose
memusingkan
describe
tingginya
elektrik
Husna
istighfar
diminum
pertahanan
dilahirkan
assignment
Aid
BI
Dong
Hasil
KR
Kap
Misi
Mampus
NA
PAK
SAK
SAMA
Tj
TT
Ug
Yogyakarta
cec
capp
dos
east
eomma
fon
fatin
gabung
huwings
imb
kadar
kunjungi
lin
larang
maha
nai
nambah
pandu
rog
risik
ronta
sib
timpal
vo
나
##yanya
##dd
##king
##NA
##con
##eren
##erlang
##inap
##ination
##yama
##alihkan
##eliling
menegang
##isap
##ired
##ulung
##uluran
##idih
##etaran
##ajunya
taklah
##edik
##ayo
##abuhan
##uhur
membungkus
merangkap
melilit
##eheh
##antasi
tour
beasiswa
##ongkat
tersiksa
menyatukan
added
bersumpah
ngebut
##eguk
##owo
alfy
menghormati
sujud
berdepan
##anjakan
##ecu
sesampainya
penolakan
kesimp
##ohol
pelipis
balai
hermione
##verse
berkenaan
##ucuran
Terj
Terakhir
terketar
##onteng
terbenam
Mako
berpengaruh
Sein
history
dipakainya
gelombang
Sign
government
##AHH
gaada
Sekadar
bermalam
##ogor
##ogok
Aireel
eleh
elly
pembatas
pendamping
kekh
kekamar
pantulan
ambek
Malangnya
dimeja
##arding
Biasalah
senget
lapor
Tanah
Sesuai
gets
series
seriously
betis
erti
##uyung
Novi
mbok
sklh
calling
pool
dicintai
berterbangan
Udahlah
##timid
##usion
##ekanan
Devid
jennie
ikal
Suplemen
bisiknya
dinamakan
Senyumnya
##tusuk
menyesap
menyesuaikan
teknologi
bedroom
menelusuri
record
ekspresinya
curr
marriage
pucuk
melupakannya
Organ
dikun
Farlina
lebaran
Mulutnya
ternama
Deep
Silap
presiden
Pipi
penggemar
tarakan
ditugas
listrik
santainya
hugged
Najwa
medan
jadual
cabang
kewajib
rumor
Muslim
lututnya
Papanya
transp
dibelakangnya
HAHAHA
Everything
wisata
memanfaatkan
prepare
develop
membacakan
berseragam
jiu
bahagianya
Maghrib
meletus
Athena
homework
Universiti
memutarkan
bersepah
realized
Naina
filled
penginapan
individual
menghubunginya
strawberry
kuyup
Buyut
Defina
##kshop
Hotel
BOLEH
alhamdulillah
Sebenernya
Jogja
Cambodia
sembahyang
pidato
civil
Erister
Episod
bertatapan
60
AKAN
Boss
Bayangkan
Cem
Dana
Gat
HE
Haff
Imp
Kya
Kacamata
Les
MAN
Nelly
PEL
Pikiran
Qur
Riak
Sinta
Sajak
Tizza
Uwa
Wajar
Za
Zaki
cast
calang
cenderung
ganda
hen
iron
kick
magic
nahan
queen
rup
renang
raks
saiz
twin
##EW
##TT
##vell
##25
##77
##angs
menaikan
##unu
##unus
##adilan
bertiup
##ism
##isai
memij
memiringkan
##agalan
mengid
perahu
##etry
anis
meros
meracau
melulu
meleret
sekat
##give
beach
kelemb
Along
selaku
tersedu
admin
admir
arg
##iche
ngn
ngad
dahiku
##egat
##angkau
alien
mengharap
menghadiahkan
lof
local
##ebihnya
penari
kesuk
bertekad
##ahani
berlegar
Aroma
Terutama
dibar
Perp
terkik
jee
Enjoy
menyalam
chill
butiran
Sikandar
ceritain
jauhkan
keham
cepatlah
age
memperj
##ancuran
marahkan
##ograf
kuatkan
##seo
panggilannya
Super
elite
kampret
dihid
matian
block
based
Ahj
Awat
menyerangnya
lembab
menggeliat
##incah
buak
climb
##ijah
sayuran
intro
##arisan
menikm
murahan
rese
Sejeong
bayaran
warni
##itted
Str
Seribu
Afa
Darren
buruknya
Kedai
mengikutiku
Kepalaku
soalannya
Azlan
Membuka
pesona
Bangunan
2010
complic
tebasan
dering
gorengan
batik
##rible
##PAI
diny
Pelayan
paginya
pencarian
##ONT
lanjutin
indust
gui
Jomlah
Only
##syat
nerd
Pengh
groups
##ology
##aaaaaa
bayangin
penampakan
bocor
mengingatkanku
Nasuha
Rinai
jadilah
Budin
TUH
mengantarku
tikar
pantes
amarahnya
menyapaku
Barulah
cemerlang
funfair
keseluruh
absol
Rizaldy
dibuai
logik
Whatsapp
effect
Sherlock
mekly
janjinya
terbeliak
hitungan
dimaksudkan
mengatasi
Violet
tightly
pushed
mempermainkan
circ
sexy
scroll
##IGH
leaned
penglihatan
Konon
region
Myanmar
rembulan
Tugas
bewarna
membuntuti
Tjandra
ditugaskan
Haffaz
Bob
Bund
Break
Cie
Ele
Gag
Jaka
Kont
Kaz
Lantak
Mc
PP
Qaseh
RT
Rakan
Sarang
Sikit
Tent
Tip
Ugh
Wis
Yura
Zi
bengkel
cant
debut
darat
ho
iba
kajian
mond
maid
odi
pn
pimpin
ssu
tata
tinta
tumpang
wadah
wkwk
wawanc
yas
zack
조
##bow
##lings
##lumi
##nama
##haka
##fit
##vent
##quar
##BER
##ᅮᆯ
##VER
##anehan
##akes
##atim
##yaman
##asut
##asons
##aduhan
keemasan
##enggak
##ength
##ilaf
memindahkan
##onis
##ekang
perayaan
##titu
##eting
##awe
##ayangan
##abok
##uhi
##uhu
meluk
melancarkan
melontarkan
semalem
##ambahan
tuu
nakas
sedalam
tersakiti
menyangkut
menjulang
##angganya
bersua
berseri
ngomel
pull
##angkang
##angkok
kardus
disusun
##hew
##head
serem
##odok
Ana
penelitian
kesihatan
terusik
prev
menggubris
akira
##asikan
berlakon
memanglah
amalan
lahap
benarkah
sepoi
direnung
terkapar
terkebil
bergenang
##hern
shiwaru
malamnya
kebebasan
kebelakangan
angah
Real
Berita
Bersi
kalem
kalbu
tahunan
dipilih
dipikirkan
diduga
Heart
##eey
Chi
Chen
##oyok
##oyangkan
cakaplah
Sekilas
neon
cukuplah
##ancangan
kokoh
pembunuhan
Mashih
Melisa
##awatiran
##ibukkan
moving
worse
##ATE
burst
bulanan
brand
##ached
Sesampai
##ences
muram
Mengambil
kejutkan
##aitkan
syak
stres
##gggg
termakan
babak
##INE
diperm
poor
dicengk
bother
tepung
screen
##ulaim
Emak
Harini
DIS
tercekat
dato
longgar
bodohnya
jenama
##ilio
iklan
kuno
larger
filem
roma
recently
instr
kantornya
laughter
sewot
mengurung
menampung
Astag
Sungai
loker
rapid
dll
Smiley
population
##ergian
menungguku
crystal
collections
Kehad
LOVE
Hakimi
wisp
Lihatlah
lengang
remembered
destro
ABANG
abundance
express
macho
##uccino
ibubapa
ibubapanya
chuckle
ignor
Effeq
dunianya
Rianti
allowed
valley
menghangatkan
SAMPAI
menghantui
waalaikumsalam
Morning
##epotin
bangsawan
Guys
Mashiho
Auntie
Aulia
Cut
Cerit
Et
Iy
Iye
Jast
Jahat
KAS
Mand
Nar
Pekerja
Pujuk
Sendiri
TA
Tang
Vee
Wagang
city
cried
couch
gendong
king
kic
kuduk
lanjutkan
lying
nolong
pure
pengaruh
rona
sque
tomat
vs
wake
zul
##eum
##ym
##rit
##rine
##kang
##fu
##via
##OY
diulang
##unangan
berint
berubat
##isir
##iskusi
##irangan
memajukan
##agn
##urahkan
##ukau
menget
pern
##ebatnya
merelakan
##ampilan
melatih
sebotol
##ambus
sekenc
##perate
##empuh
##empurna
tersemb
tersekat
tersayang
##intahkan
menjilat
kepen
keprib
aras
arus
arch
##rave
mendidih
alihkan
karpet
barangan
menghempas
disembunyikan
mencecah
##anjatkan
berjabat
Intinya
Insy
berlutut
Art
language
Terbang
##punan
manhi
apron
telaga
datangi
##illi
terbilang
ditampar
##stik
using
terpaut
terpendam
Asean
Setahun
putting
Chris
bercucuran
##ances
##ocos
security
traktir
perkata
pembayaran
##enggal
##umpaan
ayok
menggeletar
cloud
##ijaya
Atun
murka
nihil
erm
permen
desy
silakan
everyday
berkualitas
pinggiran
diculik
Kelihatannya
##ewatkan
bott
conv
##elanja
##ruari
repe
repres
perban
kulkas
Miris
Senj
Senior
dinas
sapaan
kompleks
instan
pahala
swasta
Sarra
belasah
membahang
menganggapnya
passing
degree
Hujung
lokal
phys
Gea
Germany
Jennie
sorotan
teleponnya
gaper
sifatnya
produce
messages
artikel
nurse
entire
##firm
##ematik
falling
rintih
nature
menanggalkan
Didalam
descrip
Ketawa
bertanggungjawab
ADILA
bundar
diwajah
protect
Universitas
difikirkan
TAHUN
pangkuan
somewhere
berkutik
Haider
graduat
saudaranya
monyet
kemanapun
jacket
Mencintaimu
pengertian
bertengger
Jeongwoo
dibarengi
Jastin
Wagangada
Insyirah
80
Cyn
Fau
Flo
GR
Hoseok
Juni
Kart
Korean
Lina
MAR
Nee
Pan
Past
Pantai
Rowan
Sunda
VIP
Zidan
bia
bny
cos
freak
gol
gard
hide
hills
jela
janda
lg
ler
ledek
ledakan
moyang
ninja
oc
pitam
pola
pizza
raka
saf
sadis
td
tad
taring
ways
다
##body
##pati
##delah
##zen
##OUR
##62
##ᆭ이
##antuk
##eru
##akti
##ahit
##atangannya
##aroo
##alia
##amannya
##asik
diapun
dimanapun
dialaminya
menanya
menuangkan
menuduh
kecap
##itaran
##ulut
##oncang
##aging
mengata
mengadap
##ekek
perawatan
perilaku
##ajikan
unkn
seksa
tub
tuisyen
sedetik
##emputnya
siasat
##anggul
kerudung
bell
bersisa
##iction
ngec
##egeh
##egarkan
alum
disela
mencic
##uju
berdenyut
##anjiri
sour
##oho
bertemp
pred
berjam
Ins
biasalah
berkacamata
dibagian
maneh
managed
pakek
sepulang
sepotong
##enangkannya
##artment
pengikut
berpatah
##stairs
menyam
##amiin
dikarenakan
terpikat
##entuan
google
oksigen
Tidakkah
spion
Sekian
senin
Iyalah
Hyeyoung
##ondo
##AKAN
Prom
elus
Memikirkan
menolehkan
Apasal
habisan
blind
dimasa
##ards
menyeruput
susahkan
smiles
##incau
malangnya
Keep
eyebrow
remeh
##hless
mengalih
mengalirkan
Riah
object
striking
silver
warnanya
partic
Stay
happily
offered
Keluh
letaknya
daily
ucapanku
afterwards
starts
starting
gemetaran
Inget
salon
gorge
##tical
teki
mantra
##ujudan
bangkunya
hidungku
swear
Betullah
showed
mengurungkan
##estern
##ingkuk
terkulai
Tubuhku
mengacau
bajuku
ANJ
1000
##nnn
villages
dlu
santri
sleeping
pictures
edge
jaraknya
pekak
많이
penerangan
##icious
Robiah
Ular
Fahre
Begini
Elvaro
cacat
disebalik
facebook
##aghet
entered
requested
habaq
North
Safi
tengkuknya
Lunaria
menimpali
north
Mentari
Pedang
memuncak
sastra
inggris
maksim
Vincent
sindiran
Finally
mendahului
Dilihatnya
dihiraukan
bujang
jungle
kekerasan
kepandaian
ngumpul
separated
Yudha
mewujudkan
menikmatinya
Buang
Bingung
Bastian
CU
Cob
Cle
Ek
Ehhh
Fatih
Jim
Jiwa
Jono
Keny
Most
Nan
Nera
Ola
Pelan
Rp
Rak
Saran
Sampaikan
Tek
Viet
XII
Yem
Yela
Ziya
ahhh
bt
campak
cashi
dust
era
ears
fol
ganas
hw
jaja
jenuh
lalat
lontarkan
mig
nob
ooh
ojok
pour
renung
sund
tant
tarian
tusukan
wine
날
##eaksi
##bag
##loy
##pop
##hes
##Saffron
##syi
##fum
##야
##vas
##Om
##OG
##CC
##ᅥᆷ
##erik
##ench
##atul
##iny
##inori
##ems
dituju
##adaran
##ikh
##engam
##ule
##agamu
##umen
##esra
perniaga
##ebo
##abak
##aburan
membara
membanggakan
meringkuk
##epis
##ampret
melibas
##ehatkan
##acun
##andengan
##ibadinya
##enter
kelinci
##aine
tersandar
tersirat
menyewa
menyuapkan
menyinari
menjemputnya
ngaku
ngunu
mendingan
##egak
pulpen
alur
karangan
menghala
isya
disco
kenc
harum
anak2
##ungkas
##odel
penekanan
bertentang
prestasi
berbahagia
energ
berjudul
tanam
##asional
berkem
tetesan
dibibir
dibawanya
reihan
pakar
Perhati
Perkenalkan
terkaku
bergosip
pengusaha
berjalannya
dikata
Share
terpilih
didunia
Three
bilikku
ayahandanya
sport
Bukanlah
acaranya
gerik
bermasalah
trad
Itupun
siapin
##AKAP
elegan
diharapkan
Hanumpun
pikirku
bagasi
ibumu
mendapatkannya
built
sinilah
##eraksi
ajaran
features
male
Yusuke
##AMAT
ruangannya
Sejuk
##ASON
babe
helped
##orium
contain
SET
SEASON
reader
Yeay
Kerna
dekorasi
longkang
imnida
inspirasi
Kui
berpikiran
penghujung
##AHAHA
kunang
pintarnya
bulir
##PADA
impossible
##ional
shouldn
##IRI
Pelajaran
teko
teks
roman
Kebanyakan
BAG
bapaknya
Mahkota
menyambutku
gurauan
Bagiku
##sss
syal
presence
Nyatanya
nanyain
##UST
##iwara
hadiahkan
Rider
Belanda
consist
evil
senjatanya
sorok
##AGA
wujudnya
Untungnya
lakinya
jambatan
cabaran
KLik
Menurutku
rebahan
Team
Musim
Giant
Gigi
funny
roboh
Resha
absen
disekitarnya
aturan
##uakbar
Percuma
possess
SEKARANG
Haruskah
Murid
Contoh
menebaskan
statement
hoping
baunya
WOI
##krim
0813
cucunya
bencana
purple
Jarvis
JUGA
photos
campuran
flying
location
keinginannya
brief
hamparan
membisikkan
jihyo
deserve
Menangis
100ml
wheel
Yoshinori
##fortunately
available
kekacauan
Kumpulan
Portu
cappuccino
lofty
complicated
##aghetti
Ziyad
cashier
Audi
Aiden
Bat
Bant
BAH
Beda
BEE
CEP
Cepet
FR
Follow
Got
Gula
Hih
HATI
HYUN
Jang
Jus
Keg
Kopi
Kendi
Lamun
Ming
Moga
Mahani
Nessa
OH
PH
Pub
Potong
Send
Tulah
UM
UDAH
Vic
WE
Yg
Yuan
Yauda
aurat
bara
bilangan
fajar
finding
gok
gate
gather
hitung
jang
jak
kemp
kacam
mik
muat
mumb
mumpung
nose
nabrak
rencananya
sod
sark
sains
##rom
##iaga
##leman
##tr
##hin
##dom
##cher
##zana
##vest
##YI
##WB
##MENT
##elve
mens
##adab
beristi
bereaksi
terpa
terangan
##itish
memenangkan
##ihlah
##ulgi
##agar
##uruan
menguji
##ekal
##aim
thumb
takpelah
##olis
##awin
##ayn
##ayun
melemah
##acy
semi
##antungan
##ends
Alya
seluas
menyemp
##intahan
berse
bersarapan
mendidik
disapa
loves
serpihan
terlantar
##echan
sesal
Aniq
kuali
pensy
harimau
sending
pelamin
##ahanam
akibatnya
##opy
dibasahi
apahal
kakanya
seputar
sekolahan
jawabanku
penglihat
terbunuh
Kalaupun
berpihak
gigg
##yne
dikh
lainya
##allow
dipandu
terpapar
dilanda
agam
kursus
Chel
##oyna
##ancuh
bermacam
Sug
##AKA
##AKU
Sepi
elak
dihalakan
April
survi
blushing
##adangkan
begnya
dimainkan
yeon
kasat
##ombak
clock
Kemang
##ijrah
intens
Sesudah
Mengel
ambilkan
Tiyo
mahir
Sejurus
Beneran
uluran
penyanyi
##IND
Serangan
Putra
menyambutnya
Azka
image
##itasnya
Pastu
usahakan
Kuasa
Kamen
Zahran
kegirangan
buktikan
Matematika
modus
kuburan
kutemukan
mostly
named
nasibnya
bertudung
bedanya
sekurang
rakus
decision
jinmi
Okeylah
Amboyna
menempati
mengembang
Clarissa
Junho
earlier
bandel
giler
meminang
farish
laptopnya
boring
199
Government
hehehehe
ditutupi
MENC
disedari
pemeriksaan
casandra
Syakir
mencengkram
benakku
Pikirannya
touched
keseorangan
berkecamuk
PDKT
licik
surrounded
Kulitnya
Yasudah
kopinya
Molvi
lucky
terbuang
origin
ustadzah
Nicole
diabaikan
kepulangan
Kuharap
luxuri
rafi
konflik
Togar
vivie
Aruza
berkelahi
Sewaktu
raksasa
Chieko
gorgeous
pensyarah
Aur
Aini
Ayam
BES
Bibi
Cr
Comp
Hend
Ivo
Jalak
Lara
Malahan
Naz
Nombor
NWB
Oc
Pit
Pint
Rash
Sila
Sadar
TE
Too
Tanda
TENG
Vera
Yaf
Yujin
bumbung
faster
gont
jaj
kyl
lon
lara
luruh
lincah
mamai
mutiara
ning
naj
ocean
peta
ralit
suku
tika
wore
wound
wudh
수
##yed
##rg
##reng
##rut
##ues
##ges
##gala
##wajah
##wujud
##work
##sen
##ftar
##zir
##ᅵᆯ
##며
##enario
##akk
##arakan
##amatan
menafikan
##tujuan
##apis
segak
beruang
keanehan
##inget
##itip
memor
##ihun
##agut
##umkan
##ekin
##pain
##pack
anugerah
merungut
merapatkan
##oment
nig
##entilah
Alangkah
kepentingan
keranjang
kerutan
mendekap
menduduki
menghadang
lob
suga
sergah
kemunculan
##ungkit
buatlah
##arahan
##ungging
bertandang
aware
menggag
menggoyang
berbulu
pelangg
akar
berjatuhan
##asiakan
berlengah
dudukku
Arlina
height
hearing
dibac
rasain
forgive
##arankan
apasal
##isiatif
benarkan
benarnya
pakwe
haah
shy
kebal
waktuku
jamin
Their
nyebut
Pakcik
spirit
##thia
bawel
Dahinya
##gug
##guese
menerjang
Suga
##eyan
##eyla
otw
dihalang
pembeli
pembimbing
dimata
situlah
tekun
budaya
lembu
engine
pedagang
climate
bernasib
mengangkatnya
Sedari
##otoar
remuk
kerasnya
Ermm
##lox
eroh
strength
skirt
larikan
Star
berterusan
happiness
SEP
Raylox
##uft
Darw
##imbah
maap
##angkitkan
Devin
Surya
##aksalah
hanging
##IKAN
butuhkan
koen
kuliahnya
berfikiran
Senyumannya
teknik
Davyn
romantik
simpang
pencipta
istriku
sopo
pemiliknya
swit
punggungku
Wann
layanan
Menyesal
dirumahnya
Jonghwan
mindanya
markah
Sofea
confused
angkatnya
tangguh
tanggapan
memecut
Kasian
snack
purnama
Kiza
Siswa
corner
posting
dressed
kukenal
##orbankan
transfer
Ulang
Kakiku
wisuda
stepped
bluetick
yakini
cases
##engkelkan
Someone
LUPA
limited
Hands
automatik
Amirul
WOY
hentakan
Yayasan
melelapkan
realize
ketulusan
PMR
etc
mengkhawatirkan
Tujuh
melengkapi
suffici
MASUK
neighbour
terpelanting
orientasi
Februari
menumbangkan
Seoul
appreci
Sultan
##ayyum
innoc
##enggelamkan
profesional
determined
mendongakkan
nyambung
risiko
##timidasi
kelembutan
berinteraksi
Cynthia
Portuguese
berseorangan
Ivoire
Rashid
BAL
Blo
Bogor
Ca
Cher
Dic
Dagu
Daus
Fam
Fuch
Fokus
Hold
Huss
Ip
Kiki
Lekas
Mida
MATI
Sap
Sanggup
Ting
Tungg
Tami
TING
Usa
XD
Yul
Zero
cedera
dusun
ee
fatih
fakh
gawat
gomb
hun
huluran
jeb
kolong
kite
lika
lalunya
mile
nila
nmp
nutup
padi
raj
ster
sne
yaya
zikir
😂😂
##mel
##ront
##taf
##tahun
##gram
##ces
##sah
##for
##zikir
##CK
##BU
##서
##erinya
##akam
##ald
##emik
menayangkan
##apon
beralasan
##isip
terarah
##itak
memuncul
##ulti
##ults
mengij
mengaduh
ank
##ayat
tidaknya
meluapkan
masukan
##alamannya
seber
semalaman
##ominasi
##ibly
##anteng
tup
##aint
##riel
selendang
siak
menyej
menyentak
menyiksa
menyinggung
menyorok
ate
bersarang
bersambung
bersentuhan
dahsyat
menghalau
suggest
anakmu
##ejanya
buatku
seseg
kutulis
##lyn
##lex
##amunya
bertamu
bertaburan
entar
menjadikannya
kedekatan
setelan
duduki
Ardi
berkesan
heels
force
apel
##akitin
datanglah
dirasai
##entian
Makcik
##impikan
terdesak
menyayat
Seiring
Seulgi
dikerj
laung
dipastikan
terpuruk
pemikir
nyonya
perlengkapan
ayahmu
##ategi
##istrasi
##anced
##ikul
secarik
track
tragis
Menarik
menerka
pembuat
pendaki
handed
App
teeth
menyeruak
Allahuakbar
menggelap
sengit
works
Kemungkinan
##ijo
##itions
burger
##iminal
Keempat
peace
##unaan
remote
lives
warning
Untukmu
parfum
umat
happening
Afikah
empty
membantumu
letting
Nabi
Azz
heading
Kursi
ngerepotin
Kamil
buktinya
Salim
computer
Sinar
bekerj
misinya
Marilah
bulatan
Penjual
cheer
##raft
##plet
menyukaimu
relung
decide
sweater
guitar
klimis
Amber
mengurusi
##hiasan
hakikat
pale
assured
TERL
sunat
milk
extent
angkasa
moral
Aqeel
difference
Alahai
tomboy
##alinan
seluarnya
helmet
waist
anime
appear
mengantarnya
adeknya
Tengoklah
omongin
pinjem
SIAPA
Dragon
figura
Buktinya
steps
concl
dikenalinya
Terbayang
Elvaroo
totally
memintanya
buyar
jutaan
##rupt
keseimbangan
##NNNN
clearly
introduce
karenanya
Memandangkan
minimal
menyimpannya
Suamiku
rules
gebetan
bongsu
menyingkirkan
shouted
tradisional
berbahasa
siluet
kocek
rabun
menembusi
Alisha
Lumayan
Arsitek
Kebiasaan
dikursi
remarkable
tongkatnya
terbukti
hunters
diarahkan
hermioneok
kekhawatiran
bnyk
unknown
NWBart
gontai
kylla
48
Aga
Aeva
Bal
Cres
Dec
Drama
Gus
Hor
Halah
Haduh
Hiks
Jas
Judul
Lari
Lona
MY
Meh
NAT
Nope
PK
Putus
Pohon
PUL
SK
Sia
Sart
Tais
Temah
TENT
Very
bala
bandingkan
cili
duri
fuh
haf
iris
ijo
mita
mala
nadanya
ndi
pangkat
pock
rude
suluh
ting
tayar
tangkas
wi
##ojok
##iannya
##nal
##uel
##gakan
##hs
##cano
##som
##zon
##qib
##니
##까
##하
##VD
##ahunya
##aram
##aret
##arungkan
##alog
##amas
##emangat
segitu
##kanlah
berobat
##ista
##ures
mengul
mengoc
mengibaskan
##iding
##usat
diaj
##ebur
##abarkan
mered
meregang
meleng
##aced
sebisa
##omawo
sekeras
Alm
Alright
##upkan
sialnya
kerabat
kerisau
belati
belasan
##aikha
nget
##rail
alk
mey
menghukum
kencing
sugar
mencerit
mencabar
mencarinya
##ujar
asleep
berdec
kesendirian
kesadaran
kate
##ohor
bertopi
menggumam
##reum
##rease
##opter
kedamaian
kedatangannya
arahkan
bebelan
pertunangan
pengirim
anger
memandanginya
bagimu
##ingkari
dipisahkan
##alaskan
coat
diletak
dilemparkan
Situ
tentangnya
kehadapan
Amaz
memperk
Thai
Thought
Jangankan
spark
plain
gerakkan
##istina
bawain
trouble
##ishal
Hyo
##cious
panic
blank
teach
menyerbu
##ATU
terjel
##arapannya
Abduh
Shinken
Maaflah
hilangkan
meneman
restu
digantung
musl
mempamerkan
##ehead
whenever
motorku
##arattara
kantoi
menitipkan
##inking
sudu
dipercaya
quant
offic
##press
letter
Bolehlah
2015
Zahid
duitnya
Samad
kapanpun
##tival
goresan
suprise
rio
forming
ngelakuin
pindahan
Ujarku
almamat
menikahi
##HHH
##ushi
jelmaan
diteruskan
menghadirkan
sabun
Aduhh
bentuknya
Pengen
Nasiblah
gengsi
BERS
Luce
planning
sekelasku
comments
university
tabiat
snapped
speaking
enjoyed
twelve
Remember
liurnya
profession
visual
diselamatkan
MENY
Play
memories
lambang
pinjaman
##OOD
Endra
##arnai
mendatangkan
travell
volcano
Percakapan
KALIAN
mengedipkan
fruits
rinduku
lantak
##eselin
beginning
##ransfer
bundanya
introduction
diperbolehkan
owing
owner
frequ
persetujuan
Menteri
Polisi
waved
diserahkan
imagine
holiday
bomoh
Medina
Diriku
connected
diturunkan
directly
Excuse
occasion
SANGAT
thirty
kewajiban
Uwais
dicengkam
description
Fauzan
Usaid
Azzura
Sartem
Taisu
Ae
Ati
Aain
Bayang
Bae
Butuh
BUN
Bulat
Cincau
DO
Gono
GILA
Hell
Hutan
Hug
Jemput
Lup
Life
Milah
NY
Neng
NUR
Out
Oma
Pil
Qeyla
Sena
Saling
Ton
Tinta
Twin
Tsel
Tijah
Uy
Zar
bit
cemp
dn
fow
fantasi
gad
guli
hut
ira
irr
idiot
koyak
lamar
lancang
mingg
maa
nay
rebut
ramping
rusuk
rangkaian
saut
ted
tro
taehyung
tinj
umpat
yatim
가
##ogi
##mes
##ball
##laa
##uakan
##ginal
##hai
##wang
##wad
##site
##anis
##erum
##ates
##elang
diakhiri
menaip
menenangkannya
##kumm
##uninya
##aper
##aped
seindah
berangg
##enggu
##isahan
dani
##urupan
mengontrol
##usap
##esis
##orin
perasa
##paih
##dae
##awakannya
##ayana
membatu
merantau
merpati
##epannya
melet
meluat
##ayama
##entam
bey
sudahpun
Alih
##empuran
selip
seloroh
siakan
menyeluk
##inted
##anggah
bersimp
mendamping
##ego
sangkut
karma
##hee
serah
kemauan
##ejer
ketemuan
ketawanya
whom
##ecil
Anisa
onar
pelabuhan
balq
akob
berjuta
setahu
berlin
berlayar
Arga
berke
dibalut
separ
pertunjukan
bergelak
bergoyang
Diantara
shake
##iller
pengendara
Adu
berpen
abad
Seandainya
pulangkan
Sebulan
##ests
button
##umpal
weather
terpental
gelengan
Selatan
memperingatkan
spo
acting
gerah
gergasi
bercekak
mengeruc
##sea
trib
trotoar
perkh
exceed
##ondisi
koko
##aving
Prolog
Sepuluh
##hans
kekeh
masing2
Big
menutupnya
teecu
keadaanku
ibadah
menggelegar
##ffic
sinki
bernada
pipit
##esio
milikmu
##lance
Jawaban
permata
permohonan
sedihnya
beratur
##uyen
Benci
Syaza
menyelinap
ilusi
poetry
Stef
berterabur
SEGAL
watched
tasik
Arif
datuk
takkanlah
Minah
##arees
kegagalan
cobaan
menghadapkan
tenaganya
saluran
korek
menurutmu
mission
Mary
##IKA
kutip
##nery
sungut
romantic
pencer
Rasta
kusangka
Umie
smaller
##idding
patutlah
Renata
kanguru
mengacukan
Telinga
breaking
pointed
pejabatnya
180
konsentrasi
typ
meminjam
##argaan
GUY
Hayati
##erns
kewar
rumus
titip
kandungnya
kukira
Kaila
kemarahannya
lambaian
lipstick
characteristic
memanah
Mujurlah
beresin
##UNGK
copy
Misca
Majlis
berfoto
Wattpad
Megat
teenfiction
terselit
##ergency
Update
KELAS
customer
reyhans
hantarkan
Lunayana
double
umpama
Woah
Gunung
piket
inggeris
Ellen
definisi
Rimba
kesukaannya
including
UPD
Weyh
branches
##fokuskan
Syukurlah
Jumaat
Channery
Tulisan
succeed
OMG
princip
kesimpulan
transparan
##yamanan
Cutie
sekencang
beristighfar
nigga
lobby
Darwish
innocent
Hussin
memunculkan
Aaina
Again
Bes
Bahaya
Bandar
Belakang
BOD
Bimbang
Cina
Cause
CALL
CAKAP
Dri
DAT
DVD
Ey
Fiya
Fisika
Gh
GI
IL
Iva
Jua
Jijo
Kook
Koko
Loc
Laura
LELAK
Muncul
Mummy
Nich
NOT
Pur
PENG
Ria
Raha
Rida
Sad
Samu
Sast
Sindir
TI
Tama
Tri
Top
TOL
Vir
Wani
Welcome
aur
bina
cough
ciptakan
deb
drove
fiksi
hala
jgk
maling
mafia
mogok
nol
naz
nisan
os
pit
paid
pig
peha
retak
ride
sort
sirih
vila
xde
##oved
##moon
##aing
##bl
##duk
##zing
##zanya
##50
##CE
##LIS
##erima
##enakan
##arch
meniti
menantang
keenam
##isih
tercapai
terwujud
##iram
##ihannya
##ulty
mengap
mengot
mengibas
##umuni
##essi
inye
perhiasan
thor
diac
##amaah
##awannya
##ablish
membaling
merd
melati
##okter
semen
semangkuk
##omach
##otret
##endaki
##endala
##embalikan
kelet
##ongki
##osisi
sedu
Alaaa
tersalah
menyend
menyumpah
menyilangkan
menjengkelkan
bersusah
dahan
##egilkan
altern
baran
menghisap
kanvas
mulalah
benef
serasi
##ipped
Anaknya
Another
stomach
##inder
pref
akses
kedepannya
bangsat
Teruk
dibat
mane
ceroboh
Perb
Diga
terbentuk
angry
senyummu
Ref
Really
##ifan
Sebagian
dikenang
dipesan
coast
sakitkan
turning
dilaksanakan
##entuman
pemalas
nyakitin
Amri
kamarmu
Sekiranya
punyai
##hatiin
active
knife
##untai
##AKAR
khayal
lear
pendiri
blush
Unnie
Nurlin
tergila
tergambar
Biarin
##turer
brid
##risha
opah
kerasukan
Errr
errisha
terminal
menyelak
menyelubungi
Seruni
employ
Bebel
dijodohkan
Harsa
Sehingg
##ofa
##areul
Kalsom
Hero
crew
##ediaan
penjahat
Kansa
rahang
pecahan
Omong
Yuyi
compani
derajat
katilnya
kabin
mommy
hangatnya
chef
Trembesi
##IRA
menyentuhnya
boom
membiarkannya
recogn
saud
Otaknya
Jinhyuk
menyedut
showing
Izzah
##sych
mengecil
realised
Dean
bantah
disampingku
darurat
mengajari
Bidadari
Mommy
Nathan
menaruhnya
mengendap
durjana
##ression
Zulaikha
##EHEH
menyebarkan
medic
sounded
darkness
menepati
ketujuh
mematahkan
dibutuh
Bismillah
perfectly
Bukit
Paan
arrive
potret
copot
jogja
ketiganya
terselip
hanyir
selfie
menumpuk
mirror
Zainuddin
Posisi
smpai
Pangeran
jidatnya
Bintu
Jaemin
Nafilah
Tujuan
causing
caused
pembelajaran
menyayangimu
smartphone
Kumohon
kesukaanku
terpacak
difficult
melaporkan
END
attempt
gendut
sejenis
kebersamaan
rotinya
rongga
##saengnim
struggle
##innia
menajamkan
permintaannya
accompani
Dafran
kesejukan
process
SAYANG
siblings
Organisasi
Gagal
wawancara
yasudah
beyond
UPDATE
LELAKI
1st
31
Aaa
Bh
BT
Bibik
Cur
Cuaca
Daya
Eee
Emmm
GA
Gob
HAL
KAK
Kyne
Lelah
Liya
MB
Mich
MAL
Manto
MOS
Noon
Oo
Oiya
Pant
Pri
Piko
Rab
Sesi
SOR
Saudara
Sinden
Spain
Temb
Try
Tinggalkan
TEM
UK
Udara
Wird
Yya
Zinnia
balikan
ce
cip
camping
dor
dhe
dug
dude
fallen
gile
gently
hesit
iwan
jl
jabatan
jongkok
km
kong
lulusan
molek
naw
pangk
pisah
pangkal
pehal
rar
reli
render
sarat
sukanya
yel
눈
##over
##ochi
##market
##aih
##bong
##lus
##ners
##por
##PR
##HER
##NS
##cely
##sin
##sum
##je
##jokan
##48
##러
##aratnya
##amel
##eleng
dian
diundang
dicium
##aduan
bergi
berujar
kepa
kevin
##aud
terulur
terror
##itasi
memakannya
memuntah
##utamanya
mengub
##idae
##umma
##ungai
inti
##orek
##orokan
peramah
##udak
takyah
membina
merayakan
unable
sebilah
##atie
##andah
##udahan
tuamu
betui
kelar
kelip
##rier
##jazah
siuman
atm
menjamu
menjongket
belon
##egn
##egara
alim
##anyakannya
iss
disinilah
serempak
terlentang
asar
##ungkap
ketentuan
sesudah
kug
pray
aksara
olok
Arina
langsat
memangnya
dibagi
dibayar
ame
amy
forehead
reve
reaction
berhari
kakel
segaris
cerpen
##enangi
jeon
kebis
kebodohan
ditebak
ditransfer
tied
##story
luahan
awake
dog
Berusaha
abahnya
Shil
Aswad
gelar
menganggukan
jamal
putera
pemanggil
##unyikan
goy
mempercaya
spr
spl
neither
##liah
##astis
berduaan
Menikmati
menerkam
Separuh
Memori
Apanya
Apahal
##ARAN
Melainkan
lembur
susunan
smell
##aruwo
pesanannya
buff
pedes
kakakmu
positive
brain
puing
dapati
esakan
option
musibah
##angkanya
grew
Beno
struc
skrg
##okonya
parau
parent
mudahnya
bottle
scan
dijatuhkan
utamanya
Azhar
##APP
Heran
kuceritakan
sekelompok
perginya
gementar
Damia
flu
##vious
untk
ikay
batal
kulo
larangan
Mbah
kubuat
kubuka
friendly
KES
tempati
Pelukan
menyesakkan
sawo
talked
kepergi
greater
cape
instantly
marry
berkeras
indra
sweat
klik
Magic
kumpulkan
Americ
membunuhnya
Farish
menguruskan
continent
Rissa
##gigit
##matullah
higher
Dea
menangisi
kudu
TERK
British
milo
tunai
darling
perpus
Celetuk
Maxim
##arming
subur
tumpangi
ditujukan
##shine
payment
sambutan
produced
terbiar
promosi
People
sounds
Sandeul
hpnya
kewalahan
##IBA
forests
corr
bende
facts
perjumpaan
dapetin
turns
Bertambah
Firas
monkey
risk
robek
penerima
Singapura
gelagapan
Shahrul
pemerintahan
suppose
Ikutkan
##engaruhi
porsi
mengepalkan
Kadir
dompetnya
explained
SUDAH
sepedaku
wonderful
expected
dibangun
##oyoung
ngacak
stranger
urusannya
virgin
Menyamp
gentleman
surrounding
Sembari
certainly
READ
ignore
Ajeng
lansung
sastrawan
somewhat
akhiri
Durian
alive
menyiram
AWAK
mengakibatkan
703
ejekan
jepang
Sento
memasukkannya
dihargai
GELAS
Restoran
experience
reputasi
diikutkan
SAKIT
pimpinan
perniagaan
HYUNA
nmpk
TENTANG
Nichol
Wirdatul
77
91
Bon
Bed
BIL
Dhira
Didi
Eori
FOR
Fasha
Gang
Gor
Gelak
Heri
Hentikan
JI
Kol
KAR
Kahwin
KORANG
Lost
Lupakan
LKS
More
Nara
Nila
Nora
Ow
Odi
Ogan
Rakap
Rabu
Spe
Subuh
Tem
Tutup
UKS
Winda
Word
Wayne
Yans
York
Yifan
bc
bandung
bangkai
cot
cend
dumb
datin
dewa
eq
fase
fully
grip
gaul
ginj
hill
kidding
lali
lindungi
mic
reny
rongak
rileks
sku
sinyal
tdi
vess
xd
yalah
##ov
##oom
##bih
##rad
##nd
##ders
##cah
##cus
##cast
##fect
##IF
##zo
##CA
##다
##처ᄅ
##내
##arilah
##amad
diant
diangg
diva
menilik
mentor
menenggelamkan
##tube
berin
beriak
keis
##engerti
##ison
teralih
##iro
##agan
##agih
##umm
##esif
injur
perab
perawan
perisai
tho
third
##ebas
membedakan
merana
##eph
uni
unit
##ambu
sekawan
##anted
##osongan
##rie
##rick
Always
selutut
selebihnya
menyandang
menyokong
atlet
kepalan
kepunya
kerl
keruh
adakan
admit
##inium
ngk
ngap
ngapa
ngangg
ngilang
##akui
baruku
menghitam
loose
suap
mencuka
makwe
whether
penantian
stars
kesurupan
menggoyangkan
berbalut
makanlah
balutan
Int
Inf
berlibur
berlainan
Tern
pinang
##undurkan
shaking
pengap
pengkh
pengemis
terbuku
Make
Eni
Enter
lugg
##oreom
terdorong
Berisik
menyalin
tubuhmu
Sayap
diliat
didapat
Siam
tengahnya
Selasa
Pake
Chat
Chul
mengelakkan
takutkan
spm
spaghetti
##isted
Soon
bercer
bercengk
senada
noda
bakri
##avour
Prob
eleg
Nadine
pikirin
habislah
Nurin
tergendala
Ahreum
Melody
ayan
##umbat
pedulikan
##mbuk
melepaskannya
##enced
results
digital
background
memaklum
satis
Indian
##uyur
veranda
##ggg
##elinganya
Serba
berterimakasih
tentukan
Keringat
sosoknya
scen
##angkup
letakan
negri
dijauh
##eteria
DIAM
Raqib
Pasalnya
Khal
Khasiat
Bangsa
topic
Hmmmm
pecundang
Kinar
penghargaan
throw
tahta
Maret
Marsya
Ilya
Truth
mantel
major
proceed
recent
Motivasi
greatest
membuangnya
Sakitnya
genangan
doors
played
attached
##ordin
mengecilkan
leherku
rupawan
kadangkala
hakam
mengembuskan
Kyh
Berbagai
Buruan
maklumlah
saje
Kecewa
##UMP
santet
gamelan
Peony
ranjangnya
bored
Felix
helmnya
##silakan
##esokkan
kegelisahan
appears
benderang
Abiyyu
kinds
gulita
sumbang
luntur
말
Istana
##지ᄆ
supply
kirimkan
##EPAS
memaksanya
portal
merawatnya
Hidung
sobek
keluargamu
mengedarkan
spesies
Helen
walls
Ramadan
respond
nganter
chiefs
Monolog
penyebabnya
airmatanya
dropped
Zein
miris
gentle
meningkatkan
krisis
wooden
berkhayal
ditempati
whispered
service
mengganggunya
definitely
##ampiaskan
meletakkannya
terbuai
Sonsaengnim
judge
ejen
Fathih
latter
Film
hazel
kesiangan
menonjol
pernikahannya
Continue
keceriaan
Gatau
mondar
##quare
Kehadiran
physical
gapernah
kacamatanya
appreciate
Daguva
fakhri
mengijinkan
pocket
menemanimu
Uytur
accompanied
bergigi
Maximus
Rakapun
Yansen
##처럼
Bobi
BUKAN
BISA
Cam
DU
EL
EM
Galang
HU
ING
Iwan
Jemah
Jaket
Kring
Kosong
Lemb
Lirih
Mengan
MAH
Myung
MAA
Nagi
Njung
Pura
Pantang
Qays
Qayyum
Qistina
Ril
Rec
Rich
RASA
Singkat
Such
Sape
Ty
Tunjuk
Tengg
Ut
Wangi
Yatie
Zaryn
aik
bolak
bts
cit
cucuk
dulang
gada
gym
jj
jay
kilang
kentang
lampai
lafaz
manj
megang
mouse
ojol
pita
pout
pirang
ponteng
quran
rew
race
soleh
sarapannya
tie
tick
tajuk
yng
yeke
##rika
##rast
##raktir
##ralian
##nu
##dpe
##EC
##war
##wani
##corn
##sanya
##OOK
##qq
##ᅵᆫ
##ZZ
##XX
##anor
##erved
##aron
##aringan
##amana
dick
menidak
menutur
##tukan
seusi
##aded
beramai
kegug
##engs
##aukannya
terangkan
teruna
terulang
##itmen
memenc
memapah
memfokuskan
##uternya
##ekk
##ornya
diajukan
##eds
##awon
##eback
membuahkan
mereng
merobek
merengkuh
##imbangkan
##ehh
adab
##ambakan
##ometer
##udahi
kelulusan
punat
##osis
dalaman
tersarung
ato
##intir
menjengah
menjodohkan
adrian
ars
mendominasi
meyakini
##anyu
distur
kenyamanan
mencetak
terlontar
kuah
peninggalan
sof
keseri
bukanya
##unggingkan
##indih
prim
preman
pregn
berbakat
pelip
pelakunya
kembalikan
kecok
berjen
berjaket
berjejer
##atangi
berlawan
berkerja
berkarat
langsir
##epatah
heat
dibina
amis
halangan
manakah
mansion
manfaat
apik
##isions
telanjang
telatah
bebatuan
atasan
shift
terburuk
ditawarkan
berpegangan
luang
doaku
Berubah
abound
giat
dikec
Shit
weapon
Asli
Akibat
dilantai
pemeran
nyoba
mempergunakan
mesjid
percikan
activ
knp
##utusin
embar
Whatever
sejajar
byk
perasaanmu
Hyunji
##adarus
khilaf
dihentikan
pembuka
pembers
pembantunya
iyalah
##ize
##ersihkan
surut
Males
Ahli
##ombol
drag
drunk
susp
click
ajal
##turan
intai
pipis
Keku
Keiko
kejang
##kumat
Lutfi
Tiba2
syg
obs
urut
skenario
mengingatkannya
Manal
##INYA
larian
dicu
Seram
firm
SED
Wajahku
construc
tepis
dekapan
tercampak
Bolehkah
##etulnya
##elanjaan
kiranya
Begitupun
tembus
perangainya
binar
Melihatkan
dadakan
bestfriend
Ilmu
dokternya
mengenalku
menyesali
Balasku
termasuklah
##URU
Joey
ekse
##IMA
pahami
Akankah
##ULU
diterimanya
Ummu
reality
magn
belahan
Reni
bonus
Silakan
keeping
menyamping
planned
Nyokap
distant
memejam
Makanlah
increase
garuk
garasi
events
subs
points
seniornya
THAT
games
memulas
Secepat
undur
product
mencurigakan
nafikan
085
KLCC
##IDUP
berbuah
Jalanan
posts
gabakal
regular
Australian
material
prepared
Kekasih
Ryuda
failed
jogging
Hwang
godaan
mencengkeram
syukurlah
judulnya
likes
rindang
details
lantaran
menyisir
berkomentar
contohnya
APL
hanee
PASK
Menyadari
receive
menimpanya
Gizz
rentetan
menyimpulkan
##uccas
Amanda
Yasin
Moluccas
Sukin
considerable
kafan
kimia
##388
dialog
During
##ENDIRI
membencinya
dibelinya
Pilihan
fifty
laser
bimbingan
melesatkan
Daehyun
fizikal
없
takleh
dihadapi
ekstra
Andrea
Kukira
Lokman
cecair
keseluruhan
absolut
KASIH
kepribadian
Senjata
garden
particular
Fahrezi
Vietnam
Perhatian
Yafit
Yulani
SEGALA
religi
Kyhera
52
AG
AIR
Aamiin
BARU
Ci
Cih
Cor
Cup
Dz
DM
Dodi
Doyoung
EP
FIR
Full
HR
HAHA
Hesy
Isi
Kaka
Kons
KAB
LA
Leb
Lian
Line
Lewat
Lutut
Mengar
Muth
MAMA
MALAM
Night
OL
Pamit
PADA
Sulit
Sukar
SUKA
Tap
TIBA
Wed
Warl
Yee
Yudh
bilah
bread
cie
cekatan
debat
dekati
ehhh
fiction
gpp
gunting
gawe
hing
haj
hilir
jat
ly
lengk
lisan
luput
num
nadi
nong
nine
nug
panti
petak
sched
ts
tiss
wing
woy
##bye
##rass
##like
##pm
##pai
##gok
##cer
##cur
##의
##ᅩᆨ
##ane
##erable
##ako
##ateg
##arh
diari
diorg
menantikan
##kuit
##tut
seir
##kanku
##ader
berumah
memek
memarah
##ongi
##onong
perangkap
##tig
##awl
##ables
membentur
merasuk
meredam
##tukah
uns
sebiji
##ibawa
##ekaan
kelingk
##ahuan
naksir
Alas
Alena
Although
sell
selidik
menye
menyilang
menyarung
##intahnya
##uarin
belajarnya
adap
adop
##icy
ngajar
ngeselin
mendirikan
##ukuri
alun
aldi
aldy
meas
karung
##afik
loving
yaampun
sampeyan
suck
suasananya
serunya
mencinta
mencolok
mencekam
##obanya
##obia
##obrak
##echless
penunggu
penyam
stairs
kesat
kesalnya
pasangannya
bertel
bertekak
sendi
menggun
menggengam
berbelanja
pelaku
setara
##ANY
Perli
sepucuk
##artemen
bergolek
bergeser
besides
shi
malamku
Makassar
jalankan
berpuluh
lugu
kalih
balikin
chinese
dikampus
dilepas
upd
frown
nyusul
nyetir
Amy
Ampun
memperoleh
gais
gaze
##oyor
neat
noise
memasangkan
Elina
Menuju
panggilnya
terhalang
sejurus
##inginkannya
##ondok
Sepulang
##hano
surabaya
begadang
dimak
##ardik
basement
persimpangan
merahnya
drp
Isnin
nafasku
##tupan
terjalin
Italy
soalku
##ector
ajha
royal
##autkan
teguk
serigala
memakaikan
mahram
grass
careful
SMS
termangu
skill
becak
nowhere
Syuk
##tifkan
kagetnya
##arsih
mudahan
tepukan
sco
dekah
Darwin
##timbangkan
Haruto
Sehari
pelajarannya
Memberi
Membiarkan
imbuh
insect
2013
Ataupun
tipikal
perbelanjaan
jariku
Ingatan
semangatnya
##ISI
jawap
salma
penghuninya
threw
batalkan
larg
moden
tahunya
celaka
Pener
almarh
denga
KET
bedah
mantera
Segan
recomm
Edo
kusadari
gundah
deck
##rrrr
Orb
klasik
laborat
Bahagian
Wanna
pegun
Aduhai
Teriakan
Pemandangan
accep
bonae
menyebutnya
menganggapku
June
daranya
kapten
simpanan
Roti
Secret
legar
promo
dikenalnya
Hahahahaha
berselera
enteng
dihadapanku
pantat
Sunjae
##agetin
mengumpul
kukatakan
Hangul
Berdasarkan
favoritnya
맘
checked
cuping
Reading
##TION
disekeliling
mencerlung
viol
interested
iras
varied
memantul
propor
Jihyun
gambarnya
Rathano
culik
bringing
walks
hayat
portion
Hidawi
janjiku
generasi
sipit
iparnya
dipegangnya
Wataru
tolol
mistis
surprised
cleaning
uhuk
##imbangi
mentioned
locker
viral
stalker
screamed
Pheline
mengucup
woozi
menjejakkan
TAHU
individu
Persahabatan
COMMENT
mendail
Macassar
dorongan
Buset
##EMPUAN
Fikirannya
weyh
sekretari
sekretaris
menggodanya
persembahan
teriaknya
goblok
science
##oterapi
laknatullah
##anization
Pocan
kehamilan
dihidangkan
TUHAN
Eleanor
##enggaknya
bottom
BALIK
nilainya
bekerjasama
muslimah
professional
Samuel
Noona
memuntahkan
goyangkan
Warlock
Baw
BAK
Bekas
CL
Dark
Dyak
Fer
Fika
Fore
Fatin
Gug
Gig
Hen
Hospital
Honey
III
Kalah
Kend
Luk
Lamb
Luci
Mampu
Muaz
NAN
Nina
Napas
PA
Papi
Paris
Puji
PANGG
QU
Rapat
Rasakan
Roni
Rintik
Sant
SEN
Sabah
Senyap
SINI
Sarees
Telah
Talk
Umpat
Vis
Wi
Wil
Won
WEH
Wrest
ati
aib
ahead
bujuk
bumbu
bihun
dm
dentuman
fasil
gum
iP
jo
kog
lubuk
mangkok
maruwo
nengok
pill
page
pauk
psych
rus
ss
soto
tuli
tabung
vano
woke
##eah
##matan
##bil
##buk
##bae
##rok
##las
##haha
##hile
##dr
##koni
##SE
##HA
##sar
##seng
##sor
##vino
##ᅵᆷ
##ᅥᆨ
##erakannya
##atri
##attered
##alo
##aled
##elin
meneka
menayang
menidur
menanggap
menipis
menanam
menongkat
seutuh
berambus
##ikeras
##ising
tertiup
tertipu
memantau
memijak
##ulk
##uler
##ulingkan
##agat
##urukan
##utannya
mengar
menguntum
mengandalkan
mengorbankan
perancangan
##etles
ther
anno
##ajalah
##olved
membalut
membimbing
merentangkan
merenggut
##epin
##epsi
meluangkan
meloncat
melewatkan
##aces
##omend
##oton
##antilah
niatan
nick
##entik
Alia
Alasannya
Alzana
menyiku
menyandar
menyarankan
menjamin
##anggg
##anggih
kepalang
bersifat
bersikeras
arak
ngam
sangk
##ukuli
pulling
karir
barely
menghina
disp
mencipta
kemajuan
##ipun
##ejamkan
berdampak
katapun
##unggung
##indar
pras
preci
mengget
menggangguk
mengguyur
nyala
berbar
pelajari
balkoni
berjauhan
##sianya
berlian
berlepas
seorangpun
dibesarkan
##ebutkan
seger
##undar
Perancis
separa
terkait
pertempuran
##hhhhh
jea
hadn
Add
##impah
nantikan
kaleng
chap
##chie
dikas
usil
hidupkan
##umputan
dipad
dilanjutkan
upper
##entukan
notes
nyerah
Selanjutnya
Chibi
pls
##istik
bercat
badm
##ancong
senda
mencarimu
tray
terhitung
jatuhkan
exh
elit
dihadiahkan
pemberi
kekayaan
kekosongan
ambisi
Masya
Melur
pakaianku
menyeru
english
sengsara
Isteri
Islands
##deed
anggukkan
postur
tungguin
peac
memerli
Tiera
##ngn
fikiranku
sisanya
ruanganku
Sejarah
syetan
strategi
urutan
##issed
parit
pojokan
dicampak
thankyou
petanda
busana
temenku
happens
tepian
ajaknya
Membawa
Memberikan
baguslah
jugaklah
yahh
melirikku
Niana
perbaiki
pecut
deru
##ensinya
nasional
##artial
ikh
##etary
pintas
##ledge
wrapped
celoteh
baur
keningku
Usaha
bertutur
menjauhinya
dengki
##ILL
mengenalinya
tokouw
pijak
pencerah
kendali
Other
genus
lipatan
kusam
luasnya
Aditya
swallow
Laos
puisiku
##aaaaaaaa
kerumahnya
informed
bersihin
camni
PEREMPUAN
Naswa
horses
apply
Kecerdasan
faktor
color
kontrol
Luthfi
hurts
lakonan
menunggang
charge
born
ASP
ASAL
kewujudan
explore
postingan
educ
rintihan
aiskrim
##ressed
summit
sapaku
cengiran
apartemennya
BUANG
transport
Pesanan
Bylia
jumpe
SIAP
characters
colours
coloured
mengungkit
jiwaku
mukena
Uhuk
races
membangunkanku
mempelawa
##erjanya
conditions
packing
assalammualaikum
ancam
didepanku
mengayunkan
auto
kesetia
introduced
karenah
menumpahkan
##alaikumm
Tahulah
Tahniah
mempercepatkan
pieces
shooting
boby
discuss
Pov
lecturer
nyamuk
bowl
BANGUN
penyelamat
purpose
Jarum
menggangguku
range
##ogoti
membenciku
kerusinya
berkutat
##ograph
terpacul
branch
Garuda
memilikinya
mengikhlaskan
honestly
healthy
majikannya
##ointment
literally
menggodaku
ambulans
wkwkwk
equally
HANS
runcing
merapihkan
##jemahkan
Seokjin
Hiruma
obliged
dibahas
client
rimbun
Kapten
rupiah
memijat
merosakkan
Perpustakaan
##ografi
##IGHT
##venteen
Astagfirullah
hwesio
nobody
CEPAT
Tunggulah
sneak
menyejukkan
Crescent
GUYS
medicine
rarely
MAAF
menidakkan
Yudhis
drpd
Wrestle
Aunty
Bac
Barat
Bisu
BUT
Cent
Cint
Cuman
Dul
Dinding
Eti
Four
FAT
Fikiran
Gas
Gevan
Hender
Ikan
Jikalau
Kl
Kire
Kondisi
Lim
Little
Lapar
MIN
Ntah
NYA
Ohhh
Obat
Pes
Pop
PAN
Pump
Page
S2
Tajam
TET
TADI
Tambahan
UL
Ujin
Vany
Warung
Wijaya
Yess
bima
baikan
cand
cro
corong
dup
dasi
dampak
deli
jet
joke
jikalau
jahanam
lambung
lirikan
million
ndah
numpang
oil
pt
pd
poyo
panggang
rung
rentak
rocks
sandang
sotong
tl
wave
##yh
##oib
##rel
##ier
##nk
##ntum
##uasan
##pi
##huni
##EJ
##EAN
##carl
##joon
##xy
##99
##Mu
##자
##enandung
##angah
##akum
diet
menenteng
##unity
seek
seok
seangkatan
beracun
##ission
terfokus
terkumat
##irul
memar
##agakan
##ukarkan
##utas
##ids
##idai
##unge
perman
##tiar
threat
##daft
##ayarnya
##eber
##ebunan
##abul
##abuh
membiru
membonceng
membangkitkan
merata
##eper
##ampanan
##ehow
##oks
mass
sebungkus
##ambaran
##omay
##otik
##oted
ornam
##endali
##rior
Albert
##upah
selim
terseng
menyepak
##uarkannya
kepingan
belia
ofis
berserta
arr
argh
##icu
##icya
##icate
ngaw
##ubs
mekan
menghafal
kenceng
sampek
terlopong
##ujuran
ketidur
ketampanan
berdekah
berdiskusi
south
pros
awhile
menggali
menggemb
berbulan
setitik
setitis
berlaga
berkemas
dibakar
appl
math
Perj
Perih
dirampas
pertahankan
besarkan
duaan
shape
mungkinlah
kebas
terbantu
diteku
ditegur
ditembak
ditepis
tertata
berprest
Engg
Semarang
chim
lazy
##akapannya
##umpalan
dipungkiri
cousin
padu
##emuanya
##ellent
sihh
##tail
notab
##unction
goyah
kehormatan
##mais
ikutin
spring
acakan
gerbong
##istal
bangunin
##ocal
Aylin
kuatnya
kotoran
trade
troli
Iyaa
panggilkan
menerim
perkemahan
meninggalkanmu
examin
dihabiskan
Memiliki
pendengaran
bagas
blik
knowledge
Masukkan
base
tergoda
Biyyu
situated
persekolah
bismillah
biskuit
smoke
buahan
burn
bungsunya
Beauty
puzz
##impiade
teguh
Jawabannya
mengalun
syari
##ihanna
##weet
bayinya
becanda
silau
##INA
dicintainya
panasnya
Haicarl
gelapnya
##esekan
lets
task
heads
##lisher
pergaduhan
ngomongnya
menyusup
tips
Sammy
##ongkong
##ossip
hias
kriminal
penghalang
pintaku
kekuatannya
buluh
celik
kutahu
kutemui
friendship
KEP
Sekalipun
stopping
komputernya
didnt
simpen
mengintimidasi
Joongki
jeles
kerjasama
pejamkan
Edward
related
Habistu
swift
Tariq
shows
sokong
gantian
dikatakannya
##kenalan
##ucapin
ungkit
ungkapan
tindak
Alhamdulilah
extensive
consid
Celaka
Blue
##ological
185
Hidupnya
metal
sandaran
runs
snap
Roji
mewarnai
pelukis
##insula
derasnya
Haihh
menjelajah
Letih
Sandi
Felin
Felicya
cabe
cabin
rokoknya
Javan
armornya
pendapatnya
Duduklah
ndelok
tunggul
Meiyn
Hafsah
##iayai
Istrinya
##OOOO
##dinary
Without
kebenarannya
menghalakan
mungilnya
mengungkap
windows
yoongi
lagunya
Bakal
ukur
Kritik
Naim
hayra
janjian
produksi
IST
ugutan
NGAN
memberitahunya
channel
fighting
diperbaiki
tiny
kutub
cooking
Zamani
bersepeda
naluri
Sakti
kpop
Pangemanan
karib
##notis
memuncungkan
njir
akademik
savage
Groungai
response
penyayang
nggih
extreme
menghidu
Oliver
memanjangkan
existence
Haidar
carrying
neighbor
Niatnya
towel
##ruksi
##cheoreom
mengenyitkan
taktahu
Kantor
released
keramik
ngurusin
menengadah
berdesir
ampuh
srs
thinks
sketch
berpenghuni
Presiden
Fitri
ijab
Workshop
crowd
MATA
berpendapat
patient
보내
menghapuskan
victim
Birthday
Simon
necessary
pelacur
industri
Kontrak
tadika
folder
##enchana
penglihatannya
najis
wudhu
Handsome
pemikirannya
alkohol
berpenampilan
Steffi
ospek
prefer
structure
Menyampah
xdpt
luggage
memencet
pregnant
embarrass
PASKIB
seutuhnya
precious
Hendery
##oiboy
ketiduran
berprestasi
Pangemanann
Aqu
AJA
BP
BM
Ban
Bahan
Dila
Depan
Eas
Fuck
GO
Hmp
Hist
Huft
Jl
Jodoh
Kri
Kabar
Karta
Kampus
Laa
Lantai
Lola
LALU
Mant
Mod
Masakan
Mori
Nir
Paul
QS
Rihanna
Samb
Senti
Simp
Tk
Tal
Tas
Teg
Tind
Vadar
Yet
Ziz
audi
bai
bib
bump
bog
bound
bintik
corak
cave
citanya
eee
fasih
fold
grey
gopoh
hapus
hebatnya
ihh
jemu
jumat
kru
kwn
lwe
langka
langgan
loncat
muh
mok
mart
mabok
nu
pp
rm
rough
rendang
rushed
tabrak
uz
vel
vira
weren
western
##eef
##mur
##mbuh
##basi
##rew
##lima
##upaya
##hit
##sesan
##vina
##DP
##ᆭ아
##eraian
##enci
##angun
##ahtera
##aten
##atung
##arja
##init
##inning
##aland
##kutif
##apung
##aparkan
sekan
##adhan
berawal
keuntungan
keadilan
##ilasi
terurus
##itinya
##itement
##ukirkan
mengukur
##ument
##esaran
periang
##udikan
##uduga
anu
anakan
##ederhana
##ayut
mertuanya
meragukan
Akulah
unf
masin
##ibet
##othing
##gie
##entera
beer
##upsi
siomay
tersambung
menyender
menyunggingkan
kerna
belanda
bersaiz
ngah
ngamuk
alay
barengan
mengheret
disy
##ilaan
baharu
menci
mencibir
##ipe
##anjangan
whit
##obak
Anep
kualitas
station
stated
bertatap
##capaian
previ
prajurit
awam
masuklah
berbuka
berbelok
pelupuk
pelakon
enaknya
Interior
olimpiade
amin
##ayangi
thats
sahutnya
terkilan
terkagum
taught
Dij
shell
kebodoh
terbongkar
Adek
Enam
doain
menyamar
chingu
Sebastian
Yaelah
diket
##essor
dipaks
weight
cock
cogan
terpadam
##ellig
dilipat
Selena
Selamba
##ropa
kehebatan
Chika
##ompak
mengerahkan
senarai
bermunculan
##ERE
##ikus
menerjah
perkebunan
Hyos
khal
leaf
dihina
dihujung
dihidupkan
kekehan
bagg
##enggok
blow
bless
Ungk
lihatnya
lihatlah
##ardin
tergopoh
Ahn
persen
motion
Sudahnya
carikan
##ingankan
lemon
##turut
##esiap
puja
##uality
petual
memeriks
wanting
getah
Harimau
opport
teguran
digantikan
mahk
Erika
gras
kampungnya
##entingkan
desakan
obses
Orangnya
ultah
penyihir
terakhirku
##itty
##andingi
dicampur
Start
Keren
##pring
##asarannya
Raykal
Nabil
tercegat
Membaca
sukalah
tugasku
##lise
##toria
inspir
rahasi
hangout
##untutan
papaku
##IKIR
bull
Mirna
tangisannya
Penasaran
Dista
Kakakmu
KEPADA
sekelilingku
tempuh
menyukaiku
Jojo
sadness
##beza
menyakitinya
lipstik
Yahh
Bersambung
swim
umurku
menyedarkan
Online
dikuak
magis
accord
menghiraukannya
Nyari
mengerjapkan
kuduga
memberitahuku
tindakannya
Pipinya
Serious
driving
menyalurkan
menghindarinya
ditump
Dewasa
tabungan
kumohon
kegiatannya
Demikian
nahas
##kwkwk
Raharja
Faizi
Najimah
##inspirasi
jagoan
meaning
Bibirku
deeply
iqmal
tenggorokan
titisan
raung
telponnya
monitor
Untunglah
wondering
seconds
ARE
rosakkan
Sambungnya
usiaku
menyembah
brothers
Keyla
dimasak
sobat
##visor
indigo
bgt
diperbuat
SEBAB
mengatakanya
Jessy
jumlahnya
ramalan
mengucur
Nazifa
palms
fixed
Event
melengking
lentera
menghidangkan
difficulty
sosej
tontonan
CERITA
Capek
Subhan
sejenisnya
menyipit
menyipitkan
cultivation
meremehkan
meleset
International
greeted
melindunginya
diperkatakan
identical
becomes
collecting
precip
settled
rukyah
shrugged
rogol
kesuksesan
dinyatakan
dipermainkan
kepenatan
archille
##firmasi
Sunday
Victoria
Chelsea
kerisauan
almamater
beranggapan
mengerucutkan
TOLONG
keletihan
issue
skuter
elegant
Richard
magnific
absolutely
numerous
menanggapinya
ASPi
Sentiasa
Vadarajan
33
Aah
Bub
Bohong
Cas
Dian
Dwi
Edi
Gur
Guang
Gurau
HI
Hangat
Ig
Kesan
Kotak
Kawasan
Ly
Ledek
MA
MC
Mentang
Mantan
Parah
PIN
Patah
Qal
Said
Satur
TR
Tam
Tun
Tut
Tawar
Titik
UG
Udan
Uzir
Vishal
bone
dung
ea
elah
fana
fatal
ferns
genting
hint
ijazah
jalang
jemaah
kw
kaga
kentara
ling
lapak
lintas
mum
muter
nomb
nape
parang
pingin
petik
pamer
panduan
rin
remp
riba
rangka
sakan
syn
tom
yess
zuri
오
##eu
##retary
##lian
##pite
##hon
##dal
##word
##cl
##school
##zou
##CT
##923
##로
##enengan
##injak
##alisa
##aminya
##emur
##emahkan
##asing
diuji
menuang
menoyor
sejadi
##iken
##ikmat
##engin
##isme
##iler
##aulan
teralihkan
##itipkan
mementingkan
##ulir
##ulations
##onika
##uts
##utunya
menges
mengasih
mengunt
mengambang
##umit
##esahan
##ektur
inqu
##etta
diajar
##ajarkan
##edy
##edor
##ederakan
##ayaknya
membanjiri
membunyikan
merang
merch
merendahkan
merhatiin
##eps
##imba
melambat
melebarkan
ung
inikan
sebel
##oman
##oten
##otanya
##otec
tuanku
niesya
beetles
kelakuannya
##oser
Aleta
selak
siaran
tersangka
terseret
menyibuk
menyombong
menyegarkan
kepuasan
keris
adem
bersalam
bersaudara
arryan
ngalah
ngisi
ngetuk
##rav
menduduk
melihatkan
##anyang
##inggan
bare
menghambur
disihir
kenak
##uansa
lovely
bene
seruan
serangannya
mencakar
terlupakan
kemati
##iputi
##ejaman
berderai
##anjal
##ewanya
##obot
session
kuingat
stock
sout
##ungguhan
jadiin
bertempat
##capun
prolog
menggug
masukin
pelajarnya
balang
akn
kecupan
tanp
kedokter
setempat
setangkai
Arul
Arsyad
berkar
berkons
##ucat
##ucin
waste
dibuli
forth
reuni
segel
Perintah
depanya
terkini
terkekek
terkesiap
pengob
pengakhir
##arikh
tertunda
Merek
berpijak
terdampar
abrupt
Setuju
Setiba
Seusai
chur
##ingkal
gives
usha
Asian
Asma
Asalkan
Theo
frag
pemegang
##unced
##arkiran
mempers
Chry
mesum
plot
bangunlah
mengambilkan
bercak
bermul
emaknya
emergency
secawan
train
sejumlah
##ulainya
##untik
khidmat
elang
##ART
Ahad
##uguhkan
persediaan
Allahu
ayolah
##umbuan
##incar
pesanku
buaian
senangnya
##fft
mulutmu
##engkapi
mandinya
saye
Leo
Keti
##ingungkan
Hariez
diger
digerakkan
remain
satell
Sejauh
urg
ulat
diperjalanan
petani
Ibarat
Manaf
Kelam
Kelompok
susahnya
Buto
dijumpai
poni
kucoba
pergaulan
perhatianku
crash
Khus
Khai
Banget
##ELL
##abrakan
Saleha
rahsiakan
Yuen
derm
derap
##quet
sales
##ausaha
kacukan
keberuntungan
memperhatikanku
tahukan
wrist
names
Usik
Usia
dinaik
dinikmati
mengajakmu
mengenalmu
bedua
merenungnya
kabarin
Kebahagia
tertutupi
Edry
marilah
glanced
kolom
kuputuskan
jodohnya
jinj
Radolf
attend
swamp
cintamu
labour
sokongan
excellent
POW
dikucup
Waalaikumm
membunuhku
magrib
gantikan
gengaman
##tainment
Jongdae
delight
keeps
classes
classmate
kesedihannya
supermarket
niatku
amanah
tunaikan
Sofyan
confident
Jenab
Blayne
Dadaku
Nasirah
Membuatkan
disebelahku
Room
purch
speed
speechless
Rahasia
##IIII
enjoying
products
twice
jagung
promised
border
medis
birai
berperan
tirinya
profil
profile
ingatanku
Masuklah
raih
kebiasaannya
##injit
berkunci
monolog
joined
pastilah
sulungnya
ngebuat
jumped
HAHAHAHA
solusi
volume
Perangai
meminumnya
leluasa
presentasi
##himpunan
melingkari
roads
Pikiranku
Ustadz
Watak
##rupted
Holmes
Bayi
ummi
##kraine
hundreds
suaramu
terkelu
Girls
Batinku
kesalahannya
rule
dibenci
membungkukkan
Ikhlas
##etuai
Kirbasi
dijalankan
saraf
tower
Hurm
tradisi
membebaskan
Idih
ditelinga
ukiran
website
Catatan
cultivated
YEAR
runcit
illust
pupus
Tablets
Nisfy
mengiris
mengaduk
pewaris
sepantasnya
pandailah
occupied
merutuk
kontrakan
memperjuangkan
instruc
nolongin
ocehan
kecapean
alumni
terpajang
luxuriant
##면
meregangkan
menceritakannya
foward
selipar
dibutuhkan
nawarin
penerimaan
77388
renyah
menuturkan
merengut
Muthu
##daftaran
baggage
magnificent
zuriat
##92377
7738892377
34
37
Aig
Bim
Batu
Bicara
Cy
Ceh
Du
Disi
Ez
Eve
Ever
East
Fast
Frees
Fuhh
Gilang
Honda
Ich
Ijo
Kaca
Lidah
Mcm
Nunggu
Pengg
Pusat
Run
Ring
Rae
Ryu
SUR
Taw
Tali
Tabur
WAK
Wenda
Yol
bre
bill
bought
bongk
banks
cil
citer
canggih
ease
furn
gumpalan
gossip
hend
hole
juru
jangkung
kmu
kre
klise
link
lampau
lpas
losing
nau
nata
nempel
nareul
paus
ront
ringk
rase
rank
rush
resign
site
taat
tuntutan
ven
wasiat
yya
yaw
za
zar
찌
##eor
##ega
##ekut
##yinya
##oya
##mut
##mata
##mare
##br
##bs
##book
##ratnya
##roll
##romi
##iyn
##latnya
##tog
##ugh
##pond
##pahaman
##had
##kap
##SM
##NY
##com
##sst
##2nya
##66
##MY
##😘😘
##enaran
##angunan
##akalanya
##akkk
##arjo
##amis
##aming
##amed
##elanya
diubah
difikir
ditimpa
menangan
menahu
meniru
##kur
##kuat
setibanya
##adia
##itaman
memad
memungkin
memutus
memaham
memancar
memakainya
##ulam
##onjak
##uriken
mengeh
mengint
mengunc
mengagak
menginter
mengimbas
mengukirkan
itukah
##ekalkan
ina
intim
inves
perwak
perhimpunan
##udukannya
##olla
##ede
##awain
##ebah
membekas
memburuk
membez
membongkar
membohongi
merahan
##epend
##imm
melang
melek
melampiaskan
##eher
##oka
masej
##ayam
semanis
##andikan
kamus
##giatan
ordinary
##embara
##pers
##oso
##osite
naklah
Also
##empan
##upaten
tersembur
menyem
menyib
menyengir
menyarungkan
menjegil
keri
keriput
belang
adzan
bersemu
berserah
aren
alangkah
alwi
karo
karet
##ianatan
##inggg
##inggang
##inggah
barus
menghidup
bahasanya
serab
mencucuk
mencurahkan
terlarang
kemar
kemerah
ketegangan
Anara
kuambil
pendaftaran
stone
kateg
##indas
bertem
##alazim
pram
menggamit
menggoreng
nyadar
macamtu
pelarian
temper
ball
##opok
##opsis
setting
bolehkah
berlum
berkic
##ucai
fort
olehku
matematik
##undung
telak
Perbualan
sepiring
haaa
airc
shin
shown
pengasuh
terbentang
angga
ditaruh
##unjal
berpegang
Kenzou
Berbeza
baliklah
Setia
chuyen
##chang
dikeh
dikend
##umpas
terpakai
Ass
jaminan
Kakaknya
kehitaman
agamanya
Heyy
sayangku
Amira
##mairah
perlulah
perlomba
##ERA
secer
youre
Elvan
Menengah
kakiyama
terhuyung
menert
Suz
penuhi
##antasy
dihulur
pembukaan
pembangunan
##abarak
habisnya
matiin
bags
##enggan
amboi
Malnet
Malaikat
tengoklah
naikkan
basikalnya
teater
persek
persalinan
menggelikan
dramat
biskut
bualan
##ijikan
lapo
##venet
ehem
2000
comeback
getir
opening
digendong
mempengaruhi
maho
mahkota
Erkan
gradu
desperate
Vania
verandah
tajamnya
##niture
telefonku
lifted
tercekik
cowoknya
slalu
Kalim
pekerjaanku
pergerakannya
penjelas
tulisannya
omelan
rahangnya
pecahkan
compet
menghadapinya
coklatnya
putusin
kritis
kunti
pintanya
membelinya
cheese
files
Peluh
##TUS
chatting
pacarmu
Segalanya
singing
##aktanya
##EMB
kerjaku
pejalan
genit
relief
mangsanya
jodohkan
mengejarku
staying
Kimmy
##aekw
excitement
realita
lumrah
lebarnya
tudungnya
mengurat
Mendengarkan
followers
##ssss
karyaw
menghubungkan
Nyata
kudanya
kudrat
kondisiku
January
daratan
##iasat
##armila
Siapapun
munafik
appar
semacamnya
disebutkan
faraj
gangguin
keterangan
ASEAN
Felia
Kehilangan
##asalahkan
create
visited
Jeritku
##IHAT
##urnakan
lights
rintangan
Plus
Bertemu
riset
Give
merindukannya
mendaratkan
Tepatnya
wondered
ditempatkan
mengabaikannya
keyboard
concer
##AAAAA
menimbang
address
flood
Ryando
##prise
faces
Kadangkala
aktivitasnya
kambuh
mengemaskan
mengemudikan
autom
divided
Komeng
ranselnya
privasi
Ujian
saranghae
mengenainya
Safaat
Zeeta
Zealand
berasap
berkecai
Jesslyn
steep
Aminah
menjejak
Cinder
lempeng
society
described
honeymoon
nyelonong
AYAH
mendaftar
knocked
Fakultas
golden
memicit
kerusuhan
keinginanku
syahdu
Vinca
fifteen
KEMB
assistant
Bulet
perkuli
fields
release
Gedung
menghayati
Mohd
Mistress
pijakan
Mampat
Martabak
cancel
establish
perwatakan
Ekspresi
paranormal
Revenge
berceloteh
constantly
Jendral
pelataran
naif
Bundanya
Tentunya
bertempur
eyebrows
maksimal
kencangnya
energy
Bantal
Blood
Fuchsia
mengoceh
diajarkan
meredup
terjelepok
occasionally
mingguan
##AKARTA
saudarinya
SORRY
amylia
American
jjirit
fasilitas
menggetarkan
##maisuri
persekolahan
BMW
opportunity
Freesia
325
AJ
Aff
Bra
Banj
Boc
Baek
Bisikan
Banyu
Cincin
DE
Die
Down
Darso
Fe
Form
Free
Game
Ganteng
Gomawo
Hong
Hajah
HANYA
Huruf
Ianya
Iti
Ijah
Kutu
Knight
Lag
Leg
LAK
Layan
Lanjutnya
Lusa
Lentera
Made
Muara
MASA
Naya
Ooo
Pek
Peg
Penang
Power
RS
Raya
Rendi
Sor
Semp
Sifat
Tih
Tangga
Tuf
Wond
WAT
Warga
Yanti
YAH
Yaitu
Yasmine
Zaman
acap
bn
bf
bam
biri
baku
bangk
banc
bkn
bodi
cun
dash
dgr
ep
garing
gempak
hemp
hhh
hits
hambur
helaan
jant
kental
len
lack
lee
lmb
lenc
lagak
lizzie
nat
nebak
oii
rise
sas
saksikan
solek
square
tai
ttar
tamatkan
tender
tamak
vu
wani
yester
zakar
zayn
기
넌
더
소
##oos
##rim
##rimu
##lab
##tasi
##uwo
##gawi
##kt
##kes
##ked
##kom
##NI
##cy
##fah
##jikan
##80
##45
##YUNG
##OI
##Fil
##32
##30
##Bunga
##만
##enai
##eninggal
##angsa
##arisi
##alus
##alent
##amaikan
##asku
diendahkan
seusia
seventeen
berib
beraninya
##ikil
##engung
##isimu
##ils
##ilaukan
##aum
terutamanya
##iton
memo
memintas
memarkir
memamerkan
dand
##uro
##urs
mengiring
mengiakan
##idas
##idently
##aries
##ekalan
perintahnya
##ties
##etengah
aneka
##edo
##abisi
##abaikan
membut
merunduk
##adaanya
melt
melun
melec
melenting
melodi
meluap
##okh
##oked
masakannya
##alamu
##omy
##omanya
##iburkan
andra
Alamat
selai
terseksa
menyuluh
menyimak
menyudahi
menjambak
menjagamu
menjegilkan
kepsek
kerat
kerek
bersenj
bersenandung
##ict
ngagetin
##ubby
dahaga
##egahan
alan
meal
##anyut
menghasut
kancing
kenape
benih
suis
suapan
serik
serve
seraut
mencobanya
terlewat
terlukis
terlonjak
asc
##engarah
##ungkapkan
##ipnotis
ketara
berdatangan
membuatkannya
##eca
penolong
peninsula
stall
standar
soil
##saor
Takpelah
kecuri
##oph
Inara
heroin
Arum
berkacak
Terc
Teruskan
Teruntuk
reasons
manage
berhijab
tengku
##erainya
saham
cerai
sepeng
sepihak
dirancang
terkendali
##entikannya
##arty
##ontot
##iey
Div
##buhan
pengupah
ditanggung
Adhi
Maknanya
dekatku
Kenc
Reika
Berku
Berangan
Berder
Berulang
abg
abinya
chall
menatapmu
diketap
Sharmila
dipake
##inea
terpukul
terpenc
terpikirkan
terpaksalah
##emuannya
dilema
nyer
agen
agensi
Than
Chim
sempena
Soo
##aze
mengering
secu
##ique
Menulis
terhantuk
sejatinya
Suaminya
##untungnya
Protes
letupan
##uliah
pembah
##abarin
Memilih
kekejaman
panahnya
surve
Under
Aws
##ugut
menyerap
demit
demand
drill
smbil
##inced
pedal
Ismail
lapisan
Ngel
anggapan
inton
willing
malap
Kegiatan
kejujuran
Sedetik
memaklumi
remained
kisahku
grade
munculnya
caring
carilah
##ahahahah
Izrail
##ENA
deer
struck
##ASER
Macamlah
dipers
berkuliah
quotes
pinggangku
dicabut
kawad
##atural
Keluhan
SEC
police
hubunganku
scary
Angkat
longlai
tampilan
usahaku
2014
KuFil
Salma
omah
peliknya
jenaka
kirain
##IST
##tivitas
gorden
kuny
Marmut
kubilang
celup
ngelamun
Seni
300
jomlah
Rumahnya
suamimu
Pelbagai
urusanmu
sekuntum
ideas
Yoonmin
jelaa
kekasihku
tambahnya
Sakitlah
hadirnya
tumit
pahanya
Bersyukur
indo
independ
BAIK
Hyungbum
Jelasku
swing
label
helping
lebah
Pengetua
bonceng
banting
##engkur
classroom
supervisor
degup
bengi
ungkapkan
ANDA
takdirnya
Geun
menolongku
Doakan
paksaan
court
Dewan
##shah
##shit
gigitan
##pected
Ishak
Perasaanku
AST
jamban
Anything
Satpam
sentap
Lainlah
Jeritan
diselimuti
kissing
breathing
merindukanmu
Petra
keretapi
##stery
##timewaan
Respon
Jija
solid
##oloskan
Carrie
meresap
publik
Haezril
astral
2251
Agama
statusnya
##HHHHHHHH
Komen
menumpukan
Anjing
pleasure
locked
didengarnya
TIDUR
kios
umpan
##SSSS
bergemuruh
identitas
ramen
KERANA
machine
Sembilan
pameran
expert
koprasi
jemputan
mengkhianati
Nasional
detektif
centre
melampaui
membatasi
menyayanginya
9038
menghubungiku
plantations
crossed
nunjukin
Original
nyiakan
singki
menyingkir
memilikimu
##릿
feeding
celinguk
mengigit
Zharif
Guinea
Daehee
Twitter
wanitanya
mengekorinya
elevation
numbers
kepedihan
afford
EXO
##operasi
meneriaki
Mampukah
stretched
Idea
Stud
Natasya
Natasha
rerumputan
Cemot
terkikik
##titude
rapidly
Narno
Pekerjaan
Pastinya
tubir
BAHASA
Octo
TEASER
dikerjakan
quantity
volcanoes
Hugo
balqish
exceedingly
Virga
merdeka
Goblin
kepergiannya
Words
schedule
menggunung
Lucivenet
HANSUL
selimutnya
langganan
Hyosub
petualangan
beneath
Chrysaor
WAKTU
찌릿
##together
memungkinkan
membezakan
barusaja
perlombaan
3252
Tufail
yesterday
47
Amp
ANG
Byun
Berikan
BIS
Bitter
Cre
Carl
Dami
Doc
DAS
DEK
Eum
Ekh
Fia
Fina
Friend
Gie
Gembira
Gaji
Huu
Hamba
House
Hensem
Iyah
Ihh
Ju
JAM
KT
Kejut
Ketak
Kwon
Kiranya
Kpop
LI
Lamp
Lawa
Limah
Lengkap
Much
Minggir
Martial
Ner
Nancy
OP
Oom
Rudi
Spring
Toa
US
Wak
Woon
Walk
Water
Yuh
Yep
aim
dy
dod
daris
denyut
eunji
eva
epal
fani
hem
hara
jatah
kg
kimi
lame
loss
mos
mungk
maga
mundar
nina
naek
nitip
pv
pahal
pori
quar
ramb
sch
sold
shira
sidang
sulaim
tq
tamunya
wuduk
yer
yey
yeee
ال
지
##yul
##otif
##mn
##meng
##marin
##raw
##race
##retan
##lar
##latan
##tung
##ued
##pekt
##hu
##hope
##dikan
##kejut
##ww
##cir
##cks
##father
##jil
##zat
##zone
##xi
##19
##BI
##BB
##ahast
##att
##atup
##ataku
##aler
##alilah
##amm
##amati
##emale
diujung
menautkan
sees
##adeni
berans
##ikam
##isar
##ilaian
##auran
teror
terapi
tertua
##iris
memil
##ulannya
##uluki
##agen
##uring
menge
mengkerut
mengulas
##idam
##esc
##udut
##udes
##udia
##etapkan
##iawan
##edom
##edahan
##ayak
##ebis
##abel
##uhhh
membatin
membingungkan
mereda
meringankan
melengkung
##okrasi
##acing
semarang
semilir
##atively
sekenanya
##ibuan
##aluinya
kaus
toc
beating
Alli
##empang
##upas
selayaknya
siot
siangnya
tersilap
tersadai
tersungging
menyia
menyihir
menjangka
menjanjikan
menjitak
##anggalan
##anggarnya
keruang
keruangan
keropok
kerikil
adat
bersosial
ara
arek
arisan
artic
##icle
ngo
ngegas
ngilu
ngucapin
mendongk
menderu
##ubahan
##ublikasi
##owg
mec
##afs
##afasan
kentut
samperin
suic
seret
mencamp
mencelak
kemur
kemerd
ketik
ketawakan
maknya
##ewon
##ective
penangan
penawar
pencapaian
stab
passes
##lee
bertau
bertop
pre
Taknak
berbaki
pelatih
pelosok
balak
berjodoh
berjemaah
mystery
bio
Arin
Artinya
berkes
memangku
dibersihkan
amal
begituan
telep
cermat
Perasaannya
Perawatan
dirangkul
##ential
##ontek
##buhkan
shore
shaped
mungkinkah
kebesaran
angau
diteguk
tertahankan
Merapi
berpunya
awaklah
Reen
##ifi
baliknya
usir
##alldo
Shi
Short
diputar
dipedulikan
Asada
gelita
diduduki
didatangi
abangku
Among
Amran
##lahankan
Those
##oyan
spell
plenty
neukk
perceraian
actual
gerun
mengerut
mengeraskan
badge
marahin
bermaya
Ayub
##unjukkan
trend
##ishment
Which
Elly
sejoli
##avy
Prahast
dihal
dihubungi
pembagian
outfit
##ization
Ape
Aplikasi
##ARIK
bilangin
dimengerti
basically
tergedik
Melupakan
persons
susul
##umbai
moody
buas
##itional
##veni
intan
Abangnya
##elion
semburat
Mengetahui
memerintahkan
ess
##iiiii
keje
optim
berwujud
mempesona
anywhere
remaj
removed
error
Izinkan
deso
desah
##hlasan
##uyeon
mboten
termundur
termuntah
skala
uji
##wood
Syarikat
sekitarku
Irish
iler
ilalang
dicuri
petaka
Ibumu
tentulah
Kelak
menggunakannya
Keroh
##arakkan
##hoot
##hofa
##kkkk
pusaka
Kedah
memberimu
minumnya
##ofel
Aziz
pony
slender
Minho
hidden
##APAN
imej
komitmen
rahim
rahmat
pecinta
tenis
jahit
##indahan
keberangkatan
Ricky
tembam
kubu
ngeluarin
bauk
##UNYA
Peniel
Penumpas
dinanti
tekaknya
##yyyy
##eransi
majimak
##ekung
waitress
pencari
##ronik
sado
Bunny
kerjain
nights
player
Bersamaan
##affe
menciumku
menciumnya
attrac
Kimia
kls
labil
guruku
Menyus
maggi
magnet
gantiin
mengurangkan
waterf
terkuak
plane
membahayakan
nasehat
##biasa
Acc
Friday
penampil
clearing
Hishh
maklumkan
kerenah
Adiknya
memerhatikannya
penyakitnya
horrible
dituj
Hehehehe
Tokyo
kumis
THEN
THIS
aktivis
sepupuku
Rahel
legam
Hilda
##III
twitter
menakut
deeper
ordered
TUNG
Anyways
polosnya
coret
titipan
Tetiba
killing
prioritas
Nekochi
Menghela
tunggalnya
Munsyi
immense
dugaanku
pengantar
마지ᄆ
dosennya
Ready
painful
keindahannya
Shaari
pemerhati
krimwajah
impianku
wanginya
Permainan
Arghhh
Penduduk
preparing
Rindumu
mengawali
##asehati
perigi
tpi
dreams
Murni
##idoarjo
Gumamku
Gumamnya
hinggalah
boats
ORDER
melingkarkan
Berlagak
rindunya
rocky
notification
melarangnya
makian
triplet
melayannya
fanfic
ngaco
vegetables
eastern
rasaku
minimarket
embun
screaming
gesit
identiti
##mateen
searching
Penyakit
kesalahpahaman
femin
##ongguk
waves
Nafya
Laptop
dikerling
dangd
memicingkan
original
celebrate
Walhal
ukir
Sampe
##ussie
practice
MUG
cebol
kebersihan
opposite
blonde
cancer
wiped
BBM
Doraemon
Eonnie
puncanya
hihihi
value
Aidil
##empurnaan
perkataanku
btol
##esraan
##eboard
Contohnya
MENCINTA
dibacanya
NATO
DATANG
Sehinggalah
Michelle
pangkin
##matullahi
equal
ginjal
keistimewaan
bercengkrama
keseriusan
pelipisnya
kecoklatan
tissue
largest
accepted
proportion
Forever
PANGGIL
menidurkan
berbarengan
kesetiaan
terbantut
menerimaku
Moriarty
Tindakan
Zizi
lweekang
disyaki
Merekapun
Kebahagiaan
Waalaikummussalam
menangani
perwakilan
Wonder
bodies
Doctor
##pektasi
beransur
Prahastyo
마지막
42
Band
Bop
Buah
Banda
Both
Cok
Cuci
Eropa
Fan
Filah
Gelam
Hum
Hill
HIDUP
IYA
Icha
Jadinya
KI
Karang
Kontan
Kejam
Lek
Luar
Lha
Log
Lomba
ML
Mind
Maid
Mais
MES
MAMP
Mafia
MDP
Norm
Oya
Over
Ouhh
PL
Pam
Pon
Pati
Pandang
Penting
Pasar
PES
Pedih
Rinda
Sendirian
Tor
Tata
Tahan
Tamu
Tamat
Tapak
Tiff
Ucup
Ukraine
Vampire
Wr
au
aver
bint
balan
bingk
bond
billy
cob
cchi
cyt
damp
ec
eun
fal
farm
gain
gajah
guruh
gaib
golok
halu
hulu
hindari
iphone
jek
juri
kod
lung
lup
lont
latih
landing
limb
lines
lumpur
lenggok
mn
mutusin
nap
nhan
nort
pump
panjat
pikuk
pepatah
ric
rani
rav
saji
tangk
tendang
vast
wc
waw
yag
zi
네
##mud
##bau
##run
##rus
##ralkan
##num
##papa
##goki
##knya
##kali
##EUN
##AF
##HIR
##fie
##jungi
##zine
##GAK
##DI
##65
##들
##araku
##emate
##asak
ditusuk
menunding
##apu
seaf
searah
seimbang
berand
beratnya
berontak
berturut
keego
##iket
##ikhlasan
##isha
##ilty
terkan
terdah
teratas
tertusuk
terapung
terinspirasi
##ires
##ites
memaut
memanjakan
memaparkan
##onoh
##uksi
mengorak
mengoment
mengingkari
mengimbangi
##usalam
inikah
##aichi
pertimb
##ajut
takp
##olot
##ayung
##ebuah
membi
membunc
membolak
membuntang
merapat
merely
merangkai
meredakan
meratapi
##akanku
mase
##acent
sebati
seburuk
##iber
tuannya
##gikan
ora
##ongs
siucai
tersingk
menyakin
menyangkal
menjelas
menjulur
kepalamu
keramat
belukar
adult
bersi
arab
ngaj
ngene
ngabarin
alesan
altogether
meow
menghias
menghentikannya
issu
diseng
disofa
kencan
kenapalah
bensin
suw
seramai
harder
kemampu
kemejanya
asep
berdamai
berdebu
berdengung
sesengg
sesetengah
Ancam
penenang
peneman
kesemuanya
passion
bertak
bertebaran
ongk
prince
prakti
pribadinya
menggoncang
nyali
berbasa
berbudi
pelita
temuduga
berjawab
setetes
Inter
##sions
berlebih
itik
berkomp
tetangg
dibeb
pincang
forced
apologi
##asihati
##undam
telek
Perfect
ataukah
department
berger
Dig
##aaan
shel
shield
pengel
keboleh
kebelet
depanmu
ditetapkan
udahlah
Mereke
tiup
terdalam
dozen
Reaksi
Bertu
Berada
menyajikan
Sei
##ingkrak
usus
Hancur
Sholat
dipec
dipetik
dipindahkan
coa
sakiti
gelanggang
dilewati
dilanggar
dilempar
pemula
##amatkannya
Tidaklah
kehancuran
Hee
##esanan
Amarah
semprot
##oyong
spek
spiri
plains
punyalah
aci
Ayok
Dahulu
palingan
trul
terhormat
menerbangkan
sejadah
Ohiya
##untas
##avor
dihitung
dihindari
##ARAH
panahan
mengenaskan
tinggalin
Master
antri
tergolong
tergolek
kaset
moga
cliche
worst
melakukanya
##ijakan
##engkalai
maluin
lapis
feather
Sesak
##mbut
peek
memercik
kejayaan
nihh
bete
Hairan
erup
ermm
rambutmu
Tiba²
growing
Nakia
desahan
Beni
deo
version
bayarin
lived
ulangi
everybody
diperoleh
dipercayai
menyelipkan
menyelamatkannya
Irham
pinggannya
containing
contrast
ceweknya
Stab
downstairs
Kelvin
dijodoh
dijuluki
dataran
harapnya
slop
headphone
##dayu
jeritku
Suria
somehow
kegilaan
##ORE
gemes
##anjutin
posisiku
gotta
Hazz
sale
salut
penghormatan
papers
interaksi
Kesempatan
Kesemua
kekuasaan
tahi
kuberikan
ngelihat
##UNT
membenamkan
keputusannya
tempur
##ILAH
chatrine
tutupi
board
simply
kondo
piala
pige
pencuci
kendi
saudari
caption
genre
kusebut
Habislah
kolar
mentraktir
indera
Mahek
menekankan
menangkapnya
Maksudmu
geot
terkubur
Tersengih
bantahan
emosional
sakunya
Nyaris
##ETA
password
bajingan
degupan
popcorn
kakeknya
saingan
Gerutu
nano
penampar
confined
Does
##armon
angker
sorg
musuhnya
gapura
wahh
horse
ditumbuk
sandiwara
snow
gamis
Thaqiff
Haydar
Kiva
moveon
Area
boro
collected
college
##wayat
berseloroh
mendorongnya
##iteria
kewangan
Menurutmu
title
titipkan
pendapatan
pretend
cekap
gulungan
PROD
edit
editor
pondan
killer
menggerunkan
price
korbankan
##injau
regarding
tunggang
apartemenku
Papilio
##EEEE
omongannya
penerbangan
Zafrin
sultan
logat
Bising
timbunan
Something
##ACK
##angkutan
Kangen
Kulsum
concert
casual
materials
potato
presentation
devil
diseberang
HAI
mejaku
Ketemu
KAMI
periuk
Check
Helm
Misalnya
dreaming
##surumi
ketiadaan
WHY
menebas
mengemudi
deadline
toler
menelponnya
divisi
berpacu
Ups
chiefly
movement
Turki
kuharap
earthqu
kesibukannya
grandfather
humans
freedom
menggantungkan
gajinya
gajelas
mengucek
stares
##eritahuan
taraf
##jubkan
chuckled
Facial
Gunawan
Sepatah
focused
wayangnya
disease
servants
mewakilkan
Boyfriend
duniaku
pangkuannya
specimen
Kirana
bermanja
lentik
knees
mengikik
pressed
mengaktifkan
disayangi
disayanginya
ibukota
wardina
nelpon
Hemm
gejala
tulen
##eplosan
Slow
Mukidi
hungry
rayuan
sumpahan
bingit
lampunya
mianhae
adjacent
mushola
Eonni
valuable
increased
currently
development
civilization
Kyai
Zaen
research
Boboiboy
Kazua
Bersiap
ignored
tersembam
graduate
lereng
source
Yemima
migren
tantangan
##ikharah
discovered
romansa
Sendu
jangn
kempis
jajanan
Family
Gusti
mengulum
Situasi
Amazon
BODOH
mengapresi
alternatif
jln
mempercayainya
Bedanya
atletis
diliatin
bercermin
memaklumkan
Wedding
nongol
menyeimbangkan
laboratorium
NANTI
Kontraktor
History
dipaksakan
nomboq
church
Disitu
rontok
Kalimantan
perkuliahan
Bocah
lmbt
lencun
kecurigaan
terpencil
cytotec
pertimbangan
Aily
Auto
BAR
Bangi
BEM
CD
Cit
Cub
Candra
Cemburu
CARA
Crazy
Dina
DON
DUA
Ei
EO
Emb
Ext
Ego
Eko
Fun
Fari
Fact
Fiet
Hardik
KB
Kina
Kasar
KAW
Kilio
Kampret
Kwang
Lil
Ling
LINE
MI
Mib
Moon
Nata
Ness
Pn
Pai
Punc
PAL
Pondok
Sue
Siba
SUN
SENDIRI
Tit
Tep
Tob
Tisya
Tsurumi
Ve
Vila
Wira
WAR
Would
Wild
ai
bontot
camb
ciang
dp
dend
ddk
dinyal
fik
farisha
function
glo
gosh
golek
gandengan
gesekan
hiba
horm
hoan
halamannya
ire
jal
kob
kunj
lgi
laris
laksanakan
lately
lanjutan
mc
marak
pala
paip
pokonya
quality
raw
rig
sunda
sng
sake
singer
sakat
sides
taj
tilik
tte
taekw
vas
warah
yup
시
😘💕
##eal
##etus
##you
##oid
##ojo
##meter
##bul
##rid
##rain
##raman
##los
##lass
##tanya
##hang
##EET
##NER
##sih
##suit
##fat
##vn
##vet
##DR
##12
##WIN
##MU
##줘
##ᅥᆯ
##ᅯᆫ
##VA
##erahkan
##erbak
##ahagi
##araya
##arunya
##intu
##alakkan
dira
digigit
menuk
menandingi
menasehati
##kuran
berag
berapi
beraksi
beragam
beroperasi
##nyaa
##ikopter
terancam
terungkap
##itation
memain
akunya
##ulp
dancing
##agus
##agement
##utra
mengamat
itukan
##esaian
##oret
##oration
##ajakan
##iaq
##ols
##edihan
##ayed
##ayarkan
membungkam
membengkak
membendung
membayarnya
membiayai
meremb
merasuki
merempuh
meroyan
##adies
##ampul
##imen
melenc
meloloskan
##ehatan
##okasi
masal
masakkan
##apainya
##acetan
sebrang
sebutkan
seminit
##omment
##andatangan
sekotak
sekecil
##itain
##ibar
##antauan
##antero
oranye
##endek
##enta
##osisikan
sedekat
juice
Aleey
##empap
sixt
tersampaikan
menyita
menyukarkan
menyilaukan
kepint
kerling
belain
belitung
bersanding
aris
mendalami
alaa
karyanya
youtube
ishh
isolat
disimp
kanc
lover
##heart
serangga
serbuk
kemaskan
berdandan
##ewe
strict
pasi
pride
Takdelah
pelih
baldi
Dani
keceplosan
##opan
##opun
bangang
berlabuh
itung
Arvir
berkilat
##ucian
Teragak
teteh
dibaling
dibayangkan
pinangan
##adise
banyaklah
Perasan
Perutnya
sepet
dires
Diem
pengajaran
kebaya
kebakaran
terbengkalai
ditentukan
berpas
jangankan
terdetik
Reich
##ifah
Sememangnya
Seed
Seumur
chose
##mpulkan
Yaampun
##estin
laid
Hanim
Shiwaru
dipejam
dipojok
diparkiran
terpikir
terpekik
terpempan
Asap
##antur
turuti
diletakan
dilengkapi
didapatkan
##abisin
Sialnya
pemergian
Paket
cepatnya
Amicia
Chill
mengeleng
mengeluarkannya
##obaan
senonoh
##usiaan
##ogan
##ERTI
koteku
Elin
Elis
luaran
terhidang
terhegeh
perkasa
##unted
Sepantas
khai
elder
elakkan
Meminta
pendekatan
handal
##cient
lepasni
Mason
dimarah
tergerai
situasinya
Melly
Melakukan
Melalui
Melepaskan
yeay
sengihan
fool
bual
climbing
##engkal
##itiga
sink
bunganya
Ngeri
ajukan
Meeting
intellig
peach
##ALA
barangku
kejaran
##eritain
digosok
Tiongkok
Tetep
kagumi
despite
syaratnya
patutnya
stroke
strateg
urung
kejadiannya
##gged
##ASAN
##elingaku
skrip
##uchi
##INT
calls
menyelidik
parti
busur
Kelopak
SEORANG
Yeon
pole
watty
scattered
malasnya
Angk
pilihannya
DIRI
Kedatangan
##elaks
harapannya
headset
hidayah
##APAT
Kalandra
bikinin
Padam
usahain
##ELAH
penjajah
startled
mayoritas
Salsa
Terlepas
compared
sarjana
##enalin
flor
flip
flour
tebus
tebalnya
hiper
kiriman
##untuhan
salat
krem
kresek
kristal
kriteria
penghuj
penghasil
kabeh
sikapmu
kalahkan
kubiarkan
Penj
Pening
Penari
impikan
Usagi
Usman
Partner
menegaskan
Rizkan
##TUL
mantannya
kabarmu
kondom
##URANG
Karenanya
nikm
pencerita
penculik
receh
reception
##IMU
menyakitimu
guyss
genius
lipas
instant
throughout
guns
BACA
Jelasnya
Mahmud
Dirimu
hahahahaha
mengamalkan
pegel
menguras
mengurai
nerka
Mulalah
Pengalaman
Pemilik
halusinasi
BERL
Mayat
##epakatan
Deal
kehadiranmu
sakura
Niko
##enderuwo
sunbae
Brengsek
nods
marked
mengembara
mengembangkan
pengguna
pengganggu
camilan
garpu
evidently
ALEX
angkara
horn
horiz
gilakan
listening
meteor
typing
wehh
kumat
taunya
khasnya
menyebrang
tongue
parahnya
mendorongku
reaching
Nyai
senter
rancang
Rafiq
bendul
creatures
##ABAT
##IHIH
MEND
sume
ndalem
register
Bertahun
lunak
lambaikan
dihadapkan
menjemputku
Insyaallah
required
Robby
Fadhl
ARG
mengejekku
figures
continues
##sekian
strongly
kesayanganku
##poch
lenguh
sensasi
jiwang
KALI
membawamu
Bangunlah
ketidaks
spots
Diluar
joget
janjikan
bloody
ships
Control
wallet
alaikumsalam
Produser
menebus
SUARA
limau
lantunan
rolling
songs
STOP
simen
membangunkannya
gesture
lecet
##enjara
Ckck
kesalahanku
favoritku
bencikan
jokes
pamungkas
PMS
difahami
ditempuh
emosiku
Aikk
menghantarnya
penyelesaian
shrubs
##alalalal
powerful
Annyeonghas
##petasi
grateful
dialihkan
emotion
photograp
menitiskan
scarce
elektronik
observasi
butterfly
Charil
dikirimkan
opinions
connection
approached
Kantin
celingak
mengagetkanku
practical
Annisa
Eloklah
musnahkan
disappeared
resepsi
kuncinya
것
Arcadia
bercelaru
setiausaha
benchvn
becoming
Shazwani
dikunjungi
introvert
circum
Saranghae
destroyed
pernafasan
represent
cosplay
mikro
##vestory
sufficient
fatihah
Lupus
cempreng
gadget
mengotori
dibatalkan
##radara
kepunyaan
Problem
Type
dicky
pembersih
eksekutif
kelingking
Syukri
pegunungan
sangkakan
tersengal
Nirwan
Subhanallah
kedokteran
segelintir
satellite
kemarau
##abarakatuh
beribadah
sepengetahuan
intonasi
Geunsuk
Damien
DASAR
pvc
ponytail
attractive
mengomentari
truly
mengapresiasinya
Mibuchi
Aleeyana
isolated
97
96
99
Av
Ax
Bela
Busy
Balai
Bajunya
BANY
Cetak
Cadang
Custom
Candy
CONT
Dep
Degup
Design
DULU
Fight
Gam
Gawat
Hit
Hon
Haya
HAPP
Hector
IBU
JA
Jif
Jasmin
JALAN
Kain
Kha
Keter
Lakukan
Lemah
LEPAS
Madi
Mood
Nit
Nether
NEX
Off
Osis
Panc
Port
Rimas
Ryeong
RIND
SIH
Sihir
Sulaim
SATU
TTS
Uts
Wawan
Yaaa
Yono
Zira
aah
achie
bra
baz
bendang
cen
cart
cabar
cadangkan
caffe
damba
dora
dakapan
dungu
epoch
gemp
gala
gift
hela
hembus
hihi
ipa
jeng
kalu
kait
kitty
langg
liku
lindung
lenggang
lalai
lonceng
mna
neb
nuh
nok
nisa
nest
nabi
oo
pm
pemu
pesi
ruh
row
rate
rasuk
retakan
rusa
uf
ura
vib
wit
xy
zat
느
나ᄅ
너ᄅ
──
##mon
##mum
##mind
##math
##bannya
##rum
##rate
##ll
##lap
##leh
##list
##gia
##gers
##kok
##kripsi
##EON
##HOR
##KAP
##KAU
##syah
##saham
##jamkan
##ᅡᆼ
##워
##vy
##YANG
##OON
##FO
##10
##라
##래
##akra
##akarnya
##akrab
##arep
##emium
diungkapkan
menir
menung
menua
menawar
menadah
menagis
menangkup
mendayu
##kukan
##tuaku
##apik
seutas
berz
beran
bermu
bereks
berayun
kea
keikhlasan
##nyaman
##ikmatan
##iskan
##isasinya
terf
tergu
terrible
memanc
memekak
memotret
dana
##agg
##urang
##ukakan
menggi
mengundur
mengorek
mengundurkan
##idol
##idents
##umumkan
##usuhan
##eso
##esannya
inch
indeed
##oreh
##orman
perisa
peratus
perempatan
perampas
##udzon
thu
thunder
##oleskan
##awati
##abik
##abila
membazir
merac
merujuk
melomp
meluruskan
meladeni
unless
unfortunately
##ehouse
##uaq
sebodoh
##anduk
seka
sekarat
apaaa
##lahin
tough
kelewat
##rica
##ouq
menyet
menyela
menjulingkan
menjijikan
kerutkan
belur
berst
ngatur
##raits
mendeng
mendecak
sepersekian
alasanya
##inggut
menghimpit
menghabisi
dism
diseka
disemb
diseret
disalahkan
disatukan
display
disajikan
##awainya
kenzi
serong
mencel
terlajak
kemew
kemesraan
##odai
##odium
buatin
buatannya
maksu
##ewasaan
##ece
Ant
penju
keseg
kesepakatan
##antikannya
awai
menggiring
menggatal
mengguncang
mengganjal
macamlah
berburu
pelit
berjilbab
berjamaah
##opat
kedapur
kedekut
##uturan
berlagu
berlipat
oleng
berkemah
berkeping
pinus
pinceng
##ayangin
Kaulah
repa
reza
apehal
kakdi
lahirkan
##unds
cerocos
Perd
Perawat
Perubahan
beber
diruangan
terkawal
terkatup
Diary
##illip
kebijakan
ditunduk
ditanyakan
ditepi
Addar
##haari
tertanam
berpinar
kalimah
balikkan
Seekor
Season
chin
chem
dikesan
useless
dipl
dipas
dipangku
dipikiran
dipimpin
coin
coeg
perempuanku
terpukau
Asep
Ashaari
didik
upset
##entually
##acked
pemilih
notis
nyolong
diamkan
memperso
Though
perlakuannya
spons
plate
neol
actions
Soed
mengeringkan
##ocok
Okayama
Dahla
emir
section
secure
trem
truck
Menahan
terhasil
terhebat
terhubung
jatuhnya
Princ
leather
maintain
dihuni
dihasilkan
pembaringan
pemberitahuan
Memakai
pendatang
kekag
mengenakkan
bagusnya
blame
Andro
Andrew
Malunya
Malayan
Unfortunately
tengokkan
naiki
dimuka
terguling
lembah
lembutnya
menggelar
menggelabah
merahasiakan
##incir
seringnya
Mekan
brush
##ariskan
Athira
Abel
##achu
fever
malasan
Mengerti
##ALKAN
kejelasan
resume
kisahlah
permainkan
menitik
obatnya
obvious
string
struk
darahku
lies
dongsaeng
Manja
everytime
dipersilahkan
beranikan
Naq
Irah
contains
contract
Buzz
Aflah
##assin
Yea
##hoa
##kkw
##ingsut
scre
pusaran
Emily
dijangka
tercari
slide
Membayangkan
amatir
kucari
jendelanya
ucapanmu
pesimis
crim
samurai
meliriknya
##KUT
##aksinya
compl
Okaylah
jenjang
ekspektasi
##versary
kirei
moments
endap
Kesalahan
kulat
March
Maryam
pendekar
infus
influ
bertump
bertujuh
Seneng
Rainbow
KEC
Sekalian
tempor
Trust
Pelanggan
geramnya
curh
curtain
rakaman
Bunyinya
captured
menemuiku
kupikirkan
laughs
##ULAN
BAGI
sedapnya
melupakanmu
excuse
pegal
Jerman
Jermy
catatannya
menyelesaikannya
probable
membersih
Pemer
Riska
##pact
terkuat
Jongin
Pandanganku
Ditengah
memukulnya
ribanya
palace
superior
suntuk
Otakku
mengabari
kapur
Getus
Jenny
Blog
taruhan
##resif
##respond
Keluarganya
Nasihat
huhuhu
kumuh
170
santapan
runsing
beautifully
gigih
purse
Rahsia
legend
##EHYUNG
mewarisi
berkelana
##rediksi
##000
Berhentilah
hurting
birunya
keterp
Phils
berperasaan
##malia
Satya
antaranya
pantri
pantry
bantalpr
correspond
kindly
gulung
edition
naturally
##ternal
nduk
bergelombang
dijadiin
Berdua
cengo
Danielle
monop
##enius
bayam
Grace
merekapun
##ijikkan
kukunya
HAHAHAHAHAHAH
solution
Tatak
families
Shahn
concentr
traffic
Beginilah
Terbaik
KALO
gambarkan
menyemburkan
potensi
possibly
Miu
invited
involved
psikiat
lands
Hidayah
Hidungnya
Kades
mengedikkan
aktifitas
Helo
##ANDER
Berlari
ugly
Ramli
Ramadhan
pancaran
Menjauh
Magrib
dirasakannya
hiruk
Termenung
hoped
Bamboo
beginilah
bundle
gangster
##vernor
expecting
Cerpen
tinju
kutukan
annoyed
menggendongnya
memutari
azmi
diusik
penumbuknya
Berpikir
terserlah
Kubuka
##onggok
waving
Lapangan
dukungan
pendengarannya
sikunya
drinking
Japanese
kilo
forgotten
pembelian
tesis
tropics
treated
##tumbuhan
Berjaya
Lombok
Medan
아니
observed
include
Orion
mikazi
##EMPAT
Verlia
nyium
saudaraku
extraordin
Sword
sutradara
Conf
sumbat
sumbing
Matthew
attacked
mengejutkannya
hyper
bimbit
midnight
berpengalaman
meneriakkan
memelihara
revol
gembiranya
performed
BENER
audit
constant
Empire
Menurutnya
karaoke
Jendela
lukisannya
climbed
Bersifat
TAEHYUNG
##illiant
ANJIR
dusta
##olisian
survive
memorinya
pelanggannya
neighbourhood
Balq
melengos
mendampingi
principal
Driver
Sastro
menjongketkan
optional
TERKEJ
dianter
berinisiatif
perabot
##ephant
Entertainment
berjenama
Kekuatan
jatoh
recommended
memantulkan
Duluan
Kirei
ngawur
menggembirakan
Perihal
considered
Javanese
Eastern
Kricik
uzur
shells
urgent
paused
kategori
karyawannya
apparently
Cinderella
tocyn
bertaubat
terdahulu
menjelaskannya
ngajakin
issues
kemampuannya
sesenggukan
Toby
kunjungan
beragama
Jifka
NEXT
xyz
느ᄁ
나를
───
extraordinary
TERKEJUT
57
666
Aura
Acik
AUT
Aussie
BILA
Cep
Cuti
Dara
Dosa
Demas
Ejek
Fandy
Farisha
Gelas
Gash
Gold
Gatal
Hik
HEH
Huwings
IC
Iyo
Jab
Jaya
Jiw
JAKARTA
Kor
Kiss
Kacau
Kumbai
Lampir
LENG
Lawak
LAMA
Mum
Milik
Mess
Media
Mutiara
Net
Nie
Peri
PAT
PAGI
Rel
Randu
Riko
Rutin
Suar
Sow
Sally
Shhh
SALAH
Sidoarjo
Tika
Thir
Tch
Tanjung
Utara
VI
Wu
XXX
Yerin
Zarif
aina
bb
bucu
banggakan
bhai
cc
carik
creat
cembur
dus
daku
doll
dried
dying
draft
eop
fate
fried
gf
guman
gendang
gitarnya
glance
halah
hancurkan
hegeh
jg
jdi
jimat
judi
jilat
kik
lit
moy
mng
mne
natap
nimb
nendang
natal
ox
puput
rout
rangku
rabu
sid
sle
sambar
sosi
sono
sanggah
tebar
tmpat
tuntut
tadarus
vakum
wink
wise
xs
xD
yep
yakan
우
알
안
원
##ein
##mor
##mahnya
##aira
##bon
##bulan
##ros
##rist
##rated
##iuman
##lm
##name
##uapi
##hor
##dik
##dest
##kit
##kahan
##HANA
##UAH
##wise
##zil
##GUK
##TAH
##TEM
##44
##41
##OUL
##xic
##xona
##BIL
##MAH
##기
##나
##ᆻ어
##eno
##ahlian
##inst
##inks
##ams
##amen
##amal
##emarinya
##elyn
##eliti
##ases
diap
diizinkan
menb
menara
menub
menop
##apang
seantero
##adona
berbang
berpun
berandai
beriman
berotot
berombak
beralaskan
berupaya
keuangan
##isakan
##isher
##ilnya
##auw
##irin
memuj
memelan
memuja
##ihin
##ihih
##agers
##urian
##uty
##idung
##umul
##usir
##esome
perusak
##udd
##uded
analy
takayo
##edap
##ebum
##abo
##abda
##abelas
merk
meratap
merendah
##epotan
##adium
##tukaran
meleg
melawak
melemahkan
unn
unus
unlock
##atain
##acara
sebilik
sebanding
semerbak
##ibility
##otte
##otretan
##gitukah
toy
touc
##endapat
kelanjutan
##ongkan
##onghoa
andaian
##oshi
##osfer
##elahian
juadah
selekeh
tersasar
menyebelah
atok
attitude
menju
menjijikkan
Diaz
##angguh
kerasa
keresahan
kerbau
##enye
ofc
ador
bersin
bersenda
ngira
ngangguk
alhasil
##anyunkan
##afat
barb
menghajar
menghuni
isyak
disem
kann
kenikmatan
##hetic
bahw
mencolek
kemahiran
kemoterapi
kemacetan
aset
asuhan
maksi
hati2
##ecamp
Anand
kuyu
keluarlah
penilaian
penuturan
stam
stik
store
kesamping
kalaupun
bertingkat
bertabrakan
##nahkan
##hirom
menggalas
menggerak
menggangu
menggedor
nyalahin
masuki
berbisa
berbondong
##wae
kecangg
kecerdasan
tank
##rei
kedip
Inikah
biadap
biologi
hers
berlubang
berkah
berkil
##andangi
Terenggan
amit
amati
fortun
rei
berhar
lahhh
segitiga
##elasah
Perit
depos
dirindukan
terkep
dapatlah
taulah
haechan
bergaris
bergegar
Dio
Diapun
##aaah
shuriken
jeti
kebosan
ditangg
berpu
berpus
##oreul
Kenalkan
Bern
Berkat
Sea
Seingat
hish
chong
chip
chop
china
charming
##chan
Sebagaimana
diketuai
##yikan
Shun
Shock
diparkir
weena
terpegun
gelandangan
dilindungi
dilancarkan
jamuan
upstairs
jauhnya
Chang
Charl
Chakra
gairah
spidol
plum
Sekar
Sekel
nekan
bercorak
berciuman
kerjaannya
bermotif
Ayy
mencarikan
##seyo
tren
tremb
##ishing
kayla
perkira
exhi
##iated
Airmata
Premium
Sepatu
ella
mainnya
dihempas
handbag
tinggalnya
begging
ruin
menutupinya
Melia
Melangkah
keadaanmu
persamaan
drastis
##fff
Kemas
##engkang
##ATEN
sinarnya
terjah
anggep
pose
sayatan
brat
bros
brilliant
bernilai
##itary
malukan
malcapun
Sesen
##encing
Ketukan
memerintah
memergoki
bawaan
getar
keji
serial
Sederhana
betisnya
digambarkan
Haechan
Erk
erk
grows
fikirnya
caraku
caramu
##ahahah
Mail
##hamnida
Noelle
mbaknya
Syam
##niakan
Manager
##ayui
quote
dicuci
dicucuk
Strang
##ments
Seraya
pentingkan
fired
offici
Kelibat
Africa
SES
Keras
bantuannya
Rayna
overwh
alasanku
ourselves
datarnya
Keper
menemukanmu
memikirkanmu
##aruhkan
slope
Kalung
##igo
##igan
insaf
Pasai
Kurayui
kahwinkan
kiraan
terhadapku
KuA
bukakan
fokusnya
Yodah
##KUM
perbaikan
complain
Matilah
Samar
Sinis
flut
beginian
kehilangannya
hangus
Wahhh
jahitan
krik
ikon
bekalan
restauran
Babah
interrupted
endless
riwayat
salamnya
Marni
##IKE
wrote
bulatnya
Mbok
kubawa
kubayangkan
Eunae
impiannya
Senandung
Senpai
tempah
tempelak
Tragedi
120
##TUH
romanya
ideal
waiter
singap
greatly
##ITH
kerjaya
katakana
kusyen
glitter
globe
gorengnya
membasahkan
klub
pamitan
melambangkan
saban
##ordan
exception
kasurku
dikuasai
pegangannya
Farra
lumut
lebur
magang
Mendengarnya
Mulanya
geu
Pemimpin
bonc
highly
sakral
sunshine
Brad
Britain
lesap
Janin
menetralkan
##yapu
mengabulkan
kapok
lokasinya
hatilah
consists
evidence
Patrick
cleared
Blade
tumpangan
ditubuh
Aqif
konseku
Tokk
egonya
kumiliki
seragamnya
bersemayam
Second
Smart
sisters
ranjangku
menakjubkan
artist
ketert
TUAN
##usahakan
berselerak
Going
Governor
mempertanyakan
nafsunya
Felis
diambilnya
Kehancuran
##IBU
terperosok
Suhail
coretan
Calon
perubatan
Teacher
childish
menggerogoti
command
##injut
Esoknya
celahan
sapanya
standard
Berdebar
cengir
seats
Istirahat
Zafran
##arnain
Shaza
dibelakangku
solve
merestui
Sabarlah
gayung
Dibalik
wished
supplied
Pendidikan
menginjakkan
prepar
finishing
devan
culture
invest
studies
Instead
Uhm
copper
aduhh
PARTNER
mengantarkanku
sipu
furniture
menekuk
2007
panci
bahagiaku
hadapanya
Sudut
mistake
Komun
SEBEL
SEBUAH
telfonnya
MEMANG
designer
Coffee
cucian
sendirilah
pleasant
hantam
embusan
##untuhkan
PDnim
hinaan
umpatan
warmth
mudik
mudanya
ketulungan
renta
ustazah
ngintip
petualang
ainul
dense
SELAMAT
kilometer
Bercanda
growth
streams
Layla
menyayangiku
dangerous
rubbed
##AJAR
scarcely
Astaghfirullahalazim
cengkaman
episod
memicing
hapuskan
paths
Nelli
nyiapin
akaun
drawing
opinion
##racted
harmonis
CERIT
##ointed
perkumpulan
platforms
##abangsa
persembunyian
properly
dalina
resikonya
scient
elevated
Specialist
Razman
broadcast
sepuasnya
TOKO
rekaan
arranged
pensiun
jumaat
Mammalia
BLOOD
adjust
keseribu
widely
merugikan
imbas
current
terkikis
Ahjussi
Tangerang
perkataanya
clouds
diwajahnya
Kartini
safety
mencicipi
Coban
Fatihah
Kenyataan
sundel
dibibirnya
consisting
photoshoot
Sugik
TENGOK
gombal
conclusion
malaun
Hyojung
##erumus
meletop
Loceng
Wanie
Sesiapa
vessel
injured
nganggep
primadona
Mengarut
memekakkan
BAKAL
Henry
prasangka
dikasur
ISTRI
menyenderkan
Saturday
menguntungkan
kematiannya
pengobatan
YEARS
Eveiyn
memahaminya
##immie
aircond
shining
dikehendaki
automatic
lensa
dandelion
bersenjata
Kencana
Juice
KTP
Lampeah
kemerdekaan
neukkim
Menyusahkan
MENCINTAIMU
bingkisan
membuncah
dijodohin
PRODUK
dinyalakan
diraih
Fadhlin
##alalalalala
doraemon
pesiar
ufuk
kemewahan
Soedarso
kekaguman
struktur
Shahnur
AUTHOR
berpunca
overwhel
360
Amma
Bekerja
BAS
Bank
Bawak
Barisan
Cir
Cek
Col
Cika
CAN
CIK
Chae
Dor
Dorang
Dont
DAR
DONG
Each
Eric
Fre
Fall
Fungsi
Female
GUN
Hamp
Having
Hdpe
IK
IQ
Ifa
Ihhh
Iries
Jgn
Jabatan
Jijik
JUNGK
KO
LE
Luah
Lyn
List
Light
LET
Mont
Maju
Mumpung
Nuh
Nazir
Nantilah
Oepil
Panda
Pistol
RA
Rata
Rusia
Rach
Rehat
Rencana
Rajin
Rungut
Sau
SAMP
Sorot
SNS
TB
Teka
TAN
Tingk
Tipu
Taib
TEMPAT
Umairah
Vey
Villa
Waduh
Yak
YOUR
ble
boba
bantai
bug
cg
caf
candu
caci
dalih
fer
gid
gye
hated
hanye
heck
iring
jaring
jepit
jongket
kow
kawat
kte
kial
koyok
laksana
lajunya
mamp
maf
marat
mwo
mcam
nunduk
nantang
ooo
puk
pow
pause
pissed
podium
ruj
renggang
rental
rimba
skan
sari
sac
saffron
saint
sardin
tid
tari
tama
tlah
torn
umb
veh
vac
wk
yun
yauda
zip
zone
××
난
비
왜
하
##ekannya
##yer
##metik
##mary
##model
##bola
##bage
##ringan
##raction
##ningan
##tik
##uaku
##hentian
##dhe
##kol
##NYE
##KAH
##KAT
##UE
##wanya
##wini
##cat
##car
##case
##fo
##fikasi
##jat
##zer
##GB
##DAK
##qah
##quat
##CI
##91
##MAN
##대
##JAK
##ᅥᆼ
##erce
##enah
##ennya
##enaga
##aker
##ahsia
##atasi
##argh
##yaa
##yaya
##aluti
##amine
dielak
diukir
diingatkan
menst
menabung
menanyakannya
menagih
menindih
menasihati
##unnya
##apnya
seinci
seusai
seenggaknya
##ador
##adahkan
berun
beringsut
keungg
keesokkan
##isiplin
##ilis
##ilight
teroris
terimbas
##irinya
memg
memant
memungut
memanyunkan
##ulian
##ulasi
##uted
mengang
mengand
mengosok
mengilai
mengincar
##umun
##umed
##umbang
##estival
injak
inisiatif
peraduan
##udara
##etek
diaw
##aje
takb
takpa
##ederaan
##eba
##ebal
##eball
##ebody
##abulkan
membimb
membandingkan
merapati
meramas
##imalah
melekap
melimpah
unex
##oking
massa
masses
masker
##acle
sebok
sebaris
##atiba
kamulah
tui
tuang
##endap
niii
##embab
##entaknya
bearing
bezanya
kelilingi
##ainannya
akankah
##rif
sedingin
Alarm
seli
siat
##ouquet
atik
menjak
menjaw
menjahit
menjarakkan
kepulan
kepolisian
kera
kerd
keran
belai
belantara
bersungut
bersaing
arang
arsa
aromanya
ngadu
##tery
mendera
dahh
dahla
##egyo
##egahnya
sangar
pulsa
##angkakan
menghunus
menghentam
isakan
disakiti
lovestory
seruku
mencair
##ujang
aspal
keteg
berdentum
##ewatin
##obs
sesiap
Anza
kualami
kuyakin
kuinginkan
keluarnya
keses
kesadar
pasan
bertali
bertenaga
maumu
menggeb
nyaa
##eries
akalnya
kecederaan
berjiran
kedalaman
tanyain
Arman
Arni
Arumi
Arwah
berkeh
##uce
##uction
tetangganya
dibahu
amirul
tempatan
berhajat
berhentilah
telekung
paks
Pertar
Perluk
Perkenalan
bebek
sependapat
depend
depth
direntap
taubat
##ontin
shawl
penguasa
kebab
keberapa
terbelah
terbalas
terbalut
terbungkus
ditamp
ditendang
Adil
Adapun
Admin
##ustan
salahmu
tertatih
tertelan
Alanglah
bagikan
terdedah
Keningnya
Sever
chris
tahunnya
dikaitkan
dipublikasi
##alase
coco
terpengaruh
##antuy
##antum
jamnya
Six
pemotretan
nyolot
tentangku
kehijau
diamlah
kurir
memperl
Thata
Chy
##oyokan
spy
spoon
plans
cakapkan
percent
percobaan
##istration
badut
##ancip
senasib
senandung
bawal
timbang
Ayahanda
secretary
siapalah
terhanyut
terhipnotis
canai
perkelahian
Prime
lezat
kampong
dihias
kekek
mengenc
blouse
lepasin
Unit
##ardi
Melirik
budek
engkok
kasturi
menggelitik
menggelegak
dram
drinks
##lax
##incing
##incare
Isya
Isyak
Kematian
Kemaren
##ATASI
terjadilah
mandian
##deon
##turkan
berniaga
##achingu
memberikanku
Being
malays
sembarang
comot
##aseo
##encar
Mengada
peak
ambillah
residence
anyways
remains
##aratkan
Ervina
permission
Tetangga
desanya
Riga
River
patches
obor
obatan
bayarkan
##gger
terms
##ampaian
siluman
silently
penyer
diperiksa
##ittt
umh
umah
ilm
contekan
Serem
Afifah
##tifitas
##ufa
Bebas
rapatnya
Butter
Harith
utarakan
Azman
slam
slept
sukma
hidu
Sebabnya
sekelebat
kehidupanmu
perguruan
Pastikan
pesat
Ataukah
kitorg
complim
complex
sarc
Kininger
##vies
deruan
eksped
hio
Wahau
##embunyikannya
penghadang
groc
groan
kabel
sikapku
thrill
thrown
throwing
keberhasil
interpr
ends
kekuningan
modif
tahniah
membelok
membelalakkan
kucingnya
##tically
Penamp
dewe
esoknya
improve
Usah
keputusanku
bertujuan
Kakakku
dinafikan
KEJ
menegah
True
##ILY
foundation
idamkan
kepercaya
##lined
reco
##IMANA
Move
pengenalan
hadirmu
capital
tells
relie
menemuimu
Bersih
kuping
decl
jodohku
tokonya
baperan
apartmen
guilty
Bahunya
Dirumah
##syifa
Wanwak
dikumpulkan
Ambik
authors
catat
##iffer
terkurung
Thats
Huhh
bonet
highest
Tersentak
delete
gantinya
kudapan
mengacuhkan
mengabarkan
penggila
Siapalah
Jenar
Berbicara
sebutir
tangganya
Buruk
sorokkan
##nnnn
wahyu
ditumbuh
konsert
nearby
pisat
Demam
nomornya
refuse
answers
gigantic
purba
Rahmat
Hilya
berkeluarga
piringnya
##gery
Diamlah
Petu
fucked
lakunya
ranum
Hahahah
closet
Darussyifa
July
Anyyeong
##berus
KLI
KLIA
tawarkan
menepikan
tkde
falls
silapnya
cekikan
lightly
believed
studying
Eryn
Hafshah
bubble
Qashaf
##angsungkan
Badrul
absent
jumpai
pemberani
pemberontak
jobs
HAHAHAHAH
toner
memperbolehkan
soldi
bijaksana
##point
fourth
Arghh
Ainul
usikan
Hamsterdam
Taeyeon
tutor
destination
psikologi
Huwa
Chef
sobar
mengantarkannya
naturalist
fisiknya
alamatnya
Menjelang
perhentian
Fakhri
##laim
diwaktu
Cerberus
##ebruary
##ability
tertumpah
##UPATEN
BETUL
urusanku
haihhh
customers
pleased
beraktifitas
virus
buildings
cerdik
Jessica
speaker
azam
Tetaplah
Woii
Phillip
Tinus
Urgh
Urusan
hikmahnya
berkhidmat
kinerja
MENGATASI
chairs
mengkilap
center
akademi
Bermula
pembelot
kafir
glasses
simbah
scarf
Highschool
Palembang
hapenya
jangkaan
##YEON
judes
Charles
bertautan
Pencipta
Aiyyu
Hurmm
SERAM
mutlak
melapor
mixed
melonjak
berbahang
dikepala
mengenyit
taktau
lasak
sumbangan
PENJU
pelawaan
advant
bolanya
AKHIR
cebisan
streets
jempolnya
Kotaro
Internet
oppanya
Mempert
indicate
fesyen
festival
jangkauan
jangkrik
accompany
princes
berkepala
TERBARU
chaewon
hobby
못
dandanan
menguping
Arabella
hentakkan
##ANJANG
Kudengar
diartikan
diberhentikan
communication
Aidid
Hasilnya
Impian
henfon
mengidap
administrasi
prevent
Mandor
repeated
prediksi
FROM
Mingyu
menyempurnakan
giggled
BEST
SEPERTI
switched
Cherry
stereng
December
Almost
teddy
tinjunya
perasaanya
Besides
thorough
companies
Tembakan
buffalo
BILIK
Khalil
byk2
Dzulk
KABUPATEN
OLD
seiras
Alaska
iPhone
psycho
badmood
ikhtiar
sneakers
##잖아
previous
berkarya
merutuki
venue
dramatis
Feeling
ttararattara
Ketakutan
Springbed
darisana
rambutan
mencelakai
TUNGGU
tetanggaku
spiritual
mengamatinya
wattys
ALEXANDER
BANYAK
Utsman
berstatus
penjualan
Princes
psikiater
느낌
LENGKAP
Terengganu
SNSD
Pertarungan
Perlukah
ekspedisi
Wanwakila
ditumbuhi
PENJUAL
Dzulkarnain
49
59
84
Bil
Body
Bingkas
Belakangan
Cic
Clo
CAS
CIT
CCT
Cumbuan
DH
Data
Dist
Doni
Daichi
Esa
Fa
Fb
Filan
Festival
Gerhana
Gundam
Genius
Hasan
Hindu
IV
Ice
Ilahi
Jol
Jamb
JUST
Jordan
KH
Kandang
Kunc
Kout
Kite
Kuy
KAY
Kriwil
Keey
Kuliah
Lita
Letak
Lev
Luck
Liburan
LDR
LIKE
MT
Mut
Mala
Muah
Mie
Mike
Miy
MUKA
Nk
Num
Nangis
Niss
NAD
Nomor
Oalah
Ogah
PS
PT
Padang
Peluk
Psik
Pusing
Rh
Rek
Rant
Remb
Rela
Rengek
Rihlah
Sisa
Sip
Sambut
Sori
Sabr
Skip
SAB
TX
Tes
Tai
Tulang
TANGAN
Usianya
Visa
WC
WAN
YONG
Zed
aida
azab
baja
bip
bunc
bondong
cs
cig
camar
code
ding
dart
emmm
fed
feb
flies
foli
faint
gah
hind
hamun
hayang
hoa
hollow
hunting
hijrah
jamu
jaz
jail
jorok
kingk
kmi
lal
lamat
lens
lief
mamb
nara
norm
nanggung
oiya
ogah
odd
pra
piku
qib
rawan
rencanakan
rasional
sd
sali
tiru
tgn
tanding
tunjukan
tayangan
vision
vomen
valldo
wib
wider
wifi
yus
미
❤❤
##eem
##epa
##equ
##yur
##yaku
##mg
##mun
##murah
##but
##buran
##rt
##rd
##rya
##reh
##rtle
##robe
##lakan
##late
##last
##tak
##pak
##panjang
##paper
##kg
##SALAM
##AIK
##HAM
##Urtle
##cort
##fl
##zza
##vals
##qua
##xo
##LA
##LAND
##18
##MIN
##던
##늘
##시
##려
##히
##할
##ᴬᴺ
##eraman
##erkah
##enangannya
##akimi
##atun
##atik
##ators
##arus
##inah
##alhah
dipun
diambang
diandalkan
menangkan
menabr
menanjak
mensy
menabur
menantunya
##undah
##apapun
seor
seingat
##ades
##adapi
berfir
berzikir
keiman
##engers
##isat
##isian
##ingit
tertukar
tertib
terajang
##itunya
memaku
memulainya
##ihari
##ules
##onn
##onment
##uris
##utal
mengeks
mengulur
mengisahkan
menginginkannya
##idiki
##uments
##usantara
##eset
##ekapkan
injin
##orth
perusaha
perajurit
peribadinya
pertumbuhan
anni
aniaya
analisa
##ajud
##ajja
taks
##eding
[...]
