[PAD]
[UNK]
[CLS]
[SEP]
[MASK]
!
"
#
$
%
&
'
(
)
*
+
,
-
.
/
0
1
2
3
4
5
6
7
8
9
:
;
<
=
>
?
@
A
B
C
D
E
F
G
H
I
J
K
L
M
N
O
P
Q
R
S
T
U
V
W
X
Y
Z
[
\
]
^
_
`
a
b
c
d
e
f
g
h
i
j
k
l
m
n
o
p
q
r
s
t
u
v
w
x
y
z
{
|
}
~
¡
¢
£
¤
¥
¦
§
¨
©
ª
«
¬
®
¯
°
±
²
³
´
µ
¶
·
¸
¹
º
»
¼
½
¾
¿
Æ
Ð
×
Ø
Þ
ß
æ
ð
÷
ø
þ
Đ
đ
Ħ
ħ
ı
Ł
ł
ŋ
œ
Ə
Ɛ
ƒ
ƿ
ɐ
ɑ
ɔ
ɕ
ə
ɛ
ɡ
ɣ
ɪ
ɯ
ɾ
ʁ
ʃ
ʈ
ʊ
ʌ
ʎ
ʒ
ʔ
ʕ
ʰ
ʲ
ʷ
ʹ
ʻ
ʼ
ʾ
ʿ
ˈ
ˌ
ː
˚
˜
Α
Β
Δ
Ε
Ι
Φ
α
β
γ
δ
ε
η
θ
ι
κ
λ
μ
ν
ο
π
ρ
σ
τ
χ
А
Б
В
Г
Д
Е
З
И
К
Л
М
Н
О
П
Р
С
Т
У
Ф
Х
Ц
Ч
Ю
Я
а
б
в
г
д
е
ж
з
и
к
л
м
н
о
п
р
с
т
у
ф
х
ц
ч
ш
щ
ъ
ы
ь
э
ю
я
ѕ
і
ј
Қ
қ
ҷ
Հ
ա
ե
յ
ն
ր
ב
ד
י
ע
ר
ש
ת
،
ء
ا
ب
ة
ت
ث
ج
ح
خ
د
ذ
ر
ز
س
ش
ص
ض
ط
ظ
ع
غ
ـ
ف
ق
ك
ل
م
ن
ه
و
ى
ي
١
٤
ٱ
پ
چ
ڌ
ښ
ڠ
ڤ
ک
ڽ
ۇ
ی
۞
ۥ
ۦ
۩
ݢ
आ
इ
ए
क
ग
च
ज
ट
ठ
ड
त
द
न
प
ब
म
य
र
ल
व
स
ह
ा
ि
ी
ो
।
ং
ব
ল
া
ਜ
ਪ
ਬ
ਾ
ੀ
ગ
જ
ત
ર
ા
ી
ஜ
த
ம
ழ
ி
గ
త
ల
ు
ಕ
ಡ
ನ
ം
മ
യ
ല
ള
ാ
ං
ල
ස
හ
ท
ภ
ย
ษ
า
฿
ไ
ລ
ວ
າ
စ
ဗ
မ
ာ
ა
თ
ი
ლ
რ
უ
ქ
ღ
ᄀ
ᄂ
ᄃ
ᄅ
ᄆ
ᄋ
ᄑ
ᄒ
ᅡ
ᅥ
ᅦ
ᅩ
ᅮ
ᅳ
ᅵ
ᆨ
ᆫ
ᆬ
ᆯ
ማ
ር
ኛ
አ
‐
‑
–
—
―
‖
‘
’
‚
‛
“
”
„
‟
†
‡
•
…
‰
′
″
‹
›
※
‼
‿
⁉
ⁿ
₁
₂
₡
₨
₪
₫
€
₮
₱
₴
₽
⃣
℃
™
Ⅱ
←
↑
→
↪
↳
⇒
⇢
∀
−
√
∞
∠
∨
∩
≡
≤
≥
≦
≧
⋅
⏩
⏪
⏭
⏺
─
│
┆
┬
╰
█
░
▓
■
□
▢
▪
▫
▲
▶
▸
►
▼
◆
○
●
◕
◙
◠
◦
◼
◾
☀
☁
☂
★
☆
☎
☐
☑
☔
☕
☘
☛
☝
☞
☺
♀
♂
♚
♛
♠
♡
♣
♥
♦
♨
♪
♫
♬
♲
⚀
⚁
⚂
⚃
⚄
⚕
⚘
⚜
⚠
⚡
⚫
⚽
⛔
⛦
✅
✈
✋
✌
✍
✏
✒
✓
✔
✖
✧
✨
✩
✳
✴
✿
❀
❇
❋
❌
❎
❓
❗
❝
❞
❢
❣
❤
➕
➖
➛
➟
➠
➡
➢
➤
➧
➨
➫
➳
⟵
⟶
⟿
⠀
⤵
⥁
⬇
⬛
⭐
⭕
、
。
《
》
「
」
『
』
【
】
か
て
に
の
を
ア
イ
コ
ツ
ト
ノ
フ
ン
・
ー
㋡
㎡
世
中
二
井
人
会
体
冬
分
划
匚
发
取
口
同
图
处
夏
大
寒
小
巴
年
库
度
戸
提
政
文
日
明
春
暑
本
港
牋
用
疋
白
百
秋
立
端
简
線
繁
网
胸
自
至
語
语
货
车
雨
雪
面
页
马
體
鹿
ﬁ
ﬂ
ﬆ
﷯
ﷲ
ﷺ
ﷻ
﷼
ﺍ
ﺎ
ﺟ
ﺪ
ﺮ
ﺴ
ﻘ
ﻟ
ﻠ
ﻢ
ﻣ
ﻮ
ﻴ
！
＂
（
）
，
－
：
；
？
～
￼
𝔸
🆙
🇦
🇲
🇺
🇾
🌍
🌒
🌞
🌟
🌱
🌶
🌷
🌸
🌹
🌺
🌻
🌼
🌿
🍀
🍁
🍃
🍄
🍅
🍇
🍉
🍊
🍋
🍎
🍑
🍓
🍤
🍫
🍬
🍭
🍯
🍰
🍳
🍶
🍷
🍹
🍼
🎀
🎁
🎈
🎉
🎊
🎖
🎬
🎮
🎶
🏃
🏄
🏅
🏖
🏘
🏭
🏵
🏷
🏻
🏼
🏽
🏿
🐐
🐝
🐠
🐣
🐼
👆
👇
👈
👉
👋
👌
👍
👏
👒
👕
👗
👙
👥
👨
👩
👫
👳
👶
💃
💄
💅
💆
💉
💊
💋
💌
💍
💎
💐
💓
💔
💕
💖
💗
💘
💙
💚
💛
💜
💝
💞
💟
💠
💡
💢
💣
💥
💦
💧
💨
💪
💫
💬
💮
💯
💰
💲
💳
💵
💸
📇
📊
📌
📍
📎
📔
📖
📚
📜
📝
📞
📠
📢
📣
📤
📦
📩
📬
📮
📱
📲
📸
🔅
🔆
🔊
🔖
🔗
🔥
🔪
🔬
🔮
🔰
🔴
🔵
🔶
🔷
🔸
🔹
🔺
🕌
😀
😁
😂
😃
😄
😅
😆
😇
😈
😉
😊
😋
😌
😍
😎
😏
😑
😒
😓
😔
😖
😗
😘
😙
😚
😛
😜
😝
😡
😢
😣
😥
😨
😩
😫
😬
😭
😯
😰
😱
😲
😳
😴
😵
😷
😸
😼
😿
🙂
🙃
🙄
🙅
🙆
🙈
🙋
🙌
🙏
🚐
🚕
🚗
🚘
🚚
🚩
🚫
🚿
🛍
🛑
🤔
🤗
🤙
🤣
🤤
🤦
🤩
🤪
🤭
🤰
🤳
🤸
🥀
🥣
🥰
🧀
🧐
🧚
🧬
##E
##N
##J
##A
##M
##U
##a
##s
##m
##r
##n
##B
##i
##S
##y
##H
##b
##e
##p
##0
##9
##d
##w
##k
##t
##u
##o
##l
##g
##f
##v
##j
##h
##5
##3
##7
##4
##c
##D
##R
##K
##G
##P
##И
##2
##✔
##1
##L
##I
##q
##T
##x
##z
##6
##8
##C
##O
##V
##F
##Q
##Z
##®
##W
##Y
##α
##²
##X
##™
##ı
##ا
##ذ
##ə
##œ
##⚂
##⚃
##☺
##а
##👇
##ж
##о
##б
##с
##м
##ب
##ل
##غ
##ن
##€
##ي
##⚕
##💉
##👨
##я
##в
##и
##т
##¹
##¬
##÷
##❗
##º
##ش
##ء
##│
##æ
##♥
##ˈ
##ɾ
##😱
##ø
##і
##р
##е
##ر
##ع
##♦
##💃
##🏻
##द
##र
##©
##⃣
##🍃
##🌼
##👩
##Ф
##😍
##🐣
##🏼
##س
##ـ
##ت
##ه
##ۦ
##ð
##❤
##🌹
##л
##н
##❌
##⟶
##■
##🌷
##🚫
##ʼ
##Р
##у
##к
##¢
##📢
##ᅡ
##ᆫ
##ᄀ
##ᅮ
##ᆨ
##ᄋ
##ᅥ
##ไ
##ท
##ย
##🤣
##ح
##ة
##ь
##ш
##😉
##½
##ю
##ƿ
##●
##📦
##д
##₂
##ы
##х
##م
##✅
##δ
##≤
##😎
##▪
##و
##ى
##ق
##ف
##ღ
##˜
##¦
##³
##ß
##×
##⚡
##ڠ
##đ
##🔥
##ƒ
##ث
##ा
##ʻ
##ك
##ʔ
##г
##മ
##ല
##യ
##ാ
##ള
##ം
##خ
##ٱ
##≥
##🤪
##ز
##ɑ
##ص
##😆
##´
##😘
##ी
##🍀
##😇
##→
##ⁿ
##ɛ
##М
##ʒ
##ː
##щ
##🏖
##🤗
##د
##ک
##😁
##з
##💚
##😔
##ч
##👍
##ʊ
##ц
##📲
##💝
##❓
##п
##🔬
##😜
##😄
##😊
##★
##🌸
##💎
##😂
##⚘
##✿
##😅
##📞
##✈
##ض
##£
##ʁ
##🇲
##🇾
##🍑
##ج
##📣
##✌
##ط
##⬇
##Д
##О
##न
##व
##þ
##ব
##া
##ং
##ল
##Б
##ъ
##°
##🏿
##ɪ
##ɐ
##👈
##😢
##👥
##🤔
##ン
##ツ
##▼
##ѕ
##ᆬ
##💘
##💯
##າ
##ວ
##ﬁ
##💜
##ि
##ڤ
##🏽
##♂
##📱
##ल
##त
##🐐
##🍁
##🎀
##¨
##प
##क
##🤦
##♀
##ʿ
##ی
##👆
##💪
##ظ
##❣
##−
##👗
##ł
##⚽
##⇒
##Ð
##🥰
##✏
##Æ
##🙆
##💕
##😑
##э
##ʹ
##ो
##म
##Т
##ҷ
##த
##ம
##ி
##ழ
##త
##ల
##ు
##గ
##У
##ݢ
##😚
##❋
##٤
##±
##👉
##❇
##🍳
##√
##👫
##ﷻ
##Þ
##ʃ
##θ
##🤭
##﷯
##स
##💋
##₮
##💦
##😓
##📍
##¼
##👏
##π
##🤩
##ﬂ
##🍫
##ħ
##ʷ
##ᅵ
##ᄒ
##ɔ
##ʲ
##⤵
##😭
##ह
##💰
##ʾ
##💣
##ﬆ
##😙
##▲
##🕌
##🌱
##🥀
##の
##🌻
##✨
##ट
##σ
##τ
##ρ
##ο
##ν
##💗
##🙌
##ʈ
##🚕
##✋
##י
##ד
##ש
##─
##ŋ
##♡
##👋
##💬
##♬
##♪
##►
##ڌ
##ස
##ං
##හ
##ල
##😏
##😬
##ڽ
##🙈
##🙃
##ﷺ
##☆
##🏘
##⠀
##¤
##❢
##😯
##㎡
##С
##🎉
##🧀
##¸
##💖
##ע
##ב
##ר
##ת
##ア
##←
##😡
##❀
##💞
##ﻟ
##ﺴ
##ﻠ
##ﻴ
##ﻢ
##Հ
##ա
##յ
##ե
##ր
##ն
##😃
##⚀
##⏭
##Ε
##λ
##η
##ι
##κ
##Қ
##қ
##ગ
##જ
##ર
##ા
##ત
##ી
##ಕ
##ನ
##ಡ
##ठ
##ภ
##า
##ษ
##🤤
##ј
##😛
##ʎ
##💅
##┬
##∀
##✧
##💵
##ۥ
##⛦
##🍭
##🍬
##◆
##य
##ɡ
##🌿
##☕
##～
##🙏
##ब
##⚠
##ф
##Е
##ज
##➖
##🧐
##आ
##😲
##ʰ
##🎈
##💸
##☁
##ᆯ
##ᄅ
##ᅦ
##😒
##◼
##ᅳ
##ᄆ
##ᄃ
##💐
##🙂
##β
##♛
##🎊
##🙄
##📝
##📚
##😌
##☞
##😣
##☀
##🏃
##⭐
##μ
##😩
##👌
##💙
##ग
##🇺
##💌
##አ
##ማ
##ር
##ኛ
##コ
##µ
##⛔
##▸
##🌟
##🍋
##😋
##🤳
##😳
##😿
##К
##฿
##⚫
##℃
##ɣ
##🌒
##🍼
##ɕ
##😷
##ड
##😝
##မ
##ာ
##စ
##💊
##🎮
##ー
##😗
##ᅩ
##に
##🌺
##💛
##🙋
##😫
##💍
##🍓
##ᄑ
##ᄂ
##ﺟ
##😴
##ª
##¯
##💥
##👶
##ﺪ
##ﺍ
##ﻮ
##ﻘ
##ﺮ
##ۇ
##چ
##ʕ
##🍹
##☝
##🔹
##📸
##Φ
##フ
##イ
##🍤
##پ
##ښ
##ਪ
##ਜ
##ਾ
##ਬ
##ੀ
##ʌ
##ɯ
##ﺎ
##♠
##⋅
##ˌ
##🤙
##¾
##░
##▓
##█
##🚗
##🍰
##Н
##Я
##🤰
##Ø
##😰
##ဗ
##💆
##😼
##П
##☘
##て
##ქ
##ა
##რ
##თ
##უ
##ლ
##ი
##￼
##😀
##ﻣ
##🇦
##А
##💨
##В
##➡
##˚
##ト
##١
##ए
##😸
##ε
##💓
##📤
##इ
##Ι
##♫
##⏪
##🚩
##📖
##🏷
##♲
##□
##¥
##🔊
##🍷
##💢
##❞
##◠
##च
##✴
##Δ
##۩
##۞
##🍄
##😥
##♣
##≡
##🏵
##💮
##╰
##▶
##∨
##🍉
##💫
##🐼
##🔪
##📮
##📠
##χ
##🙅
##Ц
##ஜ
##😖
##∞
##₁
##🎁
##💄
##💠
##😈
##∩
##🔰
##Ⅱ
##🚿
##Х
##🌞
##📜
##🎶
##✖
##💡
##👙
##😵
##😨
##🍎
##ລ
##≧
##≦
##🍇
##Ł
##📌
##❎
##♨
##💲
##an
##er
##en
##ar
##la
##at
##ang
##ak
##ah
##in
##em
##as
##am
##un
di
##kan
##al
##da
##eng
##tu
se
##ya
##ti
##ala
ke
yang
##el
##on
##ai
dan
##si
##ta
ber
##ur
##di
##or
##ag
##ing
##es
men
##ik
##ap
##ela
##um
##ada
##is
##us
##ek
per
##id
##uk
##ul
##il
##emb
##AN
in
##ari
##le
##ut
##it
ter
##tuk
##ara
##ir
##ung
un
##alam
##ja
##eb
##ih
##akan
##lah
meng
##ab
untuk
##im
##ad
an
##aw
##atan
##engan
##ro
##ga
20
##nya
dengan
##eri
##om
##eg
##ama
##et
ini
##ku
Per
dalam
##aya
##ol
##angan
##uh
seb
##leh
pen
##asa
##ri
mem
##ed
##up
##ent
##aj
##pada
201
##agi
##aan
##ud
ada
##and
mer
dari
##ep
##ub
##ana
##ER
##aran
memb
##asi
ker
##sia
##idak
##ok
##lu
##ati
##ali
##ot
itu
##per
In
##uan
tidak
##AH
##he
##ain
peng
##ac
##ong
##oh
##ia
##AR
##alan
##ita
##lam
pada
##ahan
##ay
##ula
##os
sem
##amp
##ata
##ua
##agai
##amb
##adi
Pen
##tik
##uat
##AT
##anya
##gi
##ter
kepada
##EN
##alah
ju
##eka
##pat
Ke
##oleh
##ila
akan
##aja
##ib
##elah
##IN
mas
##tau
##ian
Al
tah
aku
or
##eta
##tan
adalah
An
Ber
##ukan
##alay
meny
##pa
Peng
atau
sek
berk
Is
##ic
Ter
##00
##alaysia
##re
oleh
pro
##ami
##yak
##og
the
##gun
##AS
##angk
##ip
mereka
Malaysia
anda
saya
juga
##od
##end
##aman
##af
##ant
bah
##ec
boleh
Un
##ini
orang
##atu
##ebih
telah
##AM
##ew
##san
##angg
##AL
pem
##tr
##aik
tahun
##jadi
##aru
of
##emp
pemb
##elak
##yar
tak
kita
##apa
ak
dib
is
##edi
sebagai
Ker
neg
##op
##asan
##arkan
al
bagi
##AK
Di
mel
lebih
Pro
and
##elaj
##ind
##arga
##EL
ser
bers
##orang
##anc
daripada
2019
##uj
sen
kem
as
##yat
##ump
##tas
##EM
##anj
Islam
##pi
##awa
##angs
mak
##udah
dis
##ulan
##uah
19
lain
##li
to
Men
kes
dik
##apat
##ingk
mela
satu
##uc
##if
##ihat
##ANG
##tara
##ina
##ika
pel
hari
##gunakan
##ej
##uran
##uka
##tor
bel
##ebut
##anyak
menjadi
##perti
##iti
##arang
ters
##tem
Sh
th
##ver
##UN
Ch
##unya
seperti
##mat
##dapat
##ow
##ingg
dia
##tama
##alu
lagi
##au
##man
##utu
dapat
perk
##ihan
##ungan
kerana
##hid
##uti
##anan
##az
##duk
##usan
##uhan
##mas
##imp
##anu
##ajaan
##iz
##ation
##lat
##ig
Sem
PER
##inggi
##bu
PEN
##ont
ni
10
apa
##ungk
##angkan
##cara
menc
##arah
ses
Bah
##UR
ag
##diri
##ch
anak
##iau
negara
##etu
##utan
##olah
pas
kami
##enar
##IK
##uar
##hir
Ar
##tion
##osi
##umah
As
terb
##TA
Pemb
##IS
##ran
min
##lum
mengh
##iran
##matan
##upakan
Pem
##esar
##lis
keb
nak
Neg
##antu
##ve
##ES
ap
##ima
masa
##elajar
memp
secara
##isi
##adap
tan
##ON
##ilik
merupakan
##est
##dang
##unan
##atkan
tersebut
##omp
##int
##ingga
##agian
berb
##ine
semua
##anti
##inya
tu
##apan
perlu
##anak
Ab
##ger
##ort
##ob
Kem
##umb
##dikan
Sel
##edia
##ram
##elum
SE
lalu
##urut
##OL
##ahu
##US
Se
kep
si
baru
pun
menj
##aian
mana
##usi
Dan
##AD
##ikat
Allah
bukan
Am
##AI
##aga
##tika
##anita
##log
##ra
Mela
teta
##yah
sah
##ust
Dalam
ia
Sek
ken
beb
##empat
##uru
Meng
atas
##pas
##akat
kaw
Moh
##its
ti
sama
##enteri
##yu
Ak
##api
Mer
200
Seb
##tif
##unyai
dah
Untuk
Mas
##unia
DA
##awatan
sebuah
bahawa
##angat
##ARA
##wa
##laku
memberi
##AJ
banyak
kec
##ingan
Ku
##ef
KE
##ce
mempunyai
Ini
##lui
peny
Yang
antara
##IL
##one
terh
##ual
##imb
##mp
en
##alau
hanya
##udi
##ni
dua
ar
So
seorang
##aikan
ialah
serta
har
##ihak
##th
Sela
Saya
##na
##ota
##amai
Ap
##inan
##esi
##ING
baik
##mad
Ah
kel
##edah
berkata
##ongan
##ambil
Mak
##akyat
sel
rumah
##eli
##abila
##AW
##era
##sih
##alkan
##nah
##asil
Dat
##elaki
sele
##ts
Ind
beliau
##ting
##ungi
Tag
##adan
##unc
##didikan
bi
##entang
12
##arik
DAN
##ail
seh
com
dip
diper
##unj
tinggi
##ons
St
##las
bert
kata
##OR
##atanya
##orm
##ori
##tiv
##eo
sej
pers
Pel
so
Perk
##aha
##gram
dit
##iri
##IT
sebelum
##aitu
##ajian
Kes
Melayu
##andar
##aca
##AY
hits
##angsa
menggunakan
##uda
##ira
##erita
##UK
Kel
##st
Kh
##lan
##ess
##erah
sudah
##UL
##tiap
##bat
##dul
##IM
##erapa
##dik
##ulu
##lumat
##eh
pol
##ikut
##lak
##ov
##jaya
Pada
##UM
pula
on
Az
##teri
terhadap
Tan
bek
##entuk
##onal
##ID
##jap
##IA
pihak
st
##istem
tetapi
##yarikat
##mi
melalui
selepas
##lim
mener
aw
##ses
buat
sendiri
kerajaan
##aji
kelu
##ulis
berm
kur
##ani
ked
##engah
##ma
##enis
##entu
##olo
##tak
En
The
pelajar
##ERAH
Bel
bersama
kh
##uang
produk
iaitu
berh
diri
##inta
besar
mendapat
##aun
##den
makan
ketika
##aling
kar
##ks
##hidmatan
kereta
hid
wanita
##ekn
2018
##lik
##ly
us
##atakan
par
##erja
11
dunia
Negeri
am
beberapa
##ev
mengen
15
##ilihan
##tua
##ajlis
masih
##awah
Par
membuat
##abatan
UT
res
DAERAH
sangat
##akah
ad
##ologi
pr
bulan
Th
Lif
##ateg
berp
##gin
##agaan
Ad
##ungkin
jadi
##upun
##ungg
katanya
##asar
kom
##inc
##yarakat
##tim
##anusia
Pak
##elas
Mah
ku
set
PR
apabila
##uli
##dap
##epas
##angunan
sahaja
air
##upaya
pend
##ingkat
##uatu
##ers
##ukkan
terk
##oc
##ez
##ohon
Sep
Anda
jika
Mar
sep
##atang
su
memper
Tah
setiap
lelaki
##umlah
Aku
##akit
##mu
##gan
temp
Pi
##uku
mur
Keb
kerja
##any
##bagai
Menteri
14
sekolah
##usat
kawasan
Si
##ena
Abdul
kali
##aat
13
##ment
BER
Kuala
la
for
##aki
##alik
Mohd
##iver
mend
##ember
samp
##tikan
Kami
digunakan
tentang
##ear
##ei
##tis
tr
utama
##ekan
##igh
##ENG
Sy
##amun
##unga
##ilai
##engg
dir
Dengan
##tern
Kerajaan
##ook
##mana
##aerah
Ag
##onom
##engk
##AB
tempat
##jaw
##IR
Ser
##jalan
rakyat
##aitan
##tur
mes
terle
##ATAN
Pol
PENG
##masuk
##otel
cara
##akar
negeri
##endah
##otak
##ug
Or
##tar
##sa
##INTA
dih
##ipta
##aliti
##abi
terus
##ensi
TAH
berd
Pas
##angor
##UT
##elajaran
Set
this
Hari
manusia
tahu
##ebab
Peny
##jek
##eja
##ideo
##alaman
masyarakat
##ilan
masalah
termasuk
ah
2016
##uruh
Pers
##UAR
bawah
##anjang
KINTA
sini
##uduk
ramai
hidup
salah
Dis
Mus
UTARA
em
##de
PAS
##ampung
selam
ka
Selangor
sela
##rah
isu
##tiviti
mungkin
##amu
Gr
##aktu
pertama
Terb
##onesia
sekarang
##av
##aju
##ilang
##AAN
Um
Cat
pernah
##ahkan
Jabatan
30
SEK
Datuk
##acam
16
##otor
bin
kanak
Pin
##amad
Majlis
##anggan
terp
Ras
##urusan
##umpulan
##ord
kek
Produk
##ubungi
##enc
##ebabkan
##askan
##our
##ff
2017
Mes
mudah
##ola
##ustri
##ambar
harga
sehingga
pelbagai
sekali
##ital
##gunaan
##ate
##aris
Hak
perm
hingga
##sihatan
##EK
##awai
Sp
##line
##eks
sk
maklumat
##itar
TAHUN
##iversi
Muh
pin
##ore
##AG
Indonesia
##omb
Pr
##wan
guru
man
##onomi
perc
##itik
at
##lang
DI
Dari
bahasa
##ank
perkara
##ongsi
blog
Bahagian
##umber
##und
17
199
18
Ia
##OLAH
##etul
sh
pes
tapi
Mem
hati
sebab
##ilih
dem
Har
##AP
ang
##ambah
Perm
Sekolah
##amah
Tr
masuk
undang
dil
berlaku
Sur
Ti
##EG
pela
SEM
dim
ab
mula
mengenai
##ampu
tanpa
membantu
##atif
##elu
##dai
##anduan
Ketua
##han
il
##antan
SEKOLAH
##OG
Pendidikan
Negara
##jawab
##der
syarikat
pak
##ost
##ili
##me
paling
Kereta
##egi
Pula
##guna
be
##ender
##uman
Kep
IN
##TAN
nama
##OM
##oy
##ler
semasa
##ach
Ib
turut
##udian
Bahasa
mata
um
##utusan
berken
perb
AS
Joh
Tak
terletak
Unit
##ju
Hotel
##etak
kini
ek
injap
##uas
##atus
ibu
##uskan
##elamatan
sur
##alangan
mengg
Seri
Jika
sistem
##alaupun
melihat
##ekerja
##adaan
kira
semula
##ity
##ajib
##idang
Bers
And
Res
jam
Blog
##anding
wh
##itam
kedua
##ru
Pulau
Sab
cont
2014
##UH
##adar
lama
##roid
##raf
##ubungan
mod
##ris
Aw
##ond
##ikir
##OH
##inggu
##arat
China
tiga
diberi
##ard
##agu
##ader
berkenaan
##ator
luar
##embali
agama
Air
##ayar
##kuasa
##uma
Ahmad
MES
##eter
##oran
##ee
bentuk
jenis
akhir
On
mengambil
seg
kurang
penting
##ediakan
Ins
##urun
AL
##ASA
emas
##agaimana
rasa
bak
##hi
UM
##uai
##indakan
mahu
##akin
ahli
Bunga
##upan
##unjukkan
kalau
tel
##IAN
sp
maka
ins
##anggung
Kotak
##ammad
##untu
##usnya
##kukan
##se
##ET
Beliau
Perkhidmatan
ind
##isa
bila
hadi
##vid
kat
##20
##dia
##adang
para
##ci
macam
IS
Tidak
24
##egawai
##arna
##uba
memang
2015
##niagaan
jalan
lah
##ejabat
memas
##ibat
##epat
pert
##din
Shah
Sen
##duc
bahan
Kom
##awan
program
el
Kec
##ith
Apa
laman
##eknologi
murid
##iversiti
##osial
##asih
##NO
pilihan
##isah
Hadi
berc
##ohonan
dij
##angka
##angsaan
sesuatu
betul
##engar
PEL
##ujud
##form
Alam
keh
suka
##enarai
melakukan
mah
Tahun
##YUAR
##YUARAT
MESYUARAT
##resi
Rah
kajian
##ultan
##lukan
##uri
that
##iliki
juta
##titu
berkaitan
Dia
##erb
malam
Cara
##itan
Man
sy
##atian
##ry
##min
##hidupan
##ihara
##egitu
##por
##ekat
##umpur
##epan
##mar
25
##asarkan
ingin
##ilem
##yakit
MEN
kecil
Us
Kita
lap
New
##enang
##ular
datang
##ge
##ulang
supaya
##tikel
tiada
##lakukan
Harga
##rop
##ous
##akhir
pendidikan
Laman
21
bahagian
##alas
sus
##pek
awal
terdapat
##uhi
##aksi
Berk
##kini
raya
kon
str
##iba
##ikasi
dic
sebenar
##atik
##yataan
##ungkusan
Ada
politik
BIN
tert
penc
PEM
ex
Pes
mampu
din
##ahw
dilakukan
terbaik
##UAN
##ikal
Pusat
##ahiran
100
Go
KON
##eti
##IH
##osp
##perasi
##ARAN
Ben
Senarai
##dana
diken
sedang
##enterian
##aku
##ld
##anjut
Min
mencari
makanan
##empuan
Lumpur
Bon
Johor
berada
##ingkatkan
##ham
##ill
Jalan
badan
##ubah
ik
ras
##ome
keadaan
rendah
Orang
##ukar
isteri
pengh
Memb
parti
##ERI
pan
Hubungi
gol
Tim
masing
##qu
##ou
##endak
ilmu
##eal
##yen
Bi
22
hak
##angkah
##te
##OK
##asional
mengikut
##tad
##rom
##elihara
##antuan
Muhammad
Dew
##all
Bin
##uz
##lasan
Pengurusan
##jid
keluarga
##impin
Program
##enti
##land
##angsung
Bagi
##ikan
##alian
memberikan
Kelantan
##lo
proses
BIL
##ekal
##TI
##ospital
##ungai
keluar
Co
##ubahan
##daf
##ulit
menerima
kemudian
UN
##inggal
##age
web
data
cerita
##divid
menunjukkan
##upa
US
kamu
sampai
Anak
##lalu
selama
##mb
minyak
Kesihatan
TER
ur
##ajar
cuk
Mei
Daerah
##UNG
Video
##sanakan
##akap
kan
Sej
UMNO
No
##awat
##aks
##ton
sun
##als
kehidupan
Hy
Mereka
##esen
Android
##tud
je
Ken
hal
Rumah
aktiviti
hasil
berjaya
##LE
##ilangan
ac
Mat
sed
con
##ha
##lic
##bil
##ategori
##engganu
##oz
kembali
Ass
Tempat
bay
dig
##lin
Oleh
##ambut
Sultan
##sik
sejak
##anggungjawab
Tun
##apkan
sebanyak
komp
keluli
##ahui
tindakan
##ert
mul
##ED
##ne
##OS
Jawatan
Antara
##ji
Dr
##pan
##esa
pasti
##ajah
ket
diter
tanah
memer
##uhkan
biasa
dibuat
##entera
00
Namun
pemer
##antar
##anda
membawa
##yarat
##ura
Terengganu
pergi
Makan
##oll
amat
nilai
Sistem
buah
##amanya
media
lepas
Semua
Tinggi
##AMA
##port
agar
Quran
##kamah
penj
benar
ganti
Nor
Wanita
mis
Panduan
Menurut
##adah
Perb
berg
Lap
KONE
##ilayah
000
##autan
alam
Injap
Ahli
mat
Motor
perkhidmatan
Tanah
##USAN
pet
##iranya
kos
##IKAN
with
Perdana
##ANGAN
gun
##eles
##wak
##ast
Sk
##apai
ayat
ekonomi
##UB
##ss
Put
Kalau
keper
MAL
waktu
Syarikat
seluruh
komun
tuj
##okok
Perak
##residen
Im
harus
begitu
AN
##uhnya
##are
##ains
Jadi
menarik
##okong
##etahui
Kementerian
sumber
Ik
Besar
imp
Bonus
##wangan
##alon
23
rakan
##likasi
##oto
##uasa
##uit
##etah
##rans
##caya
Ro
wang
##ungsi
angg
26
are
##dividu
jumlah
Lemb
##lee
pand
beras
##umi
terut
ma
##no
sekitar
Kod
##luan
Keselamatan
Catatan
Ex
##cipta
Muslim
menyebabkan
##atihan
im
kumpulan
khus
perempuan
Em
keputusan
Lo
up
##IC
##uddin
##enda
##ex
Pejabat
bidang
tiba
Terp
Kar
##ement
##fi
Ram
##ack
Baru
##aiz
Tapi
Selain
##ikum
belum
Piec
Ros
usaha
##ary
##arikh
Ele
memiliki
##ty
RM
##ebook
##antung
sosial
Pap
##ullah
Fac
sub
##sten
##sis
sik
Rakyat
##erit
##asatan
##DA
##antai
var
KER
pekerja
jen
##kah
Eng
Dewan
bandar
##oa
walaupun
Pah
tangan
##ere
pengalaman
tahan
depan
##asilkan
Maklumat
Dasar
Ju
sesuai
Li
##aud
Solat
suami
##erta
##iks
##elaka
2013
##ational
perh
##unction
##amal
jelas
##utus
2012
sebarang
gambar
peringkat
##ampak
##entara
Pembungkusan
re
Bandar
##RAM
##tadb
At
ch
Online
Port
SH
##erika
##isasi
##gh
50
kuasa
##esan
mendapatkan
##sus
##ekanan
##tic
did
berj
##air
Raya
Sub
hubungan
##ambahan
##LIS
##limen
BAH
ib
Intern
tahap
##agam
##ight
Kur
##ist
Boleh
function
##jalanan
kena
##adakan
##ema
buku
##ajaran
##rib
tempoh
Kampung
Amerika
Pela
##alaikum
##intah
kons
mew
Assalam
hendak
##amil
perniagaan
daerah
Arab
##aktor
##ron
namun
##dag
##eksi
##adapan
##elur
##AC
##aid
##auh
pembelajaran
##agaiman
Sal
Mesin
Merc
##eed
Dar
##bangsa
Rasul
##apun
penggunaan
##ril
cuba
Buk
##INGK
Lihat
##amat
Berita
##ARI
Kebangsaan
Car
##get
Universiti
##antik
##ork
kela
##usaha
kenyataan
##iv
kaki
##eza
##KU
##gas
##ener
2010
industri
semakin
##ayang
##jian
##araan
akaun
Jun
KU
Br
##ui
##antaran
pintu
##tin
##sc
MAJ
Su
##irkan
berdasarkan
##SIA
##ips
##udaya
##tiasa
co
tetap
meningkatkan
MALAY
Raja
##EP
##unt
##yam
##rip
##antikan
##ie
Wh
27
NEG
##wat
KEL
Kedah
Melaka
Alat
Sungai
Hospital
Penc
kau
Guru
##andungan
##ikian
Najib
##bah
Nabi
##gn
Kota
##ox
minggu
##ell
Ang
##jaman
##eorang
Ma
perib
##abit
kalangan
Ibu
##ogle
##ropah
##ric
##embangan
##okongan
balik
keti
he
Str
##yan
ger
##urkan
Sus
##eluarkan
##awal
##old
##ink
Eropah
bilik
Sara
Kos
pagi
##iman
##ekutu
##000
Kanak
##inasi
Pet
Pegawai
##dikit
lak
Terpelihara
te
##ence
terl
##ancangan
##angun
##egang
jangan
bekas
##OGRAM
##rahim
kaum
individu
40
##arian
##arisan
PROGRAM
pemimpin
Pembangunan
Hal
##50
Permohonan
##ial
dok
sedikit
##own
Sing
jawatan
##ualaikum
Sabah
Cont
##etap
##ukum
saja
log
Mul
penduduk
##ersi
##dapati
##enaga
##ood
if
##awi
MAJLIS
##opular
segala
ciri
pusat
##iksaan
##aka
Kerja
Mac
##ebat
##ampir
##alami
not
Facebook
##anakala
##ban
##ibatkan
##taran
Ses
##ungsten
##elakang
bermula
##aklee
##isik
2011
Kaw
bertu
##006
##UD
Artikel
##ile
198
prof
ditu
##olong
turun
##jas
semp
##eknik
tanda
##andu
##eluruhan
Presiden
Jenis
organ
##utih
de
Ek
hitsM
##inar
Nov
Jangan
##lass
##akw
##ANAN
kampung
tengah
sentiasa
main
pengguna
golongan
Pelanggan
kemahiran
kap
Bul
##inggalkan
##KAN
##iling
Masa
##angga
umum
peribadi
bekalan
##okasi
Sept
##aip
pemain
Hakcipta
31
##upayaan
beli
peratus
mengur
Yus
##ait
##war
28
Bay
saat
##ans
pembangunan
semalam
##jah
Pahang
diberikan
lanjut
tim
##ekutuan
aut
Taman
seseorang
##ct
##ich
##alahan
El
langkah
AD
kasih
##aluan
##buran
polis
Assalamualaikum
##of
Asia
##ahagian
##orong
Com
##ektr
##ASI
langsung
##iew
##ck
Timur
penuh
menyediakan
MALAYSIA
from
##ahami
##sip
##apak
##jin
dahulu
EM
berikut
Dunia
Hid
Abu
Buku
India
##jasama
##kualiti
Sec
Tiada
bas
Tel
##AKL
setelah
Prof
aj
##evel
Parlimen
kaedah
Comp
Ibrahim
kesan
Temp
Ing
##ulisan
April
memastikan
Lebih
empat
##ca
##ancang
suatu
Kertas
bangsa
Bag
pat
Ali
Nama
##usia
Mahkamah
bu
##epi
filem
Google
bekerja
berf
##eper
##agaimanapun
projek
For
##SI
video
belajar
##alang
PENGUR
##tih
##dapatan
Mur
##ANT
##uny
##ubatan
keperluan
Mohamad
##ingkatan
##ubung
kertas
Elev
dulu
##lange
##ayu
Lelaki
cukup
##sp
Af
warga
##lob
awam
##alak
##iza
penyakit
Sarawak
Sri
##AYA
##isan
##itamin
Sun
##fo
##AND
kitab
##aham
Elevator
sakit
Agama
bagaimana
##asaan
##abar
##uktur
##elidikan
##gos
Nur
Polis
##atuan
##RI
rem
Terkini
Dir
##entukan
##gak
Mod
menjadikan
##rid
anggota
pe
int
##udukan
selain
##bar
Perh
##ujuk
warna
dikenali
peluang
##EB
mus
##usim
##ahun
was
##etahuan
Pend
##atur
##sif
bern
Jumlah
##ite
##engkap
sebenarnya
mati
Pengarah
terakhir
##ents
##ect
Pinang
mesti
##rat
comp
pembekal
arah
##ainan
Selepas
Rasulullah
##adis
resp
barang
pasukan
##adapi
##efon
NEGERI
AM
kulit
menulis
pengajaran
##ayat
##adual
##co
##avig
AP
sal
MEL
##uter
Ok
muda
##athir
Jep
##tadbiran
Aziz
Selamat
Umno
##erti
tem
bantuan
agak
Pilihan
Tuan
##ONG
##angkat
##uf
Banyak
##tions
##men
Cina
29
umat
contoh
##ech
menjalan
##apaian
bapa
dasar
membaca
##AIN
mar
berbanding
calon
##ole
ing
##yp
Ked
##ikiran
##ning
##ue
panjang
##ulai
Hadiah
##ayah
##alator
##utang
Bank
ob
Val
##olak
dekat
Teknologi
##edes
pandangan
situ
##encana
##aksa
Mel
##her
Ogos
Semb
mengand
lemb
Pam
##try
##akwa
##UHAI
##ams
##TUK
berita
UP
Sup
##dil
##ALAM
Bukan
it
bur
Sebagai
##ewa
perjalanan
Raz
##eluar
##andard
ayah
##impinan
soalan
PEND
berbeza
kelas
01
bag
##uanya
kandungan
##unuh
##ersih
mengatakan
Persekutuan
##ower
menyatakan
mencapai
##elang
La
Masjid
berl
kuat
ikan
##IB
sesi
##cal
PENGURUSAN
Mahathir
##anyakan
khas
##angkutan
bebas
Makanan
##alatan
##akkan
##zah
##IP
##abat
Feb
##adem
##art
Haji
##sanaan
##AWATAN
rep
Satu
lay
Bagaimana
##ilion
Ac
sepanjang
##gu
Nasional
##inaan
Jer
##enal
posi
lima
##UMP
Bila
##idur
##asihat
surat
naik
Nik
##OT
kej
DAP
##ase
##ekatan
Le
siasatan
op
##ancis
##erusi
##juan
dilihat
asal
##jadian
##ave
Shaklee
##ALA
##ahwin
perubahan
Badan
Komun
tungg
AB
##anggap
Sw
Sukan
##ublic
Jepun
##uch
##istik
dag
Grader
##enderaan
jaw
tujuan
35
memerlukan
##tia
Bersama
Dato
##timedia
Con
terlalu
##awaran
##udahan
SEL
Sebelum
huj
Apabila
##titusi
hampir
bisa
##hidmat
zaman
bakal
##impan
eks
Has
Bar
Utama
IP
##EJ
pelak
keseluruhan
##umen
Hi
##impi
##riv
cer
selalu
es
##ild
Apakah
##adu
##imbalan
Gambar
kawan
Kemas
##30
Tw
##isme
Portal
Sila
##orpor
Singap
Pener
##umpang
tempatan
##ide
Penj
##uki
belakang
baharu
Meny
Pemain
Media
##ATA
YANG
September
Disember
##angi
kilang
tadi
##les
kesihatan
Benz
##vic
Gh
mengin
solat
melibatkan
Janu
tertentu
asas
##bur
has
laut
Selatan
##abung
kisah
##imum
dikatakan
Azmi
##ance
demikian
##eliling
teknologi
akibat
Abdullah
##UKAN
ide
Fi
Sains
Mercedes
##ory
jauh
Batu
##out
Mudah
terkini
##aedah
##10
##68
menghasilkan
pengetahuan
berkualiti
Ir
##atas
##ataan
Barat
##OD
##estasi
sering
##lish
Ph
##EMB
laporan
##rin
Semasa
##ree
terj
wid
##andingan
##aturan
##AF
melak
Pan
Eks
Be
##amaan
Ketika
##inda
sejarah
It
berat
##lay
cakap
##ais
Kepada
##antas
TEK
pelanggan
Aut
Maz
aspek
buk
Mo
Bulan
Rep
##rit
Kajian
##res
##uarat
Komp
Bukit
rah
##AHAN
##yuarat
##urus
AK
Awam
##ainya
hi
##ahaya
##ame
##ebar
##aa
##asanya
##entingan
##dagangan
##tanian
2009
##INGKAT
##mah
lihat
##ock
Sch
##ifat
##IDIKAN
Op
##eraan
Sya
cinta
##daftar
##aftar
##heel
Terbaik
sokongan
BERS
lagu
tambahan
Fir
kre
Buat
##alia
##END
##rol
##ariah
wilayah
Undang
##TER
##ulkan
duit
cat
##emah
asing
selamat
##uger
mengalami
##uck
Pert
Itu
##ikh
panas
Wan
nya
Ramadan
Adakah
Kata
##buhan
03
##ASAN
maj
majlis
##osa
nanti
##adisi
##ish
bilion
##ations
baca
##anja
Dic
##erang
PENDIDIKAN
Post
mangsa
##oi
sila
Walaupun
##udio
##enai
muka
amalan
##isiko
Bahan
gener
##pun
##UP
##ght
Lagu
disebabkan
##urn
Penggunaan
##AGI
Jen
Kumpulan
sebahagian
hitsMoh
##OP
PEMB
pam
##jalankan
cepat
##olehkan
ditem
##undi
angk
murah
##audara
Berh
##etapkan
Tips
Bu
Wheel
##bih
##arap
Borang
minimum
Teta
baju
##ken
##ulihan
me
##ajikan
gag
seter
##yakan
##geris
Lembaga
kal
pinjaman
Loader
##unjuk
jugak
karat
bola
memilih
##iah
pengeluar
Wik
disi
faktor
##jak
Dua
kedudukan
bar
stud
sekiranya
pener
##GA
bertanggungjawab
##elaskan
##eria
syarat
Ya
##alin
##sian
kejadian
Tetapi
##utup
##ober
##row
##UA
inter
bunga
SP
pegawai
PENY
##ekod
##ayaan
##ester
Bak
Kab
ok
##unci
Vitamin
Kecil
terima
##ugerah
manakala
sala
##tain
##faat
Peri
menginap
Paparan
kont
##ALAN
Sumber
UNTUK
keselamatan
Ni
Piagam
November
disediakan
##gian
JAWATAN
guna
##angkap
##law
##sir
##engok
USD
60
##andaran
Vol
Il
terd
darah
##erv
##aruh
tub
kewangan
Te
##adangan
Tuhan
Perancis
bank
##lastik
Timbalan
Berc
dilak
rela
latihan
sup
tinggal
Januari
Emas
lengkap
seterusnya
semb
Re
197
Singapura
Nak
2020
##enuhi
##olusi
45
Inggeris
##ilin
##acaan
Salam
##gera
##dara
##enarkan
##asta
##mail
tenaga
Pengh
##sur
##arut
tekanan
##ki
Soalan
Log
EMAS
##indak
Bas
##24
melaksanakan
##unyi
trans
Lim
##AJARAN
##tn
Sejarah
segi
membeli
Jum
kadar
Flange
All
##60
Ger
##anta
##AKAN
##fa
hab
MENG
##akai
korang
Aktiviti
Waktu
Home
Perl
Masalah
menang
PERINGKAT
##sid
Pakatan
telefon
##gerak
Perc
hadapan
##usah
Do
##sud
Penyakit
##ental
PAN
##ahwinan
##eperiksaan
##asaran
##ombor
##anggil
##dalam
budaya
Lama
Gun
adik
lakukan
pengurusan
##LAH
##esign
Sebab
putih
##21
Secara
##ubis
##ugh
perl
Stat
##ustr
##urang
khusus
rawatan
terlibat
##ahaman
##bon
teg
Ekonomi
##99
##ADA
2008
##imiza
Qamal
##Eimiza
hitsEimiza
##etua
hilang
Pal
##ongk
Anwar
Kosong
Pelajar
no
##aduan
Ark
Islamic
##rik
Keupayaan
##elar
Pos
navig
hitsMohd
##andang
terutamanya
##able
jenama
bakul
##IHAN
##YA
##inat
Pakaian
unit
##ren
##ern
##emer
kotak
##URU
##orporat
pelaburan
TEKN
Industri
##aliknya
##uci
Mad
##dit
KEJ
alat
##atat
Kategori
##taz
##mosi
dijalankan
##ollow
##orld
Web
##ukur
##ium
##ulum
Kela
menerusi
konsep
##wal
Sah
##ipedia
kad
##ey
api
wujud
##tab
##anjung
eng
##URAN
Pesanan
##eluaran
##ther
akhirnya
Kon
Bek
his
##etur
Baju
talian
Laporan
sunting
##itkan
Seg
##nes
li
peranan
##za
SUHAI
##ENGK
petang
tidur
Kek
app
Tengah
##jam
Sementara
##ampaikan
Malay
Fat
Wikipedia
##bi
sukar
KUALA
hitam
##opy
##arm
Akhir
To
ambil
dilaksanakan
##sion
duduk
post
AR
##utnya
milik
Jaya
Jadual
ST
Hanya
bayi
##jar
##oth
##ITI
online
Pautan
tepat
##vis
Setiap
IC
pasaran
kualiti
go
kepala
II
Mits
pos
##aib
09
Ibn
##ven
Seorang
##ilaian
terpaksa
Lab
##anji
##ikirkan
Baca
##ulakan
##ldoz
musim
##ulasi
tugas
Okt
##ubishi
permohonan
##anyaan
##ph
##abaran
GURU
Qur
perkembangan
Bulldoz
Mitsubishi
Ubat
memahami
kedai
membolehkan
karena
ketiga
##edar
kemas
##ull
putus
##formasi
Bri
##atuh
Hus
elektr
##etengah
Rasmi
Blogger
respon
Khal
Kisah
##itter
##way
Perlu
##ategi
Esc
##ekalkan
ref
May
nampak
operasi
Dapat
sepen
##tive
##elesaikan
sifat
ulasan
##porkan
lif
##ult
do
isi
perkataan
##hbar
##idah
##fy
Pieces
##22
##ertai
SEB
merah
kursus
diadakan
perhatian
##lama
Arkib
Piece
Kap
Aman
##incangan
percuma
Tok
KEP
##umkan
##app
##ikuti
ro
meminta
kematian
Ham
##angani
##esu
##EMP
Ismail
ruang
##asis
Contoh
diambil
##roup
Tungsten
Perniagaan
segera
BENGK
##illa
ingat
##asakan
dila
Kawasan
menjalankan
Siti
##antau
##irik
sambil
##oga
Atas
enjin
siapa
sedia
lokasi
terdiri
ut
##spot
Terbaru
Berkaitan
bat
##intang
##ruari
##aq
sikap
tarikh
diperlukan
masjid
##eturn
tengok
##endali
seri
menteri
nik
Rawatan
pendapatan
Melalui
##aiwan
kepentingan
Pekerja
aplikasi
##ancongan
mengetahui
berhubung
##untut
##ihatan
kenderaan
Bo
Imam
percaya
BENGKEL
balas
Daripada
ny
pautan
Darul
Bantuan
Julai
bahwa
Rahsia
Filem
kebanyakan
##jau
##illah
PERAK
Col
pul
wak
Band
##reat
Produc
Kini
##INGAN
##AKLUM
##so
##jil
##ress
maklum
ujian
Isu
Kal
gagal
komen
top
##emahan
##ny
##agen
rambut
ubat
seni
33
terutama
Luar
##amadhan
universiti
##aksud
##ize
##tusan
cantik
##tera
Bulldozer
Pertu
##MI
saudara
Valve
##led
return
perasaan
AG
Kam
##evelop
sta
Khas
##arch
Muat
mengajar
demi
##jayaan
Seh
##ATI
minit
hadir
blogspot
##ments
##tah
##kand
Sebut
sana
Mark
berusia
##su
##LAM
perang
##oman
mengandungi
tok
Dem
malah
Maka
Beb
##oleksi
##onton
##awarkan
##urangan
##ings
artikel
all
gaya
##empatan
BAGI
Sl
##etw
##kenalkan
KOK
menyokong
##ley
##emen
##insip
meningkat
##olog
Februari
##KUASA
##uali
##40
Tanpa
tentera
##DI
lahir
##ANGG
Mari
war
dar
Id
diam
siap
pulak
36
sebag
Peta
their
rasmi
keg
Kewangan
Pengerusi
Terdapat
Wilayah
Perkara
hukum
gel
pakai
Hidup
pasangan
Popular
##ecah
samb
##rasi
##luk
##ediaan
Rahman
Jam
lo
BAHASA
tud
navigation
Oktober
sw
Internet
##etuju
laluan
Berb
##akarta
##eel
##adanya
over
pendapat
##aus
Akta
##cayai
kehilangan
##atar
##operasi
##ype
gi
##oller
##lobal
##ash
sebagainya
##ujudkan
Tem
##indahan
catatan
panduan
model
tun
wat
Klik
##ajet
Cer
pelajaran
Sed
Antarabangsa
pekerjaan
##EJAB
##INI
antarabangsa
Pertama
Setelah
Bh
##ANA
kebangsaan
##cik
##ukul
intern
SM
Escalator
##25
alih
##16
sedar
##ikulum
##enaran
##hh
nasi
##yang
##TAND
pakaian
gr
##lawanan
membentuk
##daftaran
This
Latihan
berter
pengg
##iter
Trans
##ducation
soal
##etakkan
Umum
##umpa
##tanah
##omatik
terjadi
##rivasi
AZ
Ip
TAN
kekal
##abah
Bola
##ANTAN
DALAM
##emuka
What
kerusi
Tambah
meter
salafy
Jawatankuasa
ON
Mon
Setia
Katanya
Tarikh
Kelu
##lor
my
##awang
cari
Terma
berjalan
kerjasama
##hana
dianggap
08
mengeluarkan
##LIN
Kr
Utara
Lain
khususnya
##etik
##wagen
pap
##indungan
Volks
##brid
mengaku
mengurangkan
JAWATANKUASA
terbabit
##ism
##embang
tubuh
jabatan
Volkswagen
pop
Muk
##mun
hadiah
tanya
terbuka
Dim
##alsu
##umbangan
benda
mesin
Dik
memenuhi
Pengguna
##sh
bertem
MAKLUM
##let
##alal
##uster
##ayaran
##akitangan
##vices
er
##eld
##ukakan
##inggit
ianya
beg
##ibu
##eran
##ely
Mengh
##ace
37
##akwah
seramai
Surat
##isk
##emak
mengk
Pengajian
##oalan
Penerangan
pertu
diterima
Kenapa
##esional
menurut
Sc
##jadikan
##utiran
kapal
##inkan
##amakan
kategori
kri
say
##uld
naf
menjej
##ten
##uji
Sekiranya
##OHD
dirinya
##jektif
Class
Kedua
positif
tau
Pelan
##ber
membina
Roller
Isra
##tian
Maj
##uam
senang
##AMAT
mendapati
ala
penulis
Menarik
Siapa
International
Barang
##EC
batu
##impunan
Pintu
perbu
tradisi
Mungkin
berubah
##ungguhnya
Fak
Sembilan
##PA
ISLAM
Hybrid
Langk
##HID
DUN
KELANTAN
Pakej
remaja
##sel
kayu
Utusan
sedi
##aiki
##ony
##imia
have
biasanya
menghar
##udak
##ezaan
KEM
59
daya
content
which
##tual
pengan
05
##ona
##ba
Ramadhan
##mati
##ire
sib
tawaran
Hyun
##enalan
KOM
ben
Ur
##odoh
Jakarta
Roslan
pur
##tal
##ras
##unjung
form
##OHANAN
KEJOHANAN
Susu
##day
##edahan
Tur
##eki
simp
Twitter
Cinta
setahun
Kej
##ale
##ahanan
prot
Sar
berkesan
##alisis
Minyak
email
widget
gadis
dew
bangunan
can
Berd
55
berharap
pasal
faham
rama
Abd
##oid
Keputusan
##ese
Wah
Hyundai
ata
takut
Jom
Razak
kesi
##ool
sektor
##eth
dita
ikut
bayaran
United
##empen
sc
##hati
kawalan
institusi
##uni
sepenuhnya
Austr
membuka
##EO
Edi
39
##cur
##ice
##ahawan
hendaklah
pentadbiran
##otong
##estinasi
sihat
generasi
kak
##ungguh
##lace
47
modal
Che
##uncul
##yyah
##emas
Para
harta
Copy
jar
berasal
fir
##rama
sayang
fi
##angunkan
bumi
##fit
Fer
##AMB
tumb
amp
Inilah
perp
Salah
##itaran
##ign
Kemahiran
paip
minta
Nas
kab
##riti
Kas
Muda
##ersihan
Bur
TEKNIK
kadang
90
##arikan
##elanja
Jumaat
Tali
LUMP
KOKO
##AWAH
##uzik
##stem
permainan
38
##jing
##AZ
LUMPUR
48
##esai
##son
##orea
Sol
##amkan
##ext
##rav
sementara
ya
kemudahan
Zain
berw
Ipoh
Berikut
Land
menjaga
inf
plastik
mendengar
Hasil
terc
reka
Data
OT
##angkang
##right
sahabat
pemilik
mengadakan
##orn
##ingkas
##TM
hotel
asa
##araf
##IZ
Mata
pembinaan
menawarkan
##AMAN
##ITIA
##enangan
Exp
yg
##ancarkan
PANITIA
meninggal
Super
##azim
##yid
##ongsian
dap
idea
32
Perubatan
Iklan
##ITA
Penyelidikan
tua
enam
Israel
Info
##endiri
Cari
dijadikan
le
Kad
Institu
pu
terkenal
dijual
##untukan
bimb
##ENT
##EJABAT
plat
exp
menghadapi
##ode
##ukai
Email
peserta
PEJABAT
Samp
KL
##iness
Perubahan
Dip
##ailand
##uhu
pertanyaan
Rem
pus
Beg
Rendah
tanggungjawab
##intaan
life
mo
##ublik
##ade
##trak
pejabat
##asat
uc
##ustom
Public
##leb
Pat
##adio
Mala
buruk
KES
##umpul
terg
nombor
pengajian
##ights
cuma
Korporat
sar
Pek
pelaksanaan
menjelaskan
menjawab
SAW
Zul
##toran
##amatan
utara
PERK
PEG
70
ayam
##gle
##alk
PRU
##tiraf
##ture
Warga
perdagangan
Imp
BEL
Tender
keter
##tro
##AWAI
##lus
didapati
##ajuk
beri
bergantung
bertindak
##ted
muncul
##umumkan
##18
wajib
##tiwa
##earning
Piala
jer
##ARU
pokok
He
aktif
Thailand
##itas
##mbuhan
Anugerah
##lack
Daftar
Eh
##edaran
##adat
##IRAN
##load
sew
will
tuan
##sk
PELAJARAN
##oin
##ser
ataupun
Korea
Ai
##ahagi
##enting
##utian
pulang
kanan
meneg
MATA
Doa
bot
43
Pengangkutan
##oka
##indungi
PENYEL
utk
sepat
yakin
menyertai
SET
Baik
##kal
##oint
Gold
Gu
Minggu
Bercuti
##akna
##elamat
##indah
pi
PERS
Ustaz
Haf
##izikal
##entian
them
##tori
##ENGAH
##ajaya
sebaliknya
##lex
Rab
merujuk
lupa
Sebenar
diperoleh
##dah
##ret
80
##rika
##ujukan
BL
04
##janj
##oo
##ument
##ancar
##umahan
##lamat
kenapa
def
NO
udara
##ategory
Lagi
##ukaan
##alakkan
Manusia
Mu
susu
##ative
mulai
ringgit
##utkan
Gol
bagaimanapun
kn
risiko
zakar
Kemudian
##oriti
##ejala
perkahwinan
org
jatuh
PEGAWAI
##isnes
its
##agn
Foto
##jana
PUS
disebut
##obile
##MA
##echn
Kursus
##ikgu
Persatuan
##janjian
Resepi
Australia
##istan
##GER
saiz
bec
##iktiraf
SY
44
##cayaan
##JA
Kons
ketua
##onda
kejayaan
persek
meninggalkan
Masyarakat
##etakan
06
##007
##hamdul
Keluarga
popular
berkuasa
Copyright
bermain
##taranya
Malah
##12
##bo
But
Tog
berusaha
##olehan
##eritakan
motor
berkongsi
sud
other
##AKS
ji
semangat
2007
kesalahan
##akaran
##iru
##rajaya
ditetapkan
menambah
aman
bab
bertujuan
Alor
High
Sa
palsu
Bat
penerb
dipercayai
Main
Dah
dikeluarkan
HAR
##har
Iran
PP
senar
##gai
196
##oni
##hen
##badi
meletakkan
Standard
##til
ko
karya
suara
cadangan
status
Bilik
Sta
Cr
##elian
fac
500
Kris
menyebut
##ST
##omen
##alnya
Tentang
Ujian
Mengenai
kebenaran
Akaun
##opi
pakar
##ose
##YAT
sya
##ademik
Pe
Harapan
##IV
saw
##ajuan
perbuatan
sec
Dib
teknik
##erved
BAWAH
##araya
fungsi
skip
##okus
##awangan
agensi
34
tempahan
gaji
ditemui
cukai
46
dilan
sebelah
Bab
Parti
UK
siri
##lebihan
##ingat
Yusof
##ograf
Penjagaan
##usiness
apakah
hebat
Kat
pendekatan
Kadar
Up
MAS
##unggu
kota
Afrika
##uga
OTIS
samping
Jerman
prinsip
ajaran
Organ
tali
##002
##intar
##uhanjaya
##udin
tentu
Maha
PERTAND
Tindakan
PERTANDINGAN
KEB
##udahkan
Fil
Kan
Roy
Ramai
menyelesaikan
Setiausaha
sukan
Putrajaya
peralatan
Fr
sepatutnya
Pertanian
stat
bercuti
Syed
##orban
Zah
dana
##AMP
Otis
##emukakan
##alanya
pemulihan
umur
##antal
##onik
Nya
sekadar
Lirik
##siran
##omun
##aunter
maksud
195
##unit
pemikiran
keku
id
Ameri
Polisi
##elahirkan
anti
##ukup
get
we
you
Ge
Isteri
bukti
mengelak
MENENGAH
##juangan
##edahkan
Syarat
AW
tump
versi
Ghaz
isti
##ble
##ekaan
punya
prestasi
bergerak
##uth
##uangan
Laut
timb
organisasi
##ADI
jual
##omunikasi
Sosial
Pihak
KO
##elanjaan
malaysia
Multimedia
Komuniti
Paling
##fer
Hab
undi
Met
##syen
serangan
pemerintah
02
maaf
##embagaan
##tup
Diper
bermakna
Products
Fungsi
##upp
Atom
penyelidikan
GOL
##cess
Projek
##cel
##akwaan
jawapan
penghantaran
Cipta
berla
Suami
##ology
senarai
Universi
Jualan
sains
##19
Langgan
dibina
##cep
MAH
##alat
##yatakan
kas
##umbang
ditahan
##evelopment
br
My
Irine
##tinya
##emis
emp
Angk
##istiwa
lang
Amalan
Follow
pakej
##aparkan
CO
##syar
##vi
dibawa
##awar
Pelajaran
Bagaimanapun
puasa
##PAN
English
##enan
bermaksud
##raya
Ta
terbesar
07
perubatan
##olej
##angkitan
sin
sat
##kin
dagangan
99
##HE
##daya
##angnya
##ner
ulama
##indler
cuti
Schindler
urusan
mengenal
Ri
##elasan
internet
##IF
##earch
##atasi
Ob
Gi
##abungan
time
menem
##akanan
##unca
Seminar
tunggal
##roses
##ical
terkemuka
Menc
##rif
##afah
Hati
kah
link
kelihatan
##asiswa
##adangkan
##ecial
##iku
##osit
Book
Perp
kekuatan
harap
out
pesakit
bersetuju
doktor
dijangka
##lahan
peraturan
Bil
what
car
strategi
year
Dok
Pencapaian
##eral
Mesyuarat
Sin
tungsten
##abitkan
barat
##ria
TEKNIKAL
menghantar
Pengg
##ungkinan
sikit
Suruhanjaya
##esel
Kaedah
##enangi
IB
##wah
##13
##incangkan
World
peningkatan
KUR
tulisan
Peralatan
BOL
##iburan
Kelas
##ii
##AJAAN
Terima
Toggle
Surah
menyer
##leks
membayar
binti
sibuk
Simp
##ENDAH
standard
selesai
##EW
##LI
menolak
##amba
Privasi
luas
##uatan
##osakan
mimpi
Perlis
kongsi
pukul
HARI
pelarut
##eritahu
Seperti
memulakan
##usteru
Menengah
##cial
##RA
struktur
BERSAMA
##AIK
##ited
Dit
Power
akses
bl
##adilan
##erd
2005
Terbang
peruntukan
Liga
Moham
##intahan
usia
but
##harga
haram
##tana
##15
##erk
sol
layak
Sport
doa
##ARAH
Toy
##jen
Dicatat
melahirkan
susah
##amin
Lapangan
Sebutharga
sejuk
##ick
##sch
berasaskan
responden
Seni
##anyi
##imah
were
perbincangan
persoalan
##agar
klik
##elesaian
##utera
##sed
##entangan
Lilin
##ucing
Sain
##sor
cipta
##ould
##alog
menyampaikan
memperoleh
teach
Menggunakan
##aklum
profesional
sumbangan
situasi
des
sesiapa
Institut
War
Direk
##kau
##hamdulillah
menik
##tudi
##urga
##go
multimedia
Palest
keras
Roll
Martin
pingg
Ilmu
##be
tolong
punca
##UTAN
##43
Walau
Jaw
Bern
##ause
##sy
pengundi
##kuasaan
item
##tish
reg
San
AH
##aria
misteri
pot
raja
Int
Maklum
berterusan
dep
bukanlah
sedih
##airan
##ebihi
Sau
##umur
one
Ford
borang
dif
seunit
##raul
##urat
##reen
bersih
android
##amer
had
##uruf
##tikal
Pelak
##industri
PK
##emaah
kerap
komuniti
mahkamah
##oli
Akan
KERAJAAN
##untungan
Lat
##izi
##LINE
habis
##ike
##emerlang
wakil
##aksikan
##ulat
Turun
memohon
##wi
Ghazali
pre
Fin
Statistik
KH
##esir
##onstr
##ampiran
##26
css
pengeluaran
Dapatkan
temb
bertanya
##inapan
harian
Design
acara
##untry
##IRI
##ket
Mal
##irah
Pergi
Hotels
##INGG
Ayam
##syarah
kecuali
##afian
##OC
##ompok
Education
aliran
##ery
audio
##amalkan
berlangsung
angin
Fre
dikenakan
budak
Hakim
marah
##urna
##onth
terbang
membabitkan
dokumen
Politik
PUSAT
##ampur
##ety
##afsir
swasta
2006
Pentadbiran
##endalikan
Lori
##ambilan
##AJA
##orak
wajah
sehari
Berm
Kerana
TANAH
Pasir
Sebenarnya
Wang
elektrik
bawa
itulah
##industrian
Me
Pemuda
Din
Nilai
##engaruhi
minat
cahaya
##itung
melebihi
ye
##vin
port
peg
##egah
dibenarkan
Republik
TR
##mal
impian
watak
##SA
##ukuman
##rim
Mis
hospital
Semula
##zi
Pekerjaan
bayar
Tanda
kew
##anggup
##azah
Peperiksaan
Bayi
mewujudkan
berpen
##icara
teks
hutang
rata
##LEE
mil
Pelancongan
Penghantaran
Mi
##andangan
sungai
##emua
unsur
57
##ekah
berhenti
rec
Khidmat
How
##sifat
bertemu
jawab
selesa
##ouse
teman
Rek
Ed
You
meneruskan
##gerakan
##rome
1M
##umuman
menentukan
Promosi
##ealth
##daan
Berdasarkan
BUL
##anggilan
##80
Pemer
tapak
ICT
##dak
##In
1997
##ainkan
jualan
##untutan
pulau
Teknik
Eur
menyimpan
##14
##ravel
Peribadi
##angguan
Moz
##ambung
Services
maut
##ezeki
##uju
His
DENG
Tentera
inc
Harian
##asiat
pencapaian
De
Bakar
##amily
also
OR
Tiga
##lop
Far
##RM
Sudah
##ral
British
Merah
alasan
automatik
fit
##uktikan
Terlalu
##AYU
RENDAH
pemandu
Operasi
##kh
sempat
jah
##23
Aidil
##tra
menya
##alsafah
Komen
##ces
arahan
Zakat
komputer
her
Cent
EN
##site
penulisan
##AU
Kit
sch
Nasi
cabaran
ME
##ihkan
Item
##jakan
Teng
berta
##ength
Lepas
perlawanan
Mazda
mandi
kebaikan
need
perbezaan
dek
MU
##IMAT
##ka
tokoh
53
duk
sl
pemerintahan
##eligi
Ay
kosong
berfikir
INI
mempert
mengikuti
ringkas
##erahkan
Vi
##pir
Pembekal
berbagai
##ering
##ancong
rasuah
75
kaya
bersifat
##oklat
KAD
Bad
fak
sedangkan
wah
##tri
barangan
dipilih
Memang
##ikutan
nasihat
Hu
Macam
Tas
pembangkang
gula
doc
##ulas
more
ujar
##erg
vir
lemah
teruk
semata
Profil
##ambaran
gem
haiwan
semuanya
Barisan
Pengalaman
they
##elengg
Parts
fizikal
##aklumkan
Ulasan
terlebih
hutan
Tekanan
kegi
Permainan
term
##bum
view
jangka
##dangan
selu
##ANGK
PERC
ketu
diketahui
muslim
##tukar
inov
##linik
BN
Aplikasi
sepak
Toyota
Sil
Mesir
seder
moden
BLOG
Mana
gas
sidang
Penafian
masak
##fah
Iz
lu
menimb
Terh
hartanah
##utuskan
Justeru
size
manfaat
##ading
Keluli
janji
terbaru
##een
##ury
Kulit
kerosakan
##ustak
tujuh
##usun
Firef
saham
serius
Kesan
##ampus
##titi
off
SHAH
##onen
##ulusan
gu
##NAN
insan
##tai
sebaik
##iaga
inv
54
az
abad
desa
##esyen
besi
sisi
pembayaran
indah
matlamat
kurangnya
##elajari
##ated
##eny
DENGAN
King
Sekarang
jiwa
##aten
merangk
EK
bintang
Adam
PUB
minum
##TU
Ciri
COM
2004
##eliti
Lesen
Vir
##ewaan
new
PAR
didakwa
##esis
dilantik
Audio
merasa
permintaan
et
Pengan
##tional
sederhana
56
bon
##adiran
Pantai
Siri
##anyol
mulut
salam
Firefox
Proses
##ubang
Said
dengar
menentang
##AKA
SUL
University
2001
Mohamed
##acara
Cre
Leb
ph
SU
Malam
pembungkusan
##ALI
Pinjaman
pesawat
95
che
##TAR
dihasilkan
##xy
##ope
Koleksi
##didik
##uluh
##ambarkan
ALAM
Cerita
##tm
akhbar
##isyen
TAKL
PUT
Remaja
Berhad
##ampil
Black
##17
##angkaian
Visi
Jul
##ormal
asli
TAKLIMAT
Saf
angkat
She
wa
Company
##ahankan
Sijil
hujan
halaman
hujung
##antang
bilangan
##RE
##isau
API
Hantar
global
Syariah
##ampuan
##fitri
kering
##tereo
mendakwa
Kemaskini
##UNAN
learning
Anti
##elap
kepimpinan
##ORM
Palestin
Dig
##yakinan
Gala
pengangkutan
##tory
Pekeliling
##utar
Asas
Road
timbul
##ape
##uruteraan
##HIDM
Halaman
IK
Pesakit
##etus
Of
Saint
berper
Kuasa
Posted
tik
##ografi
best
##inet
perbandaran
Gal
##ners
karbon
Grand
##uble
##hlak
sanggup
mengangkat
sebagaimana
replace
Inf
know
##dir
Audi
##ohanan
Steel
DAT
Warna
##ajak
sensi
##ondon
##ertaan
2000
##sim
kemalangan
##andat
Lazim
belah
##anies
Bandaraya
Kawalan
Asli
##uliah
67
islam
##rok
Kali
mengekalkan
Langkah
hamba
Berp
Siasatan
ONLINE
Fel
Glob
58
Wak
##tant
49
manis
App
##anggu
65
##upaten
##ound
Kelab
##eikh
Whats
Kong
300
kenc
Hai
mengubah
sudut
Honda
hukuman
MELAYU
Pendaftaran
Keh
who
ribu
##raulik
resolusi
sebulan
##ustakaan
bernilai
mesyuarat
menjual
tertinggi
Hassan
##CA
##que
hubungi
berkembang
Gadis
1995
Kongsi
dewasa
perjuangan
##ILAN
Murid
Destinasi
Saudi
rahsia
under
berfungsi
tambah
##chi
pandai
sempurna
SUKAN
##ilangkan
##emasan
memudahkan
Han
seng
##anjir
##ronic
##ulauan
Plat
PU
memikirkan
##erian
ri
pilih
Americ
Kualiti
adakah
start
jenayah
mengawal
Manakala
##AINAL
##otosi
konteks
##bir
maju
Red
skru
Semp
##MAD
##ange
terma
pantai
katakan
kegiatan
Bharu
##jata
Rom
##ambang
##otosikal
Naz
##indu
dalaman
##adiri
fikir
Cl
##cord
Mor
Direktori
##ass
percutian
sempena
Semoga
kebi
Tioman
##35
baginda
memberitahu
Sepanyol
##fikasi
rak
London
ABD
Rev
##aih
Stesen
##INGKATAN
jumpa
##hai
berapa
huruf
Keti
POL
pihaknya
MOHD
Roh
##aras
##edan
Search
Hukum
##utif
ADNAN
##ormat
##tivasi
rapat
pesanan
Diri
##eknikal
persekitaran
cur
DARI
iklan
lancar
##jazah
SUHAIMI
##iring
##klu
PH
Keretapi
dibuka
mahupun
##egahan
##ulti
pertanian
##ganya
penyelesaian
uk
##buk
##hip
##lands
##gen
##ugian
pertumbuhan
bahkan
Zulk
keuntungan
##buhkan
##usahaan
bernama
tumpuan
menikmati
Real
Ayat
foto
##to
antaranya
##metik
##ANC
KOTA
Mach
Dij
Bahru
meluas
##ekutif
Gunung
CAT
tas
##TR
Keg
saluran
kecamatan
Wat
sekeliling
bercakap
Hitam
##ubuhan
##bel
Ket
##odi
Mew
SUHAIDI
aset
Belum
Aston
##uasai
rev
hitsAINAL
Bl
add
##very
##ABATAN
anaknya
##antalum
##ulaan
darjah
berwarna
KP
Gajah
GOLD
bersalin
Masih
##anggar
##sal
Pad
perlindungan
##IMP
kimia
##engkel
Je
Ev
pendek
Ferr
Beli
abang
Mag
Gen
kakitangan
Sokongan
rancang
Lib
jur
Chrome
Penilaian
Sum
##incang
pembelian
Selasa
Ala
dilaporkan
comments
##amis
##amar
##awak
##LIC
Bacaan
##GAN
bantu
Penulis
dosa
##esuaikan
valu
dipanggil
##date
##nam
tertu
Penerb
Mercury
##ALAH
entry
Talian
membuatkan
##ahari
##ebasan
##UMA
Cukai
setu
Jawa
negatif
194
##els
##siklop
sampah
Perbandaran
##tagram
ucapan
ta
pay
##ure
##uta
mengapa
menges
Alhamdulillah
##tip
##utamaan
Puasa
##aitkan
88
##ategik
##MAN
Kak
pah
ALLAH
mengamalkan
dadah
Group
##odenan
Bersatu
Petua
Faiz
##ating
##akili
BUK
##aikkan
Subang
sehala
##inding
##hab
##sedur
menunggu
##timewa
##hari
##002000
Beberapa
##inga
kepercayaan
Pangk
##ows
Penuh
##ormati
inilah
##ERS
join
tradisional
Jan
kiri
pertandingan
##vern
##tml
##alai
because
Kitab
##ens
tangga
medi
muk
##umip
kenal
Tengku
Murah
rujukan
##ets
JABATAN
Krabi
pek
##acu
Galaxy
PIN
bersedia
mekan
##urian
##ffer
Rabu
missch
##ronicz
misschronicz
##round
##SP
Peraturan
Peluang
sekurang
Ul
just
##alil
teori
pintar
study
students
sejumlah
bacaan
##andingkan
komunikasi
##aring
penilaian
Alamat
Zak
kunci
Borong
##oreng
##enz
zakat
##ys
Masuk
##andangkan
SELAMAT
Atau
##ESI
baki
##omes
tunggu
Rusia
##Sp
run
Aidilfitri
tingkat
hamil
Bekas
##bod
ringan
##ANTIKAN
high
dapatkan
##untuk
Perang
##ampuran
der
Bang
FA
Peti
Sesungguhnya
##bitkan
Setar
CH
kemudiannya
Bent
terper
profil
peristiwa
MA
info
Sabtu
adanya
##ENA
Bangunan
logo
##ugi
##ulung
Samb
##endaki
##pirasi
Elektr
Mengapa
Sakit
##63
Ace
daun
daging
Er
Ferrari
perut
Dag
play
Door
Hasan
##abda
Bajet
Tanjung
Belajar
memenangi
##ople
##arangan
Turki
Off
##pris
##yl
##oly
Astro
olah
diperb
gear
sasaran
lab
mengak
##omo
peperiksaan
menangani
emosi
##udara
##mart
##emaran
##pis
berkahwin
ja
Noor
tinggalkan
##ARIK
Techn
sign
Begitu
##rive
##klusif
PUBLIC
menyel
Thy
##ledge
##70
Globe
PAK
RAK
##oon
Musta
##olar
##aranya
af
PT
Putih
Cor
##pp
tuntutan
Juga
tajuk
Komunikasi
##board
memegang
lapangan
Sejak
##AIAN
kemungkinan
##siatif
pantas
tudung
##ematik
##embangkan
MUH
Rights
##embahan
##ling
##iayaan
Padang
sungguh
halal
Cap
Not
kesedaran
Kabupaten
Belanda
elemen
Rus
##entuh
Out
2003
Agung
##llah
##leksi
Malaya
tar
TERB
Rec
berakhir
timur
##ubur
Pasukan
City
##SAAN
merangkumi
Bayaran
Benih
##oma
Puan
erti
eff
dile
Berat
GR
##asangan
mengumumkan
68
jantung
gemb
gunakan
Semakan
diku
tingk
##ful
##etwork
Gigi
memakai
##jur
##juran
tangk
##ejut
##EF
esok
letak
Reserved
Lin
##epak
##iksa
menilai
menguasai
Mozilla
##even
puas
Enjin
##GO
##ATIHAN
setakat
##ewat
platform
Pul
Por
rezeki
##epsi
ros
kemenangan
Rolls
Explor
Kre
Pengedar
##ato
Medi
##esh
dinyatakan
SLE
Say
Musa
TAK
##kn
SUK
##eme
SO
Terk
Punca
##denum
Park
batang
Diam
##hu
Sektor
kempen
768
##utanan
inisiatif
Travel
may
berikutan
Sama
KET
Rancangan
Perempuan
Perjalanan
Cuba
menggalakkan
Kolej
met
mewakili
##ingin
##okrasi
digital
##inah
##ogol
iden
group
##yle
pelakon
spesi
##ikro
##aut
##asana
##elong
Avis
separuh
CEP
##TIV
mengelakkan
awak
##11
menuju
##anjutnya
keta
##temuan
Kepulauan
berani
sesetengah
##ssen
merancang
##aram
Mun
istilah
Petani
##ondok
Business
panggilan
Aduan
kontrak
kerjaya
We
memasuki
Rover
pembaca
##ukuh
##umiputera
Teks
tet
##isian
BERK
gen
Pakar
Avisena
Reka
##hluk
cre
##impian
menengah
##truktur
##afikan
perjanjian
ul
##lement
##lapan
Bot
Felda
Manag
rancangan
##dex
Tub
menyaksikan
pon
Perkembangan
##teraan
##ATU
##warkan
##ols
butiran
##dium
Dec
##atal
Pelbagai
##deka
##iff
##diaman
Pemulihan
menimbulkan
Pay
Tahap
Fit
kerugian
Kembali
TID
mewah
Pasaran
##ternatif
Best
perbelanjaan
Thyssen
Hutan
##esaran
Nota
Royce
##dirian
Khalid
##baan
suasana
peranti
2002
Lokasi
##ankan
bertambah
##ipun
lembut
kelompok
hijau
##ebu
pern
menyi
tol
##tadbir
##ancaran
sebelumnya
##ough
RAKYAT
majoriti
##OGI
##incin
KADET
bunyi
gerakan
bil
Budaya
akademik
1024
Pembelajaran
Awang
##ahulu
diw
##ney
Your
##epasan
LT
pelik
tw
Terbuka
membuktikan
Sai
lainnya
##siklopedia
hadis
gila
Peringkat
muzik
kementerian
menurun
##unter
##ownload
kain
##SUS
##EST
seminggu
jaga
##imat
Perlembagaan
Shaf
ditubuhkan
##endar
##dom
inci
Versi
##ume
bertanding
Dep
##rain
rekod
Penolong
##LEH
berminat
150
must
Custom
Kenyataan
##BA
Ol
Beri
pengk
public
Menj
##untukkan
Explorer
AC
Mic
SER
Panas
Sat
kelebihan
Syeikh
mor
42
mendalam
Saiz
lilin
kekurangan
fokus
Model
##SR
##kipun
bukannya
York
##astera
##ific
SETIA
Akhbar
Penumpang
##antara
mengandung
purata
Mini
KURSUS
Ikan
leb
##ution
Gelang
Tahunan
##uning
##Nya
Itali
Wire
about
##ards
instr
alamat
Hong
promosi
Pertubuhan
pemilihan
KEPADA
dakwaan
pensyarah
Tuj
ev
Kin
Keadaan
##lian
##nin
##gg
sensitif
dimana
sam
##tnik
order
tulis
##awei
##reasi
Chris
memperk
##AGAI
col
buka
komponen
otak
qu
bos
taman
Sepak
##BI
##WA
put
Menurutnya
Rencana
daftar
##ebuah
religi
artis
##ukun
##afir
pasar
cemerlang
##cean
##awler
##jan
tip
Pilih
Ka
laku
seolah
Kemb
##asai
##ildren
SHAK
result
many
##esuaian
PENYELAR
##ies
Keper
Langkau
point
##nal
mengatasi
jari
##ros
See
design
Huawei
##ark
##andakan
##elayan
##amadun
kencing
kahwin
SEP
Misi
##adanan
cita
diperolehi
Angg
##abil
Pokok
RAM
rel
##disi
Jenama
biar
##dian
##ubaan
##jad
SUNG
menghargai
MEI
MOD
Sunnah
melayu
ditulis
free
menjalani
menuntut
kol
ped
PERCUMA
PENYELARASAN
jamb
##IST
##uahkan
sa
Pembinaan
Betul
##ucuk
dihantar
Ocean
penumpang
MAN
Indeks
trend
1999
64
##ederaan
berhampiran
Dil
Wid
##ayasan
##NYA
Ahad
##uatkuasaan
##box
##lem
suku
hakikat
Tu
gangguan
##afik
Putra
##alih
Sihat
keupayaan
memperkenalkan
##orth
##onok
##elidik
KERJA
dihar
Bangsa
Malaysian
Tenaga
##ahas
PD
Akhirnya
Gear
##mo
Tabung
##org
Instagram
##AIL
kehadiran
membunuh
harapan
##omba
Darah
mempertahankan
patut
Manu
##EH
LATIHAN
semak
Perhentian
presiden
Perumahan
kepadanya
PENT
dimas
Pergigian
Pengeluaran
##ransi
##oln
Optim
##adik
Pemandu
##ding
muh
##timb
##enggara
esk
country
membangunkan
berasa
berbentuk
##agia
Top
bre
drama
hehe
Tempatan
Comm
Menjadi
73
##28
Sig
##azil
##ayuan
engkau
##siaan
minuman
jentera
##riz
Brun
tarikan
##ecair
tangg
SEN
Omar
membenarkan
requ
PERT
bersabda
Linc
Ki
first
##siplin
Semen
Ko
Lah
##enoid
menjelang
ditawarkan
##edera
##OW
makin
##rough
##ME
##acang
Usahawan
##inal
penyokong
Butiran
gejala
Auto
kucing
sambutan
adil
##uction
berbuat
human
Berg
MAKLUMAN
##tempat
##ANTA
##arahkan
Cikgu
##elek
##ANTU
sid
Agensi
kil
##angkit
##tom
63
berdepan
##ft
roh
##scrib
##engaran
Kaunter
Lincoln
Khamis
TINGG
BINTI
menegaskan
##ehat
sawit
mengangg
cap
bagus
##ukaran
month
##ONAL
TIDAK
ING
pelacur
Kuan
nikah
##unkan
##oles
papan
Perindustrian
MELAKA
tema
##akum
##AGA
Terakhir
Lu
memainkan
pengenalan
##ENSI
tips
Membuat
##orks
kelab
##ibir
##otal
98
mu
##appy
pengunjung
Naib
mempengaruhi
Undangan
##AJAR
##undangan
kemampuan
jarak
##aunsel
##nyata
##entar
OLEH
kelak
##ekap
MUR
day
eskalator
##erjasama
Alih
Bert
ulang
ensiklopedia
Tour
##anjurkan
Tingkatan
Duduk
##urni
Saw
##ping
##ufti
Institusi
PL
##osis
##AA
##sw
conf
Ikh
perak
suhu
##AGIAN
Inter
##tawan
MEMB
kesemua
##44
CARA
##read
##ision
melainkan
Jump
melaporkan
teruskan
41
pusingan
Klang
mohon
Nurul
sesebuah
Rid
##str
semester
##rupp
Objektif
More
##onan
PRO
suspek
gembira
##munic
##esanan
##atangan
tegas
perancangan
mahal
Aceh
niat
flange
selatan
Sik
##ampilan
perkongsian
Semak
Amanah
Bisnes
Perhutanan
SUR
liter
see
##thman
diminta
##fahaman
Berkomunikasi
imej
##arusnya
makna
Langkawi
Network
sedap
##imbangan
##angkraf
##enek
##NA
Hafiz
nas
##ektif
Perdagangan
Iskand
##UG
aksi
##ombongan
##esahan
nabi
Jour
emel
##ulus
Agong
Filam
##sidangan
Desa
##27
mesra
skrin
Sam
Shari
##oket
##ates
##enom
membalas
menging
##uluskan
##ISI
##iputi
Skip
kla
Kedai
Drive
syurga
portal
Dap
Jok
Menu
##ahi
BOLA
dara
Sesuai
Buah
beroperasi
Gaya
##armasi
##ANGOR
##lines
RES
penerbangan
mulia
bo
aduan
menangis
Get
memutuskan
BAC
document
Suka
pengaruh
kanser
Hulu
Pemakanan
##ancer
Shenz
##una
##sara
##erdekaan
##tus
unik
iP
akal
menu
melindungi
##erial
menun
Abang
##endang
Baginda
Istana
Umar
miskin
dire
##vinsi
wajar
##VE
##EAN
Optimus
Disebabkan
Pus
dikenal
kakak
Shenzhen
Sula
##IMB
##AINS
Bapa
usahawan
##DB
UTUSAN
kehendak
Gate
anjing
Dijual
##emerl
##ribut
yak
adat
else
Tahu
##aisal
##ogram
sor
Isnin
Bentuk
berumur
66
kelah
Diraja
dakwah
##edari
fakta
Engine
Lembaran
##jualan
menganggap
KAK
motosikal
SELANGOR
pimpinan
##rap
bersi
##enaihati
keterangan
##200
Sekitar
##ion
Bernama
##faatkan
VID
PET
Link
Habib
Tawaran
suam
tulang
Adalah
##atim
diperkenalkan
##idin
##CI
menghalang
Tangan
getah
##erba
UR
perintah
ass
##upanya
Amin
Tug
MUHAM
##ico
value
jadual
##entikan
work
##jawat
##caman
##argaan
menja
url
memperb
Tukar
peri
persi
bijak
ARI
Awal
##ubat
should
Pelawat
##itmen
##otoran
MAKLUMAT
musuh
Nadi
kelemahan
penginapan
##iraan
kot
PERJ
Ters
abu
Yayasan
Tapak
##formation
##ustaka
##embak
Mulut
##agalan
BH
##Krupp
ThyssenKrupp
Tip
Dulu
menyumbang
mengesahkan
website
##fiz
##apis
mengakui
permulaan
##elai
##ahudi
been
##ungkan
Perkongsian
##afsiran
Setahun
ef
Drama
##anas
Enter
77
mengej
roda
member
peniaga
Truck
##ihal
cab
jaminan
CR
Wal
pemeriksaan
termasuklah
SHAKLEE
##dagang
##iktirafan
##29
UKM
BAHAGIAN
##lec
Pelaburan
##Ex
##egas
penjara
##buh
##INA
##UAL
##lahirkan
##versi
##AJAH
lewat
Segala
mental
VIDEO
##tors
Pernah
Fakulti
##iq
Back
research
Yusuf
Brunei
mun
Trip
##zer
html
##ream
EX
Skim
bangun
##ampas
Persi
Bro
97
Ehwal
##aly
Ari
Sepanjang
era
mesej
##afaz
##cs
##sikologi
##itec
Tambahan
pergerakan
tumbuhan
DAS
##less
nasib
radio
Sehingga
Gener
##ejah
satunya
perdana
Percuma
##awasan
menyus
refer
##ye
blogger
meterai
mimpikan
kam
objektif
seja
##ization
DAR
mendedahkan
Crawler
##kannya
##imbang
tuduhan
##lad
seluar
##App
dec
bet
##uaca
tepi
kelahiran
AT
diubah
Faisal
Ec
menyambut
Memper
admin
Pemodenan
Hana
penjelasan
##jrah
lemak
keyakinan
##ves
ikh
##tukaran
runners
bunuh
##IO
Tafsir
length
pla
prak
Mobile
Struktur
##ariti
Rob
Powered
Dimimpi
##even7
runnerseven7
UPSR
simpan
ister
koleksi
pengambilan
there
Maksud
berdaftar
benih
Eksekutif
dialami
MER
search
etnik
##imbing
##EDIA
Pengumuman
##uncit
setia
Word
##adbir
amanah
ng
Mengikut
##ino
ARIF
makhluk
##rog
menemui
Kecantikan
real
SAINS
membi
Filip
85
suci
sunat
##uasan
tuhan
terang
terhad
##umpah
##etes
jarang
laki
Sesi
nasional
Sigma
##intai
QURAN
stok
Biasa
ISO
akhlak
coklat
tunai
seharusnya
tamat
Kerjaya
##etengahkan
##ix
SEM9
##turan
Perancangan
##tt
Panjang
##flik
telur
##oe
Kunci
##esak
Cawangan
kurikulum
menetapkan
##inci
minda
Kakitangan
1Malaysia
sewaktu
relau
merasakan
Musim
pertemuan
perpaduan
##qh
##ohan
cover
bersamaan
gigi
##enter
da
peminat
such
surah
##ults
ID
dibawah
Warisan
hand
##ebarkan
beriman
Star
yakni
##rigin
##olat
beradik
##van
nyata
Konsep
terasa
Aq
One
index
Puteri
##enaraikan
Journal
##obil
##ills
##ove
##uage
tab
great
##LAN
##olyb
TH
pelan
##etween
taraf
##iano
##ajang
fil
Ton
knowledge
Pustaka
hanyalah
Terhadap
Kok
pendaftaran
Laluan
berlak
##mark
kediaman
##asiti
jua
God
Viet
##olybdenum
##engahan
Fuj
##ayangan
tiap
teb
##ungkus
Live
protot
disc
Adi
Iskandar
berdiri
##gk
Pa
restoran
land
sesat
##efore
Hubungan
##ERL
penjagaan
lamb
kalah
biji
development
PASUKAN
gus
##isma
##ilat
menggambarkan
Korang
CEO
tat
Perpustakaan
berjumlah
pengl
sewa
Jas
your
##arak
##ilding
RAH
garis
Khair
Her
##CH
Rp
Sarjana
##yc
seny
mon
fitnah
##ehendaki
##vice
Pendaftar
sidebar
find
##elenggaraan
##ever
Master
Terle
sesungguhnya
##ucu
##II
##mm
perusahaan
##ejahteraan
Raf
beban
memandang
lori
##ORT
subjek
mencukup
Pekan
SINI
Pon
Rekreasi
##egriti
tukar
##indahkan
dawai
##gus
PERM
##mara
Mc
##lear
Denaihati
meliputi
##ript
Digital
##AMAH
##my
normal
world
Hang
##IMA
##ora
MAT
##unjungi
##ukang
Global
case
##urnal
##ins
##ytih
ki
logam
##awanan
banjir
bekerjasama
ALOR
##nan
full
bala
Kepala
##LER
Bet
Pasar
##ring
Cab
dada
MP
NGO
Tert
Kandungan
tanaman
masukkan
lampu
Navig
Jenayah
Des
mala
Kompleks
Gab
vari
##evisyen
Peg
plan
setuju
##OLOGI
latar
##aining
##atusan
Hamid
Play
bagai
Press
menutup
##SC
##ENC
img
83
##wayat
ibn
dimiliki
##enomena
##ng
membincangkan
konon
Seter
##ekapan
perlahan
##ookie
memat
dilahirkan
Category
##NOOR
BU
##entak
hitsNOOR
pendirian
Filipina
simpanan
cetak
Bekalan
anugerah
##turunan
by
kredit
##yik
menggantikan
##ages
width
##batan
khidmat
Amir
dipas
Menang
elektronik
UL
berkes
senjata
##estim
Ide
Yahudi
pinggang
78
##fik
Bentley
##yukur
##ogel
tersendiri
Pu
##top
##takan
seli
1998
Sets
Kebanyakan
##anah
Gel
##emput
dihadapi
memandangkan
##65
##inium
##kar
Muka
##Ar
lingk
disiarkan
##umpulkan
Pri
diikuti
saman
matahari
ASEAN
Keperluan
##inisi
##IMAN
##annya
direka
Sir
Ver
fr
##ganeg
##ature
Ibnu
Kejuruteraan
each
##nis
##abrik
mencukupi
69
##aci
##lap
Kebajikan
popul
ARIFIN
SULTAN
sing
meri
UNIT
Seterusnya
fikirkan
Pengenalan
menekan
##anusiaan
paru
##67
kod
hayat
prep
mom
album
bonus
long
melancarkan
mencadangkan
Rekod
iz
##afe
Udara
dikongsi
ZUHAI
diterbitkan
lalui
saling
##put
##ground
stesen
Lalu
##CO
51
Resi
Semenanjung
Kau
leg
ZUHAIR
##amping
ORANG
between
IT
sesama
AZUAR
istimewa
##Th
mestilah
basi
hitsMOHD
Lee
##val
79
kesilapan
Terj
##antah
Sebuah
Rasa
sisa
berbuka
##ection
##tle
stabil
HEB
Belia
Vietnam
Kehidupan
berpendapat
Sangat
Os
Slot
potensi
##atuhan
July
##ody
Camer
malu
Mewah
politi
fat
bis
Bakul
AF
perg
ibadah
KEC
MIN
##istr
Tempoh
height
##ilikon
##ise
##ness
##elamatkan
##zen
Fujitec
lapan
52
pelancong
Sud
penubuhan
ditutup
Idris
##etil
kelayakan
##rys
ir
##rane
##tap
##jamin
##balas
##amanan
terpelihara
laa
mencipta
Malik
Blu
Tantalum
Kasih
##endalian
kemajuan
Mov
Editor
faedah
show
Sendiri
##ucapkan
##ected
##ultur
dikehendaki
##ene
Trak
##otin
##sing
system
Kenderaan
dinamakan
pelancongan
bertukar
leh
##aktif
##ukuhkan
Bes
topik
##HAD
##tical
##UNGAN
people
cedera
akhirat
nikmat
##orkan
dikemukakan
lawan
##orex
##ency
IM
social
informasi
##UJ
Hadapan
prototype
##ifli
##HIDMATAN
Sampai
kebajikan
Perlindungan
Es
Tahan
Cuma
##akaian
Jamb
##emangnya
##ujian
Datang
cel
disahkan
##ulen
Sams
nie
##ences
##unding
Teluk
Bumiputera
isterinya
KAM
##engkapi
RM1
##ives
layan
BELI
kebolehan
Susah
PERKHIDMATAN
##onia
terpilih
Cantik
##onald
menghubungi
MEM
##anasan
##come
Nis
pecah
meneroka
Contin
##ibatan
Kor
BERN
sebut
John
tingkah
gold
##GERIS
INGGERIS
Biar
##mbangkan
fail
##acun
inovatif
merawat
Calon
virus
Jur
##upus
Can
Ketiga
follow
kor
Chrys
##RAH
terkejut
Akibat
##vernment
Kahwin
Asal
disampaikan
##atalkan
##abetes
diletak
fikiran
999
lawatan
RO
##URL
##ote
1000
Pertahanan
KOMP
##ampaian
##rastruktur
haji
##ublish
Pengantin
##ORAN
##by
Kah
lari
pres
pengas
sejenis
Memp
##45
kenaikan
keberk
Pengurus
titik
hat
##rus
Salleh
##book
##ajat
penguasa
mengemukakan
Airlines
WAR
Syawal
Perkahwinan
bang
##dad
pembentukan
mengkaji
tand
##ciety
SI
##ANS
Klinik
PAND
##ENTER
burung
padi
tag
##cc
Kemajuan
##emar
Doktor
Da
Ketahui
dicapai
these
tersedia
Arch
##AJIAN
kefahaman
##ste
Paip
tin
##engkapan
kukuh
agenda
120
##ombang
##kuad
sab
##aaa
menahan
##omotif
Rakan
##hirt
Kingdom
Uk
Individu
any
Rahim
sempadan
cawangan
Special
##ho
based
Pre
##angkut
##injam
populasi
tern
##estinya
Suh
nov
Inov
Isti
##UHAN
tiket
##iversal
Contohnya
enggan
##etapa
Dipertua
Feed
##inder
Kampus
melepas
lesen
MUHAMMAD
MAR
pengarah
sengaja
SK
syariah
Teman
DIS
##urai
Swasta
walau
BES
##siden
Emp
misi
menghadiri
Atasi
##adir
##ject
##TIK
menguruskan
WhatsApp
Rambut
ZH
##UKA
Shant
TERK
produc
##abalu
IND
##ects
kreatif
Tema
Mend
Awani
takde
##kuat
PUL
##pasti
Molybdenum
kris
##uality
##hor
format
Long
##lip
rek
##niaga
amb
##yiddin
keturunan
Download
tafsiran
jas
mentah
##ille
Van
##etan
##pektif
Ho
export
Lag
Tab
berikan
Chrysler
cikgu
##0065
Marin
majalah
89
cor
Kaki
bir
setempat
Smart
Kemudahan
only
kelapa
red
Gejala
check
Champ
##apuri
companies
DE
##fal
##mpan
berkhidmat
AZIZ
persetu
OF
Status
##arit
Saat
Yah
Gran
##undang
gelap
permukaan
Keseluruhan
##illar
Sim
komitmen
Pendapatan
memaparkan
##kod
EL
##endam
Karangkraf
Mahm
Iman
rupa
angka
trak
Muz
Sinar
Juara
##arahan
##AYAAN
##adz
Baharu
persembahan
Syah
##endera
##kaun
sabar
Organisasi
##krip
Women
##tung
nelayan
##ariat
Wajah
meros
penya
Gred
support
##ahagikan
happy
penyel
diperk
memasukkan
cecair
Resort
kebebasan
##araj
BAN
##isytih
Double
##dic
Tempahan
terdahulu
null
differ
ANDA
level
analisis
Peranti
dimasukkan
prosedur
##tuduh
Bir
Shantou
Lak
perumahan
persen
Kasut
##antauan
Galeri
##enor
##UPAN
KUAN
del
Gar
dom
penyanyi
Dom
##UMB
Ganti
##acy
AHLI
tutup
##ILIHAN
##obi
Logo
langit
non
rangkaian
Kelebih
pengilang
##aksin
MUS
okay
##arakan
berdekatan
ge
##room
Shop
##indung
##lander
paras
Jawab
impor
berulang
##ihad
Studi
him
sentu
polisi
##Ku
##etuai
##inggalah
##ujudan
nenek
peta
mengec
Mental
##emban
pastikan
Jag
##eur
diteruskan
##eraka
PA
##UC
##EX
Azhar
INF
mikro
peguam
Ji
CON
##ujung
##undingan
jahat
##ubuhkan
family
##wn
##apuskan
##aders
##lumbaan
pemberian
Ref
payudara
##amatkan
Suz
mema
kosmetik
##tage
through
Hand
vitamin
##erahan
berguna
##lick
mengendalikan
results
Cru
sil
##anjutkan
Green
BERITA
PB
dapur
Muzik
kegagalan
##entif
kaca
menjejaskan
Stadium
Daya
BI
Bal
ladang
##dirikan
Del
##okasional
some
Kinabalu
dalamnya
law
##rosesan
Mont
AGENSI
Fakta
mematuhi
keutamaan
Hamil
##quip
anim
category
##alur
Hampir
tahunan
kesempatan
Kil
pad
Plus
III
PES
Teach
urus
Pangkor
pemegang
Rak
##erp
GAJAH
##iskan
##ics
##elam
KEN
##angsapuri
menerangkan
System
##ambahkan
Kamar
bisnes
##urah
Development
##ukti
cons
Bolehkah
SEJ
SOL
kopi
TUAN
##NI
Tradisi
##41
want
Kapal
menger
terpulang
Rela
lat
love
bus
##alifah
##ekor
##ogn
sekaligus
##uatkan
##fied
##Kongsi
Batang
Ja
Pelakon
Kristian
##ujah
Bencana
##ARD
Forum
falsafah
MAK
attr
##DAF
##agnet
##APA
berkesempatan
##com
##niah
Muhyiddin
menunaikan
Dih
cl
shaklee
kenangan
keempat
##ulatih
class
1990
like
Zaman
auto
Rajah
##estiv
##33
Mufti
Plu
Cal
Pembantu
dat
##empurn
##sidi
tarik
berpindah
##ahtera
##atul
HARGA
person
Kelebihan
Faizal
Xizi
into
suk
SEBAGAI
Kalangan
memaklumkan
Kuantan
##aila
##ADAR
dipaparkan
tuala
Food
Kari
gabungan
rosak
Kabinet
##angkitkan
pemindahan
image
Pembayaran
##akiman
Suk
##ajahan
##olahan
Pakistan
Hel
diketengahkan
Mula
##enci
##hy
serupa
Brazil
##eland
##HIR
Lebuh
Cadangan
Strategi
Sala
sr
bersalah
Telefon
Arahan
perhimpunan
pelabur
##him
##ities
Hartanah
mengundi
bapak
##kuti
Janda
Daman
diletakkan
##elan
studi
Hadis
##iser
Tenang
tenang
moral
Cepat
##OB
diesel
parlimen
Uc
87
##ister
Tar
##ometer
##ampan
##dan
##krit
Guan
Sisa
menonton
Cons
##ambing
Amp
Pengajaran
##ica
TINGKATAN
mengenali
menyemb
##usahawanan
Bersih
alah
##estival
hit
##mer
penjualan
cam
Las
##agama
Cro
KETUA
Reg
dengannya
resi
hasrat
##okan
##46
ade
Qu
semestinya
sedem
##jauan
##phone
##53
Lang
premis
Pur
##ahasa
Radio
berjumpa
teknikal
bimbang
##sisten
##mint
##agon
##6800
LE
cender
dibayar
options
menubuhkan
MARA
menyerang
Api
dikaitkan
ASS
Cel
melawat
detil
Memberi
Pemimpin
buta
selidik
##allah
Zulkifli
##blem
Gua
ANAK
sedemikian
meman
ADUN
##inggalan
##andatangani
ditambah
##ctric
fasa
dinding
Net
1996
usul
##yn
##red
Sif
Encik
Pengk
reb
Perbincangan
##ritik
##endirian
mahasiswa
IPG
sim
Caj
##31
Seluar
Modul
##HR
share
juara
Bidang
Lawatan
Inc
Perutusan
ii
rencana
##ancing
##rent
##uduki
TEMP
##wide
Syria
##ativ
Cik
bina
style
##elajuan
ancaman
##oke
Pot
##taraf
name
Bumi
NOOR
Kanan
meja
PELAKS
Kurang
Tunku
ibunya
kegunaan
gambaran
perlukan
Pertandingan
hala
mc
Sony
Den
kecewa
dr
paparan
LUAR
KUANTAN
when
mengisi
sijil
##agaimanakah
JI
##dam
menyerahkan
Ulama
div
school
suaminya
rasanya
##utipan
##EMERL
##ethod
GAP
Widget
how
Gerakan
##lasi
Diesel
diperbuat
Anggota
OP
##riteria
tir
call
SEMP
PENDAF
ruangan
ketidak
hiasan
halus
##uduga
MAHK
##isu
kekasih
##lunya
##quipment
KAR
tal
tep
Peranan
Akses
Artis
Benar
hel
##jawan
Zon
##isahkan
Bilangan
##ago
##entuan
Wholes
pembeli
Binti
##lihat
##ucky
##impalan
dot
destinasi
acuan
Prestasi
Selama
##sin
Less
lim
MENJ
##enam
hiburan
Euro
bersyukur
##zan
gua
##yap
##antungan
Viv
namanya
upaya
Madinah
##pisod
##jol
Sebaliknya
Sci
petua
Dong
Sedap
menyeluruh
##raft
##act
tangki
Pemegang
Bahkan
novel
majikan
##other
##arta
##isang
pil
panel
##cally
power
net
##stan
Kanada
##AKAP
persepsi
Zakaria
suruh
##26800
Idham
mengembangkan
Stud
Khalil
hidraulik
luaran
DATO
BESAR
amal
susulan
ragam
rum
Fas
Escalators
kaitan
##rank
##pen
##alut
tumbuh
##Co
than
Damansara
##48
##imer
Cuti
keluarganya
Inovasi
Berkualiti
menumpang
Ayah
Pencegahan
##epatan
##dividual
Sahabat
Bukhari
sembah
##anjawan
##uruan
rib
##cept
jangkitan
gelaran
mayat
##sson
##uja
Chan
Bags
##hum
pertengahan
##imbol
##td
Riz
konflik
Edisi
Jamal
views
well
lembu
##egrasi
melepaskan
MURID
misalnya
tit
##loma
berlainan
hantar
##essi
##prises
teras
kamera
Azmin
Mengan
blok
Ambil
uruskan
Alum
##bukan
Garis
Wil
Itulah
bahagia
ketat
##FA
##verter
kalian
Perjanjian
##eft
##unuhan
Tenggara
Ustad
##ged
Wholesale
##utri
NEGARA
##aunseling
Kol
most
Sekali
##sider
PENTAKS
##ampasan
fleksi
THE
##estimoni
selanjutnya
yaitu
mendorong
kelulusan
##asilan
batin
##ebaran
##bor
hidangan
Pang
prac
##juk
Kejohanan
##Press
berpel
menafikan
##emerlangan
##ademi
Nig
bro
Kamu
tunjuk
##ransit
terperinci
rugi
##ANI
Hot
##uburan
LAS
Lip
Worldwide
##IPU
padang
meraih
Tujuan
SAH
dimensi
right
SUNGO
##vensi
##ikmah
Gaji
ternyata
terpantas
mau
dilancarkan
sb
##terest
list
comment
Restoran
radi
##dition
education
korban
Digunakan
hidung
##patah
sememangnya
##umpai
lengan
##udul
membuang
sis
Comments
Terlebih
##owi
mempelajari
ceramah
##ANAAN
Free
Hijau
mendaftar
Ash
##ective
mencegah
demokrasi
berman
##ANGGAN
##vir
arwah
##elbagai
Villa
##mpulan
##traktor
Elektrik
objek
##hkan
##Allah
Filament
##ducational
Mencari
Bebas
tolak
Tugas
##ASY
alternatif
##emaskini
Skrin
BERNAMA
Sayang
rogol
##TAU
TO
dihubungi
Americas
##SU
##UTER
Empat
Suara
Key
mencabar
##ombak
MAHKAMAH
Insya
Penting
Azizah
800
rupanya
##eda
##rul
bulu
KEHID
Mos
##entangkan
Admin
##dis
KEHIDUPAN
##estern
Dijamin
kuning
Templat
matang
##neum
Nampak
##embunyi
aloi
umumnya
disiplin
petani
PN
Isa
disesuaikan
services
kaunter
KED
Taj
##astam
##atangkan
Dakwah
Tuanku
##ors
BHARU
populariti
##atic
76
Soal
##urans
persetujuan
##udang
VIR
##apakah
Mangsa
pembedahan
##iki
##ukisan
Pelaksanaan
JEMP
Bintang
tiub
jiran
##roversi
##ingkap
Tud
kesejahteraan
##budaya
##oki
600
petunjuk
jej
menceritakan
nyawa
Provinsi
Strategik
Sheikh
Est
kemb
Farmasi
part
##munity
Bakal
use
persatuan
menghormati
Gas
LTE
gunung
Peguam
IL
ot
dirumah
Kim
sembilan
SEMPENA
vakum
##ukah
warisan
ketara
iman
AWAM
##imbal
dipert
##aff
##ajukan
bertentangan
memandu
pembuatan
190
Nadia
Bos
dgn
Hutang
News
Seremban
jemaah
pendedahan
RAS
##oba
##tarkan
WordPress
Telah
##ombong
kelajuan
Ustadz
realiti
Def
prepar
Max
Terus
Part
surau
##akh
perisian
Inverter
semoga
disana
Jeep
pagar
Papan
Nus
Ban
##gent
kesibukan
pemahaman
leher
##SH
bes
Ehsan
berhadapan
spl
Forex
##upuk
Yas
##lassi
##till
Ungu
amaran
organik
##jal
MCA
tetamu
##aing
Research
##asikan
ATAU
Bud
Walk
##asmi
berpuasa
upload
##ealand
Faktor
##embalikan
disini
sebalik
pengantin
##AUN
Carta
##epadu
##ihah
silikon
Kayu
Old
##inggian
Kurikulum
##urunan
keramat
motivasi
Beras
Cher
##ANGUNAN
Sad
ujarnya
teramat
oper
terdekat
##uncak
Sembang
pemberita
KAKIT
##anjaran
Children
kadbod
berhak
##sikap
##anjutan
Indah
Usaha
lakonan
OKU
KAKITANGAN
sain
INS
UPU
bakar
nafas
LAP
Share
Eric
masakan
PERH
Koperasi
##view
Kempen
##apanya
##iskinan
kedatangan
##azar
##simum
graduan
##emuan
terbukti
pertubuhan
bulanan
penyertaan
TE
##epati
ASME
Pangsapuri
hadith
aq
##umba
elok
##utbah
SPRM
Falsafah
##utasi
##eet
Bantu
Vit
anakku
sia
Kuch
##inea
##ipuan
kononnya
belia
##yanmar
Sor
##etupan
##iteknik
Dana
##hiasan
##uu
Ingin
##sm
##alleng
ajar
payah
Serbuk
##amik
betapa
laga
ubah
aras
##lusion
Bol
##ayan
##apar
Ijazah
Weld
Ais
##atasinya
Othman
Akademik
rus
melawan
Grid
##anch
##auhid
##ITIK
##ishah
Wakaf
Umur
Sedangkan
Tumb
##avi
##uaskan
##500
Berj
Neo
gara
tug
##AITAN
mulanya
berkem
kekayaan
##TAG
berdoa
televisyen
##ancur
##Arrow
Pelabuhan
##ersihkan
##See
PELANTIKAN
Kira
JEMPUTAN
statement
relev
##001
##lud
##masalahan
janganlah
HEBAHAN
##enangkan
Elevators
##atuhkan
MoreSee
selaku
saksi
Ceramah
ec
berharga
##phet
penyelidik
##ehatan
perform
Risiko
Town
##ahar
Masukkan
Family
Mil
##otik
memerintah
TEL
Pemilihan
##55
diumumkan
##akitan
MUL
fesyen
Khai
difahami
hakim
way
##odge
kawin
Der
Ejen
binatang
Yo
Mesh
Zealand
##bas
Zainal
bertugas
Myanmar
menak
Petaling
penja
##66
##ambahb
botol
Pembersihan
Hiburan
ekor
Tertinggi
jodoh
Perbadanan
PERB
Informasi
jawatankuasa
gerak
Ruang
lapisan
kemerdekaan
##uruhjaya
mencuba
##ocus
bodoh
said
jantan
samada
SAB
Premis
##vent
Umrah
band
##itahu
Mukh
semulajadi
PART
##wakilan
##atatkan
Rantau
biru
luahkan
ANSI
Crane
##idul
being
mengal
##ference
##AHA
Plastik
menjana
kuliah
menganggur
bau
PELAKSANAAN
ditunjukkan
##abentuk
Stor
62
rahmat
kasar
terkand
Jokowi
Nat
##ized
kepad
menyalah
persediaan
##arankan
##ERIK
Technology
##pt
##tice
JOH
back
ed
sarjana
Hisham
menjamin
Syafi
kafir
##hone
pandang
lingkungan
Majalah
las
then
Tat
setengah
##tul
pemuda
menyentuh
action
campur
##bank
##osongan
institu
Manual
##47
MENY
izin
DO
ram
##minton
Pid
kok
pucuk
##hatian
##rak
sm
##ukis
Mukim
Notis
##abaya
tugasan
Duit
sorry
##encing
selaras
imam
TUN
corak
##ubungkan
##ENTERIAN
dewan
die
KEMENTERIAN
skim
PELAB
among
##ganasan
JIWA
##takluk
korporat
Bermula
##antian
##IAG
contohnya
lubang
##pau
malaikat
ciptaan
hitsZ
##agat
##emahkan
after
nafsu
Kir
mendi
##arina
cuaca
Chin
kecederaan
##imaan
suntikan
breast
PEK
BUKU
Ucapan
##yo
##ebatan
td
barisan
##yarak
mengatasinya
Permotoran
dibangunkan
request
Tom
Balik
##riend
Merdeka
##uasakan
##ayati
ditanya
skor
Angkatan
Vic
KALI
##ENGGAN
##ingatan
end
Spesi
##rogol
memperbaiki
bela
##uge
src
Pinterest
infrastruktur
insiden
POS
##eder
Diet
keganasan
dingin
Mohammad
##oney
segar
deposit
##gal
Jawapan
Kans
##ukuran
JK
ubatan
Harta
Imej
tulen
berbincang
keamanan
##ikin
##adai
PENTAKSIRAN
mengan
South
##antun
Kuching
Dikuasakan
##erpillar
##nd
TERKINI
Pack
Roda
KHAS
Continental
Rayuan
Law
##eperangan
Cas
asalnya
Sid
Communic
dibahagikan
keker
##Sc
Akademi
Zahid
diman
##otan
kebiasaan
##okal
Abidin
##aim
page
##abungkan
##resif
Wed
Aishah
bermanfaat
AJ
menukar
wayar
Pagi
terlepas
beragama
KR
sejauh
Health
Mati
Sastera
Letak
cenderung
dialog
400
##incip
Av
##eak
Sempena
kemasukan
SUMB
GL
teaching
##enanya
##ifikan
##ambahbaikan
Poskod
Day
Guinea
Eksklusif
Bawah
Seksyen
##Blog
penguasaan
##ath
##ici
##utin
dipers
kabel
##ILA
Jelas
##par
##AJI
pahala
Building
diing
Maklumbalas
menghitung
Accord
detik
SURAT
pej
##90
##38
##orial
CIO
buang
ditan
##isasikan
KAJIAN
terkait
Portu
Tadbir
fleksibel
##ions
Memas
Manis
##urikulum
Ba
tercipta
Gre
If
Halim
TERENGGAN
Golf
##adahal
MENGEN
two
TAL
##ehic
PIB
##ampilkan
mengulas
syaitan
Turut
Specialist
Penyertaan
dirogol
mne
##iyah
Airport
##elle
BAL
berlakunya
Sehubungan
ASSALAM
PEMBEL
##elit
idaman
menjejak
##ladesh
loc
##eman
##kup
Solenoid
##ror
Dodge
Mekah
Time
Matematik
##emium
##asabah
##ATIK
##scribe
cr
ATM
##yarham
EC
##skap
##ikatan
Penguatkuasaan
##uhira
Posts
bersikap
PADA
dimaksud
##andum
Jual
##laman
Kerjasama
hitsZuhira
SERI
krisis
##osh
bad
Fe
menyedari
meskipun
MO
mengakibatkan
DIN
##intas
untukku
roy
##back
made
Jurnal
Tir
didalam
Bing
Sent
here
##TARAN
##ADEM
Shams
##36
##engkak
theme
Umat
dilengkapi
Tidur
##raq
##PR
tamp
##dung
Guna
diamalkan
##ensif
pulih
Jeli
Marcel
guys
##tangga
laju
Sukar
MEDIA
Sumat
##mau
rakaman
Trump
bicara
##kson
eh
##oda
PI
business
Swit
##ANGSAAN
PENDAFTARAN
entri
eksport
##fac
Perlawanan
##loy
simbol
Paper
seeing
##Class
Penduduk
##ze
TEKNOLOGI
PE
##ault
menurunkan
PEMANTA
SESI
Amat
##edik
##etizen
buahan
##OSI
KEBANGSAAN
risau
diselesaikan
melanggar
subsidi
Pesuruhjaya
JALAN
berupaya
ditentukan
##inggah
##ganegara
##dukung
Bangladesh
##ship
Char
School
mcm
SOALAN
Kilang
fenomena
menjejakkan
##inginan
Champions
SEC
Daud
privasi
##awl
Perihal
prop
bertahan
##EKA
mag
JP
KOS
##DE
kebudaya
sorang
##alim
Caterpillar
test
BR
##riginal
##lihatkan
mari
resepi
##ulture
Perbezaan
##artment
kebakaran
Kajang
##OHON
Pagar
ikhlas
tertakluk
milk
carian
##onstruction
##imba
Tet
Dagangan
Los
Wajib
##ipu
##rilik
##hak
BARU
pembiayaan
Haz
Besut
##unjungan
keberkesanan
RE
##ipan
our
problem
Meningkatkan
markah
pertahanan
KAMAN
pengkaji
Ren
Pump
DASHR
DASHRIMAN
menulist
##fikir
##ejas
baby
##oci
##gerakkan
##visyen
Pl
PELABURAN
Kesatuan
##sive
##unting
Kematian
##ISTEM
dikendalikan
Box
duanya
berhati
##kirah
TINGGAL
bimbingan
POLITIK
neraka
Sensor
##uments
##Tr
isyarat
kristal
Pertuan
##ihi
Siang
kari
menyelamatkan
##angkal
FRE
Pla
Tee
shirt
shalat
ditolak
darip
piano
##uring
kejohanan
RUM
##diq
bahaya
##lahgunaan
underst
Sulaiman
DATA
Ye
kebudayaan
##IHAT
Ltd
luka
Ianya
Penang
atlet
UPM
Sumbangan
##marin
TERG
membu
campuran
maksimum
lantai
Belakang
##indow
Diambil
malas
##ancam
pencer
##angkaan
BEN
SW
transaksi
##inum
BOM
Hadith
key
##angkok
pembunuhan
Pandangan
conc
##abiskan
Kredit
last
plu
bengkel
techn
##lar
wanted
Pemasangan
Gabenor
Bali
##hatikan
Wahai
##DN
##impal
##cted
est
mengucapkan
PKR
Kadang
##engkapkan
overcome
Serious
mengumpul
Melihat
##MU
##ekad
##ford
terkena
Kont
##masalah
bual
membangun
found
ijazah
kompleks
pengikut
signifikan
persiapan
TERENGGANU
perundangan
180
140
##aster
kecemasan
PROM
##utupan
##ADIL
KAW
##netik
Simpanan
Rock
sebesar
Sambutan
PIBG
process
facebook
Kedudukan
gh
bij
super
segalanya
RAYA
Percutian
##set
##isual
bawang
tampil
bertulis
temu
##LD
##siding
jin
week
Ment
##etulan
Kelajuan
##egini
##lion
begini
##ANJ
menekankan
##ekolah
telinga
##iptakan
##Juma
hitsJuma
text
Hashim
hantu
KEW
Sand
##ayakan
kuda
##GUN
talent
pec
keadilan
##ARANG
##dn
used
dapatan
left
##pon
sambungan
bajet
##antaian
Oh
Leaf
##This
cincin
plak
Mengenang
##ongkar
pastinya
lib
Seluruh
penampilan
Jemaah
cond
Perhubungan
tersi
bagian
Hidraulik
cour
Machine
Background
aktiv
Allahyarham
Bagaimanakah
permasalahan
goreng
dikawal
##azkirah
comm
Ny
##antina
Level
Moto
menamatkan
gram
sebegini
##ohol
pelatih
Membaca
##anggang
Hye
##quar
##empuh
##teria
61
body
Herba
pl
Cookie
##ero
##lation
Sedang
BERKAITAN
##yangkan
##icaraan
ARTIK
mengira
language
National
PELAJAR
Suzuki
Tajuk
##antra
komersi
pengec
hangat
penat
lebar
deal
kewujudan
Harini
TARIK
Electric
Sewaan
##ensik
Oc
Pengiktirafan
penerima
Pres
##ronik
Kimia
hitsR
Tiub
runtu
ZHIPU
Centre
Panel
CE
posisi
##atikan
##acau
kalu
pembersihan
menump
##istic
dibeli
Ain
Kenali
##ORI
kilometer
##77
Shang
pemasaran
##tance
American
bertajuk
Disc
##ambak
##ivil
mustah
lambat
1994
Bersalin
wartawan
Sn
##ANGGU
Kilogram
Rasuah
##ake
fe
taj
##AKIM
Tetap
vehic
basically
berpeng
##ariskan
Jack
##ady
##urangkan
ba
##UNGI
Itin
menduduki
SEJARAH
Pun
##TAS
Isi
##ebak
allah
Persidangan
Print
##kota
##BlogThis
Archives
##orb
##imatan
##etuskan
khabar
CER
##ants
##viron
appro
EP
lucky
Tags
##BN
semakan
kond
Sikap
overs
Yahya
Kanser
##ogen
##ogniti
Gem
memanggil
Lima
##mies
peti
Perbelanjaan
##100
provid
##arif
##ebaskan
instrumen
##istim
bersesuaian
penerangan
dimaklumkan
merokok
Insan
VIRUS
ustaz
Menghitung
sulung
serba
Kalendar
Drs
lisan
##alahkan
##alurkan
##69
Keadilan
kambing
Gabungan
berdua
##olio
##igr
Rashid
##engaruh
staf
##ORANG
ISMA
Cahaya
mengharapkan
Itiner
##iskut
deg
##ULAN
tidaklah
Cars
helai
Nasir
pencemaran
Jel
##usri
rights
##exico
Mahmud
##aful
##ward
muat
disimpan
##ulatan
selagi
skills
##37
Nasihat
terjejas
##dy
##upply
kitar
##ORMASI
bulat
##fiah
##ado
rokok
##asm
Adik
Lupus
Komputer
Hita
uols
Wi
Mengenal
Rod
arus
##ihatin
Gombak
IPT
##AIKUM
sekalipun
Itinerary
second
##uss
illusion
TERGANGGU
##imak
Mold
Tenanglah
PELANGGAN
Asy
sayur
oversupply
Mendapat
katil
PEMILIHAN
exportURL
##istimewaan
maz
impak
good
##ELAM
inovasi
PANDUAN
Marcello
Hitachi
widgets
mencer
Profesional
Penya
pertukaran
siasat
Haram
Lately
hatinya
##gar
Duduklah
DARUL
melay
kit
Enc
##udayaan
##tact
Mazidul
Cabaran
Ui
Intan
mommies
Divisyen
Nissan
vol
sang
Catat
##tein
ali
Cameron
Rujukan
nuk
Idea
setting
##reh
TARIKH
##neumatik
Nombor
Surabaya
terkandung
##elir
##ugat
ARTIKEL
kecantikan
##ters
##etugas
jadikan
pandu
pelayar
seronok
JOHOR
Pendek
illusionist
Ikutan
food
Datin
##ADEMIK
pemasangan
kotor
jae
bencana
Alatan
1993
Widgetbox
reform
kretif
##34
berimpian
Naf
Order
Nikotin
penyej
seks
Dav
##ube
##limat
mengenakan
mengingatkan
method
KAN
ganda
Keter
belas
jenazah
intelek
Conc
memakan
identiti
##ompat
Ann
kecekapan
kuan
Halal
aKu
##64
segal
##ware
partic
mad
##tir
##Counter
puluh
##upkan
pondok
sebenanya
Paduka
berceritakan
Audit
Creative
Eth
lip
Backgrounds
Ped
keber
##atalan
##ternary
##ergi
iternary
Penginapan
surprises
percetakan
Temanmu
##Star
Berimpian
irine
ASSALAMUA
LAIKUM
##Tus
NeoCounter
##32
asaaa
puTus
HUB
sangka
##isar
mut
siang
perlumbaan
Had
##Speed
Oceania
borong
buatan
Dewasa
Kesi
##icy
##emi
selari
##KL
graf
Basikal
ren
##Sh
##ULUM
diorang
##ordin
dibandingkan
anjuran
##angkakan
vehicles
Team
garam
##angsar
Color
BOMBA
Buka
SEM8
##ovid
##OV
formula
Wisma
UiTM
adab
demam
diluluskan
Sewa
lum
Merawat
menghilangkan
##oja
tamadun
modul
Cam
##enyum
Blok
pisau
##tuduhan
##88
seharian
penipuan
Hol
##sein
##FE
mendidik
Tanya
agen
pengesahan
##aksana
Festival
##ajarnya
Slov
mendatangkan
##ghan
perayaan
Berbuka
##ords
PUTERI
larangan
##acing
kemanusiaan
##ebun
pemakanan
Tiba
##ATUAN
mengganggu
##rang
seimbang
##reet
##intangan
Western
##ater
Bus
Dh
mekanikal
Pertanyaan
##AIR
memf
Persiaran
Bhd
ques
SAMB
melam
Learning
jujur
Medan
mahukan
##lamz
Publish
Musang
Uni
##MIN
market
##antage
##kandal
Membantu
wangi
Mengulas
##IG
##romosi
Ih
asid
##usuan
Bulanan
NAK
##zech
penglibatan
##jab
BAY
##alti
##TERI
##ooth
ABDUL
bapanya
##aduh
ungk
dikesan
Maaf
Review
would
Pop
View
Jentera
##pe
dibi
##gain
menyebarkan
iii
Ng
elak
women
kemiskinan
##dayah
keag
stop
KLIK
##ERASI
TRANS
Bengkel
Muhamad
ne
##ccer
dilarang
##bility
Prinsip
##aplikasi
##turunkan
Jah
mini
penjawat
Emel
Sunat
econom
##AWA
Show
##upu
##APAN
mengesan
JU
Sidang
haba
Baitu
Jajahan
DAA
pasir
type
Masak
CL
disokong
##TIVITI
every
klinik
diharapkan
sudi
Soccer
##ecially
##ction
Seleb
lembaga
##va
##Yusri
merc
peperangan
hitsYusri
semen
PROF
Plan
Balai
Navigasi
wr
Maritim
update
##aper
parah
##39
Percetakan
diwujudkan
##irim
bersatu
Taiwan
##awakan
berlebihan
OK
Form
##amm
##AKAR
Perhimpunan
##ALITI
##aily
manu
kepuasan
##etri
Tum
Type
##IND
Chord
##asmikan
sunnah
maupun
##ERIKSAAN
medan
##empah
plag
Pic
##quare
Muslimin
butang
dias
Bekerja
Suci
##EA
Pondok
Gudang
Read
dibentuk
kasut
nota
Aras
diajar
Mukhriz
seleb
babi
fin
Tudung
kelam
Gag
pengumuman
bukit
carta
hang
##EKS
##JAYA
##ources
kontroversi
##ugeot
PULAU
Tokoh
Bergerak
##vironment
##edarkan
SEPAK
##araja
Peugeot
Ericsson
Heb
memuat
Elantra
bakat
##ihir
masanya
pra
Menara
Modal
klasik
LED
Tradisional
##lanan
Ha
Pemohon
NUR
tayar
##ella
##ubu
pemp
Santa
##asmian
writ
Pand
Tingkat
MENGENAI
Himpunan
##marhum
daripadanya
Labels
ep
##PI
##oter
##erbai
##alib
still
KAMI
Mexico
Pengas
BAND
personal
book
ED
LO
##berry
ctn
Series
##ezakan
kolam
make
spesies
##ARAI
Demi
bimbit
total
pertuduhan
Kitar
penurunan
dimakan
strategik
##dahulu
##ilikan
melanjutkan
kemaluan
##elin
##uite
cermin
##lima
PENC
Selebriti
asyik
##ertian
##arn
Penerbangan
Hamzah
Antaranya
memasak
Keluar
Manager
pilihanraya
##ELAMATAN
FEL
##vey
ctnr
PEMBELAJARAN
Bingo
Czech
riwayat
West
##49
##62
general
##ories
KESELAMATAN
Social
Oct
Kul
MY
balasan
SISTEM
penambahbaikan
rumahnya
##IKULUM
tindak
element
##AJAYA
##lassified
##uruskan
seakan
Elak
##qah
istana
Kesalahan
kala
##ampong
relevan
Terdahulu
##sible
Mok
next
Parit
##agihkan
Aspek
##ames
##utur
##ajin
##erbaijan
diatas
PEMBANGUNAN
budi
##zlee
mengarahkan
##ilah
KUN
##oyang
berbahaya
##uara
Asing
Mekan
OEM
##du
Automotif
lahan
##ikalau
area
##ids
Label
##jilan
karangan
maha
dicadangkan
AKTIVITI
Tua
gelang
Teknikal
berlalu
Tahfiz
dipakai
rujuk
##bean
##89
Analisis
##inter
sum
##ida
Jalil
##yana
Zh
Maur
Johan
Moving
kolej
##iss
pangkat
Emb
gak
Niz
CAR
##wood
otot
##ewas
##ifatkan
##ucap
Bangkok
##usnah
##outh
political
Management
kubur
kongsikan
Way
kelmarin
gov
Karya
Victor
##mani
mencecah
Berjaya
INFO
Octa
alukan
SENARAI
saud
Engkau
##juangkan
diet
Suhu
Page
##ektar
Persoalan
##alif
Complex
WAI
##ute
##0000
Cruiser
##aharuan
mendek
Subaru
KERTAS
Sumatera
Azerbaijan
penonton
Freel
Nigeria
Rama
Rosmah
Pelarut
disertai
murni
teliti
##elbagaian
PENGAKAP
PEP
dilindungi
##ohor
Dila
##tifik
perhubungan
##olution
pember
Roman
persekolahan
Kencing
PENINGKATAN
gajah
Faz
##adil
With
##87
dimaksudkan
##cak
IBU
tukang
##Space
Saham
Ikhwan
##eor
##gasi
merosakkan
diiktiraf
##PE
##aimi
Harun
##EMBER
##zuan
House
Jus
##ingguan
Kucing
akar
##USAHA
ketinggian
##tag
Companies
Dokumen
Tasik
Semalam
SPA
##ekalan
pertimb
Politeknik
##ving
##folio
sampel
Carian
wal
kasus
matematik
Adap
##ego
kesakitan
##stereo
abah
##unggang
Outlander
Cincin
Hilang
##via
dibincangkan
sewajarnya
WAN
Jet
entah
Lay
kend
google
seekor
##ormon
rasul
berniaga
Lot
##OMP
sentuh
Pantas
##bbean
keseluruhannya
aff
Karbon
pemerhatian
banc
jaringan
AGAMA
mol
jambatan
tersenyum
Rangkaian
diketuai
##elitian
##tay
Maszlee
JEN
fahaman
Pergerakan
##xi
Hussein
Sis
control
Papua
##orbanan
AIR
##lon
##iklanan
##kohol
Lembah
player
Silver
dinilai
sara
##angsang
##sul
##ahuan
##ville
##urniture
##nel
SAYA
##light
arg
puan
halangan
menampung
Covid
##ativiti
mahir
Bre
##72
menaikkan
##elawan
Mener
##UMPAAN
##ms
##roll
Diz
formal
efektif
Perkataan
##HAT
Serb
##ALU
##ava
##onjol
PERJUMPAAN
Khus
Ramli
##amaah
##anjangkan
diperuntukkan
penjimatan
menambahkan
Shanghai
padu
##assin
berga
diangg
kant
Budak
##avy
dianjurkan
##DIN
Britain
BACA
dibaca
RIS
Mir
penemuan
##hamilan
AKHIR
LAPORAN
Booking
penyediaan
umrah
PERL
##Of
untung
society
##ertakan
##nia
Caribbean
konsisten
1991
Syurga
REM
##95
Penyi
supp
panggil
Kehamilan
##utiara
Apr
Muslims
Finance
##ormatan
Mohon
Sul
jus
##anam
##ahamkan
gred
##ucian
Mandi
dikimpal
cal
tafsir
##known
Cur
menaiki
##aba
Ponti
##iarah
madu
SEM5
forum
berikutnya
Kecemasan
##umbung
menghabiskan
feed
teh
menganjurkan
##ACH
PERSATUAN
##anjakan
Seramai
create
religious
kimpalan
MODUL
PENJ
perhiasan
##aditional
##AMBAR
develop
YIN
Loji
kebersihan
Eksport
sampingan
##utamakan
asp
cekap
##RAHIM
Tep
##wayatkan
Cand
mengajak
##ultural
Makmal
Kejayaan
statistik
belanja
##otensi
works
black
komited
##erbang
segmen
##imu
ha
##ahagiaan
GRO
##eluk
penerimaan
Sebarang
Older
analy
FOR
membersihkan
Nep
Ringkas
keinginan
Tazkirah
##iritual
Market
muhammad
Pent
Ketu
lebuh
Domin
kekuasaan
Taip
protected
1980
##DANG
includ
memantau
Lampu
hitsLEE
##TARA
params
those
Educational
250
##yad
URUS
##ehold
dipapar
tertutup
persekutuan
Rimba
Sifat
Penasihat
tri
now
menyambung
##lakuan
kapasiti
memimpin
SL
takkan
1992
##amerkan
ukuran
##tainment
##etika
##andi
pencegahan
##abiat
Cong
##pertimbangkan
selera
Khat
Mulia
soft
Skru
terdedah
dicetak
##lies
Afghan
Papag
tebal
##sida
PUTR
sour
##ekodkan
ibadat
Tor
visi
##awaian
Fasa
pingat
bergelar
##reated
##igresen
Novel
##lm
manag
Dadah
Aliff
##entasi
vaksin
letupan
##nival
Freelancer
memelihara
menepati
memanfaatkan
sci
##gentina
Information
##ved
SUS
##edih
mustahil
ais
##utorial
Pasangan
##rag
Siaran
Hakikat
current
Iraq
##low
##HIDMAT
##jet
Menulis
HAM
Service
LEMB
##ker
wakaf
rahim
Jac
seump
England
selalunya
sebutan
modern
##essional
sosi
Bahaya
sarung
SARA
kebimbangan
durian
##unculan
hormat
Berkuasa
sembahyang
perlembagaan
Diploma
Oper
margin
tersembunyi
##HAN
##Case
##erat
Samsung
ditangkap
Tube
Adat
##anjikan
##anyakkan
selebriti
kacang
ts
Lan
##falt
berkait
iPhone
Kharina
Karena
Math
sehinggalah
FR
Fiqh
sekalian
AKU
Kebudayaan
SETIAUSAHA
Mahu
##ULI
Naik
OLAH
bererti
Vantage
Oldsm
Oldsmobile
senyum
det
DIR
##zerland
TEC
insurans
consider
SIM
rantau
rohani
HAS
Belanjawan
PTFE
aci
stress
merta
##anggaran
Baitul
cek
Terl
Apple
lazim
maksi
##AJIB
Mustafa
biarkan
berpuas
Cos
##auty
lidah
Jantung
singkat
##ISAN
singgah
##yaki
Lub
pemenang
MazdaSpeed
could
siku
membantah
Pemerintah
meneliti
penutup
##utip
##ova
##auman
diserahkan
##anakah
Bomba
##vious
dikira
different
important
skuad
Golongan
Sew
diserang
##etih
Dual
fabrik
Vegas
Coklat
##UANG
final
##empurnakan
##empuran
Memilih
Kerusi
##unggung
Tri
RAMAD
##elaras
akak
Under
##olakan
community
Anjing
sekian
mengurus
Anuar
Lift
etika
ingatan
ganjaran
170
FAQ
PENYELAMAT
TUD
Times
##ceed
gelombang
Low
Amal
patah
Urus
Jangkitan
Gad
HAN
menyifatkan
Lebuhraya
Phone
batas
Kena
perindustrian
Pendengaran
##aliz
##ible
PERD
puak
##IKA
Aff
Aug
Zam
##hat
notis
Table
lulus
berpunca
##pret
##esta
bahu
##miah
dirancang
Fau
pekan
van
72
HAJI
##antahan
Sebanyak
##kala
BILIK
Dz
##ily
parse
##ekali
##afar
dipenuhi
Som
Peristiwa
##UDAH
Commons
Pac
WAK
Daw
musi
##yorkan
##olongan
Biasanya
Nah
Serupa
##eling
Training
kritikal
keusahawanan
##onic
##ATION
pesat
##izan
Jin
Madu
##osok
Proton
mazhab
puk
##ganda
Shi
Hoki
##jadual
pengusaha
sayuran
Vokasional
Christ
malang
Dist
##aza
##burg
##araw
berbahasa
tp
Prot
Muzium
Switzerland
##entunya
##esor
Square
Geor
Ishak
IBRAHIM
interest
Manfaat
Album
Hindu
Pasi
OSC
Rai
##tit
JAM
##imen
Dizyan
berupa
##minal
merdeka
IV
hektar
##wazah
##enteraan
##ejap
Ingat
jurulatih
Deposit
Month
Norway
Hung
Instr
double
Sang
kriteria
##ador
tro
ringkasnya
##JEK
Serangan
pernyataan
##BAH
penyebaran
imb
diturunkan
JADI
hairan
##intahkan
Menyediakan
Sm
Berry
landasan
tingkatan
##empor
lelong
very
##daftarkan
Silat
##esterol
KHIDMAT
##oder
Nusantara
##anakan
Unknown
Meskipun
Pengambilan
gerai
##esarkan
##tihan
PAL
##AIM
memul
Penyelenggaraan
Tin
##erai
obs
##agedi
pengurus
trim
layanan
ZON
PS
Seti
PUTRAJAYA
keduanya
KAMP
##KA
Water
klu
FELDA
##imantan
##ejarah
dapati
##ibur
##upe
##ential
##ampar
Subscribe
mean
AMAN
##ahlian
hehehe
##ahasan
Perintah
lukisan
##hrib
Nanti
teruja
perangai
##ars
##ilir
hadapi
Ra
##tner
DEW
import
##dalaman
1970
demonstr
sepuluh
Newer
basah
##HA
UTAMA
wahai
Pemindahan
PLUS
##taf
##sych
PBB
##ectiv
##intangi
barulah
Pengl
Whatsapp
berpeluang
PERN
tembak
##ODAY
Flat
memperlihatkan
Syiah
##emimpinan
##nanya
bercerita
mencatat
##azanah
penyampaian
Ditu
##etensi
tandas
Teh
##ilid
Hadir
June
Alex
##ONGAN
Yusop
salinan
##laksanaan
mempromosi
true
alum
seluas
penyi
##ysi
bersetu
liar
Kuki
ban
UJ
##ademic
Fesyen
##uq
PERUB
Forensik
Ariff
Kaum
Imb
memperuntukkan
Prophet
urut
datuk
##FTAR
cucu
Sertai
experi
##etapan
indexOf
##utut
Almarhum
##isytiharkan
Kn
##angkala
WEB
Hebat
Dub
Cy
Seberang
upd
adam
sbb
Kain
Fatihah
##acuum
even
offic
Radi
##ajipan
##Int
psikologi
ug
kejuruteraan
manif
Samad
Cheng
##unyikan
OLAHR
Bei
rindu
memotong
menyemak
Persek
Papaglamz
perkauman
suc
abdul
##ukri
sokong
Zai
##omor
dijelaskan
berpotensi
160
OLAHRAGA
TV
dirujuk
Psikologi
jasa
warganegara
kebun
##ADER
mStar
dipasang
team
##elor
serbuk
##ESS
Ball
RAJA
nis
Khan
Kekal
Pembersih
berhasil
AUD
Simpan
##isalah
##udud
Born
Lupa
menghid
pelancaran
##omestay
Kacang
##eluarga
##tabilan
TERBAIK
Leg
##WAK
##asinya
keteg
teachers
keboleh
mama
##irl
Depan
##akam
##On
##osisi
##oft
PENTA
Afric
persegi
BERB
##IPS
berperanan
kele
##abot
Spring
Pintar
puisi
##ailkan
mencetuskan
Pengawal
pelepasan
##0061
##ging
##75
mencatatkan
Budd
bom
Hous
Zaid
##asia
##enj
##esus
STAND
Challeng
Azman
hujah
RUMAH
Huj
keagamaan
GAMBAR
Membeli
kampus
##we
gemar
HAL
Life
##vensyen
##itasi
##ajibkan
IE
tersebar
ditayangkan
##sana
kabinet
gug
Mayat
seminar
dikaji
menggesa
##eransi
##rea
perspektif
JUN
Logam
There
konkrit
Ven
silap
##emputan
##tun
menipu
Spesifikasi
##usahakan
Na
Pendekatan
both
##apung
##ZER
Cermin
ditempat
Terjemahan
Mama
##ujang
BAHAN
runtuh
beh
menanti
Pemp
Cemerlang
timbalan
teksi
Cukup
wed
BANG
mereal
peringatan
##ocational
pegangan
##usnahkan
##kk
Ladang
Hat
##ined
Gambaran
Labuan
Bandung
Wind
kelantan
##asihatkan
SEMUA
Po
1985
##sasi
lembaran
##KI
Yun
Ampang
KAS
caj
Mersing
Shafie
##impik
sastera
##med
##OI
Tubuh
##urawat
Malang
target
diarahkan
Perg
memuaskan
Yassin
sulit
pendidik
##king
cik
RM2
PDTAG
Kelah
bersaing
Ikuti
Alf
rej
diterj
##uraikan
ditukar
pelantikan
Dun
##etulkan
##adh
Pemasaran
terlihat
Afghanistan
Chat
KOR
Eko
same
##ague
membekalkan
berpendapatan
##dney
Metro
magnet
##erdasan
tewas
Wakil
awning
Ireland
perj
Laila
##utube
pembantu
Landskap
tek
perlulah
ejen
Jawi
PENTADB
##RO
kiamat
Fri
mendesak
Tamadun
du
nk
##list
Sabu
kondisi
SIRI
Adun
mengab
melantik
Usul
##ario
Hafiza
state
Milik
Total
KEWANGAN
TODAY
menghapuskan
betina
STANDARD
##HI
##irin
Nepal
##intis
Kemboja
##anto
skala
PENGADIL
HUBUNGI
ANG
Sydney
down
##uraian
Kejadian
##aruah
REMAJA
Integriti
jambu
bedah
penghargaan
review
##HAR
##anaman
Jab
Saudara
Yam
##etin
Asri
Sip
dos
SEMASA
pesan
teratur
##ategories
Fokus
ketinggalan
pengedar
perasan
pelaku
Arif
Izzah
Oil
Saddiq
Bela
Computer
Bala
Lengkap
harm
Xp
Goji
Size
Pastikan
respons
Sampah
membatalkan
BULANAN
akta
Wa
Husam
SEBUT
125
##htar
melarang
Stok
##elakangan
bersemp
Keutamaan
melanda
##93
roti
Vacuum
128
kontraktor
Website
berkuat
Corpor
##zos
##ewengan
##luaskan
PAH
medium
Single
lot
##eden
SA
Langat
berpegang
Wali
##lemen
Det
author
Ox
YA
Phil
Osman
PED
##ono
where
ketawa
menguji
##LIM
##VID
Tik
Tunjukkan
ear
Meg
Seat
Badminton
##laun
##naf
PROMOSI
##yi
zon
Aset
parseInt
single
mantap
kecik
##ATIF
Kelahiran
sediakan
present
Theme
dimulakan
Takut
pew
##OHONAN
buruh
Inv
##anuger
TAM
Strok
##JAH
netizen
##uff
yuran
Elektronik
##abak
Jamak
Fizikal
Pip
##Farah
Dani
conduc
Entertainment
States
##prise
##42
petugas
Francis
hitsFarah
berhi
Mara
PAD
Yan
tiang
penghasilan
dibunuh
PERMOHONAN
saintifik
##61
##enggelam
Goreng
berjuang
MOH
##atural
menyusun
Sungguh
av
##dun
AID
##akuan
hormon
dh
##rown
KUALITI
line
role
##empatkan
Step
melakukannya
lamp
berkomunikasi
tauhid
duga
pentas
##ebr
##elajah
ISU
haid
1MDB
sul
Tam
Mesti
PENGARAH
##ries
Suspek
kutipan
##ONOM
Besi
KITA
Teori
GROUP
Angkat
##zam
##siah
##ancurkan
Gula
Mempunyai
SEM816
using
akidah
##utuhan
praktikal
##emia
Board
tersuai
Meri
relations
Kadbod
menyeru
LANTIKAN
##ganas
penempatan
Pensyarah
##the
Petron
Daun
perairan
White
Vivix
##EDAR
Burung
Durian
##akui
pal
stereo
Sejambak
apatah
Motivasi
##pert
##EMA
##mis
menandatangani
keluaran
window
##IMPIN
##ofa
##LA
##PS
##aharu
##awati
##ension
ROL
BIS
Sebaik
##elesaan
individual
penguatkuasaan
jantina
menghentikan
Virgin
pisang
First
Malaysi
government
##lac
digelar
Subuh
##sium
##omi
reaksi
Semakin
##raine
##ujur
eth
Nahas
Bukti
##ordan
Exco
major
petrol
##ander
puncak
batuk
##ether
Karim
kepakaran
ekstr
Singapore
anggaran
clear
bendera
##ime
Lahir
Universal
mens
##imbangkan
sudu
Kosmetik
Pra
PANGG
merampas
110
Dickson
kesukaran
eksp
##fan
mara
sambung
pola
kesehatan
##EMI
Mansor
##oss
Sunway
##hou
Minuman
##ological
Big
terpakai
beritahu
Penerbitan
Micros
berle
##ENCE
1988
Suatu
##uha
memperolehi
Kebenaran
Beijing
##ziah
bal
Bangi
Open
##ongkong
Pendapat
Associ
Turk
##aini
##imatkan
##ICS
Kelayakan
penyelenggaraan
kejah
PPIM
INTER
##RON
tow
##ayangkan
##yr
tisu
##adam
SATU
##do
##ajarkan
Full
Haiwan
##far
##ps
RI
padat
Mahkota
terbakar
diagihkan
##nn
Pemeriksaan
perwakilan
sekejap
Viral
Italia
slot
##oboh
DEWAN
##omas
##percayaan
DAFTAR
think
Bach
menumpukan
Tamil
HARA
menghi
ump
PROD
terendah
##gr
jerawat
Communications
##ikr
dikalangan
ES
Good
Hingga
Rohing
##ISAH
meta
YAH
##ebelah
Prosedur
##lahi
##eteran
nur
ESP
##OOK
##perma
curi
##apu
sekumpulan
lamanya
karbur
##nak
##jo
Urusan
UJIAN
fas
##diam
sejahtera
menolong
Pelancaran
##edak
merealisasikan
##esto
##006f
Pil
##oph
Prab
##INAR
complex
berkumpul
pri
##arisi
Argentina
March
manakah
##YAK
Kesemua
TI
##alihan
ketak
SAL
PERING
Marine
ape
Dapatan
penjual
pejuang
##ift
Sebahagian
INOV
Wash
Makkah
Tinggalkan
sentim
asasi
Human
##ason
##opan
##lamak
SR
penerbitan
##LY
tong
peneroka
sir
##undur
remove
though
anak2
Hiasan
edi
##TIF
patuh
edisi
penekanan
Ikut
membesar
##abahasa
Oli
BOLEH
##0074
##UTUSAN
Maybank
alami
IPOH
1989
##raga
toL
##sikal
sepas
##ways
diabetes
rangka
##tudung
Kaz
lear
soleh
pedagang
ten
##ajis
##owerCase
Rohingya
toLowerCase
Tol
label
Borneo
menyiapkan
##endaharaan
MASA
##thers
didedahkan
Ulang
##MP
##alakan
melangkah
menyiasat
##hal
##HS
##itra
##itos
Mujah
menangkap
Alternatif
Perundangan
##elola
Kamal
BULAN
rajin
1987
##ule
Kepimpinan
##ayai
site
##eringan
Tani
Visitors
PERDANA
##ubapa
pip
##ERTA
pemprosesan
pengajar
##impanan
mendirikan
persidangan
SOP
padanya
##ingkan
##irt
light
##angkalan
health
self
##odua
FASA
##zal
Berapa
##rasah
own
ucap
menjayakan
didik
gereja
Tutup
Pembiayaan
pelabuhan
America
##ipas
Street
fre
##ograp
TINGGI
pohon
##ray
Beach
does
##Name
anggap
SUMBER
GER
##afat
Que
##akti
denda
pindaan
dipindahkan
Temb
PERTAMA
Baby
menemukan
melarikan
awalnya
perbandingan
Secret
Harus
Rich
DAPAT
Angeles
serentak
KA
runcit
interaksi
##ATE
107
Corn
##jaan
pakcik
Pembedahan
Twe
Adab
Latar
Kecederaan
bolehlah
ragu
cs
mengukuhkan
Yaman
far
janda
101
menjadikannya
ROLLER
PANGGILAN
##enian
Setakat
fal
Mai
terjun
kual
Panglima
Jikalau
Peter
kecemerlangan
Person
FAM
alkohol
##rani
pemantauan
kendiri
ditinggalkan
insentif
##mate
Mall
sumpah
komersial
##ipis
Khairul
David
JIS
pertimbangan
mal
perhentian
bantahan
##onya
mi
Rew
menampilkan
##egar
cabang
BERSATU
terjemahan
##bit
##PU
Java
##feng
penguat
bibir
KERANA
TADAR
zah
pengarang
TADARUS
##BP
Darjah
##reaming
##ather
Kadir
##ohong
dipelajari
Sudan
menud
LEL
Gangguan
Juta
##angkuk
pengerusi
##imi
##ancial
Yog
##liz
##qi
ditemukan
##erra
##band
A3
##omestik
##awas
Puteh
custom
##RUL
##erap
berpengalaman
Karat
PEPERIKSAAN
Muar
##ebus
##ewan
Technical
##odata
##ATEG
##table
Microsoft
environment
Kelulusan
Syar
senyuman
again
##sen
Tamp
keistimewaan
optim
uang
HI
Ulu
##aknya
Plate
Sandakan
rutin
Selanjutnya
kesimpulan
mengejutkan
buih
Les
##0072
HID
##hhhh
##UST
telus
##oterapi
##egram
Pahat
skandal
Kalimantan
##etujui
##ULA
kargo
bersalut
princip
##rikulasi
Teacher
##ALAT
Barangan
sn
ekoran
penjaga
deb
memupuk
syariat
##alla
Pep
##dur
Pengunjung
Kamus
AHMAD
Science
##URI
Demikian
Berkesan
Acara
Fatimah
1986
##anting
##untungkan
dikuasai
A4
##VI
pengorbanan
Paris
NAMA
Over
spec
##EMAHAN
##erefore
Penjelasan
##chen
TRANSF
##ulunya
diuji
Petronas
hus
Franc
civil
##incir
penimbal
##ewaskan
while
##LDO
seti
TAW
menempatkan
ele
##abut
##ornia
approach
Jenazah
Saif
Spor
Club
##IHATAN
##awawi
mengerjakan
POLIS
Kopi
##tikaian
##TH
berisiko
##ultanan
kreativiti
fiqh
potong
gig
mengulang
##ges
BULLDO
##injau
dicipta
Dapur
krim
Bina
Calif
Vocational
spiritual
Liberal
Nam
nutri
Bertu
sekatan
ditak
letih
riba
Krismas
dibuang
menanggung
Mampu
saraf
##angguran
##upusan
menawan
BANDAR
##Trader
##eterai
Arm
Perf
FES
ketahui
cri
Highlands
Mainboard
##uture
bertempat
CAW
##soalkan
Hungary
##fur
MENARIK
##EPI
BULLDOZER
quality
tawar
##uarakan
Abi
racun
##ster
hidupnya
Penyata
##ASYID
##sijilan
Kawan
koperasi
kelima
kesus
penyebab
hikmah
diskaun
Hyd
Range
viral
basikal
##onial
Translation
##isahan
Penubuhan
January
Colomb
Willi
write
cawan
Semuanya
mengejar
pemohon
ori
jati
HARAPAN
##jub
children
Kri
Balas
California
ribuan
Butter
Stereo
demo
Teras
NOR
firman
Kassim
rekaan
sayap
ekar
lirik
##itis
aksesori
PINANG
Kia
Keempat
Haj
dolar
perbicaraan
##Element
dinafikan
before
Plas
SECARA
Musi
tular
kesayangan
bertuah
##icarakan
##eksport
jom
karburator
PUN
##ahaha
mengalir
asmara
Chic
menjatuhkan
dealer
ditarik
Kelengkapan
##ollar
##amas
NASYID
##ANTUI
imun
Banjir
cili
##OMB
Kekosongan
bersem
Bestari
keluarkan
Aj
BUKAN
rehat
wasiat
##off
##anka
##adinya
Sweden
##asti
melkan
71
Test
kalimah
##lawan
max
pasang
discus
##ulation
PERAYAAN
student
mengimb
dipengaruhi
lurus
PERINGATAN
PORT
pembukaan
equipment
jihad
Keganasan
beza
mengakses
##ampungan
Bella
##tes
Island
##82
##anggah
Thai
Sportage
active
SHANTUI
insya
memori
ngan
menyesuaikan
jet
##acatan
material
doakan
Mengandung
##rio
tangkap
Pembelian
JAN
tantalum
##obium
transformasi
Rang
Ridzuan
Peningkatan
Lancer
peratusan
Tweets
mengembalikan
##alis
##eu
intro
ibnu
kurus
##ajui
membakar
Sib
ton
terfikir
mengundang
makmal
Krai
Priv
Tang
Sambil
audi
Sari
Kara
Adv
Diskaun
PERSEK
KESIHATAN
BORANG
##iyyah
Pasti
##apaan
Union
Mengg
##eler
##MM
terkawal
Testimoni
##role
##armon
Olimpik
TwitterKongsi
job
ASTM
pengasas
Camb
##bul
Karnival
Bunyi
IniBlogThis
Europe
Sesiapa
360
Care
##mpu
JAW
Penggantian
mencintai
paper
INST
##gig
TAP
cak
Fail
deng
SARAWAK
##GP
Mobil
kir
##acity
Otak
##AKAT
##TION
Kla
##AIMAN
Lum
##PP
##0069
##agnosis
Harap
yatim
Works
tinjauan
KOMPL
##hop
Slip
les
##urungan
universal
berasingan
Kaya
Jak
Etika
##oster
Pakai
##hah
Misalnya
Bor
JAYA
nampaknya
IKLAN
##ersey
Member
Buddha
##ogi
##emat
Pemuat
IX
Aisyah
tepung
jag
##zim
seram
Mustika
tuju
Episod
550
tanggung
Cay
SULAIMAN
updates
##play
CINA
pampasan
##bek
##amilan
dikh
diguna
##isap
##yakarta
Baq
700
haf
##owo
tentunya
Bicara
STAT
##iliar
Pemilik
1500
penerbit
Encoder
##aduat
print
##antom
##Tube
Darat
disebutkan
Paul
Non
substr
APA
RESEPI
kelengkapan
Chi
kehamilan
rundingan
##ARAT
dalil
Household
##eck
Alg
Poland
##entingkan
##elut
##upai
membela
Kepentingan
dimuat
##uasir
asrama
dial
hadits
Government
Mutiara
##TS
persamaan
bogel
##85
bangga
##ebum
Lar
Sini
Lagoon
##irm
Wong
indic
KELUAR
Gunakan
solenoid
##car
Surau
##vertis
##AHIRAN
mekanisme
Vel
Pasifik
disenaraikan
kejatuhan
memaksa
##enderungan
Kang
PERGER
##EMATIK
semenjak
lic
Jordan
mengas
Diabetes
kuih
MENTERI
lar
melabur
Bagan
Prosiding
menghina
Imigresen
KOL
Nasib
##okr
##yanya
ret
PROS
##IX
silam
mov
Kew
Sentral
induk
dijumpai
digalakkan
SOLAT
TIPS
kembar
false
Dataran
PERGERAKAN
menyes
##anggih
Rap
FESTIV
##agihan
##emari
memeluk
##ahabatan
##ambi
Furniture
KEK
subscrib
estate
CAWANGAN
open
##elintir
Ub
loji
pastu
focus
##rew
Khutbah
105
bersuara
Win
kegemaran
MOHAM
benci
Islands
user
hy
opini
ITU
subuh
Year
##mur
Phantom
MATEMATIK
Jaguar
##ejal
csv
MAI
Material
Fatwa
Product
##adhi
yo
shop
Conf
papers
##fon
disambut
Coupe
pameran
penghujung
jalur
##AKI
disambung
Simpang
Pemikiran
mintak
potongan
membiarkan
Ringan
##79
rintangan
dilu
bebibir
KOSONG
##arawih
##TOR
membezakan
tur
##utir
bisik
penyelewengan
FESTIVAL
##elli
senaman
Aliran
trafik
Plugin
##ots
melengkapkan
FacebookKongsi
##ines
##estari
##lien
Putera
wujudnya
pasi
melayari
arab
kepelbagaian
Office
George
disemb
##onim
Resources
ideologi
talak
Resipi
Jiwa
menda
Perolehan
Ukraine
information
CN
TALIAN
##ualian
##etooth
gb
Great
LA
bersungguh
##ifi
Siv
##akini
Classified
Anim
##edonia
Tulang
Automatik
ham
##ARE
kesal
##can
Windows
##ession
BAD
##aplikasikan
Sesetengah
ajak
punggung
##elakkan
JAD
Tahniah
forex
##umput
sebentar
Kemasukan
tid
keindahan
##ott
Khasiat
##roleum
tahniah
LAWATAN
Khaldun
KANAK
##iar
lebat
pening
Lemak
kebanyakannya
Majid
hakikatnya
Sty
Carbon
Alasan
temuduga
Pangkalan
Nic
Respon
Dukun
piawaian
menim
##ikahan
terikat
End
Kekuatan
nih
beraksi
manual
syah
Washing
##tabat
##krim
pelarian
dirawat
berjanji
Keratan
84
bersetubuh
sperma
##aidah
##juh
Marang
jurut
Rukun
##luminasi
##ugut
ago
Transformasi
##ules
##tablish
Dara
##ider
Amb
ROAD
Resolusi
berpantang
berpakaian
##MY
religion
pengurangan
Agar
LEB
Fu
gatal
Freight
pengiktirafan
##jit
via
AKAN
bertaraf
##pkan
Mujahid
##atis
perpustakaan
bancian
MB
ebook
percubaan
Dipos
diantara
dihadiri
Impian
Chong
kalis
##ibah
kritikan
concept
OS
sepenuh
serat
##erto
personaliti
Conference
##qa
VII
esp
##ref
bangkit
Ratu
Hujan
maya
##ece
Ayer
pep
##afer
faraj
##74
##eline
Pertukaran
Memahami
##adaban
penelitian
cip
##ongs
spek
studies
Frank
##akamkan
giv
##tasi
input
Kabel
Pontiac
Prima
Tap
##jung
Berhenti
Penyelamat
visual
Cour
hawa
bertur
sendi
##OMPOK
Cup
Plug
135
KISAH
Pengetahuan
mengungk
##angku
##izik
##tainer
Supp
Denmark
editor
talk
inginkan
##epikan
akrilik
seles
##ribute
merasai
jurang
rayuan
##yh
##ists
penuntut
##EMERLANGAN
##cy
Tangk
##tivities
Agus
STR
Grab
North
Brek
Tourism
Kend
menyuruh
##ICE
GOLF
##udar
Adapun
YO
film
Biru
Selalu
mm
dikemaskini
MAC
Bookmark
issu
pneumatik
menjalin
Pear
Shar
Light
keda
bleh
prog
tela
##eelofa
Saiful
SES
kaji
Thomas
dev
##usion
paten
menetap
##iharaan
direction
substring
##gium
ADA
Serbia
3000
bomba
165
menguntungkan
selected
##nab
tempah
Sales
KLIA
However
kebahagiaan
Recent
training
diwak
MALAM
mengukur
Enak
Eksp
berjudul
Transaksi
MUET
##ENDIRI
Seder
Sign
number
##eaker
##arium
##linikal
Cross
Original
Petik
##elanjakan
##ulingan
Tulisan
Edition
##irit
dibantu
Pulley
amalkan
muz
comel
Links
box
##oom
##anugerahkan
parent
Sebulan
fitrah
influ
Industrial
pertolongan
bengkak
Konvensyen
Portugal
TU
title
berehat
##ea
##loom
Lengan
mencuri
##ergasan
##daks
Rub
pentingnya
##ILAH
enter
Partner
##kit
Undi
##angkau
YAB
##ognitif
Mesej
wis
ungg
ansur
BUKIT
Chinese
jemputan
pengendali
Mix
berbu
Corporation
Jarak
bertan
niaga
##APAIAN
kunjungan
success
Player
##aingan
Doc
##angguhkan
berdarah
demonstrasi
##biliti
Abbas
##amidi
Econom
Camp
##yallah
prihatin
RAHMAN
##rail
Bluetooth
Sierra
Mokhtar
penutupan
Kapsul
Sayyid
##Share
Azlan
ROS
years
Penulisan
Conn
mempromosikan
academic
##eness
siaran
Kapasiti
Leave
##oro
##amak
contr
General
sg
##ulin
aje
sesekali
PENTADBIRAN
##ubual
##tipu
INOVASI
Pelacur
Bayar
MOT
rasional
pulangan
KOMPLEKS
##tiga
##UGERAH
##laim
att
##IKASI
baiknya
Hijrah
##aits
##char
State
mengenalpasti
eksklusif
Terapi
Selesai
Peserta
mail
mendukung
senyap
desc
menonjol
lambang
##IMPUNAN
##Online
ABA
berkat
Jar
Bergabung
Gajet
bergabung
December
##dig
haruslah
keser
##omasi
Thread
##olf
INT
Vitara
Pandang
Kuliah
##ISIAN
##factur
Pelabur
Report
Categories
Rabi
##juaraan
##idan
Buletin
saingan
celana
DUNIA
seiring
Timor
##vo
##rict
##sifikasi
Ultra
Roz
bermasalah
##emparkan
##tenance
tertarik
menghadap
##UMPULAN
##pool
seawal
##ced
persaingan
##aps
kastam
ular
##haka
berdaya
##okuskan
pertamanya
Butang
herba
rumahtangga
memperjuangkan
##IAGAAN
They
##trik
##acana
Soft
IPTA
##perties
bottom
Rewards
Transit
dagang
Pengkalan
segelintir
##lease
pemandangan
PERUBAHAN
Yogyakarta
intelektual
kaunseling
PM
sempit
##ENAR
Update
typ
##By
USB
Studies
PERNIAGAAN
SUB
Getah
Bonde
patung
nafi
Katalog
sembuh
maruah
Pertumbuhan
Austri
##rahman
Selayang
Hold
Sambungan
SAMBUTAN
Biodata
khalifah
Oxford
Papa
##ambungan
bercampur
Matlamat
Neelofa
Sifir
##eorangan
Jej
##eraian
##elia
Seseorang
logik
##elf
Salahuddin
ayahnya
##sword
PRODUK
tang
kesabaran
Limau
1984
interpret
##ecuali
fatwa
Biro
Manch
Tanggungjawab
miliki
GEL
##acunan
protein
rakannya
maksudnya
pemberont
tegar
Barb
OV
santai
bawak
Lanka
ih
##umbangkan
reserved
yer
pras
less
RAMADHAN
PENGH
Tungg
Perjuangan
Zakar
##ikah
economic
##oper
vi
Fath
na
mobile
Pengendalian
##reas
Kangsar
##anjil
berbunyi
hitsROS
cent
Pemprosesan
Kreatif
##ongg
MIC
pembaharuan
Kaunseling
dian
##use
Minda
Tangga
##ubal
PEMANTAPAN
##INT
sertai
##unami
hitsN
##ticle
Gl
Niaga
Sederhana
Don
##HT
##UZ
##adun
##73
Romania
##AWLER
Botol
pengetua
sahih
gil
produksi
CRAWLER
aurat
##edung
Telegram
means
Georg
geram
kritis
berbeda
Religi
hantaran
##urung
tanggal
Tuah
##estment
respond
dituduh
sujud
AKADEMIK
BAS
bersepadu
keses
##IDEN
basuh
mobil
ver
Cetak
Bapak
Kraft
dorang
gur
integriti
##down
dibentangkan
Terkemuka
hudud
##irman
moto
dijadual
tabiat
establish
Price
Tek
##irakan
##olik
FAC
Ray
don
ISM
James
##iston
disiasat
Bilstereo
ANUGERAH
com™
tajam
COVID
189
ler
she
Permata
len
Senin
SAR
Ubah
##abuk
mutlak
##unty
AND
##tiar
subscribed
82
besaran
dak
Masakan
pengawal
##luang
Amaran
bosan
kapas
Mee
East
mind
contin
tangannya
Daging
Ep
metod
##urniakan
##AKU
groups
dinamik
Lakukan
menimpa
##76
##IFA
##bour
SIS
json
JADUAL
##arti
diproses
##osak
kebijakan
Rosli
##eliaan
Personaliti
taubat
usus
tipu
##emes
Penapis
berbicara
CAL
Cans
pemaju
meyak
HOT
Spare
USA
##amples
jimak
MET
##ULAR
rob
Ship
kerangka
Jambatan
##antut
BANT
##aloi
senior
Laci
kl
prim
jelasnya
Qatar
##okkan
bakteria
##atukan
divid
sejati
serb
berkh
Asmara
Nab
Bendera
LAGI
bumbung
nyany
##laah
arguments
Pelik
Bun
##siapa
ISBN
KECEMERLANGAN
umno
92
##iffon
##urnian
fard
ummah
AGONG
penganut
communic
Enam
Adnan
menggabungkan
019
##JID
Belgium
mengancam
Pacific
##XU
##ittle
ANTARA
Maharaja
PRK
Kebi
akui
##auna
juadah
Kamis
Work
##des
Rantaian
Farid
##INAAN
Kecamatan
domestik
ditempatkan
Qas
aspects
Alb
##uary
lautan
##minkan
##ds
aktivis
222
Bahar
##hael
digantikan
Tayar
diak
Agak
Line
##Script
AMANAH
contact
##erry
pencarian
Panggilan
damai
##boy
POP
service
mendekati
move
Riwayat
kewajipan
##ustry
Minum
navigasi
ARAB
aluminium
ditanam
##ungun
laser
tergolong
terbunuh
##eluargaan
Febr
Mingguan
membah
nyer
KELOMPOK
MASJID
##ulitan
adv
Aktif
##GUNAAN
cina
kejahatan
sosio
Petunjuk
fam
Sepang
Enterprise
Juni
##wesi
PAHANG
##gy
Razif
Sof
USIM
merasmikan
##Ch
FREE
##lomatik
AKAUN
October
##kanan
pesta
sihir
peduli
Tukang
##ecahkan
elek
makluman
beralih
##ONGK
##ragma
##angkatan
mutu
##ameter
Minta
Mahasiswa
iv
perbualan
Austria
seketika
74
PANGK
JENIS
##akia
Sejuk
SUNGAI
baginya
##urther
TEN
fasil
Profesor
##asrat
pengendalian
kepemimpinan
posts
##irc
scholar
Maju
CIMB
Sejahtera
addClass
##laimer
Kehakiman
Aura
done
mengatur
kronik
##PT
Ummah
activities
91
##aliza
ABA26800
Upaya
PELANC
Janji
dikurniakan
Vari
##epren
episod
definisi
YAHAYA
meluluskan
mengkritik
Victoria
##arag
sesak
mertua
##janya
##sue
Rope
Zuh
pindah
Petang
AMALAN
Niat
##inati
##emik
dekad
February
##EE
Asma
##AWAT
binaan
jasmani
tertekan
RAHSIA
##asy
Bendah
RALAT
Tujuh
break
period
Stain
JavaScript
terlam
##inggakan
Kering
abg
Bimb
memasang
Equipment
dianggarkan
Finland
##daus
berkurangan
BLOGGER
1983
KEPUTUSAN
menggerakkan
Diameter
Aven
Rakaman
##incare
perbankan
##aving
Sentiasa
BANK
10000
href
##ke
mineral
PEMBINAAN
LAMAN
##ingkai
berak
templat
invol
Magnetik
ketenteraan
Mond
##mit
zat
Perlombongan
Khusus
TVE
Sisi
kesah
professional
93
append
sistematik
menanam
lumpur
memindahkan
ekzos
Payudara
##umsi
##ASEK
Istilah
##stein
Bung
Tau
cerai
##isikan
Rahmat
##ICARA
##elisi
terbentuk
##CC
keping
Kulim
Aur
cerah
Pow
regex
169
Misteri
##iringi
mendatang
BAPA
Istimewa
Blue
KB
ramalan
Bani
geg
construction
Riau
impro
DIP
Disclaimer
melampau
Satur
##yatuan
Penyanyi
Tinggal
Mega
##muk
##utihan
ol
##truk
##cover
Dur
##yy
dibatalkan
PRU13
Perut
Mikro
berbilang
##ellow
lutut
##laid
KEMAHIRAN
transit
usah
Permit
Perodua
##logan
pengganas
Mong
kebangkitan
Takaful
indonesia
nature
cint
##imanan
##indari
Langsung
Sdn
##ilu
##rick
League
##itor
Harimau
Son
RM3
hajat
RAKAN
Sha
Next
petikan
tamu
##AGE
Maria
penghuni
##mir
upacara
FL
Juli
maintenance
Skuad
##for
1982
bersemangat
##ebalan
Comment
##SHAH
lag
175
Kontrak
Perusahaan
pengembangan
fund
Wrang
##KM
implement
Manchester
##indrom
Zikir
Job
address
About
ABA26800XU
radikal
memeriksa
Tokyo
Uz
keje
CAD
Hin
penjen
##uchong
dipandang
jersi
berucap
##resh
##tikaikan
Traditional
alhamdulillah
Kastam
tembakan
kolesterol
##egan
##To
##unaan
##raktik
##akter
pembentangan
##onyet
KEMAS
AZIZI
Teb
beranak
mementingkan
##itch
Tro
Selak
ARAHAN
Wrangler
kecerdasan
penglihatan
Psik
Platform
sebagian
place
tertuduh
Cin
##oditi
Lailatul
Naj
##ESIONAL
Edit
TEMPAT
YouTube
komunis
BENTUK
##ongkat
##Malaysia
Zamb
menciptakan
Kesultanan
##ONOMI
##UU
upah
tempatnya
UMT
Pengetua
menara
##Mu
PERHIMPUNAN
pengertian
Stats
ketegangan
Cafe
##FER
##onc
old
Saifuddin
Pengasas
sugg
Firman
Bisik
kalendar
sif
hitsROSLAN
##IKAL
##epend
berturut
Agen
dinaikkan
liga
kokurikulum
tenggelam
Malaysiakini
##ailer
dinar
##ingkali
Mesra
##esenan
Kubang
Kemerdekaan
##He
without
Premium
ci
##aiban
Sale
regard
brow
ling
##terj
Thur
PRU14
Gila
Jami
related
##pu
##ETA
Pemantauan
ambik
##vensional
Fah
feel
event
win
Medical
penyejukan
##ubin
teguh
ILMU
zalim
86
##awuf
field
Aluminium
##armonian
BAB
Mia
##ungut
melayan
keliru
Mono
count
Tanam
signific
##interaksi
terbitan
##ZA
##UTERAAN
ketidaks
Exc
Cerit
persendirian
##roker
Nob
Jauh
Razali
Saluran
##ungutan
dibangkitkan
Batuk
Sasaran
##ERD
Mahf
SERTA
Jumat
Maya
canggih
Kamera
Berhormat
Language
Dungun
Kant
##URUH
##oal
##elih
Minutasi
pendakwaan
iklim
arak
EUR
question
BEK
seribu
acc
three
renang
Tarik
PENGISIAN
berahi
Bursa
login
organis
menerbitkan
PENGEDAR
Publishing
Rib
##ending
JAKIM
Ferro
menewaskan
perlaksanaan
Selera
ideal
membangkitkan
Terbitan
block
Dongfeng
Bersepadu
menjimatkan
sekeluarga
sepertimana
mengalahkan
HIV
PERKH
##occo
AU
##RL
Staf
EKONOMI
##ross
Policy
WANITA
ster
##osed
Pameran
Rona
##unjukan
Med
periksa
##uke
berhasrat
Cuit
AUDIT
waris
BUAT
reformasi
PERKHEMAHAN
##ADILAN
help
JANGAN
Tawa
meraikan
##entolak
Daily
Tump
EV
merek
Organization
Africa
##EI
Siapakah
baja
##USI
96
pertikaian
berkep
Maul
heavy
cend
Puchong
ilmiah
Jimat
judi
ATAS
Fot
jp
##AFIAN
Persediaan
##ussalam
script
Mondeo
aturan
ratus
Head
Kazakh
BICARA
##ecahan
Padahal
terti
##erus
Sudi
##INK
##usta
Rot
taat
menandakan
Motorsikal
REKA
kemunculan
mengadu
Film
##400
inspirasi
Image
Mendapatkan
menghidupkan
ketenangan
Avenue
dihid
Kw
##ajakan
##opsis
JAS
mentor
NOV
Society
DIB
Canselor
WANG
Tit
tampak
##emon
##die
Membina
Ne
munasabah
KEDAH
RASMI
melatih
sesawang
##bahaya
BAJ
PENAFIAN
Dubai
perbahasan
dipetik
##kuasakan
ahl
Maghrib
Mekanikal
Rh
peluru
mir
Hantaran
Algeria
##entury
Budi
subur
mic
stor
Sahih
##ife
Sarah
berbau
JA
Dev
Suf
berz
##utarakan
##SHAHRUL
##lege
hitsSHAHRUL
eksekutif
##aksiran
Nurh
san
dimainkan
abs
ASY
##older
A10
perihal
Store
akun
BAG
##sist
Khalifah
since
##ulangan
Penyu
##matang
Pink
Tand
##lek
##kusi
##fitel
monyet
menerapkan
##ahad
Sofitel
##UNT
tengahari
##icon
inves
Ten
pujian
##ANGAT
##viet
Phot
pilot
Bachok
##diket
kehebatan
ternakan
##IVERS
agung
Watch
TIM
jasad
tegur
Uthman
##umpaan
berfirman
Airb
Penyalahgunaan
mengaitkan
ADALAH
accord
Hip
81
terperangkap
Prabowo
##HM
skit
Metal
##rogen
Guar
henti
AJK
Panc
##arac
##emburu
PARTI
##ogrid
makcik
Today
Ath
Engineering
pant
##ides
penggantungan
sultan
Yaak
Card
seksual
Yuk
##lection
Lelong
##nat
Institute
##eha
liberal
dipimpin
##ewakan
Azan
##erapan
##ridge
agresif
##action
##antui
tunas
tum
##ONI
employ
##ele
PENTING
berlari
##ression
speed
sedekah
Siam
Liver
##aisuri
##zo
Properties
sombong
Generasi
Sunan
Wawasan
##FX
##egakan
berinteraksi
##ookies
PAKEJ
gesa
##ENDER
Supaya
Aksi
deter
truth
##ukarkan
Patut
cac
##lash
Center
##kanlah
##pers
##ements
##CE
##006e
hip
tingkap
report
kipas
uji
Berasaskan
testimoni
SABAH
Bis
perf
Peratus
simple
massa
Gamb
Sudut
ghaib
##tifikasi
geng
Teruskan
##afasan
##LEC
Qadar
Tanaman
pencipta
Kun
##apus
towards
direkodkan
Baqarah
word
##ampai
123
350000
##LINA
Singh
TVEIS
Semangat
Fiji
##alagi
##angganan
komentar
##itinya
##ifa
karb
Boy
##Jo
148
Hantu
balak
disyaki
Beir
Maksudnya
tuh
xde
kesediaan
tercapai
didirikan
exist
company
InsyaAllah
##anggapan
##enyih
##ingkasan
lam
Hamidi
Meja
analysis
Tawau
NI
115
Maran
Iklaneka
memanjangkan
Korban
##Info
understanding
menaik
dipotong
memproses
Poly
Beirut
Bio
urutan
##tile
memajukan
##import
sarapan
nar
##eku
Congo
management
Grup
Ingg
Dengar
##ators
Pengeringan
Senang
mengumpulkan
##RMIS
##ibub
give
Suku
mempercayai
derma
JUR
Siap
MoJo
keluasan
##embahkan
ENG
rantai
Persembahan
peminjam
Rekabentuk
Soviet
iPaper
NatOnline
lebihan
digambarkan
Was
disusun
pasca
##dr
##NAIM
Tumpat
##ibubapaan
panc
beredar
##iram
Perbendaharaan
5000
##JAU
nipis
##OST
kompetensi
##ival
Perpaduan
##idth
leaders
DARULNAIM
Homestay
buasir
##tum
mentadbir
tunduk
bisnis
MEND
Serdang
##enger
##ipulasi
pertempuran
Championship
wedding
brek
mee
oh
ditembak
bercerai
menyekat
zikir
behavi
Semulajadi
Pusingan
Sujud
haha
Hall
Semenyih
Mek
Jasin
ASET
##verage
sebabnya
bangs
ipar
mencerminkan
SEKARANG
REP
psik
diwakili
berdagang
Hos
##ITE
##IKIN
Persekitaran
sulam
Palsu
kun
source
Prak
organiz
Penyelesaian
pernafasan
praktik
OB
Remb
Herb
Kustom
##uty
AWANI
Lamb
Moga
Syaikh
Hor
YAY
KI
prib
Fa
dihukum
Rezeki
##olitik
sejagat
Matahari
FIFA
kitaran
##muan
##olabor
ONE
VLE
From
##UARI
Bed
Tutorial
Bayangkan
SEBENAR
diberitahu
##tific
Khairy
Menjelang
Johari
Seed
Normal
tahanan
Jaafar
##mualaikum
Kazakhstan
dibebaskan
##berg
Perspektif
Nordin
didaftarkan
##ector
##istret
cTrader
##rehensif
##tig
marin
Kuih
##celand
nuklear
Arah
ra
##endan
menuduh
QY
Revolusi
enak
URL
low
##urch
##eranian
##jang
ANJ
tertulis
##jubkan
ISA
Loc
norm
Trib
ZUL
ari
sampaikan
nes
rapi
Georgia
najis
Peniaga
galanya
kebetulan
empayar
particip
tadbir
penasihat
##perimen
Francisco
Pengendali
##vers
biarlah
DOC
##EBOOK
PROFESIONAL
RA
kepadamu
kekerasan
grafik
disertakan
YAYASAN
##eved
##lahkan
lec
Events
spekulasi
##alet
saing
##otton
Realiti
hitsH
pegang
Pesawat
LASER
Mimpi
membimbangkan
##alinan
##larasi
Laser
978
integ
hancur
menjemput
Pembentukan
##suai
##eart
Awak
bla
Senaman
menghubungkan
syukur
##pha
##ULU
dicari
memulihkan
gitu
Wahab
Adib
Karaoke
Biji
##aunselor
Permatang
##wati
asap
FACEBOOK
Yasmin
##BM
Youtube
##akm
Cheras
##edang
Hen
mengutamakan
kian
MODAL
added
berisi
mempersoalkan
bertahun
##reams
Indian
zahir
##house
litar
nada
94
padahal
##NAH
##aringkan
##untah
kebelakangan
dikutip
MAKANAN
##andom
##uguran
NIL
Biskut
siber
##eret
Jim
##apisan
TAB
dlm
Harakah
##eburi
mn
Mut
##erahati
Rafizi
perkampungan
594
Kembara
##opia
Tonton
##ability
##EMERLANG
##sigen
##lete
Stop
##ongkang
TP
Mulai
kenalan
mulakan
penjajah
CEMERLANG
Click
plugin
introduc
##utaan
Michael
Taiping
##nas
berkenan
roll
Rad
Kuning
ext
BERT
HRMIS
Isma
gempa
TA
wali
SEMB
Tay
dugaan
##elapan
##eribadi
INTERN
##Per
reason
Taib
den
##anjangan
sapa
rumit
##uasana
BEB
dikej
Booth
Serikat
##atri
Jon
##embara
elaun
##uw
##0064
##ALAMAN
Segera
1969
Organik
Slovakia
Enakmen
kemaskini
Liverpool
requir
##ully
##epe
Menerusi
Comel
REF
Pengec
parents
##UDIN
dikurangkan
Penyusuan
1960
jem
bikin
udang
terlupa
ibubapa
##Pan
Gadget
Dup
Hard
Yunus
dipersetujui
304
diterapkan
pengkh
Luc
beribu
##epakatan
Quality
##riculum
ikuti
fot
screen
ZAM
##andung
Ariffin
Hon
##ategorikan
baris
balai
tingkatkan
Perbu
##NIV
##embuhan
mark
##NM
##haj
DASAR
bersara
##UTI
gasket
##BO
HIDUP
Shamsul
900
##AWAL
nam
BON
ikatan
diisi
Pern
ibarat
servis
whole
MAHA
Kaca
sinar
amik
tertumpu
##lain
Straits
Inggris
bincang
Ling
rukun
##Samples
kecenderungan
spread
##kriminasi
vokasional
Ammar
Suasana
##ended
diangkat
##AWAN
Muslimah
##enia
membeb
Perikanan
given
##0073
fem
UNIVERS
##odo
Ste
terbatas
Memandangkan
Temuduga
Stainless
Percaya
hasilnya
Channel
Gaza
Madrid
pa
##angkai
mantan
natural
##Health
##ento
Filamen
Hill
PAC
Baling
ay
##isher
##verse
Ikatan
##nr
Siku
friend
Hanafiah
kedaulatan
memerangi
obj
##ampakkan
dipegang
##OF
SUCI
bn
pakatan
##head
Manufactur
Qasar
RAZ
dihormati
##sche
##otai
ketakutan
##atia
tragedi
diti
pentak
kebal
liputan
culture
kesesuaian
HANYA
##nb
##lot
Azam
##rman
membimbing
klien
kesem
Datu
digantung
IR
kognitif
Kebaikan
Country
Iceland
kondom
Kongres
SEM921
130
Gara
bercinta
##cepatkan
Pengesahan
prov
ungkapan
pengakuan
Firdaus
Izz
##RAF
##ahnya
Amar
kuala
##ocr
Sehari
Estate
default
Cyber
LOP
ow
diperhatikan
Grip
##incian
Jasa
KAMPUNG
konsert
##ecil
##ando
Onn
8000
##tity
Pontian
Shawl
mengingati
Liter
amnya
Penyej
above
purp
POPULAR
##ulurkan
##tiva
Tong
TAR
Za
Central
berhijrah
##entas
Dialog
Like
kejam
legal
Kehadiran
mawar
Fo
Active
Mamat
kuil
melambangkan
##Height
miliar
keimanan
tanggapan
Ori
penganjur
##oice
##did
##igami
LTD
##kripsi
pendatang
Fib
Tamu
penambahan
others
mengunjungi
Jurut
laras
##ural
Sering
pd
##elilingi
beauty
Penyidik
Dewi
perlombongan
dilalui
Inflasi
##atiku
pedas
##udaraan
bersempadan
Fusion
##cast
Yunan
##ikul
Bazar
##orandum
##adkan
Kemaman
Moden
German
##YATAAN
Lux
Kokurikulum
Penyediaan
##ANDU
MED
menyebutkan
pic
MESRA
quran
ketahanan
provinsi
Salim
SILA
Hebei
AY
##ejay
Donald
DIAM
Baki
mempamerkan
TANPA
keatas
relationship
ratusan
berke
##ellite
kemarahan
##ense
##AKAH
mencetak
farmasi
1974
Pesta
splited
Kecemerlangan
Kone
##JANG
Syari
geran
created
hamp
##edaan
##ecat
pemilikan
##ingkirkan
People
survey
KPI
practice
SAM
BANTUAN
##tol
##vel
keselesaan
Janganlah
berib
1979
wabak
Pentadbir
##tamad
##jahan
apa2
William
##eping
Rental
##eritaan
jpg
Urai
Yamaha
bercadang
KENA
MAD
PERTUAN
##tili
##aging
premium
Jelebu
##uriat
saran
##umuskan
kestabilan
diputuskan
Manek
##unda
##OND
##ULIS
Milan
simpati
prom
Elec
##iqah
Khazanah
Ronald
Gereja
Yesus
nadi
bertenaga
ceria
Coast
Tuntutan
asfalt
DAI
pengamal
##olia
##enjar
kalinya
travel
Roses
Feedjit
during
kadangkala
##edakan
Abad
##ertain
interview
dimanfaatkan
##patutan
##sar
mikrofon
##71
SEM922
Ghani
##esion
Tunggal
BERH
Nick
PENGAJARAN
bertutur
issues
cas
pelayan
##batch
620
Jihad
Yak
click
Pain
##NIVAL
Valent
TUR
dianugerahkan
##uriti
shopping
##ditions
MINIT
pentadbir
Kenangan
mengingat
Nan
Tolong
##sil
Usia
Venez
Kluang
##uaan
##asah
Mid
Cha
Sidek
##timate
##field
Hidung
performance
Pembangkang
menggel
##elarasan
##sifatkan
##EAR
##bal
Iq
bor
mempertimbangkan
##acakan
Stock
BUNG
##inger
berkali
telek
Last
Inspirasi
position
##orp
Inn
Apartment
##AZLINA
kesatuan
matanya
##reza
KARNIVAL
August
bising
rasakan
Deejay
berperang
Royal
Aksesori
##giat
kene
168
##anjat
Dollar
DEUT
Pisang
Penglihatan
pelekat
Unc
dituntut
TAMAN
Brand
##impun
UNDANG
Keyakinan
MENC
phil
bumiputera
##anaan
SEO
Sports
##Panel
Pender
maksiat
teacher
##unikan
another
Ust
penanaman
##ceedings
##gigit
FIZ
domain
Seng
persahabatan
Rohani
1957
posting
DARJAH
##HATSU
diuruskan
DAIHATSU
##udup
##eritahuan
Cast
Lampiran
Suria
DIRI
siapakah
##ourg
garisan
Majistret
Tulis
Membawa
Shipping
DEUTZ
pengumpulan
##eliruan
##BT
##ayanya
Menerima
##abad
berkela
Colombia
##ikmati
serbuan
ASYIKIN
Berikutan
Syukur
Oliver
memuji
##ARAAN
Cakap
PETRON
GO
Jurulatih
diakui
Ero
dikunjungi
dijemput
##iverse
Fort
Speaker
bateri
course
ER
##aph
TAHAP
MUSLIM
kese
Perbandingan
memfailkan
TUDUNG
berkunjung
Sulawesi
Individual
##llahu
merebut
dibiarkan
peroleh
publik
##iranan
Peru
##angsangan
Merangkap
##xel
Imran
klip
syar
##sak
##ko
PETRONAS
##eras
2021
Cloth
PAKATAN
beserta
Cuaca
products
##agih
##anggakan
taw
##220
##rankas
Ikhlas
##nye
##uncil
ditangani
PIND
puluhan
Hurai
##ayatan
kekalahan
Dalaman
frasa
fai
Pod
Hik
##ahul
##ility
penyalahgunaan
Iron
kupu
transport
keharmonian
terbalik
REJAB
LASTAR
Impreza
##ebalik
hitsAZLINA
##lator
paksa
disalurkan
##arafan
Bit
KUMPULAN
hom
WAKTU
kuku
Import
##SS
able
pengganti
##uela
AMG
WA
Publications
SENDIRI
##iani
Bog
Wala
national
Kesimpulan
EKSA
game
##Width
Joko
Access
biasiswa
Malaikat
lawak
##600
Dimensi
##Peng
##ingkah
Bahari
ISTAN
Spur
1981
Stylus
Sea
berkemungkinan
better
##oul
prev
sebaiknya
##tanya
kelemb
disifatkan
pemacu
Ning
disyorkan
sent
118
Baja
planet
nescaya
OVF
alaihi
Kuat
Kuw
ketentuan
##usu
NEW
kebutuhan
azan
himpunan
COL
syarak
Universitas
Garden
diwajibkan
Hurairah
bujang
let
PEMANDU
Suntikan
Ternyata
bertolak
hargai
##ILL
pengiraan
seumpama
ISMAIL
##paun
##rost
GST
Formula
##saan
LG
Eff
kewar
cuci
kesuburan
KAWASAN
KASIH
mengisytiharkan
Indera
##ergy
askar
Opsyen
pengiklanan
##ajaiban
poli
McD
susunan
Assalammualaikum
##lina
terapi
##ENCANA
VI
Captiva
PIS
##jat
Mengetahui
seringkali
teringat
Angin
Raj
##aves
PRES
##AILY
gender
24Info
24InfoHealth
seberang
majmuk
Safari
Control
##encies
exc
TEST
peralihan
within
CIK
darat
##oakan
berpengaruh
autonomi
Simple
Edge
Pingg
lapar
Tig
cultural
mainan
RAG
159
against
Pilihanraya
Lautan
##das
kesucian
##Code
Tela
UC
SUP
##empurnaan
##lipat
##ugu
konvensional
gugur
Lok
mengiktiraf
aspirasi
EKS
jejak
MUDAH
##EED
Benn
##ucible
UPNM
##ebutan
Katil
Ditulis
ms
Used
Naim
Meski
berbaloi
awan
laksana
##ctnr
listctnr
ADUAN
komik
SING
USM
menyerah
Termasuk
##arin
berpas
bersejarah
Maahad
resipi
due
##iakan
Buff
Kasar
##waan
##ERA
menghancurkan
Taklimat
Rum
##urukan
##ORMAT
##ENTANG
dibuktikan
KOKUR
Cle
Hala
111
Larangan
Kraf
Room
Du
##ADAT
Personal
##ylene
TERIMA
rusuhan
BIMB
Tamb
Penerima
TAMIL
Jari
suggest
Sahaja
Nelayan
Wei
##ming
##ky
Potongan
Reb
mengikat
LU
##ianat
aneh
155
Permulaan
dendam
Berambut
periuk
wan
Keterangan
Nawawi
seper
SHOT
Mantan
##mall
1976
Sudirman
says
house
KOKURIKULUM
jangkaan
MENJADI
Alk
Brankas
Empayar
whats
effect
Nikah
Daniel
por
bercanggah
diperkatakan
Cros
EU
UNIVERSITI
MOTOR
SAS
karakter
##ework
terbahagi
##ahanda
##bol
semacam
Ads
##tiang
membentangkan
Penerbit
lantaran
puji
Camry
lanjutan
tahfiz
Maktab
express
##unyaan
plug
mandat
Excel
TRANSFORMASI
ganas
##etiaan
##untung
income
belian
##ditional
LAH
Youth
Fenomena
diusahakan
jarum
Esk
considered
##erikan
Xia
labuh
pelawat
mengutip
##320
Situ
mempers
SIA
BAR
Saringan
Jilid
tekan
penyimpanan
baka
##ketatkan
Zakir
Permaisuri
TAD
Zainuddin
berkawan
rap
ABU
memasarkan
##eneral
Sap
busuk
Kurus
portfolio
kesulitan
##fly
##SM
AYAT
pesi
aja
issue
RISALAH
mention
lun
##arahi
Biarkan
Telinga
College
##hhh
##stone
##abiliti
Celebr
LI
penunjuk
Genesis
Intro
memerintahkan
##ulk
Leon
serah
##ilmu
##iam
##ribd
Jed
acco
Welding
Pandan
menguatkan
menyalurkan
While
Cyp
bersaiz
especially
##umentasi
Temerl
Holdings
Kutipan
terapung
##epreneur
Columb
Titik
##ompin
Khemah
penghormatan
dilanda
po
Robert
Ziarah
Keusahawanan
Persaraan
meas
berperingkat
Sant
##engerusi
kelikatan
##laluan
##utuhkan
selia
Bell
Fasil
baw
asalkan
##fiq
Temerloh
Dif
Hanger
berlakon
naib
##agan
##JEN
##ilal
Laz
erat
Instant
ketepatan
##isytiharan
MonoSpace
Fl
Roti
cubaan
curang
download
##sinya
##romi
##ingkir
MR
Hendak
##EMIUM
##osistem
ij
mengam
Challenge
Meninggal
drop
sopan
tender
##ally
Mengambil
shah
##wim
Rena
XAA
layar
menyenaraikan
##ribution
##Asia
##atib
Agenda
##well
BUD
diharap
Dian
##rad
memetik
memusnahkan
ISTI
dinasihatkan
Wedding
Cut
Teka
Rose
##ocor
peka
##reg
table
sgt
produktiviti
##AMPU
sentuhan
bait
higher
berdosa
SEG
##ocok
PDRM
##NES
##itab
kekangan
Hussin
Rupanya
PERTAN
##dadari
jurnal
##PAK
##KAH
Istiadat
Yunani
Rizab
##upsi
Point
BAHARU
bayangkan
charac
##ZI
Tech
Peruntukan
Ibadah
KANAN
Bug
##umbat
Iden
bagaikan
##QU
strateg
Alias
Limited
##biotik
gemuk
Husin
bini
##uruk
terms
ulamak
##cine
berurusan
scheme
manja
Study
tsunami
step
Terminal
pemiliknya
Fai
##ACA
wad
##ours
Latin
##ening
Pemenang
Teg
Ga
Rembau
Hikmah
cakera
Stroke
Buruh
##ITAM
redha
UI
significant
PIAG
##impah
sejam
##ovo
defini
lafaz
gl
Well
1978
##yum
Bercakap
Politi
##ustru
##enne
Alloy
##integrasi
PIAGAM
apapun
##uskrip
Mig
Ruangan
##anie
Berbeza
Butt
SED
diluar
##ogan
Khabar
Perpindahan
##tiliti
saudaranya
DIK
##ticles
##ungguhan
didi
UTM
##landaskan
##WAN
ditanggung
PASIR
##QA
Penguasa
Privacy
confession
disarankan
Sumpah
##03
perceraian
menghisap
##uksi
alatan
care
##SK
##qas
##tazah
##oliday
Saidina
Dedah
wahyu
merosot
Eropa
##isen
merangkap
technical
change
LANGK
WH
Asian
##ALUI
philos
##ekar
Zion
Perai
pangkalan
Kaherah
Kuwait
BERAT
##jaksanaan
##inambungan
menyerupai
azab
harimau
outer
Mengatasi
##angkiti
kabin
##ografik
harmoni
Pakcik
setubuh
DAH
Fadz
Tahukah
##aching
menjurus
skrip
engine
Bedah
SUN
Drop
##lusive
responsible
BUNGA
MIL
Serta
##IMONI
PENGG
sasar
royalti
Tunggu
##erials
Fabrik
gantung
COP
Psych
shawl
dijamin
Tembak
enc
ramadhan
##ently
dikategorikan
Sinaran
Ringgit
Kanun
Sinopsis
perolehan
##asarana
tangkapan
Powder
SRI
Ci
pros
##asihati
MAKAN
##trin
tom
Azizan
benef
##ebumikan
bergambar
TESTIMONI
Eight
kag
resmi
Tetingkap
cemas
firma
Wafer
RAGBI
rumput
penghulu
##uras
##ITAL
berbelanja
Electr
##ees
hina
##anced
manifesto
special
mmg
komprehensif
MotoGP
bazar
##pal
Then
PERLU
ORGAN
##rina
##ungkai
pendengaran
Pengeluar
harganya
Masterbatch
menyalahkan
Perisian
dedah
##EDAH
MELALUI
sentimen
##angguh
Sebelumnya
PAP
mengel
dur
selesaikan
Kebersihan
Tatacara
diterjemahkan
lok
rom
##epasi
menyarankan
menyempurnakan
repres
Kecekapan
theory
##endawan
dikongsikan
PORTAL
##iy
##ABI
1959
Kamil
Monter
bertudung
tersenarai
Studio
RON
bol
##amo
##uak
Kl
revolusi
Genap
Zub
seragam
##niat
menggunakannya
ELBI
##angsungan
PENGURUS
Syaitan
##ANCANGAN
Kelapa
semesta
BP
Pud
##ampiri
##ucks
##OTO
various
Penimbal
##igur
building
oksigen
ECRL
disel
Petrol
##JIL
Kepuasan
JO
Lic
jep
Student
##tisme
sholat
padding
aqidah
science
##alization
moga
ess
Tinjauan
experience
##OWN
##alukan
Bea
MENGH
petroleum
Lati
khat
##uliaan
kejutan
##elaan
Jeneral
Yusoff
Berw
Jerawat
##ditioner
##KS
##UDDIN
Mahfuz
Huda
##ample
Sharifah
Tal
##engerusikan
Jatuh
DNA
##che
bersabar
tatabahasa
Spa
diteg
menegakkan
PUASA
collap
Ts
Saturn
Era
minima
##EDIAAN
##ompak
toleransi
##titude
##ieve
kekec
##minya
Silicon
menyusu
memecah
##azir
Cambridge
##USIF
warni
##Tag
geografi
##este
BO
kurma
KOMUN
merangsang
terbit
##lications
CRUZ
unggul
Lanjut
meluahkan
kepunyaan
Pindaan
whatsapp
TERBARU
Jib
##ubarkan
Ink
Jeddah
##unjang
perlakuan
##ruz
Yong
jalanan
lumba
##syat
##APAT
gergasi
##tention
pembakaran
Beet
Duta
##lock
entiti
transi
recei
Nurhaliza
Bahrain
medical
##DM
##eribadian
Pulang
terhasil
##ush
Rantai
penapis
mengenainya
terjatuh
Bai
kekeluargaan
Love
##kam
Benda
Muhamm
Penjara
berteraskan
##liances
##afal
menegur
hitsMohamad
muntah
##ubern
Sewaktu
dikekalkan
Verna
tenggara
meletak
SOH
val
##asiun
AirAsia
FAT
Ashraf
##ASM
##utis
##tisyen
MASUK
Fast
Mengurangkan
kalsium
mukim
Bean
##isia
##endung
buaya
keterlaluan
CRUZE
Jagung
taklimat
##ohanian
khasiat
Machin
IJ
Diego
dirampas
kesannya
musnah
Buloh
Kop
Buang
Rais
history
Airbnb
disamping
Kemanusiaan
PEMIMPIN
##ATIONAL
##Berry
##hops
juru
KEMB
KELAS
Boliv
Padi
bid
capital
Kitchen
KAKI
##ukuhan
Merokok
appliances
kebiasaannya
##imanya
apply
Gagal
Wit
##emala
menggariskan
Bund
##gilap
Kemalangan
become
ketag
AI
Dj
indeks
Rokok
##embiraan
provide
dipaksa
112
ISTANA
mood
Belt
offices
Hay
browser
Deal
##fat
ekstrem
##usa
kuantiti
##rar
SYARAT
Pertuturan
home
mengetuai
gagasan
nisbah
Just
1963
Dominika
##arus
berpatutan
mengguna
##ifah
##zed
kata2
##iriah
live
Candy
Tentu
Memastikan
Perasmian
setinggi
physi
cup
##zur
kekeliruan
##SB
assalam
Satellite
chiffon
Aiman
Bau
Duster
##ASAAN
##istics
Induk
##ete
tanam
UTC
Made
spesifik
mempertingkatkan
Libya
head
##actor
mengerti
##efahaman
Entri
diameter
secukup
##ubernur
Alm
KAND
##roduk
corona
SEMULA
Machang
##ucer
spesifikasi
practic
Sell
KONT
nyanyian
Pala
laz
risalah
terdengar
pinggir
##auf
Buffer
Sabda
direct
umpama
SHEN
##elung
DAILY
##afkan
Memandu
SIJIL
pukal
Guat
menjaringkan
129
Genting
MUK
Let
taknak
##anking
BAKAR
slogan
##thea
diraja
Arabia
etc
Construction
Nisa
TVET
Jho
##akapan
Agro
CADANGAN
Miri
BlackBerry
bong
##owong
Kekasih
BISNES
putar
menyuarakan
kac
KURIKULUM
##YAH
##ahim
##OLONG
Touch
##tories
Sao
##yk
Lembut
jak
##tahun
Madya
Bac
vokal
##asib
sepasang
##tihad
##uler
sos
kerabat
##arram
Merancang
Wagon
KOMPUTER
berlandaskan
##USNYA
##abu
berserta
Kay
Kebakaran
##ADIAH
kompeti
##icip
nyatakan
Chile
Tiong
ISTIADAT
eq
som
Jo
Pembukaan
hard
##Type
##mbak
Renault
Entah
kuota
OctaFX
Fauzi
ehwal
LEMBAGA
Chang
##akmuran
##anga
##umbu
##andukan
needs
149
##order
Lembu
DR
pengecualian
##ingankan
Bulg
KENYATAAN
alm
nom
##PADA
Venezuela
kacau
khutbah
slip
##orongan
miliknya
keahlian
Diter
##erbitkan
peradaban
Kehilangan
Pipe
##ganegaraan
Cry
pentaksiran
##fie
Editorial
Macau
seku
##uareg
##encian
kesusahan
##okratik
gelak
##gence
##CR
According
Meter
dong
hot
membetulkan
kalori
Wahid
babak
##AKIT
postdate
##kuiti
PEMANTAUAN
##yek
ank
including
Pembuatan
Tunisia
komposit
Dek
##angis
BERHAD
JPA
##ARY
banglo
Shirt
##lywood
Althea
simptom
Beetle
four
pemuka
Armen
SIR
##embar
Perkilangan
kurangkan
##APP
##KK
##indas
Gam
Sedia
##onis
TAHU
papar
SEM919
Hilangkan
atasan
dilepas
Express
Previous
certain
pati
takh
Maut
melon
licin
Penuntut
Selat
##TRON
STATUS
LAIN
##ylon
vot
Vaksin
Geg
bungkus
Touareg
##akasan
Wir
Komponen
Gripper
##arui
Japan
diedarkan
DIY
##0075
##anjar
according
menyakit
##tures
TAWARAN
kuman
##ARIAH
membebaskan
kedengaran
BERL
terganggu
Saleh
##adillac
Sentu
Bijak
difahamkan
puteri
##304
Hond
##bin
##isha
Penampan
sesudah
##encanakan
Investment
Faedah
##po
dirasakan
Imbangan
HAKIM
JOM
Menjalankan
PERAT
##UMAN
dihadap
Jama
selangor
##essage
reading
pinggan
##met
Telur
Cyprus
##edihan
tarian
Kegunaan
Mawar
BANTU
look
##tunya
ISO9
pengawasan
concep
billion
##isiatif
Melakukan
scholars
mukmin
Tiket
kesesakan
menyerap
Bahagia
getElement
##SURI
Azila
Highlander
pembuangan
singing
Embas
##TON
rejim
##ambique
dipat
berun
##orida
Cadillac
##ean
##anggal
RUU
Mendengar
hol
poster
future
Loop
CHE
##suhkan
##ugurkan
imag
known
dibungkus
core
terputus
path
suri
ULANG
Suite
139
WIB
##hed
##asurat
##uce
Tengok
tasik
blackberry
Mali
priv
Laju
kilogram
##urance
record
Elakkan
##erma
lantas
penghawa
Segmen
Hawai
Wolf
ga
members
##odon
kawal
##ilainya
kraf
##lai
lemas
Mariner
##amit
menunjuk
topi
BACAAN
Anth
Rindu
##angkin
##obak
##ANJANG
Latif
Zurai
##net
##KIN
185
Posting
pembesar
judul
Guide
Motosikal
##dih
salahkan
mengabaikan
kelainan
Content
wira
##SE
Habis
Nazri
DIJ
kemurungan
RM5
bersiap
dija
Shalat
##rauma
##unggah
jagung
APR
resume
communication
PENIL
Suri
##ycra
##opter
Art
##enap
perabot
Did
atur
andaian
kepadaku
##ADU
##ensive
##RU
Ut
menyangka
melanggan
star
##andainya
Berter
##ongkok
Ditanya
##isim
trek
Bawa
original
tertanya
lepasan
##li00
mendadak
Ceritalah
Sepat
STEM
Related
Malangnya
held
complete
1965
kehakiman
##andatangan
##wiah
##2nya
pantat
Inisiatif
diasaskan
collapse
butir
##78
universi
caranya
##afa
##tify
Diterbitkan
tembaga
##ahului
Menjaga
Definisi
touch
##AWAB
mufti
Crosst
membiayai
Celebrations
terser
Guatemala
Jaga
motorola
Miata
##emporari
SETER
##fe
Allaah
biaya
##ETER
Bunuh
dist
Bennabi
much
ditandatangani
##antasi
Kutu
thumb
Chef
penjajahan
##stal
##006f006
pengagihan
silver
Div
Bill
Lebar
Patah
ASB
dijaga
Sweet
Crosstour
KATA
Pemanduan
Tepee
SETERUSNYA
Wnd
##itia
Wndows
Kalung
lek
ZAI
##lie
##olet
Note
Bimbingan
Ret
##rab
##uel
##awanc
pengundian
mengag
Therefore
##UTUAN
technology
Richard
laci
##okol
BERM
PERSEKUTUAN
##time
melihatnya
##itatif
pedalaman
balan
KEADILAN
Batal
berbual
By
berangkat
KEBER
BILA
menganalisis
berniat
##isai
Madrasah
pernikahan
biskut
memburu
##io
##0065002000
##avel
hidayah
mirip
merebak
tonton
Sibu
grow
kubu
##ane
kesemuanya
HARAM
##ASEKOLAH
Ganjil
meriah
9001
##chet
##ekuensi
##gaulan
Pelantikan
PRASEKOLAH
ulas
Costa
Haid
##ESA
Jentolak
##rr
turn
##sub
ICERD
dakwa
diharamkan
kup
utusan
pemboleh
##ARIS
soci
menghidap
Campuran
EF
##550
##afi
##ebang
##heh
Mengk
Washington
##omon
Sukarelawan
##ritis
konstruk
meyakinkan
menget
merugi
##alonan
##enggam
Cecair
takdir
River
bermimpi
Murs
NILAI
BIMBINGAN
##ramework
menentu
##yai
asam
jururawat
##self
Pensijilan
tayangan
utamanya
##ebelahan
STRATEG
jelaskan
##not
terpengaruh
##yani
##IKIR
PENILAIAN
bingkai
##KN
animasi
celah
penggal
##gis
Gren
##TIC
KEPUTERAAN
pinjam
Demam
Penggera
##iform
menyakitkan
Fitrah
kus
ps
ditekan
penjenayah
selamanya
muslimin
MANJ
##raktikkan
pita
Kembar
nikotin
Offic
mig
##kir
tikus
##NING
##rian
dasarnya
##mission
bernaf
CATUR
tegang
##nai
##qad
kesian
##nie
##rof
eap
##ularan
teguran
Niobium
TAMB
eapecially
menghayati
##orbankan
tog
##fera
##GU
pemodenan
kedudukannya
320
GRADER
KUNJ
PERBAND
Story
##SIAN
##raulic
Hum
money
##TV
Pulai
Shafi
pria
##agut
##elirukan
Pauh
rest
KPDN
pelay
##HARGA
lapang
COMP
veteran
observed
tambang
Corona
VIP
particular
##obia
Tunjuk
Dol
Kud
KERANJANG
letakkan
diutarakan
##acita
Keras
Nazrin
Fitnah
sabun
##orthy
Bosnia
Dinar
Little
unable
COR
PERLIS
##endi
##AHSURI
hitsMAHSURI
Pentaksiran
##poran
Sebagaimana
##ropika
##ques
PINDAAN
##obohan
Akrilik
##suaian
##adamkan
Akibatnya
depa
119
rakyatnya
civilization
Muharram
smp
##ondan
parit
Slots
Marsh
lampau
##suran
##lient
selamatkan
masing2
MUDA
broker
rombongan
Pearl
Yasin
gay
kedap
Speed
ikon
kecacatan
##oyan
Croatia
Sabri
strok
SEMINAR
Brook
dikumpul
##ucture
##aguan
MENGHAD
SAHAJA
EXCO
Sauna
dikembalikan
Perfume
alim
terbina
pusing
Ilham
motiv
DAA26
IH
serangga
Penggali
fact
OM
Rompin
ges
##bian
##usuhan
dreams
##enali
berdi
awek
Forest
##away
Mozambique
opinions
PAT
AMK
Persepsi
Gerak
Huss
##fitnah
nan
match
Lagipun
##1M
ELEC
##aif
tamparan
Titi
##usuk
##rie
antar
diperketatkan
Pandai
Tue
separa
DARIPADA
karier
muzium
##Sl
umbi
WAJIB
BERTU
Uzbek
Jamai
Memiliki
##ERT
Talib
Pita
Tosh
diduga
Ess
##egiatan
split
cetakan
sense
permit
kumpul
seberapa
Yakin
##orkeling
013
SUAM
kekosongan
waktunya
Saja
Laos
##elaraskan
lorong
Selcom
iron
Alana
reply
##win
ketiadaan
nafkah
Khairuddin
ISO9001
Hawaii
##tima
##onokkan
Operator
powered
##lakan
reality
Iv
##urahan
##ULLAH
Based
Civ
Duli
Kesedaran
DRI
Juz
jum
menakutkan
Disini
story
Pass
words
##wich
##engers
##udh
menghukum
curriculum
sehinggakan
SMFA
Presint
Galvan
##nu
##xia
Berta
##antangan
ASAS
Mum
AGUNG
yea
husband
beramal
##ubli
Seragam
##uaf
Ballroom
Armenia
##aco
##ALKAN
pelumba
##adiah
banduan
justru
##idor
##eff
These
Ca
NOT
Adawiah
Nutri
bergaya
##jik
pembahagian
emak
biarpun
IAC
nec
DiR
##tianak
BADAR
##jukan
Cash
huraian
OPERASI
mengu
##optim
##ONE
Plastic
##ibdenum
SC
continu
##yarakatan
##lia
##ocoran
hitsNor
##ilis
##iblat
##YEN
Keuntungan
kelangsungan
##kuburan
Litar
##etti
paham
PKP
sales
detail
arr
financial
berkumpulan
Keboleh
pangkal
##elenggara
Sciences
DIT
Tome
Biasiswa
mengungkapkan
##awancara
suntiang
##dal
##cent
molek
sebilangan
Jambu
##eon
keburukan
bit
tertua
##tani
pembatalan
melupakan
khal
##ubahsuaian
##dle
LELAKI
komedi
Kamarudin
KAL
##isioterapi
REL
Akar
##erc
minim
NAJIB
heb
ila
##arung
Kegiatan
Slaid
penentuan
Kapas
kenali
Carl
##orat
kebijaksanaan
Oman
Zuraida
problems
##angkali
asy
HAB
attention
kesungguhan
Pelancong
getaran
Shopee
Jamaluddin
KINI
penyusuan
Young
Kesilapan
##elisihan
memuatkan
Zulkaedah
meletus
Rat
##abiatul
loan
Alban
PRESIDEN
##MENT
Process
Akidah
suai
Nizam
BRI
tabung
Geogrid
sejajar
##PH
##side
menyenangkan
Kecuali
##ied
Detik
bersendirian
kebas
Bagh
##zz
Mich
SEBUTHARGA
Lelongline
copy
perila
berkel
##ello
Mub
bg
##odes
Akhlak
##IDE
##amana
menyiarkan
##baharui
Malim
hai
##elawat
Perancang
ucapkan
Belah
Penguat
Cai
##fully
HIJAU
##tibar
respondents
pelanggaran
Nikmat
Walaub
Found
Ext
meninjau
1280
Virus
##ectives
Qad
opacity
deny
##WAH
akn
penyumbang
bergaduh
Pengangguran
direman
HATI
ALI
##ghfar
##andarin
Yellow
##Eng
hitsRabiatul
##adawi
pemutar
Thus
##FC
##mes
kebencian
liabiliti
Jangka
TOK
mangkuk
##asut
example
##pak
Hydraulic
disedari
mengulangi
Porsche
Melak
##URE
##ismillah
SYAWAL
penceramah
350
##utter
##Plus
dijadualkan
pelindung
##ISME
deklarasi
ud
Islami
Silinder
Flu
BERD
kekerapan
DIA
setara
##silah
hinggalah
PENGEL
PANGKAT
Yaakob
BUM
smart
menampakkan
berkurang
Register
ribut
##omet
##AWI
perjumpaan
Hawa
KDN
145
Toshiba
##egara
baiki
playboy
keuangan
tradi
Pindah
##zahirkan
TOP
pura
Glass
##itt
Seja
##ighty
Kompas
##EFA
##atani
Terat
Zaki
##adankan
diingini
##nic
Laks
##tuya
Perkasa
Syafiq
meres
juz
Majikan
keseimbangan
penganjuran
lintas
##eca
Difahamkan
Jos
Photo
##antapkan
##utik
Taq
##ophy
tersusun
memadai
meringankan
keperibadian
Path
regi
Russia
lazimnya
##WP
##IVE
Prib
##pcs
further
jalang
##eful
rez
Ramlee
##redit
kejiranan
##celona
Berpuasa
Zionis
##VES
##EMAS
##gia
##thing
Kolam
Plaza
Wood
##elis
Bib
kerjanya
achi
##azi
hijrah
secepat
##tantuya
##temu
MiniSpace
bersah
menerajui
lepak
##amy
gal
kenyataannya
Mawi
Responden
atasnya
Penja
##ihatinan
integrasi
##empas
Terms
Pulse
Puk
Memulakan
menamakan
Salv
stadium
Abdur
dikembangkan
##dagogi
1945
Pembatalan
mulutnya
ANJURAN
Writ
besarnya
child
##hij
Majoriti
Rail
bertaubat
Tauhid
belanjawan
##POR
chan
tarif
berpisah
Dekat
Honduras
##unyit
Ly
Yukon
water
pusaka
ET
Bush
Cit
pegi
menembak
Len
upon
Penyerahan
##oritas
Ancaman
##elasah
156
KUL
dihentikan
##loor
1948
editorial
##aziran
badannya
Mail
TAPI
826
Hub
##restasi
Council
Ear
MESTI
aura
atasi
giliran
##360
##DING
DPR
diff
Jaminan
Templates
PERBANDARAN
Untung
common
offer
##dillah
Bisa
malahan
pendakwah
##AYAH
items
Jamaica
SIMPAN
##efinisi
Saad
Abah
##titatif
Focus
bubur
arnab
dibekalkan
##usila
benua
bh
NAZ
bermacam
HAD
##dikari
buru
ahmad
mendoakan
Code
Percubaan
kron
dimulai
Daj
pahit
merayu
##lication
terjebak
menakjubkan
Fren
Kamaruddin
##dirinya
Sunni
PKS
##mon
##angkapan
Ilahi
##enah
Panama
titah
TAHUNAN
mengalu
penerapan
Bulgaria
Tow
##gaskan
Kahwinmall
ketujuh
lokal
sawah
carb
##zir
Pengiklanan
Nomor
menggun
beramai
PERP
Televisyen
remeh
Guang
##UDI
Bari
taktik
angkasa
Ramb
##muddin
##ukus
##etar
Pelepasan
Yani
##350
##kulator
Miss
##umer
##etup
Farah
Hidangan
Sekian
komoditi
Greece
TRAD
things
##EMPAT
##jadinya
Cek
cair
cemburu
mabuk
##ominasi
merendah
Pendedahan
ziarah
##tafsir
Penutupan
send
Please
##inggung
thinking
melepasi
Konkrit
##con
##IAAN
Butik
1967
bengk
gar
##adow
##tha
##olis
BERBUKA
Situasi
saf
##ikopter
Perlumbaan
Paya
##asalah
##amic
Perasaan
Hadits
Jerantut
Esok
zuriat
molibdenum
takaful
Sesuatu
Temui
genre
##anyikan
DRIVE
##openg
Kimpalan
diucapkan
##urukkan
Civic
diukur
Asasi
Berjalan
##onstruc
Alumni
##mary
##ONES
Hakikatnya
publish
Tunai
office
learn
jutawan
AFC
CPU
lycra
conference
Tadi
tes
arrow
##timpa
Begitulah
bijirin
Lug
Marqu
Barangsiapa
teror
Uzbekistan
berilmu
Princip
Perguruan
ciuman
bersebelahan
tutur
kebolehpercayaan
mengirim
menyukai
membaiki
##ITAN
##akhiri
Perwakilan
sebegitu
Barcelona
108
bersekolah
##ffee
##043
##asikal
##alun
values
##MAH
pelincir
Ana
Ahl
terawal
##iup
##ared
display
PILIHAN
Ulum
Yatim
menderita
eksperimen
LGBT
Berf
lapor
boot
independ
pajak
diskriminasi
KELEB
##arto
Penjawat
kapita
seo
Perunding
menyusahkan
tertera
membayangkan
Gelombang
##edekah
KELEBIHAN
Jamil
terbanyak
##atory
ugut
Faraj
##ampang
Sosi
##ething
##ategor
Rosak
1956
perilaku
##empar
silinder
##zaliman
Kotor
Nin
penyeliaan
Autor
##izinkan
Ug
random
##usn
schools
HE
##ulik
inner
Terlupa
Pengaruh
TPPA
##pective
KECIL
studio
Sani
STAR
kartun
Count
internasional
1950
##ette
TEKS
siswa
Racing
##lasepak
DiRaja
ROC
Pember
Kebebasan
dibolehkan
Distribut
putera
jug
skop
khalay
disiapkan
sukarelawan
SMS
pasif
Pengarang
##yallahu
##aduhan
Kesehatan
##tick
PEDAG
McDonald
Tony
255
sint
take
Vito
kesenian
disambungkan
berku
Asrama
HOTEL
BAHRU
Lagenda
lumayan
Balak
Anas
Columbia
sehat
pengisian
##ynas
FREEMIUM
rangsangan
SEA
##ived
Hil
##SN
Trailer
berlayar
GOST
##awaan
Nizar
menyesal
proper
berlepas
dikebumikan
Gin
PapaG
telahpun
Eliz
Mada
pertar
Sout
loop
BAYARAN
robot
Racun
concern
meaning
thought
bertepatan
##acle
pemilih
istri
Disney
Portugis
rang
principles
Holiday
alahan
##onokan
menyanyi
crepe
penghayatan
penjuru
Republic
Fitri
mengimbangi
##anter
##onna
Amanz
##usik
berterima
HAK
##enggong
chang
Ran
diab
##juta
Biarpun
dipisahkan
Jong
Memer
Haut
Additional
berganda
Association
##itius
automotif
1977
dibakar
B40
##def
##UASAN
maknanya
Pemanas
##ompet
GE
berpandukan
Ebook
Tarawih
##ISASI
Beh
##HAM
##GAS
1975
Maret
DEAL
Sindrom
##izat
TERUS
Sufi
kalo
Pilah
Selalunya
##press
Mazlan
tunjukkan
##embourg
##essment
motif
menasihati
Marc
jutaan
Residen
##ASIHAT
panggung
Dawn
melekat
Track
Molding
Visa
merakamkan
Prop
agaknya
understand
BERSEP
Mauritius
Emiriah
mendalami
KPK
##fr
Hasilnya
pecahan
##bau
Indi
diser
inform
##andra
Format
Bagus
sindiket
mac
Fab
PINJ
Nuk
Systems
##WAR
PENGALAMAN
##mega
BERSEPADU
##UANGAN
##hion
Sesyen
implikasi
kemuncak
Themes
dijanjikan
serantau
GEN
desakan
FOTO
pertahan
Shukri
Asar
local
gandum
Olah
##oji
pemborong
deli
berarti
Terhad
anhu
##estarian
terpisah
printing
##ahit
##ista
##luas
aim
memukul
##digma
##asteraan
Printing
HAF
siv
Penyampaian
Curi
customer
sufi
bantal
##TIM
Queen
Nylon
tuntut
penawar
keletihan
debat
##vention
Wall
effort
Pantun
Ward
kin
Sedunia
MINGG
##eless
untuknya
REC
penyata
teki
##BJ
##bab
menyatukan
SMA
Gubernur
Bateri
questions
tor
##rup
Chal
PEDAGOGI
dirimu
SOK
kuki
##change
Kemenangan
Counter
Segamat
Demo
piawai
##GN
Siew
Puisi
TADB
tukaran
Nora
protes
pontianak
Machinery
jajahan
##embung
Keluaran
DATUK
##kp
Upah
Teaching
Islamiyah
Arabic
Runcit
diploma
beranggapan
Viano
188
Macedonia
responsi
LEON
Py
radhi
nangis
treler
fer
penyerahan
SYARIAH
berapi
Fasha
nahas
PENGGAL
##ubuk
Asam
MULIA
##kop
terbaharu
##25Ex
sukatan
##ontan
Puerto
Pengurangan
BERSIH
Kampong
bertanyakan
definition
BELAJAR
Chua
dimenangi
compet
UPSI
Instrumen
katak
##bourne
##abeth
##enjara
##aww
Spin
menjanjikan
Mengangkat
Xperia
Senjata
lega
Meta
Mandarin
kitorang
Menghilangkan
##ple
Bugis
DEALER
Berlaku
Lukisan
Add
Ihya
moss
diwar
##ilau
##aisy
Nar
##mum
##eno
##ONESIA
##jawatan
Bolivia
Yu
Moral
perguruan
Makmur
Rasanya
mudahan
Create
kutu
Infografik
cerpen
##lying
Bukankah
contest
lapis
tekak
Berl
terpenting
##aduate
PROT
hah
Tomato
Skincare
Mangga
##ados
Tangki
JER
KELAB
A105
rasminya
Konsert
##AID
##ancel
##aratan
1973
##ACK
Sempadan
dinikmati
berfikiran
WW
Parsi
PALING
membesarkan
##IRA
limit
nye
Keracunan
Second
selebih
Song
##enggan
##OKI
lik
diriku
character
Magnet
ego
teater
yah
syeikh
Jejak
Gian
pepejal
##ongkan
rumusan
##uguay
moh
pupus
##EPAS
1971
Gil
MERAH
dilepaskan
Berani
minoriti
adakan
##iliun
kura
PINJAMAN
##ATKAN
PAGI
##ambat
##izz
##ASMIAN
rantaian
##Ker
##aili
Unik
Marvel
berkepentingan
##iji
##angkar
akur
Shantui
memperkasakan
Ars
truck
tasawuf
##ius
sejurus
Tib
sets
Amaz
##elation
dilanjutkan
emb
olahraga
Site
dielakkan
guide
##elus
sebak
##ABU
##indo
menyembah
##empit
berkuatkuasa
fardhu
Jodoh
##coin
Memperkenalkan
pod
KUASA
Jepang
##akup
Mizan
##hus
Tumbuhan
MANJOI
PEMBANTU
Elemen
takhta
Mary
##izie
##eluasa
khasnya
Jururawat
seumur
disalah
Ecu
pekebun
bongsu
Sit
mempercepatkan
Integrasi
INTERNATIONAL
ELECTRON
Mulakan
KOAK
##GI
operator
Bogel
Know
##kanun
##tivity
Billah
Asm
PATI
mencuci
KOAKADEMIK
Yuran
##town
beku
menggoda
tercatat
##engang
pembuat
Stasiun
INDONESIA
Prog
meet
##olaborasi
dijawab
merangka
Happy
##antunya
white
Bangun
##aguay
Klinikal
Anis
didengar
multi
##rated
##tained
Navigation
##awasi
##rete
difikirkan
lingkaran
##beratkan
performed
##Key
Modular
Girl
peredaran
petisyen
dorongan
##Jabatan
cookies
##vert
genetik
Senaraikan
##emilangan
diaf
##ajalah
penyus
adiknya
dikumpulkan
teka
##yuk
##isit
Kesejahteraan
temubual
##redi
PESERTA
Rujuk
menyasarkan
following
Asalkan
fizik
chalet
##haan
##emai
terla
harinya
Gur
Wira
##ampunan
situs
muslimah
Memakai
##Text
##overy
##etia
Christian
kawan2
Dalil
##usif
Project
angkatan
##tamar
Cayman
##adijah
Autoradio
Kus
container
DAK
kabar
Marketing
selebihnya
digabungkan
iftar
Lemah
galas
bahagi
kesep
##URA
##zania
Zur
perhatikan
##elles
BANYAK
jimat
##zhou
Honor
##embaraan
diganti
##rifkan
Flor
Angel
Fari
menjangkakan
lauk
Labu
teratas
Pengesan
Kakak
menyedi
martabat
Latvia
Krisis
hamzah
dampak
prosiding
Kontraktor
Luxembourg
Pertemuan
sukarela
Kumpulkan
tuk
disebarkan
##edikit
##ongga
List
taq
##suri
##ats
##oks
dihapuskan
maklumkan
SENI
Lipis
##YDE
Fed
##ends
exam
Tob
##IPTA
LEBIH
Jalal
Rumahtangga
##ibawa
##antinya
temui
Bentong
niz
expressed
AMP
teruna
##ibbah
Slovenia
hilangkan
Berhubung
berenang
##andarkan
pembiakan
Penjual
Jacob
Bob
RM4
berlubang
Safety
Alkitab
Contact
kenduri
Asid
##tuh
##iro
Hussain
KELUARGA
diakses
916
Harry
dialek
Smartphone
diafragma
##gayakan
Sampul
Wartawan
Khir
##ancy
##rihatinan
Keahlian
Sak
berundur
perd
PROJEK
Dosa
Ris
UEFA
##okaan
##UKU
code
SUMBANGAN
PENCAPAIAN
Kronik
Petra
Buruk
ELECTRONICS
Perform
Grafik
##iklan
Hidayah
Telek
Sonata
Password
District
Brown
Avengers
sekitarnya
rock
SAF
gam
##entrik
Mitos
dini
##ESCO
##stat
Tahir
pentern
Merupakan
##aktub
Fik
##300
##iksel
pk
Kacau
##eros
ekuiti
Mazhab
twitter
Dilarang
Lahad
Menangis
Daf
HOM
##isata
badminton
Mongolia
face
Risalah
bent
Massa
Luk
##elag
##otongan
Annuar
RED
##aren
##asuh
ditujukan
Sawit
girl
SEMBILAN
rekabentuk
Ef
sip
Pencipta
PERASMIAN
keluhan
Mikr
menghampiri
memantapkan
kepalanya
Kiriman
audit
Menjawab
##avelength
Rupa
setan
percep
ai
matrikulasi
batasan
MI
Kediaman
Penyelidik
refleksi
Albania
called
penyejuk
Jalur
meg
norma
Lawak
memecahkan
resit
Fad
TENTANG
##iramid
intervensi
menantu
##eph
bidadari
menyamar
pemberi
keenam
##tery
melu
jepun
Tingkah
##Net
diarah
KENAPA
Butterfly
saranan
##usnahan
399
##ansur
KLYDE
biologi
Iklim
berputar
Reform
bend
##alonkan
kagum
Saman
##eger
menyimp
##raviti
Fisioterapi
HD
Sepatutnya
##sign
seumpamanya
Pemakaian
##obe
arena
##ungkinkan
inflasi
##ekup
##ibia
Rotary
jawi
ditimb
membicarakan
Pengering
Puncak
109
##sea
UA
perasmian
Sejumlah
sever
thor
Wavelength
kekunci
GAL
pari
terminal
dri
##araku
560
##yung
##wara
dividen
Gong
Bloom
Chen
penyerang
BERP
Wittur
kamar
atta
Terjun
sambut
amali
menyembunyikan
tatkala
Ansi
terkesan
challeng
Ghana
Rico
##ilkan
Kond
perpecahan
##UAT
##abul
berkorban
##ELL
bernasib
BANGSA
FAK
Fadh
##under
Baba
berbangsa
##kuan
wacana
Anthony
Rawang
mengorbankan
##raw
menyeronokkan
TETA
##ekonomi
Partai
Kebesaran
Desember
Dinding
##ulistiwa
Kerap
ZHEN
##ilasi
##quir
dianalisis
Lumut
kesedihan
##mpangan
penyedia
##ENGG
Riyad
Amirul
##okrat
Subjek
##rostatik
##lied
dijangkiti
kegembiraan
jurutera
Pecah
berpanjangan
Golden
##220BJ
DAA26220BJ
Ekstra
staff
Tuang
kebesaran
bun
terselamat
berlagak
##150
Handrail
Introduc
answ
kesetiaan
##eof
Author
##tabatkan
membebankan
kuar
##amental
##alisa
penalti
Prix
melaka
##late
terhadapnya
direncanakan
iluminasi
investasi
Vib
ceritakan
##olok
Cip
sembelit
Sahari
chef
Xpresi
saks
today
karton
kesinambungan
Sedikit
Amran
Prac
Pantang
##BC
##Call
meminjam
Portfolio
Academ
kemelut
asnaf
iblis
JANUARI
rate
membandingkan
##tikai
luahan
260
Visual
ketetapan
parut
merugikan
pengukuran
cannot
cocok
##taw
dahi
Ringkasan
WHE
##sies
Malta
Kangar
Fern
When
OST
Cop
Relak
Kelemahan
Memasak
Suhaimi
kualitatif
Ming
kesepakatan
Pemberian
Lew
Valentine
berkempen
##anye
pn
##utsal
TUNAS
TADBIR
Trafik
digerakkan
##ontoh
KERETA
##ibar
##INE
Check
menonjolkan
Mengurus
smpai
LENCANA
Wag
##oti
dialu
energi
dimasak
BERTUGAS
Md
poin
1966
Tajik
##yim
Advertis
duni
##ration
##ENANG
##erson
Uruguay
##ask
melamb
Inkjet
thorough
##church
poligami
wajahnya
fo
penarafan
kemasan
##earing
##aksasa
silat
sunyi
tubuhnya
Katakan
##umpuh
read
Barakah
Ultimate
ZAMRI
##nakan
##angd
diatur
Pena
LOADER
Karang
##avor
pencuri
Reading
##eton
##ithuan
WHEEL
Elizabeth
Jay
Fasiliti
AE
##DER
##ellec
##aidi
Perayaan
##ERITA
##ESTASI
kuah
angan
kaunselor
Universe
berpusat
##olek
Beta
kemana
##ejar
Memohon
kesempurnaan
Lam
kandung
##eover
Melbourne
JKPAK
nilainya
##HEP
menelan
basic
##vet
Khadijah
##ription
organizations
rampasan
uzur
Dagang
psych
##ERK
Promo
dahsyat
Ecuador
415
Dn
mencakup
hidupan
Gay
jan
berkelayakan
Galvanized
##kad
##elakinya
bayang
Now
diselamatkan
EKST
Kids
##ures
gim
##icap
Istan
##KLUSIF
Asfalt
cacat
penanda
Pengadun
Integ
Ethi
educational
umah
Lou
diulang
Minat
kuantitatif
##LIAN
##len
##qman
##ulty
diganggu
Rhen
poket
##omm
Skor
jud
##ARKAN
Buick
Haq
skill
Dibuat
perselisihan
Penyelaras
Matrikulasi
kerohanian
china
error
TN
retak
Bermasalah
berdikari
membahayakan
trip
vers
Gug
##zh
Injil
saintis
OVF30
##aunan
##ux
pembaikan
menjerit
Belarus
try
##TANT
Jamaah
papa
Putri
##633
boss
Inform
kemuliaan
Komersi
efek
lasak
PERATURAN
buluh
##rey
Crucible
tentulah
Taw
Metod
nutrisi
sarang
##egasi
Pemanasan
Electronic
Anton
pembacaan
Paraguay
##TE
Physi
##labor
metode
##ination
##lood
salutan
Ubatan
##ugal
ingatkan
Pertua
PENER
sengit
Lafaz
wayang
diagnosis
##2012
ment
##apatkan
transform
##ligh
Perakaunan
rent
##ANCE
writing
keji
##IMAH
Forester
Pingat
SEPT
Siswazah
Walaubagaimanapun
slide
Kenduri
Pengujian
Communication
Lingk
berti
Production
##tually
mendahului
manuskrip
Hanafi
kr
##utch
##oriasis
berleluasa
hir
sendirian
Mencegah
datangnya
bersen
date
Salvador
Pros
pribadi
##khah
##url
penularan
Dajjal
Pimpinan
kafe
##ilar
reputasi
kejar
##OUS
##bak
##engka
Tanj
##okai
458
##ease
Mohammed
determin
##anten
Resp
Dahulu
##anon
##ubati
Saing
diyak
Shak
##haf
##eneg
Bertempat
Cubaan
Cak
kurun
saye
Hom
Tesis
Graduan
bud
##ILING
Granules
CONFER
institutions
Asisten
rakaat
CINTA
Dai
MC
jun
mengelirukan
##etusan
CALON
come
Safar
Music
##aragua
kud
##kel
Tumpuan
Jelajah
sepakat
degree
210
Christchurch
Perabot
##edom
Menonton
Wujud
undangan
Semi
158
##allallahu
mani
Join
justeru
Bismillah
##over
##indasan
karangkraf
meriwayatkan
##enguk
##ANGS
susut
##UBLE
Mariam
Hishammuddin
Magn
Udang
##odal
Nabawi
gelar
##osip
##308
Direktur
##emier
ORGANISASI
Bengkak
TAS
mengus
##entum
Separuh
strong
##ogenik
##iskal
##cium
TURUN
FIZIKAL
##efinisikan
Charles
##utisme
nor
pantang
Tagged
Makluman
Debat
Rog
##eksaan
##damaian
weblog
Modern
location
Istanbul
treat
diurut
##UMEN
##hanan
DOUBLE
RINGAN
dimeterai
DU
ditingkatkan
berpandangan
408
Hamb
Zar
mengurangi
kite
ditangguhkan
parking
Fatin
Caranya
##mos
##yer
##ORK
Uganda
VAL
perintis
alaikum
##emporary
perla
##La
berpecah
History
exec
Nok
kedalam
##dndiri
##html
Keberk
Cotton
Vakum
festival
##EKSI
Kerosakan
Pneumatik
SANTA
pekat
Coffee
fakulti
reda
Caves
memisahkan
sahkan
bertarikh
kebanyakkan
kerna
assalamualaikum
KONTIN
Benarkah
trig
mitos
##thritis
Alfian
Duc
Kum
##ilmuan
##utions
bukak
Tersedia
Eskalator
Rhenium
tergantung
Arifin
Pribumi
range
##ites
mendatar
Sekurang
KONTINJEN
Ms
bocor
wor
##ordinasi
##nita
##aganda
Hayat
Makin
RM10
menegak
SIAPA
hewan
merentasi
CONFERENCE
Hajar
##zaman
sulaman
DOA
Timb
dipertimbangkan
Burger
##qasid
HUS
kezaliman
menggamit
##angdut
##uhur
disempurnakan
Lancar
##IAH
diiringi
gigih
adi
Akhirat
##enung
perpindahan
ungkap
Tian
##pang
##umentari
Luka
Penjualan
gelanggang
tiruan
secukupnya
##ucakap
hyper
TEG
Ayub
Spec
Angka
Golek
Cili
arif
pengaw
sekular
countries
Beng
longkang
ask
tersirat
Fuz
evid
penyulingan
##just
kasihan
Asyik
##ois
dikenalpasti
##isation
melancong
Pras
perosak
SEBEL
Castile
TUK
purpose
Alif
sye
penyayang
dominan
Make
##OKASI
hor
menghuraikan
Kenya
makam
making
harapkan
ejaan
##mid
initi
diteliti
rm
2025
melew
char
##didam
menunggang
Spins
Kemen
Kesuburan
BAT
membawakan
Adamdidam
Memperk
Mom
##Btn
Amy
Tanzania
giat
##unang
Cook
Waq
walk
summary
LIK
##OX
Anjuran
Agustus
##une
##EGR
Kanta
Wales
TELAH
##pes
Bulu
Joe
memorandum
keraguan
terhenti
##illing
turunkan
Terkenal
Bogor
Bantal
Hani
SEMAKAN
##Child
keretapi
Shopping
MD
##ULAT
didorong
duka
senario
Self
context
Sekret
##itania
Evo
beransur
Komunis
BATU
##rary
GDA
##eramah
menyelamat
##ayangi
cerit
started
Nabila
##izza
kurni
radhiyallahu
disus
Cerpen
Berterusan
Henti
##BAN
Solomon
Cla
##ulator
Kompang
elakkan
Penderaan
Moun
##Id
Sirap
KPDNHEP
hafaz
Lomb
century
Kekurangan
LEAR
komb
setiausaha
takziah
Avi
HEL
cm
pembersih
Konflik
##isip
diterangkan
Perbankan
Jibril
Philip
Tari
##oral
##UTUP
Lithuan
ditugaskan
SUKA
##ports
1972
perlantikan
darurat
mercu
wife
##otland
##ajiban
hara
Altantuya
keberanian
Ong
BA
Coc
Sham
##empak
Eurov
##Jet
##KB
Indone
Dzulk
Syariat
Irfan
antibiotik
SEM520
capaian
Chel
dahulunya
##ULUS
##qamah
##joy
dilupakan
least
##hern
##assar
##arau
profesion
Hit
Accessories
EKSKLUSIF
Dini
##PO
##UAH
##eign
##fu
gaduh
hous
melegakan
##eeee
dihargai
612
jersey
##abas
PENOLONG
Bawang
##ANGSA
##embungan
penyelia
##ils
Lock
##zing
##rifugal
Matang
##upas
Peminat
bantah
oren
produktif
Apatah
##uaian
Merta
AIDS
##wanya
saksama
hatiku
suapan
220
tabah
factors
kejuaraan
That
dikuat
CERT
MAMPU
HARIAN
kekej
berjaga
Jambi
599
Solo
##uro
khemah
KUNJUNGAN
jeti
Autom
visa
##antren
termaktub
EKSTRA
Rekaan
##audh
Pencarian
FEB
berangan
136
memfokuskan
disebalik
Beat
Hair
##ATO
##ILIH
BAGAI
berhubungan
BILANGAN
solely
Laksamana
##ege
##adiyah
Paracord
##wo
Kebolehpercayaan
KW
ZAKAT
fan
pergaulan
langgar
Biarlah
Bayan
pencerobohan
kombinasi
Ster
##tel
##adukan
##ball
##epit
##ehan
Sayur
BEBAS
##eterinar
MUZ
SITI
Seminggu
##ither
Topik
mengamuk
##itary
Tunas
Jaz
riz
SPM
disukai
Imun
##iskin
Kesian
KEAH
Kiamat
tengk
Papar
Darussalam
kredi
##issa
percakapan
Kecergasan
Krim
disuruh
thoroughly
TAJ
zina
berin
kelabu
Xiaomi
dream
##UBAAN
Penyejuk
KEAHLIAN
Hujung
matawang
Jutawan
Solid
setaraf
##sianya
Akh
lada
##onteng
##ESTER
Farm
##ukanya
raga
##sema
something
tambahnya
##ians
Pasal
##ountry
Kurangkan
Candle
telekomunikasi
entr
KENAIKAN
KAF
##ANDAAN
TECountry
##ograph
galak
Semester
##osition
CHINA
triliun
apiCode
htmlPanel
actionCall
TECategory
userKey
apiCodeSamples
actionCallBtn
userKeyURL
kuc
Mengajar
##UJU
MEMP
Nuh
##uages
Setempat
Jati
dpt
##uliharaan
kelembapan
DIC
PEMUL
Eq
Ez
Roth
PENANDAAN
Tajikistan
##engat
##angsangkan
Sabar
moyang
##qat
jawapannya
##234
diffic
##ehouse
##thday
Marshall
LEARNING
Triple
Nu
310
##JK
##isien
##AJUAN
Pati
tertinggal
Employ
##yt
##emati
##ente
104
Tugasan
##mine
accep
Community
memihak
Kebun
##ehkan
diatasi
PUBG
Nash
##HB
967
##ITY
YUS
dewa
mengemas
##pektor
DPS
##tionary
Garam
OUT
secur
kind
##iliate
konten
Lynas
segan
##makan
Pelesenan
background
INTEGR
NIK
hitsHJ
pasport
kesahihan
Noh
##erjakan
Even
musibah
Takwim
TERS
Idrus
dipastikan
##aise
##star
##riah
##busi
##riculture
Kedutaan
darinya
Mengand
dicampur
Brid
pemberontak
kemakmuran
##langed
##though
Skills
kembang
##ANGANI
316
discussion
##ibo
dikec
Makhluk
Bibir
Esa
Kolum
merogol
jamin
Micro
##awanya
##00200
Jersey
##je
Armada
Produktiviti
Komb
##Lebih
sahur
Assalamu
administr
tajaan
tercemar
##IQ
kelamin
standar
terowong
banyaknya
##selves
berunding
##eces
trust
belief
##asya
Karangan
jubin
Tablet
##aliran
##bahasa
##falfa
Wasiat
##hing
PENGAJIAN
documentation
memungkinkan
SUKU
lazat
dw
##Pak
dekati
lucu
kejap
master
nizar
Ot
##aspada
dilipat
Klasik
Dnars
pencen
penghancur
Tisu
Monaco
##ontal
pemakaian
Murni
memalukan
Analy
##kes
Peladang
Wani
##Masakan
MOHAMAD
##SITE
PELANCARAN
Ort
tren
kecoh
Pelekat
Vinc
sport
Kalu
Tarikan
Kesenian
variasi
product
pedang
##vani
impact
LK
tahi
##uters
##apakai
Rica
##oksida
Seli
susun
diingatkan
Syukri
Pelayar
TOUAR
Gemilang
terancang
memancing
##aluation
asasnya
Boon
TOUAREG
##acanya
Sifuli
ampun
103
stu
Shahih
jugalah
Perundingan
forgi
438
Our
methods
Geng
Shell
Marri
Drum
batik
sekel
seen
enable
##yakkan
ZAIDI
TOL
statik
Movie
Perbuatan
Sb
berukuran
##rir
##artabatkan
##Index
menenangkan
ready
Penjaga
Alahan
lepaskan
bukunya
dihadapan
ucapannya
Must
##PIN
penerokaan
Urut
hos
##pet
alt
kamp
tutorial
Attas
Temu
pengacara
Chain
Pew
BADAN
##roduksi
STA
ov
##imbab
KEJUR
NABI
Pag
##900
Rej
##ompang
RoHS
Scribd
##icu
kapital
Berikan
Consultan
##uling
##etas
Aktiv
DALAMAN
Iftar
salahnya
Belize
layari
Nicaragua
having
kilat
liwat
INSTANT
serendah
##ustrasi
menemb
memacu
resort
sayangkan
Yi
##lier
mengaplikasikan
Angola
Melawat
INISI
##enegro
GAA
gerbang
##ulikan
Reply
lead
Somalia
##onent
##andan
berkemampuan
Sebalik
INISIATIF
spot
Planet
##portun
sepi
mengadap
Hatta
Lor
rampas
Asyraf
kraft
Pastu
##oso
##adiahkan
Maw
##orium
cengk
claim
##HL
kiriman
##eposit
Arabi
##iving
menyewa
pass
Filed
202
Senyum
santun
##edisi
##ELILING
Motion
Tanjong
defisit
Ach
GOT
Five
Banna
diciptakan
terjaga
tablet
ekosistem
reti
agihan
Kelima
Permintaan
Chicken
Rating
pengubahsuaian
kabur
hukumnya
Angkasa
duti
proceedings
Pasu
lel
Jacket
PEMULIHAN
gangsa
##curan
##airs
Pertengahan
Berdaftar
urat
##PTN
Paru
##laan
muf
##apusan
diyakini
Duty
Idul
Mengandungi
kay
##utuh
Alhamdul
Menanti
lupakan
Force
Smith
Santi
bawahan
asar
Kapten
DATANG
Chicago
iktibar
##elongsor
Setiu
metodologi
khalayak
policy
perokok
bandaraya
primary
Performance
##imbabwe
Infrastruktur
Ayu
pipi
##enaan
penyatuan
##paui
##Scroll
Kerian
Sos
WEBSITE
melompat
##IAGA
curve
##PM
golf
undian
AEON
##alem
##ERUSI
Court
Jelasnya
##urg
##arij
diterjemah
Face
921
Tekan
##oping
Dulang
ip
##usir
university
##Pusat
SEGER
berpaling
solid
Superint
##wani
article
Moslem
##wang
panik
MEDI
dihadapkan
##ALING
htt
Pickup
##ulations
kt
Trading
Conditions
Zi
dual
male
##allam
inti
225
kees
##iche
coup
Segalanya
##aled
Kuda
piksel
##ampurkan
ANWAR
guid
magnetik
KBAT
kompetitif
##ONGKOL
##isipaliti
##cam
##oko
##isioner
##ILANG
dicatatkan
center
berang
berdiam
##aban
##UTH
pergaduhan
PADUKA
Keli
iOS
parameter
Penempatan
Imsak
TwitterShare
NOVEMBER
Lik
PROC
Rollers
France
Aqsa
big
##UKAI
wafat
cukur
wala
##ped
##entasikan
Credit
Morocco
HORMAT
capai
tunang
Pemberitahuan
Foods
tido
RASUL
rew
anakan
dibintangi
terkumpul
AV
##MANA
##etiba
cub
ThisBlogThis
Berwarna
##undiang
Fund
Pelanggaran
Sey
militer
menjauhkan
Ivory
pencalonan
##Master
satelit
Kash
##hemahan
penangan
131
Undian
VIII
Leste
##ulf
PERIB
munisipaliti
menerus
berjemaah
LIM
lelakinya
Atl
MALAYSIAN
profile
Stan
##ruddin
##asihi
Daftarkan
1968
keseronokan
akad
##USTER
##anteras
gelas
##empol
transfer
Teratai
##An
terdesak
Potensi
Tarian
Langit
sifatnya
Fan
diperm
IX35
Games
gedung
mengek
berhimpun
mempertikaikan
penciptaan
##egal
bersenam
leader
1952
classroom
mengutuk
Area
##watakan
Ethiopia
Hud
Setuju
lulusan
##ITRI
advertis
solar
BM
lg
Alwi
kebaikkan
kedah
Lithuania
Syams
mentioned
practices
##olve
Sisipan
##LET
##quran
##engarkan
Pengundi
memperluaskan
##uatiri
Dimana
conducts
Kamarul
seruan
Mineral
putaran
diriwayatkan
SEGERA
bernafas
kontena
Kegagalan
JIKA
Pengertian
Gusi
##harah
Zaidi
##FIZ
SPR
##ikot
Selidik
AAA
sekeping
Amalkan
nation
TERHAD
Konf
bdndiri
menitik
CED
SD
##airi
##roma
terkorban
##angkasan
institut
Peringatan
umatnya
Neraka
Iblis
##ANTARAN
After
##izinan
jela
Gerai
Widodo
Daim
membenci
dibelanjakan
##shad
Ayahanda
petak
Diplomatik
##UJI
plus
##ernak
hampa
HER
organiser
sinaran
PEKELILING
mengecewakan
Qi
POW
##yong
kiranya
diperluaskan
Mahsuri
HOKI
Prim
Tambahnya
##menis
##Video
##tuan
betul2
musik
Lompat
karang
muatan
Bendahari
hafiz
Ij
kelakuan
mengaji
bonet
PERJUANGAN
##faz
menangg
pendengar
bercetak
Impor
menasihatkan
##incirkan
Hij
##CNI
##mator
Warehouse
DOK
Iwan
menyalahi
menit
Aduh
dipul
Susulan
375
Rup
memujuk
355
emph
jahitan
johor
night
##ERG
dukungan
Rundiang
hany
nomor
##worth
diberk
BERSEK
##ongsang
organisers
Silikon
reve
POST
prasekolah
short
mai
Kub
leadership
##hasilan
membelanjakan
murtad
shows
Pendakwa
BALING
Gelongsor
Persa
##anded
siswazah
##endor
Diana
Manjung
lobi
##arity
##mpatan
ability
##uzul
melampaui
##menistan
Tulen
penyelamat
##ajud
MAZ
Siakap
Mind
pang
##trom
Norman
RECCNI
coz
ketul
SAMP
keadaannya
Kebiasaan
Kepercayaan
Montenegro
famili
017
PPUB
Its
kuno
diisytiharkan
##Kek
truthfully
alik
habuk
berkala
##ologis
RECCNI2012
faith
##abur
menyebar
sepadan
Origin
##eni
mengecam
INSTR
GAD
tentukan
celik
Cub
##UI
pengalih
kawen
tercetus
Estonia
holistik
Relaksasi
Damai
1955
PTPTN
Aer
Yaz
##amaian
proyek
##isti
ana
##irikan
Trend
Kalkulator
XAA308
XAA308NA
##ejuang
##INC
Terut
##rease
imgurl
##antarkan
mendarat
handphone
Sungguhpun
##umbers
Version
##vival
Energy
Give
cuka
##zstan
Shin
MASALAH
Ever
WAH
soya
fix
terangkan
MW
cry
Swing
berkemahiran
##ands
##ein
ahlinya
obat
Islamiah
Ilmi
##ktop
##tier
menterj
##ubar
##osan
Qaseh
DESA
tenter
MEREKA
Pendang
Grow
Tef
dihubungkan
Kriteria
Rata
##JUNG
##jaran
Raub
##ores
Faziani
Khatulistiwa
achiev
kenyang
##Slide
Ledang
Ism
Cetakan
DKI
KEGUNAAN
abangnya
##ikhlasan
Mukasurat
developed
tawarkan
##adaman
positive
##entam
aktivitas
KEH
Pedas
##ishing
lipat
PAJ
Rugi
##anjur
rempah
##ission
DIRAJA
meluangkan
Veteran
Emosi
laksa
ketum
Pusaka
birit
PEKER
kualitas
VALVES
Nadz
132
buktikan
Hukuman
Lantaran
enh
jilid
Granada
hehehehe
void
Supr
Centrifugal
Shariati
munafik
existence
Run
bac
ABDULLAH
##yrgy
TIND
Graders
MENDAPAT
SEBELUM
rup
##dayat
hero
tetingkap
PROSES
SB
Bodoh
Jew
diber
Kesimpulannya
BOLING
ITEM
que
merakam
License
Fermator
Vincent
lin
BERJ
Komik
Kubur
singa
kakinya
price
##ematic
dilam
pertambahan
##link
Civil
##tabil
Serai
BUY
Nokia
##aiqa
IPD
rebus
##acob
Aloi
vars
##uistik
##ourage
##irus
bebanan
KEMAJUAN
adop
Purata
Kambing
Andor
sekutu
Game
berhutang
Acco
Zizie
##ususan
Statut
Tepat
Tawar
kencang
berhemah
Madonna
Financial
viewed
Send
Buaya
increas
CA
DEM
fans
Swaiqa
Atlanti
Bla
##yrgyzstan
Tongkat
diaman
tetapan
SAY
Guyana
menyedihkan
ditipu
##ADAH
sap
##lom
Insurance
Kron
##BAL
##Suite
Protein
##key
merempuh
Zambia
TEM
diaplikasikan
Department
AAD
Gob
TUHAN
kong
Kampar
Netizen
pelupusan
thus
dirasmikan
Iklankan
KEDUA
Atur
lantang
Bahamas
Kosmo
ABC
KLUSTER
penindasan
##ungkaran
kadang2
Dinasti
##dives
Badar
berpandu
##yamuk
Dump
Cukuplah
lompat
ant
102
Wayar
rod
menzahirkan
##endek
kecundang
Motorola
Pemborong
gandar
##kid
Premier
bergaul
Namibia
ilm
Awek
Pendarahan
BookingSuite
##anw
##erior
kesenangan
LaserJet
piston
mengharamkan
##dus
##agukan
Bahrin
Ky
PARA
##heed
PENGERUSI
Usah
menceburi
opsyen
PROFESIONALISME
Lekap
Modi
##ned
Ihsan
mingguan
BAGAIMANA
mud
khazanah
kantor
Call
##tatus
##kuh
bio
helikopter
necess
1961
Bermain
fundamental
Regi
oldhtml
Think
MEDIASI
PRESTASI
bijaksana
TENPIN
cenderahati
menzi
resam
diceritakan
PIALA
Informatif
Hamba
Ujar
##Ti
penuaan
ibrahim
cermat
HABIB
##Kereta
kehormatan
TIADA
lectur
berbangga
ingatlah
limau
Lantai
##ensus
Abduh
imunisasi
Sabun
Rizal
madrasah
##igure
Lebanon
WHO
meniru
##epuk
1200
Telok
MANA
dirasai
Kenaikan
sinonim
lan
Apapun
##006d
Russian
terjadinya
Berbanding
RM50
Front
wadah
##bang
##tium
265
pdf
sure
Penghargaan
##personal
PELAN
Bid
Ukh
##nacle
##okimia
maybe
Packages
until
Muatkan
BET
penubuhannya
##sions
troli
Insider
Penyebab
Deb
Lady
OIL
Jimeng
MENGHADIRI
trading
dipertingkatkan
EDUC
binari
Pallet
PENGHANTARAN
games
INTAN
EMB
dukun
intim
mengangguk
klau
ULASAN
ROY
##arutan
emo
Week
tayang
##Kan
teringin
MIX
Sedih
purba
MIT
fahami
rajah
##opor
Disco
Friend
Tragedi
cerdik
Students
sivil
##ikmatan
##usuh
hours
alur
reman
OnePlus
insyaAllah
##erosotan
##Pakej
BAK
##elusan
Arwah
berpus
kecergasan
menggemb
Nether
Created
##IAL
thir
berkisar
##aven
Pemas
spontan
extr
Laptop
deretan
optimum
perdebatan
Commer
bersumpah
012
silatur
##hentikan
Tengg
diperiksa
Rabb
growth
sebaya
penentu
47500
keilmuan
Teflon
diajarkan
##usakan
histor
##ingati
serang
PERKARA
##sky
nominal
ckp
trauma
penggerak
##tronomi
##PORAT
Olahraga
Down
Nark
dlu
Berfikir
relatif
Ketibaan
rongga
##eksp
Lidah
Soh
##hon
Bernam
Corr
##esiti
sosok
##undred
Cherok
Eb
Connect
Koh
Puas
benang
menemp
mentafsir
WWW
Lisa
diingat
penamaan
dipamerkan
segenap
instagram
gundik
Recovery
Dilakukan
TUDM
diikat
Materials
hamb
terancam
pandemi
Bengk
keberkatan
KORPORAT
dikuatkuasakan
persatu
##nion
jurusan
##untik
laksanakan
BAWA
Penolakan
previous
padanan
Kadangkala
JEL
Kulai
bayangan
Taala
##elligence
Terapung
traditional
counter
Sow
##Data
##CL
Industry
##uamalat
nutrien
Exclusive
menguat
Mubarak
PERIBADI
Kup
ditimpa
berambut
##epek
##antapan
balance
Lorong
Komisioner
##ubahat
TINDAKAN
memikul
wrap
menjel
Poli
states
OG
##algia
agre
kampong
##injen
subject
tergugat
Tran
Pahlawan
Dhuha
SMK
tpi
proaktif
Senator
peluh
##2u
INSTIT
molekul
Keris
bersel
##ujuran
##ingkiran
Chad
PERSEDIAAN
melewati
ECO
pup
close
##agic
##ISIS
##eperluan
bernombor
Latiff
Posi
##olitan
Awas
Geran
Kubu
pembelaan
Batas
ris
Jaringan
kelakian
LIKE
PROCEED
##hul
##ried
##ESTA
MALAYA
memperkukuhkan
tatacara
##ILI
cerdas
##ahuluan
Iluminasi
Pohon
dipenjara
Evolution
Punya
berlian
##VER
critical
beratus
Mukmin
Zen
fiskal
##ellectual
Perikatan
##veness
along
Kartun
terbongkar
##tics
##anau
industry
Sahkan
##ically
Dawud
UHM
menghulurkan
represent
hairanlah
geli
languages
construc
Hatim
beralun
PERCUBAAN
pikir
##ertib
##icient
Cres
Zimbabwe
##word
satis
typeof
Dilan
##Hiburan
##gambar
Tampin
PROCEEDING
map
Berbahaya
menjilat
mercun
NST
Won
##PK
##Im
bersep
Bertanggungjawab
Takkan
Sinonim
BAJET
Lai
Lec
##siapkan
##milik
saringan
##opa
uni
tersayang
Komisyen
EMP
bagitau
influence
city
365
NOTA
Sempat
##eriaan
memin
speak
MENINGKAT
AIDIL
peran
Army
##tifkan
Rio
tarikat
WHAT
orangnya
ekspor
Bakti
kehidupannya
rekreasi
mengusahakan
##006c
##iha
Pinnacle
BAIK
Deli
kotoran
##UDA
##enas
Kwee
Shahriz
jumlahnya
landskap
boy
Siasat
ihsan
Hilir
sifar
Theory
Nasri
ketuhanan
SEPTEMBER
hasan
PENASIHAT
##Event
terlampau
Duk
beraya
lembah
Penghulu
McL
INDAH
pemergian
##UCK
BEX
Tree
Kejuaraan
##wave
dikhuatiri
Tapah
Menangani
Marz
PETALING
TON
Pertempuran
RM100
Om
##elasi
penggunaannya
Mauritania
Paint
bersenjata
Sultanah
GAA26800
Galas
##more
Fle
##ularis
Riuh
output
female
KATEG
##ias
longgar
Knowledge
penawaran
persefahaman
Leh
Nad
Natal
inn
naskhah
179
##atatertib
Malayan
##iskrim
##MAP
##apalan
Mentah
Boh
parkir
exco
bangkai
##nik
bersambung
soket
##Fi
##ulate
##otesis
##ambilal
Chap
Belanja
Samar
Pengembangan
04A
Sempurna
muhibbah
KATEGORI
ve
##itanya
FacebookShare
8269
berus
##utz
adapt
pinang
kegemilangan
latin
##face
UHMW
##ardin
TENG
Sku
zam
Beauty
CATATAN
##bach
RISDA
Qing
Article
Pelupusan
Turkmenistan
perempuannya
bul
Malu
pengangguran
TK
Veterinar
##asari
sendirinya
penyandang
##ITTER
Multi
solusi
##yatan
ansuran
Jadilah
Sorento
Muhd
konsesi
tetapkan
Cend
blu
##egaran
merekodkan
kelap
##rect
mengena
kasi
##itir
maksudkan
##ilit
##resid
##UMPAH
Kyrgyzstan
##aruddin
114
obli
##schild
never
##emui
##ENTIAN
Pinggang
Prihatin
Ustazah
Designed
SETIAP
promo
melayani
##atrik
Paras
cabul
terserlah
Ant
findings
##ohid
Syaz
JAR
KK
SUARA
marketing
berkhasiat
899
##kandi
##etic
##aitun
ideas
Ronaldo
Ent
Gelap
Malahan
project
INFORMASI
few
Edward
Excelle
Banjar
mam
1964
komersil
pencuci
##etrieved
##IMPINAN
##rob
##empur
##IDIK
dipatuhi
##eum
Sekadar
NOTIS
Cherokee
Wangi
elit
bilstereo
Indonesian
Bendi
Fiat
ternampak
Jender
hahaha
jongkong
menyembuhkan
BE
##lekan
##trod
UUM
diperintah
Lal
overhed
Networking
Yes
stim
##ukir
dilatih
globalisasi
keberadaan
Nap
Jamuan
piala
##agnos
Penglibatan
perenggan
Merujuk
Graf
Concrete
##yukuran
##unggak
Gan
kul
korek
Fif
partai
Zahnita
profesionalisme
wawancara
zarah
pengadilan
Hariz
Lulus
dalang
##rov
##ASTA
Autow
##atsu
hitsABU
dicer
APMM
bertunang
Serius
Maldives
sepupu
conn
terjamin
penggambaran
memberangsangkan
Most
##Dewan
Laporkan
##olding
##128
##esting
terlambat
terbabas
##ernaan
Dor
buli
cop
##ENALAN
Agriculture
Panitia
138
307
##LISH
Erd
##kriptif
perdamaian
dihalang
Logistik
Henry
##rut
Mys
berair
##opoli
Barbados
pesaing
APRIL
Langganan
Alfalfa
sambal
##uuuu
Lewat
penolakan
menghindari
paw
Salinan
Bercetak
Nampaknya
didikan
##limited
pengedaran
KIM
Nuzul
##apy
Shield
Santiago
HOL
Kai
##afan
Terc
Anggaran
Rothschild
mencur
penebat
##ASH
Leong
Mau
##egak
dibelasah
allow
Diamond
Bergambar
kewarganegaraan
Bikin
age
BERAS
##gor
Masihi
SWT
hisap
TUJ
menghafal
CARTA
sukakan
mengun
Sena
##omputer
abadi
Economic
pemberontakan
Sejauh
##optimumkan
pid
wawasan
Some
leka
kemahuan
Cape
Suction
Fred
##laq
##akinah
Stress
fish
##tonasi
digigit
organization
GUN
sams
dihidangkan
##lid
Exim
tercinta
modi
periode
cintakan
EDUCATION
##astian
adjust
Penawar
Cote
DIM
##arbon
panah
##tumen
pemburu
Amazon
Autowalk
berpuluh
Mahmood
Khairi
meminum
##ERSI
sources
Ghost
##ohidrat
##denda
##eva
##jud
huhu
always
888
Lubnan
sepasukan
##lal
appear
patri
meth
gusi
##tura
##agakan
DUA
##adab
kriogenik
Salak
unta
Indo
Syafie
Suit
##perim
106
diplomatik
kerjayanya
Berpantang
Zeen
rather
##yrik
Syam
Bow
##ilet
Seoul
Yemen
Cho
##AYARAN
laptop
Ria
Vital
##ipah
dipukul
Cameroon
Dayang
##friend
menel
##ude
Perhatian
SAMA
kakD
Sukatan
bomoh
logistik
MAX
DAKWAH
Trun
konf
pengalihudaraan
Biologi
##SIP
banking
##SY
Pendirian
Resume
keguguran
participants
##tut
jel
##epa
berstatus
##asterawan
Madagas
mamp
numbers
jahili
Fotografi
ensur
pedagogi
##ulirkan
Hikayat
TIMB
##St
terkilan
dimusnahkan
Dongg
##Spa
##ROT
mega
Senior
kerak
whether
komplikasi
##opak
berori
cash
##eliharaan
Strateg
Beban
Juru
Nerus
##xial
digubal
mekanik
Kinta
LAZ
menerimanya
penduduknya
FROG
A234
Perhiasan
menghala
##uret
MS
SEM518
Lanjutan
##gua
topArrow
leftArrow
Dream
Faris
##Booth
pereka
PENGGUNAAN
PERUN
##Pengacara
##asaki
##istry
berlum
Walkways
DEP
##Kompang
identi
Jusoh
Dedahkan
therefore
mewajibkan
sahabatnya
KANDUNGAN
advertising
Haw
##Butik
Vand
##Gubahan
ditadbir
Nafas
Menghasilkan
slides
Dita
Ketag
taksiran
##Kanopi
siling
COMBO
Gift
##angguhan
Develop
1440
Continue
Moldova
Cell
round
seberat
Santai
##airah
##ALOG
212
KedahL
KEPUASAN
##ailable
Eg
Spr
Menyimpan
Meriahnya
wuduk
##inidad
Jadikan
KedahLanie
Wad
##unyian
authority
Terg
Xi
bohong
terkeluar
Submission
Staff
MURAH
Gat
dapatlah
##IKET
##ejab
LOG
dram
penggemar
##ahsiaan
##osen
Bertemu
jalankan
Relau
bangsawan
pendarahan
Melaksanakan
KAH
kids
tshirt
CIKGU
several
Fal
plate
Lenggong
##vas
komisen
describ
##integrasikan
##eksual
Bergabunglah
Meth
spesis
Haiti
menapis
penyemb
Markets
Qay
364
Watak
penahanan
prasarana
sedaya
WOR
##agak
dibubarkan
Shafee
##edap
##MA360
ramah
##emukan
direk
sarat
##imin
Lazada
Heart
Sunda
Hoist
PESURUH
janu
mangkat
##CRA
dicekup
konserv
tadika
neur
##siakan
##ulanya
PELUANG
berlatih
berpeluh
Official
Jacketed
##encia
happ
##umbahan
Ops
BERSEKONGKOL
PESURUHJAYA
Academy
Crown
pemikir
Rina
wood
Penemuan
Penanaman
dinaiki
UNIS
Jaket
Medina
NSTP
seratus
keibubapaan
##sipasi
royong
SUAMI
effective
Persiapan
##affar
Quan
Bellow
tomato
##odontik
Jempol
##eber
Interaksi
##kom
Sarapan
Manufacturers
SIL
vide
##etaan
observ
perolehi
2din
##ederakan
ombak
tata
Haute
DIL
MUT
Abb
Articles
Kolumnis
Soleh
bole
Makcik
##batasan
HASIL
MWIG
Circ
tg
##ography
##anduk
scroll
Jurutera
stres
pemerhati
Mam
Teresa
Ikhwanul
mengemaskini
Begini
##oen
301
##andingi
##ocracy
kalimat
Snap
Ningxia
kecintaan
TB
133
##501
##RIB
mengantuk
Haron
Sokong
##inyak
diungk
##AMPAIAN
Basi
hik
rab
gm
perseorangan
Yahaya
##edut
##azine
##osil
Bersamaan
Segar
Hishamuddin
tarawih
penetapan
##tified
##iao
push
bing
julung
##ENTERA
pac
Dolar
Keistimewaan
##CIK
perkosa
ketibaan
##apeim
Gempa
sumbang
##abitat
BUYER
Netherlands
Rintangan
Sendi
Senegal
pembaziran
dibersihkan
mampan
##bulan
emerg
electric
##tina
pensijilan
rizab
##atap
##ORA
aziz
Identiti
Tandas
duta
themselves
membahas
ACR
small
##uqaha
terangan
kemarau
sensitiviti
Local
Demokrasi
penolong
paradigma
650
hum
##qdis
han
##onents
PENGENALAN
nyaman
Norh
Bermuda
Mengenalpasti
##engki
227
Corak
LIMA
SIHAT
belaka
Sheet
##ARIKAT
##akalanya
istiadat
days
JHE
Saud
fib
ungu
seludup
Trac
Sekuriti
Seribu
Lex
pengeksport
##oser
##lighten
memburukkan
593
removeClass
account
Yapeim
Zero
##angkalian
sahsiah
##epatah
KAUN
Retrieved
Sut
HEBAT
persaraan
Dewa
Pelaporan
GERAKAN
bulatan
##vok
##lasifikasi
Bong
Penat
Apalagi
Hem
unc
semi
Diambang
berlarutan
Husain
titi
melukis
JUAL
pantun
ukh
Islah
192
SOF
Bendahara
kuali
Herz
SEAL
propaganda
dakwat
Jamie
##imau
pembunuh
addition
Dilindungi
##ulian
Tuhanku
##tenstein
Berga
warna2
AFP
Luqman
DOR
taking
tandai
enjoy
Verde
Marriott
penunggang
##cious
PEMBAYARAN
JPJ
Method
Mahir
Reli
Harris
news
Expo
GH
resources
PERHENTIAN
Rani
##unut
tugasnya
598
##jannah
922
digariskan
tembok
benteng
va
Aminah
Insurans
ABIM
Berjangkit
##Solat
frekuensi
Erdogan
##AGAAN
PENYAMPAIAN
Lintas
##3000
penis
ASN
##olour
Parameter
meriam
##inf
ART
gegelung
##lika
##ahanya
##edu
Pesan
Mustapa
Pok
este
maintain
280
HH
380
tebing
Zheng
HOS
##cha
ditinggal
Lad
roket
anggur
compreh
Sentuh
santan
##isting
peluk
mencoba
##faction
Fair
TENDER
living
tawan
##ervis
PENGIK
Rakaat
##ematics
Loke
##arki
Capaian
Meh
samun
##COM
Pengangkat
##odam
memerhatikan
tingkahlaku
Mike
##sidan
JUGA
##uafakat
Joseph
Kaji
Kabin
Jung
##atifikasi
WaktuSolat
AFF
Hollywood
Perd
Paste
cendawan
##olid
Maknanya
Implan
##ibouti
diutamakan
IG
##incu
meli
Pemangku
Coaching
##diran
##udupan
113
Bersejarah
##jolan
JUNUS
142
Books
darjat
Duplex
provokasi
Sedar
stage
disangka
masalahnya
Surin
setidak
##izam
DIG
ditekankan
##akas
205
merata
dibicarakan
berbogel
kenikmatan
Kondisi
rebah
meski
##echtenstein
Antigua
HALAL
##Dunia
##akian
percent
WHATS
UU
Disiplin
Banten
##siti
sekerja
Mengubah
party
ketagihan
dikejutkan
lantikan
Ting
semut
MENUJU
diperbaiki
NASI
Maryam
Sholat
simen
Podcast
Sabak
Valley
indik
Pengakap
STOR
Zal
SELEPAS
Inner
Opera
trigger
##kap
hidrostatik
Kemuncak
sale
450
sebiji
153
PRIN
010
Kristal
penyiasatan
Anne
##estrol
Mengenali
Syi
Oren
tunggakan
Derma
##FR
berwibawa
##AKARTA
Mertajam
caus
##otivasi
arang
permata
983
learners
Patani
tiri
berprestasi
diranjang
##6D
berkeb
alias
Sas
Tamat
masam
mengeluh
perundingan
Samoa
METROT
METROTV
CAPAIAN
##ier
memikat
##jus
apalagi
young
##ancah
##ABILA
Him
2030
Penyulingan
##estimonial
ach
ferro
Awan
Hebahan
TERHADAP
AIM
indi
TANGAN
##amata
##amalan
##ekonom
unt
##wanda
factor
Tatabahasa
##ulla
ash
occ
##nels
##tulu
Map
##wira
anth
INSAN
Jobs
dompet
kebocoran
KOLEKSI
##vokesyen
##999
tib
keunikan
saudari
debu
EMAIL
Cyberjaya
shalih
Hello
##erve
CONT
disember
UniMAP
EH
Fizik
##egu
Seville
peranannya
DISEMBER
BENAR
Liar
komunitas
butik
##4400
aib
tersohor
224
Discovery
##API
Pier
sapu
ijtihad
55200
##iii
padan
rc
syiling
ngeri
##yal
##ingatkan
FOC
##RAW
Than
Cinematic
januari
##DH
Selagi
dataran
private
##embira
##utive
##cale
oc
Streaming
Martabat
Hajat
soul
##KIT
melemahkan
bertemakan
##sterdam
filter
164
Pinjam
itself
offset
politics
trofi
Fisher
Tolak
mengejut
Andorra
fisik
nekad
sound
track
##ternal
Compactor
Penguatkuasa
pembimbing
##aibkan
teladan
kredibiliti
Desc
Psychology
penyusunan
##elawa
Stu
Gitar
setem
HITAM
Spect
dinob
u2
apalah
##udaratkan
Jie
##iu
##lagen
digun
inku
##ozhou
##istol
keradangan
Nasr
membuatnya
disitu
##GE
Buatan
room
Bertudung
begin
Intelek
neut
jaket
serahkan
politeknik
Tuhanmu
RAMAI
golek
international
plants
kentang
menempuh
##ito
berhujah
Benin
##ilon
DIAMETER
keikhlasan
jisim
lobak
dipecat
Lek
epal
Mursyid
##ipe
nakal
Buffet
CC
bali
Trunnion
mengawasi
pena
peliharaan
##efly
Syarie
bungkusan
dras
##ilawah
Jeans
Sanggup
lans
Permukaan
tanduk
Riyadh
FIT
Yeo
##NU
mengangkut
Makna
NK
peninggalan
didenda
SETAR
phone
##iciency
##JI
Keibubapaan
disentuh
Pembaca
##ostalgia
##UBUHAN
poskod
##ashboard
benz
Judi
singkatan
tertunggak
dianggotai
klinikal
berminyak
Calendar
specific
##ekonomian
Die
shadow
Acet
Iaitu
Penyatuan
Antar
##indar
instance
mengharungi
Ping
pertuturan
ROK
##cia
##sey
berasas
LANGKAH
WHATSAPP
Rehat
##aktifkan
##elagat
Fron
Uh
##FL
##alaq
merapatkan
##watan
variab
Dilaporkan
##apelajaran
##islaman
merenung
##USD
Elite
Dinas
##onel
radiasi
Fun
KAEDAH
progresif
pengelola
##eluw
Gout
Ainul
##JEKTIF
##terior
Greenland
Letupan
classified
ranking
pemotongan
tool
Dealer
##52
Aust
Auta
Wel
##pres
##97
##udhu
##charged
Fahmi
Crystal
Allahuak
span
Lestari
Amsterdam
Grain
amatlah
Ani
perlunya
kegelapan
tl
TAHFIZ
ASP
##jects
bergegas
kantoi
rag
Arena
##estyle
pencampuran
Chaozhou
Dakwaan
Teki
serp
Kemungkinan
Barnes
1962
membiak
##lav
Pembentangan
dipinda
##onsumsi
Buta
ABA26800XU5
TNI
toilet
001
Bakery
Sandi
Kaabah
Wangsa
terbiar
register
equ
##umper
##aksim
##ICAL
Kosovo
Acuan
Bujang
##onto
Abe
keizinan
intonasi
prevent
Pepejal
##ART
Yaacob
gamb
Kefahaman
KESAN
court
tembakau
dikelilingi
kelamaan
##rose
##ohongan
penderitaan
DIALOG
Xin
tesis
BANGUNAN
Lut
BIR
##uted
BAHAS
Melancong
kristian
telaga
Ortodontik
menyah
agencies
Resorts
FOCUS
Chek
kepulauan
##ALAU
##swana
Cabutan
pergel
OKT
##EMAAH
MAIWP
cic
solo
Etnik
RUN
##tras
monitor
Penyayang
ca
PIH
##05
##xidi
KOP
##ante
ketelusan
Canada
berpasukan
Trinidad
Aqidah
JKPA
bijih
dibesarkan
pewarna
lalai
cle
Taylor
pengangkut
pesisir
French
pelajari
ub
pematuhan
Professional
##oros
kemarin
Greg
Deng
JUM
stay
Headunit
ubi
Bermin
Sock
Warta
##otherapy
##NIK
##antum
Kebetulan
Poster
Keseksaan
##encil
macamana
Madagascar
Kiri
tumpang
pengesanan
kemusnahan
sofa
improve
PRINSIP
Kemurnian
Twist
Baoji
##ESTAY
##onkan
Guam
hub
ditampilkan
foreign
burger
sukses
Nina
rawak
Disamping
Bakri
Mira
dwi
physical
Superintendan
Doz
Omega
india
FAS
hobi
Pari
##fsir
##FITRI
Isyak
Kecacatan
Summer
##shi
##wid
meluaskan
##ANGKAN
mendaki
##oreh
##onsor
ads
TUV
PO
ADAB
##iburkan
bolehkah
Ceramic
Bhutan
Dilancarkan
##tran
petanda
Dikunjungi
maafkan
lenyap
REK
padah
CERITA
PESANAN
Kawah
Literasi
lubuk
##roen
##ezanya
Ditahan
Grenada
Distributors
IZ
kalanya
##ince
Three
Baituljannah
Qar
ertinya
luc
ranc
##YO
membaik
membanggakan
penampan
Bersi
##uliakan
Bilakah
maghrib
##imut
mask
##eoxidi
##TML
Delhi
EPIC
message
##echan
##EMENT
korupsi
Tetamu
eksentrik
syabu
TRUCK
kolonial
menyumbangkan
##uncur
WARGA
Lapisan
jagaan
niobium
Niger
##amsendiri
besarkan
earth
pengembaraan
jamaah
##ghah
HA
penukaran
##ALTH
Kerugian
asma
Bitcoin
side
Romantik
Bersyukur
Leone
HDPE
Cancel
##ael
mendekatkan
Norm
kiblat
sensasi
ISTERI
##TERA
Salman
possible
liur
BAJU
##askular
CAN
MIS
insaf
pasien
Controller
Djibouti
Flying
spa
ritual
SEM522
penterj
access
##MAS
SEORANG
Any
INTR
mendiamkan
pengecas
disemak
Gerbang
Jengka
cuc
##fast
##udis
memerhati
Menyebabkan
Taubat
fakir
established
REPAIR
Masing
Selamatkan
##00650072
answer
Tingkatkan
ELEK
Rawa
penamat
Ibni
penghakiman
Signific
Yellowstone
##yun
PEMAKLUM
Bersihkan
Hindi
namely
Tobago
McLaren
Babi
beracun
##olan
##olawat
labu
FIR
syak
##uput
##umpamaan
##aro
PASTI
1946
Kut
##NE
perahu
pertembungan
pencernaan
##ISTIK
DULI
Mand
toksik
asia
menangguhkan
peruncit
##INDA
dewasa1
Campur
##anggut
menjumpai
Liechtenstein
vic
peraka
berkebun
40200
##cker
opportun
road
dewasaLebih
Sihir
##ampi
Select
Pautkan
##antri
##ontak
PANDU
##GS
European
prospek
Employment
PEMAKLUMAN
##maseu
dipelihara
##ULIAH
PIHAK
##chelles
Child
Liyang
dipantau
efisien
AIDILFITRI
TW
sajak
berkec
negative
Oppo
MAG
SME
UNESCO
reben
Sav
Prov
SEPAN
Ey
##3B
mengetengahkan
##master
Index
Aidi
Ty
mengalah
##gaji
Pasang
LAMA
bagaimanakah
Fakh
##ESIGN
abdullah
Supreme
Chik
NY
##point
KEMASUKAN
##sah
Kemunculan
Stand
PRA
creation
kritik
Noble
Hiz
los
##astern
colle
SOLD
Photos
##AIP
membutuhkan
Insentif
PPS
##353
penguatkuasa
pengasuh
substan
SELURUH
Liputan
Ted
Zoo
kandang
larut
maki
perbuatannya
splits
Chow
konspirasi
JEMAAH
Sumb
Umi
##yhur
##oneer
pemanasan
posted
menikah
Keramat
##riving
mentua
##eout
esei
Mons
RASA
SUMPAH
Arti
kepingan
Kala
maklumbalas
toko
##ulur
BEST
rempit
pemangkin
Penyokong
Halimah
Chuck
##tifak
186
Bintulu
Stacy
vertical
Nenek
Tepi
jubah
Khatib
surl
Lipat
formated
Saksi
hasilkan
Skin
Secur
sembang
Ukuran
##rahan
kabupaten
Emo
devic
pelacuran
256
Betapa
##eturunan
Hir
##lea
##INAN
kuiz
Rapid
terengganu
SEM65
TIMBALAN
campak
##IMPUN
confirm
ilmuwan
Tiap
mengesyorkan
peace
Bee
##here
124
##untuhan
password
Arang
Bulldozers
cu
cet
##AIKAN
Isham
komposisi
Forget
baring
Manila
##otho
Warganegara
sengg
Allahuakbar
Vo
punyai
menjangkau
pengantar
CERAMAH
Clothing
Haris
##rg
Palembang
OBJEKTIF
Village
perakaunan
##maseutikal
##rosc
MINGGU
galakan
penyesuaian
ABAD
protokol
##ll
pengukuhan
kemerosotan
Govern
militan
Oz
Peraduan
pembebasan
commit
##entific
##aje
##loitasi
s72
##hood
membahagikan
##anium
Tweet
Bom
cadangkan
##lit
Caravan
Deep
elektrom
FLANG
##rate
inklusif
gitar
berkons
melonjak
Mobiles
bonda
Menambah
Markah
SIRKIT
##umat
Musafir
lebah
SUNNAH
mengakhiri
##oling
DUIT
##BON
##akiti
Aruba
syirik
LKIM
sebatang
##ENS
##ultasi
Medicine
Slam
chat
menari
Menyokong
elements
Wacana
Hidayat
payung
Ngah
pangan
Keamanan
menggelar
Kompetensi
kewajiban
##lipse
##alimi
##turi
sampul
DEL
##ajur
Terap
aka
Pembaharuan
##enture
##atures
kemasyarakatan
##elihan
Minit
Muktamar
Persoalannya
JAKARTA
Mess
Term
Komersial
Anemia
menghafaz
kondusif
Gus
##jiwa
##ICT
LAZIM
Ring
Tabiat
merumuskan
##AYAT
APABILA
bersempena
Rabiul
menziarahi
UHMWPE
sabah
Laborat
AWAL
necessary
Extr
Pencemaran
##speed
dz
Sorokkan
hafazan
zim
pengkhususan
samseng
xs
Unsur
siapkan
respect
disimp
Badawi
##ament
##tawa
ann
##erbo
Bij
Jali
Malas
##elbagaikan
WAL
##ibawaan
taktikal
##ategorized
Zin
bersedekah
##urundi
mematikan
##ASKAN
keyword
NET
contribut
youtube
Ulamak
dera
##enteraman
belayar
fixed
##ycling
Cekap
##aguna
Masteri
BUDAK
Other
##entur
Troli
Telaga
diaorang
paket
Binatang
Sandha
Meniup
##ripto
muktamad
Cabang
##arnain
cong
Penyimpanan
##eriahkan
diperintahkan
syari
Applications
##daw
Harv
Expert
menurutnya
##otte
dibacakan
##TUKAN
Template
##taine
##embilan
##enced
##stead
perjudian
TIGA
Hambar
##agli
ways
BAYI
larang
sebatian
press
menggugat
lumpuh
Diterima
fosil
nyar
berlawanan
##ulated
Sharaf
##OLAAN
Malawi
TEGAN
ati
arti
mengep
##jidil
pengasingan
plas
dikirim
Fitting
##ontohi
mencem
Kesukaran
##UKUM
Lebaran
TUJUAN
Tarm
Sedekah
Chelsea
##uder
Arshad
tq
##angkung
County
275
lesbian
Sentuhan
Fard
Ranti
Wild
perkaitan
Dibawah
##00200041
Samsudin
Thurs
muridnya
nit
hadirin
MoU
Farhan
rcp
##ENANGAN
menggantung
##lery
Bersetu
dokumentari
Rush
##imbah
color
behavior
terjawab
127
kurung
Rwanda
UV
##eer
##otanya
Berkongsi
seem
Menuju
berjimat
kandungannya
##unaikan
penak
##nesday
homestay
diulirkan
bertanggung
Pencampuran
markets
PELANCONGAN
Citroen
network
tandatangan
##dari
Meterai
abd
##LIND
Tribute
Rejab
tidaknya
berkelah
penyeludupan
Pidana
Sentosa
Are
Lucky
##TAI
Maksi
empar
persimpangan
##lil
beroleh
wisata
Waris
Oral
Concor
Siber
ganja
denggi
##aduates
Wee
NUT
##utes
##ican
##arasan
Lantas
Taliban
Piston
Sememangnya
##ORAL
Jason
Plus500
Foundation
Keberkesanan
buntu
Dirasat
ethnic
Musuh
instant
Kepong
Mandian
##hairah
kren
##imas
Eclipse
jadinya
penutur
##riotisme
##02
##AMAL
KUB
mengajarkan
##esium
Robo
##oot
Suy
Naq
kete
Pastinya
Bilau
cium
##ilas
kendaraan
##ls
##uhuhu
Malek
basis
Logik
Buy
Anarm
394
Pernyataan
Night
##BS
pkai
151
Advanced
tanjung
menjalinkan
##trans
STE
stated
Jenderal
Mengawal
menjelma
Final
bib
buatkan
##aunch
Ramalan
ain
tend
##Qu
##ATER
taken
##iaxial
berketurunan
Sambal
beribadah
DEMI
Membintangi
Bellows
pedih
Reuters
##affic
mengi
perspective
##ERSIHAN
Brother
lebuhraya
kiraan
KELOLAAN
Chenghai
naungan
RM20
Pemerintahan
KRIKET
Fam
Ques
dipandu
Geografi
Zamri
Extension
Ati
LULUS
bilah
berpesan
##dukkan
keprihatinan
liat
Bubur
Jinan
lombong
Various
KOMUNITI
kalam
dirakam
kekadang
Supers
BIASA
##ontarkan
BAYAR
Supplies
##eluwapan
mewarisi
Lipur
Fathani
berakhlak
zakarnya
AUIS
pelayaran
jawa
Husna
sewenang
Overspeed
Unlimited
Persekolahan
ABA26800XU2
derita
berker
Berkenaan
CAB
Kalah
andai
resolution
politiknya
Goods
Demikianlah
SHOP
Dihar
pallet
weh
tergesa
diwartakan
Ale
pertiga
too
Bertam
SKILL
enterprises
Pure
Tes
tropika
##PL
Katolik
##uttering
##enggunaan
##anggungjawabkan
##ANGGUNG
Petikan
##fic
pelaksanaannya
Mirage
JAIS
HOMESTAY
lagipun
##List
bertembung
dirah
##AKE
hidden
Botswana
UIAM
Tegas
Perosak
Repair
Countdown
MyK
##VIEW
##arangkalian
tertipu
cacing
##enakan
##enna
Seronok
interpersonal
bermas
##biyah
Queens
##rame
difailkan
##alir
pemakai
penghalang
cell
Error
Thursday
Jem
PANT
dy
Ibadat
jalanraya
bagiku
##USTRI
##utra
Teater
Greek
conducted
Bloglist
339
habiskan
Penguasaan
Kalam
##tek
sallam
ditafsir
cost
waq
Kelompok
salji
Date
SKIM
timing
beribadat
Jeff
switch
pahlawan
Pengkaji
Tribun
Ges
dilayan
3300
##awasanya
Suis
diwarisi
Documents
PASCA
fon
Komisi
Sampingan
Siswa
perisai
Keajaiban
Sekatan
TRAIN
BEKALAN
TEGANUKU
Rel
jgn
halnya
Srikandi
conflic
KUNING
mengaibkan
PANAS
pondan
Contest
##ndrome
Tai
##urau
Keroh
PERPUST
SOSI
##USIA
##igurasi
Ruh
membendung
melimpah
Kepelbagaian
Buluh
STRATEGI
##bury
dilabel
disusuli
##kina
##ewanya
##lawati
Future
encik
INTEGRITI
RADI
##oleransi
##iraun
Jumpa
sinis
pawagam
semburan
##hol
perawatan
penagih
##AWL
TERAT
ARAS
Ketinggian
gudang
berumah
Hubungkan
SEMANGAT
##ELA
atom
taip
##YAR
Cond
oem
##ANDAT
Zainul
kecam
kaabah
Cayenne
RON95
Huraian
dipengerusikan
##ANGGA
buangan
##alalkan
Jebat
menyukarkan
agree
Apart
Fajar
cA
##arapan
##ews
Fadzil
##rich
##tikharah
##ISH
syair
Elaun
Skandal
##qwa
keajaiban
ABS
explain
himself
Laku
JAWAPAN
BAP
Jana
##adwal
tour
Money
kop
Janna
Cum
PMI
KDNK
##ww
Kesakitan
pukulan
##ulam
pesara
anggapan
##ANTAR
early
terlatih
opp
ikhtiar
Skudai
recording
BANJ
circ
Ow
USTA
##ancuran
sangat2
Escape
series
feeds
delivery
Erit
Zaf
Rank
Rendang
##JAWAB
##ikai
pembalakan
importance
JUMLAH
ruam
##EKAL
Leaders
catch
Pekebun
mengizinkan
##AKIMAN
Menyatakan
fees
diajukan
Sharif
heart
imbuhan
disayangi
KEMENANGAN
LIHAT
Sahur
##edikasi
penyiaran
116
Rabbit
Menter
##words
Highland
diabaikan
Kelana
Haziq
ditakrifkan
##dise
##tabak
au
berkenalan
Optima
Vanuatu
##oner
1930
WARISAN
lumrah
Seychelles
hanyut
fuqaha
270
JASIN
Penanda
scuba
Myvi
cirit
diimport
Fattah
centers
##anis
deskriptif
Suriname
Posisi
##Forex
berjangkit
luah
##TT
##yard
##lias
official
menyusul
##oven
sebahagiannya
Scar
solek
tipis
Pemasok
184
FOK
##edaya
##ONAN
keputihan
Iban
intellectual
increase
Aden
penangkapan
Harm
Labuh
HULU
kental
##cow
##etch
Fifth
Sharm
ISI
Linked
Oriental
##730
Hind
SIV
Elok
ukur
Alexander
##HTML
mengarah
INILAH
Ekin
HIK
sabung
believe
wince
Penghawa
SIMP
AMIN
kesusasteraan
SOSIAL
mach
might
seandainya
sinilah
Tinta
##RT
238
Since
kelenjar
Emir
Bait
Right
file
Switch
Cu
SALAM
effects
together
Bend
bed
jamuan
situation
##engkung
PERAKA
Kle
##RY
dibangun
##ogo
##aziland
Faso
investig
RCI
rub
##asian
diket
Selangorkini
Diaf
Muslimat
pasukannya
Kelang
Tahajud
Jala
TEACH
king
mungk
##DIS
PERAKAUNAN
Gib
##OA
TravelMaster
##YAAN
Edaran
task
Ribuan
MIA
bersamanya
Navigator
Pucuk
rakam
##struk
mg
Mengapakah
adegan
SKILLS
pause
Kuil
prat
serpihan
Burundi
perunding
sharing
759
##tober
mencakupi
Hex
ogos
sit
##but
recogn
FAR
Hidupku
Aluminum
Kid
dreaming
Shay
Ilmiah
##kinson
##eeq
reli
ajaib
Kalimah
psoriasis
SCI
tetiba
Situs
Palestina
decision
##roscopy
Prod
recent
ceritanya
Tata
##iatri
##akis
518
KADA
Mistik
##ibus
AnarmNet
MOHAMED
mudahnya
Akauntan
Maxis
RANCANGAN
najib
##ulut
sensor
rai
##laf
Jose
Sepen
hakiki
tangguh
sulh
nyamuk
##dh
Along
##audi
##itative
Andalu
##maan
##detik
Factory
kekecewaan
Clin
Hend
utuh
Disesuaikan
Lakonan
ramuan
merubah
Capital
prophet
SHAWL
jahil
919
didunia
AADK
Banda
flat
##cas
membuahkan
penghantar
matter
Cord
jemput
tapisan
##incikan
PERTANYAAN
##ahat
Shariah
##ometrik
sekat
provided
berser
##take
Bera
##buda
Jesus
gluk
menghir
Penyelia
Tonga
caption
jaan
##equ
Shaw
##afak
berskala
##autif
Kemurungan
Tengde
hands
Bajau
##Pen
Berlian
##INGGA
Internasional
kelewatan
Spectroscopy
##ston
SHARE
##anwel
KOD
tersangat
KERJAYA
Peribahasa
Perlukah
channels
praise
diterajui
Pahala
Bolasepak
Biss
jawatannya
Tumbesaran
anakanda
##FI
##UBA
Darus
intensif
mendaftarkan
##ilia
bertarung
221
##ODUC
rentak
sebati
Pemisah
Slim
##imbas
Elek
PEDULI
Baghdad
published
yan
Serangga
##ratis
UPD
##IMBING
Banting
152
Jamek
tertidur
tongkat
##erica
Analysis
PID
Sop
around
hon
nal
train
Servis
application
IPTS
187
Dikeluarkan
pertarungan
Yew
feri
selewat
##ahayaan
lalat
KAWALAN
dokter
Higher
INDUSTRI
Megat
literasi
HADIAH
Quar
ramb
membanteras
tangani
tegasnya
Bulat
Dekan
risk
Khattab
INTRODUC
radang
3600
siarkan
Disi
barangkali
Challenger
tangisan
##mud
Penutup
##ukau
Party
couple
##AYAN
kontemporari
isinya
BUR
##cies
Aturcara
Menguruskan
attitude
##OLA
IALAH
##TO
beruntung
Problem
bung
pujuk
##raan
##H1
bersolat
cali
Perip
LUP
##Wiki
134
terpencil
##ritory
tk
Sug
##yangi
##osk
penyerapan
Konon
Aktivis
TENTERA
cadang
##rint
##agh
olehnya
dilakukannya
Utiliti
##kali
Marina
insulin
Jean
veri
sex
##ORE
cabut
semenanjung
Sosio
##LO
##inch
##udu
karyanya
Plant
SWASTA
178
Renungan
karbohidrat
Komentar
Terkejut
##ANGKATAN
stations
652
grafit
##opok
menderma
melengkapi
##impunkan
jadilah
Redmi
Concent
Frontier
750
##rum
merbahaya
revelation
currentSlide
Bidaan
Mewujudkan
Shaari
E53
AMAL
IKS
meletup
benjolan
momentum
engineering
##lasifikasikan
Socket
masin
117
terluka
ICC
Barbuda
pasangannya
Muara
##dirkan
torch
##ALONAN
Ahlul
##biah
##intasi
Terd
Shab
pekak
PENCALONAN
won
##aluat
dipertahankan
Wednesday
majority
Written
Positif
TINGKAT
Terasa
Concorde
SEBAB
1958
SERV
Hafizh
Potong
penyembuhan
##essor
##MAR
dipersembahkan
HOLDING
Serah
bebola
settle
optimis
##regat
##IDA
Burma
##baik
meminati
##ibati
tersumbat
bertakwa
literature
Katakanlah
Peripher
Dy
Lord
restu
Lubuk
##hehe
Makassar
##ailing
hubungannya
Important
##diksi
ketaatan
Kebiasaannya
Lep
dun
jelah
tekad
mesh
##olisian
berhala
Ingatlah
khalwat
Dal
Tex
##acai
BALAI
MODULE
framework
huru
tersangka
Opel
Basah
pembayar
PROCEEDINGS
save
##Tim
##ADUAN
ISIS
tetangga
Banding
Bris
Bangkit
dal
tret
AWANG
Adil
lestari
##ALANAN
Faham
##ega
##ressive
SYARIKAT
fel
membel
bertelur
praktis
Lapan
Boat
Penggantungan
kamus
uses
lambuk
##eweng
Asha
##asir
meragukan
berkilat
disasarkan
Tempah
##Time
wass
##ampingi
##ibong
bersinar
MENANG
Comoros
##175
workshops
gran
Peratusan
Alim
Membunuh
acqu
##parent
##GUNA
Komanwel
Button
ig
##Pro
##enya
##olk
##ewahan
Tahoe
disimpulkan
Liberia
Jahitan
mempersiapkan
mengeratkan
Bersekutu
sedari
Skala
Principe
berorientasikan
CU
Pasca
economy
mid
mix
##ukaian
##anker
wahab
PUAN
##vement
##emap
##abitan
240
digugurkan
ketiak
KHAL
##bangkan
##upah
Penyelarasan
Ummu
percintaan
Diafragma
Saran
Window
hentikan
##kum
##ianati
mencium
Pembeli
dibiayai
areas
peribahasa
Plots
TRADING
Cris
Keunikan
menyedarkan
##orano
dijana
BACK
ROKET
##beri
##los
Scope
PERTANIAN
Bergaya
Melahirkan
SS
##voi
berdebar
PERSEMB
tarekat
Bertuah
Animals
ghairah
##areness
upper
associ
institutes
gurunya
Gambia
123C
feb
##uv
##yaz
kematangan
Dab
takda
UMRAH
Hasmah
Ketenteraan
PING
bri
Dikat
dam
##arab
Administr
garang
##MEN
##ogok
Dikemaskini
Caledonia
Gor
itik
serv
##ribusi
pembawa
Doakan
##0065006e
JPN
Menjana
PEMENANG
grup
diselaraskan
##azali
257
Bergantung
KAMPUS
Arsenal
RM8
terjual
Tiguan
Haa
menyingkirkan
presented
fotografi
Steve
Tank
plural
461
strategies
Lesotho
##tttt
Pontianak
##ETAK
kolektif
##ready
Packaging
##mod
manik
Kenal
imaginasi
##elaian
##tij
keracunan
Exec
Kekayaan
Medium
Kewujudan
dengki
GDA26800
##ungku
Sikit
individuals
Migrain
setanding
6019
flu
meninggi
##ahuinya
Menghadapi
##uatir
##LINDUNGAN
cun
lelah
Palm
##agaman
Serat
Only
Elect
##rinter
Getaran
Bissau
##MAL
terkecuali
AMB
memartabatkan
PERLINDUNGAN
##0063
WARNA
##elajahi
##eous
dimuatkan
nggak
pengikutnya
##ANGGUNGJAWAB
Who
Ridg
saban
EMB501
##enalkan
menimba
kang
Collagen
##iiii
Nasriyyah
Cri
KUIS
temasya
Feder
##zy
##eten
126
##ehabil
Kebahagiaan
section
working
siar
##entit
musyrik
bangku
Makam
Trucks
puting
Putus
pemurah
remain
Dam
dilay
##diah
Impak
HARTA
##ocol
African
berbangkit
##inesia
amin
Login
supplies
metabol
Hajah
educ
##urt
Kawasaki
MINDA
jelajah
keju
Ministry
ditimbulkan
sabit
##Men
##GR
conditioner
transition
kunjungi
kutip
lack
kejujuran
##entation
Insiden
disaksikan
berputus
Hospitals
Larutan
pistol
interaktif
Peripherals
##tukarkan
Cheese
relation
Dongguan
makes
tani
259
bring
KAP
Pant
Pematuhan
##AMBUT
##non
SPEC
jajaran
phot
Break
PERSEMBAHAN
keratan
Alpes
Pound
##ATANG
##ffa
BNM
Hanif
however
Dusun
Fras
##640
##patuhan
berkomp
terbaca
Penggal
Stephen
base
implementation
Leher
121
##egarkan
##iksyen
Magazine
Prius
##ABAT
##menung
TEMA
##ashi
inbox
Louis
Conditioner
##ogenic
perkapalan
MediaWiki
Tea
KLANG
Guest
ternama
langganan
TAHI
Scotland
planning
birds
Wolfberry
third
furniture
jerit
Tumbuh
##autiful
diserap
tekstur
Mustapha
often
##UNGSI
Tommy
Shahrizat
deria
506
Teams
ULAMA
Stores
halau
mengisahkan
melacur
ASK
Okay
TERBUKA
mercedes
SINGAP
concepts
perce
Bonet
nukilan
rusa
##ahyang
Sebelah
172
268
insaniah
bersiri
LEM
menumb
##AKAAN
##redible
Huruf
SKU
Tanggal
sebabkan
dinasti
berlesen
ARAH
Burkina
mall
##usukan
##tainable
##TRY
Laboratories
KIN
kg
##ulia
Berubah
Akak
Kepemimpinan
prefer
crawler
Raider
ethics
NAS
##uard
Burhan
persaud
Pengelola
Programme
menjauhi
ani
##edhaan
MENGUR
Maxx
commer
##ovation
profesor
fik
nilon
Load
salur
##Exp
samar
##asamy
kerang
Kawat
##uria
##awinan
##edition
abjad
PELB
pengsan
Memancing
MTU
skema
Hero
Kolesterol
sehelai
dicalonkan
fall
peha
penuhi
Wahyu
Kesannya
Lev
Pembaikan
topeng
HIP
BASED
Ru
Kerabat
Cover
begitulah
Passenger
CUTI
barah
##adirkan
Rebus
##dings
penaja
times
Suplemen
swing
Refleksi
BAGINDA
JAL
Pemandangan
Berkat
SUV
hem
BID
##enak
berbasis
137
Pukulan
ROM
##raman
##ungsinya
Berlin
berdakwah
kabut
Behavi
kearah
Rahang
penghinaan
278
berda
##ampelan
Chiku
Kasus
##ondaan
##0020006
persaudaraan
##elling
Valencia
govern
AWD
syarahan
RAT
Zoom
please
##unangan
##diov
menempah
Abadi
cabutan
ensure
##Def
##alaya
##uctur
Jerai
PERJALANAN
Monterey
I30
##itah
Berahim
awet
Presidennya
##swasta
##strukturan
Hundred
sandaran
Chee
PELBAGAI
pump
##tively
Menantu
Modena
YUSOF
penangguhan
##acker
Italy
Aqu
Name
##dicator
Flam
LANGGAN
Perincian
##heim
ikat
Anaknya
Saraf
##elenggu
Sandwich
stereng
##gues
##TROL
genap
Sulit
##agikan
Fire
akrab
artinya
PADANG
##charger
mengekang
Akbar
##OMBANG
##tique
penyingkiran
Permai
##arudin
##ukh
##istrik
Fashion
LAR
gap
Kemiskinan
Polinesia
FOKUS
Dikatakan
##ebatkan
berbulan
Org
act
rover
hebatnya
RAMADAN
Clothes
jeragat
PETUA
Giveaway
##AKON
toward
##EKNIK
Derhaka
Mendidik
marble
FUJI
Dibuka
menyayangi
Century
Pernikahan
##ziman
rahang
menembusi
teres
Chew
BUF
menggembirakan
##agina
##aniaya
pesalah
sedutan
Pha
Kutub
pengujian
Menawarkan
##ekstr
Mansur
Swaziland
##angsungkan
PEKERJA
bile
py
serata
Masjidil
Gabon
##urani
Bulk
##ares
Bahawa
PEMUDA
Beverage
USTAZ
Miskin
Energi
PEMERIKSAAN
Torrent
Own
##alvani
Menjadikan
Amri
Gram
elec
Askar
bercita
##spir
malangnya
http
Landing
hoki
##Ah
##VEL
ketam
diduduki
##ECT
##erin
mengelilingi
takrif
Acc
Fara
KANG
##alus
##aganya
membawanya
gemilang
BRAND
volum
Pisau
citer
##diyah
mengembara
negaranya
extra
269
verse
Yin
##ypt
Layak
Lombok
##swastaan
Pav
##880
berkerja
1947
effectiv
Tourist
Snorkeling
MILIT
Gobind
##fisher
bagitahu
##uqyah
520
##Ad
perikan
Pengadilan
Semarang
##itarasa
##ahwini
Fiorano
##EMPUAN
##1855
pekeliling
GELOMBANG
Jantina
Jujur
Lubang
either
##lasses
Lapis
score
stores
TERATAI
Palau
mengiringi
keris
bergel
Pelay
Strad
Jieyang
Yazid
ho
##F1
##emy
Diverse
YONG
reach
bounty
CPI
Tumpang
##etuk
##ERTAAN
##enkan
seek
actually
dibuatnya
505
##ource
100000
oktober
bersidang
BERHIMPUN
Bost
baling
cos
##baru
Mass
Fauziah
LB
##Rookie
Kingfisher
Gurun
Lun
julai
dicabar
cergas
PENYERTAAN
Demokratik
five
abstrak
##qim
khianat
auth
##ladha
Memberikan
HOSP
Jerus
tubi
1951
Aminuddin
##artac
209
##UNGG
##hire
Berdekatan
1941
LOOP
dipraktikkan
SST
##amen
##amine
##ised
##lyde
kehendaki
ketapang
##acruz
wenang
##zalimi
PERPUSTAKAAN
MILITARY
perikanan
##lank
Support
Muadz
Ukur
##tification
GET
Terper
##ungkil
mana2
1001
Event
##standing
Meet
menggunung
##oksidan
Nasheed
##atijah
DEB
Short
##ERAHAN
diminati
Veracruz
##udly
Enlighten
PEMERK
digemari
RM500
##ongkol
GAG
Bedroom
##asila
NURUL
KAT
Seal
bersimp
attemp
##elusuri
Acetone
##185593
JUL
inst
##anggota
Payung
Regional
PEMERKASAAN
Astra
million
Eastern
SAI
##pur
pelukis
##ually
UNDI
berganti
##letter
Eritrea
625
816
Bagai
##Is
pengisytiharan
select
tanggungan
iPad
diskusi
##litus
pedoman
Touring
similar
Mutu
Trust
urban
Togo
tirai
Plain
gaun
##SEL
und
jahit
##CHING
Commercial
ditukarkan
Environment
Zahir
Mursyidul
##uncing
267
slow
Generator
Incredible
NU
##finder
##asri
PERANCANGAN
Abby
Bekasi
pujaan
Defender
Protege
##umpat
memadam
sambilan
Fraser
Qud
Sakti
habitat
##etang
##ALIAN
##ernih
Ditambah
Marquis
TUKAR
330
Jelawat
bru
selsema
Traktor
Bertindak
das
Isle
berbakat
Carn
##ILE
Pencen
akibatnya
Faroe
Published
koma
Ditolak
jumaat
pik
##ihin
LOKASI
##PER
perisa
berbayar
Andai
fardu
DIAMALKAN
Cir
PEREMPUAN
Boe
ENERG
ruf
INSTITUT
SCIENCE
UPDATE
##ugor
Museum
Khaled
##grade
DB
##obar
##IDS
Semenjak
Associations
Herbal
getElements
##Page
diajak
Aspen
commun
##aturcara
memaafkan
Hamilton
Germany
Chalets
##otaj
dipinjam
##dapan
Keber
Intel
instruc
##ognitive
rolls
kekejaman
176
##ishes
anthem
##aron
##umu
hipotesis
hide
Kebangkitan
anggotanya
animation
Teo
lena
##deg
##elated
##ologies
Memudahkan
supports
Tepung
Uncategorized
duniawi
sony
##america
##sikan
Perlukan
PRICE
18s
Droid
RM7
Taksiran
351
kelurahan
##ANTIK
430
421
hu
##urano
##HBAR
LIT
Lepasan
##umph
Malays
BLACK
Pd
##wisata
Pengawas
disp
paste
strug
Cabri
fasilitas
berdisiplin
Ducati
Mystique
Vanden
gout
med
##Two
khuatir
Maulana
##xit
menjunjung
getElementsBy
Selaras
dipertanggungjawabkan
Political
Uph
Pengacara
Brom
penggabungan
tumbang
Publication
##airankan
menginginkan
Betong
Cameras
degil
9100
##kira
##gic
dilanggar
kompromi
BAGAN
##ullail
##upati
Marah
Waj
##HAS
peneliti
354
Nusa
##hips
Oem
##ropri
Buih
Kiribati
FLANGE
i8
langs
rar
gastrik
tipo
ugutan
Ron
##jaz
Saudia
Sprinter
AKHBAR
Sebabnya
##odium
epistem
6204
Gatal
Yorker
duda
Pengamal
##quish
ulangtahun
OPTIM
##HIJ
eric
Pembahagian
kepen
perbedaan
Liew
JAMUAN
MOTION
Kontroversi
XVI
##lore
##uktamad
##real
##pin
penahan
pemisah
##OLOG
##ITIM
Heavy
Veloster
Nabil
##afiq
Pendakwaan
regarding
TUG
Chem
Moscow
disandang
penyelarasan
gelandangan
penarik
mengkh
Expedition
8900
response
##chetta
Aviator
Ribu
##olin
showed
berlumba
Four
Razr
pendukung
Diskusi
demografi
jalani
Kekerapan
Jetta
Confection
Suites
Eighty
##NER
##alt
##ident
##code
perangkap
Jeti
diram
##ilafah
dijangkakan
UNI
Dipercayai
9800
HR
##lahu
PERANG
liang
Corner
Fuad
sosioekonomi
Ginjal
##aleigh
Evoque
Sewing
Cressida
MISI
flex
kunyit
sangkar
conven
taska
##apit
##abis
membacanya
##ulans
muara
berja
##hee
Berlebihan
internal
Pepper
rancak
membazir
Pathfinder
Durang
Gro
aeon
dato
##inggirkan
PELAKON
##FORM
##aiyah
menaip
Perj
ditanda
Muhammadiyah
##tac
Sheila
Appro
Outback
COMPUT
Terbaharu
Sampel
pixel
Corniche
curriculums
HOSPITAL
agregat
##IDAH
usai
##elander
Gedung
Kepakaran
BINA
TANDA
Mainan
pepatah
##arantin
musta
Durango
gandingan
##ancil
principle
OGOS
Cuff
##ourse
bergurau
Ajaran
poliester
FBI
Pom
mentak
memperhatikan
ummat
nikmati
lati
##ampat
Diguna
kemewahan
berbulu
Sinter
stoking
Tribeca
kulat
Tanamsendiri
Workshops
Boston
Station
sabda
290
Ninety
##etwood
getElementBy
##adikan
Pemangkasan
Perbaikan
BELUM
Mediter
Handphone
Cabriolet
getElementById
Majah
Pria
##osankan
Fleetwood
maps
init
##sanne
dipuji
conclud
umpamanya
RAZR
PPBM
secondary
Confectionery
KETI
Blackwood
Shops
written
involved
outerHeight
Montero
Luas
TIT
tunjang
Display
mode
MALL
required
Pakcikli00
##abisan
Manif
supercharged
Jakim
TAJUK
Sharafuddin
Gemas
191
saliran
AMPANG
##ederhan
Maranello
Mars
Corrado
digunapakai
##akala
##olstery
lebur
KIMIA
Supersports
terbi
mistik
Dimiliki
Scagli
Entourage
origin
paha
##zema
jaring
MANUSIA
bloggers
Scaglietti
Keuangan
Seraph
BINT
Solara
Aqiqah
draw
mempersembahkan
Stradale
##6200
##WAL
keep
##anggaan
Reaksi
Majelis
sewage
GDA26800H1
Lawan
##Nav
##Limau
##endela
KEPIMPINAN
Taburan
CLS
Physiotherapy
822
Kren
RAY
Xcover
##lag
altern
##anca
##pertensi
Menggalakkan
Mountaine
menelefon
KALAU
##ontong
Kemudi
Rapide
Zaenal
Cutlass
Tibur
##indui
bentuknya
##olate
pakcikli00
owner
Rumusan
SirapLimau
Murano
hubung
Montego
##pl
##1MA
##egaraan
attas
dipasarkan
##fazkan
Upholstery
COMPUTING
Permits
Noraini
chuck
Koup
indicators
Tocco
mundur
raih
became
Ketahuilah
SIVIK
kendalian
westing
##egn
Minivan
Tarmizi
##diovaskular
westinghouse
draf
jerebu
Kanopi
Cruz
Advertisers
ericsson
460
##tator
bersemuka
Securing
cerato
STi
Freelander
realistik
runtuhan
cupboard
Qadha
E350
##BER
##Sub
macam2
ForTwo
Villager
royce
weddings
Mountaineer
Tiburon
##lok
##itz
kutuk
##umus
Span
pulpa
SLK
Brooklands
hyperd
KKM
Paykel
Sidekick
Embassies
##ublisiti
E320
raksasa
Mulsanne
Vanquish
##alized
Marauder
E550
##nul
pemisahan
bersumber
terlarang
##tabalan
Ridgeline
Phaeton
pemeliharaan
##AIQA
Sportback
taburan
Cabrio
kembung
CLK
Rhin
Consultancies
Mua
tentangan
sahel
permusuhan
Susunan
Barchetta
batal
Virage
Ular
WiFi
Drophead
occur
Galian
rokr
startac
Routan
Ramcharger
Factories
kaumnya
Superamerica
EX128
Robin
Vanagon
GLK
SWAIQA
MazdaSpeed3
MazdaSpeed6
fasiliti
Wagoneer
Eurovan
AQ
288
CIN
Folder
LANG
penggun
Terti
forgiveness
ping
aqiqah
Antonio
OPTIMUS
E730
##aged
237
Loire
SU640
SU880
LU6200
philosophy
devicess
dagu
suis
SETEMPAT
Izin
##siklopedi
mp
##bed
Maqasid
perkuburan
PENGGUNA
##azam
Guardian
km
##ANTI
##aikal
sesuka
tindakannya
Tadika
##egerakan
fansuri
Rauf
##itator
Berguna
Zahari
##TagName
ruh
##athan
302
Melancarkan
##tranet
getElementsByTagName
Satar
siksa
TUNT
Kob
NAM
skincare
##araman
Inch
##was
Maham
215
maritim
JAWI
Junior
Miliki
##br
##jiang
kuatkan
Sajak
##eve
menjawat
##timewanya
ANS
dinobatkan
neutral
##Di
julat
##AIB
selfie
konek
WAKIL
##hijrahan
Executive
utiliti
##alasan
Inspektor
Friday
##pisode
mengagumkan
Takbir
pantau
233
Bengkulu
deri
##untum
Pedagang
##elenggarakan
##nnnn
melintasi
Action
336
aidil
KAFA
Cadang
Every
##ANDATANGANI
Case
SAP
merungut
mono
baldi
sape
##osal
Pengairan
Choc
getA
evolusi
meriahkan
##yability
berstruktur
##utupi
Mahal
cukuplah
galaksi
bermutu
##eoxidizer
Aidiladha
Nism
##letic
Berla
Artinya
SOAL
MARITIM
Balasan
Penala
kecurian
dicuri
levels
membahaskan
SANTAPAN
Mud
opinion
AAA633
Marzuki
ulat
penentangan
Mahdi
Terpakai
expla
Obama
tasbih
Turkish
Kantor
ZULK
BONUS
syok
Processing
##ihani
Perkakasan
Nasution
Ketebalan
Korona
Dozer
##aur
##yyat
##engku
Menak
Komitmen
Saliran
##EMBAN
pulihkan
TAKRAW
##uktamadkan
MUKA
ever
sad
##ZUAN
Berniaga
##AJAHAN
Ahmed
Cemp
UF
##asin
##ERING
menjangka
ahad
hulu
kemungkaran
##engkapnya
Fall
KEMP
difference
flip
##KINI
SeMalaysia
differences
INTRODUCER
##medi
beragam
Trade
Abdillah
266
##exp
Haba
Stem
keled
hibah
Skop
booking
##ILIK
##AFAZ
Klyde
##isauan
Hanan
##active
Abg
Penceramah
SAFAR
agamanya
UTHM
TERJ
##tenham
istighfar
##idas
Bersuara
essential
Boeing
##uarai
pencerahan
KEBAWAH
direc
kub
##mond
KELUL
compared
Sekretariat
##resident
SEMBAH
BETUL
berjen
serious
kewibawaan
Domain
Pandu
berbakti
accept
##OSA
berjuta
##UDAYAAN
Zat
thing
Jessi
##ektor
##etor
##ilikinya
Princ
Atlan
Kalsium
lipatan
dipermudahkan
##riage
suruhanjaya
Karl
menitikberatkan
alu
muj
##tg
godaan
paparkan
Johnson
Bou
abis
358
Penjaja
jernih
##dayakan
Pemerhatian
Sifar
Kuah
##amina
##ITED
smua
##impit
Enzo
Silang
perkakasan
##ualitative
terpel
drastik
USJ
shallallahu
penghapusan
math
ENGLISH
FB
##angkab
##titudes
panic
##yrrol
digilap
Mohor
wasallam
berkonsep
usahanya
merendahkan
Rapat
##onf
menyelaras
PERUNTUKAN
Cint
UBAH
##enh
disewa
Menentukan
File
sutera
mengedarkan
##oteknologi
terharu
berfaedah
latih
KEBERANGKATAN
Rogol
none
##ASE
##erbal
PEMASY
Kemp
melun
possi
##skop
software
perincian
##iriman
pengeb
umurnya
AWAS
DEE
viv
Nikmati
Phoen
mengimbau
157
Diriwayatkan
MULA
Lokman
Aurat
TUMP
##5000
Prince
Perangkaan
Menterinya
cabar
jour
##alisi
penyair
fasal
PR1MA
DOWN
141
ikonik
Juling
Gim
rawat
Kunjungan
memaksim
##OLL
pendakian
sepertinya
##naire
##misi
menyin
Akupun
lembap
azam
THINK
Target
freedom
SEM822
types
##rac
##HIL
meminda
Purple
Mentor
##rier
##antis
##elakaan
punah
kecaman
Ummi
hayatnya
FORUM
##itungan
fiq
Aida
Introduction
Bible
trib
##tie
perebutan
##izer
menghasut
HIG
Keong
bertin
##eview
innerHTML
1920
##ISE
##cipat
MASYAR
##enjarakan
fulf
membasuh
##asif
##matik
Reader
Hence
halia
##ohkan
Mart
WIL
##lice
ll
ACC
UCAPAN
sekala
##oys
##resiasi
##titution
APM
Maulidur
keldai
mum
storan
##HURAN
Trending
menaruh
delegasi
larian
ujung
bijian
pendaratan
bertapak
Corp
Significato
Alquran
##umpun
ketenteraman
merentas
manhaj
tegak
PERSID
diubahsuai
developing
cause
##akn
ditamatkan
UMS
263
CARI
PEMASYHURAN
didaftar
Perlaksanaan
gampong
##pro
##erman
derm
##ebumian
##tizam
171
keberhasilan
MASYARAKAT
Syak
Will
disekat
ditunggu
Patologi
father
jurugambar
Ismaili
Austin
terbiasa
Here
RANTA
pertunjukan
pieces
ALAMAT
hijab
PERSIDANGAN
##rel
tersepit
mengalihkan
juzuk
MENINGKATKAN
KANGAR
berjiwa
207
Aneeq
Menya
Side
ce
##emo
dipertikaikan
##IRIAN
pikiran
salib
Affandi
##tafsiran
kekh
bilang
##jikan
didapat
MENANDATANGANI
temannya
PEKDIS
LAB
Pangkat
FIN
Lampung
LIVE
tekn
##England
TS
##otrop
penyewa
##EWA
Many
##ented
SEREMBAN
Suhai
Mawd
##endekkan
Lac
##ede
CAP
Atlet
Butterworth
##Timeout
membintangi
tercantik
##orf
##ATOR
pID
##orama
marilah
Nobel
Number
udah
astronomi
PINTAR
movement
Terutama
ranjang
##ulukan
##arani
143
summary1
gelagat
Berbagai
Karpal
MOHON
##iles
##utor
##antuni
berlindung
Buntar
Fals
Toh
pemuliharaan
berpangkalan
Hasrat
BPA
Teruk
mencabut
hitsC
Quraisy
MUI
hitsNik
hitsHasri
##qam
##otes
Ching
Enzim
ill
romantik
Respons
##mul
##jok
305
shall
syahid
##ULATIH
menyertakan
pelajarnya
tempur
##tica
KHAIR
mand
anjakan
sebarkan
samalah
pembolehubah
Hua
NASA
aksara
Iqbal
##uslim
Membangunkan
Kahfi
Fasal
kantin
Bond
later
mengembangkannya
Welded
Petugas
Sound
nasihatkan
Brexit
GUA
230
koyak
Pukul
Alangkah
##ESE
derhaka
bata
jayanya
serasi
PROMO
Embassy
##tabah
BERKU
Codes
##LOG
berbohong
211
pupils
Autisme
CY
[...]
