[PAD]
[CLS]
[UNK]
[SEP]
[MASK]
[MASK2]





!
"
#
$
%
&
'
(
)
*
+
,
-
.
/
0
1
2
3
4
5
6
7
8
9
:
;
<
=
>
?
@
A
B
C
D
E
F
G
H
I
J
K
L
M
N
O
P
Q
R
S
T
U
V
W
X
Y
Z
[
\
]
^
_
`
a
b
c
d
e
f
g
h
i
j
k
l
m
n
o
p
q
r
s
t
u
v
w
x
y
z
{
|
}
~

















¡
¢
£
¤
¥
¦
§
¨
©
ª
«
¬
­
®
¯
°
±
²
³
´
µ
¶
·
¸
¹
º
»
¼
½
¾
¿
Æ
Ð
×
Ø
Þ
ß
æ
ð
÷
ø
þ
Đ
đ
Ħ
ħ
ı
Ł
ł
ŋ
œ
Ə
Ɛ
ƒ
ƿ
ɐ
ɑ
ɔ
ɕ
ə
ɛ
ɡ
ɣ
ɪ
ɾ
ʁ
ʃ
ʈ
ʊ
ʒ
ʔ
ʕ
ʰ
ʲ
ʷ
ʹ
ʻ
ʼ
ʾ
ʿ
ˈ
ˌ
ː
˚
˜
Α
Β
Δ
Ε
Ι
Φ
α
β
γ
δ
ε
η
θ
ι
κ
λ
μ
ν
ο
π
ρ
χ
А
Б
В
Г
Д
Е
З
И
К
Л
М
Н
О
П
Р
С
Т
У
Ф
Х
Ч
Я
а
б
в
г
д
е
ж
з
и
к
л
м
н
о
п
р
с
т
у
ф
х
ц
ч
ш
щ
ъ
ы
ь
э
ю
я
ѕ
і
ј
Қ
қ
ҷ
Հ
ա
ե
յ
ն
ր
ב
ד
י
ע
ר
ש
ת
،
ء
ا
ب
ة
ت
ث
ج
ح
خ
د
ذ
ر
ز
س
ش
ص
ض
ط
ظ
ع
غ
ـ
ف
ق
ك
ل
م
ن
ه
و
ى
ي
٤
ٱ
پ
چ
ڌ
ښ
ڠ
ڤ
ک
ڽ
ی
۞
ۥ
ۦ
۩
ݢ
आ
ए
क
ग
च
ज
ट
ठ
त
द
न
प
ब
म
य
र
ल
व
स
ह
ा
ि
ी
ो
।
ং
ব
ল
া
ਜ
ਪ
ਬ
ਾ
ੀ
ગ
જ
ત
ર
ા
ી
ஜ
த
ம
ழ
ி
గ
త
ల
ు
ಕ
ಡ
ನ
ം
മ
യ
ല
ള
ാ
ං
ල
ස
හ
ท
ภ
ย
ษ
า
฿
ไ
ລ
ວ
າ
စ
ဗ
မ
ာ
ა
თ
ი
ლ
რ
უ
ქ
ღ
ᄀ
ᄂ
ᄃ
ᄆ
ᄋ
ᄑ
ᄒ
ᅡ
ᅥ
ᅦ
ᅮ
ᅵ
ᆨ
ᆫ
ᆬ
ማ
ር
ኛ
አ
​
‌
‍
‎
‏
‐
‑
–
—
―
‖
‘
’
‚
‛
“
”
„
‟
†
‡
•
…
‪
‫
‬
‭
‰
′
″
‹
›
※
‼
‿
⁉
⁠
⁣
ⁿ
₂
₡
₨
₪
₫
€
₮
₱
₴
₽
⃣
℃
™
Ⅱ
←
↑
→
↪
↳
⇒
⇢
∀
−
√
∞
∠
∨
∩
≡
≤
≥
≦
≧
⏩
⏪
⏺
─
│
┆
┬
╰
█
░
■
□
▢
▪
▲
▶
▸
►
▼
◆
●
◕
◙
◠
◼
◾
☀
☁
☂
★
☆
☎
☐
☑
☔
☕
☘
☛
☝
☞
☺
♀
♂
♛
♠
♡
♣
♥
♦
♨
♪
♫
♬
♲
⚀
⚁
⚂
⚃
⚄
⚕
⚘
⚜
⚠
⚡
⚫
⛦
✅
✈
✌
✍
✏
✒
✓
✔
✧
✨
✳
✴
✿
❀
❇
❋
❌
❎
❓
❗
❝
❞
❢
❣
❤
➕
➖
➛
➟
➠
➡
➢
➤
➧
➨
➫
⟵
⟶
⟿
⠀
⤵
⬇
⬛
⭐
⭕
、
。
《
》
「
」
『
』
【
】
て
に
を
ア
ツ
ノ
フ
・
ー
㋡
㎡
世
中
二
会
体
分
取
口
图
大
寒
小
年
库
度
提
文
日
明
暑
本
港
用
百
立
简
線
繁
网
耶
胸
自
至
語
语
货
雨
面
页
马
體
鹿











































ﬁ
ﬂ
ﬆ
﷯
ﷲ
ﷺ
ﷻ
﷼
ﺍ
ﺎ
ﺮ
ﻟ
ﻮ
﻿
！
＂
（
）
，
－
：
；
？
～
￼
�
𝔸
🆙
🇦
🇲
🇺
🇾
🌍
🌒
🌞
🌟
🌱
🌷
🌸
🌹
🌺
🌻
🌼
🌿
🍀
🍁
🍃
🍄
🍅
🍇
🍉
🍊
🍋
🍎
🍑
🍓
🍫
🍬
🍭
🍰
🍳
🍶
🍷
🍹
🍼
🎀
🎁
🎈
🎉
🎊
🎖
🎬
🎮
🏃
🏄
🏅
🏖
🏭
🏵
🏷
🏻
🏼
🏽
🏿
🐐
🐝
🐠
🐣
🐼
👆
👇
👈
👉
👋
👌
👍
👏
👒
👕
👗
👙
👥
👨
👩
👫
👳
👶
💃
💄
💆
💉
💊
💋
💌
💍
💎
💐
💓
💔
💕
💖
💗
💘
💙
💚
💛
💜
💝
💞
💟
💠
💡
💢
💣
💥
💦
💧
💨
💪
💫
💬
💮
💯
💰
💲
💳
💵
💸
📇
📊
📌
📍
📎
📔
📖
📚
📜
📝
📞
📠
📢
📣
📤
📦
📬
📮
📱
📲
📸
🔅
🔆
🔊
🔖
🔗
🔥
🔪
🔬
🔰
🔴
🔵
🔶
🔸
🔹
🔺
🕌
😀
😁
😂
😃
😄
😅
😆
😇
😉
😊
😋
😌
😍
😎
😏
😑
😓
😔
😖
😗
😘
😙
😚
😛
😜
😝
😡
😢
😣
😥
😨
😩
😫
😬
😭
😯
😰
😱
😲
😳
😴
😵
😷
😸
😿
🙂
🙄
🙅
🙆
🙈
🙋
🙌
🙏
🚐
🚕
🚗
🚘
🚚
🚩
🚫
🚿
🛍
🤔
🤗
🤙
🤣
🤤
🤦
🤩
🤪
🤭
🤳
🤸
🥀
🥣
🥰
🧀
🧐
🧬
##a
##h
##u
##r
##n
##w
##k
##t
##j
##i
##ر
##ح
##م
##ه
##p
##e
##s
##y
##L
##G
##T
##g
##B
##o
##c
##x
##b
##l
##v
##d
##O
##N
##R
##A
##K
##f
##D
##M
##P
##U
##E
##🙏
##🏻
##6
##1
##0
##2
##z
##3
##8
##m
##I
##Q
##S
##­
##Y
##X
##W
##5
##7
##4
##H
##C
##V
##´
##9
##F
##q
##�
##J
##¬
##÷
##👇
##Z
##€
##œ
##‎
##ß
##я
##ч
##е
##с
##л
##а
##в
##☺
##−
##و
##ق
##ي
##ل
##چ
##ت
##ذ
##ا
##‬
##р
##ы
##ж
##к
##❤
##​
##™
##ł
##μ
##²
##ɑ
##ı
##⃣
##✏
##😍
##
##✅
##📱
##د
##ڤ
##ə
##ن
##
##ø
##🤣
##®
##з
##и
##س
##ڌ
##ස
##ං
##හ
##ල
##і
##क
##ट
##र
##ी
##⁠
##º
##🥰
##🤭
##⠀
##о
##б
##н
##‏
##
##д
##т
##ь
##😊
##خ
##ة
##æ
##❗
##ƒ
##£
##α
##м
##😉
##ⁿ
##⚕
##💉
##👨
##■
##ʊ
##
##¦
##★
##˜
##😘
##💖
##💕
##ج
##ा
##ल
##त
##♦
##🍃
##﷯
##у
##ѕ
##°
##👋
##Р
##ع
##ب
##ث
##ک
##🤗
##ﻮ
##ﻟ
##ﺎ
##х
##г
##➖
##😭
##न
##✔
##ц
##¥
##ء
##ش
##ˈ
##ː
##
##🔥
##ग
##◠
##🌷
##🌿
##😝
##©
##ɛ
##←
##👍
##ض
##ۥ
##⟶
##³
##ڠ
##ݢ
##
##
##‍
##щ
##п
##ि
##स
##ो
##✌
##🌹
##đ
##ٱ
##ك
##ف
##😂
##💞
##˚
##ш
##ʒ
##👏
##🙂
##ﬁ
##﻿
##🌸
##
##►
##¼
##🍄
##‌
##И
##👆
##🏼
##→
##✨
##❋
##😜
##🇲
##🇾
##¢
##ð
##ʻ
##ᅮ
##ᆬ
##Հ
##ա
##յ
##ե
##ր
##ն
##│
##♥
##√
##♪
##⚫
##░
##😎
##ह
##½
##ى
##😆
##💋
##ʃ
##ю
##♀
##😢
##☆
##て
##
##😚
##～
##😑
##ƿ
##₮
##😲
##😇
##ط
##
##ʼ
##🍷
##×
##￼
##🤪
##
##℃
##👉
##द
##ـ
##ۦ
##💘
##ظ
##▼
##ʿ
##😡
##
##ব
##া
##ং
##ল
##Б
##ъ
##😁
##💰
##😫
##❌
##ʔ
##🙄
##😷
##Ð
##⚂
##⚃
##
##🏿
##🌼
##🍼
##💵
##غ
##ʁ
##☝
##📞
##🔬
##😱
##ღ
##✈
##ɪ
##😄
##ﬆ
##💓
##😃
##😙
##þ
##😀
##😗
##🎮
##😋
##🙌
##▪
##¤
##❓
##🍑
##ɔ
##А
##Д
##ย
##🤙
##💝
##🤩
##≤
##С
##ᅵ
##ᄀ
##ز
##ɾ
##ɣ
##ф
##
##⁣
##🔪
##💛
##🚗
##म
##ब
##💦
##⬇
##ᄒ
##ᅡ
##ᆫ
##ᆨ
##ᄋ
##ᅥ
##♡
##😵
##😨
##😥
##😔
##💪
##🎉
##✴
##❀
##Æ
##ј
##💍
##∨
##ʲ
##⚘
##😏
##ע
##ב
##ר
##י
##ת
##¹
##ɕ
##ʰ
##ɡ
##⚡
##💃
##
##▲
##🏽
##♂
##
##ɐ
##ˌ
##ص
##⇒
##₂
##ħ
##📢
##─
##🙆
##👶
##💚
##😅
##🤤
##
##🌻
##व
##🙋
##💢
##🚫
##Н
##に
##
##⤵
##प
##ʾ
##
##😳
##ʹ
##💯
##
##🚕
##🍭
##🍬
##မ
##ာ
##စ
##‪
##🙈
##¾
##💜
##ツ
##☁
##🎁
##ﺍ
##ﺮ
##β
##
##
##🍰
##●
##👌
##🎈
##😯
##⚠
##☞
##ŋ
##χ
##າ
##ວ
##🌺
##ی
##ﷻ
##📝
##¯
##🍁
##💙
##മ
##ല
##യ
##ാ
##ള
##ം
##த
##ம
##ி
##ழ
##Т
##ҷ
##ไ
##ท
##У
##¨
##🌟
##😬
##Я
##ລ
##📣
##😌
##Ł
##≥
##
##ڽ
##ᅦ
##🐼
##📲
##ρ
##ο
##ν
##Е
##О
##💨
##Φ
##💎
##🕌
##π
##🐐
##
##Ι
##
##💣
##
##🎊
##δ
##ﬂ
##🍋
##♠
##🍫
##Ф
##👥
##ஜ
##К
##💗
##📍
##ᄃ
##📮
##आ
##य
##☕
##±
##⭐
##🔹
##♨
##⏪
##🏖
##М
##📚
##➡
##ª
##👩
##💆
##❎
##
##💥
##☀
##ﷺ
##╰
##▶
##¸
##ー
##💮
##📜
##❣
##💬
##🔊
##🚿
##🤦
##😰
##🤔
##😣
##😩
##😿
##👙
##ι
##♫
##🍓
##♲
##□
##👗
##☘
##ज
##😓
##‭
##💌
##Þ
##ʷ
##ᄑ
##ᄂ
##🧐
##🇦
##🇺
##฿
##😛
##🍉
##ε
##λ
##η
##κ
##ภ
##า
##ษ
##💸
##Ø
##
##📸
##█
##ए
##📌
##🚩
##📠
##θ
##♛
##ア
##✿
##ठ
##ဗ
##ಕ
##ನ
##ಡ
##Қ
##қ
##🎀
##Х
##∀
##✧
##٤
##🍳
##🏃
##⚀
##▸
##💊
##Ε
##ʕ
##
##🏷
##📤
##♬
##П
##
##ʈ
##♣
##ᄆ
##پ
##ښ
##ਪ
##ਜ
##ਾ
##ਬ
##ੀ
##🤳
##👫
##┬
##❞
##🌒
##フ
##
##◆
##💲
##≧
##≦
##⛦
##💐
##😸
##త
##ల
##ు
##గ
##🍎
##
##🌞
##💄
##🥀
##😴
##◼
##≡
##۩
##۞
##🙅
##㎡
##😖
##э
##🏵
##µ
##👈
##ד
##ש
##ગ
##જ
##ર
##ા
##ત
##ી
##ქ
##ა
##რ
##თ
##უ
##ლ
##ი
##💠
##🍀
##❇
##🌱
##📦
##🔰
##🐣
##च
##∞
##∩
##💡
##❢
##Δ
##አ
##ማ
##ር
##ኛ
##
##Ⅱ
##В
##🧀
##🍇
##🍹
##💫
##📖
##✒
##an
##er
##en
##ar
##la
##at
##ang
##ak
##ah
##in
##em
##as
##am
##un
di
##kan
##al
##da
##eng
##tu
se
##ya
##ti
##ala
ke
yang
##el
##on
##ai
dan
##si
##ta
ber
##ur
##di
##or
##ag
##ing
##es
men
##ik
##ap
##ela
##ada
##um
##is
##us
##ek
per
##id
##AN
##uk
##ul
##emb
##il
in
##ari
##ut
##le
##it
ter
##tuk
##ara
##ir
##ung
un
##alam
##ja
##eb
##ih
##akan
##lah
meng
untuk
##ab
##im
##ad
##aw
an
##atan
##engan
##ro
20
##ga
##nya
##eg
##eri
##om
dengan
##ama
ini
Per
##et
dalam
##angan
##ol
##uh
##aya
##leh
pen
seb
##ri
##asa
mem
##ed
##ent
##up
##pada
##aj
201
##aan
##ku
##agi
##ER
##and
##ud
mer
dari
ada
##ub
##aran
##ep
##ana
memb
##asi
##sia
##idak
##uan
ker
##ok
##ati
##per
##AH
##ot
In
##ali
itu
##lu
tidak
peng
##he
##ain
##ong
##AR
##oh
##ac
##alan
##ia
pada
##lam
##ahan
##ita
##ula
##ay
##os
##agai
##amb
Pen
sem
##ata
##ua
##amp
##AT
##tik
##adi
##EN
kepada
##gi
##ter
##uat
##anya
ju
##alah
##pat
##eka
Ke
##aja
##elah
##IN
akan
##oleh
##ib
##ila
##ian
##tau
mas
##tan
tah
adalah
Ber
Al
##alay
An
##eta
meny
##ukan
Peng
or
atau
berk
Is
##alaysia
##ic
sek
##00
Ter
oleh
##pa
pro
##re
##angk
##gun
##AS
##og
Malaysia
##yak
the
##ip
##ami
mereka
anda
##aman
juga
##end
##od
##af
Un
bah
##ant
telah
##ec
saya
##ini
boleh
##AM
##atu
##ebih
##AL
orang
##san
##ew
pem
##angg
tahun
##tr
pemb
##jadi
##yar
##aik
of
##aru
##emp
##elak
Ker
dib
neg
##edi
sebagai
ak
##AK
##asan
is
bagi
##arkan
##apa
aku
##op
Di
kita
Pro
al
mel
##EL
ser
##ind
lebih
##anc
##arga
##elaj
and
daripada
bers
2019
kem
##yat
##uj
##ump
##EM
as
##tas
##anj
Islam
##angs
##awa
sen
##orang
##pi
dis
19
##li
##ingk
kes
##udah
##uah
##ulan
dik
Men
mela
to
mak
lain
tak
##ANG
##tara
##uc
##apat
satu
##if
##ihat
pel
##ina
##ebut
##uran
##perti
##gunakan
##iti
##ika
##tor
ters
##ej
##tem
menjadi
##anyak
Sh
##UN
hari
bel
seperti
##ver
Ch
##uka
##arang
##mat
th
##dapat
##unya
##tama
##ow
##alu
PER
##man
##ajaan
##ihan
perk
##ingg
##hid
##ungan
##utu
##uti
##anan
##uhan
##usan
##az
##duk
##mas
kerana
##imp
dapat
##anu
##ation
lagi
##iz
PEN
##inggi
##ig
negara
Sem
##lat
##cara
##ont
Ab
10
menc
Bah
##utan
##UR
##angkan
##IS
##au
ag
##iau
##ch
ses
##IK
##uar
##ungk
##arah
Ar
##olah
##osi
##tion
##etu
##lum
##enar
##hir
Pemb
##matan
##TA
##diri
terb
pas
keb
##ran
As
Neg
min
##iran
mengh
##upakan
Pem
apa
kami
##ES
##lis
##antu
##umah
##esar
anak
secara
##ima
##ON
memp
##dang
##atkan
ap
##unan
##isi
##adap
##ve
merupakan
tan
tersebut
##elajar
##ingga
##est
##ilik
Kem
masa
berb
##omp
##int
##ram
##agian
##umb
##ine
##anak
dia
##dikan
##apan
##ob
##ort
##ger
##inya
##anti
perlu
##edia
SE
##AD
Sel
##urut
##US
##OL
lalu
##usi
Se
ni
##aian
##ikat
##elum
menj
kep
##ahu
semua
##AI
##enteri
Am
Sek
baru
##log
Mela
##ra
##anita
ia
Dalam
##tika
##ust
mana
Dan
##aga
Meng
##uru
si
beb
##akat
teta
Moh
atas
sah
##empat
Ak
##pas
##its
bukan
200
Untuk
ti
##yu
Yang
Mer
Allah
##tif
##AJ
##unyai
##awatan
##unc
sama
##bu
bahawa
DA
memberi
Mas
kaw
KE
sebuah
##unia
##lui
##ARA
##laku
##yah
##ingan
Seb
##wa
peny
Ku
antara
##ual
mempunyai
ken
terh
##IL
##ef
nak
Ini
kec
##ce
##imb
serta
##ihak
##one
banyak
##ni
##mp
en
##udi
##AW
dua
Ah
ialah
ar
hanya
Sela
##aikan
##ota
##angat
##ING
Ap
##akyat
##th
##edah
##ongan
##ambil
##esi
##mad
##inan
So
##na
kel
##sih
##amai
Dat
##asil
har
berkata
##era
sel
##eli
seorang
##didikan
##abila
Ind
##IT
DAN
##gram
##alkan
##ungi
##ts
Tag
beliau
diper
12
sele
Saya
##adan
Mak
seh
##ting
##ail
##uda
##tiv
##ons
tinggi
St
dip
##arik
##OR
com
baik
##unj
##entang
##aitu
Pel
##ori
##AY
Perk
##eo
tu
##UK
##andar
pers
dit
##atanya
##orm
Kes
##ajian
##elaki
sej
bert
dah
##las
bi
##aha
##IM
##iri
##angsa
##UL
Melayu
##api
menggunakan
rumah
hits
##ikut
pun
Kh
Kel
sebelum
##ses
##erah
##nah
##alau
##lan
pihak
##lumat
##ira
##bat
##lak
##IA
melalui
kata
pol
##yarikat
##ID
terhadap
##UM
##st
##erapa
##ov
Pada
##jaya
Tan
sudah
##onal
##tiap
##istem
##entuk
Az
##dul
##aca
##eh
##jap
so
bek
mener
##lim
on
##mi
tetapi
st
selepas
##teri
##erita
kerajaan
##aji
pula
##ulu
iaitu
ked
aw
##olo
##ma
##ani
##hidmatan
##entu
##atakan
##ess
berm
pelajar
produk
kh
##ERAH
En
The
##ulis
##tua
Bel
kur
##enis
bersama
mendapat
##uang
##ekn
##engah
##dik
##tak
Negeri
##den
##aun
##ks
##awah
kar
2018
berh
##lik
11
ketika
##inta
wanita
##abatan
besar
sendiri
us
##akah
mengen
##erja
kereta
15
##ev
kelu
##aling
Par
beberapa
##ilihan
##ajlis
dunia
membuat
UT
##ologi
par
##ateg
DAERAH
hid
##ly
##agaan
pr
makan
Lif
diri
##angunan
res
##yarakat
Th
berp
##umlah
Ad
am
##ingkat
masih
##inc
kom
bulan
##tim
##dap
Mah
##gin
PR
katanya
##elas
Pak
pend
ad
##asar
ku
apabila
##upun
##anusia
Sep
##ohon
memper
##uli
##upaya
##ungg
buat
set
temp
Kerajaan
##ukkan
##ers
##uatu
air
Anda
Mar
Tah
sahaja
##ungkin
##oc
terk
kawasan
##bagai
Menteri
##gan
sep
jika
Keb
Pi
setiap
##usat
mur
14
##ez
##uku
##TAN
BER
##mu
13
##tikan
Abdul
Kuala
##atang
##ena
Si
##any
sangat
##ember
Mohd
##akit
##ment
sekolah
##aat
##AB
digunakan
##iver
jadi
lelaki
##ei
mend
##AAN
for
utama
##ilai
##onom
##ENG
##tis
##ekan
##engg
##epas
Kami
##ear
##aki
Sy
##tern
Ag
##igh
tentang
##unga
##ATAN
su
##aerah
dir
rakyat
##amun
tr
Dengan
##aitan
##IR
##masuk
##ensi
negeri
PENG
kali
##ook
##mana
##jalan
Ser
##jek
Pol
##jaw
##engk
##tur
##tar
terle
##otel
##akar
##endah
Pers
##aliti
##otak
##INTA
kerja
##ipta
dih
bawah
tempat
Or
##ug
##abi
TAH
termasuk
2016
##UAR
cara
mes
##angor
Peny
##elajaran
##alik
masyarakat
Pas
samp
Set
##aks
berd
##eja
Hari
##ilan
this
##ideo
ah
##ebab
##tiviti
KINTA
terus
isu
Jabatan
Dis
ka
##uruh
##alaman
manusia
UTARA
Mus
PAS
Selangor
##anjang
Gr
em
masalah
bin
##ampung
##av
##onesia
Terb
Datuk
##rah
##ord
selam
##uduk
##urusan
kanak
16
ramai
Pin
Cat
sini
Majlis
30
##umpulan
Um
SEK
pertama
##ustri
##amad
##ambah
##askan
##amu
salah
harga
2017
##anggan
##ilang
Ras
pelbagai
Produk
##aju
sehingga
##gunaan
##otor
##ubungi
kek
mungkin
##sihatan
hidup
hingga
##enc
perm
##ola
Mes
la
##aris
##ital
##ebabkan
##eks
##AG
##awai
terp
##onomi
##aktu
maklumat
##ff
Hak
##EK
mudah
##itar
##our
Sp
##ambar
TAHUN
sekarang
##AP
##de
##line
Muh
##iversi
Indonesia
sela
Pr
DI
##ate
guru
##omb
pin
##ank
##umber
##itik
##wan
tahu
sk
17
18
undang
199
##ore
##und
Dari
Bahagian
##lang
blog
bahasa
Ia
##OLAH
##antan
pes
pela
at
dil
sekali
perkara
perc
##EG
Sekolah
##ongsi
Sur
Perm
Negara
##amah
syarikat
##atif
##elu
Tr
dem
Har
mengenai
pernah
membantu
dim
##ilih
Mem
SEM
##anduan
berlaku
ang
Pendidikan
##ahkan
Ti
##ili
Ketua
##UT
##OG
##guna
SEKOLAH
Pula
##ender
##me
tanpa
sh
IN
##OM
Kep
semasa
##uman
man
##han
##jawab
Kereta
ek
turut
il
##der
AS
##elamatan
##ampu
##etul
##atus
##ekerja
perb
kini
berken
##ERI
##ler
Bahasa
Unit
Joh
##uskan
be
Ib
sistem
##ach
##alangan
##oy
mula
##dai
##egi
terletak
mengg
Hotel
##ju
##udian
injap
2014
##utusan
nama
##ost
paling
masuk
Sab
Seri
semula
##idang
Bers
##uas
##etak
##ity
um
Jika
##OH
##ajib
Pulau
Res
kira
##anding
##adar
##ru
mata
melihat
##kuasa
Blog
##adaan
##itam
sur
##UH
##raf
kedua
jam
And
China
mod
diberi
Aw
##roid
berkenaan
##ubungan
##ris
MES
##ator
##ediakan
cont
##indakan
tiga
hati
AL
##ond
mengambil
ab
##oran
##ader
MEN
Air
##agu
##arat
##ard
Ahmad
##eter
bentuk
##alaupun
luar
wh
##embali
##untu
On
##ee
Ins
##ASA
emas
Tak
##inggu
agama
program
2015
##urun
UM
Aku
ahli
##unjukkan
##hi
##agaimana
memas
##usnya
##uai
pak
Bunga
ind
ibu
penting
##UAN
##dia
akhir
##ayar
Perkhidmatan
ins
lama
##upan
kurang
##ET
bak
Kotak
##acam
##egawai
##ammad
jenis
##20
##vid
seg
maka
##kukan
IS
##isa
Beliau
mahu
##niagaan
##akin
##anggung
##ibat
tel
para
24
hadi
sp
##ejabat
##ci
Tidak
##ikir
##arna
Kom
##din
##eknologi
bahan
PEM
Shah
##enterian
pert
##duc
Kec
murid
Sen
laman
##ohonan
##uma
el
dij
juta
##angka
##osial
##se
jalan
##UARAT
##YUARAT
BIN
MESYUARAT
##angsaan
##NO
##epat
##iversiti
##ujud
##ith
pilihan
Hadi
##awan
PEL
##form
berkaitan
kajian
Alam
##titu
tapi
##asarkan
##enarai
Tahun
Apa
Rah
##asih
keh
sesuatu
##lukan
melakukan
##resi
##ultan
##erb
##iliki
##uba
sebab
Man
mah
##atian
Cara
##por
##adang
##umpur
##itan
##ihara
##IAN
25
##uri
berc
terdapat
##mar
##ry
##lakukan
##ilem
pendidikan
Harga
New
##ingkatkan
##uhi
##pek
21
Us
lap
that
##ular
##yakit
##hidupan
##egitu
##tikel
##perasi
##rop
##engar
##ikasi
penc
Laman
##ge
##isah
##aksi
diken
##kini
Berk
ingin
bahagian
supaya
##angkah
kecil
##akhir
kon
##atik
Kita
politik
dic
##ulang
##yataan
##ungkusan
malam
betul
tiada
##min
Pusat
##ahiran
##dana
raya
dilakukan
din
str
##IH
##enang
Pes
sedang
##ikal
tert
##ous
##sanakan
##osp
Jalan
##epan
KON
Lumpur
Senarai
##ARAN
100
awal
Go
Program
Johor
##anjut
##ld
Min
terbaik
##iks
##alas
Ben
Bon
##TI
mengikut
##antuan
pengh
berada
Memb
suka
datang
##yen
rendah
gol
memang
makanan
##asional
mencari
parti
##iba
ras
sebenar
##ill
##eti
Orang
22
sy
##ukar
##OK
badan
Bagi
##aku
sebanyak
Bin
##qu
sus
##endak
Tim
##ome
##uz
##tad
mampu
Dew
Ada
##elihara
keadaan
ex
Pengurusan
hak
kalau
##rom
##eal
masing
Muhammad
proses
##alian
##daf
##te
bila
Bi
##ubah
rasa
##impin
##lo
memberikan
ilmu
##land
Kelantan
##ungai
Dia
Hubungi
##ekal
BIL
##ospital
##jid
Co
##divid
menerima
lah
data
UN
##lasan
##ubahan
Kementerian
aktiviti
ik
menunjukkan
Kesihatan
##ham
US
isteri
##ekat
web
##esen
##angsung
##mb
##ikan
pan
##enti
##ilangan
minyak
kemudian
Mei
##ulit
Daerah
tindakan
TER
No
##ahw
##age
##UNG
hasil
##als
##LE
Video
UMNO
##ajar
Anak
##all
##ton
##awat
Hy
Rumah
Android
##ou
kamu
##empuan
selama
##ategori
Sej
##engganu
Ahli
Oleh
Mat
ur
Antara
dig
sun
Jawatan
komp
##oz
##lin
Mereka
Tempat
perkhidmatan
##lic
berjaya
##OS
Sultan
##ED
kehidupan
Tun
Ken
kat
##upa
##ert
keluarga
sejak
keluli
##uhkan
00
##anggungjawab
##inggal
cuk
diter
Dr
##ambut
tanah
bay
kembali
##sik
dibuat
##yarat
##pan
##ahui
buah
nilai
##apkan
ac
MAL
hal
##entera
##ne
000
keluar
##ji
pemer
##ajah
jumlah
RM
memer
##ha
ket
##AMA
Terengganu
Tinggi
##esa
##kamah
Sistem
penj
membawa
##anda
##wak
media
##amanya
Namun
##ura
pasti
ekonomi
##port
mul
Makan
##ANGAN
##ilayah
amat
agar
##tud
##oll
Perb
Wanita
Lap
kos
Perdana
Panduan
##IKAN
Nor
Menurut
ganti
##bil
Tanah
##autan
seluruh
KONE
AN
benar
Quran
Injap
keper
Motor
Sk
mis
Semua
##iranya
##eles
##USAN
##antar
##lalu
sed
##apai
macam
Syarikat
##UB
##luan
pet
tuj
##wangan
alam
Put
komun
##ss
mat
##adah
Perak
Ass
sumber
Im
with
##residen
##atihan
berg
##ains
biasa
23
Lemb
cerita
##rans
##okong
##dividu
terut
khus
##uhnya
menarik
##okok
imp
harus
##udaya
Besar
##likasi
##ans
Selain
##etah
26
##alon
beras
Bonus
begitu
usaha
##ungsi
##etahui
wang
##umi
Ik
Ro
Keselamatan
con
kumpulan
angg
sekitar
ayat
##oto
##IC
##lee
pekerja
bidang
##uasa
Pejabat
Kod
Ex
menyebabkan
##no
##caya
##ast
Catatan
##uddin
Kar
##cipta
Lo
Muslim
Em
##asatan
rakan
##ement
##ARI
gun
Ram
are
Terp
im
##sis
##aiz
##ex
Piec
Ros
2013
keputusan
Rakyat
##fi
##andangan
sosial
##ary
memiliki
Baru
jen
sampai
##DA
peringkat
Ele
bandar
##arikh
##ack
Pap
Fac
##aut
##sten
##ty
Car
Dewan
##ebook
##antung
##ullah
var
KER
Pah
##antai
waktu
##erta
Dasar
sub
##asilkan
2012
Bandar
Eng
Maklumat
pergi
##ational
##aud
sebarang
Li
Ju
SH
Jadi
belum
##elaka
sesuai
kuasa
##kah
Solat
##tadb
tempoh
##RAM
##limen
##isasi
##amal
mendapatkan
##unction
up
##rib
##erika
##ere
Raya
jelas
##entara
Pembungkusan
tahan
tiba
##esan
##adakan
perh
50
Su
##LIS
##ambahan
Port
##sus
lepas
Online
Intern
BAH
##ekanan
pengalaman
##erit
At
##dag
##SIA
Sub
did
##air
##elur
##utus
tangan
##tic
perniagaan
MALAY
Kur
##bangsa
##agaiman
##aktor
##agam
mew
kons
tahap
##andu
##ikum
Pela
Amerika
meningkatkan
gambar
Kampung
function
##intah
hubungan
industri
berj
daerah
penggunaan
ch
##apun
##ajaran
##ight
##KU
hendak
re
##jalanan
##eksi
##ema
Arab
##ist
##AC
##ril
pembelajaran
Kebangsaan
##ron
depan
Buk
##war
##gh
ib
walaupun
##oa
buku
Sal
Boleh
##adapan
berdasarkan
Mesin
Dar
##araan
Merc
2010
Kalau
Universiti
namun
##akap
##aid
##usaha
##eed
##INGK
Berita
KU
kela
Rasul
Jun
perempuan
##gas
MAJ
kenyataan
NEG
Lihat
##get
Tuan
##ener
##ekutu
Sara
##iv
##ork
Br
##ui
##amat
akaun
KEL
##tin
##sc
Sabah
##ancangan
##enda
##antaran
Hospital
Sungai
##eza
Raja
27
##EP
##antikan
Penc
semakin
Kedah
Kota
kalangan
##jaman
##tiasa
##irkan
Melaka
##eluarkan
##jian
##ikian
##embangan
##rip
pintu
##antik
kaki
Ang
Guru
Alat
##urkan
##yam
##andungan
##auh
##okongan
Najib
##unt
Str
##wat
##awal
##ie
Pembangunan
##ropah
##ox
##abit
##etap
##ips
Wh
keti
##yan
##ibatkan
perib
Pegawai
Nabi
##ric
##alaikum
Kanak
Assalam
Kos
##old
individu
terl
##amil
Eropah
##ampak
##ell
##bah
Sus
##ogle
co
Pet
langkah
##inasi
##anakala
##enaga
te
##eorang
40
##iksaan
##000
##jas
kaum
Terpelihara
##rahim
##50
ger
##OGRAM
penduduk
##arisan
##ink
Sing
##sa
jawatan
pemimpin
tetap
Hal
##ence
he
##dapati
PROGRAM
Permohonan
Ibu
##taran
bekas
minggu
pusat
##angun
##arian
MAJLIS
##ersi
##egang
Mul
Mac
##UD
Kaw
##eluruhan
pembangunan
##iman
projek
MALAYSIA
log
sik
Kerja
cuba
2011
##ukum
##ial
bertu
Cont
ciri
##opular
##ekutuan
##awi
##ko
##ayang
##alami
##own
pengguna
Facebook
memastikan
##dikit
198
pagi
suami
##ungsten
ditu
if
bermula
menyatakan
##aklee
Artikel
peratus
##006
##ite
31
bekalan
Ses
kemahiran
##ban
berikut
Nov
mengur
##ood
golongan
##eknik
prof
Presiden
kap
sedikit
Jenis
Sept
##aka
organ
##ebat
##okasi
##buran
##inar
##jasama
##akw
##ANAN
hitsM
tanda
dok
semp
##upayaan
sentiasa
menyediakan
umum
##ile
Pelanggan
diberikan
turun
28
##ampir
Bul
segala
##KAN
pemain
##elakang
##utih
not
de
##alahan
Ma
##lass
##ektr
saja
lak
Hakcipta
peribadi
bilik
Pahang
##aip
Taman
Yus
##aluan
##ait
aut
polis
Parlimen
##ASI
lanjut
El
##iling
Asia
Bay
##ahagian
##dapatan
Com
AD
Timur
semalam
##orong
##ualaikum
kan
kaedah
##sip
Temp
Sarawak
##are
India
##of
##jah
Sec
##inggalkan
EM
##kualiti
##ich
April
##RI
seseorang
kampung
##jin
##ainan
Buku
Dunia
saat
Tel
##agaimanapun
awam
##angga
keperluan
kesan
Abu
Prof
##AKL
Mahkamah
jangan
##ingkatan
Comp
Ibrahim
Hid
##evel
from
setelah
##ubatan
##ancang
##ahami
je
Tiada
##ct
dahulu
Jangan
empat
kasih
penuh
##ubung
Kertas
##iew
Bag
##lob
##tih
bangsa
Ali
filem
##alak
##uktur
warga
Lebih
##AND
##ck
langsung
Ing
Google
suatu
##eper
For
##SI
##apak
Sri
##ulisan
##ANT
Mohamad
##aksa
tengah
Mur
##usia
JAW
PENGUR
bu
Nama
##AYA
Polis
##ONG
##elidikan
kertas
##lange
##atuan
##udukan
anggota
berf
Elev
##isan
##epi
video
##gos
Sun
Jumlah
Af
Dir
Agama
bas
NEGERI
##entukan
##iza
Lelaki
##itamin
kitab
Masa
Mod
##alang
##sp
##fo
##ayu
Elevator
kena
menjadikan
Perh
penyakit
Terkini
##EB
##rid
Pend
peluang
pat
Nur
Pinang
bantuan
##usim
int
dikenali
##sif
selain
Tapi
beli
pe
menjalan
##sanaan
bagaimana
Pengarah
##olong
Assalamualaikum
Ek
AP
##engkap
warna
##uny
##bar
##rat
##adual
pembekal
##atur
pasukan
rem
##etahuan
##ujuk
AM
arah
Persekutuan
bern
##tadbiran
dasar
29
MEL
##adapi
Rasulullah
mus
##avig
Aziz
Pilihan
terakhir
berbanding
##ayat
Jep
bekerja
##apaian
##athir
Cina
Umno
##co
##adis
pengajaran
resp
##uit
Selamat
PEMB
##uter
##ALAM
sal
aj
##erti
##men
##uf
##AIN
Selepas
main
##ulai
menulis
##efon
was
Bank
tim
##ahun
kulit
##ech
umat
##angkat
##abar
mati
Ked
##inaan
balik
##encana
PEND
calon
##tions
##ilion
##ning
Ogos
Teknologi
contoh
Hadiah
##edes
muda
##akwa
##alator
AB
##ayah
##UKAN
ob
Val
Semb
##yp
tem
Mel
##ue
##andard
pelak
mencapai
##angkutan
##ams
##try
Sebagai
mar
##UHAI
Haji
##ect
Sup
comp
UP
barang
Raz
Ok
##eluar
cukup
Banyak
##olak
Pam
##impinan
01
##elang
membaca
berita
##ole
mengand
##ikiran
##utang
##her
##gn
Feb
##ents
##asaan
##IB
pandangan
khas
panjang
##dil
kandungan
##IP
##alatan
Dato
perjalanan
##ersih
##juan
Masjid
siasatan
ikan
##aham
##ower
sebenarnya
Nasional
bapa
lemb
PENGURUSAN
Makanan
Mahathir
bebas
berbeza
##istik
berl
##adem
##unuh
mengatakan
soalan
##udahan
##cal
##ekatan
mesti
lima
melibatkan
##titusi
Jer
##OT
##erusi
##anyakan
##enderaan
Berh
##UMP
tujuan
Komun
keseluruhan
##ALA
##ewa
##akkan
Nik
Bagaimana
##enal
Sukan
Ac
ma
Le
sakit
tempatan
DAP
##zah
dilihat
bur
sepanjang
agak
##ancis
35
melak
it
Sw
sesi
##TUK
##hidmat
surat
IP
eks
Badan
Shaklee
perubahan
##abat
Jepun
##timedia
SEL
dag
##uanya
posi
op
Satu
##uch
Bersama
memerlukan
Grader
##anggap
##jadian
##ublic
asal
Bar
##EJ
##umen
Has
rep
##awaran
##tia
situ
baharu
##isme
Apakah
Utama
September
bisa
Con
##imbalan
Apabila
kesihatan
Janu
##orpor
Disember
kelas
##ase
##30
##ave
bag
belajar
##ALAN
Bukan
Singap
PERTAN
Hi
asas
Kemas
Penj
##ild
##unca
Pener
YANG
Portal
##riv
Gambar
Tw
##asihat
Meny
##uki
teknologi
##ATA
##adu
##aturan
Selatan
Media
terkini
##umpang
Pemain
kej
##bur
demikian
lay
huj
tertentu
##imum
Sebelum
##angi
bakal
kuat
##les
laut
Gh
##aedah
Batu
##vic
Benz
##abung
akibat
naik
mengin
Sains
kilang
##estasi
Sila
ing
hampir
tungg
Azmi
Abdullah
##art
##impan
laporan
es
dulu
Fi
asing
##gu
wid
berkualiti
##andang
menghasilkan
has
##impi
cer
##10
##68
Mercedes
Barat
aspek
##ance
Ir
##ory
Mudah
ide
terlalu
##amaan
##OD
Awam
zaman
##EMB
##tanian
##yuar
dikatakan
##dagangan
##ADA
##rin
Ph
belakang
##AF
jaw
##andingan
##yuarat
Bukit
Eks
##IDIKAN
pengetahuan
##eliling
##idur
##atas
Semasa
TEK
dilak
##ide
##entingan
bilion
Kajian
Pan
##ataan
##AGI
##gak
##inda
Rep
##AHAN
Be
Aut
sering
##daftar
##rit
Komp
2009
sejarah
##GA
Maz
##lay
AK
##lish
pelanggan
##antas
##ais
Mo
Ketika
terj
tadi
It
##urus
##asaran
Bulan
##buhan
##ebar
Kepada
##eraan
Sch
##jalankan
##INGKAT
##ahaya
Undang
sokongan
Op
tambahan
##etapkan
##ariah
##ock
##ainya
PENDIDIKAN
BERS
kau
##res
##heel
##alia
Terbaik
##aftar
##out
kre
hi
Sya
##END
wilayah
rah
berat
##asanya
##ajikan
Pert
##ASAN
##ifat
##aa
##rol
##mah
##uger
03
lagu
cat
Wan
lihat
##ree
mengalami
melaksanakan
##elan
##ulkan
##ame
buk
##isiko
##adisi
Fir
Ramadan
##ikh
pener
##olehkan
##ations
##OP
##enai
selamat
Kumpulan
Buat
Adakah
##ken
keselamatan
Jen
Dic
mangsa
maj
Lembaga
Post
Kata
amalan
Penggunaan
##ulihan
##udio
sebahagian
jauh
Bahan
syarat
##erang
gener
pinjaman
Bila
cinta
Lagu
##UP
##emah
hitsMoh
##undi
##ish
minimum
kedudukan
##yakan
kadar
##UA
pam
panas
angk
faktor
##urn
ditem
pegawai
Bu
seter
##ayaan
majlis
bar
dilaksanakan
##uck
Borang
Wheel
##adangan
Tips
pengeluar
kewangan
SP
##geris
##ober
##ekod
##oi
Loader
manakala
disebabkan
sekiranya
##ght
karat
##bih
disediakan
latihan
bola
##asta
##elaskan
Wik
bertanggungjawab
##eria
##iah
kisah
murah
Sumber
Januari
gag
Itu
##ahwin
##arap
PENY
disi
Dua
Kecil
##audara
November
##ENT
kal
##gian
Peri
##row
Kab
memilih
Walaupun
60
kont
USD
Bak
##alin
##faat
tenaga
sila
kejadian
2020
Vitamin
##enuhi
bunga
Teta
sala
Paparan
##anta
menginap
dekat
##ugerah
Piagam
##osa
UNTUK
JAWATAN
##tain
##andaran
Timbalan
##jak
seterusnya
Vol
197
##angkap
##sir
maklum
##law
Singapura
45
Te
me
##enarkan
Perancis
Il
terlibat
##dara
##unci
pengurusan
cepat
Perl
Emas
##mail
lengkap
##ester
Re
nya
Berc
##lastik
inter
##olusi
Inggeris
##erv
##aruh
##gera
##unjuk
Tetapi
##ilin
##24
tub
Pengh
pelaburan
##usah
solat
Soalan
##indak
##sur
Log
terd
EMAS
Lim
dijalankan
Bas
##ki
Ger
segi
trans
##60
##utup
bank
##acaan
Aktiviti
tekanan
Sejarah
##AJARAN
darah
##AKAN
##arut
##sian
MENG
##sid
Flange
##aduan
Ekonomi
unit
##tn
membeli
All
Home
rela
Jum
khusus
##fa
PERINGKAT
Pakatan
PAN
Perc
perl
terutamanya
##akai
Secara
Stat
##LAH
Salam
hadapan
Penyakit
##21
##eperiksaan
2008
Tuhan
Ni
terima
rawatan
budaya
##ahaman
pasaran
##dalam
##ustr
##ental
##gerak
Gun
semb
##99
##ubis
##eluaran
Ya
baju
Masalah
##bon
Industri
Pal
sup
selalu
##dit
menerusi
Anwar
##imiza
Qamal
##ombor
##Eimiza
hitsEimiza
##elar
muka
Pelajar
Islamic
##etua
##anjung
Kosong
##orporat
telefon
Keupayaan
Pos
TEKN
##unyi
##mosi
##pun
##urang
navig
##atat
Lama
hitsMohd
Waktu
##ulum
Ark
##IHAN
jenama
##ren
##able
##URU
bakul
nanti
lakukan
Pakaian
alat
Do
##YA
putih
##sud
permohonan
##emer
KEJ
##esign
Kela
##ugh
##rik
Kategori
##ern
konsep
kotak
Mad
##ahwinan
##inat
diambil
##orld
api
##aliknya
Laporan
##wal
Web
talian
peranan
##ongk
##ekalkan
##tab
##ipedia
Sah
KUALA
##angani
Bek
kad
baca
operasi
##URAN
Sementara
Pesanan
Kon
wujud
##za
guna
##etur
sunting
Jadual
Malay
##itkan
SUHAI
##ENGK
##arm
Seg
stud
elektr
Tengah
ST
milik
Baju
tinggal
Jaya
##ollow
Wikipedia
##ey
##ITI
kualiti
##ilaian
sukar
AR
Okt
##ium
Fat
Lab
##uci
##amin
IC
membolehkan
no
##opy
##ampaikan
##bi
eng
menjalankan
To
sedia
##anggil
##formasi
##ulakan
li
perkembangan
##nes
##ategi
Akta
##ther
his
Pautan
09
##antau
tepat
##jar
Mits
##vis
##ulasi
##anyaan
bayi
musim
Ibn
hilang
pendapatan
hitam
##ancongan
##ldoz
##oth
tugas
##ubishi
Nak
ok
diadakan
##aib
petang
GURU
##porkan
online
Baca
Qur
##EMP
##ANA
##elesaikan
Seorang
Mitsubishi
akhirnya
Ubat
Bulldoz
##umkan
karena
Hanya
pos
II
##ertai
teg
Bri
##abaran
Rasmi
##YAT
##esu
BAGI
Khal
##taz
Akhir
Blogger
Kek
sepen
Esc
Aman
Perlu
##ikuti
Hus
kematian
##22
lokasi
ketiga
KEP
##itter
##incangan
kursus
Kap
##ruari
##edar
ulasan
##hbar
respon
isi
Ismail
##ull
terdiri
##ph
kenderaan
##endali
##etengah
Pieces
menang
memahami
##fy
Melalui
Arkib
SEB
percuma
ref
Piece
Kawasan
Dapat
May
Bantuan
##utnya
##ikirkan
##way
dila
##idah
Ham
kepentingan
Perniagaan
##lama
Pekerja
kemas
##tive
##asakan
##ukur
Kisah
berhubung
perhatian
Daripada
segera
Tungsten
##anji
Seh
diperlukan
##jau
BENGK
Tok
##illa
go
sifat
Setiap
Berkaitan
merah
Julai
perkataan
##spot
##asis
Bo
Siti
##intang
enjin
aplikasi
Terbaru
Atas
ruang
Rawatan
##irik
kepala
##eturn
post
menteri
##aiwan
Luar
terpaksa
##aq
kedai
Pertu
Band
33
wak
Khas
BENGKEL
meminta
pautan
Imam
Darul
Filem
Rahsia
mengetahui
tarikh
putus
##ven
bahwa
PERAK
##jil
app
##ihatan
Contoh
##atuh
Col
Produc
lif
##untut
pul
##INGAN
##AKLUM
bat
terutama
hab
Isu
Kini
##ult
kebanyakan
##agen
##kenalkan
##roup
Kal
##MI
ro
##ATI
##evelop
##reat
menambah
##emahan
Kam
balas
meningkat
masjid
ny
##EW
##tusan
AG
gagal
Februari
##operasi
Valve
sikap
Bulldozer
##aksud
##ujudkan
##ize
return
seri
antarabangsa
Wilayah
Muat
Bh
minta
##awarkan
##jayaan
##kand
Kewangan
mengandungi
##emen
##arch
blogspot
kerjasama
##amadhan
KOK
##insip
##ediaan
rambut
tidur
##tera
##empatan
Sebut
##40
##ments
ubat
menyokong
Mark
##urangan
##led
##LAM
36
seramai
##lobal
nik
DALAM
TAN
##so
##oleksi
top
AZ
Oktober
Beb
seni
ayah
##oman
hadir
##DI
war
##rasi
##etw
##ress
Sl
Id
rasmi
Dem
##onton
##ley
mengajar
laluan
Terdapat
tentera
Jawatankuasa
##KUASA
berusia
##luk
##olog
demi
##ANGG
Pengerusi
##etuju
jugak
Perkara
universiti
gaya
mengurangkan
minit
sw
artikel
##daftaran
Tanpa
Peta
malah
sambil
Rahman
##ny
##ings
ujian
panduan
##uali
Mari
tok
Internet
saudara
Trans
Dim
##jaan
pekerjaan
Popular
Antarabangsa
ambil
khususnya
SM
##indahan
BAHASA
Maka
navigation
##oga
berter
##ikulum
sebag
##akarta
keg
##engok
Latihan
##25
their
do
Sebab
model
hukum
##app
lahir
kebangsaan
##cayai
##atar
Tem
komen
##oller
Tambah
##ajet
##16
catatan
Cer
Klik
percaya
pertu
##ype
Hidup
dar
pengg
gel
sektor
##EJAB
Jam
##INI
kehilangan
##tanah
##ecah
Escalator
##enaran
##ash
kawan
##indungan
alih
kekal
##su
Pertama
Umum
membentuk
sebagainya
Berb
##lawanan
all
##adanya
siapa
duduk
Ip
##aus
mengeluarkan
duit
##ducation
Setia
##ANTAN
memenuhi
Bola
Kelu
meter
pelajaran
##omatik
ON
wat
##eel
##rivasi
Utara
intern
This
##emuka
Mon
##ukakan
##hana
salafy
08
cantik
sta
##uster
##lor
##etakkan
Setelah
##iter
lo
##ca
Kr
##let
Tarikh
##OHD
##umbangan
Pelan
jabatan
##ayaran
Terma
##untukan
##LIN
pasangan
37
dianggap
Sed
kerusi
Muk
over
##ism
##inggit
##akitangan
##wagen
Lain
##yang
Volks
terbabit
##tah
##etik
##brid
ianya
JAWATANKUASA
What
##awang
soal
pakaian
##sion
Pengguna
Volkswagen
##mun
##alsu
pop
##isk
diterima
##TER
terbuka
##embang
kategori
##vices
Katanya
pendapat
mesin
mengk
Pengajian
MAKLUM
membina
##ras
##ibu
kapal
##EC
##esional
Dik
Surat
##alal
tun
tubuh
##eran
##utiran
menjej
##eld
##abah
siap
Mengh
##jektif
##emak
Penerangan
##PA
hadiah
Sekiranya
diam
terjadi
kri
perang
International
berjalan
Sc
tud
menurut
mengaku
##uam
ingat
Kedua
mendapati
pelaksanaan
##akwah
pap
bertem
er
##igi
##oalan
Class
##impunan
Isra
pembinaan
##ten
samb
##sh
Sembilan
Kej
##ace
Roller
Langk
Maj
##tian
##ber
##amakan
KEM
##ely
##AMAT
Menarik
Barang
Pakej
##hh
tradisi
Pintu
sana
##HID
Fak
59
Berd
institusi
DUN
dirinya
Hybrid
KELANTAN
penulis
nasi
ISLAM
gr
##jadikan
batu
##imia
KOM
daya
pengan
perasaan
positif
Utusan
##uld
05
kawalan
##ezaan
##ony
kayu
##angunkan
##ahawan
##mati
##amkan
pur
remaja
##ungguhnya
content
beg
##ahanan
berkesan
bangunan
55
##ona
nampak
Ur
##aiki
Hyun
##enalan
##empen
Siapa
kemudahan
bayaran
Jakarta
##alisis
##edahan
Roslan
##ukul
ben
Abd
say
ala
##unjung
##ire
biasanya
Tur
##OHANAN
KEJOHANAN
menghar
Susu
Ramadhan
dita
##ale
perbu
sedar
Minyak
Twitter
39
tawaran
##uji
##inkan
widget
##EO
hendaklah
Cinta
which
pentadbiran
Razak
##sel
United
47
Keputusan
##AZ
sepenuhnya
prot
korang
##tual
rama
ut
Kenapa
Austr
Hyundai
##araf
modal
KES
Sar
mengadakan
Jom
inf
##estinasi
##riti
email
perp
##oid
have
BEL
Che
##day
Edi
38
##itaran
##illah
Wah
Kemahiran
##ese
48
dew
##IZ
##cur
membuka
generasi
cakap
##arikan
##stem
##hati
gadis
naf
##ool
##tal
Muda
ata
##TM
Para
fi
90
Met
##yyah
Copy
##lace
form
##AMB
OT
berharap
Perubatan
Hasil
kesi
Fer
Nas
Bur
jar
##emas
setahun
berasal
##ersihan
menawarkan
##ancarkan
paip
LUMP
Kas
32
TEKNIK
##uni
##fit
Inilah
LUMPUR
##AWAH
KOKO
harta
tumb
Sol
##otong
Dij
##uncul
Data
Ipoh
##son
##uzik
bumi
pemilik
Tali
##ign
Jumaat
permainan
Berikut
##jing
Land
sib
agensi
##ITA
Zain
Institu
kab
reka
##orea
Salah
can
my
amp
peserta
berw
Penyelidikan
enam
simp
##right
##angkang
##ongsian
##esai
plastik
##AMAN
Exp
sementara
##ITIA
pakai
Mata
Super
PANITIA
##umahan
##azim
##trak
Kad
##ukai
NO
##ba
##ice
Israel
##rav
plat
##yid
Iklan
##mbuhan
##ingkas
dijual
##orn
menghadapi
Info
##ailand
sihat
##intaan
hotel
sc
terc
##endiri
##EJABAT
##cik
apakah
##AU
pu
##enangan
##edaran
asa
terkenal
perdagangan
mendengar
##ode
##ext
Email
idea
Cari
Perubahan
PEJABAT
##ublik
##asat
pertanyaan
Rendah
Pek
Mala
didapati
Rem
bimb
70
##tiraf
KL
##adio
Public
##umumkan
Pat
Dip
berubah
Beg
bagaimanapun
pengajian
##alakkan
pejabat
tengok
dijadikan
Mungkin
Korporat
##ights
menjelaskan
fir
##ungguh
##janj
##ade
##amatan
PERK
Thailand
keter
menjaga
Warga
senang
sahabat
Pengangkutan
##rama
Imp
##ARU
Zul
##toran
PRU
PEG
##18
##leb
##janjian
43
SAW
menjawab
Tender
pus
bertindak
ditetapkan
##AWAI
bergantung
##iness
meninggal
##itas
Piala
##earning
menyertai
##uhu
nombor
Daftar
Anugerah
##ST
aktif
utara
diperoleh
tanggungjawab
##tro
##ture
uc
##IRAN
##oka
Korea
PERS
##ted
##kal
PELAJARAN
pokok
sew
##adat
##umpul
PP
##indungi
##ajaya
ayam
##ustom
##utian
##entian
bertujuan
MATA
mulai
dap
bot
SET
##tiwa
##gle
Ai
muncul
mo
##elamat
##lus
RAK
PENYEL
cadangan
80
le
terg
He
Gu
merujuk
Gold
Eh
04
Masyarakat
Bercuti
##MA
##lamat
wajib
ringgit
life
met
##ujukan
##lack
##enting
##iktiraf
ataupun
Minggu
##ret
kesalahan
##ENGAH
Manusia
meneg
udara
BL
##tori
##load
risiko
Doa
44
##rika
Haf
Persatuan
##izikal
##odoh
cukai
##lex
kanan
##ejala
##ukaan
cari
##sk
Rab
##taranya
dikeluarkan
##ument
##alk
exp
tuan
##olehan
##ahagi
persek
##akaran
sebaliknya
def
SO
##umpa
##ategory
Baik
##akna
Kons
adik
Australia
Gol
Kursus
##ancar
pulak
zakar
##echn
will
Mu
penerb
PUS
berkuasa
##obile
PEGAWAI
DAT
06
##ajuk
MAS
tua
Foto
Ustaz
##oriti
##ajuan
##ative
samping
##onda
##istan
ikut
ya
Resepi
##GER
disebut
pi
##ahulu
senar
##etakan
saiz
buruk
##jana
sedi
Keluarga
##12
##uhanjaya
SY
##rajaya
2007
kejayaan
##007
status
them
##agn
196
##cayaan
pulang
##bo
##elian
its
Copyright
sepat
Tog
Alor
##AKS
High
popular
Standard
ketua
jer
HAR
Diper
susu
##ii
##eki
palsu
peruntukan
saw
meninggalkan
##indah
##syen
Projek
Kemudian
beri
Sa
34
##oint
pendekatan
Sebenar
500
##hen
Iran
Bat
Malah
dipercayai
##emukakan
RAKYAT
Mengenai
##har
bermain
bec
sar
dilan
46
##badi
##IV
Pihak
yakin
Main
meletakkan
berusaha
sud
Cr
##araya
karya
Kris
##ademik
##oin
aman
other
Akaun
Tindakan
Sta
Pe
fungsi
faham
pakar
Bilik
##iru
##oni
dana
menyebut
Kadar
kebenaran
Ujian
Tentang
Harapan
##alnya
##awangan
siri
Pertanian
prinsip
perkahwinan
BAWAH
teknik
stat
KEB
Dib
##isnes
peralatan
##erved
tempahan
ditemui
Parti
sukan
##ick
##oo
##omen
##opi
##udak
##KM
Yusof
Up
But
##ograf
Fil
sayang
Penjagaan
##udin
Organ
motor
pemulihan
195
Putrajaya
skip
Afrika
berkongsi
menyelesaikan
tanya
Samp
Jerman
##onik
id
takut
OTIS
##intar
Kan
jatuh
##okus
##DINGAN
##elanjaan
Setiausaha
##AMP
ji
ajaran
##002
kota
KO
Bab
fac
##eritakan
PERTANDINGAN
Roy
##embagaan
perbuatan
prestasi
##siran
Fr
##lebihan
Angk
##gai
semangat
Laut
Zah
tali
##ose
Otis
DARI
Syed
sec
##yatakan
lupa
mengelak
##omun
##emis
##unit
##unggu
Komuniti
Lirik
dijangka
penyelidikan
kn
Lagi
Multimedia
Ge
##usiness
##elahirkan
sya
Kat
Polisi
dibina
Ameri
suara
peningkatan
##aunter
senarai
##akwaan
tump
##antal
##edahkan
Cik
Syarat
##umbang
AW
Sosial
anti
MENENGAH
organisasi
Nya
bercuti
##udahkan
Ghaz
Maha
##ADI
bukti
##orban
##omunikasi
##uth
##ekaan
pemikiran
##juangan
perubatan
versi
MAH
Suruhanjaya
tentu
##ukup
02
hebat
##evelopment
My
##ingat
##raya
##atasi
##ble
undi
pakej
penghantaran
##uangan
mengenal
Ramai
serangan
##19
Isteri
pemerintah
Fungsi
Products
Atom
bergerak
keku
##uga
Universi
sepatutnya
##upp
##ejut
ditahan
GOL
Jualan
Cipta
##ology
##LI
99
get
maksud
peraturan
Langgan
emp
Amalan
Pelajaran
##cel
timb
07
##cep
Irine
tau
terbesar
##aparkan
strategi
bermakna
isti
CO
##tup
Bagaimanapun
dibawa
sebelah
dagangan
##alat
sains
malaysia
Follow
##angkitan
##alanya
##HE
##roses
##enan
##PAN
Mesyuarat
##rif
Ob
Paling
Hab
Ta
##abungan
##tinya
##indler
##kuasaan
Schindler
ko
##elasan
##akanan
##adangkan
ulama
bermaksud
Perp
Seminar
English
internet
Bil
sekadar
Ri
tunggal
##eral
##syar
##esel
##angnya
##osit
##istiwa
bersetuju
##afah
terkemuka
Menc
kadang
pesakit
##IF
IB
##awar
lang
sat
Book
menem
##ical
##kin
link
##olej
##earch
Pencapaian
binti
berla
##AJAAN
Kaedah
##utera
jual
##13
##ria
kas
Pengg
##asiswa
##ner
jawapan
World
kelihatan
tungsten
##incangkan
bab
##ormat
##usteru
##sed
##abitkan
##leks
akses
TEKNIKAL
kah
Simp
##uatan
##ungkinan
Perlis
puasa
barat
AH
berasaskan
struktur
we
standard
##enangi
kak
##arta
Sin
Kelas
##iburan
##fer
##osakan
membayar
menghantar
KUR
Peralatan
berterusan
##lahan
menyer
Toggle
sin
##RA
urusan
BOL
Menengah
kekuatan
##erk
Walau
##ecial
memulakan
2005
PAR
Terbang
##ENDAH
##cess
benda
Privasi
##15
Hati
##til
Dok
##ited
Power
pelarut
Surah
HARI
##ebihi
umur
Moham
##vi
perbincangan
pengeluaran
Suami
Lapangan
selesai
##erd
BERSAMA
##elesaian
luas
##adilan
Pelak
##AIK
Liga
tulisan
memperoleh
##intahan
##harga
##anser
##jen
Sport
##aklum
##tana
haram
Seperti
sumbangan
##RM
melahirkan
Toy
menolak
out
Dit
##sor
Dicatat
KH
Institut
##entangan
sol
##cial
responden
Sebutharga
dikenakan
##sch
Seni
profesional
##alog
pasal
swasta
cuma
##TERI
Lilin
komuniti
Sain
klik
Int
Roll
layak
##eritahu
menyampaikan
year
were
##agar
br
Menggunakan
San
##anyi
##imah
##43
##airan
PK
##otensi
Palest
pengundi
##hy
Direk
cipta
KERAJAAN
menik
persoalan
##untungan
multimedia
Maklum
Martin
elektrik
Bern
teach
Statistik
sejuk
##tudi
wakil
gaji
mahkamah
mewujudkan
cuti
item
##tish
##aria
Sau
seunit
##industri
Ilmu
Jaw
##amer
punca
##iku
Ford
melebihi
##raul
##ambilan
reg
##amba
misteri
Berdasarkan
##ould
##AJA
android
usia
raja
1M
dif
kenapa
##26
##ampiran
berpen
borang
##INGG
acara
##kau
##reen
memohon
##LINE
##izi
dokumen
##endalikan
des
##aksikan
Ghazali
##uruf
Wang
Fin
Turun
##wi
keras
Lat
##inapan
Mal
##go
aliran
##onstr
##oli
##ukuman
La
Akan
css
##ARAH
##esir
mimpi
##tikal
Dapatkan
Pasir
##sy
##amalkan
##untry
Education
kongsi
##daan
##lok
##ompok
situasi
##ulat
##ces
dibenarkan
had
##IRI
##SA
2006
Hotels
temb
##ery
Ayam
##afian
Pelancongan
##ause
Hakim
##emaah
tapak
##ket
terbang
berlangsung
pre
audio
Fre
Pentadbiran
harian
##emerlang
Terima
sibuk
Nilai
##mal
bersih
Politik
doktor
membabitkan
utk
Design
PUSAT
##industrian
maaf
Semula
TANAH
57
##emua
Republik
##egah
##engaruhi
Lori
port
Pekerjaan
##irah
##JA
Me
Pergi
jualan
punya
##afsir
##umur
kecuali
TR
##wah
peg
Pemuda
##syarah
##azah
Din
sungai
pingg
kerap
menentukan
you
##ety
##TU
what
barangan
bukanlah
Khidmat
##vin
##urga
teks
##itung
Peperiksaan
but
##onth
meneruskan
pencapaian
Mis
Tanda
Berm
##untutan
kew
Bayi
##sifat
##gerakan
##LEE
unsur
mil
one
Penghantaran
Tentera
##rim
##umuman
angin
##80
watak
##ucing
cahaya
Pemer
Mi
##zi
Ed
ICT
Promosi
sesiapa
##ainkan
##icara
##14
##urat
##ealth
Rek
##ancong
BUL
1997
##rome
How
##hamdul
##ampur
jangka
##In
Services
Operasi
pulau
harap
pemandu
Eur
wajah
Cent
impian
Teknik
EN
##ouse
Peribadi
Far
pukul
##urna
Moz
Harian
maut
hospital
53
rata
##ral
His
##23
##be
##uktikan
bertanya
De
##angguan
##ikutan
Merah
Bakar
Kerana
bilangan
##ike
sehari
rec
DENG
mempert
##orak
##uju
##lop
British
OR
Tiga
##asiat
bertemu
##elengg
menyimpan
##ihkan
75
##ulusan
hutang
rasuah
##anggilan
You
RENDAH
mengikuti
##AYU
##alsafah
##ambung
Sebenarnya
Zakat
##EI
kegi
automatik
cabaran
also
##kh
arahan
Aidil
Komen
komputer
##ravel
Vi
##jam
itulah
perlawanan
Item
Teng
KP
MU
BN
perbezaan
Terlalu
##pir
Mazda
tokoh
##erahkan
SHAH
##erg
##aklumkan
##jakan
##ength
##IMAT
##site
##dangan
minat
pemerintahan
inc
Ay
Tas
bersifat
merangk
##eligi
Pembekal
##tra
INI
berbagai
Bad
##linik
KAD
##ka
dipilih
ABD
Justeru
inov
##OC
Sudah
Kit
pembangkang
org
hutan
gas
Hu
manfaat
ringkas
##oklat
##ulas
##onen
##ering
ujar
##iaga
##utuskan
sch
gula
##ambaran
Barisan
Profil
54
saham
penulisan
seder
##ekah
Parts
Ulasan
menya
hartanah
haiwan
pembayaran
teman
##cord
Permainan
selesa
Tekanan
##bum
##utif
PERC
##eliti
diketahui
Aplikasi
fak
view
need
vir
sepak
menimb
fizikal
Toyota
Pengalaman
Sil
Mesir
Nasi
sidang
kerosakan
BLOG
fit
Berhad
permintaan
moden
berta
dilantik
##titi
Penafian
terlebih
tujuh
Iz
Pantai
Terh
Dah
term
wah
selu
doa
dek
##ustak
Leb
##fah
sisi
terbaru
ketu
Keluli
56
pesawat
matlamat
##ury
Firef
size
berfikir
##usun
Kesan
didakwa
King
desa
##NAN
her
##een
Kulit
2004
global
##ading
kebaikan
dep
Lesen
abad
##tai
##tukar
Semen
more
kurangnya
bawa
EK
##dak
##aten
doc
Proses
sederhana
COM
##ALI
serius
mandi
95
ALAM
Ciri
PUB
besi
DENGAN
Vir
##anggup
bintang
##esyen
inv
##ewaan
##elajari
Pengan
jenayah
##AKA
2001
kosong
they
##17
##tri
##ampus
Manakala
Audio
##acara
##angkaian
##ated
SUL
University
jah
pengangkutan
Syariah
Mohamed
dihasilkan
bon
##anyol
Siri
Pinjaman
semata
Firefox
SU
##tional
##adiran
sempat
Said
sl
##TAR
##MAN
Anti
alasan
##esis
pembungkusan
Sijil
insan
menentang
##UNAN
Adam
##ubang
##aras
Cre
PUT
JAB
sedangkan
new
akhbar
jawab
asli
Asas
kaya
muslim
lemah
##anjir
Remaja
##ertaan
Koleksi
berper
Mana
berhenti
##xy
##tm
##ampil
TAKL
##andat
az
##MAD
Jul
Visi
sebaik
gem
Asli
indah
##ambarkan
API
Langkah
Saf
##isyen
##RE
TAKLIMAT
Kawalan
Pekeliling
Company
kepimpinan
##egahan
mendakwa
wa
##ANGK
##ampuan
Dig
duk
She
adakah
Palestin
Kemaskini
janji
Black
sebagaimana
58
##uluh
##tereo
67
Road
##uruteraan
49
##ope
Gala
halaman
##erian
learning
hukuman
mengekalkan
##didik
gu
jiwa
MOHD
##ahankan
MENTERI
##sim
Hantar
##fitri
kemalangan
Pesakit
hujan
Siasatan
##HIDM
65
Pendaftaran
Kuasa
##inet
lu
##etus
Audi
Halaman
Bandaraya
##yakinan
Gal
ye
##ografi
Inf
Saint
Cap
karbon
Posted
##utar
2000
merasa
##ohanan
pertumbuhan
perbandaran
Grand
Of
bernilai
##ners
tertinggi
replace
mesyuarat
Steel
kering
mengangkat
Cerita
##odi
Malam
timbul
Fel
##ondon
semuanya
Warna
Wak
tambah
JABATAN
Lazim
##anies
et
##uble
kegiatan
mengawal
##ubuhan
Berp
Keh
Kelab
pertanian
Glob
Kong
ONLINE
300
Hassan
minum
salam
off
##upaten
App
berkembang
##rok
##ustakaan
##eknikal
resolusi
menjual
##eikh
##hlak
Murid
##ajak
sensi
##CA
##raulik
SUKAN
sedih
##uliah
##bir
tik
Honda
MELAYU
##YAAN
memudahkan
nasihat
terma
ribu
##ILAN
1995
Saudi
##antang
PERTANYAAN
##buhkan
mengubah
##ORM
##que
Kualiti
berfungsi
Whats
Kongsi
maju
##jata
Bharu
Gadis
PU
Destinasi
##elap
konteks
##otosi
##tant
hubungi
CH
Plat
##ound
aset
##ulauan
persekitaran
che
##emasan
perjuangan
Semp
##ronic
Americ
##otosikal
##fikasi
sudut
##tory
##ambang
pantai
Kali
##35
##AINAL
KOTA
##usahaan
antaranya
##ugian
susah
##adiri
dalaman
hujung
kenc
Han
skru
Stesen
Roh
tumpuan
Keti
time
Rom
Red
Mor
Naz
penyelesaian
Cl
belah
##ass
who
Hai
sempena
Direktori
##klu
Tioman
dibuka
Rev
##ormal
menangani
keuntungan
##ategik
##ange
percutian
London
Sepanyol
inisi
##chi
##edan
##INGKATAN
bayar
dewasa
##gen
POL
perlindungan
PH
Search
saluran
angkat
under
menikmati
Hukum
ADNAN
Diri
##anggu
pihaknya
##ilangkan
baginda
Keretapi
pembelian
rahsia
##aih
SUHAIMI
##lands
manis
kebi
IK
##umip
Zulk
##iring
Memang
mulut
huruf
meluas
Keg
kakitangan
dilaporkan
memikirkan
##hai
##iksa
##untuk
Bahru
iklan
##ekutif
##TR
Peraturan
uk
rak
Mach
##ulti
hamba
lancar
teruk
Mew
Real
##to
Ket
foto
##buk
CAT
Gajah
##tivasi
##utamaan
Macam
Sekarang
pesanan
mahupun
##hip
##metik
Gunung
##ows
##jazah
cur
memberitahu
Wat
ri
kecamatan
Hitam
bahkan
Cukai
Penilaian
masak
##uasai
SUHAIDI
Aston
hitsAINAL
mekan
Pad
Je
##IMP
bernama
BUK
##antalum
sempurna
##GAN
##anggar
dadah
Lib
##hamdulillah
GOLD
Sokongan
Ayat
kimia
##ganya
rev
sejumlah
berwarna
inisiatif
##sedur
Ev
Penerb
Ferr
##nam
Gen
##SP
##ulaan
88
##ANC
katakan
jur
##engkel
##uta
islam
##omes
Chrome
##LIC
194
##isau
sebulan
seng
Selasa
Mag
##els
add
##aikkan
##sal
Bacaan
Sum
##ebasan
##esuaikan
comments
sasaran
##amar
Beli
Talian
Penulis
valu
Bersatu
##amis
Perbandaran
rancang
Mercury
pendek
Ala
##dah
Belum
mengamalkan
##UTAN
##UMA
##ALAH
best
Jawa
menges
pek
##andangkan
entry
Group
tas
##siklop
tertu
##aring
terper
penilaian
##iayaan
tolong
##alai
Subang
##ahari
Puasa
sanggup
##tip
##aitkan
##odenan
##yum
##akili
habis
##ens
ucapan
gi
##dir
Pangk
##acu
dipanggil
Petua
##ERS
anaknya
darjah
Bang
bersalin
know
mengapa
sehala
##indu
##ezeki
Faiz
##vern
rujukan
##002000
budak
merangkumi
komunikasi
Penuh
tradisional
Masih
PIN
Semoga
##hab
##urian
pertandingan
marah
menyel
pay
##tml
Kitab
Tengku
Jan
##hari
pintar
negatif
ta
##ure
Krabi
Galaxy
Murah
##timewa
##date
kepercayaan
missch
##ronicz
misschronicz
pilih
Rabu
Ul
kesedaran
##tagram
sekurang
Peluang
##alil
##ating
##omo
menggalakkan
bersedia
War
Bajet
##ets
Beberapa
muk
Zak
baki
Borong
Alamat
teori
Bangunan
Rusia
##enz
Elektr
##ormati
SELAMAT
MA
Setar
##ESI
menunggu
##incang
##Sp
##endaki
##udayaan
##70
Komunikasi
Off
##inding
##ANTIKAN
Bekas
zakat
Rancangan
##ampuran
##pirasi
Aidilfitri
FA
Bent
ALLAH
##bod
Peti
##ENA
Tanjung
tuntutan
##bitkan
sekeliling
##63
profil
mengak
Dag
Hasan
kemudiannya
lapangan
Samb
inilah
students
adanya
elemen
run
Er
##arangan
hamil
sampah
logo
Techn
Pasukan
##klusif
##GO
Perang
memenangi
##EF
##emaran
tingkat
PT
Sabtu
Ace
Ferrari
kiri
Turki
##juran
Door
because
sikit
##umiputera
Mengapa
peperiksaan
##oly
##ffer
##very
##ARIK
##truktur
bacaan
Puan
Noor
##asangan
daun
setu
medi
##teraan
Astro
membuatkan
##abda
Cor
diperb
Sesungguhnya
pah
##andingkan
Musta
gear
##oreng
Lepas
PAK
##pris
daging
68
PUBLIC
Globe
Thy
Padang
info
##embangkan
##olar
##ling
##round
kunci
ringan
Atau
Putih
play
##esh
tangk
kempen
MUH
Out
peristiwa
Rights
memegang
##AIAN
##mart
high
##board
##inga
berikutan
mengumumkan
##leksi
##ledge
2003
Masuk
kemungkinan
sign
##embahan
Juga
Belanda
##pis
##amily
pantas
Malaya
City
##untukkan
Agung
##ematik
Rec
dinyatakan
##udara
Kabupaten
DEW
Bayaran
Rus
##ugi
##LEH
##pp
##uatkuasaan
bantu
perjanjian
Belajar
Begitu
tangga
TERB
Semakan
der
Benih
berapa
kontrak
Sakit
##SAAN
platform
Not
##ukuh
##aranya
##etwork
##entuh
qu
Sektor
berakhir
dile
GR
timur
dapatkan
halal
bercakap
perbelanjaan
mengelakkan
menilai
digital
##oon
Kre
Gigi
Reserved
Lin
Kolej
PD
menguasai
Medi
Pul
##utanan
##11
Berat
Mozilla
Travel
##even
Enjin
Por
##ATIHAN
olah
Perlembagaan
Explor
##rive
Rolls
##eme
rancangan
Pengedar
join
Park
##epsi
kementerian
kemenangan
Musa
##warkan
SUK
##ful
start
spesi
Punca
##ople
##denum
Say
SLE
##bel
##ikro
memakai
##okrasi
768
##ato
mewakili
KET
Pakar
##ubur
af
memperk
erti
##anjutnya
##isian
kerugian
Diam
ditubuhkan
##ATU
emosi
memasuki
##diaman
merancang
tingk
batang
jantung
rapat
Petani
##ys
##hu
iden
Perjalanan
Avis
Aduan
Business
Kepulauan
##TIV
CEP
perut
Pemulihan
diw
##elong
pelakon
tar
tajuk
##temuan
eff
##ssen
TAK
BERK
##aram
butiran
Sejak
Hutan
##ogol
Teks
Menj
Terk
setakat
Mun
##ondok
dosa
##OGI
Pelbagai
purata
Felda
Rover
Reka
diku
##dirian
Manag
Perumahan
rekod
gunakan
##ternatif
Avisena
Pasaran
##inah
##ancaran
Perkembangan
menuju
##impian
Bot
Pertubuhan
##baan
menimbulkan
##epasan
##esaran
##jur
##yle
42
##dium
Perempuan
##dex
Tub
Tahap
2002
##lement
menyaksikan
menurun
##asana
##tadbir
dengar
TID
Pay
##deka
istilah
Dec
##ISAN
Peringkat
Khalid
##ebu
peranti
##esuaian
##ewat
##ipun
##iff
DEWAN
Fit
##ols
Lokasi
##ulung
Thyssen
Nota
hijau
tol
akademik
Kembali
##elayan
separuh
Royce
gen
LT
promosi
Terbuka
Best
membuktikan
lab
mengatasi
kelompok
gerakan
##ankan
kerjaya
bil
Pembelajaran
sebelumnya
Awang
##afikan
Sama
##adanan
Kin
We
ros
##oma
ul
SER
Budaya
Tempatan
KADET
sesetengah
BINTI
1024
PERT
lainnya
komponen
##dom
MAN
##siklopedia
Sai
##tnik
##abet
##uncak
panggilan
menyi
majoriti
sa
Your
sungguh
Mic
cre
##SUS
Penolong
##EST
150
Cuba
muzik
Shaf
##ney
pengk
##unter
##lian
##endar
Kenyataan
Model
Versi
pern
##BA
##ownload
##hluk
##rain
bertanding
tinggalkan
pemilihan
menengah
inci
##SR
Tahunan
suasana
AC
Sat
##incin
Explorer
##ution
instr
Ol
Custom
leb
##embira
##atal
##lapan
Mini
TUAN
dakwaan
Saiz
##uluskan
##ebuah
tet
York
Kak
Syeikh
hadis
diperolehi
##ific
Panas
lilin
Tenaga
Dep
Penumpang
Gelang
Akhbar
Ikan
mendalam
##ape
Beri
Hong
##astera
SETIA
##kipun
##llah
berminat
mewah
KURSUS
mor
Itali
##BI
##antara
##reasi
Wire
penumpang
##ukun
##epak
##ingin
bertambah
##WA
membangunkan
may
keupayaan
keta
Sepak
esok
KEPADA
RAM
tw
Pembinaan
Angg
alamat
##awei
##cean
Chris
##ards
SEP
##AGAI
##jad
##andakan
Agensi
public
Ka
Keadaan
Kemb
##uning
Rencana
taman
Menurutnya
64
##abil
laku
##EAN
puas
memperkenalkan
##jan
##awler
Keper
##nin
sam
SHAK
SUNG
religi
##ough
must
PENYELAR
kekurangan
Langkau
pandai
##ies
menjalani
lembut
pasar
Pilih
##afir
##AIL
##ildren
suku
##EH
just
kelebihan
Huawei
##nal
Misi
OLEH
dimana
rel
Pokok
Tuj
sensitif
See
fokus
##amadun
daftar
tudung
tunggu
KERJA
Tabung
perancangan
##ros
many
Bangsa
Jenama
berani
##imat
pensyarah
##ayasan
##afik
Indeks
##ubaan
artis
MEI
##asai
##disi
ev
col
MOD
Ocean
Sunnah
##dian
jamb
Malaysian
ja
put
bunyi
##ederaan
SEN
PERCUMA
PENYELARASAN
letak
Putra
73
order
menjelang
berhampiran
1999
sawit
menghargai
##omba
##ahas
kain
##awak
##isik
Wid
dihantar
ditulis
##elidik
Pengeluaran
Dil
Sihat
bukannya
cemerlang
group
ditawarkan
##timb
kol
kencing
##ransi
##alih
52
Ahad
##box
trend
Comm
menuntut
study
design
berbentuk
##NYA
##tempat
Gear
Manu
about
Pergigian
Pemandu
##enggara
gangguan
##erjasama
##undangan
63
##ayuan
##siaan
dihar
Perhentian
LATIHAN
jari
##ucuk
Darah
mempertahankan
membenarkan
presiden
dimas
##esanan
jentera
PENT
Brun
##Nya
Optim
##oln
##OW
membunuh
Ki
gejala
esk
Instagram
kehadiran
mengandung
tarikan
country
PL
minuman
##mo
Usahawan
##gg
##ecair
beroperasi
Omar
TINGG
Top
Sig
DATO
##CI
##azil
##ding
##iputi
##DB
semak
Menjadi
98
Lah
##riz
##siplin
##anjurkan
kepadanya
Tour
berkahwin
Butiran
Kuan
sambutan
aduan
Linc
##AGA
SOALAN
##elek
cik
seminggu
##ANTA
MELAKA
usahawan
##enoid
##arahkan
memainkan
bersabda
Betul
penerbangan
##ukaran
##ume
penyokong
otak
Klang
Auto
##uction
kil
##edera
41
##ME
pengenalan
menegaskan
Ko
MAKLUMAN
##lem
Perdagangan
muh
cita
Perindustrian
##ANTU
seolah
Institusi
TIDAK
##acang
free
hakikat
car
Kaunter
kesemua
sid
Lincoln
tema
##scrib
##akum
sesebuah
pembaca
Khamis
human
engkau
requ
##ONAL
papan
Saw
##oles
ING
Undangan
Berg
##engaran
tangg
Membuat
berasa
Terakhir
##ENSI
pengunjung
mempengaruhi
pelacur
##rough
tip
point
dikenal
Skim
##angkit
Naib
cap
##str
Tingkatan
berdepan
roh
getah
kemampuan
Diraja
melaporkan
##ft
Langkawi
##44
berbuat
eskalator
##orks
##AJAR
Inter
Amanah
##read
ped
##aunsel
Lu
MUR
##enom
ensiklopedia
Alih
kelab
##ektif
##ekap
##AA
perak
kenal
Sehingga
##ufti
suhu
Objektif
Desa
##AGIAN
##imbangan
##esahan
adil
##unkan
##ejah
melayu
termasuklah
##AJAH
pusingan
##thman
##entar
##osis
##tom
Jump
CARA
Perhutanan
Ikh
MEMB
##sw
Akhirnya
Nurul
PRO
##atangan
Bert
suspek
##UG
Rid
Alhamdulillah
##ibir
ph
##sidangan
PET
##rupp
jarak
##nyata
mengangg
hehe
Agong
portal
##fahaman
More
##ision
##kn
Network
Kedai
liter
Iskand
##onan
fikir
Aceh
flange
Cikgu
SUR
month
##NA
perkongsian
diperkenalkan
##ombongan
imej
Duduk
##jualan
Semak
##munic
Berkomunikasi
memutuskan
drama
Sekitar
##ANGOR
##angkraf
melindungi
Bisnes
Jour
Hulu
##lines
##otal
##IST
##arusnya
tegas
buka
diminta
menyumbang
66
Filam
##daya
bre
peniaga
##inal
Shari
kelak
emel
aksi
Hafiz
##armasi
Buah
selatan
##ISI
Jok
##less
Skip
Dap
##onok
##ampilan
Menu
Drive
harapan
mu
skrin
BOLA
Sam
##emerl
melainkan
Sesuai
Get
##IMB
Gaya
##urni
BAC
makna
Sik
##ogram
##ahi
RES
pengaruh
wajar
##erdekaan
result
##caman
Pemakanan
mesra
nas
see
mulia
Shenz
##INA
pemeriksaan
Baginda
##tus
##AINS
kanser
document
unik
SELANGOR
##sara
Istana
Tu
##jawat
keterangan
Umar
##uahkan
##vinsi
##ates
##edari
iP
Pus
nabi
##28
berdaftar
Optimus
kelah
##erial
pelik
Sula
Shenzhen
menu
##una
motosikal
menging
jumpa
##oket
Gate
UTUSAN
Bentuk
##ulus
##faatkan
Dijual
Ters
##aisal
##ancer
##VE
ef
77
##ribut
membalas
##ping
Adalah
Bapa
pimpinan
bo
Link
Lembaran
fakta
##ehat
miskin
Pelaburan
Isnin
Engine
KAK
##enaihati
kla
##ion
Tawaran
##inci
jadual
kehendak
##erba
tulis
menun
Bernama
##rap
VID
Yayasan
Habib
anjing
Suka
Tapak
adat
else
ARI
##200
##iktirafan
yak
jaminan
##endang
##idin
Tug
pengambilan
##ico
UR
MUHAM
lingk
Memper
dara
perintah
persi
Back
menghalang
##formation
nikah
penginapan
BH
taraf
berjumlah
penjara
memperb
##APAN
97
value
##itmen
ulang
menganggap
##agalan
##embak
ASEAN
Pelawat
##tukaran
url
seja
Perkongsian
biar
MAKLUMAT
##lad
patut
##argaan
##IJ
PERJ
##otoran
Amin
##awasan
##iraan
dakwah
##entikan
##ustaka
Tukar
mengesahkan
##ejahteraan
Enter
Tahu
sor
Tangan
CR
Nadi
##Krupp
ThyssenKrupp
tips
semester
menja
##afsiran
musuh
objektif
Brunei
mengakui
dire
Truck
##imbang
abu
akal
##dagang
UKM
awak
##anas
Persi
##ahudi
Drama
##apis
SHAKLEE
##kannya
##versi
##Ex
##fiz
BAHAGIAN
pergerakan
menetapkan
##adbir
##atim
Mulut
kelemahan
##UAL
##ganeg
mun
##buh
Ehwal
permulaan
roda
Ec
Fakulti
bersi
##aly
##lec
Trip
VIDEO
website
##uaca
etnik
##tors
pelan
should
Filip
radio
85
Gener
banjir
Yusuf
html
Tambahan
tulang
day
been
EX
##zer
Tip
##iq
Setahun
##asiti
Ari
Awal
##EDIA
gembira
nasional
##uncit
perdana
tumbuhan
era
mendedahkan
##sikologi
##ihal
##ization
DAS
##itec
AT
##cs
berumur
##egas
##ream
Bro
Percuma
kelahiran
Mengikut
benih
##elai
penjelasan
teruskan
perpaduan
##ungkan
blogger
meterai
DAR
first
kam
Crawler
pendaftaran
##ampas
mimpikan
Eksekutif
membi
kurikulum
diubah
Struktur
Faisal
Mobile
Pemodenan
##IMA
tuduhan
kucing
pengl
meliputi
##utkan
MER
terhad
ARIF
##ino
##IO
##lahirkan
Segala
runners
cab
abang
length
work
ID
bijak
dialami
Tafsir
##ves
##ariti
Powered
bos
Dimimpi
##even7
runnerseven7
tunai
bagus
##enaraikan
Rob
SAINS
Disebabkan
1Malaysia
##App
##afaz
Perancangan
mohon
Star
koleksi
menyambut
pla
keyakinan
gila
Pengumuman
##ye
Word
##27
refer
Hana
##uasan
##ohan
##yl
syurga
sedap
RAH
##turan
research
##imbing
Kecantikan
##elenggaraan
##egriti
satunya
garis
Wal
Sesi
Warisan
Dipertua
UPSR
kediaman
Bet
Cawangan
##etengahkan
Kerjaya
Kok
ISO
menemui
##rog
Sigma
##enter
Panjang
##ebarkan
mahal
Musim
QURAN
##awanan
##jrah
dibawah
SEM9
bersamaan
lemak
search
##ix
##29
seharusnya
Kakitangan
memat
suam
##appy
NGO
##agia
##flik
mencukup
##LAN
Kunci
bekerjasama
relau
Abang
##SC
TH
Konsep
pertemuan
Laluan
##obil
coklat
land
lewat
Viet
##qh
rezeki
##van
tanaman
amanah
Des
penjagaan
Sepanjang
berlak
Jenayah
Ho
seluar
index
##ults
##rigin
##ajang
Journal
Peg
pelancongan
such
Puteri
##isma
vari
Terhadap
Iskandar
Biasa
##olyb
nyata
Pustaka
Global
##olat
##ERL
yakni
##iano
##uage
Ton
##ehendaki
telur
Maksud
PERM
MP
##terinya
there
stok
gus
peminat
##intai
suci
tamat
##olybdenum
Sarjana
Fuj
##ills
##mark
##lear
Pekan
akhlak
protot
mental
perusahaan
##engahan
great
MAT
Khair
Live
Semenanjung
##etween
CEO
fil
##CH
Perpustakaan
makhluk
setia
One
##gus
##ilding
niat
##ilat
##OLOGI
minda
menggambarkan
Adi
God
Pendaftar
Aq
##atusan
bunuh
prak
beriman
PASUKAN
development
##sing
Jas
83
memandangkan
Digital
knowledge
restoran
##ytih
pelancong
menyus
##tt
ALOR
Filipina
khidmat
sunat
Rp
Pasar
sesat
##indahkan
##ekapan
jua
sidebar
##II
penubuhan
Raf
tat
Her
##atuhan
##ORT
Rekreasi
mon
##kar
Pon
beban
##yc
biji
merasakan
SINI
Terj
tab
logam
##unjungi
elektronik
Hubungan
dawai
##mara
Kompleks
##enomena
Denaihati
##ript
##ukuhkan
##AMAH
Bekalan
##ungkus
Kebajikan
##nan
Terle
##vice
##urnal
78
menggantikan
Master
membincangkan
##ayangan
Kandungan
dimiliki
find
Bumiputera
sewaktu
##evisyen
mencukupi
pendirian
Hamid
bet
teb
cover
lori
Seter
Hang
disc
##ora
##batan
Tert
##LER
tepi
##arak
##ring
##umpah
dec
Cab
sesungguhnya
memandang
##inisi
Kepala
Navig
dihadapi
##my
Gab
gigi
cetak
dipas
senjata
69
world
terang
Press
Play
kalah
nasib
img
##ENC
ibn
BU
RM1
tuhan
Gel
1998
mesej
case
stesen
latar
surah
##ookie
##anah
berdiri
Category
##wayat
##NOOR
##fik
##ove
hitsNOOR
Belia
##put
##aining
Dulu
51
ki
real
kredit
member
##65
hanyalah
diikuti
##ubat
width
faedah
##rastruktur
##takan
ii
##ages
kenaikan
dikemukakan
UL
##ibatan
sisa
Ide
Bentley
lampu
##ukang
Pu
##ever
##inium
kelayakan
79
##ins
Yahudi
melancarkan
Pri
Sets
Keperluan
Seterusnya
mala
IM
Kejuruteraan
Udara
##efore
##Ar
Ver
peri
berkes
saman
Pengenalan
fitnah
Sir
seli
kebajikan
##anusiaan
ng
##estim
##esak
anugerah
##umpulkan
##IMAN
direka
full
##endalian
bala
##67
menekan
Mc
##aktif
potensi
mencadangkan
##ogel
##amanan
masukkan
iz
##abrik
tersendiri
ARIFIN
Ibnu
UNIT
kemajuan
perlahan
kod
dilahirkan
menutup
##CO
Amir
##ng
Idris
##otongan
Kebanyakan
SULTAN
##val
popul
IND
##turunan
Rekod
matahari
Resi
kor
Menang
##nis
##entak
##ature
##unding
IT
Vietnam
padi
##mbangkan
ZUHAI
diterbitkan
album
Lee
paru
simpanan
Tempoh
pinggang
##ultur
##upanya
lapan
ZUHAIR
##amping
##UJ
##ark
mengemukakan
##Th
AZUAR
Kemajuan
##istr
hitsMOHD
hayat
berpendapat
Sebuah
terpelihara
mengkaji
ikh
AF
KAM
fr
Blu
Camer
dikehendaki
Pernah
ORANG
bonus
each
HEB
Slot
Muka
subjek
##antauan
Os
##balas
##ucu
Mewah
between
July
##lap
dikongsi
Kenderaan
Perlindungan
##aci
Bakul
##ujudan
politi
simpan
lawatan
height
leg
Fujitec
##ilikon
Klinik
MIN
KEC
ditutup
##antah
##elamatkan
##rane
ir
##ection
Sud
##etil
##top
##rys
meri
##pasti
##emput
dada
makin
##ground
##otin
##RAH
Tantalum
Jamb
mencipta
istimewa
Editor
Kor
Mov
BERN
mestilah
dinamakan
Malik
Kehidupan
Trak
Lalu
prep
Sendiri
keberk
sempadan
Kasih
##orkan
saling
berbuka
Teluk
Bes
##engkapi
##HAD
##ucapkan
terpilih
##UNGAN
lesen
##emangnya
##anasan
##ene
stabil
informasi
##orex
Hadapan
##HIDMATAN
PB
##ampaian
##ifli
##ho
perg
system
prototype
cedera
Sams
##afe
disiarkan
Pertahanan
virus
##ise
Tahan
kukuh
AZIZ
##atalkan
Ketiga
##ulen
##ency
##zen
##acun
meneroka
dicapai
setuju
##ujian
##ody
inovatif
mom
PERKHIDMATAN
##onia
disahkan
ibadah
show
##come
BELI
##ences
kebolehan
fikirkan
Jur
Nis
##ives
fat
##onald
Contin
##vernment
Sangat
##abetes
hand
John
Swasta
plan
##ected
RO
Calon
##45
##GERIS
INGGERIS
MAR
##omotif
MEM
##ANS
##tical
Datang
tingkah
Airlines
jarang
gold
999
##enek
penguasa
kesilapan
Chrys
Salleh
diletak
disampaikan
menghubungi
##upus
sing
bangun
Can
pembentukan
Memp
##undingan
agenda
##URL
KOMP
Cantik
perumahan
merawat
##akaian
##ORAN
##abalu
Akibat
Pengantin
nelayan
WAR
setempat
Pengurus
basi
##kuat
Da
##UMB
mentah
normal
##book
sesama
Teman
sewa
Geor
##kuad
cel
Kah
Kahwin
120
Kingdom
##siden
PAND
tukar
bertukar
1000
kefahaman
Emp
topik
##emar
Special
social
lamb
Pre
Perkahwinan
Syawal
Asal
##engkapan
##cc
tersedia
##ombang
burung
leh
##ciety
Uk
BES
Arch
Rakan
##AJIAN
populasi
##AYAAN
da
##hor
##aaa
Individu
cawangan
Sim
Inov
Paip
##sidi
Suh
Rahim
##dad
89
konon
##rus
haji
##entif
Ketahui
lawan
##tap
lalui
Feed
##ubuhkan
Kemudahan
enggan
##by
Kampus
##ote
pengarah
##UHAN
isterinya
penyel
titik
tiap
pecah
MUHAMMAD
mematuhi
##arit
berkhidmat
##asas
Susah
long
##iversal
these
PUL
misi
menghadiri
pres
tin
syariah
DIS
tag
Baharu
##urai
Isti
##orth
Atasi
prosedur
##hirt
sejenis
persetu
##TIK
##mm
Es
ZH
kreatif
Shant
##adir
based
##UKA
Pendapatan
##inder
your
tahunan
tern
menguruskan
TERK
terasa
kelapa
Tema
Awani
pemberian
fail
Status
rek
##tle
Molybdenum
menahan
##EX
##hod
Rambut
##ublish
WhatsApp
ditambah
format
bagai
Korang
##yiddin
##ects
Marin
Van
tafsiran
Tab
##lip
UK
##ille
rangkaian
people
Download
##uality
##angkut
export
##endera
##mpan
keutamaan
kris
Lag
Chrysler
##apuri
##pektif
melepas
##0065
Keseluruhan
Smart
paras
majalah
DE
tiket
##oe
Mahm
Gred
Gejala
Champ
bang
Muz
##ajat
##isytih
permukaan
##ste
bis
##fal
diperk
jas
memaparkan
komitmen
companies
menjejaskan
OF
##adz
Mend
##ness
pemegang
##illar
Yah
Gran
nikmat
hat
##tuduh
##kaun
EL
KUAN
##kod
Karangkraf
premis
diteruskan
Sinar
kebebasan
##tawan
akhirat
angka
nov
trak
analisis
##ebihan
##ahagikan
Women
Juara
Kaki
Contohnya
memasukkan
produc
##ariat
Organisasi
polisi
persembahan
Doktor
##krip
##araj
cecair
##alur
sab
tand
Syah
Resort
Kinabalu
##ANI
Long
Rasa
laki
follow
keturunan
##undang
pengilang
dimasukkan
##etan
Development
##ject
jaga
Tempahan
Peranti
terdahulu
Wajah
##dic
Double
null
fikiran
Bir
ladang
Lebuh
##aksin
System
penya
Galeri
Shantou
Pertua
##emban
dom
MUS
##eur
Dom
persen
##arakan
##estinya
ge
ANDA
##UPAN
##enor
##etuai
Gar
Ganti
sebut
Biar
Iman
Lak
mengendalikan
AHLI
Bal
mikro
penyanyi
Kasut
##ILIHAN
##okasional
Logo
sengaja
##arahan
meros
##ihad
Studi
Kelebihan
ass
##apuskan
Shop
##lander
peta
##rosesan
Saat
cor
Kamar
pelabur
##anja
##Ku
Azhar
only
del
##acy
Jawab
urus
##AJI
##usahawanan
differ
##UC
GAJAH
##room
bir
Mental
INF
Ref
##taraf
##indung
Green
Daya
##lumbaan
##anjutkan
menubuhkan
Jag
peguam
##niaga
impor
any
##amatkan
Suz
kegagalan
##utipan
CON
##erahan
Bencana
Cru
Stadium
##olahan
kosmetik
##tage
payudara
##41
Muzik
BERITA
berdekatan
Hand
sekaligus
Mont
##lick
AGENSI
III
##quip
mengec
Fakta
##ukti
Ji
vitamin
diesel
Hamil
Rak
pemindahan
##ARD
results
##ampan
##angsapuri
##adik
Pangkor
non
Kil
PES
category
Teach
Cadangan
##yik
Kuantan
Del
##erp
menerangkan
KEN
##obi
dalamnya
penjualan
teknikal
Forum
kaca
majikan
87
Kapal
##NI
Tradisi
##akiman
berulang
Batang
##dirikan
Bolehkah
Strategi
##ics
1990
##ujung
langit
##elam
SEJ
##ogn
##ulatih
Plus
anim
##apakah
memaklumkan
LE
##angkitkan
SOL
##estiv
through
berikan
Rela
MAK
##andatangani
Kristian
##Kongsi
##33
Pelakon
menangis
falsafah
##DAF
##fied
##OB
##ujah
Muhyiddin
kot
Cal
gelap
memuat
##agnet
Kabinet
##com
##alifah
Ja
Pembantu
##tung
##APA
shaklee
attr
Pa
terkejut
Mufti
Rajah
level
Plu
Arahan
berkesempatan
PERD
kelulusan
kopi
sil
Pembayaran
HARGA
terpulang
menger
##ekor
BAN
Sisa
Kalangan
gabungan
Suk
Food
Xizi
keempat
Faizal
check
##empurn
auto
Dih
dipaparkan
perhimpunan
SEBAGAI
##atul
##ADAR
##ajahan
by
mengundi
Pakistan
pad
diketengahkan
##riteria
LUAR
##ometer
berguna
SERI
##urah
Brazil
menunaikan
kahwin
Hartanah
TEMP
law
Amp
Kari
MARA
him
image
sentu
Daman
##eland
Sala
parlimen
menyeluruh
##HIR
dibayar
Reg
Cons
Guan
diletakkan
##him
Hampir
KED
pon
##eraka
Telefon
ancaman
##krit
##estival
laa
##yukur
cons
lat
##endam
##46
##ities
pastikan
tuala
suk
Bilangan
Bersih
Pur
Janda
terperinci
##iser
into
##kuti
kesempatan
Pengk
Uc
Hadis
##jauan
support
serupa
##ica
TINGKATAN
##aila
Tenang
##niah
##aders
Qu
##53
##iskan
Pengajaran
Lawatan
Cro
moral
sr
berpindah
Memberi
##inggalah
Hel
KETUA
Tar
Pencegahan
walau
##dan
Radio
##etapa
hasrat
##sisten
1996
Bidang
studi
##lasi
fasa
Las
hit
hala
Net
ANAK
Cepat
##mint
##endirian
Gua
Den
Pemimpin
dat
##mer
IPG
##agon
Api
##gk
menyemb
##6800
Lang
##ERIT
##ambing
meman
rupa
dikaitkan
resi
menonton
Modul
pembeli
options
Zaman
kegunaan
Cel
cender
NOOR
sedem
Syria
kenangan
KAR
##ser
##asilan
detil
##ahasa
##31
OP
lari
Perjanjian
ADUN
Zulkifli
##agaimanakah
cl
Caj
##entuan
##ctric
##agama
##uduki
Perbincangan
Sif
nie
menyerang
Anggota
Inc
mahasiswa
##HR
##elajuan
want
##antungan
sedemikian
Zon
##ahtera
usul
selidik
destinasi
##red
mengisi
##okan
##egrasi
juara
person
##yn
Binti
Pelaksanaan
Kanan
##ativ
##ritik
##inggalan
Seluar
Perutusan
Gerakan
bimbang
rencana
##wide
##bor
Tunku
Kurang
sim
Pertandingan
KUANTAN
alah
admin
MAHK
Bumi
SK
love
PELAKS
Encik
##EMERL
paparan
Prestasi
gambaran
menyerahkan
Sony
GAP
mengenali
Diesel
Peranan
##rent
##jawan
Ulama
diperbuat
##dam
Widget
BI
##ancing
susulan
##ago
##traktor
PENDAF
SEMP
bus
##ampasan
##quipment
JI
jahat
tir
Garis
rosak
hiasan
Akses
Sci
Artis
dengannya
##oke
bina
Wholes
div
BESAR
##impalan
name
##injam
tal
##lihat
Pemegang
mengembangkan
Euro
Kanada
style
hiburan
sijil
Fas
reb
acuan
Dong
##raft
tangki
Less
MENJ
Sebaliknya
##epadu
dot
melawat
buta
##ister
semestinya
##zan
dinding
##48
class
panel
Viv
##vensi
Berhormat
##stan
net
dilancarkan
##sin
bl
jangkitan
Benar
Inovasi
teras
gua
Zakaria
##enam
school
upaya
Madinah
persepsi
Damansara
Sedap
hidraulik
ruangan
##26800
##anjawan
Idham
Khalil
##isu
##epatan
petua
##Co
##isahkan
##urunan
Lip
##rak
##ucky
Escalators
belia
##uruan
##isang
some
Wil
##jol
Berkualiti
##imer
malu
##td
##ebaran
##uduga
sabar
Bahkan
Riz
petani
Pang
Chan
halus
##elbagai
Stud
Cuti
Bags
suaminya
##aunseling
pertengahan
Edisi
Bukhari
kamera
##dividual
makluman
##ransit
##alut
Tenggara
##imbol
ibunya
##act
Azmin
##rank
luaran
##hum
kesejahteraan
tutup
layan
konflik
##entangkan
NEGARA
Sahabat
kekasih
##pisod
##FA
MURID
views
Mengan
##unuhan
bersalah
##ERIAN
misalnya
Jamal
##prises
fleksi
selanjutnya
tumbuh
Dipl
##sson
Peguam
ragam
pil
##emerlangan
Alum
##blem
lembu
tep
mencegah
blok
tarik
selaras
##astam
mayat
##verter
lim
Bebas
Kol
##cally
##phone
Ustad
Wholesale
bisnes
mendorong
happy
##ademi
Kejohanan
PENTAKS
##bukan
power
Hijau
76
##ged
##allah
gelaran
mendaftar
Elektrik
Cuma
penyertaan
rum
OKU
namanya
red
##aing
yaitu
kaitan
THE
novel
Nig
##Press
##other
rib
amal
dipert
##cept
alternatif
Hot
hidangan
dimensi
Mula
when
sememangnya
melepaskan
ASS
LAS
meraih
Worldwide
Seksyen
radi
RAS
##IPU
##uburan
##emaskini
SUNGO
padang
Restoran
800
##ambahb
PN
tit
##estimoni
##eft
Free
##ANGUNAN
umumnya
terpantas
##umpai
how
##terest
hel
persetujuan
JP
sembah
IL
SAH
Strategik
##tarkan
SPRM
Digunakan
##udul
Ambil
demokrasi
##juk
menafikan
##ANAAN
graduan
Comments
like
##owi
menumpang
ketat
objek
pembuatan
keluarganya
batin
pertubuhan
berlainan
Villa
TO
##ejas
mempelajari
##ANGGAN
Key
##sider
prac
##urans
BERNAMA
Filament
##udang
##ducational
##SU
Bintang
##pen
##UTER
##takluk
##dition
Skrin
Empat
Selama
Azizah
Ash
pendedahan
mema
Tugas
persatuan
rasanya
Mencari
##ombak
well
ternyata
BHARU
dihubungi
Kamu
Americas
##TAU
##vir
MAHKAMAH
Terlebih
##eda
##ective
disiplin
Mos
Gas
##rul
education
##dis
berjumpa
disesuaikan
##munity
##ajukan
##neum
Penting
KEHID
PA
600
Dijamin
Koperasi
Farmasi
ketara
Usaha
KEHIDUPAN
Templat
skim
rogol
aloi
membuang
Tuanku
services
Isa
##iskinan
Seremban
##estern
##simum
##utri
##ASY
Sheikh
Dakwah
##PADA
##upuk
Mangsa
warisan
sembilan
populariti
VIR
Suara
ceramah
##atangkan
##atic
kelajuan
Est
Taj
##inggian
JEMP
korban
Tujuan
##ERITAH
##embunyi
##oki
##atatkan
meja
lengan
##roversi
berpel
Provinsi
LTE
Itulah
mencabar
Kurikulum
##ingkap
##wn
190
Gaji
kaunter
dapur
##ukisan
Soal
Dana
comment
tiub
##mpulan
Kim
##imbal
Kuch
perisian
LISAN
SEMPENA
##asmi
##iki
AWAM
##aff
Kempen
vakum
##essi
Bakal
bertentangan
Ehsan
##asikan
PEMBERITAH
menghormati
kuning
amaran
##anjutan
Kau
right
News
rugi
##yanmar
Telah
##epati
use
Sehubungan
##ors
pemahaman
WordPress
menjamin
Def
Faktor
Tud
##hkan
##embalikan
Max
##ealand
Cher
Ustadz
Papan
hidung
Research
Nadia
Nus
Beras
bulu
##oba
Jeep
##ipuan
Admin
Hutang
sain
infrastruktur
gunung
Sayang
bulanan
organik
Forex
amb
pembedahan
##SH
Inverter
##lassi
memandu
MCA
##AUN
Ungu
Ban
Bud
spl
prepar
iii
##ETA
kesibukan
Walk
Kayu
##emuan
diumumkan
kemb
mau
kedatangan
Carta
ATAU
PERH
terbukti
##gent
berman
Old
Pelabuhan
tenang
silikon
##jal
Children
petunjuk
##phet
##lunya
Perbadanan
berkem
DARIPADA
Othman
ujarnya
KAKIT
kadbod
pemberita
##amik
menjana
keramat
Sad
than
INS
ot
aras
Indah
##ambahbaikan
KAKITANGAN
izin
##ganegara
Eric
oper
Sembang
PENGG
##azar
##ukah
pagar
Falsafah
MUL
Share
##akh
list
Myanmar
Sekali
lakonan
Pangsapuri
SAB
ASME
Bl
##iteknik
berpuasa
##DN
##utasi
sebalik
kecewa
dibangunkan
disana
berhak
##inea
##anjaran
berhadapan
##utbah
leher
Vit
##umba
uruskan
menceritakan
##etupan
terdekat
JOH
hadith
jawatankuasa
matang
Part
Petaling
##alleng
ketidak
##yap
Ijazah
bakar
UPU
Akademik
Wakaf
##ahar
relev
Serbuk
most
##uaskan
perlukan
okay
Bol
kakak
televisyen
nyawa
SUMB
##atasinya
laga
Yas
selaku
##osongan
kemasukan
Ingin
##masalahan
Weld
Bantu
TEL
##AITAN
ABDUL
Grid
##apar
motivasi
##hiasan
lapisan
##sikap
62
##enci
Bos
realiti
##apanya
##500
penyelidik
pengantin
##ITIK
Tumb
ciptaan
##001
##anch
Pemilihan
##TAG
##dn
PERDANA
anakku
##uruhjaya
##auhid
Neo
penja
##lusion
##Arrow
##ejar
Berj
PELANTIKAN
##sm
##See
JEMPUTAN
Rantau
##ombong
jemaah
dirumah
##55
##abentuk
Town
##66
Zealand
##ayan
##avi
Penguatkuasaan
HEBAHAN
Ceramah
Risiko
##ihah
kekayaan
MoreSee
##ganasan
##wakilan
Pembersihan
##ehatan
masakan
rus
LAP
##ikmah
##ersihkan
Tertinggi
Hiburan
bro
tertakluk
korporat
eksport
##ishah
ec
Masukkan
Terd
memerintah
##bas
Mil
bertugas
terkand
Angkatan
Elevators
##patah
beradik
teramat
Technology
Ais
##odge
kemerdekaan
saksi
hakim
upload
Informasi
Yo
persediaan
Premis
PERB
subsidi
Khai
Insya
KEW
Ejen
Der
##lud
Mesh
Nampak
Ruang
##atuhkan
Umrah
difahami
semulajadi
Mukim
Stor
sejauh
##ubungkan
##ference
kok
Crane
Mukh
##ERIK
Zainal
##idul
##vent
fesyen
##47
band
Notis
keganasan
PART
cuaca
Tat
KEMENT
ram
keamanan
Hisham
Plastik
ANSI
PELAKSANAAN
##akitan
ditunjukkan
Sampai
bes
##IG
statement
tug
Kuching
tetamu
##antian
KR
pembiayaan
Jokowi
menyentuh
institu
##bank
Terus
insiden
Nat
berharga
##ized
nafas
samada
penguasaan
##EA
TUN
gara
Manual
Sor
##AHA
ekor
ubatan
sarjana
Majalah
cikgu
##minton
##ENGGAN
##eet
binatang
menak
perform
Syafi
##ladesh
DO
lingkungan
Pid
##arankan
Kira
pucuk
ed
BR
biru
kecederaan
iman
MENY
PEK
KEMENTERIAN
ATM
##imaan
##tice
kafir
##abaya
##hone
suntikan
##ebatan
PELAB
action
corak
##yarak
Chin
JIWA
##yo
##encing
##emahkan
pemuda
##IAG
GL
##agat
##ocus
Harta
##hatian
barisan
cam
hitsZ
Merdeka
keker
disini
mengatasinya
##arina
Ucapan
##uu
##ensif
Kir
BUKU
##ukuran
surau
kepad
among
##tul
mencuba
Permotoran
memperbaiki
Spesi
botol
Umur
##uasakan
las
Tom
Rayuan
menyalah
Vic
diman
Mohammad
Diet
##ancur
dipers
kononnya
Family
skor
nenek
sia
Law
South
POS
KALI
Pinterest
EC
src
##uge
dewan
##isasikan
berlakunya
##gal
jantan
##ayati
said
Health
being
kuliah
Pack
MO
mendi
Kerjasama
dibahagikan
##ukis
Imej
keberkesanan
##resif
mulanya
deposit
tugasan
dialog
gerak
AJ
Bangladesh
400
melawan
Akademi
breast
PENTAKSIRAN
##eder
Bhd
##rogol
Ba
Communic
rahmat
menganggur
tulen
Roda
Dikuasakan
##erpillar
KHAS
##ifikan
##abungkan
HAJI
lubang
TERKINI
Abidin
segar
Continental
TERENGGAN
Jawapan
##nd
##ingatan
diluluskan
contohnya
Sid
##Sc
##enangkan
Memas
Zahid
##ikin
##eperangan
Bermula
mengal
##38
##otan
Tadbir
request
##aim
Sastera
tolak
TEKNOLOGI
##andum
malaikat
Wed
Meningkatkan
Bawah
Day
menukar
Manis
##antun
Building
##incip
kewujudan
mengan
Av
Sempena
Mati
dingin
Eksklusif
Guinea
Poskod
##urikulum
##ehic
cenderung
JK
##enanya
teaching
##laman
janganlah
wayar
##Blog
BAL
fleksibel
Penyertaan
imam
##90
##adai
ditan
##ILA
##ions
Maklumbalas
jiran
setengah
Airport
asalnya
Accord
Letak
##ath
PIB
SURAT
CIO
kabel
Aishah
Jelas
mengakibatkan
Portu
Gre
KAJIAN
##emium
Halim
##oney
diing
krisis
terkait
Golf
menghitung
penerima
way
semoga
MENGEN
tercipta
Turut
TAL
Specialist
##ampilkan
mengulas
Matematik
beragama
diselesaikan
##AKAP
##okal
Shams
##iyah
kebiasaan
MOH
Sedangkan
##orial
ditanya
berupaya
dilengkapi
campur
Cas
PEMBEL
##elle
ditentukan
roy
ASSALAM
Sukar
dimaksud
##skap
back
Solenoid
menyedari
menjejak
Dodge
perundangan
melanggar
##elit
##ATIK
sorry
##36
##PR
##intas
buahan
menurunkan
dirogol
rupanya
##yarham
sis
Sent
##scribe
##ikatan
##uhira
diamalkan
Posts
##ici
berbincang
Fe
pulih
two
PADA
tunjuk
Fri
Jual
Penduduk
kebakaran
fenomena
pej
##uja
hitsZuhira
detik
Pesuruhjaya
##ault
atlet
DIN
##arif
##raq
dikendalikan
##osh
##alurkan
##ror
Tir
td
Sumat
Jurnal
##TARAN
##utin
Amat
##ADEM
##ipan
Jeli
bermanfaat
Mekah
meskipun
Trump
kasar
idaman
Pagi
Umat
Char
theme
##kson
Marcel
rakaman
##lion
mne
Swit
##eak
##lahgunaan
MEDIA
##fac
maksimum
JALAN
##loy
PENDAFTARAN
School
##ANGSAAN
ubah
Perlawanan
kalian
##Allah
##asabah
Kesatuan
betapa
cr
pec
##Class
##dung
##igr
untukku
PEMANTA
Paper
simbol
SESI
##OSI
Kajang
KEBANGSAAN
Tet
after
KOS
seeing
entri
BARU
Perihal
bicara
##eman
Guna
made
loc
##ejutkan
Kilang
bersyukur
bersikap
pertahanan
Champions
kebudayaan
Dagangan
Tidur
##angkaan
##dukung
##gerakkan
SEC
Caterpillar
Balik
transaksi
##lihatkan
Daud
Perbezaan
bau
KAW
##onstruction
##hak
bimbingan
If
##mpa
##EKA
terlepas
Pagar
##oci
menjejakkan
##mau
prop
bela
##LIM
Besut
Pertuan
Haz
carian
##oda
milk
##riginal
Kematian
Los
Ren
privasi
##back
##rilik
didalam
duanya
##unjungan
Simpanan
arwah
Wajib
##imba
bapak
##DE
RAYA
pengkaji
KAMAN
resepi
##ingo
DASHR
DASHRIMAN
Pump
komersi
##visyen
menulist
##etizen
##engkak
kejohanan
impak
here
luahkan
pahala
PELABURAN
National
Pla
##ulture
Box
Duit
##ISTEM
darip
RUM
membangun
POLITIK
Sumbangan
##ancam
##engkapkan
bersesuaian
TERENGGANU
TINGGAL
##awl
Ltd
##Tr
##uments
Sensor
##lar
61
PI
Jemaah
isyarat
Tee
##IHAT
shalat
kristal
Kredit
##antaian
##ford
end
pencer
piano
UPM
kompleks
Kedudukan
syaitan
Sulaiman
bengkel
DATA
Penang
RE
##diq
menyelamatkan
pembunuhan
##urangkan
Pemasangan
##alim
aq
FRE
Centre
##utupan
Siang
campuran
ditolak
signifikan
##ariskan
pemasaran
##inggah
shirt
TERG
Diambil
PEMBERITAHUAN
nafsu
semakan
Kont
menekankan
##ze
##indow
BOM
##view
PKR
140
##kirah
##inum
##inginan
Bali
##sive
pelatih
##rio
##marin
Belakang
Gabenor
Sambutan
##uring
##angkok
bertulis
pengec
BEN
mengumpul
Hadith
180
##LD
Ianya
##impal
dikawal
##angkal
Pandangan
jej
Pl
Rasuah
temu
bahagia
PIBG
plu
Perhubungan
dapatan
tamp
##unting
est
##AKIM
mengucapkan
bad
tampil
##aster
##siding
kari
underst
markah
PROM
##ADIL
overcome
##netik
membu
Ment
pengikut
wanted
permasalahan
##isual
##cted
sambungan
##hatikan
Rock
Percutian
bij
bual
bagian
kecemasan
IPT
techn
bahaya
aktiv
Kelajuan
##ANJ
pembersihan
terjejas
pertukaran
page
##Juma
berhati
hitsJuma
Melihat
mengira
lebar
Hashim
key
##antina
##icaraan
bencana
keadilan
BAND
EP
Sand
BERKAITAN
talent
share
Leaf
##This
menamatkan
Panel
Bagaimanakah
##ihi
Mengenang
Hidraulik
##imatan
berdoa
persiapan
Seluruh
kuda
Machine
##edik
kilometer
##ohol
Level
##ARANG
Allahyarham
part
dimaklumkan
##yangkan
##ship
menump
##artment
Background
Herba
##reh
##quar
Moto
ba
##BN
laju
Pengiktirafan
Electric
Cookie
Perbelanjaan
##ensik
Pres
Membaca
##77
##lation
sebesar
ARTIK
Ny
##ORI
Suzuki
Hye
gh
1994
conc
PELAJAR
##ebun
##antra
conf
Kimia
super
Sewaan
Shang
penerangan
Oc
TARIK
##ambak
##iptakan
used
##KL
hitsR
Tetap
Tiub
##ero
lib
##ivil
ZHIPU
hantar
##ihatin
##ONAN
##ronik
instrumen
gram
SW
guys
runtu
##ipu
pencemaran
left
##anggang
menduduki
Persidangan
Bersalin
##empuh
##kota
language
American
Wahai
inovasi
found
luka
Kenali
##etuskan
##azkirah
##set
##ebaskan
our
bertajuk
penglibatan
mari
pastinya
##ayakan
Kilogram
##ANGGU
dibeli
##istic
wartawan
vehic
##masalah
Disc
##tance
bodoh
##ongkar
posisi
Tajuk
Sn
##ulatan
Sedang
Isi
cond
penampilan
##romosi
##TAS
##abiskan
CE
##MU
hangat
kitar
pemasangan
test
Lima
kond
Itin
##UNGI
cincin
SEJARAH
##pon
mag
##ogniti
Kanser
Print
sm
Read
fe
bajet
##BlogThis
Archives
neraka
text
##teria
Jel
##olio
Tags
##tangga
Jack
##69
Yahya
##ogen
##istim
overs
Harini
Gem
mengenakan
Serious
basically
##ants
Mahmud
kalu
Insan
ijazah
Gabungan
##mies
muat
bertahan
##ajarnya
VIRUS
problem
berpeng
disimpan
Keadilan
Kalendar
lantai
##37
Menghitung
Drs
kecekapan
body
##exico
ISMA
strategik
Gombak
deal
##egini
ade
lisan
##viron
business
nuk
##ake
call
##etugas
bawang
Rashid
Halal
Cahaya
Itiner
##usri
##ekolah
Cars
##aful
##ULAN
Nasir
Mengenal
terkena
Komputer
Sikap
##100
rights
provid
Profesional
arus
terkandung
##asm
lucky
##upply
Wi
##ORMASI
Audit
##fiah
Ain
Lupus
Rod
YB
Hita
##ORANG
sebegini
penurunan
mencer
1993
##AIKUM
Itinerary
Mendapat
##istimewaan
##limat
facebook
CER
TERGANGGU
##ugat
illusion
Haram
pl
uols
Mold
kambing
##AIR
PELANGGAN
jin
goreng
##uss
memanggil
helai
PEMILIHAN
Tenanglah
oversupply
exportURL
penambahbaikan
selari
kawin
taj
KESEL
FEL
Rujukan
Hitachi
JOHOR
Marcello
PANDUAN
widgets
##elir
intelek
Cameron
##atalan
skills
Asy
Enc
##AWATAN
##imak
DARUL
KAN
Duduklah
##atikan
Mazidul
##engaruh
Had
Divisyen
##34
Nissan
Cabaran
Keter
hantu
BUKAN
peti
penipuan
Penya
mustah
##iskut
maz
mommies
Catat
Time
keber
TARIKH
Paduka
Idea
##neumatik
lip
Datin
comm
modul
ARTIKEL
Intan
##ERASI
Surabaya
pelayar
##tein
Nombor
##64
melay
illusionist
Ikutan
##32
reform
##ters
diwujudkan
##ADEMIK
setting
##upkan
jae
pandu
ajar
Alatan
eh
Ui
Widgetbox
sayur
pengesahan
Dav
Nikotin
kretif
ali
Lately
Order
##alahkan
seks
##ado
perayaan
siasat
berimpian
##angsar
kuan
##orb
##dy
##ebak
identiti
##OV
##tuduhan
penyej
segal
aKu
vol
puluh
Blok
Penginapan
##icy
week
anjuran
##Counter
##ergi
Creative
mengesan
mut
tek
Eth
berceritakan
merokok
##angkakan
sebenanya
Backgrounds
percetakan
Plan
method
##ternary
##alti
##Star
tidaklah
Ann
iternary
memf
surprises
WAN
Temanmu
Berimpian
irine
ASSALAMUA
LAIKUM
##Tus
NeoCounter
kemanusiaan
asaaa
puTus
perlumbaan
penjawat
HUB
##ube
##Speed
Oceania
pondok
seimbang
Ped
Dewasa
##emi
dikesan
##88
Team
##oja
partic
Festival
larangan
bulat
Nasihat
Wisma
##IND
ganda
##ordin
segalanya
borong
##ertian
##Sh
Pertanyaan
Basikal
##ULUM
##isar
memakan
BOMBA
vehicles
Color
payah
##etulan
SEM8
##ovid
staf
##ware
telinga
rokok
##gar
graf
Merawat
Naf
Hol
##sein
##gia
tamadun
mengingatkan
Sewa
agen
mengharapkan
Balai
##ilikan
ikhlas
buatan
##ektar
formula
Musang
Slov
##ghan
begini
kecantikan
BAY
Berbuka
elok
disokong
PUTERI
Bus
Learning
mekanikal
PEMBANGUNAN
Membantu
Medan
sang
##ATUAN
##ward
##aksana
mendatangkan
Buka
##tir
##andan
Persiaran
UiTM
second
##rang
Maritim
Western
Pendek
belas
Cam
##intangan
food
dibandingkan
mad
SAMB
pemakanan
Ayah
##lamz
menyebarkan
menghilangkan
##bility
diperuntukkan
Publish
JU
##acing
##ompat
Bulanan
hatinya
Mengulas
Chord
Bengkel
Ih
garam
##usuan
##zech
##aplikasi
##FE
jenazah
jodoh
Kesi
##antage
##MIN
Sidang
asid
Jentera
memantau
##ooth
Review
##ea
##ater
NUR
khabar
keag
Pop
statistik
View
##turunkan
Pun
##onomic
mengganggu
Uni
##rag
Prinsip
semen
Asing
##itahu
mini
mendidik
TRANS
KLIK
dilarang
##kandal
ne
haba
pemp
##ccer
Baitu
dibi
Muhamad
##reet
Tum
ren
pisau
allah
##ava
bakat
Show
Jajahan
Perhimpunan
diharapkan
Gudang
##39
##eth
##DIN
Sunat
Taiwan
Emel
ques
CL
Dh
##jilan
DAA
##TIVITI
pengumuman
Ng
##lanan
pencegahan
penyediaan
women
Soccer
Penerbangan
bapanya
Seleb
pandang
pra
##Yusri
relevan
PROF
plak
hitsYusri
##lima
lum
NAK
lembaga
seharian
Percetakan
Oh
Navigasi
Parit
JEN
market
##asmikan
##ction
dibentuk
peperangan
dicadangkan
PULAU
Antaranya
##edarkan
wangi
Type
sekalipun
##AKAR
Pondok
##ekalan
Aras
diangg
Kesalahan
berlebihan
##acau
##ALITI
pasir
Menara
Bergerak
Modal
Masak
Jah
##ERIKSAAN
##quare
merc
maupun
##ources
plag
Gag
buang
bersatu
Muslimin
pertuduhan
##aper
##EKS
Teknikal
medan
##AMATAN
##amm
LO
##agihkan
sewajarnya
Mekan
Bekerja
Suci
Pemohon
##awakan
kepuasan
Mukhriz
daripadanya
kolam
manu
##igresen
##eor
##aily
##asmian
##empah
word
Himpunan
LED
butang
##49
Fasa
##ubu
seleb
Mexico
Heb
Kul
carta
##ugeot
Form
Tokoh
##uruskan
Tradisional
SEPAK
Peugeot
mahukan
Ericsson
kontroversi
Elantra
baby
Tanya
dias
MY
klasik
keseluruhannya
Kitar
OK
Santa
ungk
MENGENAI
Tingkat
pertimb
##erbai
kotor
spesies
Labels
##enyum
klinik
ED
good
type
##marhum
##ARAI
adab
##PI
Hamzah
##62
##alib
##fikir
ctn
##ella
##ida
persekolahan
parah
Series
bimbit
babi
menampung
Management
Social
selagi
melanjutkan
tindak
KAMI
Selebriti
pember
PENC
West
pilihanraya
##berry
##etri
##vironment
would
##par
Tudung
bukit
Czech
ctnr
##JAYA
serba
PEMBELAJARAN
##AJAYA
mengarahkan
##AWA
##yana
##elbagaian
KESELAMATAN
siang
Automotif
tayar
kapasiti
dimakan
Mok
SISTEM
##oter
##IKULUM
Aspek
##arn
Oct
element
##aharuan
Terdahulu
kemaluan
riwayat
##lassified
##elitian
##jab
sunnah
##gasi
process
fin
then
Tua
writ
##irim
##erbaijan
Jalil
Tahfiz
##ories
diiktiraf
demam
istana
Analisis
ketinggian
Lembah
jaringan
KUN
Manager
##zlee
diajar
berbahaya
komited
##89
##pertimbangkan
general
OEM
Label
ep
AKTIVITI
##till
AIR
risau
WAI
##bean
Jus
Berkuasa
##du
disertai
##gain
menaikkan
##ezakan
##ampong
##araja
Elak
Emb
##ames
Maur
##vey
alukan
katil
Johan
Zh
Lot
##qah
Moving
akar
##tifik
Demi
CAR
dipakai
##sible
##usnah
##mani
##utur
##uatkan
##olution
political
Way
Sumatera
Bangkok
##elin
##ifatkan
Saham
book
SENARAI
##wood
wr
rumahnya
Karya
den
nota
Victor
INFO
Octa
masanya
Complex
efektif
##dayah
##elawan
##ikalau
Nigeria
otot
KERTAS
dimaksudkan
gelang
Suhu
penonton
kelmarin
teliti
Keluar
gov
kup
Cruiser
jambatan
Page
Azerbaijan
Subaru
##87
##0000
##ingguan
dilindungi
##alif
SPA
Ha
Rama
Pelarut
Freel
Rosmah
Dokumen
PENGAKAP
PEP
Niz
##juangkan
mahir
Dila
sampel
##folio
##inter
##iklanan
penjimatan
Politeknik
pengusaha
diatas
PENINGKATAN
dibincangkan
murni
##EMBER
Tasik
Kencing
dianjurkan
##tay
karangan
Harun
Berjaya
##RAHIM
##adil
perhubungan
##Space
House
lebuh
Penyi
gajah
Ikhwan
Roman
dinilai
##zuan
Companies
##ids
##ewas
##aimi
diketuai
mencecah
##iss
IBU
menganjurkan
Ramli
##USAHA
Rangkaian
fahaman
KEWANGAN
##tact
With
##outh
##TARA
##ekodkan
warganegara
HAM
##OMP
cour
Faz
berdua
update
Carian
kasus
Persoalan
SIM
Jet
Bingo
##ALU
##stereo
jujur
Outlander
lahan
halangan
##via
Mener
##lakuan
rujuk
sara
##95
##ego
Adap
##PE
##unggang
##awaian
budi
kala
Pergerakan
PERL
total
##angsang
##bbean
##kohol
tersi
RIS
Seramai
Engkau
Pantas
##lon
Cincin
##ving
##ativiti
Hussein
seakan
##ucap
jadikan
mendek
Karbon
pangkat
penemuan
##ihir
seronok
##ecially
banc
Lay
Maszlee
AGAMA
cekap
balasan
Kucing
Papua
cermin
##72
##anjakan
##anakah
saud
merosakkan
formal
##sul
Silver
##uara
HAS
##urniture
padu
sosi
rasul
##ville
Shanghai
Sul
Khus
##HAT
elak
Covid
##anam
Serb
##UMPAAN
Kebudayaan
Diz
matematik
##amaah
Dadah
mol
Bre
PERJUMPAAN
##adahal
seekor
kesakitan
sulung
Hilang
player
1991
Britain
##nel
Tiba
pemerhatian
##anjangkan
##ms
personal
Loji
konsisten
Sis
forum
SAYA
Mir
maha
family
kasut
##utamakan
memasak
Kecemasan
Mulia
LAPORAN
##ormon
AKHIR
##Of
Semalam
Eksport
##ohor
Booking
kubur
Perkataan
##ertakan
BACA
Finance
##va
menambahkan
REM
Sebanyak
kelam
aff
rantau
Caribbean
jus
gred
##hamilan
##ucian
meneliti
##onjol
Kehamilan
arg
##oyang
Apr
##avy
Makmal
Taip
##ACH
Pent
FELDA
Muslims
diet
##utiara
Sebarang
persekutuan
dikimpal
##ahuan
##ute
berpendapatan
next
area
SEM5
keusahawanan
##nia
##ahamkan
##amerkan
Ponti
##ormatan
berikutnya
segmen
Cur
menepati
Lebuhraya
##AMBAR
lambat
##known
##DANG
Penasihat
##ehold
PERSATUAN
Kejayaan
kimpalan
##ultural
##ady
dibaca
penerimaan
MODUL
Nep
Market
PENJ
hektar
250
memelihara
import
##ilah
Mandi
pingat
society
YIN
religious
PE
##aditional
1980
ditangkap
##erbang
kriteria
last
##tag
##assin
Cand
TEC
Gad
##aba
##elaras
Syurga
1992
##wayatkan
tukang
GRO
memanfaatkan
##nival
perhiasan
Service
Older
menaiki
Oper
penguatkuasaan
tafsir
FOR
Tazkirah
asp
Domin
##yad
Educational
Information
sampingan
Ketu
LEMB
Gi
Ringkas
muhammad
stop
sangka
hitsLEE
melampa
Tep
##wazah
params
Lampu
dirancang
Rimba
URUS
teh
##andi
analy
membersihkan
##iritual
dipapar
madu
##ONGAN
develop
Cong
##anjikan
kekuasaan
appro
terdedah
##anggaran
Bomba
##sida
PUTR
works
create
##xi
##tainment
##iarah
##umbung
ukuran
dicetak
wakaf
feed
Skru
SARA
vaksin
##yaki
##KA
margin
Tor
##entasi
kebimbangan
mengurus
Afghan
Papag
seump
##roll
Khat
Siaran
includ
letupan
memimpin
Iraq
kebersihan
mempromosi
Sifat
##jadual
##lies
sour
Diploma
##gentina
Freelancer
visi
FR
Novel
Lan
protected
##orbanan
Aliff
ibadat
SUS
Anuar
kongsikan
##HIDMAT
memperuntukkan
durian
##reated
IBRAHIM
Jac
insurans
England
72
Perintah
control
perlembagaan
##tit
tersenyum
diserahkan
Lub
##unculan
##eluk
Adat
##HAN
Baitul
##Case
supp
tertutup
Samsung
##falt
TUD
berkait
##minal
umrah
modern
Tube
##daftarkan
menghabiskan
Belanjawan
##jet
Kharina
Bahaya
##etapan
##etika
Karena
ustaz
selebriti
sebutan
##light
JAM
merta
##zerland
##ker
Fiqh
SETIAUSAHA
soft
Urus
##utorial
puan
##ULI
current
OLAH
HAN
Terl
Vantage
Oldsm
Oldsmobile
lazim
DIR
##UANG
bererti
##dalaman
wal
##auman
pemenang
RM2
tersembunyi
berlalu
SL
Fau
##aingan
mengajak
PTFE
sayuran
##abiat
iPhone
Cos
aci
Budak
KAS
sentuh
berpuas
Mustafa
##tasi
sci
Dual
kacang
MazdaSpeed
Low
skuad
etika
Pasangan
Labuan
Naik
cal
keinginan
170
Pemerintah
Jantung
##antahan
pesat
Apple
##azanah
Mahu
perindustrian
##olakan
rohani
##empurnakan
takde
ts
sarung
##imu
Menyediakan
landasan
##ova
##erat
##AJIB
Vokasional
Under
menyambung
siku
##low
Math
penyebaran
notis
mencatatkan
Dist
Hakikat
Mohon
fabrik
Vegas
##empuran
google
selera
Coklat
##ved
penutup
##yorkan
OSC
memul
Times
gelombang
RAMAD
Prot
FAQ
Kerusi
Golongan
kolej
##laksanaan
Amal
membantah
Lift
Pac
PS
Anjing
community
PENYELAMAT
Menulis
Jangkitan
rahim
Memilih
black
ha
untung
Pendengaran
puk
menyifatkan
berpunca
penyampaian
##essional
##auty
Table
PBB
##IKA
Training
Aug
Pasi
penyi
every
Rai
kritikal
Phone
Proton
##aza
dr
##pret
Aff
##ible
berniaga
those
tebal
##aliz
hang
##esta
caj
die
diserang
berpotensi
##afar
mencatat
##HA
Dz
parse
Muzium
perj
BILIK
Daw
Commons
seluas
##unggung
##kala
important
##UDAH
consider
ais
jurulatih
WAK
##miah
PLUS
Serupa
##onic
dipenuhi
singkat
pekan
##izan
Hoki
kant
##anyakkan
sembahyang
kend
##JEK
van
##enteraan
##AIM
different
puak
##ERA
Born
Shi
##TAND
##ceed
##IHATAN
Switzerland
##hat
Madu
ganjaran
kutipan
##ganda
KAMP
Seti
Som
Square
dipl
##ATION
##burg
Deposit
Christ
Hindu
MB
##ajibkan
1MDB
Manfaat
AMAN
Peristiwa
Zam
##sana
##esor
Penyelenggaraan
berperanan
lidah
Jin
mazhab
Ishak
IV
diturunkan
##tabilan
##ajipan
##etensi
Album
Instr
could
mustahil
Nah
##araw
Norway
Water
imb
##entunya
dirujuk
pernyataan
Dizyan
pelepasan
SI
Pengambilan
nis
Maaf
Hung
Ra
keboleh
Sew
Month
berupa
##ador
merdeka
##vious
Pengl
##agedi
Serangan
##imen
sehinggalah
##esterol
ringkasnya
Berry
##empor
Silat
Nusantara
sum
##intahkan
KHIDMAT
##ahlian
menyemak
##oder
berbahasa
PUTRAJAYA
##utip
Adik
Sang
##ahagiaan
bergelar
Unknown
Tin
kontraktor
##imantan
Meskipun
ingatan
Seberang
JADI
1970
singgah
RAJA
ZON
##ejarah
Samad
tro
##ampar
PAL
lelong
Pemindahan
##ahasan
maksi
Sm
dikira
TV
##ential
##isytiharkan
berkuat
Subscribe
##anakan
malas
gerai
suruh
demonstr
musi
AKU
Kekal
##ectiv
pengurus
interest
Syiah
Cy
trim
Newer
##ily
UTAMA
sepuluh
##annya
memperlihatkan
make
##intangi
##luaskan
Flat
Persek
dapati
dipasang
##ODAY
##itasi
bahu
liar
##emimpinan
##tihan
AHMAD
PERN
Ditu
tembak
lukisan
BERB
PERTAMA
Hadir
ban
keduanya
Ariff
manag
Radi
dikaji
Yusop
double
berpeluang
##ibur
##ilid
batas
June
Forensik
Teh
lulus
pemantauan
pelancaran
##vensyen
##omestay
pelantikan
Alex
teksi
Imb
gak
##WAK
##upe
salinan
##isalah
Kuki
##taf
160
Zai
bersetu
Fesyen
Kaum
Dub
UJ
PERUB
dijelaskan
cek
perkauman
##yuman
##ars
alum
##FTAR
Prophet
Pendekatan
indexOf
Sertai
persegi
Psikologi
kejuruteraan
kemiskinan
##ailkan
WEB
##osok
##osisi
Almarhum
KESIHATAN
Bei
manif
Cheng
##Int
penempatan
upd
##ademic
pegangan
OLAHR
memotong
PAD
##ukri
Papaglamz
melantik
Kain
##asinya
Whatsapp
mencetuskan
Ladang
##acuum
mereal
OLAHRAGA
Biasanya
##olongan
hehehe
##usahakan
mStar
keteg
det
##ADER
##omor
abdul
seminar
##IPS
##intis
teruja
##udud
AUD
Leg
Pengawal
sekian
##enj
##75
Pembersih
##OI
Kn
Pintar
berga
Kacang
Challeng
Simpan
psikologi
true
patah
serbuk
##elor
##ESS
layanan
deg
##On
##anaman
PENTA
berhasil
TERBAIK
##rea
##tner
Hebat
adam
penghasilan
Spring
##akam
Afric
keagamaan
menggesa
GAMBAR
membekalkan
dimulakan
menghid
##oft
tri
konkrit
##0061
ditempat
hairan
teachers
now
Budd
RUMAH
Corpor
akta
1985
Fatihah
puisi
obs
Khan
##uq
STAND
##abot
JUN
Zaid
Ampang
suc
##esus
Azman
HAL
Logam
##sych
Kelah
Membeli
Mayat
##impik
ditayangkan
BANDAR
Huj
##ekali
KOR
kabinet
Spesifikasi
Sip
Cemerlang
BANG
IE
##asia
kebun
datuk
Ven
Po
Lupa
urut
Hous
bersaing
selalunya
##apung
malang
##ZER
kele
Na
Pemp
##asihatkan
mean
Life
basah
Langat
very
Mersing
Terjemahan
Milik
##lac
##unyikan
##ilir
##ocational
BAHAN
anggaran
##usnahkan
##KI
buruh
perspektif
Integriti
timbalan
##eransi
runtuh
##emputan
tersebar
Cermin
Gambaran
hujah
ejen
##daks
##utut
Bandung
Wind
Pemasaran
diarahkan
diterj
##sasi
##etih
menghapuskan
Depan
Perg
sekalian
##ined
Shafie
Yun
perairan
kepakaran
lembaran
##PP
penyelenggaraan
##ario
There
Hat
Wakil
Tubuh
sokong
PDTAG
##angkala
Ikuti
##tun
##ging
##RO
Kena
PAH
##nanya
sulit
ditukar
JAWAPAN
Metro
Eko
sastera
memuaskan
Tri
##ewengan
offic
Dun
Alf
Yassin
Nepal
Kemboja
SUMBER
Afghanistan
##UST
##HAR
wahai
ES
pew
SEMUA
Oil
##dney
##urawat
Chat
ug
skala
##erdasan
Landskap
Jawi
Ireland
awning
##uraikan
##adh
bom
magnet
peringatan
hormat
##irin
ANG
gemar
PENTADB
final
Tamadun
Ball
teratur
tingkatan
##empatkan
pengedar
Sabu
SIRI
Adun
Usul
pendidik
##ganas
Bela
##eden
Hafiza
##laun
barulah
##etin
mens
STANDARD
TODAY
##anto
##ague
wed
125
PENGADIL
REMAJA
biarkan
HUBUNGI
##uraian
Sydney
manakah
mendesak
128
Fokus
Keutamaan
Izzah
Jab
membatalkan
pelaku
both
kampus
jambu
Asri
kondisi
penat
Laila
Kelahiran
Inv
state
Yam
experi
SEMASA
##omestik
Total
Arif
menanti
##ategories
##abak
melanda
bersemp
pindaan
##otik
##esarkan
SA
Saddiq
##UNT
terlihat
Computer
##med
penghargaan
Aset
Xp
##93
tewas
##htar
Tani
Lengkap
YA
jasa
Bala
Size
ketinggalan
##etulkan
BULANAN
betina
Saudara
team
Husam
Goji
##hrib
##ajin
beh
petrol
SEBUT
menandatangani
pembantu
perlulah
Osman
##42
author
mengab
Det
##RON
Kejadian
##anuger
Malang
Vacuum
Stok
Wa
zon
Elektronik
kelantan
Website
Sampah
##naf
insentif
medium
##zos
Single
##list
gug
melarang
Badminton
##ATIF
petugas
respons
saintifik
Phil
Ox
du
##eling
PED
Wali
kiamat
##VID
##ayai
##61
##elakangan
Seat
Meg
tandas
entah
PROMOSI
parseInt
Tik
##OHONAN
States
dos
review
Fizikal
bedah
##uff
Theme
##lemen
##JAH
keluaran
harm
Strok
TAM
Tunjukkan
menyusun
AID
mantap
Board
Mara
Pastikan
Jamak
##PS
Besi
##Farah
Entertainment
Francis
hitsFarah
PERMOHONAN
Pip
Ye
Yan
berpegang
##utube
##ebr
conduc
##elajah
##pe
##ono
##dun
Goreng
Mansor
##utuhan
ekstr
lot
memperolehi
MOHAM
KUALITI
dibunuh
Rohing
##zam
menyeru
##siah
penekanan
Petron
Gula
##prise
ISU
Dani
Suspek
##akui
PENGARAH
eksp
##ONOM
menipu
##rown
##the
##aharu
Angkat
Meri
##LA
##ries
GROUP
tauhid
Borneo
Step
Mempunyai
jantina
Teori
##elesaan
SEM816
akidah
where
tersuai
terpakai
menghentikan
Durian
110
##EDAR
Kadbod
Burung
LANTIKAN
sudi
##enggelam
##ekad
Pensyarah
role
White
melakukannya
Vivix
##pert
Daun
tiang
stereo
##EMA
##atural
Sejambak
Bach
using
TINGGI
puncak
Motivasi
KITA
mengukuhkan
Tamil
diagihkan
Associ
ROL
menguji
##raine
##IMPIN
ear
##akuan
##alakan
Exco
Kesemua
##eteran
##awati
Kelayakan
target
window
##emia
BIS
Ingat
pal
Virgin
Pemeriksaan
pentas
roti
Pra
kesukaran
RI
##ander
TI
Kebenaran
hormon
##king
##sium
netizen
##imbangkan
Rohingya
hadapi
asyik
Dickson
Nahas
##aini
Malaysi
terendah
Prosedur
##ordan
YAH
Mahkota
peneroka
SAL
1988
berkomunikasi
merealisasikan
Bukti
SR
##ofa
individual
Kosmetik
Sunway
haid
##omi
Karim
eth
##alihan
##imatkan
Singapore
pola
pertimbangan
av
menumpukan
merampas
berjuang
Minuman
IPOH
PANGG
line
##ges
pelabuhan
bendera
lamp
rej
##we
##ancurkan
Universal
kesehatan
##mis
government
Lahir
##EMI
sul
Beijing
##hou
##OOK
##ological
pengas
Big
cucu
##erai
Penerbitan
Turk
##jo
Open
##EE
pisang
##ENCE
klu
INTER
##kk
Pembiayaan
rangka
slot
Micros
##ICS
Bangi
Nanti
##omas
perwakilan
Sebaik
Pelancaran
PPIM
digelar
Haiwan
##percayaan
SOP
pemprosesan
Communications
INOV
##ejap
##fan
Full
Conc
sudu
##oss
##oboh
Tam
SEMB
Pendapat
##ension
Italia
##ujang
##YAK
SATU
DAFTAR
komersial
##angkalan
sentim
##yi
Viral
present
menangkap
berhi
##ikr
Good
##ajarkan
HARA
Sebahagian
PROD
##HS
reaksi
menyiasat
menjayakan
denda
##edih
DR
ESP
Semakin
karbur
##adam
runcit
padat
terbakar
##ISAH
penguat
Dapatan
##perma
meta
Subuh
Human
UJIAN
persidangan
same
##endaharaan
Urusan
##esto
##006f
##aruah
pemohon
dikalangan
Argentina
Marine
##LY
##INAR
Prab
major
berle
##ether
Wash
clear
didedahkan
1989
yuran
##yr
batuk
sekumpulan
March
PERING
Pil
##do
Panglima
kejah
##impanan
bal
Perundangan
1987
Hingga
Mujah
Makkah
Hiasan
##etujui
penerbitan
edisi
##elola
Maybank
diabetes
##TIF
pejuang
edi
tow
##ayangkan
##raga
##0074
rundingan
Tol
##UTUSAN
Oli
##ongkong
pengajar
##lamak
##eluarga
toL
Sandakan
complex
menyiapkan
Sungguh
Kepimpinan
pedagang
Sekian
##itra
tisu
Alternatif
##owerCase
##abahasa
toLowerCase
Tinggalkan
##arisi
Kaz
senyum
Cukup
##sikal
menghi
remove
##TH
perbandingan
##eringan
##ERTA
BULAN
patuh
##itos
relations
Visitors
BOLEH
Kamal
Suatu
penjual
MASA
Takut
FASA
##upusan
##undur
##ebelah
mekanisme
KA
Ulang
pri
101
dipindahkan
Setakat
Que
memupuk
107
Street
berisiko
##ends
bantahan
##MP
##irl
##odua
gereja
kecemerlangan
Beach
##angguran
America
GER
##Name
##zal
belanja
ketawa
##edak
Juta
##enian
Baby
Temb
FAM
kendiri
interaksi
Ulu
sir
##ingkan
Pembedahan
serentak
Yaman
iv
Naj
menemukan
telus
sepas
Rich
Pahat
menempatkan
Angeles
alkohol
ekoran
Puteh
Kecederaan
Corn
panggil
Secret
Twe
koperasi
##URI
##afat
Tutup
Barangan
menjadikannya
Pep
Kadang
kual
##ograp
Kelulusan
Penubuhan
ten
fas
##irt
asasi
DAPAT
site
Latar
pohon
PANGGILAN
##ATE
ROLLER
Harus
fal
ketak
Peter
melarikan
Person
##lahi
Mama
optim
cs
NOR
David
##ule
##sen
light
Adab
perhentian
kargo
JIS
ump
A3
menampilkan
label
##bit
##rasah
praktikal
Khairul
health
berkumpul
LEL
BERSATU
Mall
Rew
##ray
lamanya
sediakan
Java
##feng
##rani
mendirikan
Darjah
##role
deng
Technical
Ikut
Muar
##liz
TADAR
##sijilan
TADARUS
##alla
pengarang
Sudan
mi
##ime
Sdn
Jikalau
##nn
##eksport
Kadir
Gangguan
single
##ATEG
tong
peratusan
Peningkatan
pengerusi
KERANA
##reaming
cabang
##onya
##ift
##erra
Berapa
bercerita
##far
dipelajari
menolong
##PU
Tamp
berdi
Yog
lear
##RUL
Selanjutnya
Karat
PEPERIKSAAN
##egar
Science
##ewan
keistimewaan
##ebus
Syar
##odata
Mai
Kalimantan
YAB
Plate
sekatan
terjemahan
##tikaian
Microsoft
padanya
melangkah
penjaga
##qi
uang
##ason
##ULA
##0072
Les
Paris
##aduh
ditemukan
71
dolar
saran
buih
##oterapi
bersalut
transformasi
KELUAR
##ALAT
NAMA
##egram
##erap
Acara
##ancial
Bertu
1986
Bina
Franc
Petronas
princip
does
ketidaks
HID
##untungkan
bolehlah
Teacher
Pengunjung
##ipis
##armon
terjun
fre
##awawi
##ajui
ekar
##eterai
##AKAT
##VI
##thers
Kamus
Berkesan
CAW
Imigresen
##anting
Demikian
##ather
Penjelasan
kreativiti
##ohong
Mampu
penimbal
deb
dikuasai
Penyata
##EMAHAN
##opan
TRANSF
A4
Banjir
##ines
skandal
Highlands
mal
##ipas
##erefore
##ultanan
Club
berpengalaman
rindu
##liam
##LDO
##ewaskan
kesimpulan
POLIS
Nam
TAW
##ornia
menud
Saif
apatah
##injau
Spor
loji
civil
Fatimah
Over
Kopi
terkawal
Teras
##uha
Jenazah
Vocational
Krismas
##awas
Liberal
##chen
##oph
Mengg
BULLDO
though
racun
##incir
Calif
ele
##ejal
syariat
fiqh
dicipta
ucap
##table
##rikulasi
PINANG
zah
sejahtera
JAYA
##imi
environment
Rang
ragu
think
Dapur
pip
DATUK
bibir
##Trader
diskaun
Keganasan
SUB
Arm
FES
Darat
kejatuhan
Butter
spiritual
Kri
far
Perf
##ziah
ditinggalkan
Hungary
awalnya
BULLDOZER
MENARIK
duga
janda
##EPI
##akti
own
Sib
menawan
Transformasi
Wong
PERSEK
mengulang
pembukaan
pampasan
Hyd
Range
jati
mengerjakan
curi
Colomb
##onial
Translation
mengimb
Mesti
mengejutkan
makmal
bertempat
##fur
perbicaraan
nutri
Krai
saraf
##OMB
Mainboard
cak
Keempat
HARAPAN
January
California
spec
kit
quality
Stereo
##aknya
riba
##agihan
Kassim
Haj
##apu
Balas
##anka
##hhhh
Bestari
while
aksesori
##ulunya
##icarakan
##ways
dipengaruhi
NASY
Kia
seti
##roleum
##eu
imun
##ampungan
##Element
kelima
firman
JAN
Plas
krim
PUN
Pembelian
Musi
write
pengurangan
sayap
##hah
Chic
SECARA
karburator
##amas
dealer
##jub
diguna
tular
Aj
Kekosongan
##ollar
##isahan
jihad
##hal
##angkuk
asmara
penyebab
Sweden
BUKIT
mengakses
##82
NASYID
Test
##ulation
##ANTUI
beritahu
##anggah
jerawat
ribuan
jalur
mengembalikan
SARAWAK
melkan
Kelengkapan
##BP
demo
Karnival
Adv
Island
equipment
PORT
PERAYAAN
##acatan
children
##lawan
rekaan
lirik
PERINGATAN
Priv
sumpah
Olimpik
Thai
dibuang
Abi
jet
##ps
senyuman
ketahui
mara
##tes
Sportage
SHANTUI
disenaraikan
##ARAT
audi
##alis
Camb
ditarik
menyesuaikan
##soalkan
Ridzuan
tantalum
##obium
Kara
##mpu
approach
didik
Mengandung
ori
##ubapa
Diskaun
Lancer
BERT
Tweets
Union
menanggung
nur
##apaan
ibnu
again
##ualian
menjatuhkan
max
rutin
550
Lum
membakar
wasiat
##tudung
cawan
##GP
Mobil
##acity
700
Tang
Europe
basikal
BORANG
##iyyah
Penggantian
tinjauan
self
STAT
piawaian
membesar
##uarakan
Sari
cili
##TS
Bagan
kalimah
pameran
TwitterKongsi
##uture
##itis
ASTM
mengejar
trafik
Government
active
##emat
Testimoni
MAI
pengorbanan
First
IniBlogThis
semenjak
##dur
INST
Cay
Works
TENT
Misalnya
Etika
Chi
ditak
Fail
hidupnya
discus
cri
dimuat
##hop
dikh
##AIMAN
##eck
Pasifik
pengasas
##0069
mengundang
##TION
berasingan
ton
tepung
KOMPL
Jak
dinafikan
pelarian
##eler
material
##ogi
universal
Slip
Siv
CINA
IKLAN
360
##ersey
IX
kelengkapan
Pemuat
##oster
Bella
digalakkan
Buddha
input
Mustika
Pemilik
vi
Non
Paul
SULAIMAN
##bek
disebutkan
induk
##estari
updates
##yakarta
Tourism
##ster
Simpang
Bicara
kepelbagaian
##pkan
##85
pengiktirafan
melabur
##elanjakan
##owo
penerbit
soleh
##play
penyelewengan
Encoder
##antom
##ots
Kepentingan
##agnosis
CAWANGAN
Episod
Kaya
lurus
substr
Household
##Tube
bersem
Kla
gig
RESEPI
##isap
Poland
RAHMAN
tentunya
pep
##gr
Shar
bertuah
tawar
Mutiara
still
nampaknya
viral
Rap
Alg
Lar
##amilan
penelitian
##uasir
Sesiapa
melengkapkan
Diabetes
84
hadits
Sentral
KEK
##car
Pasti
TAP
##enderungan
1500
##zim
PROS
tuju
Lagoon
Bunyi
indic
##AKI
jom
##okr
Vel
##AHIRAN
##iliar
Rukun
105
solenoid
GST
Otak
Baq
##CE
Perolehan
##lien
##elut
ret
alami
##vertis
dial
Surau
sekejap
PERGER
bertaraf
##upai
##EMATIK
APA
bogel
dalil
Jordan
Kew
Prosiding
Dataran
persamaan
dijumpai
KOL
potongan
kesus
kehamilan
mengenalpasti
##bul
bersepadu
Member
memori
Kang
##yanya
Aisyah
Fatwa
Sini
##IX
PERGERAKAN
Year
##mur
mencintai
FESTIV
sn
##off
##ULIS
Furniture
false
berdaya
##ambi
membela
##elli
subscrib
Gunakan
kesayangan
kir
TE
potong
##utir
##ebum
Islands
TIPS
disambung
penghujung
pesan
##79
Ub
down
Khutbah
wujudnya
estate
##entingkan
Product
les
##MY
KLIA
mempromosikan
##anggih
Pangkalan
Resources
Ukraine
SOLAT
ideologi
Phantom
Jaguar
MATEMATIK
csv
Marang
##emari
pengendali
domestik
Material
Aliran
##TOR
Coupe
CN
user
ISM
George
ITU
bebibir
KANAK
tangkap
Sty
##adhi
##gig
Pemikiran
Office
KOSONG
##aplikasikan
FESTIVAL
Great
papers
Kemasukan
jurang
Plugin
##urungan
FacebookKongsi
##rew
pulangan
Win
Putera
Ringan
##arawih
BAD
OS
mengalir
rintangan
silap
Automatik
Resipi
JAD
disambut
melayari
##akini
TALIAN
Pakai
##etooth
Semuanya
##daulatan
##edonia
Classified
##krim
Anim
prihatin
gb
##iar
Penyelamat
Corporation
Windows
Biru
Nic
##ott
Carbon
Tulang
senaman
##can
membezakan
disemb
print
Resolusi
##onim
Majid
Mujahid
Khasiat
##ICE
##IKASI
tur
Respon
Khaldun
LAWATAN
forex
##juh
dihadiri
hy
Washing
yatim
Chong
Lemak
kegemaran
lic
memeluk
Dukun
lar
ham
mengas
pasi
##iharaan
letih
Keratan
Kekuatan
beraksi
Conference
dirawat
menjalin
opini
information
bancian
##aidah
terikat
Ayer
135
##luminasi
Sesetengah
bersetubuh
##fon
pemaju
kembar
##abut
Dara
ROAD
sperma
##ifi
##umput
spek
perpustakaan
Pertukaran
##tabat
membiarkan
manual
Freight
VII
##ahabatan
##eimbangan
Fu
##tablish
Jiwa
Sambil
keindahan
rasional
Konvensyen
LEB
rayuan
jag
##oro
##jit
##atis
Dipos
Cup
jurut
##74
memaksa
Seder
punggung
##linikal
ebook
kalis
menda
via
menghina
diuji
##elakkan
serat
concept
sebentar
##erto
religion
dikemaskini
Tahniah
Tangk
percubaan
mengukur
##ref
lebat
pasang
Agar
##ules
##akmen
bomba
##afer
Prima
##elintir
Tap
Ratu
##adaban
seram
##ARE
Minta
AKAN
faraj
##jung
##akamkan
Supp
Hujan
SES
Impian
Kabel
talak
bisik
kritikan
##ece
Memahami
##qa
##ujur
##cikli
diwak
Denmark
Pontiac
Pengetahuan
kesal
diantara
North
visual
##OMPOK
Frank
before
Rub
165
Plug
dibantu
ago
editor
##timat
##tainer
paten
ROS
##gium
akrilik
dev
##adinya
##angguhkan
focus
bertur
kebanyakannya
##EMERLANGAN
##anugerahkan
menim
##ider
##ubal
##pt
##udar
End
even
Agus
Cour
PELANC
Brek
MAC
Industrial
STR
KISAH
Light
##tivities
##biliti
GOLF
yo
penuntut
##cy
Eksp
Bookmark
film
pneumatik
##ists
##ibah
Hold
Pear
##eline
Amb
fasil
menguntungkan
##ugut
Adapun
penutupan
syah
Saiful
Thomas
sendi
studies
silam
##omasi
beza
Grab
open
substring
##usion
##ribute
Serbia
siaran
Kend
Abbas
integriti
Transaksi
##ILAH
direction
issu
selected
##ergasan
paper
Cross
GEL
maya
muz
MALAM
3000
Getah
##arium
Sign
Care
INOVASI
MOT
##ikahan
berjudul
Berhenti
PENGH
##epikan
Sales
Edition
##kit
Original
##ulingan
dibentangkan
giv
Recent
Pulley
Petik
tahniah
##nab
cip
State
Links
##eelofa
MUET
However
##sifikasi
bersuara
influ
personaliti
niaga
##UNAAN
##izik
ungg
Portugal
kuih
##ENDIRI
Undi
kunjungan
YO
persaingan
##ognitif
Partner
Nar
dagang
TU
Kapasiti
Lengan
##eness
Transit
Pengkalan
tela
##loom
demonstrasi
Camp
kaji
Report
##okuskan
##APAIAN
##eaker
temuduga
berpakaian
Mokhtar
Peserta
General
arab
Player
stress
Tulisan
##amidi
##ambungan
##irit
##angkau
ADA
Pertumbuhan
tempah
disiasat
##oom
keses
MIC
Conn
Sierra
##rail
##elia
Azlan
Kapsul
Bluetooth
wis
mov
insya
Mix
##Share
box
RM3
Chinese
jemputan
herba
##ubual
##ongs
Sayyid
enter
intro
meluluskan
Roz
ANTARA
PENTADBIRAN
Leave
Jar
Penulisan
hikmah
##UZ
hawa
Timor
Pelacur
custom
##UGERAH
KOMPLEKS
haf
##ecuali
Mesej
eksklusif
seiring
SRI
rehat
berpantang
Terapi
1984
mendukung
PDRM
##aits
##factur
##aduat
merasai
Hijrah
menaik
sepenuh
##Online
pembaharuan
berjanji
menetap
Pelabur
Selayang
INT
ABA
##IMPUNAN
##band
Bergabung
Gajet
lambang
Jarak
mail
##ced
Thread
##ISIAN
Vitara
kastam
pentingnya
Matlamat
##olf
bergabung
Categories
##ulin
Rabi
Buletin
December
academic
##arti
Ultra
82
Warta
##amak
##acana
Kuliah
##dig
##juaraan
celana
Alasan
mengungk
##perties
##asrat
##yallah
menonjol
Kangsar
success
saingan
keluarkan
training
kaunseling
##UMPULAN
Sederhana
bleh
Kaunseling
##IAGAAN
Bayar
DUNIA
SAR
##oditi
bangkit
bersungguh
##irm
Studies
intelektual
Butang
dianggarkan
##ameter
Soft
##pool
PERUBAHAN
Rewards
ansur
memperjuangkan
PERNIAGAAN
Lanka
Yogyakarta
##HT
Pengendalian
dijadual
##idan
bottom
TEN
Tungg
##oper
Biro
##asti
##By
mencuri
USB
##ENAR
keser
Austri
##umbangkan
Bonde
Katalog
haruslah
##tenance
menyuruh
Pandang
Sambungan
Jej
Niaga
##rict
##aps
pemandangan
SAMBUTAN
Pic
Update
Biodata
Oxford
contr
fitrah
Doc
IPTA
pertamanya
Sifir
92
Salahuddin
inginkan
Limau
##estment
##eliaan
Seseorang
PRODUK
kewajipan
hakikatnya
##acunan
Manch
nafi
title
Neelofa
##emparkan
ditempatkan
perbankan
prog
fatwa
number
berdarah
interpret
dituduh
takkan
OV
Tanggungjawab
pengendalian
economic
job
len
##elf
pemberont
mobile
##trik
dian
KB
Kreatif
Pemprosesan
ih
RAMADHAN
##reas
Zakar
Barb
Minda
Bor
na
reserved
naj
berehat
dinamik
Tangga
Sebulan
Perjuangan
Fath
##eraian
pengawal
##kanan
hitsROS
Jambatan
##73
bengkak
gatal
mobil
protein
##INT
khalifah
dilu
Iv
diproses
Tuah
##unami
nih
PEMANTAPAN
##antut
kerangka
hitsN
bertan
Selesai
Cetak
##ongg
##CC
74
seawal
desc
produksi
Romania
rakannya
##adun
kritis
##AWLER
Kraft
SUNGAI
##anjil
Harap
Price
##tiga
##hael
Sepang
CRAWLER
##rahman
Telegram
East
189
cent
ver
patung
tegar
berbeda
BAS
Religi
Nasib
baiknya
##osak
att
AKADEMIK
Botol
##sword
Bendera
##use
##IDEN
mutu
mutlak
hudud
Terkemuka
##luang
sahih
##edung
serb
FAC
Ray
Permata
besaran
Tek
##olik
Gl
##tipu
##ticle
91
sertai
pencarian
James
##iston
Bilstereo
ANUGERAH
anggap
santai
divid
miliki
Rosli
pengetua
com™
WANITA
COVID
diak
establish
tanggal
Maju
Kastam
Bahar
pening
typ
Perusahaan
Bun
Amaran
pertolongan
mengancam
Senin
##asy
##ungun
##minkan
##76
ular
##kuasakan
##bour
pengganas
penganut
metod
JADUAL
Qatar
bangga
subscribed
sempit
LA
SIS
Pacific
They
Conf
Daging
##IFA
Mee
##irman
Ship
segelintir
Upaya
Work
Papa
Enam
menggabungkan
Cans
AND
Ep
##Malaysia
##AKU
##down
Penapis
##isikan
json
Belgium
groups
BANT
Ubah
kapas
PAHANG
PRK
MET
##char
Lakukan
AGONG
kebijakan
less
##JID
pendakwaan
HOT
##atukan
##ustry
Masakan
bercampur
Personaliti
Spare
USA
jimak
##ULAR
222
CAL
93
##amples
perasan
Kehakiman
Laci
seles
019
Asmara
usus
jelasnya
##laim
ISBN
KECEMERLANGAN
Vari
digantikan
##urnian
arguments
##eorangan
bakteria
Rantaian
umno
##auna
##iffon
##PT
Enterprise
esp
Don
##INAAN
binaan
ditanam
##XU
respond
Adnan
prim
Maharaja
##laah
Alb
##iliran
kurus
Line
damai
meyak
Kamis
aktivis
YAHAYA
##armonian
bermasalah
Kecamatan
yer
MASJID
##urung
PM
POP
##gy
##ds
aspects
nar
##siapa
Petunjuk
##Script
Panggilan
Tayar
Nab
##des
##uary
ummah
##unty
aluminium
Kulim
pengertian
navigasi
AMANAH
##erry
berhasrat
LAGI
bumbung
##eluargaan
berkurangan
nyany
Mingguan
terbunuh
ARAB
menimpa
beralih
tangannya
USIM
JENIS
KELOMPOK
rajin
berbunyi
Febr
menghadap
Aktif
elek
merasmikan
##wesi
##epren
penjen
##emes
tabiat
membah
talk
##ulitan
Riwayat
##Ch
Kebi
Bersepadu
lautan
shop
contin
sistematik
logik
Razif
CIMB
Austria
rob
##ASEK
juadah
AKAUN
Juni
##ONGK
nyer
kebahagiaan
tajam
pesta
Minum
##ragma
Job
JAKIM
menggerakkan
PANGK
Mahasiswa
October
tertarik
Permit
FREE
1983
ler
##irakan
Pemantauan
Sof
##akia
Bimb
PENGGAL
Tukang
##ecahkan
Profesor
ayahnya
memasang
dibatalkan
berbicara
##boy
Farid
##RL
addClass
comel
Blue
fard
##abuk
Ummah
kepemimpinan
##ke
sejati
penghuni
memindahkan
definisi
ketenteraan
##uchong
laser
ABA26800
Sejahtera
posts
berbilang
##ites
##esenan
Aura
mengatur
Kontrak
bercadang
##emik
Sejuk
activities
dekad
##tiar
##aliza
years
jasmani
Victoria
perlaksanaan
Mega
Rope
##ittle
Equipment
memin
AMALAN
ramalan
Tujuh
berkep
169
tergolong
Bung
RALAT
Teb
RAHSIA
Bendah
sesekali
Kering
Khusus
86
Stain
JavaScript
February
kronik
Finland
menanam
kesabaran
##AWAT
kejahatan
Aven
Zuh
communic
mengkritik
Asma
PEMBINAAN
menyes
BLOGGER
1982
KEPUTUSAN
maksudnya
mendekati
saing
Perlombongan
Diameter
Rakaman
persendirian
Skuad
menara
mineral
baginya
dibangkitkan
means
pembentangan
##yatuan
subuh
berkh
adv
##arag
href
sujud
BANK
LAMAN
##laimer
10000
##daus
Magnetik
Mond
DIP
TVE
sepertimana
templat
transit
append
##angkatan
parent
pengembangan
amalkan
Payudara
##ingkai
##muk
##umsi
##ecahan
ekzos
Mikro
Pow
##ICARA
Sisi
Pelik
Takaful
Aur
##diket
JA
regex
##irc
##truk
##stein
Istilah
Istimewa
KEMAS
Riau
moto
zat
##indari
BAPA
Misteri
Dur
Kubang
Bani
service
Rahmat
##urther
PRU13
lumpur
dinaikkan
##utihan
##logan
Penyanyi
Satur
terbentuk
Mong
##vensional
175
tertuduh
##laid
KEMAHIRAN
Harimau
Mesra
hus
ternakan
pras
Perodua
tang
Son
##aloi
##iringi
League
96
##elisi
##angku
kebangkitan
##ellow
Disclaimer
keping
construction
petikan
sembuh
done
maruah
##AGE
upacara
FL
iklim
RAKAN
##cover
Juli
tahanan
##SHAH
##ebalan
radikal
Tawa
##unaan
invol
##haka
seketika
penglihatan
implement
Hin
fund
geg
Tokyo
sesawang
Wrang
memeriksa
Janji
Comment
Bursa
Tanam
ketegangan
##ilu
Platform
kokurikulum
Manchester
nature
##ikah
WANG
Dungun
JAS
##raktik
ABA26800XU
gur
About
##mir
BAG
CAD
Perut
indonesia
scholar
KEDAH
##rick
tembakan
##itor
Uz
Traditional
Puchong
kolesterol
berucap
Psik
##To
sif
jersi
##indrom
aje
AZIZI
TP
dak
##yh
Sasaran
Tro
##UU
Petang
##imanan
Razali
ARAHAN
##IKAL
kecerdasan
Wrangler
Pengetua
maintenance
Kesultanan
Selak
waris
peminjam
munasabah
Nob
##janya
##import
keluasan
##for
sebagian
mendatang
81
Zikir
Bapak
Cin
##ESIONAL
##itch
Agak
Jumat
TEMPAT
kl
##terj
BENTUK
sosio
UMT
Zamb
Lailatul
##ONOMI
Kw
YouTube
kalendar
Premium
baja
PERHIMPUNAN
Edit
Stats
Saifuddin
liga
hitsROSLAN
Pengasas
Kemerdekaan
Malaysiakini
##sue
Medical
Langsung
menjimatkan
Cafe
komunis
##ungutan
episod
Sale
##onc
##He
Bisik
Mahf
Thur
Agen
PRU14
##ailer
asrama
##USI
##erus
##incare
Jami
Sha
pertikaian
penyejukan
Organization
Membina
Aluminium
dinar
##ZA
##akter
ci
melatih
##ERD
menciptakan
Language
direkodkan
Pameran
Firman
Mono
brow
tanggung
Fo
##awuf
terbitan
BAB
##ross
##egan
teguh
signific
##UTERAAN
berturut
Bachok
Saluran
RASMI
EUR
Tump
Tau
Dev
Sentiasa
##interaksi
##onyet
Policy
ILMU
##ubin
Kawan
##onor
SERTA
membangkitkan
Kamera
##okkan
##URUH
Fah
##bahaya
berkat
Minutasi
judi
Exc
regard
##epend
mementingkan
Next
PENGISIAN
TIM
Batuk
Ferro
professional
tempatnya
count
perbualan
Kant
organis
##roker
BEK
sesak
PENGEDAR
Publishing
Ten
menerbitkan
##aksiran
##ongkat
##rehensif
##elih
berahi
menewaskan
win
AU
lutut
Ne
Rib
ENG
Terbitan
field
Dongfeng
Niat
renang
tenggelam
related
PERKH
##unjukan
##occo
Singh
login
DIB
canggih
##matang
EKONOMI
##ussalam
taubat
Med
Rona
##FER
Selera
##ajakan
three
HIV
reformasi
akui
EV
Cuit
seksual
bersemangat
##Per
##INK
AUDIT
PERKHEMAHAN
##ADILAN
merek
rumahtangga
##ANGAT
##entolak
place
Staf
Daily
Kazakh
##aiban
Mendapatkan
Tarik
Siapakah
Africa
Maul
##urniakan
ideal
ATAS
Tinggal
Fot
Selalu
Society
Persediaan
Film
##ending
##AFIAN
disyaki
Mondeo
BAJ
##tikaikan
BICARA
cint
dimainkan
cend
Canselor
Maya
Motorsikal
script
Rot
Dubai
lag
REKA
menerapkan
Head
Mekanikal
##inggakan
tadbir
Image
Gila
##HM
Institute
NOV
zalim
Avenue
kemunculan
period
##uke
Budi
##pu
##usta
hidro
Tawau
impro
Sudi
sihir
peluru
Maria
old
##onomy
##opsis
perbahasan
##die
mentor
ilmiah
massa
cerah
Jimat
##Mu
Mia
##entury
##400
menghidupkan
PENAFIAN
arak
##umpaan
menandakan
question
mengalahkan
dipetik
Tit
Wawasan
BUAT
Algeria
cina
heavy
##ingkali
##tifikasi
##utarakan
##ulangan
melampau
jp
Tanaman
##UDIN
meraikan
mind
##SHAHRUL
##icon
BERH
kesediaan
hitsSHAHRUL
Perpaduan
Berasaskan
##sess
Store
Suf
Sahih
ASY
Airb
berak
terfikir
eksekutif
A10
Penyu
Nurh
penggantungan
liberal
ster
tampak
didaftarkan
akun
##oal
ahl
##fitel
Pink
SAM
##yy
Sofitel
Khalifah
nuklear
mic
SABAH
Penyalahgunaan
abs
##lege
aturan
Hantaran
##tamad
memajukan
Watch
Peratus
mengaitkan
Yaak
##kusi
Engineering
dihid
agresif
without
##utaan
menyekat
Phot
inves
##mit
##IVERS
123
accord
Johari
Metal
upah
kesah
Generasi
Tumpat
subur
Center
Prabowo
bosan
Card
Panc
Uthman
Serdang
Properties
PARTI
mir
Hip
##ogrid
##ULU
ADALAH
kompetensi
agung
##olabor
ratus
##erapan
Yuk
Lelong
##emon
115
inspirasi
##ahaha
Maghrib
Today
##ridge
Cerit
##osed
san
dipandang
periksa
##ahad
##older
##angganan
148
kehebatan
pilot
##yih
JANGAN
##ONI
Sovi
tunas
Qas
she
##ides
dipimpin
sultan
PAKEJ
memproses
Bio
##FX
Jauh
keliru
##ements
fam
dikurniakan
Liver
Azan
berfirman
pasca
##aisuri
Sunan
Maran
Siam
ra
usah
Homestay
Guar
berinteraksi
speed
PENTING
##lek
##ele
##arac
Aksi
Bea
##zo
AJK
##lection
##ookies
deter
Ath
monyet
##ators
##006e
terperangkap
##egakan
Gamb
address
##ipulasi
Perbendaharaan
memanjangkan
Sudut
mama
dipersetujui
stor
didirikan
##LEC
Suku
Kun
94
dikurangkan
Trac
pant
employ
##apisan
Tand
lebihan
350000
gesa
##LINA
siber
TVEIS
Sarah
Fiji
##ukarkan
break
Hantu
Qadar
Was
##Jo
##apus
Poly
dikutip
Bis
##ibub
Beir
balak
memulihkan
mencerminkan
karb
##aving
tercapai
Hamidi
hajat
##sist
hantaran
Semangat
Iklaneka
##nat
##ingkasan
##Info
mentadbir
RAZ
HIJ
Korban
menghubungkan
Meja
tum
##eku
REP
##ibubapaan
Beirut
Rekabentuk
analysis
komentar
tamu
Congo
##tile
##iram
Jasin
taat
jasad
dibebaskan
diwakili
Persembahan
##RMIS
Grup
Ingg
Pengeringan
exist
mengumpulkan
disusun
understanding
urutan
peduli
##afasan
sugg
JUR
pujian
MoJo
truth
NI
##embahkan
acc
iPaper
NatOnline
Baqarah
ZUL
rapi
Soviet
berbau
pencipta
Championship
##idth
##NAIM
seribu
Trib
##OST
ditembak
##alinan
tid
testimoni
##eha
pertempuran
liputan
DARULNAIM
event
Penyelesaian
Pusingan
Persekitaran
bisnis
5000
buasir
dipotong
Semenyih
pot
##BM
Perikanan
Semulajadi
ghaib
##resh
ngan
##enger
Remb
towards
sejagat
ketenangan
Michael
##istret
Cheras
##suai
Teruskan
MEND
marin
leaders
ASET
digambarkan
##tific
##ITE
berdagang
VLE
Permatang
##otai
mempercayai
Boy
IR
Palsu
Pengendali
##antui
##alagi
##tum
Hos
spekulasi
beredar
##IKIN
amnya
FIFA
##eburi
Peniaga
brek
Sujud
perihal
disalurkan
Herb
Kustom
##ampai
sulam
##olitik
organiz
move
Menerusi
##UARI
Pesawat
kekerasan
Hor
##anaan
SEKARANG
##anggapan
##OF
Revolusi
Taiping
DOC
##ival
Arah
##larasi
source
hip
Kazakhstan
YAY
bangs
dihukum
kitaran
##muan
Syaikh
Menjelang
RA
prib
rantai
mengutamakan
pemilikan
##lash
tengahari
##adkan
KETI
Khazanah
Seed
Bed
senyap
Prak
##incian
derma
Jaafar
memerangi
ANJ
geram
SEBENAR
Khairy
Tutorial
ONE
Datu
panc
Matahari
sorang
perangai
terti
AWANI
Fa
Nordin
mee
##ifa
behavi
##verage
##itinya
Perspektif
block
##akm
ISA
tertekan
cTrader
##uty
##endan
##celand
QY
##ISH
##jang
URL
penasihat
##ekar
##ector
##ewakan
Shamsul
Loc
Pembentukan
Kuih
lam
##AWAN
pernafasan
cerai
##berg
norm
membimbangkan
Georgia
Jim
##urch
help
Events
Lamb
Francisco
henti
##MM
PROFESIONAL
integ
empayar
978
##jubkan
kedaulatan
##ungut
OB
disertakan
kesesuaian
##ategorikan
##EBOOK
PAC
##alet
Supaya
balai
YAYASAN
##kanlah
particip
##ability
Mulai
Hen
cac
nipis
##dr
From
hitsH
TA
##word
Enakmen
tertumpu
ISMAIL
LASER
perkampungan
Dengar
geran
grafik
berz
##lahkan
##pha
Rafizi
Wahab
Patut
Tong
Biji
management
##wati
##cepatkan
TAB
##eved
Senaman
NIL
Adib
##house
Karaoke
Rad
##ahnya
Laser
FACEBOOK
##eranian
added
wedding
##otton
##perimen
MODAL
kepadamu
kun
kipas
litar
Yasmin
Normal
##edang
Baling
##tig
Realiti
##elarasan
594
Pengec
praktik
1960
kian
Indian
##erahati
##UTI
Kembara
##SM
gempa
##aringkan
MAKANAN
diisi
skit
Youtube
Harakah
1969
Biskut
benci
ape
kebelakangan
terlam
vokasional
##NAH
Mut
##patutan
900
304
##entas
##EMERLANG
diberitahu
sarapan
Tonton
Tay
##reams
##opia
diterapkan
plugin
CEMERLANG
Click
##NM
penambahan
##uw
HRMIS
Taib
Kuning
menuduh
Organik
BEB
##nas
penjajah
Isma
INTERN
Dup
bersara
kestabilan
Booth
Serikat
##0064
Slovakia
Quality
Jon
kemaskini
pengkh
Cyber
Stop
klien
##eribadi
berlari
##ALAMAN
Segera
##epakatan
REF
##epe
##pers
Penyusuan
menjemput
Liverpool
##orandum
##Pan
melayan
pendatang
Luc
pentak
Hard
Gadget
nes
PETRON
rumit
##kriminasi
ari
dicari
tertulis
elaun
tunduk
KETIGA
##embara
##riculum
##BO
Hall
##anjangan
ZAM
##sigen
##liti
Yunus
kecenderungan
130
perlombongan
roll
##NIV
asap
DASAR
Ariffin
mempertimbangkan
##andom
Penyediaan
##ORMAT
##elapan
Central
gasket
Mimpi
Pengesahan
##haj
Pern
PETRONAS
najis
Gaza
##AWAL
Ling
berke
dipegang
KPI
##uasana
Kaca
bikin
Straits
udang
kewar
mantan
tragedi
Comel
wabak
##lete
Inggris
Maksudnya
ER
galanya
Ste
introduc
##Samples
beranak
##ANDU
psik
diputuskan
Channel
baris
Hill
Temuduga
mempamerkan
##0073
HIDUP
diangkat
pakatan
MAHA
##Health
Manufactur
ikuti
##eret
Perbu
penganjur
##enia
##isher
UNIVERS
requir
Stainless
Ikatan
Madrid
Filamen
##ongkang
##uguran
Ammar
mark
mempersoalkan
Kongres
TANPA
digantung
##ento
Hanafiah
##atia
berperingkat
KI
tipu
penanaman
zikir
Muslimah
kondom
##ended
Country
penyalahgunaan
Qasar
kebal
SUCI
##sche
##aunselor
spread
BON
Siku
##ural
##paun
kuil
William
kognitif
##elanja
tingkap
Estate
Azam
obj
##rman
Pontian
given
Dialog
berisi
##verse
Iceland
Liter
Memandangkan
prov
fot
1974
SEM921
KAMPUNG
Pesta
tingkatkan
LOP
##ocr
HANYA
Kehadiran
Suasana
zahir
rukun
##angkai
Onn
Grip
##nb
pengamal
default
##embuhan
Firdaus
Ori
kesem
Izz
8000
Kebaikan
Jasa
TAR
contact
Jurut
terbatas
Baki
Gara
##odo
Penyej
ungkapan
##kripsi
Bazar
Kecemerlangan
mengunjungi
diti
POPULAR
Shawl
Kemaman
##tiva
premium
##orp
Active
low
nam
konsert
##uriti
##lot
##atri
Fib
Za
legal
Coast
##Height
perolehan
##head
LTD
miliar
wali
ketahanan
sombong
keselesaan
sinar
##giat
kuala
Tamu
laras
bersempadan
kesatuan
ext
##cast
##tity
##ando
whole
##tol
Syari
diperhatikan
Inflasi
##lease
Kokurikulum
Penyidik
Tuntutan
fem
keharmonian
##engerusi
Amar
Kluang
Dewi
Jelebu
Fusion
dihormati
Moden
Yunan
sebabnya
German
senior
Donald
Lux
mawar
##YATAAN
pengumpulan
sekeluarga
##ellite
menyebutkan
pindah
##umuskan
Pentadbir
MED
servis
provinsi
melambangkan
BANTUAN
MESRA
Hebei
oh
membimbing
Salim
##ejay
SILA
mencetak
ikatan
natural
ditangani
##did
##enjar
dimanfaatkan
hasilnya
splited
1979
purp
Kone
DIAM
##vers
Seng
##ecat
##edaan
Tunggal
dianugerahkan
diuruskan
##ampakkan
InsyaAllah
Elec
##AKAH
screen
KAWASAN
student
##unda
pengakuan
Lampiran
##ingkirkan
berkela
Sering
Rental
MAD
##jahan
Urai
Mamat
Yamaha
Gereja
dilalui
PERTUAN
jpg
keimanan
Abad
above
Milan
tanggapan
Manek
created
BUNG
##OND
Peruntukan
bumiputera
culture
SING
##71
##asah
mengingati
Yesus
aurat
Ronald
##ikmati
asfalt
##olia
620
selia
DAI
nada
pentadbir
People
Ghani
menyalurkan
ratusan
bertenaga
Roses
Feedjit
##edakan
Sehari
##arafan
KENA
pa
Senang
farmasi
##iqah
##inger
##udup
reason
##eart
beauty
Jihad
##ense
Berikutan
##esion
aspirasi
AY
1957
SEM922
##aging
Ust
##ergy
Nan
##itro
Inn
Like
##uncil
168
Royal
##UDDIN
mikrofon
##ENDER
Pembangkang
practice
##batch
PENGAJARAN
GO
##net
##field
##NIVAL
##bal
##sar
Pain
kecik
nadi
##oice
Kenangan
Kasar
##ditions
##sifatkan
Sidek
serbuan
Nick
Valent
MINIT
TUR
##uaan
keatas
Yak
Mid
Venez
##ikul
##ully
Stock
dituntut
bertutur
Cha
Dollar
darat
##Peng
##mualaikum
Majistret
perf
tender
pelekat
##EAR
pelayan
Sports
Penglihatan
ketakutan
issues
Rezeki
ay
##unikan
MENC
##impun
##AZLINA
hancur
mengingat
##reza
Inspirasi
KARNIVAL
click
domain
TAMAN
##sil
Apartment
Hidung
Deejay
Pisang
kenalan
sambung
118
August
DEUT
terlupa
diwajibkan
Iq
Pender
siapakah
Peru
SEO
UNDANG
report
uji
memfailkan
##Panel
Keyakinan
berhijrah
##nr
telek
phil
simple
##ulurkan
##ceedings
##timate
kebetulan
pedas
2021
kalinya
Rohani
performance
FIZ
Lautan
mempers
##vel
##eritahuan
##eliruan
##HATSU
##RAF
dikunjungi
DARJAH
DAIHATSU
during
KEG
##iakan
beribu
survey
##elilingi
##ourg
Shipping
##ayatan
##angsangan
PEMANDU
Membawa
Jurulatih
##iranan
kemarahan
berkenan
Sea
DEUTZ
##UNA
Import
Colombia
Ero
syar
##eritaan
Menerima
##gigit
Cast
Perbandingan
jem
##ARAAN
Brand
others
pengiklanan
ASYIKIN
##abad
Aksesori
garisan
mengiktiraf
Oliver
mandat
##1M
Speaker
Fort
diakui
dist
feel
##agih
Sulawesi
Usia
##KK
##emburu
Baja
TAHAP
Awak
Individual
Suria
##SY
##iverse
##220
merebut
Wala
Nelayan
Unc
##ecil
Cuaca
##ahul
Dalaman
TUDUNG
MUSLIM
peralihan
klip
##xel
LI
1981
publik
Merangkap
produktiviti
Cloth
PAKATAN
DIRI
Imran
##hysi
berkunjung
konvensional
##rankas
disyorkan
##eping
membeb
pastu
kadangkala
PIND
Tulis
kekalahan
Joko
autonomi
Kanun
Pod
ow
tangkapan
##llahu
##ility
pemacu
PASIR
Hik
national
##SS
Hurai
KUMPULAN
REJAB
LASTAR
kelemb
Impreza
berkemungkinan
hitsAZLINA
JAWAB
Dimensi
frasa
seumpama
AMG
pengiraan
Access
bateri
Siap
kejam
##aph
Publications
##ingkah
##uela
berib
##usu
Spur
EKSA
##sak
##Width
kupu
Bog
EU
products
Bit
##endung
dijemput
prev
##acakan
##ife
Kuw
sasar
##BT
Holdings
disifatkan
Bahari
WAKTU
mengisytiharkan
##iani
ISTAN
Indera
Control
Stylus
##igami
beserta
WA
##engerusikan
Iron
teacher
COL
jangkaan
puluhan
Ning
MR
Eff
OVF
Katil
RAG
matanya
syarak
NEW
Larangan
himpunan
memuji
SENDIRI
kebutuhan
Malaikat
Universitas
Janganlah
##ZI
##lator
able
Garden
sedekah
Formula
ditanggung
Suntikan
menggel
Hala
Lok
159
##600
majmuk
##ayanya
111
Opsyen
##osistem
Hurairah
Pilihanraya
alaihi
##ILL
Ikhlas
planet
VI
##JANG
##ENCANA
ABU
position
gender
mempertingkatkan
Captiva
Raj
peroleh
membentangkan
pesi
##tanya
Tig
##lina
USM
since
biarlah
##encies
##AILY
PRES
Safari
another
24Info
24InfoHealth
Keusahawanan
kesuburan
lanjutan
komprehensif
KASIH
persahabatan
Edge
SUP
Penerima
dibuktikan
Tela
155
1976
##aves
susunan
diusahakan
LG
TEST
##ilal
Nawawi
Kraf
UC
Wei
cultural
Angin
memasarkan
##ertain
berpengaruh
##anjat
basuh
Taklimat
petroleum
don
##Code
##ugu
dibiarkan
##ompin
pelawat
##untah
Percaya
Buruh
Tamb
belian
UPNM
CIK
Pingg
fri
EKS
sent
##ucible
##asarana
nescaya
Sap
ceria
Ditulis
Used
##das
kesucian
Temerl
ADUAN
##ebutan
##EED
bercanggah
Ringgit
##ctnr
listctnr
Du
Youth
MUDAH
Meski
MENGH
pengganti
LU
terapi
Tal
##atiku
penyimpanan
##abiliti
mengutip
bersejarah
bertahun
against
awan
ketentuan
##ketatkan
ibubapa
relationship
Terminal
prom
Temerloh
laksana
terbahagi
anak2
Potongan
Buff
portfolio
Persaraan
KOKUR
Mantan
kuku
Mengambil
rusuhan
McD
##SB
##ADAT
syukur
Kutipan
menyenaraikan
Fenomena
Cle
##ukuhan
akak
Maahad
Keterangan
SAS
SIA
TAMIL
BIMB
menyerah
Sahaja
Moga
resipi
within
ij
Maktab
BAR
##ajaiban
ibarat
Saringan
##etiaan
give
Berambut
poli
simpati
Jari
SHOT
Pandan
bor
Permulaan
Sudirman
Kuat
Rum
KOKURIKULUM
##aith
seberang
Empayar
Brankas
Ternyata
Simple
##ky
komik
KOMUN
Cros
##mall
##SK
##tiliti
##waan
doakan
Naim
Reb
MOTOR
menghancurkan
MENJADI
TERIMA
##tiang
berperang
##anggakan
UNIVERSITI
cas
Penerbit
##arin
BAHARU
Camry
##empurnaan
TRANSFORMASI
Ads
Pindaan
Phy
##epreneur
##ditional
terbalik
Permaisuri
##oul
##Asia
##unyaan
##umentasi
pangkalan
baka
##ganegaraan
SEG
##ahanda
Excel
Nikah
##isytiharan
##320
bincang
Zakir
##eneral
Xia
Personal
Kesimpulan
TAD
##bol
says
Esk
##DM
##JEN
mengikat
Mengetahui
penunjuk
Zainuddin
askar
Jilid
peka
##lipat
berpas
##romi
ECRL
plug
College
##ming
mulakan
considered
lantaran
##andung
##integrasi
posting
seringkali
KDN
bersaiz
##erikan
Fasil
1959
Sets
##ianat
##landaskan
LAH
due
RISALAH
Daniel
Agenda
Limited
Challenge
Pot
AYAT
##fly
##stone
Genesis
Jed
Welding
kesulitan
kekangan
diperkatakan
Celebr
Cyp
Tech
memerintahkan
##ribd
Kurus
bercerai
meas
geng
ketepatan
RON
WH
Columb
Telinga
Husin
penghormatan
karakter
##ebalik
##ampiri
erat
lok
Robert
##ulk
BUD
Titik
##umbu
Khemah
terapung
Alk
Bayangkan
Leon
Ziarah
po
kelikatan
billion
Rizab
##uksi
Sant
diharap
ganas
Termasuk
##utuhkan
nisbah
Dif
Instant
cubaan
##eras
Hanger
naib
MonoSpace
dinasihatkan
##pal
dilanda
Laz
menjurus
##PAK
Perai
##ework
While
##EMIUM
layar
ISTI
##ribution
##ingkir
bertolak
transport
##reg
Roti
Iden
indeks
##agan
Rena
##wim
aneh
##AMPU
XAA
royalti
##QA
Intro
Mig
Bell
Room
tuh
##well
Meninggal
seper
##rad
Fl
LANGK
jurnal
Istiadat
dikategorikan
Penjara
##inambungan
Rh
strateg
sebaiknya
memusnahkan
Hussin
Teka
##atib
Wedding
berpatutan
##itab
Biarkan
Yunani
Rose
por
record
##NES
memetik
##QU
KANAN
menguatkan
Padahal
Dian
Fadz
Alias
##upsi
Syukur
Rembau
Ga
Bug
scheme
SED
Cut
##iam
##KAH
disarankan
hom
didi
##ilmu
Padi
Latin
Hendak
Pemenang
1978
##yek
tersenarai
##ocok
tsunami
##jat
higher
menggariskan
maksiat
rap
##ACA
##biotik
cakera
##qas
Stroke
##CR
berkali
rasakan
##fiq
pemiliknya
BERAT
Ibadah
PIAG
sentimen
perlakuan
Penguasa
significant
DIK
##ovo
RM5
table
Perpindahan
Politi
mengadu
##ustru
sentuhan
UI
##enne
##laluan
dijamin
Alloy
PIAGAM
ulamak
tahfiz
Situ
jarum
gugur
##sinya
##ITAM
##WAN
##uskrip
Butt
##03
UTM
Tatacara
repres
aja
##ogan
##utis
##anie
Asian
Kuwait
Ruangan
download
defini
Study
charac
##cine
##angkiti
shah
Privacy
##ticles
Agro
serah
Tembak
Khabar
seragam
berteraskan
mainan
Cakap
##KN
##kuiti
##angsungan
Dedah
bait
COP
kompeti
periuk
jejak
berbaloi
terms
##BAH
Eropa
Mengatasi
entiti
##uriat
##ografik
##ALUI
Point
Kaherah
kabin
azan
philos
Hikmah
Zion
Teg
##org
Sibu
menghisap
Kl
##isen
BO
UTC
Miri
wahyu
setubuh
outer
alatan
Saidina
##awaan
house
enc
BUNGA
biasiswa
diterjemahkan
dugaan
Bedah
disel
minima
##iy
##lusive
pembakaran
saudaranya
berurusan
##ocor
##IMONI
##aching
##anced
issue
technical
nyatakan
##tisme
##jaksanaan
Fabrik
Bercakap
Sinaran
Electr
SUN
dikekalkan
firma
##isiatif
express
##LIMEN
##erials
Kecekapan
Mahfuz
Sinopsis
FAT
Pengeluar
##efahaman
Powder
##nabi
merosot
##uruk
##epasi
pengecualian
menyerupai
##trin
taklimat
TESTIMONI
Drop
Eight
Azizan
Tetingkap
responsible
##ening
##ITAL
effect
Wafer
##KS
ajak
RAGBI
resmi
Ci
##ITAR
Pud
cup
##uras
pros
Serta
skrip
penghulu
##dadari
##ees
menyarankan
##untung
##urukan
perceraian
Mek
Perisian
Kelapa
Psych
semacam
Kebersihan
MotoGP
manifesto
##EDAH
Yusoff
wan
Memastikan
pendengaran
Duta
ORGAN
harmoni
Masterbatch
##rina
MELALUI
suggest
harimau
Mengurangkan
Induk
DNA
##amo
berlakon
revolusi
PAP
TVET
bazar
MAKAN
merangsang
Berbeza
mengguna
PORTAL
merangkap
menyempurnakan
Petrol
Lic
Sebelumnya
building
##ingankan
Monter
PERLU
JO
##embar
menggunakannya
##ebumikan
Studio
##impah
##ungguhan
##endawan
geografi
##alization
DAH
BP
dedah
##ungkai
Tinjauan
##elaan
ELBI
##ANCANGAN
PENGURUS
Zub
##lain
Tahukah
harganya
Penimbal
##ours
##OTO
membiayai
Pand
##igur
PARLIMEN
Berw
Jeneral
Kepuasan
1963
taw
##ally
ASAS
Lati
sholat
Cambridge
theory
112
Buloh
rumput
##umbat
padding
semesta
##oliday
Kamil
AirAsia
various
##angguh
lafaz
apapun
bagaikan
##OWN
Genap
kesesakan
Spa
##minya
bol
cemas
OM
##roduk
##ditioner
##este
Ts
unggul
##Tag
##ucks
Silicon
MIL
spesifikasi
##ently
##unjang
kuota
Assalammualaikum
gantung
Huda
PUASA
Saturn
tom
##ubarkan
Era
gl
Sharifah
##EDIAAN
aqidah
##uliaan
##tisyen
hol
##USIF
Lanjut
meletak
dur
mengenainya
CRUZ
lawak
pic
transi
Jeddah
gergasi
TERBARU
memecah
terbit
Yong
##andukan
Bahrain
dirampas
IJ
##lications
change
toleransi
ehwal
##ABI
Syaitan
PIS
kepunyaan
dendam
Fauzi
berlandaskan
oksigen
tatabahasa
KPDN
Ink
Beet
menegakkan
##ohanian
AI
ditandatangani
##APAT
Jerawat
ess
##AYAH
risalah
Student
collap
SOH
dipat
ekstrem
##liances
Bai
##ASM
##ruz
terhasil
Muhamm
Machang
CHE
Nurhaliza
Rantai
acco
hitsMohamad
capital
##che
dikongsikan
pengawasan
Jatuh
##ubern
Kemalangan
kekeluargaan
Verna
berbelanja
mukim
penapis
kuantiti
##eribadian
##oakan
income
##asiun
kejutan
benef
Jagung
Kemanusiaan
pukal
tenggara
##AID
juru
jalanan
##ample
##isia
MASUK
Machin
spesifik
bergambar
kalsium
travel
Bean
CRUZE
SIJ
##AMI
Tunggu
gitu
##anking
Diego
Kop
shopping
##arus
##gilap
##ompak
PEMIMPIN
##ATIONAL
hamp
lumba
##lie
warni
Pulang
##Berry
##hops
recei
Airbnb
##kam
Belt
gagasan
KONT
Boliv
Dj
##auf
Menjalankan
##rar
Construction
##emala
##ush
Kitchen
KEMB
disamping
##iriah
khasiat
appliances
azab
shawl
KELAS
Wit
##gence
##ifah
Merokok
##asihati
mengetuai
KAKI
Bund
##arahi
kekeliruan
keterlaluan
ISTANA
Deal
129
science
Rokok
KAND
##ression
Pertuturan
offices
##EMPAT
SYARAT
browser
Satellite
kurma
Genting
val
Dominika
MUK
rom
Perasmian
Hay
Tiong
Love
pinggir
melon
pentaksiran
HADI
Candy
Jho
kebiasaannya
tp
Gagal
Chang
Merancang
##istics
##hhh
Libya
Duster
JPA
jep
Ashraf
##arui
chiffon
Made
##akmuran
149
Maut
##zed
mention
##ubernur
##ASAAN
##owong
musnah
diameter
PKS
SEMULA
##ARIAH
Memandu
corona
bid
##imanya
kekec
##amit
step
Fast
Touch
Entri
practic
pand
slogan
Sell
Buffer
##ucer
SHEN
buaya
Tentu
let
Chile
Guat
Inisiatif
pengagihan
diraja
DAILY
Sumpah
kesannya
diedarkan
Pembukaan
SIJIL
pedalaman
BAKAR
Rais
berserta
menjaringkan
Sabda
nyanyian
Arabia
sopan
CADANGAN
Pala
##ean
sejam
permit
menyusu
##thea
ramadhan
Kebakaran
keahlian
BlackBerry
##lock
KURIKULUM
Faedah
Sao
BISNES
secukup
KOMPUTER
lun
Komponen
Madya
Kekasih
##tihad
pembuangan
game
Pembuatan
##okratik
##uler
SIR
Wagon
vokal
Jib
Investment
lapar
provide
##syat
setinggi
LAIN
Meter
##arram
##USNYA
kekosongan
PAT
##icip
curang
##elung
##angkin
pecahan
ISTIADAT
diteg
quran
Renault
menyuarakan
history
Lembu
##Type
LEMBAGA
##UTUAN
OctaFX
Well
Selat
PERSEKUTUAN
Buang
DIJ
Lembut
laz
Bulg
sapa
Diter
Macau
KENYATAAN
##anga
khat
##afal
nom
Express
Venezuela
Aiman
khutbah
##abu
##erbitkan
Pipe
peradaban
Cry
Perkilangan
become
STATUS
##akasan
sampaikan
komposit
##tention
bn
kraf
Editorial
BERHAD
##bin
##uareg
Sentu
kerabat
##ahim
Kay
eq
putar
tekan
##zur
postdate
Kehilangan
##met
##AKIT
exc
Tunisia
miliknya
PEMANTAUAN
hargai
According
##titude
Wahid
Shirt
pemuka
terjatuh
Beetle
##usa
Althea
Armen
Jo
Anth
Nisa
Sedia
PATI
sos
##alukan
##APP
Japan
drop
PERAT
139
##OLONG
membebaskan
SEM919
jak
Bijak
##ahului
STEM
Dek
kilogram
papar
Hilangkan
dihadap
##TRON
##AWAB
four
Penuntut
Let
DiR
vot
dilepas
##ylon
##asuh
##lywood
kalori
Touareg
##onis
Penampan
Previous
Geg
membetulkan
Melakukan
including
berun
##tories
better
Gripper
Lebar
Melak
Vaksin
takh
Alm
special
##0075
needs
kag
Gam
Wir
##anjar
##304
dipaksa
185
##encanakan
difahamkan
##orongan
##mbak
Kegunaan
TAWARAN
##adillac
##elaraskan
##obohan
##ieve
Zurai
Saleh
Imbangan
banduan
rejim
Hond
##embiraan
Embas
##TV
ketag
according
##indas
DIY
HAKIM
dong
##UMAN
busuk
RUU
##niat
Jama
kehakiman
1965
Cyprus
poster
lec
##isha
##io
babak
menyerap
BERL
TAHU
ISO9
ME
##po
##lying
Telur
##ularan
concep
JOM
head
##ESA
BANTU
##opter
##encian
tarian
##ugurkan
komoditi
getElement
##SURI
##orida
Sewaktu
##ambique
Tiket
Highlander
singing
##erma
##tures
scholars
Cadillac
hot
butir
Kesejahteraan
menyalahkan
##okol
Mali
dirasakan
Loop
tanam
APR
Azila
banglo
##enap
puji
dibungkus
Suite
penjenayah
mengerti
Div
Pelantikan
home
sepasang
sesudah
WIB
##akapan
especially
##avel
Segmen
ULANG
seku
penghawa
Ret
Motosikal
Guide
Hawai
judul
blackberry
##asurat
Wolf
physi
core
##anter
Content
Mariner
##uce
live
BACAAN
bujang
##SE
##odon
##isim
##hed
mukmin
##antapkan
mendadak
menentu
ga
Perancang
##ensive
##ANJANG
##obak
TPPA
Latif
Bau
##TON
care
known
Sebagaimana
asalkan
medical
##RU
Patah
KPK
Bimbingan
kelainan
##78
tasik
Shalat
Art
Nazri
pembesar
path
mn
##KIN
##AWI
topi
PENIL
NAZ
wira
##ADU
umbi
Bahagia
Posting
melanggan
patrio
slip
tambang
pengundian
kac
kedengaran
Laju
bising
##ycra
xde
menget
dasarnya
Berter
Sukarelawan
##lm
##unggah
Related
diluar
trek
HIJAU
Suri
Ditanya
##cikli00
##fe
##uak
diasaskan
Ceritalah
umpama
Bunuh
selangor
tembaga
menganalisis
Kud
Pensijilan
##ULLAH
##ilainya
##wiah
held
##poran
pantat
jagung
PERLIS
##ramework
terputus
Mendengar
River
members
Diterbitkan
##optim
licin
mig
Crosst
Guatemala
Celebrations
Miata
##emporari
perabot
SETER
Definisi
andaian
motorola
##tunya
##suaian
experience
Bill
Bennabi
##itatif
##uel
##awanc
kuman
##ETER
##006f006
penjajahan
##andatangan
cuci
Allaah
Chef
mengel
Pemanduan
tarif
Crosstour
Kalung
Tepee
SETERUSNYA
Wnd
Wndows
Kutu
##stal
##itia
technology
pd
##yk
atasan
reading
Rompin
##lai
##afa
Elakkan
Sweet
biaya
Menjaga
Pentaksiran
Richard
collapse
veteran
lantas
mufti
##urance
thumb
Pauh
##chet
##alonan
KATA
##idor
119
##ophy
Batal
KEADILAN
lemas
original
##afkan
BERM
pelay
puteri
##azir
Therefore
mengabaikan
##stat
silver
berdosa
KEBER
##ekuensi
Last
bungkus
penganjuran
9001
KUL
konstruk
##0065002000
memburu
Madrasah
##elirukan
Mawar
kubu
##ASEKOLAH
NILAI
Cecair
EF
Note
Ganjil
Costa
Washington
PRASEKOLAH
ICERD
dakwa
mirip
Campuran
IH
Jentolak
##anggal
pemboleh
BILA
selesaikan
Haid
##isai
communication
nikotin
melihatnya
integrasi
##550
320
##omon
sejajar
##tify
utusan
complete
Bawa
pekebun
simptom
terganggu
##gis
##antasi
Pulai
##ebang
##TIC
##ongkok
##raktikkan
ditekan
diharamkan
BIMBINGAN
Rindu
##ritis
Murs
##TIM
pemodenan
penggal
STRATEG
bercinta
##yani
tayangan
HARAM
animasi
##heh
PENILAIAN
kesemuanya
##YAH
Gren
TAMB
menyangka
serantau
utamanya
parit
mengag
merugi
kedudukannya
MANJ
KEPUTERAAN
lepasan
##ONE
soci
merebak
Sabri
Penggera
##rian
Forest
SC
##ocoran
Offic
Khairuddin
bingkai
##acita
pita
wad
grow
Kembar
##ARIS
##IKIR
CATUR
##ebelahan
meyakinkan
##upas
laci
arr
Speed
##NING
enak
eap
ikon
assalam
sb
Niobium
##fera
dija
dikembalikan
eapecially
##lakan
##raulic
##rab
##dih
##enggam
PERBAND
##GU
menghayati
##elenggara
##iup
##ucture
GRADER
KUNJ
terdengar
COR
##nai
penentuan
Fitrah
##ropika
Walaub
tonton
##mission
padahal
dikumpul
Shafi
##SIAN
Keuntungan
##yai
star
paksa
pria
##ubli
VIP
Kesedaran
##HARGA
##endi
Demam
##nye
Corona
ges
yg
Ess
meringankan
kecacatan
##andainya
KERANJANG
Dinar
Nazrin
Bosnia
##nie
Pass
COMP
haha
observed
Story
##essage
##orthy
rakyatnya
diutarakan
berangkat
pembatalan
Keras
##AHSURI
##ques
hitsMAHSURI
##olet
certain
Gerak
PINDAAN
touch
unable
Mengk
Akrilik
Fisi
##qad
##orbankan
muslimin
Laos
Titi
Little
serangga
Marsh
Muharram
civilization
Slots
##eff
##adankan
Fitnah
Hum
KW
disiapkan
MUDA
Pearl
Persepsi
##egiatan
EXCO
Dol
##adamkan
##ubahsuaian
mc
kelangsungan
##afi
Brook
Croatia
SEMINAR
##nu
##kir
##ane
alhamdulillah
Ilham
tikus
muzium
Sauna
pati
MENGHAD
Tunjuk
ulas
DAA26
Penggali
Perfume
##agut
##iform
Mozambique
cetakan
tegang
##aguan
diperketatkan
dh
kedap
Uzbek
Huss
AMK
menegur
Malangnya
##Sl
##tima
Based
REL
jururawat
terbina
Presint
Tue
broker
ELEC
##enali
##usuhan
##ete
##ilis
##rie
menunjuk
##away
BERTU
Duli
##baharui
By
asam
nan
013
keje
menghidap
##suran
pelanggaran
Operator
##uaf
Akibatnya
separa
Yasin
Jamai
ALI
DiRaja
Tosh
Talib
particular
opinions
1948
Ca
bersiap
Memiliki
kekerapan
ZAI
skop
Pita
##aco
SAHAJA
dreams
pegang
##rof
atur
##omet
match
##orkeling
Selcom
ketiadaan
Hawaii
Ut
##yarakatan
lorong
Alana
##redit
kemurungan
future
penyumbang
Seragam
telahpun
ISO9001
meriah
caranya
dibekalkan
manja
powered
dijadualkan
pembahagian
antar
abg
Did
pelumba
balan
##not
Civ
Kamarudin
##urahan
Zuraida
##asib
ASB
engine
Berta
DRI
KAL
Keboleh
Malim
split
kepadaku
rombongan
pemilih
ila
##fie
SMFA
tamparan
Galvan
biskut
lampau
##nak
AGUNG
curriculum
Ballroom
Armenia
##engers
jelaskan
Juz
##adiah
PKP
justru
Adawiah
look
Penguat
Cash
##antangan
IAC
Biasiswa
moga
HAB
Sepat
##aif
BADAR
Litar
sebilangan
WAJIB
menerajui
OPERASI
Rupanya
Majikan
##itt
pernikahan
Plastic
Pelancong
bermimpi
Kegiatan
lek
##ALKAN
145
karier
imag
muntah
##ibdenum
LELAKI
##onokkan
hitsNor
ET
sindiket
nec
bertudung
##awancara
direct
kesusahan
##wich
DIT
lintas
huraian
##amana
##cent
##WP
Sciences
##eon
teringat
Jos
heb
##xia
These
terpengaruh
##ondan
strok
Jangka
Tome
##edihan
Just
##udaraan
BRI
Oman
suntiang
tertua
suai
Jambu
##dal
Council
liabiliti
##bian
##etti
##kuburan
abah
NOT
##PH
Akar
350
##tani
Jamaluddin
Laks
keseimbangan
Young
continu
priv
tog
Mum
Rail
berkepentingan
Len
##tianak
Kapas
NAJIB
##MENT
mengungkapkan
##iblat
Slaid
komedi
##order
##usuk
rest
1967
memuatkan
##fitnah
##tazah
Akidah
Carl
Rat
setara
Seja
KINI
diduga
Zulkaedah
##jukan
PROT
meninjau
dijaga
Perkasa
KELUARGA
PRESIDEN
penyusuan
getaran
##abiatul
Geogrid
Bac
Ext
Tolong
waktunya
Mub
Bagh
Jerantut
lazimnya
SEBUTHARGA
##amy
##ENGG
kebijaksanaan
Lelongline
money
Mich
##ihatinan
##IDE
##zahirkan
Virus
perjumpaan
bit
celah
asy
reality
Ly
##ied
berniat
##egara
berkumpulan
meluahkan
##ello
Detik
Plaza
##EFA
##elisihan
Yellow
meletus
terser
minim
Pengangguran
Shopee
Found
yea
##Eng
menyakit
1280
respondents
direman
opacity
berkel
Cai
bla
##adawi
deklarasi
khal
##dle
Qad
hitsRabiatul
BUM
##ectives
##ampang
Akhlak
motiv
Hydraulic
pemutar
Jaminan
Belah
ud
Pembatalan
Alban
Saja
TOK
Yakin
bersabar
##mes
Porsche
Thus
Kesilapan
belanjawan
hard
RM4
memperkasakan
Register
##ERT
##WAH
##elawat
Penja
##ISME
SYAWAL
##lia
##Plus
##aziran
beramal
Flu
Silinder
##fully
##tahun
##tuya
PANGKAT
Yaakob
amik
PENGEL
mengulangi
ms
perila
tradi
##URE
Toshiba
universi
Islami
Kolam
penceramah
molek
diingini
Glass
##silah
##angkapan
automotif
keuangan
##atani
lapang
##FC
##utter
Kompas
kurangkan
Prib
BERD
Zaki
Terat
kejiranan
TOP
regi
##ighty
##restasi
Syafiq
kus
##eca
##dagogi
Photo
##nic
mengalu
##win
##andarin
Path
dihentikan
Difahamkan
HATI
memadai
Taq
##tantuya
disedari
##gaulan
biarpun
Russia
Kamaruddin
Code
Paya
Pindah
Wood
pangkal
fact
pepejal
##utik
dikembangkan
Salv
##celona
Hub
stadium
##VES
##elis
##umer
Zionis
B40
menembak
##EMAS
Pandai
##pcs
##IVE
Puk
##side
##azi
pengisian
Ancaman
156
sabun
##sori
KEDUA
##utra
Berpuasa
MiniSpace
keperibadian
Ramlee
problems
Responden
Nikmat
Bib
suri
Mawi
##arung
jalang
pelindung
Memulakan
Pulse
Nizam
Terms
kebencian
iron
menamakan
example
atasnya
playboy
Writ
kapita
penerapan
##autkan
Abdur
ANJURAN
gal
Penyerahan
1945
financial
##hij
berkuatkuasa
##POR
kesungguhan
Disini
##udh
sukarelawan
Ear
Honduras
##pak
##mon
mengam
108
kebas
##enggong
Yukon
kawal
Bush
Kecuali
merangka
kenali
826
##erc
Tauhid
DPR
mood
Pelepasan
##oritas
##openg
penyus
diwar
Pengiklanan
##IRA
kenyataannya
##zaman
meres
##lient
Majoriti
##titatif
editorial
##fat
ribut
##DING
diukur
turn
Perwakilan
Ran
sawah
##360
##efinisi
selamatkan
##temu
deny
PERBANDARAN
bernaf
Templates
menampakkan
##ikopter
menghukum
labuh
angkasa
Berhubung
Sani
sehinggakan
benua
Jamaica
##WAR
Bisa
melepasi
MESTI
##time
words
Focus
##elasah
##UDI
SIMPAN
menyenangkan
Pendedahan
achi
Keluaran
much
##dillah
HAD
selamanya
##angkali
SEA
##rauma
##statik
##usila
menakutkan
##orat
##obia
Percubaan
water
upon
Fren
melupakan
tersusun
dimulai
##atory
##loor
titah
Asasi
TAHUNAN
Penutupan
Process
PERP
Televisyen
items
menggun
ank
mengimbangi
Guang
Tow
Penjawat
berkurang
Bulgaria
Saad
Jaga
besarnya
ahmad
Panama
teguran
Kahwinmall
Daj
Greece
attention
##ukus
berpandukan
Sunni
Perguruan
Nomor
##ominasi
arnab
##jawatan
Bari
pendakwah
menakjubkan
##usn
juz
KKM
letakkan
##SN
TRAD
Pick
ling
##muddin
carb
implikasi
Hidangan
lokal
##sub
##gaskan
Sosi
Yani
##350
rantaian
hinggalah
bijirin
##zir
diff
##oyan
pusaka
##olis
##eful
##unyit
##tafsir
##ONES
Konkrit
kron
##asikal
mulutnya
Alumni
Kimpalan
chan
Perlumbaan
resume
Butik
ketujuh
buru
##IAAN
Association
##amic
bersendirian
Tunai
BERBUKA
Perunding
penyeliaan
Uzbekistan
hijrah
diskriminasi
copy
malahan
mengu
membaiki
molibdenum
##kulator
Hadits
Pember
AFC
Hawa
##tha
Princip
Temui
gemuk
bergaya
DRIVE
kebolehpercayaan
##dirinya
taktik
Cek
Civic
bersah
##anyikan
further
SMS
##onstruc
arrow
Marqu
Lug
badannya
UA
##vention
pemborong
kata2
secepat
CPU
Gelombang
Racun
lycra
teror
Ramb
Tengok
Ahl
##mary
##alun
Barcelona
##adow
hina
##043
##jadinya
pelincir
1956
Sesuatu
Count
Yatim
pajak
company
Ulum
Marc
##lication
Barangsiapa
tabung
##luas
hidayah
menyakitkan
Nuk
STAR
##MAH
values
Berjalan
takaful
tertanya
Tony
ciuman
PILIHAN
Berf
conference
terbanyak
##lasepak
255
Mail
bertepatan
##ynas
bersebelahan
atasi
1950
boot
KELEB
##ategor
Pilah
##akhiri
##arto
Jamil
Farah
Faraj
##con
terawal
Pengaruh
display
silinder
KELEBIHAN
sint
seo
memantapkan
genre
diucapkan
mengirim
Autor
rez
TAPI
##rr
Kebebasan
TEKS
keburukan
KECIL
Ug
gar
tes
##ulik
kesenian
##sessment
penghayatan
kerjanya
schools
bengk
##estarian
internasional
Eliz
Racing
Rosak
ROC
Chua
Nin
jum
Terlupa
disambungkan
Kotor
tertera
child
Distribut
##ffee
PEDAG
Miss
Balak
Asrama
##zaliman
Ilahi
penyata
##2nya
##action
Sout
BAHRU
alm
HOTEL
beramai
##ette
Pengarang
Kesehatan
siv
eksperimen
siswa
##yallahu
berbual
Vito
berlepas
bubur
1975
Gin
1977
rangsangan
##kanun
TN
Sedunia
pusing
Columbia
Visa
course
Mada
Nutri
smart
Lagenda
perilaku
dibolehkan
pentern
##pective
Portugis
GE
Residen
studio
aura
FREEMIUM
McDonald
Trailer
GOST
ekuiti
Nizar
##olaborasi
Siew
Holiday
Memer
PapaG
Untung
##change
mempercepatkan
berlayar
##juta
##ABU
BAYARAN
Prop
gandum
Disney
berilmu
jutawan
pertar
principles
Republic
dinikmati
loop
sehat
Sesyen
Fitri
crepe
##bau
menyukai
Kemen
Amanz
##itius
diser
Emiriah
Situasi
Haut
Anas
awek
##UASAN
Additional
##GAS
Beh
mertua
inner
tutur
##def
Pemanas
##ned
baw
rang
Track
menyiarkan
Ebook
mabuk
##ISASI
Sufi
thinking
Tarawih
cair
putera
saf
lapor
Systems
seberapa
Maret
Indi
##inggung
khalay
Segamat
DEAL
HAK
Sindrom
Runcit
Jong
##aratan
merakamkan
##etup
##embourg
BERSEP
Mauritius
Lipis
LGBT
tukaran
Mazlan
nahas
Dawn
##acle
##empar
dikebumikan
Molding
sales
bawak
independ
Queen
##ASIHAT
istri
TERUS
Format
Sempadan
membayangkan
dibakar
dijanjikan
##fr
baiki
Fab
##press
##ived
Py
sukarela
BERSEPADU
random
pembiakan
pasif
##ared
##onokan
Shukri
Penyampaian
khasnya
piawai
188
##iskal
panggung
##andra
operator
bh
Pengurangan
##isit
penyerahan
kartun
Olah
Terhad
gay
PINJ
##mega
##UANGAN
Themes
1971
PENGALAMAN
dipisahkan
##eluasa
##ismillah
FOTO
GEN
##empas
##digma
Counter
penjuru
inflasi
##asteraan
giliran
berarti
##izat
Begitulah
##hyl
Printing
meaning
anhu
jutaan
HAF
berganda
pertahan
Hakikatnya
lumayan
##onna
Kampong
Nylon
REC
ziarah
Hasilnya
MINGG
Chal
terbaharu
Upah
DIA
MIS
hai
##BJ
SMA
MERAH
Pantun
##abeth
Teaching
jajahan
##tick
interview
Yu
Integrasi
Kemenangan
Makluman
Gubernur
Bateri
mendalami
##ekonomi
mangkuk
PEDAGOGI
Curi
menyatukan
sufi
kuki
TADB
Machinery
Ward
##rup
##urukkan
##timpa
berku
chang
BERSIH
Memperkenalkan
printing
SOK
Puisi
detail
##oji
desakan
Islamiyah
sukatan
robot
UPSI
Biarpun
##ista
menderita
##aktub
##ghfar
Senaraikan
sense
Demo
debat
menyanyi
Viano
alahan
Macedonia
intervensi
Senjata
##ylene
merendah
treler
LEON
Tanj
fer
SYARIAH
TAS
Puerto
Instrumen
pembaikan
##ONESIA
kin
radhi
Arabic
Fasha
MULIA
##25Ex
##Ker
dimenangi
teki
##enjara
##bourne
Wall
Fai
proper
##usif
ol
##kop
dilanjutkan
Spin
kacau
rasminya
Lahad
Meta
pura
Safety
Bugis
Mengangkat
perguruan
Xperia
Asam
Makmur
Menghilangkan
DEALER
Mangga
compet
JER
Lukisan
moss
##tibar
motif
Mandarin
Ihya
Jejak
Ars
Bolivia
HE
1973
Berlaku
Asar
Tangki
##ple
Moral
pontianak
Infografik
definition
Wira
##coin
##aww
Pemberian
Sawit
rumusan
contest
##aisy
Gian
questions
Song
##ados
minoriti
BELAJAR
A105
penyedia
Tadi
##eph
Create
Tomato
terpisah
responsi
##akup
dielakkan
Konsert
##eno
##sapp
##etar
terpenting
##ongkan
Keracunan
WW
kemuncak
lapis
Skincare
##ACK
rekabentuk
berapi
Parsi
keletihan
##izinkan
##ontan
##mpangan
##OKI
##rated
##uguay
BATU
##enah
Berl
protes
Magnet
Bagus
##hion
dikenalpasti
pahit
menyasarkan
menjanjikan
PINJAMAN
pembuat
##iliun
Site
ipar
##enggan
cerpen
bermacam
Jururawat
PALING
##JK
##ATKAN
truck
concern
##ASMIAN
dilepaskan
##ilau
##usik
katak
##mum
memukul
KEH
penawar
Elemen
##embung
syeikh
##ambat
Unik
##izz
Jalur
PAGI
deli
Kontraktor
Tib
KELAB
MOHAMAD
diab
Shantui
Marvel
moh
Bentong
understand
Klinikal
teater
Add
bayangkan
olahraga
Prog
##indo
Mizan
menasihati
kura
emb
ucapkan
Cayman
##aduhan
menjangkakan
selebih
Tob
sets
##elation
##awasi
##EPAS
##aili
##ANGSA
terminal
Tumbuhan
##ompet
Amaz
##beratkan
tasawuf
##ubuk
Khir
dipertimbangkan
INDONESIA
diakses
##eros
##angkar
alim
Jepang
##emai
pod
prosiding
KUASA
petisyen
tor
##elus
MANJOI
dikumpulkan
##URA
PEMBANTU
Billah
untuknya
perla
beku
Ecu
pupus
Project
##izie
Entah
ambik
ELECTRON
KOAK
INTERNATIONAL
takhta
Bogel
beranggapan
disalah
SEMBILAN
character
##rifkan
Habis
Asm
KOAKADEMIK
Berani
tercatat
Navigation
mac
Stasiun
multi
Hil
PROJEK
disebarkan
sejurus
dirimu
##rete
##jik
Krisis
##rihatinan
##vo
Modular
##aguay
temubual
##overy
##iklan
lingkaran
##ESCO
AMP
##tained
Fed
##ibawa
Mary
Know
Nora
menyembah
##Net
##Key
##Jabatan
Perform
adakan
genetik
##alisa
##etia
Flor
chalet
angkatan
Marketing
##town
ugut
aim
diaf
digabungkan
performed
audit
terjebak
PESERTA
Yuran
mudahan
Rujuk
teratas
List
##okaan
##zania
peredaran
situs
Telek
##zhou
kesep
common
##Text
dijawab
dividen
Ming
##embaraan
Petra
##ELL
Penjual
cookies
melekat
Gur
Mulakan
##tamar
##empit
Christian
Autoradio
##ahit
##emilangan
##eksaan
Dalil
container
dihapuskan
##usnahan
Memakai
Sejumlah
##elles
pemberi
DAK
Zur
inform
##ampunan
diganti
Labu
Honor
Pengesan
following
white
thought
Bukankah
##hus
adap
sekitarnya
takdir
iftar
diorang
Angel
Annuar
##ibbah
Latvia
dampak
berterima
Luxembourg
tuntut
hamzah
916
menggoda
local
berkelayakan
mencuci
Ez
Kus
Pertemuan
##ANGKU
Lagipun
saks
##edekah
Kumpulkan
District
109
##redi
##IPTA
remeh
selebihnya
NIK
ketetapan
SENI
Jalal
Kronik
##iro
##ongga
fardhu
Anthony
didengar
niz
##ius
Slovenia
HD
expressed
Beng
Alkitab
rampasan
Keahlian
Hussain
lik
Chen
Asid
RED
penalti
pengukuran
##tivity
##UKU
Jacob
FAK
##TE
maknanya
Ris
##suri
diafragma
Second
Lumut
Smartphone
Risalah
kutu
##antunya
bertaubat
##antinya
##YDE
berpisah
BANYAK
tekak
Lemah
martabat
Sampul
PENCAPAIAN
Wartawan
Perasaan
Fari
UEFA
Anis
SUMBANGAN
Kangar
##raviti
ELECTRONICS
mendoakan
Grafik
difikirkan
##iramid
##gayakan
##andarkan
399
perd
penarafan
Rumahtangga
Sonata
dini
Merupakan
Harry
Contact
Sak
Password
dialek
##dikari
Brown
##entrik
Mongolia
SAF
bersekolah
Girl
Md
taq
Mitos
##eger
Avengers
Bob
Kediaman
##iksel
1966
LEBIH
Massa
Dilarang
galas
##tabatkan
##ansuhkan
Daf
##isata
dorongan
kesinambungan
norma
Tahir
HOM
berenang
arena
Kacau
berundur
badminton
Siswazah
Fik
Luk
Penyelidik
Mazhab
Iklim
Puncak
##oks
code
##aren
terla
PERASMIAN
Author
Tingkah
penularan
Mengurus
kabar
Mikr
Kiriman
560
##anteras
bent
bong
##BC
Menjawab
berpusat
saranan
##adijah
Reform
##avelength
menelan
Walaubagaimanapun
Albania
Happy
diarah
jug
Saman
##ancel
bantal
##haan
ditimb
Ef
Jodoh
Kebesaran
##alonkan
memecahkan
biologi
Prac
fizik
Pemakaian
publish
##IAH
membebankan
keenam
Buruk
Perayaan
temui
hidupan
seumpamanya
KLYDE
giat
Butterfly
TENTANG
wacana
##ibia
##ats
##tuh
berlubang
Fisioterapi
Benda
##yuk
2025
dikuat
rock
##AJUAN
Memperk
Fad
refleksi
Gong
perasmian
Rotary
##inati
Pengering
guide
sebegitu
BERP
BANGSA
teruna
reply
pinggan
membicarakan
##ungkinkan
##eless
##quir
GAL
Rawang
##under
Wavelength
##obe
Lingk
perpecahan
Terjun
##tery
##raw
penyejuk
Kond
thor
amali
dijangkiti
##abul
kekunci
Hidayah
Wittur
Bloom
##ekup
keluhan
percep
dianalisis
jawi
##wara
Ansi
digerakkan
Trafik
Please
Ghana
##nakan
Rico
Golden
pari
##ansur
adiknya
teka
asnaf
Lawak
##iji
##UAT
##kuan
batasan
KENAPA
penyerang
berfikiran
Integ
260
ditujukan
Fadh
##ux
menyamar
##yung
seumur
Rasanya
##ilasi
##elag
merayu
##okrat
kepalanya
Partai
maklumkan
Desember
##ulistiwa
berleluasa
kamar
##edap
ditingkatkan
ZHEN
bertanyakan
##orts
Academ
##ancy
##ATOR
berbangsa
##amental
kemelut
Riyad
Pecah
HUS
meg
penanda
Prix
menyimp
berputar
direncanakan
##220BJ
DAA26220BJ
Tuang
Ekstra
##self
Dagang
Handrail
##eof
nafkah
JANUARI
Dinding
Asalkan
Portfolio
Cop
Visual
Introduc
Dekat
pengaw
Cip
iluminasi
investasi
tuk
##Call
Vib
akur
Sahari
Xpresi
kualitatif
membesarkan
menyembunyikan
karton
Bangun
Amirul
Ringkasan
send
ai
##300
kesepakatan
berpandangan
Dosa
menyeronokkan
##sies
##egasi
akn
TETA
##ures
##150
Amran
yah
##eton
WHE
Kelemahan
challeng
mengorbankan
Malta
Elizabeth
sever
TUNAS
OST
berkempen
kebesaran
sip
Advertis
TADBIR
sembelit
Lew
resit
##araku
mencakup
Suhaimi
Beta
Relak
cocok
kesetiaan
##ilkan
kene
Baba
##ask
perintis
menghampiri
terhadapnya
saintis
Valentine
##INE
gam
LENCANA
KERETA
Wag
merugikan
sarang
terselamat
##utsal
Subjek
Uruguay
BERTUGAS
diatur
##olok
menonjolkan
##ration
##yim
##erson
Memasak
415
fo
riz
##avor
kemasan
Tajik
energi
##ENANG
Selalunya
Inkjet
Pena
##church
Fasiliti
Memohon
Pencipta
Penyelaras
Graduan
Komersi
##ellec
Matrikulasi
whatsapp
Ultimate
ZAMRI
SPR
##ontoh
Barakah
thorough
LOADER
AE
##vet
##ANGS
Karang
##lied
##aksasa
Sit
##ithuan
Reading
##aidi
harinya
Dang
melu
jurutera
WHEEL
dimasak
Fern
##ibar
##apatkan
Lam
dialu
Promo
limit
Tanjong
berpanjangan
##earing
##ESTASI
Universe
Melbourne
twitter
menyedi
Jamaah
MD
##dut
##DER
kerohanian
things
YUS
##HEP
JKPAK
##isation
kuantitatif
bidadari
bun
Istan
apa2
##ERITA
SITI
Kerap
Tian
##oti
##ajalah
##ERK
##entum
organizations
Charles
Ecuador
##eover
Peraka
diselamatkan
pencerobohan
Tumpuan
Galvanized
rate
Skor
Asfalt
##ordinasi
salahkan
didorong
EKST
tubuhnya
mengelirukan
##late
jepun
melaka
##KLUSIF
Ethi
Pengadun
chef
Electronic
##LIAN
diyak
gim
SEPT
PUAN
Kids
Rhen
##tikai
membahayakan
##633
RM10
Buick
210
Perakaunan
Jay
Lou
berkawan
bersen
kalo
Production
Bermasalah
kumpul
##ARKAN
answ
PENER
##anye
Metod
educational
Injil
Belarus
OVF30
##yer
Mencegah
today
Inform
Pingat
##bab
Gay
Haq
##ulty
Putri
zuriat
tatkala
PERATURAN
458
Crucible
kuar
##qman
Dn
158
silat
Dibuat
Pemanasan
dimeterai
Ubatan
##kad
Anton
Paraguay
##TANT
Pengujian
Communication
nutrisi
Gug
salutan
nilainya
diteliti
matrikulasi
bini
perselisihan
metode
called
##khah
##utions
ditangguhkan
##2012
china
sengit
Merta
termaktub
LIM
##okai
##ugal
membandingkan
##ination
Katakan
##ription
Lafaz
merentasi
Forester
Taw
mendahului
keretapi
Resp
iblis
telekomunikasi
##labor
Pros
transform
tiruan
Cod
melamb
manuskrip
##apakai
kemuliaan
agaknya
Physi
justeru
##ilar
Saing
##utch
##engka
reputasi
Hanafi
Salvador
Jelajah
Pantang
Minat
diulang
kesempurnaan
Check
Sekret
##ITAN
Pimpinan
take
cannot
##anon
pribadi
##utisme
##haf
##rey
##umpuh
##url
buluh
tunjukkan
berti
##anten
Ong
KONTIN
Khadijah
Mohammed
##indasan
##edikit
Bertempat
Dajjal
kurun
Music
Asisten
Cubaan
Fuz
Udang
rent
##OUS
Keberk
capaian
##eneg
Krim
institutions
MC
duti
Tesis
vers
##kel
CONFER
KONTINJEN
##etusan
determin
perosak
setan
##edom
pencuri
408
Safar
##aragua
Dai
##IMAH
Perabot
##ILING
When
error
perpindahan
Kenduri
diriku
##emier
##thing
##allallahu
CALON
Ana
efek
Christchurch
RINGAN
##elakinya
##illing
Magn
##308
karangkraf
##damaian
Debat
Hom
Menonton
Semi
kuah
##unta
Modern
##efinisikan
Istanbul
kegembiraan
Hishammuddin
Arifin
##ogenik
Direktur
ORGANISASI
##UBLE
Mariam
##qasid
Kum
Zar
##odal
produktif
saksama
##len
##UMEN
etc
##soriasis
undangan
meriwayatkan
diagnosis
##uliharaan
Kerosakan
Shak
TURUN
mani
FIZIKAL
Wujud
Tagged
Granules
slide
uzur
##zh
Penjualan
weblog
bernasib
Esok
Bengkak
ejaan
##icap
disempurnakan
##omm
mengurangi
CINTA
festival
Sepatutnya
VAL
retak
##mos
##taw
DOUBLE
Produktiviti
Pribumi
wajahnya
BAT
duni
##nita
##une
gelanggang
##emporary
Uganda
##hanan
diurut
##uaian
##La
##GN
Avi
##KB
##lood
Hayat
tentulah
Caves
Rog
##ilmuan
##ALING
Angka
##html
senario
##dndiri
Hamb
##EKSI
Cotton
KPM
Eskalator
Pneumatik
Vakum
SANTA
Separuh
menyelamat
##aganda
jan
Coffee
Tersedia
Alfian
Duc
jeti
History
Rhenium
bertarikh
Bayan
sepakat
HARIAN
memfokuskan
Autom
location
mendatar
Join
Nabawi
trip
##ois
mengus
1972
pembacaan
sulaman
Benarkah
Nok
hewan
##ease
##cium
lasak
CONFERENCE
##thritis
Spec
memorandum
TUK
dahsyat
DIG
menegak
Tari
evid
lada
nor
##olek
berkala
Cili
##arau
Lancar
menggamit
Community
memisahkan
##umentari
Burger
Caranya
mitos
SIAPA
perhatikan
DOA
diganggu
Ayub
sebak
susut
initi
##ucakap
##OKASI
Timb
##ubati
Kenya
muslimah
sekular
Golek
matawang
TEG
##PM
kezaliman
penyulingan
Tanzania
atta
DU
##asya
diiringi
Castile
##diam
perlantikan
ungkap
writing
dibelanjakan
##isien
dominan
##PO
pasport
##EGR
##angsangkan
countries
Hajar
Papar
##ligh
Spins
cacat
kafe
##didam
menghuraikan
Kesuburan
136
MI
visa
Anjuran
Adamdidam
##Btn
membawakan
Fatin
nye
Cook
Henti
Pelesenan
komb
TELAH
Akhirat
Menangis
Agustus
memacu
kompetitif
lega
Wales
Kanta
cemburu
memperluaskan
Cak
adi
220
range
##OX
kaunselor
SEBEL
Bogor
berpecah
secukupnya
SEMAKAN
Kekurangan
##Child
disus
kagum
Berterusan
read
Terkenal
hir
Alif
emak
AIDS
Luka
##mid
LIK
hilangkan
makam
##ORK
loan
Evo
##uhur
##itania
summary
keraguan
##pes
menunggang
poligami
Komunis
GDA
agihan
##eterinar
Bantal
keji
melew
Laksamana
pekat
##ulator
hyper
Rupa
##Id
##aduate
dahi
context
saye
Cla
Altantuya
tren
##hern
datangnya
Shopping
sambut
Solomon
Penderaan
gelak
Perbankan
radhiyallahu
##BAN
##iskin
AKH
Cerpen
Sirap
mercu
tersirat
KPDNHEP
BILANGAN
Kompang
Philip
Bulu
terancang
sahkan
meet
longkang
som
Ms
siswazah
HEL
century
BA
purpose
##eramah
##oral
alaikum
LEAR
612
parut
##otland
##ULUS
profesion
Lomb
Lithuan
##ports
Amy
##over
Dini
##just
angan
Darussalam
Dzulk
Matang
kelembapan
terkesan
ekosistem
Sedikit
Eurov
LK
##Jet
beransur
Tunas
##Su
104
SEM520
story
##enung
##asalah
Jaz
##ils
takziah
berkorban
Irfan
rakaat
##UTUP
Chel
Indone
Syariat
Jibril
##assar
Coc
##embungan
hor
making
Accessories
Nabila
Self
##sea
darurat
EKSKLUSIF
jimat
KEMAJUAN
setiausaha
gelar
diatasi
599
MAMPU
kombinasi
##UAH
PENOLONG
Penempatan
Waq
##tel
Konflik
Lock
##ajiban
ditugaskan
##rifugal
Joe
##adukan
Hit
##Hubungi
diterangkan
bocor
jersey
exec
Sham
##audh
berunding
CERT
Kedutaan
SUKA
mengek
Ster
Peminat
antibiotik
##ATO
Jambi
##ehan
berin
Pencarian
factors
BEBAS
KUNJUNGAN
Rekaan
##uro
Pengertian
##onomics
suapan
kekej
FEB
Hani
Solo
kejuaraan
EKSTRA
##antren
dahulunya
melegakan
Beat
psych
##zing
Perundingan
defisit
fakulti
310
Employ
Hair
##bak
Imun
kredi
Paracord
TAJ
##adiyah
WAH
Kebolehpercayaan
tajaan
BAGAI
##mine
Kecergasan
##wo
##eposit
kemakmuran
##ribusi
tergantung
##osition
##itary
Setempat
solely
MUZ
Peladang
Sayur
Lynas
Solid
ZAKAT
##pau
##isip
##ege
##ograph
##ERG
Farm
##izza
KEAH
reda
Jati
kerna
kesedihan
##ILIH
Penyejuk
oren
316
dipastikan
##hasilan
Xiaomi
KEAHLIAN
JUM
##UBAAN
Eq
thoroughly
##pang
ANWAR
KAF
Skills
CHINA
husband
967
arif
Akh
##pektor
Jutawan
KENAIKAN
Kiamat
konsesi
hafaz
##ountry
Candle
##issa
offer
##ESTER
##ANDAAN
##234
tambahnya
TECountry
##enaan
DIC
triliun
apiCode
htmlPanel
actionCall
TECategory
userKey
apiCodeSamples
actionCallBtn
userKeyURL
Dahulu
##abas
103
##UJU
PEMUL
MEMP
##artabatkan
keberanian
Melawat
penyelia
Noh
Roth
setaraf
dilupakan
Boon
##uages
PENANDAAN
solar
Tajikistan
kilat
##aliran
Kebun
menemb
##ente
terhenti
berhubungan
kesahihan
Marshall
Make
##osip
LEARNING
Now
##IQ
kedalam
Triple
##qat
tegur
##emati
Bawang
##orium
berlagak
dicatatkan
memperkukuhkan
INTEGR
entr
##ehouse
Force
Topik
face
kud
##sema
memihak
holistik
##ians
Mengajar
Nu
Sekurang
menyusahkan
Tugasan
Pati
Yi
Nash
##riculture
DPS
##wanya
Analy
##audaraan
fiskal
Garam
OUT
konten
Kerian
bantah
hara
Micro
Setiu
hitsHJ
Takwim
melancong
##iliate
Nuh
sye
Pew
##makan
##engat
terowong
##star
Brid
##riah
##fu
kelabu
Idrus
Mengand
trig
date
disukai
char
fan
come
diperluaskan
sendirian
##langed
##ANGANI
Kolum
##ITY
##ibo
TERS
pemberontak
##Lebih
Kesenian
Kurangkan
penerokaan
tercemar
Jersey
bud
strong
##00200
PUBG
Armada
Komb
walk
dw
Energy
Kup
##ball
##aspada
Gemilang
pedang
Tablet
poket
standar
##endal
Makhluk
wayang
diffic
##eign
Santi
started
Kamarul
##Pak
##oksida
##oso
Semester
##falfa
administr
Bismillah
##rary
Shell
SUKU
jubin
##erjakan
Wasiat
##aise
kebanyakkan
PENGAJIAN
Karangan
Murni
438
Infrastruktur
depa
belief
##bahasa
pengubahsuaian
dicampur
nizar
Tisu
proaktif
raga
memungkinkan
Klasik
pelupusan
Dnars
##ulikan
pertambahan
##uters
Monaco
##eces
Drum
asasnya
Bibir
dream
penghancur
##though
##Masakan
accep
##SITE
##apusan
pembersih
##aluation
##tionary
PELANCARAN
lazat
Deng
SB
Pelekat
Ort
dewa
##ontal
galak
Asyik
berkemampuan
##sianya
kelakuan
turunkan
Tarikan
##vani
merogol
documentation
Vinc
terkumpul
Chain
Nasr
variasi
kelamin
Susulan
Rej
Rica
kuc
Pelayar
TOUAR
##curan
dilipat
##usir
statik
##rir
##actor
TOUAREG
Sifuli
TOL
##kes
Shahih
Ot
berukuran
Syukri
mengaplikasikan
##awanya
##ither
Pag
enable
ZAIDI
Performance
diyakini
Fund
##eeee
Temu
##Index
Permintaan
Penjaga
ucapannya
##PIN
methods
kamp
khemah
berkemahiran
Berikan
alt
kewarganegaraan
Perbuatan
Wani
AAD
duka
kraft
Marri
skill
Movie
secur
202
##imbab
bukunya
##roduksi
hos
kr
Attas
Urut
STA
Aktiv
diingatkan
##vert
KEJUR
Alahan
KBAT
RoHS
Scribd
Iftar
Angkasa
NABI
Pasu
DALAMAN
Belize
1952
##USTRI
Nicaragua
paham
##edisi
impact
INSTANT
Somalia
kembang
pengacara
liwat
lucu
penyayang
Consultan
dipertingkatkan
gangsa
Angola
bandaraya
bahagi
INISI
Planet
layari
GAA
batik
##onent
##enegro
serendah
dikuatkuasakan
Sebalik
##ustrasi
BADAN
INISIATIF
dual
ment
penyatuan
##entasikan
satelit
Our
Rating
##icu
kapital
gerbang
Berdaftar
##yakkan
##ompang
gigih
Kalu
Maw
dekati
policy
pk
Kelima
percakapan
Arabi
Filed
forgi
moyang
PENGER
Five
darinya
tablet
dihadapkan
Geng
Must
##ukanya
jawapannya
##900
ask
225
dihargai
makcik
Motion
Ky
##ELILING
berjaga
Hatta
kiriman
metodologi
parameter
Banna
resort
musibah
PEMULIHAN
proceedings
Chicago
memancing
Jacket
GOT
Court
921
Chicken
Duty
131
Ach
Paru
Asyraf
Mengandungi
Idul
##uatiri
##UTH
discussion
undian
Area
muf
Esa
##utuh
Reply
##imbabwe
ov
seen
##airs
Manjung
Menanti
ABDULLAH
##amine
##arij
##ayangi
##selves
##epit
membelanjakan
Kapten
MAZ
Jelasnya
Smith
AEON
##alem
Mineral
masing2
##elongsor
##Scroll
golf
WEBSITE
##laan
Seli
Hujung
assalamualaikum
##portun
##iche
Sos
lel
jamin
##IAGA
Pendakwa
banyaknya
##oko
##adiahkan
Kuda
berdikari
pemakaian
Trading
Pertengahan
##Pusat
1955
SEGER
diterjemah
kontena
Moslem
pencalonan
curve
ego
##wani
##ulations
Lik
htt
MEDI
treat
Pickup
##acanya
Tekan
Conditions
hah
##UKAI
opsyen
##isioner
diciptakan
bayang
Face
primary
Zi
dikec
piksel
##oping
sahur
Superint
magnetik
##worth
##ONGKOL
##isipaliti
Credit
Kegagalan
Dulang
Mom
tutorial
##aled
NOVEMBER
institut
Sungguhpun
##cam
PETALING
hukumnya
DATANG
PADUKA
France
Apatah
Keli
SD
lauk
AV
disebalik
Pemberitahuan
Imsak
TwitterShare
penawaran
Rollers
PROC
Morocco
Aqsa
##ILANG
solid
Pelanggaran
Foods
##Master
menguat
##ampurkan
##endor
muatan
dibintangi
##LET
pengangguran
Makin
VIII
cengk
ThisBlogThis
kabur
RASUL
Ivory
iOS
wafat
##engang
##undiang
menyesal
Berwarna
diisytiharkan
menyalahi
male
##wang
##ASH
355
militer
HORMAT
Stan
##hemahan
##MANA
prasekolah
Sey
berhimpun
penciptaan
MW
redha
Leste
Potensi
inti
Undian
##allam
khalayak
##empol
1968
##lier
Pengundi
munisipaliti
Veteran
center
##urg
##ulf
##yamuk
Kash
berangan
PERIB
parking
Games
Setuju
Atl
BAK
##tuan
Daftarkan
Kampar
dipul
Serai
MALAYSIAN
Tarian
##USTER
lead
practices
Raub
Teratai
375
guid
Fan
##egal
IX35
kemana
santun
anakan
Alwi
Ethiopia
Widodo
Purata
menenangkan
##uling
##ITRI
gedung
Sisipan
Lithuania
Lor
CED
classroom
##pet
article
Zaidi
cukur
ca
##BAR
tertinggal
Hud
POW
dihadapan
Pras
IPD
Gerai
conducts
Melaksanakan
having
Assalamu
berpaling
SMK
BALING
nation
Pendang
Senyum
INDUSTRI
SEGERA
##menis
memalukan
seruan
Syams
basic
Gusi
##angkasan
##ehkan
Ij
Peringatan
Sabar
Diplomatik
perokok
##aban
urat
CA
##PK
##olve
penangan
menceburi
terkorban
##iving
##ernak
bdndiri
bercetak
putaran
Daim
Geran
Kub
tahi
diriwayatkan
TERHAD
kasihan
AAA
saringan
##FIZ
berang
sinaran
kay
menasihatkan
##roma
sekel
Langit
advertis
keseronokan
Qi
menyebar
trust
Suhai
Prim
##ertib
petak
##shad
PEKELILING
##ANTARAN
BERSEK
Selidik
##menistan
JIKA
Kriteria
disuruh
Ayahanda
PEKER
pengedaran
organiser
HOKI
Segalanya
jun
rampas
##Video
Tambahnya
Impor
kurni
Konf
Aer
##yong
menjerit
menerus
Warehouse
Bendahari
lepak
##incirkan
##ped
##CNI
menit
Lompat
pergaulan
melompat
PERJUANGAN
bawahan
132
menangg
Iblis
##elusan
That
Iwan
Yaz
HER
mempertikaikan
Hij
sifatnya
Rundiang
nomor
##adaman
organisers
dukungan
Silikon
background
musik
Gob
mintak
penyelamat
Telok
product
mentioned
DOK
Seminggu
017
Damai
Gelongsor
##UJI
kind
##trom
Dimana
Hukuman
lulusan
Mahsuri
Shin
##uzul
umatnya
POST
Origin
##eni
Neraka
RECCNI
Tulen
##mpatan
Siakap
##asihi
langgar
Trend
WHO
Civil
ahlinya
Amalkan
##ellectual
zina
Norman
PPUB
Montenegro
elakkan
BM
GAD
##Kek
##osan
diber
Rup
office
##JUNG
RECCNI2012
leadership
##jaran
mendarat
##atatertib
bonet
sepi
menterj
spot
truthfully
lelakinya
##tium
Grow
lan
INSTR
Relaksasi
Kulai
Mind
lobi
##amaian
pengalih
##izinan
penubuhannya
Estonia
Regi
##ission
kebaikkan
Bahrin
##ologis
sunyi
emph
Kepercayaan
proyek
sepadan
shows
optimum
##arity
Kalkulator
bersenam
##irikan
XAA308
XAA308NA
Version
imgurl
denggi
##erosotan
JEL
Fermat
dihubungkan
sivil
##injen
Financial
jahitan
melampaui
wor
kecoh
kedah
ability
tercetus
##tatus
##ejuang
kuno
##zstan
##INC
Ism
##An
menitik
Islamiah
soya
SAMP
gelas
##UI
Diana
##onteng
102
Swing
##thday
BERJ
DESA
##ktop
Ilmi
MASALAH
tatacara
obat
Pusaka
hatiku
##ikot
ketum
Qaseh
Tef
cuka
##ubar
TUDM
##ususan
##umbers
berhemah
Kenaikan
Khatulistiwa
PAJ
mengemas
murtad
mingguan
##hentikan
Cetakan
Koh
Ledang
Faziani
##Slide
Ever
KEGUNAAN
License
##anw
reve
Mukasurat
panik
##enguk
##rease
Abduh
aktivitas
Pedas
TIND
DKI
##je
##faz
DIRAJA
dipatuhi
Lantaran
Supr
Kebiasaan
kualitas
VALVES
Nadz
##ishing
faith
##tabil
Statut
enh
johor
developed
rempah
##tier
Centrifugal
TON
##zz
Shariati
##yrgy
Granada
##BAL
Graders
tetingkap
mengadap
helikopter
##udupan
##antapan
BOLING
ITEM
Jew
HABIB
Tawar
void
NOTA
Give
Fermator
MENDAPAT
kandung
laksa
pup
Menangani
ketul
Vincent
##ores
merakam
Komik
PROSES
existence
##ands
##aiqa
bebanan
BUY
##acob
1961
cerit
Industry
##dayat
##anau
Aloi
rew
##ematic
diberk
vars
imunisasi
jilid
dirasmikan
menjauhkan
birit
menzahirkan
Bernam
poin
##uistik
berpandu
MEREKA
diaplikasikan
Kubur
Andor
Cub
Kambing
kees
Insurance
kenduri
Zizie
pencen
bergaduh
Menambah
hehehehe
SEBELUM
Pasal
keadaannya
TEM
hafiz
Samar
coz
##ADAH
mengecewakan
penindasan
RM50
265
sekutu
Nokia
Wayar
Madonna
##qamah
viewed
##PTN
##key
##link
Swaiqa
Buaya
mengharamkan
achiev
fix
Atlanti
##yrgyzstan
diperiksa
Tongkat
Guyana
stu
##vival
tetapan
Modi
##elligence
DEM
diaman
increas
##Suite
price
##Kereta
Atur
Run
Protein
Zambia
Pemborong
Kron
sekeping
kong
mampan
Biarlah
Game
merempuh
pergaduhan
Rugi
ant
penuaan
##esiti
Commer
Bahamas
Premier
KLUSTER
gandar
Iklankan
Dinasti
adop
leader
Kosmo
Economic
perjudian
Namibia
Dump
##kid
asar
bio
Motorola
##eksp
celik
##dives
Badar
ampun
BookingSuite
rod
##irus
Department
merekodkan
Berbahaya
LaserJet
piston
##dus
##ensus
##ambilal
lin
##agukan
thus
Pendarahan
bersel
kecergasan
##milik
rup
##Ti
EMB
Ihsan
PENGERUSI
fans
Lekap
PROFESIONALISME
##heed
akad
khazanah
abangnya
APMM
fundamental
PARA
012
Packages
terjamin
komersil
kantor
##watakan
dilam
##isti
INTAN
TUHAN
resam
Netizen
reman
oldhtml
##CL
##quran
##ourage
rekreasi
cenderahati
MEDIASI
PRESTASI
segenap
TENPIN
BAGAIMANA
Bla
singa
Lebanon
mengecam
sifar
Ayu
Emosi
PIALA
Informatif
##bang
kakinya
Hubungi
ibrahim
kejar
relatif
Front
Acco
Bid
Ujar
Bermain
Nether
necess
MIT
Tepat
##anded
dirasai
PELAN
Penghargaan
##personal
pang
wadah
##embirakan
##okimia
alur
##006d
penggerak
rebus
Rizal
TIADA
jugalah
##nacle
Disco
meluangkan
PELANCONGAN
susun
Ketibaan
SAY
Russian
munafik
cry
tenter
ilm
tabah
penetapan
Awek
Insider
mewajibkan
Muatkan
Deb
Rata
dipamerkan
Think
sap
##hing
bijaksana
##asang
Marz
Jimeng
MENGHADIRI
binari
ready
profile
##eperluan
Recovery
PENGHANTARAN
pdf
OIL
cub
Pallet
Anggaran
Ukh
purba
ULASAN
ROY
##ething
##apalan
trading
Sabun
EDUC
RISDA
##opor
Penyebab
growth
pendengar
MIX
##Kan
##olitan
nominal
OG
rajah
Berfikir
ALAN
##optimumkan
##Pakej
BET
##sions
persefahaman
1200
##ahuluan
keilmuan
##empak
ABC
OnePlus
Students
penamaan
Berbanding
dikhuatiri
Olahraga
Created
padanan
##ikhlasan
habuk
transfer
dukun
KDNK
obli
Tengg
Tragedi
Lorong
que
apply
Lantai
Soh
##tronomi
customer
Aduh
kehormatan
47500
##sky
##ongsang
perdebatan
Teflon
umah
pipi
tawarkan
##etas
##antarkan
##PORAT
terancam
Materials
deretan
Jaringan
Lai
##usakan
histor
Connect
ris
PERKARA
MANA
Corr
Cherok
mud
Latiff
GH
Paras
sinonim
##ingati
##ried
##ungkaran
WWW
Batas
terjadinya
##egaran
sepup
karang
intim
Dilakukan
mentafsir
ana
NK
rizab
TINDAKAN
Penolakan
Senator
gundik
troli
KORPORAT
pandemi
Bengk
rongga
##aruddin
Pahlawan
Its
tengk
Laptop
nutrien
mengutuk
Sow
lantang
##Data
##untik
Terapung
kencang
claim
##ikmatan
night
diajarkan
terdesak
Eb
Exclusive
kecundang
states
BAWA
salahnya
Komisioner
##uamalat
PERIBADI
TK
hany
##nion
Then
##undred
pass
dipenjara
parkir
Down
Hamba
jud
##UDA
365
INSTIT
Lidah
114
bernombor
limau
diploma
Tran
wrap
Usah
Ops
sosok
membenci
Penglibatan
landskap
Kubu
mengusahakan
##sign
Chad
logistik
dilatih
##algia
Terut
##tifkan
molekul
##HIJ
pembelaan
harapkan
PERSEDIAAN
ECO
Tampin
Bodoh
##hul
##ISIS
traditional
Mubarak
menyewa
##ingkiran
berpus
Tahaj
179
PROCEED
MALAYA
##siapkan
memikul
##ESTA
Pelupusan
penggunaannya
##icient
Iluminasi
##2u
Poli
Sultanah
Bakti
Evolution
hero
JUMLAH
Pohon
Zen
Awas
Cend
Fal
diingat
##igure
Merujuk
bernafas
melewati
Perikatan
berkisar
##veness
bersenjata
diikat
##aven
tergugat
Rio
Kesimpulannya
kelakian
Cres
beralun
Kartun
Sahkan
##gambar
penentu
bersumpah
stres
UHM
Veterinar
Week
Dawud
KATEG
big
Zimbabwe
Bertanggungjawab
Penghulu
##ILI
spontan
LIKE
Hatim
peran
cerdas
PERCUBAAN
represent
NST
pantang
##erior
Hilir
games
berambut
Multi
Rabb
typeof
##Hiburan
PROCEEDING
##ubahat
EMP
berlian
Dilan
##joy
Keris
Mukmin
Mentah
Deli
TB
memberangsangkan
construc
girl
##YEN
benang
##empur
Army
Sinonim
Sena
smp
##Im
Strateg
BAJET
SEPTEMBER
##eriaan
languages
TIMB
menjilat
##VER
thir
KATEGORI
##yatan
ditipu
MENINGKAT
cermat
Tapah
berbangga
Komisyen
##etic
counter
output
Posi
AIDIL
Lenggong
##Fi
menzi
Santiago
ekspor
tarikat
JPJ
BERTULIS
Shahriz
hairanlah
Dor
Pinnacle
##006c
Leong
MS
Om
map
iktibar
critical
KOP
After
Taala
university
Kwee
##enas
##hon
mengangguk
naskhah
Pengembangan
Nasri
##ujuran
PENASIHAT
jumlahnya
##Event
##tics
city
138
Malayan
madrasah
Theory
McL
agre
previous
BEX
##agic
laksanakan
##bach
##usuh
digubal
##atrik
##elasi
Pertempuran
influence
Tree
lompat
##MAP
satis
##UCK
Turkmenistan
Paint
Kejuaraan
Galas
Mauritania
INDAH
Knowledge
GAA26800
hasan
menjel
industry
extr
Sku
menemp
##denda
keberadaan
##nik
##wave
WHAT
##ularis
Siasat
mai
Natal
Chap
Abah
Fle
muhibbah
Riuh
ketuhanan
PTPTN
learn
Boh
##opa
##epa
profesionalisme
##ically
berkomp
pematuhan
menghindari
##eliharaan
menghulurkan
Nerus
prasarana
04A
##iii
latin
##iha
FacebookShare
8269
papa
##rut
##gor
##utz
penyandang
Leh
soket
##aksaan
CATATAN
UHMW
Article
Won
kotoran
106
Belanja
digariskan
Qing
##asari
##itanya
JAR
##otesis
Networking
kenyang
TENG
##emui
exco
Nad
Prihatin
##ITTER
female
memujuk
1964
Sorento
tentukan
kehidupannya
hampa
hours
ihsan
berjemaah
##resid
Lanjutan
Ant
mercun
Kyrgyzstan
##UMPAH
899
pengadilan
silatur
##schild
##ENTIAN
pensijilan
##opoli
diplomatik
Apapun
307
RM100
Pinggang
##eum
bayangan
Sempurna
fahami
Muhd
Logistik
kegemilangan
Call
bangkai
Edward
Malahan
##unggak
globalisasi
APRIL
bongsu
menyedihkan
berstatus
Lal
##face
SUARA
findings
BAIK
dalang
INFORMASI
Wangi
siling
Ronaldo
Excelle
Banjar
Ent
Beauty
elit
Designed
##kandi
menantu
##ulate
##angguhan
ideas
##etrieved
wawancara
Cherokee
meniru
##olding
##IMPINAN
NOTIS
Jender
##abur
bilstereo
cm
bersambung
buktikan
Nap
taksiran
diperintah
Lewat
Lulus
##IDIK
Bendi
Fiat
Gan
##ohid
terbongkar
ketibaan
Concrete
Henry
jongkong
##aitun
close
Jamuan
##trod
Indonesian
##entam
overhed
SETIAP
UUM
##itir
penggambaran
Agriculture
Dhuha
berkhasiat
##rob
Graf
##arbon
##epuk
Sempat
Jusoh
kampong
partai
famili
Fif
##esting
Zahnita
BE
Gelap
berori
##ASTA
Duk
ansuran
##128
Hariz
##ardin
Autow
Kadangkala
##lal
hitsABU
##LISH
##atsu
perdamaian
Laporkan
##ein
##Dewan
##tulu
pesaing
Maldives
mam
​​
promo
sendirinya
pinang
##ukir
##kriptif
MOHAMED
##ernaan
Erd
Sejauh
Langganan
##ENALAN
diceritakan
piala
Barbados
KIM
lembah
penolakan
Panitia
ditimpa
Alfalfa
Mys
stim
wawasan
Pendirian
mega
Bercetak
##lekan
##awagam
##tura
Salinan
Kai
Nuzul
tayang
##iskrim
##CRA
melayani
HOL
Shield
terserlah
Rothschild
kiranya
ingatlah
##integrasikan
Lady
penebat
menyembuhkan
##arutan
BERAS
Diamond
ditadbir
cabul
##ilit
Masihi
zam
Teresa
Lec
##IAL
dihalang
kite
cerdik
888
Bergambar
CARTA
Bikin
##astian
Syaz
Exim
SOF
penahanan
##apy
until
Fred
penyiasatan
TUJ
pedagogi
Puas
Suction
perempuannya
Cape
##eva
authority
zarah
inn
##limited
pemberontakan
Juru
Salak
##ahsiaan
Penawar
persaraan
jurusan
kerak
dibelasah
##istry
Joseph
Cote
perenggan
kesenangan
modi
periode
Amazon
##SIP
Lad
##tumen
pemburu
##umbahan
Keseksaan
212
EDUCATION
Mahmood
Nampaknya
Autowalk
Gil
Kinta
perseorangan
organization
ingatkan
Yemen
##ERSI
DIM
##unang
meminum
##ipah
Ghost
Lubnan
dimusnahkan
MAX
sources
DOR
Terc
Dongg
membendung
sepasukan
Jobs
pid
digigit
##lid
WOR
##rect
##agnos
kriogenik
Mertajam
pengeksport
Yahaya
##anjur
sams
##laq
mencur
Biologi
Dayang
Indo
dianggotai
##AYARAN
Sukatan
Khairi
Vital
Cukuplah
Zeen
##egak
##ohidrat
##yukuran
tersayang
conn
kakD
Madagas
panah
Cameroon
##asterawan
DUA
##harah
Berpantang
##yrik
Trun
balance
pengalihudaraan
Seoul
##tonasi
133
actual
appear
Hikayat
bul
Cho
mengamuk
Fotografi
DAKWAH
Perhatian
Penanaman
##St
##ulirkan
participants
##Spa
terbabas
Ria
##ROT
Syam
Syafie
mengemaskini
##akinah
##lasifikasi
Gat
berus
113
keyword
Mau
lantikan
##more
##rov
penduduknya
Develop
ceritakan
##xial
##uret
##affar
pereka
mengun
pemergian
Menghasilkan
FROG
A234
Dream
LAZ
Haw
Alhamdul
Sekuriti
SAMA
ensur
SEM518
##gua
unta
topArrow
leftArrow
numbers
##Booth
##agakan
perundingan
Beban
longgar
Lisa
hamb
indik
Perhiasan
##Pengacara
solusi
PENGGUNAAN
dihidangkan
Cell
kerjayanya
Walkways
##Kompang
##asaki
dicer
Dedahkan
Shafee
##paran
serang
identi
KANDUNGAN
##Butik
##olid
persatu
konserv
Dita
##Gubahan
Vand
janu
##watan
komplikasi
Wad
kemarau
364
##Kanopi
therefore
abadi
COMBO
SIL
Moldova
650
##epek
CC
1440
Continue
fish
gusi
##ALOG
KedahL
KEPUASAN
Gift
##inidad
adjust
Spr
Meriahnya
advertising
##ejab
pencuci
KedahLanie
direk
Santai
blu
sg
digun
Resume
keibubapaan
banking
Relau
LOG
##etaan
Jadilah
sensitiviti
Submission
Menyimpan
Academy
##IKET
penyemb
pinjam
positive
Record
allow
age
Ustazah
berair
##airah
dibubarkan
301
IZ
##adab
Bertemu
##uuuu
rather
Penemuan
MURAH
ip
segan
royong
Ketag
alik
sambal
menghala
##atifikasi
Jempol
menapis
Bergabunglah
DEP
Markets
jahili
Haiti
##perim
Punya
##kom
lipat
mekanik
bangsawan
Qay
dinaiki
##MA360
slides
Official
##ias
plus
sahabatnya
Nafas
Saran
##vas
CIKGU
whether
Hoist
PESURUH
terjaga
Lazada
kebocoran
pemikir
effective
Jurutera
Jacketed
Circ
Dolar
Loke
##ude
##encia
dicekup
Sunda
penggemar
plate
mangkat
BERSEKONGKOL
PESURUHJAYA
Abb
sahsiah
penguatkuasa
Jaket
Crown
menerimanya
Medina
NSTP
Eg
capai
wood
terangkan
Heart
dram
Kesian
pembaziran
PELUANG
Segar
##sipasi
HASIL
##osen
Articles
##osil
##izam
Bellow
227
Interaksi
Manufacturers
##odontik
several
##eber
##opak
2din
DIL
##emukan
Mengenalpasti
Netherlands
Quan
Haute
##islaman
Kolumnis
MWIG
neur
beratus
##oen
Sabak
Watak
Mam
##COM
Keistimewaan
mengena
Senior
penyusunan
wala
wife
Persiapan
marketing
seberat
Pelaporan
Hishamuddin
##batasan
komisen
Ikhwanul
Arwah
KAH
##qdis
berdiam
Ningxia
julung
samun
emo
short
Sarapan
##ocracy
MUT
pengukuhan
##RIB
##eksual
Snap
450
##hood
##tut
2030
##anduk
ombak
Haron
##AMPAIAN
berlatih
Kakak
Insurans
##ARIKAT
##azine
menghafal
tercinta
##ography
Soleh
gm
PERTANIAN
penyeludupan
tomato
Sokong
Bersamaan
593
##iao
Gempa
Identiti
bohong
##tified
subject
##imin
Terg
192
dipengerusikan
##API
pemerhati
kalimat
Fair
##ailable
Pepejal
##andingi
vide
arang
Senegal
##apeim
BUYER
LIMA
perkosa
Rintangan
##siti
##abitat
membanteras
kemahuan
kecintaan
Sendi
AIM
##tina
seludup
142
duta
paradigma
##uqaha
Local
##onents
Demokrasi
Sheet
ACR
153
pendarahan
001
cintakan
HH
membahas
280
##suhkan
KK
Mahir
Wangsa
fib
##CIK
Faris
peluh
Expo
Bermuda
Berjangkit
##afan
##ORA
PENGENALAN
sebaya
maksudkan
aziz
tarawih
Norh
598
JHE
Lex
SIHAT
380
SUAMI
Lintas
boss
922
project
istiadat
Corak
tebing
removeClass
ditekankan
pac
Disiplin
GERAKAN
perolehi
KAUN
Retrieved
Yapeim
205
membaik
Reli
##angkalian
Dewa
##501
SME
mamp
propaganda
observ
Zero
dibersihkan
ungu
##edut
Diambang
Jadikan
lepaskan
Husain
Herz
##lighten
##YAR
Sekadar
##enggunaan
Bendahara
Hem
Islah
nyaman
Dilindungi
##agak
##ulian
SEAL
Seribu
##tenstein
AFP
ASN
Bong
Rina
##FR
dipantau
keguguran
Jamie
jel
tata
Saud
Verde
dakwat
Tandas
WIL
tandai
PEMBAYARAN
Marriott
dibicarakan
##AGAAN
HEBAT
Method
##unyian
berwibawa
penunggang
cop
addition
frekuensi
keberkatan
JUAL
warna2
pantun
semi
Liar
PERHENTIAN
diutamakan
tunggakan
tshirt
Harris
ABIM
EH
va
##amalan
didenda
resources
Valley
Rani
Parameter
Him
##incu
Luqman
lupakan
##lika
Pemangku
##iu
##Solat
##gaji
PENYAMPAIAN
benteng
Erdogan
pembunuh
Bintulu
JPN
tugasnya
seratus
Capaian
gegelung
##isting
##ulanya
penis
ketelusan
themselves
tingkahlaku
electric
bulatan
##inf
penolong
Mustapa
##imau
##gaya
ART
SETAR
Staff
meriam
##ematics
berhutang
berprestasi
Zheng
Kaji
hum
##sidan
TENDER
roket
##jannah
HOS
kul
dipinda
Apalagi
speak
diungk
mencoba
##ederakan
leka
Kabin
Cyberjaya
bagaimanakah
Pengangkat
PENGIK
Bersejarah
compreh
##arki
berlum
##uafakat
Penguatkuasa
Mike
##DH
dipukul
Paste
AFF
klinikal
inku
WaktuSolat
Sentuh
Coaching
Implan
korek
provokasi
##ibouti
Jung
sumbang
##ahanya
164
Begini
##vok
##Pen
##cha
tembok
mengejut
Perd
round
Rakaat
Stress
010
Bakri
Bujang
##faction
JUNUS
instagram
terangan
Aminah
Books
983
Duplex
Ping
Hollywood
dri
##unut
Mengubah
Surin
##echtenstein
Tuhanku
##999
JUGA
##udaratkan
santan
tawan
##USIA
224
Antigua
Hebahan
Pok
Zal
##Dunia
UU
Banten
MAIWP
WHATS
taking
berbogel
Disamping
##akian
MENUJU
Kondisi
Pengakap
HALAL
cendawan
Sholat
peranannya
Podcast
militan
Warganegara
NY
##3000
Most
NASI
pemotongan
diperbaiki
Opera
Ting
diperm
keunikan
Kristal
hidrostatik
Awan
ve
Inner
pengesanan
STOR
januari
Patani
geli
##olk
Syi
##asut
##tras
##AKARTA
learners
##inyak
meluaskan
PRIN
##6D
##AIP
Oren
ferro
bertemakan
Samoa
##jolan
##akas
SELEPAS
Intelek
alias
METROT
METROTV
CAPAIAN
Mengenali
diranjang
sarat
ditinggal
##sey
##engs
##ABILA
##ekonom
berkeb
setidak
progresif
##jus
Penyulingan
Map
##wira
setem
Kemuncak
##estimonial
Derma
Pier
##wanda
##ansk
##cale
bomoh
Tatabahasa
UniMAP
TERHADAP
PPS
Discovery
kids
percent
handphone
pesisir
##nels
meli
Maryam
memerhatikan
caus
kenikmatan
##97
KOLEKSI
rc
anth
##epatah
Lestari
ramah
meski
DISEMBER
INSAN
##uted
shalih
Judi
##amata
Antar
##enteraman
Basi
##estrol
Seville
hous
ash
disemak
EMAIL
TANGAN
##egu
##ancah
komunitas
##aktifkan
titi
merapatkan
berasas
##4400
terlambat
Syarie
##cious
##RAW
Insentif
Bow
BENAR
Fizik
ranking
pelaksanaannya
55200
##TO
benz
anggur
ijtihad
##ier
melukis
tersohor
simen
mengawasi
small
##otivasi
tetapkan
Cinematic
spesis
jalankan
Acet
##elbagaikan
ketagihan
Fisher
##ruddin
Streaming
terkeluar
describ
##jud
Anne
HITAM
##olour
##sterdam
Pemas
##iciency
kredibiliti
offset
memikat
Martabat
factor
FOC
dras
##yal
party
hisap
Andorra
Etnik
debu
occ
##KIT
Compactor
##ultasi
Sas
Lek
##elawa
indi
pembimbing
disember
Stu
dinob
politics
dataran
##ATIH
BNM
trofi
diwartakan
kuali
Spect
efisien
Gitar
Desc
u2
news
Jie
##ozhou
Buatan
han
##aksim
tertunggak
klau
##ito
Psychology
melemahkan
keradangan
##endek
politeknik
telaga
galakan
##istol
CONT
##ulla
serp
plants
kesian
##vokesyen
Norm
sukakan
Benin
Bilakah
insyaAllah
PO
##atap
##ilon
Index
DIAMETER
TIMBALAN
hik
##GE
mengangkut
Dakwaan
jisim
Penyatuan
##ternal
dikejutkan
jaket
lobak
oc
##diran
inklusif
Keibubapaan
jagaan
BELAS
Mursyid
ukh
terbiar
permata
OKT
Pengas
dipecat
Trunnion
Tamat
pemangkin
itself
Hajat
##HI
Permukaan
membuatnya
Buffet
Riyadh
wuduk
FIT
Yeo
##lagen
##efly
##encil
##NU
##cia
pengelola
##ekonomian
##fri
##ashboard
Calendar
##maseu
##UBUHAN
meminjam
prophet
konf
Jeans
Pembentangan
poskod
RAMAI
##52
##ilawah
peliharaan
Kemungkinan
radiasi
LANGKAH
##FL
filter
Fron
##FI
rebah
Rawa
Dilaporkan
ROK
menel
Bertudung
##ostalgia
penukaran
Makna
ASP
Elite
WHATSAPP
Some
living
pena
berhujah
Tolak
apalagi
shadow
Pesan
Dinas
KAEDAH
instance
tembakau
##USD
variab
Wel
##eluw
penampan
##JEKTIF
Fun
singkatan
Gout
Secur
Greenland
bijih
Ainul
kentang
1962
epal
IG
memburukkan
Kefahaman
Letupan
rab
kemusnahan
Dealer
Crystal
Auta
classified
##akalanya
Professional
Rehat
trauma
dapatlah
Aust
##engarkan
Arena
Amsterdam
Grain
BANGUNAN
Tuhanmu
equ
##erve
##onel
neut
pencampuran
bungkusan
Chaozhou
Teki
dwi
Uh
tool
Barnes
Bakery
##ANGKAN
##onsumsi
##ISTIK
ABA26800XU5
TNI
Sandi
##05
golek
Kosovo
Acuan
##lav
##onto
##terior
TAHFIZ
##ICAL
Yaacob
prospek
kemerosotan
Buta
perlunya
Bitcoin
syiling
##apelajaran
berpasukan
Malu
buli
##pres
peruncit
Abe
berpuluh
emerg
staff
KESAN
##charged
pengangkut
soul
DIALOG
Cabutan
Taylor
Xin
Maknanya
UNESCO
agencies
BAHAS
maklumbalas
Resorts
Ortodontik
semut
Literasi
BIR
RUN
menangguhkan
##ohongan
kepulauan
##swana
ternampak
##maseutikal
##embilan
Chek
FOCUS
rag
membiak
Canada
##oreh
PIH
Trinidad
pertuturan
sayangkan
##xidi
##rose
JKPA
rawak
##ante
##EMAAH
Hajah
berkons
span
penghakiman
Melancong
tanduk
##INDA
darjat
days
Aqidah
French
Madagascar
cash
este
##jects
Poster
intonasi
komposisi
mengharungi
kondusif
Kerugian
##indar
Greg
##loitasi
##fsir
##umper
menyumbangkan
Headunit
##NIK
berlarutan
##alaq
menyah
Pembaca
push
Rapid
young
mengantuk
hub
Bermin
bergaul
pewarna
Kemurnian
Baoji
Guam
Pari
##oros
##oser
Twist
##TERA
teladan
LKIM
Kecacatan
prevent
##ESTAY
PRINSIP
SIV
##uktamad
peninggalan
kemarin
disentuh
##utive
124
ditampilkan
##elagat
DB
Doz
Omega
##ipe
Bhutan
Summer
##uv
##onkan
##FITRI
didikan
##antum
WARGA
bolehkah
Superintendan
gamb
dipelihara
specific
TUV
REK
Ceramic
Dilancarkan
European
Lut
Hindi
Fahmi
Dikunjungi
Kaabah
##struk
persimpangan
IPTS
Kiri
Kawah
maintain
##EMENT
Liputan
Sedar
##tran
Three
track
Wee
Distributors
Ditahan
PESANAN
Hello
Grenada
##otherapy
Baituljannah
Meh
##astern
butik
menempuh
bersep
ADAB
##ingatkan
sukses
##shi
keizinan
##eoxidi
Lapisan
TRUCK
kegelapan
##TML
EPIC
saudari
CERITA
belaka
merenung
eksentrik
##askular
sedaya
Leone
kolonial
Niger
bali
##YO
mengetengahkan
pelacuran
Delhi
Flying
##ALTH
niobium
pengecas
court
ach
##amsendiri
stage
Qar
pengasingan
Jengka
##GS
186
sale
ngeri
korupsi
ubi
peraka
master
menggugat
kristian
##siakan
##ael
unc
##echan
disangka
luahan
Gerbang
##ince
penterj
begin
HDPE
Iaitu
pengembaraan
Salman
##ghah
MoU
mengesyorkan
##uncur
INTR
Romantik
Child
berpeluh
pasien
Djibouti
Bersi
SEM522
Controller
Cancel
Prov
pergel
Ty
keikhlasan
ertinya
Employment
1946
REPAIR
Ani
pertembungan
##00650072
Signific
namely
sensasi
PRA
ISTERI
BAJU
##NE
ads
Yellowstone
Tobago
FIR
KUB
Ibni
PEMAKLUM
international
##olawat
Kepong
ritual
ELEK
McLaren
Babi
Zoo
jamaah
pemanasan
Selamatkan
Tetamu
account
TW
syabu
PANDU
##antri
##ALAU
Mons
Select
labu
DULI
perunding
berminyak
RM20
##aro
perahu
##estyle
Liechtenstein
CAN
dompet
pencernaan
dewasa1
Mand
Keramat
Siber
Kut
256
40200
dewasaLebih
established
padah
beracun
mengej
##cker
Tingkatkan
##uput
##trans
Menyebabkan
Penyayang
earth
PEMAKLUMAN
tib
tesis
sebiji
##chelles
amatlah
AADK
Pautkan
pakcik
##ULIAH
kiblat
mendaki
Liyang
fakir
Bersihkan
MAG
SEPAN
AIDILFITRI
solo
Oppo
PIHAK
Even
ranc
SEORANG
Supreme
penyesuaian
reben
penderitaan
substan
Fakh
##3B
membanggakan
PASTI
##353
##ESIGN
trigger
few
Chow
Kemunculan
KEMASUKAN
Ey
Elaun
asma
SELURUH
Sav
##master
##cket
creation
HA
LAMA
menjumpai
protokol
SOLD
Hiz
##uliakan
register
sajak
##aibkan
penamat
Noble
asia
##rahan
diimport
##edu
membutuhkan
##umpamaan
pengantar
Photos
Sumb
padan
##baik
Ted
Chik
Campur
splits
tpi
scroll
lenyap
perakaunan
Stand
JEMAAH
konspirasi
spa
Arti
##tifak
##oneer
##eout
Saksi
127
access
toko
SUMPAH
Arang
Pasang
Manila
menjalinkan
HULU
##olan
Penyokong
##untuhan
Deep
Ukuran
abdullah
friend
Sihir
##bulan
Chuck
Pinjam
surl
formated
vertical
never
##point
##lea
Pencemaran
Stacy
kalanya
Isyak
Khatib
kabupaten
Term
Aidi
Taubat
muktamad
Village
devic
Vo
Palembang
Tepi
possible
posted
bing
kepingan
Lipat
burger
fasiliti
##yun
##elihan
pengkhususan
pembebasan
SEM65
kemasyarakatan
BEST
##anggut
SWT
##IMPUN
Komersial
berkebun
Pembaharuan
larut
##MAS
bergegas
taktikal
Bulldozers
kandang
lubuk
Isham
petanda
monitor
melonjak
Keamanan
##anggungjawabkan
Emo
##eturunan
##otho
Medicine
Hir
masam
orangnya
CERAMAH
Clothing
merumuskan
Skin
MINGGU
Sanggup
ilmuwan
OBJEKTIF
bersempena
pelajari
##rosc
ABAD
road
Oz
los
lebuhraya
opportun
kelewatan
##uktamadkan
Peraduan
##INAN
Forget
FAS
Kala
##daw
Extr
esei
##yhur
Bee
unt
275
##deg
membahagikan
##ampi
Terap
Halimah
physical
s72
##aguna
##iburkan
##udis
cic
##enture
Caravan
Menyokong
elektrom
FLANG
Expert
##anium
Penyimpanan
##entific
lebah
Mobiles
##BON
151
Tweet
SIRKIT
RASA
cuc
menjangkau
Kompetensi
Wacana
Takkan
##UDAYAAN
SUNNAH
Bom
Haris
##arasan
Keberkesanan
Aruba
toksik
pelayaran
Slam
Musafir
##otanya
Bij
##ibawaan
Minit
Cekap
##ajur
##lipse
pangan
##lit
elements
DEL
parents
##atures
vic
Muktamar
Samsudin
JAKARTA
fosil
intellectual
perbuatannya
Telaga
mengakhiri
dlu
##AYAT
Tribun
Badawi
Gus
Anemia
APABILA
##riving
answer
UHMWPE
LAZIM
Hidayat
Laborat
Rabiul
private
Citro
rempit
##wid
Persekolahan
Jali
Harv
##speed
Sorokkan
foreign
##RT
##oling
Unsur
belayar
mendekatkan
FAR
##ycling
##ategorized
menggantung
Markah
##urundi
Tabiat
ub
##turi
kejap
mask
keprihatinan
hasilkan
RON95
Mess
zim
beraya
##ASKAN
##ICT
Malek
necessary
samseng
sengg
WAL
##erbo
Binatang
KEMEN
terlampau
Ulamak
Masteri
Diterima
NET
kren
kritik
Dibawah
Wild
jalanraya
Sandha
Troli
gitar
sebatian
Meniup
##arnain
merata
kewajiban
Applications
Cabang
homestay
semburan
AWAL
dz
##ripto
##had
##otte
Zin
Berkenaan
Template
Sentuhan
Lord
menggelar
contribut
##rate
##agli
##ulated
Kesukaran
menghafaz
diperintahkan
##UKUM
PR1
Other
##OA
Malawi
BAYI
fixed
Sharaf
##OLAAN
menurutnya
Sentosa
TEGAN
##Men
diterajui
TIGA
##eriahkan
buangan
difailkan
Advanced
Kelana
Fitting
coup
Hambar
##02
terkilan
KHAL
Tarm
fisi
lombong
Mengawal
kuiz
syari
County
Ranti
Pekebun
##00200041
Thurs
Rejab
##dari
Arshad
Lebaran
Chelsea
Jeff
rcp
mematikan
TUJUAN
##GI
Bersetu
Fard
Rwanda
cet
berkec
tapisan
dikelilingi
dokumentari
Rush
##jiwa
Foundation
Menuju
hadirin
nyamuk
##eer
perkaitan
paket
markets
BUDAK
berlawanan
terengganu
##ART
hafazan
Citroen
##PL
diulirkan
##ervis
##nesday
NUT
pesara
Pencampuran
##LIND
Meterai
##umat
mengep
Maksi
payung
Tribute
Oral
peace
Pidana
Waris
sekerja
empar
DUIT
##uder
394
least
Farhan
disasarkan
dikirim
MyK
wisata
naungan
dibacakan
##tawa
Berkongsi
##ontohi
##lery
##ican
##ondaan
##sah
##entur
Piston
arti
Plus500
Lucky
UV
jela
penutur
##TAI
bertanggung
Dirasat
Taliban
bac
kandungannya
Jason
Die
##ORAL
Buy
##audi
Eclipse
ethnic
Ring
feri
mencem
##enced
Serius
Mandian
Suy
Goods
pertiga
abd
sport
##AMAL
Robo
basis
##esium
fisik
Bilau
Are
##enakan
Musuh
Persoalannya
kendaraan
penagih
sampul
Ramalan
behavior
Pernyataan
Reuters
mendiamkan
india
Penanda
muridnya
liur
sewenang
Anarm
##unaikan
jajaran
sofa
##jidil
cong
Night
pembalakan
Ati
STE
Extension
terlatih
Jenderal
##ATER
menziarahi
##Qu
##odam
berskala
##ailing
339
ways
network
##iaxial
berkelah
Ques
Membintangi
Bellows
Naq
password
LULUS
##imbah
##incikan
Lipur
CAB
SIMP
##aunch
Bertam
KOMUNITI
DEMI
penangkapan
Selagi
KELOLAAN
Chenghai
tropika
Sememangnya
Supers
KRIKET
sebatang
serahkan
Pemerintahan
##ERSIHAN
Siswa
Geografi
Ketinggian
perawatan
Perosak
berketurunan
Sambal
lalai
##TT
##fast
##AUTAN
Fam
Jinan
Various
tanjung
Bubur
Penat
syirik
stated
Supplies
##eluwapan
Pastinya
politiknya
memerhati
Fathani
tandatangan
dirakam
zakarnya
AUIS
##imut
dipandu
Overspeed
mengajarkan
tidaknya
Unlimited
RM8
BIASA
ABA26800XU2
bilah
116
Bersyukur
instant
Logik
Rel
##ilas
Kelompok
##hairah
##alimi
penyiaran
nyar
sure
pallet
Yes
Allahuak
laptop
Repair
Demikianlah
##aduates
ati
##here
resolution
Concord
Katolik
Final
Brother
Zamri
enterprises
Sekatan
SHOP
Ale
color
ganja
##lil
##enna
Mirage
##List
Kepelbagaian
##lawati
Petikan
HOMESTAY
RADI
kiraan
interpersonal
ditafsir
Botswana
JAIS
##uttering
disusuli
##utes
Narko
Future
beroleh
menikah
SKILL
Countdown
Jana
PANT
plas
terjawab
taken
##affic
JASIN
##AIKAN
menari
##AKE
##oys
SKIM
BAYAR
Tes
disimp
Mewujudkan
Penguasaan
##strukturan
##fic
always
perspective
berjangkit
Documents
Pure
menyukarkan
Ibadat
AMB
Queens
mengekang
Ges
##asian
Error
Thursday
##angkung
##tek
Zainul
conducted
Date
Keroh
##VIEW
UIAM
##arangkalian
184
Bloglist
Greek
##ometrik
Money
lumpuh
Teater
Dihar
Kalam
mengaji
KUNING
Kalah
punyai
aka
something
Jem
diselaraskan
##igurasi
SOSI
pegi
Programme
sallam
3300
##ANGGUNG
Pengkaji
Tai
Komisi
BEKALAN
INTEGRITI
gudang
PASCA
Buluh
##ls
Sampingan
TRAIN
Rank
mm
##oot
berlesen
TEGANUKU
Lantas
RCI
238
mewarisi
PERPUST
Tegas
Srikandi
Contest
ARAS
pahlawan
commit
STRATEGI
Keajaiban
PANAS
Sedekah
berakhlak
pemakai
smpai
menjelma
Laku
##ezanya
ditakrifkan
jawa
##kina
Ruh
##bury
Xi
Ditambah
Sut
luc
pawagam
##ELA
TERAT
Suis
270
colle
Huraian
mendaftarkan
Sharif
Hubungkan
NAS
imbuhan
##AWL
halnya
tend
perisai
##rame
atom
switch
Any
tani
Yew
oem
BAP
seem
hidden
improve
Kelang
SEMANGAT
##ANDAT
tergesa
Cayenne
lesbian
##rich
##dukkan
bonda
##INGGA
ABS
Mira
Apart
conflic
cA
##ews
##ANGGA
Fadzil
penghalang
Leaders
diwarisi
dibiayai
Skudai
PMI
cu
##JAWAB
##adwal
Harm
Fajar
Jebat
Skandal
##ontarkan
cacing
Janna
Kesakitan
BANJ
Kewujudan
cell
Highland
##hol
Menyatakan
huhu
##onsor
##ikai
Escape
Erit
USTA
YUSOF
##anwel
teringin
##ibong
disitu
serpihan
Mengapakah
##EKAL
syair
importance
mencakupi
Rendang
pembayar
##AKIMAN
veri
Iban
##ANTAR
message
recording
Capital
feeds
Menter
PING
salji
MANUSIA
KEMENANGAN
##RY
152
KIN
Rabbit
LIHAT
dera
WARISAN
Nina
##dise
1930
Makcik
Optima
diajukan
sebahagiannya
Vanuatu
Seychelles
fuqaha
##oleransi
##yard
mengeluh
Cond
tour
##rint
##Forex
Sahur
IKS
##ndrome
kaabah
scuba
centers
KADA
##ukaian
deskriptif
Suriname
himself
##lasifikasikan
sabah
134
Akauntan
Haziq
mcm
SOSIAL
FOK
##cow
Jala
Plant
pukulan
Pemasok
Aden
Zaf
Scar
Posisi
cadangkan
##730
##agaman
Emir
##ancuran
Penghawa
Oriental
apalah
ISI
Sharm
##oven
timing
momentum
Allahuakbar
au
##qwa
intensif
Fifth
Tata
bertembung
hobi
##kira
##HTML
Penyelarasan
##tabak
##IDA
Ekin
759
Alexander
wince
beribadat
SS
bend
Kle
perikan
dibangun
Shab
##iraun
Switch
kesusasteraan
HIK
Tinta
INILAH
##edikasi
518
##oner
Kuil
masalahnya
insaf
ramuan
Myvi
Cord
anggapan
Kid
sabung
187
AMIN
Labuh
PERAKA
Bait
kalam
ruam
tq
##ogo
AWANG
##aziland
Faso
919
Right
lestari
Selangorkini
dijana
Diaf
Banting
cost
jaan
Bera
Edaran
Hind
waq
solek
literasi
SALAM
##DIS
##ewanya
117
##biyah
Gib
larang
temasya
PERAKAUNAN
##anis
221
TravelMaster
Linked
##lias
##engkung
Maxis
TEACH
terpencil
menyusul
Navigator
##MAR
pasukannya
keputihan
SKILLS
Burundi
perikanan
kelenjar
effects
750
increase
Hex
rub
178
##angis
prat
Aluminum
Pucuk
##ulut
agree
SCI
##maan
##awasanya
Ilmiah
investig
king
##but
Shay
opp
Fattah
Ribuan
Clin
ain
Situs
##roscopy
dreaming
press
Factory
liat
Kalimah
Palestina
Bolasepak
##ulam
negative
selewat
AnarmNet
Mistik
##akis
Andalu
Muslimat
tadika
Banda
cirit
MASYAR
RANCANGAN
##etch
Prod
Shariah
Serangga
sulh
mengi
Palm
PR1MA
Penyelia
Jose
jubah
MIA
dorang
bagiku
recogn
early
##itative
diket
##imbas
Disesuaikan
Hidupku
Higher
bermas
ogos
##tober
sensor
Party
catch
recent
fees
Bajau
Analysis
Tahajud
Selaras
SHAWL
Pematuhan
Sepen
Lakonan
dilabel
##ANCE
Hend
kop
##eeq
Slim
psoriasis
utuh
gluk
##raan
##ahayaan
KOD
##entit
rai
##iler
Tonga
pause
membuahkan
##ston
Internasional
##ww
##afak
dirah
ISIS
Tengde
Berlian
enjoy
##kinson
diabaikan
Spectroscopy
##edaya
penak
jawatannya
Cu
keajaiban
melimpah
tertipu
nakal
Komanwel
Umi
##ibus
Shaw
##ORE
Elek
MASYARAKAT
najib
penghantar
channels
Biss
PID
praise
KERJAYA
SHARE
Peribahasa
Tumbesaran
##Wiki
##arapan
##ODUC
delivery
Pemisah
1958
652
Quar
Teo
berbangkit
provided
RM7
UPD
##IMBING
Bulat
Jesus
##engki
PEDULI
Baghdad
derita
##ratis
Jamek
Kemurungan
Servis
SPM
##cas
Dikeluarkan
JAL
Ow
pondan
reli
KAWALAN
berorientasikan
##erica
Sop
tipis
240
##UBA
anakanda
bib
##ehabil
pesalah
penyelarasan
Barbu
3600
Muara
Challenger
radang
side
##mud
##laf
Marina
INTRODUC
beribadah
pertarungan
mungk
sit
HADIAH
ukur
tegasnya
Utiliti
Peratusan
##ATANG
penyerapan
##AYAN
##cies
##akiti
dibesarkan
Menguruskan
bertunang
Pahala
Aturcara
BUR
Dekan
##OLA
berpesan
kontemporari
Sug
##equ
##H1
hakiki
ICC
cali
Perip
##swasta
IALAH
yan
121
##ritory
Khattab
##eweng
jamuan
##AMBUT
mengarah
youtube
Aktivis
Penutup
task
dipertahankan
merbahaya
Megat
TENTERA
sinilah
Darus
Shaari
disp
sound
257
series
##alalkan
Jean
SWASTA
official
karyanya
KAP
##inch
##impunkan
kolektif
Komentar
memartabatkan
Bidaan
Renungan
adegan
##ANGKATAN
happ
grafit
Frontier
JUL
Serah
TINGKAT
##dh
Masing
stations
Pasca
Redmi
rakam
LUP
mengaibkan
dokter
##regat
##eten
currentSlide
Concent
bung
E53
perkapalan
revelation
Dal
Socket
Ngah
##LO
Pembeli
published
##JI
##asir
dilakukannya
Barbuda
sapu
##ALONAN
Problem
Perlukah
SYARIKAT
HARTA
karbohidrat
insulin
Who
AMAL
Lep
126
##ugor
tangani
PENCALONAN
pkai
campak
Written
framework
KLANG
Wednesday
Concorde
Malas
##ZAH
UNIS
Ahlul
HOLDING
##osk
Burma
Hafizh
##intasi
##Pro
merubah
dipersembahkan
Lubuk
BINT
decision
##ll
Kebetulan
SERV
##ADUAN
##ibati
Boat
Peripher
Lapan
lumrah
Important
circ
ramb
Makassar
Bris
Betapa
##ilia
##diksi
literature
economy
mesh
Husna
benjolan
Penggantungan
BALAI
Menggalakkan
##swastaan
menghir
##olisian
Disi
mempersiapkan
Tex
PERSID
MODULE
digugurkan
##175
Cri
file
Bersekutu
Opel
PROCEEDINGS
gaduh
##Tim
olehnya
tersangka
##upah
berhala
menderma
Impak
##aluat
Administr
hem
meragukan
melengkapi
bebola
optimis
BAGAN
Banding
torch
uses
##acai
##patuhan
isinya
Perincian
penyembuhan
tret
bertelur
PERSIDANGAN
risk
besarkan
Gor
hubungannya
CU
Tempah
Liberia
Positif
##rum
##Time
bertakwa
setanding
mudahnya
macamana
berser
lambuk
bersamanya
Comoros
Medium
Jahitan
workshops
gran
Asha
172
Button
mengizinkan
Skala
mengeratkan
##areness
Tahoe
acqu
Basah
pasangannya
Window
Membunuh
Feder
langganan
##bangkan
seandainya
penangguhan
Keunikan
##IGH
Menjana
##ukau
##tainable
461
Principe
disimpulkan
Dab
Potong
rentak
Seronok
##anker
MENANG
interaktif
syak
##los
ajaib
##ampingi
NURUL
Melahirkan
##emap
Alim
wahab
TRADING
dal
##agh
khalwat
Diafragma
tongkat
Chee
menembusi
Cris
##abitan
##rogen
Plots
##omputer
ROKET
##beri
##orano
areas
PADANG
Animals
Jumpa
application
PERSEMB
Ketenteraan
institutes
Katakanlah
Hasmah
SEBAB
Scope
##yaz
tarekat
kelamaan
123C
Gambia
Bangkit
##iatri
RM500
Kebiasaannya
Ummu
Bergaya
bersolat
UMRAH
Caledonia
##MEN
membel
berkilat
##anggota
##etiba
Dikemaskini
BACK
berker
associ
dun
ketaatan
##0065006e
Tank
dimuatkan
PEMENANG
serv
Kemiskinan
##parent
KAMPUS
##udu
plural
Tiguan
Arsenal
##ektor
137
Packaging
mach
##ahat
bertarung
##ocol
Kekayaan
presented
Lesotho
didunia
##tij
might
SPAD
strategies
##stead
keracunan
259
Steve
nekad
Saliran
Bertuah
kekecewaan
##kum
506
GDA26800
bersinar
bersedekah
##azali
Ministry
268
Menghadapi
meminati
jelajah
kental
sebati
menyingkirkan
##ETAK
##mod
##zy
Pengelola
6019
Penggal
Pontianak
##LINDUNGAN
Elect
gurunya
##uhuhu
Migrain
Dikat
Serat
##rinter
Bissau
Dusun
##voi
pembawa
PERLINDUNGAN
##ontak
##ABAT
insaniah
ditimbulkan
##0063
Getaran
WARNA
Ridg
sosioekonomi
EMB501
digunapakai
##elajahi
individuals
jadinya
##ebatkan
##ovation
Collagen
Nasriyyah
cadang
lalat
##non
kurung
Trucks
terjual
Passenger
##ega
dilay
nggak
fotografi
KANG
upper
peribahasa
Makam
majority
Gobind
ghairah
##TC
KUIS
##ressive
barangkali
pengikutnya
kantoi
commer
ENERG
African
together
##inesia
manik
Exec
berjimat
masin
tersumbat
Elok
RUJ
feb
Pembaikan
Kawasaki
musyrik
MINDA
Dy
Fras
sabit
keratan
kematangan
Login
hanyut
Hospitals
##GR
##ampelan
Cum
LB
keju
##CHING
Larutan
transition
##diah
Insiden
disaksikan
Cheese
supplies
Peripherals
SST
##ashi
conditioner
##ANGGUNGJAWAB
SPEC
Dongguan
SKU
Pant
tetangga
menyedarkan
sekat
##eous
pembekalan
Magazine
PERSEMBAHAN
Pound
kunjungi
pistol
##vement
kete
Alpes
Pengairan
Boe
Stephen
##640
lagipun
dijangkakan
km
caption
implementation
menyelaras
believe
saliran
Mustapha
MTU
menimba
Bergantung
praktis
##ahuinya
Prius
mencium
1951
Lev
TEMA
Perangkaan
encik
Scotland
puting
SINGAP
Louis
itik
Conditioner
Lun
Sb
##elaian
Kebahagiaan
MediaWiki
##dicator
Shahrizat
##ffa
however
Wolfberry
HIP
flu
##arab
TAHI
rusa
furniture
##egarkan
##UNGSI
Teams
Stores
Miskin
##ogok
Tea
relation
birds
Tommy
##ogenic
KAT
berda
TERBUKA
##itah
##ungsinya
ULAMA
Leher
diserap
pekeliling
concepts
pn
##AKAAN
Only
remain
Tumbuh
pengujian
ASK
dipertanggungjawabkan
metabol
situation
crawler
Putus
perce
melacur
Mansur
Bonet
govern
Break
uni
Keber
Guest
mercedes
##opok
terkecuali
Kepemimpinan
278
base
##asamy
##entation
Burkina
pekak
ikhtiar
dinasti
Load
ARAH
tekstur
Regional
Laboratories
mengisahkan
Berlin
baring
Burhan
Raider
Huruf
Sedih
ann
MENGUR
##TRY
huru
##uria
##redible
mentua
dicalonkan
Maxx
Dam
##ekstr
LEM
Ru
##iksyen
section
nilon
##uatir
##edition
PELB
kamus
penaja
Acc
##Exp
Kawat
cle
profesor
Kolesterol
bole
##dings
kekadang
##usukan
matter
505
kejujuran
Tanggal
Kerabat
Memancing
SUV
Permai
Wahyu
Behavi
##MAL
fik
##raman
##diov
##ALANAN
disayangi
takrif
Environment
BASED
##ahyang
along
BID
diduduki
tangguh
bersidang
maritim
abjad
Suplemen
ethics
BAGINDA
CUTI
##amen
Refleksi
mengalah
Chiku
berbasis
Aqu
CPI
ROM
Rebus
##ziman
Rahang
Cover
Pukulan
##uctur
269
Saraf
SKM
Jerai
Kasus
jerebu
##0020006
520
Jantina
Sulit
Pemandangan
Valencia
AWD
semenanjung
Abadi
bersiri
syarahan
bri
barah
##Def
menumb
often
sharing
Fire
ternama
Monterey
PELBAGAI
I30
Zoom
gemb
Menawarkan
sinis
lack
Berahim
Flam
meninggi
##hehe
Hanif
PERJALANAN
Hundred
deria
##biah
##ised
siar
Presidennya
Modena
inbox
meletup
Demokratik
Hero
Century
Nenek
##tukarkan
##udhu
LANGGAN
Own
##heim
Italy
mix
pedih
Adil
Gro
wenang
##alaya
##gues
cabutan
pengasuh
Yazid
tumpang
##charger
209
##umph
artinya
##OMBANG
##enkan
ensure
SAI
dam
py
##arudin
##agikan
kerang
penghinaan
saban
Keong
##acker
##tttt
##istrik
Eastern
Name
Polinesia
Menjadikan
Chew
##TROL
RAMADAN
Clothes
YONG
Mendidik
rover
hoki
##AKON
bring
Memberikan
penyingkiran
Meet
PETUA
Fashion
PEKERJA
dang
##Ad
pengisytiharan
##ewahan
##EKNIK
marble
Dibuka
Giveaway
##ungku
Askar
Sandwich
sandaran
##ulia
Sebelah
sedutan
perladangan
RAT
Mass
dipraktikkan
BUF
imaginasi
menguatkuasakan
FOKUS
Pha
berumah
Trade
gelandangan
Tourist
Landing
persaudaraan
Pelay
330
LAR
176
Bulk
Swaziland
##utiful
PBT
Kutub
kasi
##awinan
percintaan
PEMERIKSAAN
pujaan
Gabon
Waj
Liew
Pernikahan
##enya
##otaj
awet
Beverage
menjauhi
utiliti
perincian
##tively
PEMUDA
ketenteraman
bangku
Pencen
Torrent
##alvani
toward
Energi
##adirkan
##ares
##ianati
http
##kali
##oire
##tique
FUJI
Anaknya
1947
volum
Gram
elec
##erin
##take
267
salur
DEB
##880
##diyah
##ungkil
Dikatakan
negaranya
diminati
Commercial
SAP
##fisher
##ource
Kenal
rahang
##ERTAAN
##Ah
menempah
hentikan
##VEL
dilayan
BRAND
Snorkeling
fel
Pengadilan
Terper
Semarang
Lapis
GET
Akbar
Fiorano
topeng
##1855
Muadz
GELOMBANG
Palau
##F1
##agina
PENYERTAAN
Derhaka
third
TERATAI
Gurun
Pisau
Strad
mensasarkan
Jieyang
Bost
##urani
penggabungan
effectiv
##ITARY
verse
816
Diverse
Jerus
Terkejut
Aminuddin
625
##baru
##ypt
grup
bounty
stores
Pav
Lombok
Yin
pemurah
Menantu
BERHIMPUN
mengelilingi
##ARY
serata
100000
tanggungan
nukilan
##Rookie
ketiak
Kingfisher
tangisan
julai
##ukh
pemeliharaan
##ECT
Betong
421
##elling
Support
Fauziah
TUKAR
HOSP
##artac
1941
abstrak
kendalian
##PER
##aron
jeragat
430
Lubang
##emy
##UNGG
Kesannya
LOOP
Bahawa
351
##odium
Ukur
##hire
chat
swing
PERPUSTAKAAN
##Is
##qim
Masjidil
##lyde
Bertindak
Pd
##jamkan
##oksidan
##litus
anggotanya
auth
gemilang
stereng
bed
##acruz
cergas
##pin
##pur
dicabar
Berdekatan
KHAIR
MILITARY
Jeti
Berubah
maybe
ZULK
##ongkol
meminda
attitude
##elenggu
Mutu
nal
amin
urban
Nasheed
maghrib
sex
##ublisiti
Lepasan
##sem
Astra
ketapang
##ready
WILAYAH
Tumpang
##asila
Veracruz
Fara
LIP
##ERAHAN
PEMERK
Payung
##tification
Perj
Amri
Enlighten
Bedroom
Fraser
hahaha
Seal
##alus
mengembara
Noraini
five
Acetone
##185593
lectur
PEMERKASAAN
membawanya
digemari
##letter
Eritrea
##ilet
kehendaki
UNDI
sedari
354
Layak
##uncing
Skop
LOKASI
Sakti
##udly
berbakat
select
##ologies
Togo
Touring
##EMPUAN
Plain
keberhasilan
bergel
##spir
iPad
Generator
KWSP
Mursyidul
Qud
PERANCANGAN
Incredible
Sosio
NU
samar
##finder
##asri
mengiringi
##angsungkan
Bekasi
Defender
Protege
flat
ho
Pembahagian
oktober
##SEL
Marquis
Jelawat
##ALIAN
##lasses
Traktor
Isle
Carn
Ingatlah
gaun
habitat
Abby
##itarasa
Faroe
Published
Herbal
Galian
Ditolak
##elusuri
Gemas
MAB
akrab
Pengamal
diskusi
##ILE
Museum
DIAMALKAN
Sekretariat
Cir
seksyen
penjanaan
respect
Khaled
##ladha
dipasarkan
INSTITUT
SCIENCE
191
Memudahkan
ketam
Pendakwaan
working
UPDATE
draf
save
##imas
##caraan
Intel
kekejaman
mid
##sikan
##real
makes
Aspen
##standing
skema
million
Associations
getElements
ruf
##long
##Page
##­n
commun
Taksiran
##ederhan
##ognitive
Germany
memadam
##IDS
##iiii
Hamilton
similar
Chalets
AMPANG
ceritanya
##BS
##alt
teres
Kebangkitan
peha
Appro
Event
anthem
Izin
rolls
Boeing
RAY
##edhaan
pelukis
BELIA
Fasal
Uncategorized
##america
##utong
PRICE
Malays
Tepung
fasilitas
Droid
##oteknologi
##etang
educ
kelurahan
supports
##xit
##urano
khianat
233
bukak
jahil
Semenjak
muara
hipotesis
##wisata
##elated
Zahir
Cabri
Political
Ducati
Mystique
Vanden
##Two
1001
##ishes
BLACK
menjunjung
##AJU
290
instruc
getElementsBy
Faham
sony
keris
train
GAG
Uph
##HAS
demografi
Pengacara
Pengawas
Publication
hebatnya
Cameras
Maulana
9100
beruntung
##egaraan
taburan
Nusa
penahan
##upati
planning
animation
Brom
##enak
##atijah
##arantin
Corp
Buih
Heavy
fardu
18s
Berkat
##ANTIK
Kiribati
FLANGE
Oem
Ron
TIT
i8
215
Since
tipo
Ribu
##IDAH
Saudia
XVI
diram
Sprinter
epistem
6204
AKHBAR
##aje
Yorker
berdisiplin
cos
gout
‪‎
OPTIM
302
perbedaan
kompromi
attemp
eric
und
menggembirakan
##quish
reach
Kekerapan
##airankan
Moscow
MOTION
JAMUAN
cun
mentak
Perlukan
disandang
##ITIM
berkonsep
Nabil
perangkap
##jaz
##OLOG
Suites
Kontroversi
Veloster
Kob
penarik
Zahari
tirai
OGOS
##jikan
Chem
PEREMPUAN
berdakwah
confirm
ugutan
Petugas
TUG
##yangi
perisa
##ineer
##ropri
Expedition
ulangtahun
8900
##chetta
Aviator
##hips
agregat
##EMBAN
PERMATA
Pepper
Confection
Four
Razr
tubi
Jetta
Terbaharu
Kepakaran
tumbang
Eighty
rar
##yability
pendukung
Diskusi
Dipercayai
##code
##ihin
Terasa
dilanggar
9800
ran
kecurian
UNI
Action
##aleigh
Ginjal
FBI
##ilafah
Sewing
tertidur
##pl
##afiq
Corner
Evoque
Cressida
Station
Kening
237
##NER
Sampel
showed
ditanda
Gatal
Berlebihan
Trust
fall
hu
julat
##olin
Pathfinder
Durang
PELAKON
##ahwini
##pertensi
MISI
ditukarkan
Dimiliki
menginginkan
##elander
Muhammadiyah
Gedung
##aiyah
##aganya
PPBM
Outback
COMPUT
RANTA
berdebar
pixel
Corniche
curriculums
HOSPITAL
pump
288
460
822
tunjang
umpamanya
Pom
##etuk
##hee
Ajaran
Durango
either
PERANG
##lank
Boston
gandingan
##eve
##BER
conven
APM
response
Cuff
flex
won
##urt
BINA
poliester
gap
kearah
altern
berbayar
berputus
Sinter
Mediter
bersimp
Jakim
Fuad
lati
pemisah
Tribeca
aeon
##ampat
Diguna
Tanamsendiri
TANDA
Workshops
LAB
menggunung
bercita
Taburan
Ninety
bertin
memperhatikan
##etwood
getElementBy
heart
##tac
##apit
Pemangkasan
Perbaikan
akibatnya
internal
Cabriolet
getElementById
Pria
Fleetwood
init
##sanne
bloggers
runtuhan
principle
RAZR
Confectionery
Bagai
Mainan
penuhi
pendaratan
Display
times
##egerakan
##ullail
Kren
##itator
Maqasid
##elenggarakan
Blackwood
written
TAJUK
jadilah
Manif
Shops
LEE
outerHeight
Montero
##anca
Pakcikli00
MALL
khuatir
restu
Tiap
begitulah
supercharged
Sharafuddin
pik
WiFi
sabda
selsema
Mars
Govern
mengkh
Maranello
mempersembahkan
Aqiqah
hands
Corrado
Luas
sangkar
hubung
ani
JAWI
Scagli
##olstery
TNB
Entourage
KIMIA
Supersports
origin
##tikharah
##adikan
pemisahan
##inggirkan
BELUM
CLS
regarding
##diovaskular
Scaglietti
Majah
##salam
Keuangan
Seraph
##ernih
Solara
Stradale
Hans
##6200
##zalimi
Majelis
sewage
GDA26800H1
##Limau
##Nav
##WAL
Mounta
KEPIMPINAN
cabut
required
Physiotherapy
Xcover
genap
Rapide
Cutlass
Tibur
pakcikli00
Obama
SirapLimau
Murano
Montego
Zaenal
diajak
pemuliharaan
Permits
Melancarkan
indicators
Upholstery
COMPUTING
med
ping
tersangat
sehelai
Than
attas
Koup
Rumusan
MH
Tocco
Kemudi
chuck
Kanopi
secondary
SIVIK
mg
maps
pikir
westing
##lag
pulpa
Minivan
phot
tido
westinghouse
Cruz
Advertisers
Tarmizi
ericsson
##ontong
Securing
cerato
STi
jaring
Freelander
cupboard
Qadha
E350
seek
141
ForTwo
Villager
royce
Mountaineer
Tiburon
##Sub
##engku
##itz
penggun
ditamatkan
Span
ummat
penghapusan
weddings
berstruktur
Sheila
SLK
Brooklands
hyperd
Paykel
Sidekick
Rhin
Embassies
E320
Mulsanne
336
sambilan
Vanquish
PENGGUNA
Marauder
E550
conclud
involved
Ridgeline
Phaeton
Lawan
Terti
##AIQA
Inspektor
##tabalan
Sportback
Cabrio
CLK
Consultancies
Nyatakan
##araman
bermutu
Factories
Barchetta
Virage
Drophead
AQ
rokr
##tator
##INCH
Ching
sahel
startac
usai
Routan
Ramcharger
Superamerica
EX128
Robin
realistik
Vanagon
delegasi
GLK
SWAIQA
MazdaSpeed6
MazdaSpeed3
Penjaja
Wagoneer
Eurovan
Mua
kulat
##endela
permusuhan
Buntar
LANG
##athan
bersumber
bentuknya
nikmati
TEMPATAN
Folder
##AIB
OPTIMUS
E730
raksasa
Loire
terluka
Susunan
SU640
SU880
Ular
LU6200
Antonio
devicess
##ually
SETEMPAT
##siklopedi
##UNTUKAN
rancak
##ying
kaumnya
prefer
##ourse
266
philosophy
KANGAR
taip
157
kompaun
act
Reaksi
##enjarakan
##kem
KUCHING
liang
TS
paste
fansuri
##TagName
##tranet
Rauf
cium
bersemuka
koma
SOAL
##hijrahan
getElementsByTagName
Satar
dinobatkan
deri
Inch
Berguna
kepen
Maham
gastrik
KAFA
forgiveness
occur
Menentukan
##abisan
Konon
Miliki
Sajak
##letic
##jiang
##olate
aqiqah
Gopeng
Butterworth
menitikberatkan
mengedarkan
WAKIL
menjawat
Komitmen
##anggaan
PROTON
Cemp
Case
around
Karpal
mono
Bengkulu
SEREMBAN
drastik
ruh
358
Pedagang
Handphone
Processing
Tadika
perkuburan
Mart
Membangunkan
lebur
##ANDATANGANI
##ANTI
Domain
engineering
PERUNTUKAN
##uard
hide
dicuri
tindakannya
##tenham
Sifar
Guardian
mundur
##DP
Choc
perkakasan
getA
mengagumkan
##bed
Perkakasan
terlarang
membahaskan
duniawi
LIT
mp
tentangan
MARITIM
##eoxidizer
kolaborasi
penentangan
Ung
menjangka
171
Takbir
Marzuki
Penala
melintasi
Haba
Junior
SANTAPAN
TUMP
diubahsuai
AAA633
Cadang
disewa
Artinya
Terpakai
pedoman
meriahkan
Korona
Friday
Kantor
Executive
Nism
das
##zema
Nasution
Ketebalan
Mekanisme
galaksi
Kuah
##yyat
SeMalaysia
##AJAHAN
Turkish
##aksimumkan
Dozer
kunyit
##timewanya
Mahdi
TAKRAW
##ZUAN
##umus
batal
kewibawaan
levels
UF
paha
keled
##ulans
Ahmed
suruhanjaya
musta
evolusi
##uqyah
KEMP
konek
##alized
CAP
raih
##KINI
inst
pengeb
ANS
INTRODUCER
Stem
beragam
UTHM
263
kabut
became
BONUS
kembung
Menak
##ILIK
##fazkan
##Di
##ERING
merentas
##ancil
mode
KELUL
##engkapnya
NAM
dato
##mond
Abdillah
dibuatnya
##AFAZ
Klyde
membacanya
differences
##uarai
Atlan
stoking
SAFAR
##rac
##SAN
##aged
143
Cooper
Balasan
##resident
Pandu
dagu
##gic
KEBAWAH
MUKA
jemput
dipuji
Princ
Aidiladha
KALAU
##untum
pepatah
##iriman
Bersuara
draw
##misi
##enalkan
Penceramah
SEMBAH
Zat
TERJ
Pemerhatian
Perlaksanaan
##etor
berbulu
Silang
Chung
USJ
siksa
##nul
essential
hibah
lelah
Sikit
Mud
##dayakan
##matik
neutral
ikonik
Kalsium
hebahan
duda
##SUL
##ilikinya
Enzo
##ASE
##obar
##ualitative
suis
expla
difference
Mohor
trib
##ITED
Johnson
##words
##reditasi
##alisi
##yrrol
flip
digilap
##angkab
ENGLISH
berlumba
##idas
AWAS
Gim
Syak
melun
Phoen
Kemp
PANG
##titudes
211
Patologi
##enh
didaftar
##onf
##osal
RMK
230
KEBERANGKATAN
207
shallallahu
PEMASY
##skop
Mentor
Rogol
##aur
DEE
File
usahanya
Mahal
mistik
##amina
sutera
disekat
Karl
MULA
Menterinya
##HIL
##tizam
##ISE
penyair
Berla
Berniaga
Persaingan
##OSA
STATISTIK
Kunjungan
UBAH
limp
too
Diriwayatkan
Cint
##medi
##titution
Atlet
THINK
Lokman
Penurunan
paparkan
peluk
##eview
Prince
Juling
Broad
##was
perebutan
##OLL
Nikmati
Purple
SEM822
##lur
DOWN
Inku
tekn
##5000
FORUM
##utupi
pendakian
terpel
tasbih
direc
lipatan
##naire
Introduction
Bible
##osankan
##EWA
Respons
fiq
TIMUR
innerHTML
FIN
1920
bijian
Reader
##nnnn
larian
storan
kemewahan
BETUL
##resiasi
ACC
fon
##rel
##akala
##ihani
Akupun
UMS
##menung
##cipat
Ketahuilah
UCAPAN
Pangkat
##elakaan
keldai
##exp
freedom
Maulidur
DBKL
obesiti
##HURAN
berjen
wasallam
Rapat
##itungan
Trending
types
Significato
Marah
##lore
##erman
##lice
dimansuhkan
USTAZ
berint
##active
##indui
##izer
##otrop
muj
305
developing
mengimbau
PEMASYHURAN
Autisme
ALAMAT
Tebal
Fals
gampong
manhaj
berunsur
menyin
derm
halia
Ternakan
##antis
pertunjukan
Hasrat
score
PERMATANG
aidil
Ismaili
##IRIAN
sewaan
##tafsiran
jurugambar
MENINGKATKAN
Hence
alu
kumbahan
Aneeq
##erbal
Nobel
Austin
##burkan
##orama
##aniaya
berfokus
mengalihkan
hulu
none
punah
compared
PINTAR
Affandi
##redan
anjakan
pengubahan
berpangkalan
##umpun
MENANDATANGANI
PEKDIS
Lampung
Piramid
kub
##unangan
##asif
##pisode
##England
ujung
didapat
##ented
Kerangka
##aaaa
dipertandingkan
LIVE
##ede
Hanan
##pro
pencerahan
Mawd
Nag
fulf
salib
bertapak
sepupu
##Timeout
membintangi
##ohkan
kemungkaran
Aida
pieces
Lac
astronomi
dipertikaikan
penggantian
temannya
fasal
##grade
FAMA
Hua
Many
pID
shall
Target
CARI
Side
menyertakan
Menya
tercantik
Will
##orf
booking
summary1
BPA
Eco
jalani
Number
##jok
menyayangi
Penipuan
tempur
MUI
Perawatan
##aikal
menghasut
hitsC
Enzim
baldi
hitsNik
hitsHasri
Toh
##ULATIH
Lisan
movement
GUA
321
Lau
lembap
##ADIAH
Brexit
malangnya
pembolehubah
##rier
Quraisy
PERKASA
##akarah
possi
ranjang
tg
##UND
hayatnya
mengembangkannya
Welded
aksara
##alasan
Iqbal
Bond
SIP
MOHON
Embassy
##ernakular
udah
##mul
Penelitian
Alquran
##ediatrik
##ESE
PROMO
berpengetahuan
##tial
extra
pergigian
tunang
Jerusalem
Aurat
CY
NASA
##LOG
Codes
##yt
TEMPOH
pupils
Uber
##iles
Minangkab
##his
BERKU
ESS
jernih
viv
##PC
##ubaran
metrik
Hock
##organ
Berbagai
##isauan
ibni
jahit
Bonnet
228
dilapor
ketumpatan
720
MAIN
berlindung
godaan
Guangzhou
Here
aib
##antiasa
menelefon
Luna
berjiwa
Kargo
Hajjah
ce
##AMU
pelajarnya
Ensiklopedi
313
Dettol
##agnostik
376
memaafkan
tradition
Gendang
cabar
berjuta
syahid
Religion
##umu
pengsan
Hindia
##amarkan
outerWidth
pikiran
town
Sound
PENYERAHAN
##ebumian
LINK
##uncanya
shown
berfaedah
CUM
sebatan
Clean
mencabut
agamanya
ditunggu
menaruh
##othe
Berdiri
ONLY
Jessi
##legal
##ubalan
Packing
sepertinya
HIGH
bata
bilang
ulat
##qam
Arau
Kahfi
software
##LIMA
Tekak
##yond
##tabah
kekh
##Post
##atikah
pulihkan
Zaini
JOIN
Lingga
Kongsikan
##versity
REFORMASI
CUKAI
##urau
##dirkan
juzuk
CINCH
barangsiapa
Bou
##uslim
dikemas
Kompaun
274
754
opinion
Zubir
Muadzam
##arani
latih
penternakan
perekonomian
[...]
