<pad>	0
</s>	0
<unk>	0
.	0
(	0
)	0
"	0
-	0
–	0
£	0
€	0
#	0
'	0
a	-2.32192
,	-3.31079
▁	-3.38705
▁dan	-4.02185
▁yang	-4.05161
▁di	-4.17873
▁dalam	-5.07808
▁ini	-5.08334
▁untuk	-5.16512
▁dengan	-5.17082
▁pada	-5.28914
▁itu	-5.42168
s	-5.57548
nya	-5.62276
▁,	-5.654
▁kepada	-5.67273
▁tidak	-5.68359
▁ke	-5.77623
▁tahun	-5.79779
▁oleh	-5.83191
▁telah	-5.85753
▁merupakan	-5.85822
▁adalah	-5.86473
an	-5.87264
▁dari	-5.87648
▁akan	-5.88325
▁sebuah	-5.91409
▁Malaysia	-5.95074
▁sebagai	-5.98167
▁juga	-5.99941
▁bagi	-6.06288
▁the	-6.10722
▁mereka	-6.17307
▁atau	-6.17378
▁daripada	-6.19085
▁negara	-6.24558
▁terletak	-6.31115
:	-6.31357
▁lebih	-6.4259
i	-6.44056
▁orang	-6.44124
kan	-6.46687
▁satu	-6.49205
▁menjadi	-6.56097
▁ialah	-6.56505
▁of	-6.58769
▁seperti	-6.59592
▁berkata	-6.63736
▁kawasan	-6.64359
▁to	-6.66417
▁and	-6.69035
▁ada	-6.70415
▁tersebut	-6.72592
▁boleh	-6.72635
▁Pada	-6.73425
▁in	-6.75368
▁kerana	-6.75647
▁katanya	-6.76645
▁beliau	-6.77421
▁kerajaan	-6.7779
▁serta	-6.79387
▁lain	-6.79707
▁secara	-6.8112
▁RM	-6.81292
e	-6.81569
▁hari	-6.82058
▁kita	-6.84346
▁:	-6.84378
t	-6.88183
▁Menteri	-6.8974
▁Islam	-6.91137
▁ia	-6.9145
▁mempunyai	-6.92774
▁negeri	-6.93261
▁Kerajaan	-6.9462
▁1	-6.98788
▁antara	-7.02294
▁bahawa	-7.02572
▁dapat	-7.04412
▁iaitu	-7.04691
▁isu	-7.04915
▁pihak	-7.05838
▁lagi	-7.0772
▁sama	-7.08672
▁masa	-7.09786
▁selepas	-7.11304
▁Beliau	-7.12283
▁Indonesia	-7.12775
▁perlu	-7.13943
▁dua	-7.13996
▁beberapa	-7.1505
▁Di	-7.15326
▁seorang	-7.16121
▁Datuk	-7.16691
▁atas	-7.17641
▁bawah	-7.19074
▁terhadap	-7.19852
▁ketika	-7.2
;	-7.20365
1	-7.21988
▁saya	-7.23142
d	-7.23857
▁al	-7.2407
▁melalui	-7.25217
▁tetapi	-7.25352
▁Dalam	-7.25527
▁mana	-7.27282
▁termasuk	-7.27693
▁hanya	-7.27702
▁Dr	-7.28081
▁juta	-7.28317
▁Yang	-7.29351
▁semua	-7.31214
▁2	-7.31651
▁banyak	-7.31714
▁A	-7.32333
▁rakyat	-7.32667
▁digunakan	-7.33074
▁pertama	-7.33264
▁Ia	-7.33685
▁Sekolah	-7.34478
▁turut	-7.35496
▁sehingga	-7.35566
▁daerah	-7.3597
▁sebelum	-7.36007
▁S	-7.3653
k	-7.36728
▁sudah	-7.37
▁bersama	-7.37061
▁Melayu	-7.37178
2	-7.39007
n	-7.39925
▁masih	-7.40496
▁besar	-7.40509
▁sebanyak	-7.41184
▁lalu	-7.41274
▁bukan	-7.41919
▁memberi	-7.4306
▁jumlah	-7.43509
▁bandar	-7.45472
▁3	-7.45555
▁hingga	-7.45856
ing	-7.45859
▁Negeri	-7.46173
y	-7.46306
▁masyarakat	-7.47297
▁berkenaan	-7.47562
▁rumah	-7.47646
o	-7.48313
m	-7.49775
▁baru	-7.50631
▁memiliki	-7.50738
▁Kementerian	-7.50872
▁I	-7.50926
▁kedua	-7.52129
▁pelajar	-7.53764
▁apabila	-7.54379
▁dunia	-7.55052
▁syarikat	-7.55064
▁4	-7.55394
▁mengenai	-7.56155
▁utama	-7.56448
▁menggunakan	-7.56656
▁anak	-7.58113
▁is	-7.59529
▁membuat	-7.59795
▁pelbagai	-7.60396
▁wilayah	-7.60809
▁ber	-7.60843
▁tinggi	-7.61147
ed	-7.61266
▁setiap	-7.61695
▁Negara	-7.6239
▁sekolah	-7.62653
▁mengambil	-7.62703
▁Seri	-7.63006
▁baik	-7.63383
▁M	-7.63888
▁Kebangsaan	-7.64411
▁sini	-7.64965
▁The	-7.65441
▁ekonomi	-7.66033
▁nama	-7.66173
▁semula	-7.66424
▁komun	-7.66457
u	-7.66597
▁kampung	-7.66738
▁program	-7.6676
▁salah	-7.67532
▁Ketua	-7.67958
▁Perdana	-7.67964
▁Perancis	-7.68258
3	-7.68691
▁buah	-7.68836
▁kata	-7.69071
▁tempat	-7.69143
▁Al	-7.69351
▁kini	-7.69627
h	-7.70141
▁tiga	-7.70228
▁air	-7.7058
/	-7.70818
▁lelaki	-7.71885
▁berlaku	-7.72714
▁Jabatan	-7.72799
▁pula	-7.73105
▁Kuala	-7.73154
▁Amerika	-7.73997
▁ahli	-7.74262
▁politik	-7.74279
▁Tuan	-7.7444
▁terus	-7.74544
in	-7.74698
▁filem	-7.75453
B	-7.75592
▁[	-7.75817
▁sendiri	-7.76283
▁bahasa	-7.76478
▁mendapat	-7.77765
▁seramai	-7.77782
▁wanita	-7.77838
5	-7.78621
▁bulan	-7.788
▁luar	-7.78819
S	-7.78994
M	-7.7912
▁India	-7.79504
▁terdapat	-7.79824
▁5	-7.79887
▁Kampung	-7.80126
▁sistem	-7.80227
▁B	-7.80698
A	-7.81169
▁sejak	-7.81453
▁kes	-7.81562
▁masalah	-7.82129
▁menyatakan	-7.82221
▁10	-7.8259
▁semasa	-7.82673
▁kali	-7.83538
▁tanah	-7.83541
er	-7.83659
▁peratus	-7.84499
▁bilion	-7.84708
▁media	-7.85749
▁parti	-7.86577
▁Mohd	-7.86607
▁projek	-7.86686
▁tindakan	-7.87339
▁6	-7.88081
▁menerima	-7.88472
▁for	-7.88949
▁penduduk	-7.89386
▁jabatan	-7.89618
4	-7.8965
▁jika	-7.89815
▁Pulau	-7.90703
▁that	-7.9077
▁agama	-7.90809
▁membantu	-7.90829
▁perkara	-7.91703
▁tempoh	-7.92399
?	-7.92514
▁pasukan	-7.92738
▁N	-7.92864
▁harga	-7.92958
▁kumpulan	-7.9332
▁perkhidmatan	-7.93811
▁berkaitan	-7.94174
▁diri	-7.94428
▁pernah	-7.95755
▁kuasa	-7.95922
▁P	-7.95984
al	-7.96065
▁awam	-7.96084
▁Abdul	-7.96357
lah	-7.96513
▁kerja	-7.96862
▁seluruh	-7.96955
▁awal	-7.9696
▁kecamatan	-7.97029
▁apa	-7.97127
▁dilakukan	-7.97325
undang	-7.97633
▁Ini	-7.9802
▁Syarikat	-7.98534
▁tanpa	-7.98627
▁mampu	-7.98643
▁pembangunan	-7.98665
▁usaha	-7.98688
▁China	-7.99694
▁sahaja	-7.99958
▁raya	-8.00215
▁hasil	-8.00291
▁dikenali	-8.0032
▁PERTANYAAN	-8.01562
▁Ke	-8.01743
▁memastikan	-8.01846
▁Presiden	-8.02359
▁hidup	-8.02519
▁K	-8.02651
▁paling	-8.02745
▁peringkat	-8.03336
▁ramai	-8.03382
▁Selain	-8.03533
▁supaya	-8.0368
▁penting	-8.03789
▁para	-8.04113
▁E	-8.04383
▁Java	-8.0463
6	-8.04755
▁pendidikan	-8.04864
script	-8.04906
▁]	-8.05083
▁kadar	-8.05151
▁kami	-8.05213
es	-8.05378
di	-8.05472
▁selama	-8.05904
▁on	-8.06195
▁Parlimen	-8.06301
▁bahagian	-8.06471
▁Menurut	-8.06514
r	-8.06575
▁berjaya	-8.07539
▁desa	-8.07582
C	-8.07813
▁meningkatkan	-8.08345
▁melakukan	-8.08348
▁Ahmad	-8.08391
▁Sabah	-8.08924
▁kaum	-8.09252
▁kecil	-8.09439
▁kemudian	-8.09471
▁;	-8.0957
▁bermula	-8.09673
▁Lapangan	-8.09921
▁sekitar	-8.10157
▁berada	-8.10495
▁sedang	-8.10862
▁sangat	-8.10863
▁namun	-8.1111
▁baharu	-8.11333
▁mengikut	-8.1138
▁Terbang	-8.11537
▁Selatan	-8.11549
▁sosial	-8.12395
ah	-8.12485
▁Persekutuan	-8.12537
▁7	-8.12604
l	-8.12681
▁Majlis	-8.12762
▁industri	-8.12805
▁as	-8.12893
▁Ahli	-8.13073
▁membawa	-8.13388
▁kira	-8.13453
▁menyebabkan	-8.13483
▁makanan	-8.13937
en	-8.14243
▁Dewan	-8.14446
▁mungkin	-8.1476
ly	-8.14943
7	-8.15079
▁was	-8.15281
▁keputusan	-8.15444
▁tak	-8.15464
▁laut	-8.15536
▁anggota	-8.15697
▁be	-8.15762
▁sekali	-8.15807
▁dibuat	-8.15979
▁jalan	-8.16144
▁Mahathir	-8.16154
▁memberikan	-8.16229
▁undang	-8.16525
▁keseluruhan	-8.1663
▁18	-8.16668
▁mahu	-8.16744
▁Bagi	-8.16827
▁pun	-8.17006
▁pemain	-8.17085
▁Untuk	-8.17098
0	-8.17598
p	-8.17611
▁C	-8.17628
▁bidang	-8.17642
▁UMNO	-8.17896
▁tempatan	-8.18118
▁MENTERI	-8.18152
▁Sultan	-8.1843
▁perbandaran	-8.1848
▁Sungai	-8.18801
▁tentang	-8.19321
▁mula	-8.19351
si	-8.2021
▁Lumpur	-8.20271
▁8	-8.20383
▁D	-8.20424
▁keluarga	-8.20668
▁proses	-8.20699
▁berbanding	-8.20757
▁empat	-8.20823
8	-8.2088
▁12	-8.21353
▁Selangor	-8.2138
▁menunjukkan	-8.21469
▁Mei	-8.21688
9	-8.22371
▁Barat	-8.22433
▁2019	-8.22641
▁kenyataan	-8.22799
▁golongan	-8.23109
▁Jerman	-8.23214
▁20	-8.23305
▁Namun	-8.23764
▁Johor	-8.23889
▁Raja	-8.23957
▁tiada	-8.23986
▁2018	-8.24026
▁manusia	-8.24125
▁bentuk	-8.24228
▁kos	-8.24437
▁G	-8.24521
▁Jepun	-8.24571
dua	-8.24757
▁Timur	-8.24942
li	-8.2512
▁kedudukan	-8.25214
▁15	-8.25285
b	-8.25306
▁de	-8.25377
▁manakala	-8.25908
▁Tun	-8.26068
T	-8.26204
▁kembali	-8.26212
▁keadaan	-8.2649
▁ibu	-8.26616
▁langkah	-8.26918
▁April	-8.27053
▁dilaksanakan	-8.27432
de	-8.27515
▁ringgit	-8.27575
▁Iran	-8.27631
▁kalangan	-8.27687
is	-8.28315
▁lama	-8.28335
▁tentera	-8.28448
▁pusat	-8.28554
▁Sri	-8.28582
man	-8.28701
▁Se	-8.28823
▁T	-8.28855
▁polis	-8.2926
▁Sarawak	-8.29315
▁berdasarkan	-8.29978
▁guru	-8.3003
▁kurang	-8.30154
▁Mac	-8.30533
▁aktiviti	-8.30825
P	-8.31038
▁menerusi	-8.31081
▁menjadikan	-8.31162
▁with	-8.31406
▁Mohamad	-8.31542
▁Cina	-8.31872
▁pilihan	-8.32258
▁agar	-8.3232
▁utara	-8.32394
▁9	-8.32669
▁Januari	-8.32821
kanak	-8.32862
kira	-8.33093
▁selain	-8.33113
▁lima	-8.33152
▁11	-8.33183
▁Raya	-8.33675
▁keselamatan	-8.34009
K	-8.3421
f	-8.34236
▁30	-8.34381
▁Besar	-8.3452
▁akhir	-8.34636
▁jenis	-8.34722
on	-8.34874
▁Kabupaten	-8.35369
▁barat	-8.35463
us	-8.35469
▁laporan	-8.35715
▁diberikan	-8.35755
▁your	-8.35767
▁melibatkan	-8.35971
▁Akta	-8.36139
▁Kedah	-8.36426
▁Asia	-8.36921
▁harus	-8.36976
▁R	-8.37153
▁Pendidikan	-8.37302
▁bin	-8.37386
le	-8.37396
D	-8.37458
▁asing	-8.3749
▁sektor	-8.38032
▁bekas	-8.38234
▁Terdapat	-8.38326
▁nilai	-8.38333
▁per	-8.38484
▁mendapatkan	-8.38516
▁bantuan	-8.38934
▁melihat	-8.39065
▁Rakyat	-8.39303
▁/	-8.39402
▁Muhammad	-8.39706
▁Mereka	-8.40101
▁perempuan	-8.4035
▁Perak	-8.40462
I	-8.40519
▁rendah	-8.4077
▁Universiti	-8.40851
▁sebarang	-8.41184
▁melaksanakan	-8.41304
▁Ber	-8.41368
▁2015	-8.41519
z	-8.4153
▁jam	-8.41687
▁belum	-8.41735
▁hal	-8.41783
▁mata	-8.41805
▁16	-8.42076
▁kereta	-8.42087
▁Tan	-8.42226
▁ter	-8.42292
▁individu	-8.42405
▁kapal	-8.42437
▁bahan	-8.42547
▁Jun	-8.42578
▁kebangsaan	-8.426
▁hak	-8.42622
▁Katanya	-8.42644
▁Timbalan	-8.42696
▁F	-8.42853
▁sumber	-8.42909
▁Jalan	-8.4315
▁musim	-8.43217
▁maka	-8.43253
▁kewangan	-8.4335
▁wang	-8.43486
▁mencapai	-8.43599
▁walaupun	-8.43798
g	-8.43805
▁pendapatan	-8.43855
ar	-8.43856
▁Sementara	-8.43923
se	-8.44068
▁maklumat	-8.44409
▁2017	-8.4447
▁Bandar	-8.44488
14	-8.44559
▁minta	-8.44637
ri	-8.44755
▁lagu	-8.45236
▁Pinang	-8.45343
▁Utara	-8.45348
te	-8.45374
▁kajian	-8.45573
▁2016	-8.4558
▁W	-8.45676
▁J	-8.45707
ik	-8.45708
▁peruntukan	-8.45772
▁cara	-8.45881
to	-8.46065
▁Kelantan	-8.46096
▁memba	-8.46196
▁pekerja	-8.46316
▁Terengganu	-8.46416
▁&	-8.46441
▁buat	-8.46882
re	-8.46952
▁14	-8.47063
▁suatu	-8.47085
▁browser	-8.47243
H	-8.47276
▁sebahagian	-8.47298
▁diambil	-8.47627
▁berhubung	-8.47683
▁2014	-8.48054
▁pegawai	-8.48086
▁Program	-8.48141
▁sepanjang	-8.48208
▁pemimpin	-8.48513
▁Nasional	-8.48536
▁menyediakan	-8.48795
▁demikian	-8.48811
▁H	-8.48903
▁diberi	-8.49363
▁Pusat	-8.49539
▁RAKYAT	-8.50164
▁amat	-8.504
▁masuk	-8.50552
▁murid	-8.50661
▁13	-8.50688
▁dasar	-8.50716
▁timur	-8.5086
▁Polis	-8.50987
▁September	-8.51068
▁datang	-8.51101
▁produk	-8.51128
▁jawatan	-8.51272
▁perniagaan	-8.51334
▁pasaran	-8.51334
▁agensi	-8.51363
▁dilihat	-8.5152
▁teknologi	-8.51629
▁semakin	-8.51696
▁by	-8.51994
▁terdiri	-8.52011
▁penggunaan	-8.52164
▁Filem	-8.52216
▁depan	-8.52306
▁saat	-8.52499
▁biasa	-8.52515
▁pengguna	-8.52543
▁DEWAN	-8.52613
▁at	-8.52785
G	-8.52877
▁kerjasama	-8.53613
▁antarabangsa	-8.53797
▁Kota	-8.53935
▁0	-8.54027
▁sesuatu	-8.54141
▁warga	-8.54168
▁bisa	-8.54416
▁keperluan	-8.54463
▁malam	-8.54608
▁bola	-8.55031
▁Singapura	-8.55143
Saya	-8.55228
▁setelah	-8.55237
▁mudah	-8.55509
▁Dunia	-8.55618
▁17	-8.55652
▁it	-8.5594
▁se	-8.55973
▁he	-8.56001
▁minyak	-8.56229
▁jadi	-8.5631
ke	-8.5644
▁Daerah	-8.56683
▁U	-8.56758
▁Hal	-8.568
▁berusia	-8.56989
▁operasi	-8.57115
th	-8.57133
ku	-8.57544
▁KUALA	-8.57697
▁are	-8.57734
▁hampir	-8.57787
▁muda	-8.57921
▁terkenal	-8.58042
▁Disember	-8.58429
▁calon	-8.58725
▁pembinaan	-8.58759
un	-8.58771
▁Tentera	-8.5911
▁peluang	-8.59234
et	-8.59319
▁bekerja	-8.59409
▁sering	-8.59642
▁waktu	-8.59735
▁Allah	-8.59796
▁hubungan	-8.59808
▁Wan	-8.5982
R	-8.60156
▁ingin	-8.60213
▁Bukit	-8.60542
▁langsung	-8.60825
▁kanak	-8.61041
▁from	-8.61107
▁pentadbiran	-8.61162
▁dikeluarkan	-8.61172
▁badan	-8.61354
masing	-8.61545
▁diadakan	-8.61725
▁Arab	-8.61749
▁terbang	-8.61891
▁not	-8.62057
▁begitu	-8.62093
▁mangsa	-8.62099
▁LISAN	-8.62297
▁Oktober	-8.62528
mana	-8.62637
▁AS	-8.62799
▁Dia	-8.62854
▁tetap	-8.62868
▁siasatan	-8.63037
▁Saya	-8.63052
▁Wilayah	-8.63055
10	-8.63182
▁terlibat	-8.63207
▁bangunan	-8.63462
▁sepak	-8.635
▁In	-8.63597
or	-8.6364
▁menarik	-8.63655
▁Pengarah	-8.63657
▁Inggeris	-8.63852
▁Poskod	-8.63888
▁membentuk	-8.63889
▁akibat	-8.64067
19	-8.64567
▁Jakarta	-8.64612
▁sentiasa	-8.64652
▁Taman	-8.64731
▁Ogos	-8.64833
▁terbesar	-8.64883
▁masing	-8.65008
▁cukai	-8.65125
▁terutama	-8.65298
▁O	-8.6532
▁Julai	-8.6557
▁terutamanya	-8.65593
▁L	-8.66355
▁rasmi	-8.66396
w	-8.66419
Pertua	-8.66444
▁November	-8.66875
▁jelas	-8.66889
▁Bahasa	-8.66943
▁said	-8.67006
▁New	-8.67202
▁Oleh	-8.67339
W	-8.67372
▁tengah	-8.67373
*	-8.67539
▁meningkat	-8.67713
J	-8.67759
▁terba	-8.68014
▁Orang	-8.68036
il	-8.68082
▁tertentu	-8.68242
▁Mahkamah	-8.68375
▁milik	-8.68406
ang	-8.68559
▁sedia	-8.68654
▁Pengerusi	-8.68685
▁tahap	-8.68745
▁tujuan	-8.68765
▁disebabkan	-8.68767
F	-8.68773
▁kejadian	-8.68878
▁kesan	-8.68974
ti	-8.69162
▁sejarah	-8.6949
▁LUMPUR	-8.69887
▁Y	-8.70161
▁sekarang	-8.70205
▁Dengan	-8.70287
▁berbeza	-8.70517
▁peranan	-8.7063
▁ketiga	-8.70741
▁Pembangunan	-8.70812
▁Ali	-8.70849
▁khas	-8.71402
▁2010	-8.71573
ter	-8.71729
▁menjalankan	-8.71785
▁kesihatan	-8.71841
▁pengurusan	-8.71897
▁Dipertua	-8.72054
ul	-8.72064
▁keluar	-8.72167
no	-8.72243
N	-8.7229
▁bagaimanapun	-8.72365
▁dianggap	-8.72402
▁PH	-8.72461
▁Shah	-8.72497
▁khususnya	-8.72703
▁Tanah	-8.72952
▁Itali	-8.73059
ni	-8.73064
▁menyertai	-8.73456
▁mengatakan	-8.73656
▁pelaksanaan	-8.73729
▁bermain	-8.73769
▁Selepas	-8.73798
▁meter	-8.74166
▁menteri	-8.74654
▁Melaka	-8.74838
▁menghasilkan	-8.74983
▁segi	-8.75111
▁sokongan	-8.75283
▁Ismail	-8.75362
▁terbaik	-8.75578
▁pasti	-8.75633
▁umum	-8.75634
▁enam	-8.75677
▁mencari	-8.75792
▁pagi	-8.7599
E	-8.76298
▁dibina	-8.76389
▁2013	-8.76695
▁Bhd	-8.76888
▁unit	-8.7692
▁25	-8.77023
▁kepentingan	-8.77026
▁mengurangkan	-8.77087
▁Najib	-8.77186
▁Dari	-8.77253
c	-8.7731
▁pelaburan	-8.77387
▁zaman	-8.77427
▁dijangka	-8.77501
▁Parti	-8.77822
▁Provinsi	-8.77911
▁Antara	-8.78043
20	-8.7822
▁Harapan	-8.78234
▁data	-8.78325
▁Sebagai	-8.78334
▁%	-8.7857
▁PEMBERITAHUAN	-8.78719
▁21	-8.78861
▁had	-8.78868
▁Eropah	-8.78899
ber	-8.78924
▁YB	-8.79012
▁alam	-8.79075
▁arah	-8.79131
▁Antarabangsa	-8.79195
el	-8.79225
▁24	-8.79306
▁Februari	-8.79333
▁berikut	-8.79334
▁bilangan	-8.79778
▁Korea	-8.80201
▁panjang	-8.80205
▁mengalami	-8.80212
▁dijalankan	-8.80231
▁swasta	-8.80431
▁institusi	-8.80785
▁asal	-8.80838
▁m	-8.80839
▁Masjid	-8.81022
▁memerlukan	-8.81075
▁perlawanan	-8.81303
▁V	-8.81439
▁Aceh	-8.81509
▁re	-8.81556
▁aspek	-8.81712
▁lapangan	-8.81854
▁budaya	-8.81904
▁Pilihan	-8.81927
▁e	-8.8205
ir	-8.82169
▁tenaga	-8.82262
▁Baru	-8.82293
15	-8.82338
▁Kita	-8.82487
▁sebab	-8.82603
▁like	-8.82647
▁Haji	-8.8268
▁b	-8.82724
▁karena	-8.82825
▁video	-8.82936
ur	-8.82947
▁cadangan	-8.83407
▁tahu	-8.83579
▁pesawat	-8.83729
▁bahwa	-8.83836
▁perubahan	-8.83925
▁Australia	-8.83935
▁sementara	-8.84095
▁kekal	-8.84125
▁Thailand	-8.84163
▁album	-8.84223
▁Dan	-8.84245
▁Bank	-8.84299
ce	-8.84326
▁Kedua	-8.84496
▁La	-8.84501
▁Jawatankuasa	-8.84528
▁Ibrahim	-8.84846
▁hati	-8.85042
▁asas	-8.85147
▁buku	-8.85207
▁saja	-8.85261
bi	-8.85318
▁kehidupan	-8.8578
▁membolehkan	-8.85832
▁Republik	-8.85832
▁majlis	-8.85869
▁penyakit	-8.85962
▁lokasi	-8.85982
▁sidang	-8.86055
▁DAP	-8.86103
▁sekiranya	-8.86137
▁his	-8.86444
per	-8.865
▁peningkatan	-8.86506
▁me	-8.8656
▁kota	-8.86614
L	-8.86671
▁Le	-8.86707
▁perkembangan	-8.86922
▁Pakatan	-8.86949
me	-8.8702
▁British	-8.87058
▁hadir	-8.87218
▁biasanya	-8.87303
▁mulai	-8.87375
▁kenderaan	-8.87551
▁50	-8.87755
▁Turki	-8.87778
▁meminta	-8.88031
▁penuh	-8.88042
▁pihaknya	-8.8811
▁membaca	-8.88121
▁malah	-8.88126
▁kaedah	-8.88146
▁pekerjaan	-8.88158
▁mengadakan	-8.88162
▁Menengah	-8.883
▁pertanian	-8.88357
30	-8.88388
▁bebas	-8.8852
▁have	-8.88561
▁Abdullah	-8.88654
▁hadapan	-8.88679
▁menangani	-8.89028
▁Suruhanjaya	-8.89064
00	-8.89275
▁tambahan	-8.8931
▁Jawa	-8.89384
▁PAS	-8.8948
▁siri	-8.89506
▁kemudahan	-8.89517
▁He	-8.89698
▁Laut	-8.8983
▁Tinggi	-8.90088
▁muncul	-8.90157
▁meng	-8.90221
▁akhirnya	-8.90223
▁rasa	-8.90281
▁gagal	-8.90302
▁selatan	-8.9036
▁pandangan	-8.90397
sama	-8.90462
▁pembangkang	-8.90598
j	-8.90646
▁diterima	-8.90647
▁Alam	-8.90681
▁mengeluarkan	-8.90701
▁latihan	-8.90708
▁19	-8.90726
▁serangan	-8.90914
▁men	-8.90982
▁Kumpulan	-8.91001
▁31	-8.91186
▁Per	-8.9122
▁dilantik	-8.91239
▁semalam	-8.91304
▁populasi	-8.91305
▁seterusnya	-8.91353
Kita	-8.91442
▁Walaupun	-8.91552
▁Tengah	-8.91712
▁terakhir	-8.92086
▁Sukan	-8.92097
▁tinggal	-8.92188
▁pelakon	-8.92387
▁Hari	-8.92555
▁23	-8.92721
▁BN	-8.92734
▁ditemui	-8.92877
▁kebanyakan	-8.92938
40	-8.92972
men	-8.93216
▁bekalan	-8.93238
▁komuniti	-8.93299
▁abad	-8.93561
▁Jika	-8.93567
negara	-8.9372
▁has	-8.93722
▁berkuasa	-8.93775
▁lanjut	-8.93917
▁Perang	-8.93929
▁kementerian	-8.94014
▁bakal	-8.94231
▁22	-8.94244
▁Kewangan	-8.94501
▁Piala	-8.94772
▁cuba	-8.94778
▁api	-8.94798
▁Berhormat	-8.94819
13	-8.94911
▁Bagaimanapun	-8.94976
11	-8.95012
▁Air	-8.95066
▁2011	-8.95187
▁melebihi	-8.95575
The	-8.95802
daerah	-8.95932
▁PKR	-8.95932
▁perang	-8.95939
▁or	-8.96098
id	-8.96137
▁this	-8.96278
▁Pas	-8.96528
▁pertumbuhan	-8.96534
▁pemerintah	-8.96541
▁wujud	-8.96552
▁100	-8.96673
um	-8.96873
▁Batu	-8.96881
▁kasih	-8.96962
▁ditubuhkan	-8.96963
▁muzik	-8.96979
▁Sepanyol	-8.97109
▁contoh	-8.97315
▁faktor	-8.97462
▁tangan	-8.97579
ne	-8.97724
▁belakang	-8.97823
it	-8.97844
▁Pahang	-8.97926
▁BIN	-8.9803
▁DARIPADA	-8.98035
▁2008	-8.98398
▁menentang	-8.98401
▁here	-8.98514
▁membina	-8.98862
ut	-8.99004
▁menyokong	-8.99038
▁Abu	-8.99159
x	-8.99172
mi	-8.99201
▁perdagangan	-8.99207
▁sampai	-8.9955
▁memenangi	-8.99591
▁rakan	-8.99619
▁mendapati	-8.99651
▁Anwar	-8.99665
▁bangsa	-8.99787
▁2012	-8.99867
▁berasal	-8.99909
▁terpaksa	-8.99984
▁sesuai	-9.00056
▁cukup	-9.0012
▁masjid	-9.00373
han	-9.00446
com	-9.0055
▁Sdn	-9.00635
▁Kesihatan	-9.01037
▁bapa	-9.01098
▁balik	-9.01295
▁dahulu	-9.01305
▁SOALAN	-9.0139
▁kemudiannya	-9.01501
▁segala	-9.01547
▁jauh	-9.01771
▁permohonan	-9.0182
▁benar	-9.01882
▁pejabat	-9.01936
▁diterbitkan	-9.01997
18	-9.02027
▁sebenarnya	-9.02455
▁kematian	-9.02549
▁jenayah	-9.026
▁mewujudkan	-9.02656
▁kelas	-9.02658
▁Muslim	-9.02699
ung	-9.02739
▁berikutan	-9.02815
lu	-9.02904
▁perhatian	-9.03137
▁ditetapkan	-9.03183
50	-9.03292
▁De	-9.03309
ng	-9.03335
▁nombor	-9.03338
▁terbuka	-9.03608
▁minggu	-9.03638
!	-9.03668
▁sedikit	-9.03853
▁Pe	-9.03896
▁27	-9.03914
▁samping	-9.03994
▁No	-9.04003
▁ketua	-9.04132
▁pengeluaran	-9.04248
▁run	-9.04373
▁bertujuan	-9.04489
ry	-9.046
▁mahkamah	-9.04673
orang	-9.04723
▁Persatuan	-9.0475
▁dilaporkan	-9.04822
▁Pejabat	-9.04926
▁Re	-9.05093
▁Ter	-9.0514
▁28	-9.05164
▁udara	-9.05275
▁Seksyen	-9.05414
▁seseorang	-9.05433
▁26	-9.0545
▁Me	-9.05461
bertanggungjawab	-9.05499
▁hutang	-9.05504
▁kesalahan	-9.05568
▁dikatakan	-9.05597
▁2009,	-9.05635
baru	-9.05791
▁inisiatif	-9.05822
ch	-9.05871
▁Satu	-9.06091
▁demi	-9.06277
▁2009	-9.06374
▁sebaliknya	-9.06465
▁Dato	-9.06473
ki	-9.0656
▁berat	-9.06628
▁tertinggi	-9.06744
▁ruang	-9.07111
▁II	-9.07121
▁Pegawai	-9.07206
▁ilmu	-9.0725
▁sepenuhnya	-9.07279
▁pinjaman	-9.07363
▁Lembaga	-9.07394
▁kerusi	-9.07405
▁makluman	-9.07435
ro	-9.0748
▁Tidak	-9.07544
▁surat	-9.0756
▁merujuk	-9.07604
ji	-9.07647
▁Walau	-9.07762
▁mengumumkan	-9.0778
▁daya	-9.07834
▁bayaran	-9.07929
▁lepas	-9.08086
ton	-9.08096
17	-9.08142
▁laman	-9.08168
▁Lim	-9.08197
la	-9.08215
gi	-9.08378
▁Ekonomi	-9.08478
▁disediakan	-9.08587
▁arahan	-9.08609
▁Industri	-9.08653
▁Pertama	-9.0873
▁pemerintahan	-9.08775
▁sawit	-9.08815
U	-9.08845
▁Ar	-9.08863
▁khusus	-9.09139
ok	-9.09164
▁Wanita	-9.09282
ge	-9.093
▁kuat	-9.09327
▁Tahun	-9.09352
▁seni	-9.09368
▁Diraja	-9.09742
▁haiwan	-9.09897
▁memang	-9.09938
▁Setiausaha	-9.09994
▁status	-9.10013
▁ringkasnya	-9.10237
▁baginda	-9.1024
lan	-9.10289
▁laluan	-9.10585
▁40	-9.10674
▁undi	-9.1069
▁Click	-9.10822
▁pen	-9.10865
▁United	-9.10964
▁padi	-9.11172
▁menjelaskan	-9.11177
12	-9.11225
▁Malaysiakini	-9.11286
im	-9.11337
▁memulakan	-9.11585
▁will	-9.11645
▁[[	-9.11729
▁dibawa	-9.11868
▁watak	-9.11993
▁segera	-9.11998
ca	-9.12155
▁memilih	-9.12171
▁mengandungi	-9.12263
▁hutan	-9.12352
ra	-9.12402
16	-9.12419
▁Perkhidmatan	-9.1251
▁Mohamed	-9.12565
▁Men	-9.12599
▁sebenar	-9.12705
▁i	-9.12805
▁ikan	-9.12821
▁2001	-9.12877
pe	-9.12903
▁berjumlah	-9.12964
▁mati	-9.13038
▁•	-9.13432
▁Be	-9.13526
▁naik	-9.13531
▁bersetuju	-9.13549
▁mendakwa	-9.13633
▁didakwa	-9.13854
]	-9.13986
▁Jaya	-9.14135
▁enable	-9.1418
▁peng	-9.14371
▁kontrak	-9.14374
▁Perlembagaan	-9.14392
▁Anugerah	-9.14431
▁pe	-9.14612
▁global	-9.14657
▁requires	-9.14944
▁menurut	-9.15026
lain	-9.1519
▁tadi	-9.1535
▁terima	-9.15403
▁memenuhi	-9.15444
▁bagaimana	-9.1578
▁umat	-9.15867
▁bertindak	-9.15941
▁tiba	-9.15946
▁normally	-9.15963
▁29	-9.15998
O	-9.16129
▁their	-9.16274
▁wakil	-9.163
▁aset	-9.1633
▁As	-9.16331
▁konsep	-9.1639
▁barang	-9.1644
▁Isu	-9.16462
▁terlalu	-9.16544
ga	-9.16556
▁disabled	-9.16586
go	-9.1659
▁Looks	-9.16744
▁harta	-9.16754
▁Sebelum	-9.16815
anak	-9.16944
▁Razak	-9.17017
du	-9.17118
ong	-9.17177
▁Ketika	-9.17253
▁Liga	-9.17301
▁batu	-9.17332
▁St	-9.17336
▁rancangan	-9.17357
Malaysia	-9.17364
▁ketinggian	-9.17458
▁membeli	-9.17737
▁gaji	-9.17995
▁sejumlah	-9.18169
▁menggalakkan	-9.18368
wa	-9.18426
▁didapati	-9.18427
▁tugas	-9.18472
san	-9.18587
▁aras	-9.18606
▁syarat	-9.18982
▁meninggal	-9.19057
▁Pen	-9.19069
▁penerbangan	-9.1927
▁kalau	-9.19318
▁mesyuarat	-9.1934
▁perjanjian	-9.19365
▁tujuh	-9.19547
▁ditahan	-9.19625
▁antaranya	-9.19813
▁dipanggil	-9.19987
▁menambah	-9.20078
▁gaya	-9.20101
do	-9.20107
▁Su	-9.20149
▁apakah	-9.2022
▁Man	-9.2037
▁menang	-9.20394
▁Rahman	-9.204
▁menyelesaikan	-9.20411
▁merangkumi	-9.2044
▁Syed	-9.20457
dan	-9.20466
▁Bersatu	-9.20467
▁setahun	-9.20512
▁dipercayai	-9.20593
▁petang	-9.20791
▁menghadapi	-9.20908
▁kaki	-9.20942
▁berkembang	-9.21045
▁bancian	-9.2106
▁jangka	-9.21172
▁pulau	-9.21267
▁perjalanan	-9.21344
ya	-9.21351
▁terjadi	-9.21366
▁berita	-9.21368
▁purata	-9.21428
▁Apabila	-9.2146
▁but	-9.21588
]]	-9.21646
▁Perlis	-9.21661
▁gol	-9.21716
▁dadah	-9.21789
▁universiti	-9.21864
▁positif	-9.22036
▁Jadi	-9.22211
▁permainan	-9.22512
▁percaya	-9.22521
▁berharap	-9.22575
▁Agama	-9.22722
▁Awam	-9.22818
▁sesi	-9.22844
▁kejayaan	-9.23055
▁who	-9.23074
▁dihasilkan	-9.23172
▁Belanda	-9.23178
▁meneruskan	-9.2321
▁Umum	-9.23241
▁turun	-9.23342
▁mewakili	-9.23416
▁menawarkan	-9.23425
▁bergantung	-9.23428
▁barangan	-9.23447
▁dipilih	-9.23654
▁pengajian	-9.2382
▁were	-9.23826
▁maju	-9.2383
▁tanggungjawab	-9.23851
▁tapi	-9.23861
▁sungai	-9.23884
▁pantai	-9.23956
▁Bumiputera	-9.24
▁Bahagian	-9.24017
▁pengundi	-9.24118
▁soal	-9.24234
tan	-9.24235
▁kawalan	-9.24375
▁acara	-9.24392
▁meninggalkan	-9.24395
▁Sains	-9.24446
▁dijadikan	-9.24482
▁berterusan	-9.2451
▁makan	-9.2463
ko	-9.2473
▁which	-9.24891
▁popular	-9.2501
▁perubatan	-9.25028
▁Darul	-9.25132
▁Setelah	-9.25205
▁hospital	-9.25361
▁dikenakan	-9.25464
MDB	-9.25636
mu	-9.25639
▁Pertubuhan	-9.25643
▁tapak	-9.25659
▁kelab	-9.25883
▁aktif	-9.25963
ian	-9.26113
▁berlangsung	-9.26176
▁ASEAN	-9.26183
V	-9.26263
▁minit	-9.26309
▁menjaga	-9.26322
▁c	-9.2645
pan	-9.2647
▁Eng	-9.26516
ol	-9.26535
▁rawatan	-9.26553
▁menolak	-9.26649
▁So	-9.26733
▁rasuah	-9.26735
▁p	-9.26738
▁2007	-9.26749
▁drama	-9.26772
▁Ada	-9.26918
▁Nor	-9.26952
▁hukuman	-9.27061
ting	-9.2716
▁layak	-9.27166
▁kempen	-9.27384
▁An	-9.27429
▁DAN	-9.27507
▁digital	-9.27645
▁serius	-9.27669
▁Si	-9.27686
▁sukan	-9.27701
▁kegiatan	-9.27717
ran	-9.27908
▁Maka	-9.28023
▁Projek	-9.28133
▁TUAN	-9.28166
▁agak	-9.28203
▁TV	-9.28255
▁nelayan	-9.2841
son	-9.28452
▁stesen	-9.28526
▁nak	-9.28538
▁la	-9.28603
tu	-9.2867
@	-9.28746
yang	-9.28768
▁Barisan	-9.28804
▁Dasar	-9.28976
▁Mu	-9.28993
▁suara	-9.29004
▁Luar	-9.29037
▁raja	-9.29141
▁2020	-9.29188
▁perbelanjaan	-9.29222
▁hukum	-9.29256
▁bernilai	-9.29371
ja	-9.29428
▁d	-9.29442
▁Hospital	-9.29471
▁amalan	-9.29821
▁siap	-9.2987
▁mem	-9.29884
▁DATO	-9.29941
▁pendekatan	-9.30004
▁saham	-9.3013
▁an	-9.30151
isu	-9.30284
hi	-9.30521
▁model	-9.30536
▁Mo	-9.30538
ek	-9.30711
▁peraturan	-9.3072
apa	-9.30728
ci	-9.30786
▁also	-9.30984
▁Berhad	-9.3108
ve	-9.31144
▁berasaskan	-9.31161
▁bilik	-9.31169
▁ribu	-9.31204
▁Khas	-9.31326
tik	-9.31348
▁tepat	-9.31468
▁berhampiran	-9.31486
▁emas	-9.31665
▁pokok	-9.31673
ka	-9.31829
Y	-9.31939
▁berusaha	-9.32043
▁membayar	-9.32064
▁Mat	-9.32077
▁km	-9.32112
▁Mas	-9.32181
▁Menurutnya	-9.32224
ers	-9.32249
▁hilang	-9.32258
▁membuka	-9.32329
▁gus	-9.32468
▁they	-9.32546
▁dirinya	-9.326
▁beroperasi	-9.32606
be	-9.32618
▁Pasukan	-9.3279
▁Teknologi	-9.32828
▁meletakkan	-9.32858
▁MALAYSIA	-9.33066
▁Sistem	-9.33191
▁Li	-9.3323
▁elektrik	-9.33263
▁Tak	-9.33554
▁Tanjung	-9.33631
▁karya	-9.33684
▁Masyarakat	-9.3374
bu	-9.33996
▁San	-9.34251
▁Jenis	-9.34564
▁luas	-9.34575
▁perkataan	-9.34678
st	-9.34693
q	-9.3481
▁SPRM	-9.34971
▁memegang	-9.35018
PH	-9.35122
▁JAWAPAN	-9.35178
▁Facebook	-9.35184
▁Aziz	-9.35196
▁disebut	-9.35259
▁kategori	-9.35264
▁isi	-9.35347
▁2006	-9.35352
▁Bin	-9.35368
▁perbincangan	-9.35408
▁Israel	-9.35442
▁alih	-9.3556
▁no	-9.35637
▁Ibu	-9.35702
▁Foto	-9.3601
▁sempadan	-9.36095
▁membenarkan	-9.36163
▁penyanyi	-9.36273
wan	-9.36384
▁isteri	-9.36517
Quran	-9.36524
▁GST	-9.36699
▁pemandu	-9.36829
▁pelancongan	-9.37059
▁termasuklah	-9.37118
▁balas	-9.37268
▁bas	-9.3738
▁menyaksikan	-9.37472
▁bernama	-9.37483
▁Saint	-9.3751
der	-9.3761
▁pulang	-9.37895
▁pengangkutan	-9.38071
▁pengarah	-9.38126
▁moden	-9.38226
▁diketahui	-9.38307
vi	-9.38328
▁bank	-9.38332
▁60	-9.38475
mo	-9.38568
▁si	-9.38671
▁Muda	-9.38696
ic	-9.38795
▁sumbangan	-9.38827
▁perumahan	-9.38862
▁Filipina	-9.38876
▁Asli	-9.39016
▁Secara	-9.39045
▁suku	-9.39045
▁berubah	-9.39104
▁mengekalkan	-9.39106
▁Undang	-9.39123
▁dekat	-9.39146
▁permintaan	-9.39161
▁sasaran	-9.39476
les	-9.39559
▁Sumber	-9.39582
▁Ku	-9.39586
▁Pertanian	-9.39601
▁sempena	-9.39712
▁sana	-9.3987
▁Guan	-9.39938
▁Berdasarkan	-9.40003
▁Manakala	-9.40018
▁Afrika	-9.40046
▁haram	-9.40071
▁Sembilan	-9.40136
▁we	-9.40157
25	-9.40197
▁infrastruktur	-9.4021
▁Che	-9.40382
▁taraf	-9.40411
▁yakin	-9.4045
▁Kabinet	-9.40465
▁dibuka	-9.40466
isme	-9.40474
▁peserta	-9.40779
▁Pihak	-9.40813
▁kemenangan	-9.40901
▁memasuki	-9.41001
▁Agung	-9.41037
▁presiden	-9.41066
▁menulis	-9.41115
▁PRU	-9.41248
▁asli	-9.41255
os	-9.41369
▁kemahiran	-9.41611
▁menegaskan	-9.41619
▁generasi	-9.41716
▁senarai	-9.41765
▁berkhidmat	-9.41768
▁menggantikan	-9.41825
▁etnik	-9.4196
▁sah	-9.41965
▁sepatutnya	-9.4198
▁usia	-9.42007
▁International	-9.42161
▁menubuhkan	-9.42161
Kami	-9.42325
▁pakar	-9.4238
lahir	-9.42537
▁Salah	-9.4274
▁televisyen	-9.42751
▁senjata	-9.42773
lam	-9.42842
▁diperlukan	-9.42888
su	-9.43327
▁memperoleh	-9.4339
▁ataupun	-9.43535
▁tradisi	-9.43543
▁memutuskan	-9.43701
▁remaja	-9.43828
▁all	-9.4383
▁can	-9.43836
▁Go	-9.43863
▁Abd	-9.43925
▁spesies	-9.44029
lin	-9.4404
▁Malah	-9.44093
co	-9.44175
▁Rumah	-9.4418
ling	-9.44241
▁manfaat	-9.44382
▁melaporkan	-9.44393
▁Perumahan	-9.44405
▁menentukan	-9.44597
▁NO	-9.44651
▁l	-9.44768
▁Justeru	-9.44826
▁kanan	-9.44868
▁panas	-9.44917
▁so	-9.44951
▁you	-9.44998
▁selamat	-9.45026
ba	-9.45027
▁bekerjasama	-9.4503
▁Am	-9.45063
▁bertanding	-9.45095
▁saluran	-9.45141
▁memperkenalkan	-9.452
▁Peng	-9.45263
▁Rom	-9.4527
wi	-9.45272
▁one	-9.45288
sh	-9.45311
kah	-9.45333
▁sukar	-9.4539
▁Para	-9.45486
▁semangat	-9.45566
▁akhbar	-9.45632
▁bertemu	-9.45718
▁pertemuan	-9.45722
▁menjelang	-9.45734
▁penumpang	-9.45746
▁penyelesaian	-9.45826
▁perkahwinan	-9.45861
▁cabaran	-9.45887
▁Ko	-9.45896
▁Nama	-9.46059
▁putih	-9.46081
▁akaun	-9.46088
▁sebelumnya	-9.46133
▁rekod	-9.46171
▁terkini	-9.46189
▁El	-9.46269
▁2004	-9.4643
▁kehilangan	-9.46464
pur	-9.46531
▁bumi	-9.46624
gu	-9.46746
▁menyumbang	-9.46829
BN	-9.46837
▁pembiayaan	-9.46866
▁sebelah	-9.46934
uk	-9.47084
▁ciri	-9.47132
ment	-9.47164
▁penulis	-9.47229
▁dakwaan	-9.47252
▁tanda	-9.47365
▁penyelidikan	-9.47379
▁Gunung	-9.47457
▁Sejak	-9.47545
▁umur	-9.47552
▁Semenanjung	-9.47593
▁kelompok	-9.47594
▁Aman	-9.47732
▁bukti	-9.47734
▁Pertahanan	-9.47748
▁melancarkan	-9.47761
▁Rusia	-9.47801
min	-9.47852
▁membangunkan	-9.47862
▁susulan	-9.47873
rat	-9.47976
▁pergi	-9.48256
▁kenaikan	-9.48269
▁Lee	-9.48407
000	-9.48514
▁Dua	-9.48629
▁tumpuan	-9.488
▁Institut	-9.48865
▁been	-9.48937
▁PERDANA	-9.48953
▁sesetengah	-9.48977
▁Perkara	-9.49088
▁Tetapi	-9.49217
▁Undangan	-9.49246
▁diperkenalkan	-9.49354
▁London	-9.49365
21	-9.4948
▁It	-9.4948
lo	-9.49515
▁bergerak	-9.49601
▁alat	-9.49645
▁memainkan	-9.49732
▁pemilik	-9.4977
▁jatuh	-9.49976
▁Kerja	-9.50299
▁sikap	-9.50435
rah	-9.50446
▁kesemua	-9.50507
▁sebulan	-9.50619
▁mengawal	-9.5062
▁guna	-9.50665
▁aliran	-9.50826
▁pertandingan	-9.50898
▁dinamakan	-9.509
▁Keselamatan	-9.50947
▁anti	-9.50957
▁mengatasi	-9.50998
▁selesai	-9.51069
gar	-9.51104
▁mesti	-9.51106
▁Pengangkutan	-9.51109
▁sebagainya	-9.51131
▁risiko	-9.5122
▁pengalaman	-9.51247
▁sains	-9.51267
▁belajar	-9.51333
▁Sehingga	-9.51368
▁penubuhan	-9.51407
ye	-9.51442
▁do	-9.51447
▁warna	-9.51457
gen	-9.51608
▁perlindungan	-9.5163
tar	-9.51639
▁Kajian	-9.51663
▁mengetahui	-9.51667
▁memandangkan	-9.51688
bat	-9.51779
▁gas	-9.51816
▁World	-9.51848
▁prinsip	-9.51875
▁bersempadan	-9.51981
▁bermaksud	-9.51981
Ke	-9.52045
▁Mi	-9.52104
▁berbagai	-9.52215
▁organisasi	-9.52321
SK	-9.52325
▁punca	-9.52361
▁pukul	-9.52361
▁setakat	-9.52405
▁istilah	-9.52449
▁2005	-9.52614
asi	-9.52635
▁hitam	-9.52726
▁penjara	-9.52727
▁mencadangkan	-9.52747
▁struktur	-9.52858
▁Tengku	-9.52901
kar	-9.52981
▁peribadi	-9.53133
▁ayat	-9.5314
▁Putrajaya	-9.53286
▁59	-9.53308
▁majoriti	-9.53336
▁Saudi	-9.53346
▁menyampaikan	-9.53426
▁diluluskan	-9.53439
▁modal	-9.53454
▁Tenggara	-9.5349
▁To	-9.53493
▁Siti	-9.53509
up	-9.53515
▁tekanan	-9.53516
▁tanaman	-9.53585
▁dibenarkan	-9.53834
▁profesional	-9.53901
▁talian	-9.54046
▁Kami	-9.54049
▁subsidi	-9.54175
▁lapan	-9.54236
▁strategi	-9.54307
AS	-9.54552
▁kedai	-9.54563
▁Pantai	-9.54564
ie	-9.54592
▁Pasir	-9.54601
▁prestasi	-9.54624
▁aksi	-9.54628
pen	-9.54651
▁Dar	-9.54746
▁berjalan	-9.54758
▁Te	-9.54773
▁mahupun	-9.54811
▁suspek	-9.54894
▁kemalangan	-9.54907
▁Jumlah	-9.54989
▁pengetahuan	-9.55028
▁cerita	-9.55163
sur	-9.55165
▁dijual	-9.5534
▁menghantar	-9.55359
▁ditulis	-9.55469
▁kualiti	-9.55501
▁Ta	-9.55607
▁gelaran	-9.55613
▁Apa	-9.5564
▁dilahirkan	-9.55676
▁Lu	-9.55702
▁Kecil	-9.55764
▁Ri	-9.55883
▁bersifat	-9.5591
▁dokumen	-9.56125
▁Nur	-9.56156
▁berkesan	-9.56249
▁Eksekutif	-9.56274
▁Do	-9.56296
land	-9.5631
▁mempertahankan	-9.56349
▁Anda	-9.56452
Z	-9.56526
▁menimbulkan	-9.56528
▁Semasa	-9.56531
gan	-9.56569
33	-9.56667
▁melahirkan	-9.56724
▁pro	-9.56788
sen	-9.5691
▁mengikuti	-9.56945
▁KETIGA	-9.57012
▁En	-9.57071
▁would	-9.57183
▁pelanggan	-9.57246
▁Azmin	-9.57273
ion	-9.57301
▁Vietnam	-9.57314
▁unsur	-9.57343
▁pasar	-9.57348
▁meliputi	-9.57526
▁kamu	-9.57569
▁Mar	-9.57597
▁Azerbaijan	-9.57751
▁kakitangan	-9.57766
▁sejenis	-9.57781
▁Semua	-9.57786
▁perancangan	-9.57848
▁memahami	-9.5787
▁Bu	-9.57919
kurangnya	-9.57962
▁tingkat	-9.57991
▁kemungkinan	-9.58013
ation	-9.58014
▁Tabung	-9.58049
▁menjejaskan	-9.58056
▁darah	-9.58069
▁kena	-9.58124
ger	-9.58149
▁Meng	-9.58149
▁hendak	-9.58247
▁Beberapa	-9.58402
▁tradisional	-9.58402
▁aplikasi	-9.58562
ck	-9.58633
v	-9.58666
▁alasan	-9.58774
▁Palestin	-9.5889
▁jawatankuasa	-9.58916
▁Hassan	-9.58998
▁Pengurusan	-9.59024
▁pemilihan	-9.59056
▁timbul	-9.59183
▁anjing	-9.59183
▁era	-9.59295
▁ditayangkan	-9.59351
▁Kanak	-9.59397
▁membunuh	-9.5954
▁bila	-9.59622
▁situasi	-9.59696
▁Islamic	-9.59761
▁Nabi	-9.59859
▁pesakit	-9.59947
laut	-9.59961
lang	-9.6006
iah	-9.60149
ny	-9.60224
▁urusan	-9.60328
eh	-9.6033
▁Tu	-9.60586
▁more	-9.6068
▁berakhir	-9.60779
▁pasangan	-9.6079
▁Kanada	-9.60898
▁betul	-9.60952
▁perjuangan	-9.61032
▁memohon	-9.61034
▁kertas	-9.61095
bar	-9.61121
▁cepat	-9.61126
▁kesedaran	-9.61293
▁halal	-9.61344
▁berdepan	-9.61367
▁pelancong	-9.61421
▁DUN	-9.61441
▁ancaman	-9.61485
▁diperuntukkan	-9.61581
▁janji	-9.61672
▁Guru	-9.61691
▁University	-9.6176
▁Unit	-9.61989
▁Ibn	-9.62035
▁pem	-9.6225
▁separuh	-9.6229
▁Kawasan	-9.62527
▁menjual	-9.62578
▁Ki	-9.62696
▁Bar	-9.62703
▁menetapkan	-9.6273
▁jualan	-9.62816
▁banjir	-9.62868
▁Syariah	-9.62896
▁Angkatan	-9.6294
▁Agong	-9.63008
▁sederhana	-9.63018
mata	-9.63021
▁lawatan	-9.63024
▁Buku	-9.63083
tor	-9.63092
if	-9.63171
▁merah	-9.63207
▁diumumkan	-9.63231
▁perusahaan	-9.63247
▁persembahan	-9.63328
▁fokus	-9.63453
▁up	-9.6355
▁2000	-9.63618
▁sa	-9.63643
▁mengubah	-9.63656
▁artis	-9.63747
▁memberitahu	-9.63761
▁Seorang	-9.63785
▁dulu	-9.63967
▁kejohanan	-9.64016
▁negatif	-9.6403
▁sisa	-9.6409
den	-9.64161
▁Ya	-9.64306
▁sekurang	-9.64493
▁keuntungan	-9.64496
▁pemberita	-9.64559
▁Czech	-9.64567
▁platform	-9.64571
▁its	-9.64624
▁sudut	-9.64636
▁menjalani	-9.64681
▁plastik	-9.64766
ham	-9.6481
▁pertahanan	-9.64854
▁City	-9.64878
▁penguatkuasaan	-9.64886
ud	-9.6491
▁kelulusan	-9.64993
▁kekuatan	-9.65068
▁lesen	-9.65134
▁gambar	-9.65181
▁kepimpinan	-9.65307
▁keras	-9.65327
fi	-9.65383
▁diikuti	-9.65421
Ini	-9.65445
▁Kemudian	-9.65451
▁berkahwin	-9.65621
▁anugerah	-9.65672
▁tarikh	-9.65703
23	-9.65736
ru	-9.6581
▁Tindakan	-9.65948
▁idea	-9.6609
▁setempat	-9.66091
▁peralatan	-9.66094
▁nanti	-9.66106
▁bahkan	-9.66114
▁Rp	-9.66127
▁petani	-9.66145
▁belia	-9.66171
▁persen	-9.66179
▁menengah	-9.66181
▁Ci	-9.66205
▁pimpinan	-9.66312
▁Ehwal	-9.6634
▁Kalau	-9.66355
▁menghadiri	-9.66397
▁kod	-9.6642
▁rangkaian	-9.66512
▁John	-9.66718
▁Mesir	-9.66722
▁Norway	-9.66735
▁Mukim	-9.66747
▁dilancarkan	-9.66828
▁gerakan	-9.66829
▁Sekian	-9.6692
▁Pemuda	-9.66968
eng	-9.67054
▁X	-9.67058
▁kelayakan	-9.67077
▁gabungan	-9.67101
▁melindungi	-9.67106
▁Co	-9.67244
▁Peguam	-9.67282
dar	-9.67287
▁Lebih	-9.67432
▁sambutan	-9.67473
▁mengesahkan	-9.67514
22	-9.67558
▁Anak	-9.67583
▁bersedia	-9.67593
▁kebajikan	-9.67616
▁perdana	-9.6762
▁nasional	-9.67632
ban	-9.67737
▁lihat	-9.67826
▁memperuntukkan	-9.67911
▁beri	-9.67915
ten	-9.67927
rin	-9.67976
▁Pan	-9.67993
▁menyebut	-9.68032
ll	-9.68038
▁kekurangan	-9.68056
▁Nik	-9.6806
▁tuntutan	-9.68134
tin	-9.68138
langkah	-9.68221
▁Padang	-9.68279
▁perbezaan	-9.68305
▁2010,	-9.68427
bahasa	-9.6843
hu	-9.68502
▁Malaya	-9.68503
▁perbuatan	-9.68557
▁Kim	-9.6867
▁jaminan	-9.68744
24	-9.68769
▁muka	-9.68819
▁lainnya	-9.68893
▁komputer	-9.68899
zi	-9.68913
▁membincangkan	-9.68929
▁versi	-9.69044
▁agenda	-9.69045
sel	-9.69169
▁pengaruh	-9.69237
abad	-9.69325
▁Burung	-9.69351
35	-9.69363
▁bersih	-9.6937
▁pintu	-9.69479
▁kepercayaan	-9.69548
▁York	-9.69578
ju	-9.69706
ler	-9.69711
▁Azizah	-9.6976
▁pembelajaran	-9.69781
▁sub	-9.69802
▁kediaman	-9.69846
▁2003	-9.69852
▁PDRM	-9.6986
▁pendek	-9.69895
▁Klang	-9.69989
▁DR	-9.70032
▁persekitaran	-9.7004
▁lahir	-9.70047
▁pengeluar	-9.70054
▁terbabit	-9.70108
▁Perdagangan	-9.70115
▁sifat	-9.70154
bo	-9.70174
▁Laporan	-9.70225
▁out	-9.70238
▁keupayaan	-9.7025
26	-9.70297
▁35	-9.70426
▁pemeriksaan	-9.70437
▁kilang	-9.70507
▁Terbaik	-9.7051
▁kandungan	-9.7067
▁memaklumkan	-9.70746
ram	-9.70762
va	-9.70807
▁Jokowi	-9.70866
bah	-9.70944
mar	-9.71022
▁fungsi	-9.71119
▁soalan	-9.71144
▁pembayaran	-9.71276
▁sel	-9.71291
▁1990	-9.71534
▁usahawan	-9.71658
▁Noor	-9.7173
▁mengundi	-9.71793
chi	-9.71838
▁mengkaji	-9.71852
har	-9.71858
▁32	-9.71869
ent	-9.71934
▁mengakui	-9.71952
ity	-9.71978
jo	-9.71982
▁kilometer	-9.72051
▁pertubuhan	-9.72216
▁Sam	-9.72237
▁getah	-9.7225
▁mengulas	-9.72266
ron	-9.72382
▁garis	-9.72467
▁bayi	-9.72526
▁dihantar	-9.72535
▁sembilan	-9.72614
▁PRK	-9.72687
▁Istana	-9.72728
▁asalnya	-9.72735
▁menjawab	-9.72741
▁ujian	-9.72743
▁bintang	-9.72804
27	-9.72879
po	-9.7288
28	-9.72911
▁konteks	-9.72956
▁berpendapatan	-9.72964
ty	-9.72983
▁2018,	-9.73
▁Setiap	-9.73353
45	-9.73355
▁kimia	-9.7349
▁tokoh	-9.73587
▁Kingdom	-9.7359
▁disiarkan	-9.73698
▁pertengahan	-9.73744
▁about	-9.73759
▁her	-9.73838
▁kerap	-9.73839
▁sisi	-9.73873
▁JAWAB	-9.73915
▁aduan	-9.73935
▁perundangan	-9.73978
▁jarak	-9.73979
▁70	-9.73985
▁provinsi	-9.74079
ren	-9.74136
▁jangan	-9.74196
▁mendengar	-9.74212
▁selalu	-9.74355
▁keempat	-9.74446
▁meraih	-9.74461
▁pelan	-9.74464
▁Kalimantan	-9.74476
▁Kong	-9.745
▁penjawat	-9.74513
▁terdahulu	-9.74541
▁Jumaat	-9.74549
▁tunggal	-9.7458
▁berpindah	-9.74727
▁2001,	-9.74834
▁Hakim	-9.74983
▁Baca	-9.75049
▁kayu	-9.75089
▁Skim	-9.75134
▁membuktikan	-9.75136
▁Trump	-9.75152
▁Z	-9.75171
▁FELDA	-9.7521
▁menunggu	-9.75248
▁Baginda	-9.75305
▁berdaftar	-9.75361
▁Keluarga	-9.75479
▁SO	-9.75504
▁dibahagikan	-9.75576
ine	-9.75586
▁dikenal	-9.75627
▁kelapa	-9.75733
▁kebenaran	-9.75743
tak	-9.75767
▁selaras	-9.75785
▁sedangkan	-9.75827
▁Udara	-9.75898
▁pelajaran	-9.76055
▁Ketiga	-9.76057
▁Brunei	-9.76061
▁Putra	-9.76154
▁Kebanyakan	-9.76324
▁Teluk	-9.76394
▁pendapat	-9.76401
▁Bi	-9.76434
hari	-9.76443
▁there	-9.76468
▁Pencegahan	-9.76472
X	-9.76477
hal	-9.76564
▁premis	-9.76569
▁strategik	-9.76602
▁diteruskan	-9.76626
▁Serbia	-9.76652
▁DATUK	-9.76676
▁mengelakkan	-9.76722
▁Mesyuarat	-9.76748
▁ambil	-9.76771
▁My	-9.76807
▁peniaga	-9.76893
▁diper	-9.76903
▁beli	-9.76967
▁kulit	-9.76981
MA	-9.76992
▁pusingan	-9.77054
▁We	-9.77086
▁tubuh	-9.77369
▁sesebuah	-9.77383
29	-9.77417
▁when	-9.7743
▁Naib	-9.77451
▁tegas	-9.77466
ster	-9.77475
Se	-9.77518
▁Ho	-9.77735
▁menuntut	-9.77769
pi	-9.77783
▁tuan	-9.77853
▁Belia	-9.77868
▁kepala	-9.77888
▁Han	-9.78001
▁2002	-9.7803
▁adil	-9.78048
▁terhad	-9.78059
▁semata	-9.78093
▁mendedahkan	-9.78205
▁TH	-9.78211
▁berkongsi	-9.78272
▁Darat	-9.78417
▁yakni	-9.78449
▁Hasil	-9.78456
tal	-9.78474
ner	-9.78493
▁matlamat	-9.78523
▁perasaan	-9.7853
▁darjah	-9.78596
▁Lo	-9.78633
▁komponen	-9.78645
▁peristiwa	-9.78672
▁menyerang	-9.78712
▁majikan	-9.78759
▁bermakna	-9.78796
▁penerima	-9.78893
▁Perjanjian	-9.78928
▁telefon	-9.78939
▁Brazil	-9.78955
▁Maha	-9.79005
rak	-9.79027
ts	-9.79034
▁adanya	-9.79076
▁other	-9.79084
▁45	-9.79124
▁Rabu	-9.79246
▁khidmat	-9.79251
▁tenggara	-9.79282
ver	-9.79288
▁dibangunkan	-9.79332
▁80	-9.79364
tengah	-9.79457
▁komitmen	-9.79512
▁suami	-9.79515
▁Yusof	-9.79518
▁bukannya	-9.79522
▁perpaduan	-9.79529
▁Sehubungan	-9.79631
▁Kar	-9.79841
▁bukanlah	-9.79936
▁hujan	-9.79992
Pertuan	-9.80034
▁burung	-9.8008
▁keterangan	-9.80091
▁Hong	-9.80113
▁England	-9.80118
▁fizikal	-9.8012
benar	-9.80122
lar	-9.80193
▁memudahkan	-9.80272
so	-9.8032
▁tan	-9.80339
kerja	-9.80383
▁Komunikasi	-9.80405
▁suka	-9.80445
▁Khalid	-9.80474
▁tangga	-9.80525
▁first	-9.80571
▁pencapaian	-9.80639
▁pakaian	-9.80816
▁buruk	-9.80827
▁Tempatan	-9.81075
▁teruk	-9.81107
ahli	-9.81121
▁konflik	-9.81204
▁daging	-9.81217
▁Pekan	-9.81223
▁panduan	-9.81251
▁maklum	-9.81322
▁ditawarkan	-9.81343
Di	-9.81469
▁misi	-9.81495
▁kehadiran	-9.81523
100	-9.81532
▁menyeluruh	-9.81539
▁dimiliki	-9.8159
▁sampah	-9.81758
▁perairan	-9.81927
tra	-9.81953
▁rapat	-9.82007
▁sambil	-9.8203
▁saudara	-9.82039
▁after	-9.82078
▁peguam	-9.82136
▁kad	-9.8218
▁200	-9.82221
▁Media	-9.82307
▁Tiga	-9.82319
▁kebebasan	-9.82366
▁skim	-9.82377
▁Bangsa	-9.82434
▁fi	-9.82492
▁over	-9.8254
▁1998	-9.82637
▁tua	-9.82741
▁Manusia	-9.8279
uh	-9.82806
▁single	-9.82911
▁web	-9.82995
ib	-9.83042
▁permulaan	-9.83045
▁Sabtu	-9.83133
ciri	-9.83147
tur	-9.83229
▁Seperti	-9.83416
▁wajar	-9.83442
▁f	-9.83446
▁berbentuk	-9.83469
▁Hamid	-9.8348
▁pemberian	-9.83537
▁Prof	-9.83539
▁akademik	-9.8355
▁Kesatuan	-9.83592
▁sebagaimana	-9.83645
▁Bo	-9.8367
▁kerugian	-9.83677
▁insiden	-9.83694
▁Wang	-9.83724
▁sakit	-9.83774
▁pencemaran	-9.83862
▁meluas	-9.8395
▁mengenal	-9.83984
▁hektar	-9.84031
yan	-9.84125
kh	-9.84132
▁pendaftaran	-9.84143
▁Tenaga	-9.84196
▁adakah	-9.84254
yo	-9.84264
▁menyerahkan	-9.84393
▁SM	-9.84422
▁kesejahteraan	-9.84486
▁mukim	-9.84546
▁Pra	-9.846
em	-9.84613
▁Amanah	-9.84695
▁taman	-9.84742
▁pembelian	-9.84772
▁Pu	-9.84792
▁bertambah	-9.84871
▁Felda	-9.84949
▁mengaku	-9.84953
▁Selasa	-9.8503
▁Mengulas	-9.85111
▁v	-9.85121
▁demokrasi	-9.85133
▁For	-9.85164
▁motosikal	-9.85198
▁tiket	-9.852
pa	-9.85216
che	-9.85238
▁urus	-9.85443
▁Sekitar	-9.85459
▁diselesaikan	-9.85459
Mu	-9.85621
▁terjejas	-9.85651
▁menghalang	-9.85676
▁bot	-9.85699
mat	-9.85739
je	-9.8574
▁Rantau	-9.85792
▁persatuan	-9.85832
▁Badan	-9.85908
▁hujung	-9.85919
ov	-9.8604
▁palsu	-9.86072
▁mencukupi	-9.8609
▁new	-9.86096
▁time	-9.86142
▁tulisan	-9.86182
▁kukuh	-9.86241
▁Kemajuan	-9.86248
kal	-9.86248
▁Q	-9.86253
▁set	-9.86287
RM	-9.86338
▁Pi	-9.86425
▁persoalan	-9.86472
90	-9.86472
▁hijau	-9.86563
▁BAGI	-9.86618
▁Pelan	-9.86652
▁g	-9.86668
▁t	-9.86745
▁Pro	-9.86906
▁ladang	-9.87091
tiga	-9.87141
▁Ru	-9.87151
▁miskin	-9.87287
▁Bukan	-9.87379
▁two	-9.87401
▁dihadapi	-9.87452
▁Ro	-9.87455
▁mengakibatkan	-9.87523
500	-9.87536
▁keutamaan	-9.87594
▁kemerdekaan	-9.87608
>	-9.87676
▁teori	-9.87708
▁pemikiran	-9.87761
▁Agensi	-9.87781
▁dicapai	-9.87855
▁sedar	-9.88082
▁1980	-9.8818
▁kerjaya	-9.88201
▁kelihatan	-9.88203
par	-9.88269
satunya	-9.88393
▁autonomi	-9.88418
▁sehari	-9.88467
▁Itu	-9.88477
▁1999	-9.88478
▁rundingan	-9.88484
▁BUKAN	-9.88526
▁Papua	-9.88529
om	-9.88653
▁menampung	-9.88688
iti	-9.88702
▁ujar	-9.88748
▁menggambarkan	-9.88778
▁menganggap	-9.88782
▁Kristian	-9.8887
▁komunikasi	-9.88971
yu	-9.89058
▁menilai	-9.89059
▁menuju	-9.89076
dy	-9.89078
▁penyokong	-9.89083
▁Daripada	-9.89095
▁Nepal	-9.89106
mer	-9.8912
▁te	-9.8913
▁MESYUARAT	-9.89158
▁terlebih	-9.89189
▁kemajuan	-9.89303
▁sara	-9.8935
▁lengkap	-9.89364
▁keamanan	-9.89412
ist	-9.89444
▁Du	-9.89609
▁le	-9.89657
vo	-9.89663
▁Lagu	-9.89686
▁selaku	-9.89692
▁mematuhi	-9.89739
▁penjelasan	-9.89757
kat	-9.89791
▁Tunku	-9.89802
Per	-9.89813
▁pertamanya	-9.89837
Q	-9.89847
pun	-9.90001
▁Melalui	-9.90068
▁penurunan	-9.90086
▁pengusaha	-9.90243
▁Po	-9.90272
▁rantau	-9.90301
▁juara	-9.9034
▁kemampuan	-9.90471
▁kebal	-9.90503
ism	-9.90513
▁menandatangani	-9.90618
▁pergerakan	-9.90657
▁munisipaliti	-9.9071
▁akses	-9.9078
▁potensi	-9.9082
▁kecuali	-9.90859
▁musuh	-9.90964
▁radio	-9.90976
▁pakai	-9.90981
▁Ti	-9.91028
tahun	-9.91235
▁mencipta	-9.91273
olah	-9.91337
▁Pengajian	-9.91355
▁wa	-9.91405
▁tentu	-9.9144
hak	-9.91473
▁kiri	-9.91506
▁MA	-9.91565
▁Bangunan	-9.91565
▁gangguan	-9.91653
cu	-9.91672
▁tamat	-9.91678
▁ulama	-9.91684
▁n	-9.91715
▁durian	-9.9173
▁ucapan	-9.91756
▁Bas	-9.91857
▁penempatan	-9.91894
▁Turut	-9.91936
▁diminta	-9.91949
▁pelantikan	-9.91988
lak	-9.9207
▁bertajuk	-9.92138
▁kaya	-9.92174
▁laku	-9.9222
▁kutipan	-9.92243
▁Bajet	-9.92251
ari	-9.92279
▁Rasuah	-9.92305
kebolehan	-9.92316
▁36	-9.92331
▁jaringan	-9.92333
▁Ram	-9.92372
▁90	-9.92373
▁Mer	-9.92389
▁keturunan	-9.92391
▁Operasi	-9.92397
ker	-9.92408
▁menduduki	-9.92473
▁memantau	-9.92492
▁Az	-9.92518
▁him	-9.92604
▁diketuai	-9.92679
▁Rancangan	-9.92735
▁sewaktu	-9.9285
▁izin	-9.92854
▁tunai	-9.92983
▁Ge	-9.92993
▁Bantuan	-9.93044
▁eksport	-9.93081
▁kisah	-9.93108
▁membangun	-9.93141
▁people	-9.93149
▁perintah	-9.93179
▁ALAN	-9.93229
▁berumur	-9.93285
ho	-9.93301
▁DI	-9.93378
▁ianya	-9.93428
▁Yahudi	-9.93443
▁ditutup	-9.93501
▁Banyak	-9.93503
▁mengemukakan	-9.93508
▁graduan	-9.93508
▁con	-9.93575
▁Hulu	-9.93591
▁menguruskan	-9.93666
▁hendaklah	-9.93709
▁lingkungan	-9.93716
▁keganasan	-9.93755
pu	-9.93791
▁Min	-9.93896
▁tuduhan	-9.93901
▁Stadium	-9.93944
▁bunyi	-9.93958
▁faham	-9.94044
▁paras	-9.94048
▁berwarna	-9.9407
res	-9.94084
tis	-9.94129
uddin	-9.94175
▁Kini	-9.942
sari	-9.94312
▁Ab	-9.94322
▁Jenayah	-9.94409
sar	-9.94429
▁menguasai	-9.94458
▁33	-9.94472
▁bunga	-9.94529
▁impak	-9.94656
▁Bakar	-9.94741
▁into	-9.948
▁Tok	-9.94814
▁elemen	-9.94835
48	-9.94843
▁PKS	-9.94865
▁minuman	-9.94873
▁Iskandar	-9.94892
▁Utama	-9.94908
60	-9.94915
▁umumnya	-9.94973
▁pelabur	-9.95055
▁Chi	-9.95089
▁diletakkan	-9.95269
▁pengajaran	-9.95551
▁Muhyiddin	-9.95553
▁berpendapat	-9.95603
▁dinyatakan	-9.95613
▁berikutnya	-9.95639
▁dihubungi	-9.95689
ze	-9.95698
▁angin	-9.95714
▁ditambah	-9.95762
▁sekadar	-9.95805
▁Bola	-9.95837
▁Hungary	-9.95956
5%;	-9.96022
▁menemui	-9.96045
kes	-9.96146
▁menikmati	-9.96192
▁rakaman	-9.96245
daya	-9.96299
▁Zealand	-9.96329
ley	-9.96361
▁mengamalkan	-9.96445
▁Imam	-9.96492
▁Ne	-9.96517
my	-9.96522
▁bertugas	-9.96577
▁menamatkan	-9.96582
▁Tuhan	-9.96592
▁FIFA	-9.96646
▁Desa	-9.96647
▁dimana	-9.96649
▁Ramadan	-9.96683
▁duduk	-9.96761
▁dikaitkan	-9.96856
jar	-9.96968
▁2019,	-9.97116
▁enggan	-9.97151
▁faedah	-9.97188
▁Omar	-9.97194
▁Puteri	-9.9723
▁berfungsi	-9.97315
▁pemegang	-9.97377
=	-9.97407
▁Ju	-9.97465
▁pertukaran	-9.97483
▁hasrat	-9.97485
▁penjualan	-9.97487
▁Sumatera	-9.97632
▁ketara	-9.97657
shi	-9.97693
▁them	-9.97761
▁diwujudkan	-9.97799
▁hartanah	-9.97805
mah	-9.97813
ot	-9.9788
▁Md	-9.97885
▁mengarahkan	-9.97915
▁US	-9.97916
▁kalah	-9.97956
▁hotel	-9.97974
▁un	-9.97998
▁mesin	-9.98063
▁elektronik	-9.9822
▁maut	-9.98252
▁komersial	-9.98294
▁seharusnya	-9.98294
▁Sha	-9.98323
ini	-9.98343
ted	-9.9839
▁terpilih	-9.98553
36	-9.98717
▁tu	-9.98873
sin	-9.98934
▁kebakaran	-9.98971
▁dikemukakan	-9.99051
lon	-9.99134
▁Yayasan	-9.99191
ris	-9.99261
▁berhenti	-9.99263
tif	-9.99334
▁am	-9.99344
▁pemantauan	-9.99344
▁Tamil	-9.99353
▁This	-9.99357
▁merancang	-9.99432
▁komited	-9.99452
▁nasihat	-9.99732
▁lemah	-9.99753
▁Yu	-9.99787
had	-9.99787
▁Bersama	-9.99821
▁Or	-9.99842
▁melanggar	-9.99854
▁hebat	-9.99865
▁keyakinan	-9.99935
▁enjin	-10.0002
&	-10.0015
▁titik	-10.0018
▁mengelak	-10.002
▁kemasukan	-10.0026
▁sekaligus	-10.0029
La	-10.0033
▁Terdahulu	-10.0042
▁penampilan	-10.0044
▁37	-10.0045
dah	-10.0047
▁menjaringkan	-10.0052
▁39	-10.0053
he	-10.0054
▁polisi	-10.0059
▁kegunaan	-10.0067
▁diperoleh	-10.007
nan	-10.007
|	-10.0072
▁diarahkan	-10.0072
▁pelabuhan	-10.0085
▁situ	-10.0093
mon	-10.0094
▁anaknya	-10.0104
▁terperinci	-10.0105
▁HAJI	-10.0105
raja	-10.0106
▁wajib	-10.0107
▁dibayar	-10.011
▁siapa	-10.0118
ven	-10.0124
▁pembentukan	-10.0128
▁mendorong	-10.013
▁sen	-10.0132
▁Asas	-10.0141
▁dianggarkan	-10.0147
▁disahkan	-10.0148
▁Ni	-10.0148
▁reka	-10.015
dik	-10.0151
▁Pakistan	-10.0153
▁seksual	-10.0154
▁dewan	-10.0155
▁disertai	-10.0156
ser	-10.0157
▁fasa	-10.0165
▁keluasan	-10.0166
▁Pokok	-10.0167
▁adat	-10.0167
▁Development	-10.0183
bin	-10.0185
▁only	-10.0192
▁Myanmar	-10.0194
▁minat	-10.0198
Undang	-10.0199
▁pertuduhan	-10.0204
▁sihat	-10.0204
▁penyertaan	-10.0206
▁Balai	-10.0208
▁memakai	-10.0218
▁barisan	-10.0224
▁cahaya	-10.0228
▁memper	-10.023
▁parlimen	-10.0232
▁34	-10.0233
od	-10.0235
▁Syria	-10.0244
▁r	-10.0251
sing	-10.0252
▁latitude	-10.0263
▁memanfaatkan	-10.0265
▁pekan	-10.0266
▁41	-10.0268
▁gunung	-10.027
34	-10.0276
▁Sebuah	-10.0281
est	-10.0283
▁beban	-10.0286
▁Idris	-10.0288
▁terdekat	-10.0291
▁lewat	-10.0292
▁harapan	-10.0294
ologi	-10.0299
▁imej	-10.0308
▁Sal	-10.0309
▁sebesar	-10.0316
▁memerintah	-10.0318
▁permukaan	-10.0323
54	-10.0325
▁Akademi	-10.0328
▁terkait	-10.033
▁Pelajaran	-10.0331
▁meskipun	-10.0332
▁angka	-10.0346
▁adik	-10.0351
▁longtitud	-10.0353
▁buatan	-10.0353
▁And	-10.0359
▁pertempuran	-10.0364
▁ajaran	-10.0366
▁Internet	-10.0374
▁Makanan	-10.0379
des	-10.038
AN	-10.038
▁500	-10.0388
▁Siasatan	-10.039
▁sesiapa	-10.0391
▁Hu	-10.0392
▁kelahiran	-10.0395
▁PT	-10.0397
▁Hak	-10.0402
▁krisis	-10.0403
▁internet	-10.0405
hati	-10.0414
tro	-10.0417
▁prosedur	-10.0428
▁pendirian	-10.043
▁alternatif	-10.0431
▁persekutuan	-10.0433
▁MCA	-10.0442
▁kursus	-10.0443
bal	-10.0451
▁Kes	-10.0451
▁PARLIMEN	-10.0473
▁mental	-10.0478
kap	-10.0479
▁berbahasa	-10.0486
▁Bharu	-10.049
▁kegagalan	-10.0496
▁mekanisme	-10.0496
▁Sar	-10.0499
▁SMK	-10.0499
▁beras	-10.0503
ring	-10.0504
▁akta	-10.051
bang	-10.0513
▁dimasukkan	-10.0515
▁38	-10.0516
▁Album	-10.0531
▁menyelamatkan	-10.0533
▁Har	-10.0537
▁novel	-10.054
▁kecederaan	-10.0543
▁1970	-10.0548
▁majalah	-10.0555
▁edisi	-10.056
▁At	-10.0561
▁minimum	-10.0562
▁k	-10.0563
▁Shi	-10.0564
▁menafikan	-10.0566
▁SERI	-10.0569
▁Mengenai	-10.0583
▁ubat	-10.0586
▁Empayar	-10.0594
▁Car	-10.0604
▁Super	-10.0605
▁mencatatkan	-10.0608
▁Star	-10.0615
▁warganegara	-10.0626
▁pindaan	-10.0631
▁episod	-10.0634
isi	-10.0638
din	-10.0641
▁esok	-10.0642
▁teks	-10.0644
▁sempat	-10.0656
▁wartawan	-10.0661
▁pangkat	-10.0667
▁Malaysian	-10.0672
▁pengenalan	-10.0678
▁puluh	-10.0686
▁Soviet	-10.069
▁istana	-10.0692
▁tersendiri	-10.0696
▁peminat	-10.0698
▁bercakap	-10.0705
▁Sejarah	-10.0713
tel	-10.0716
▁mengendalikan	-10.0721
▁Grand	-10.0725
70	-10.073
▁seolah	-10.073
▁Salleh	-10.0737
▁Khan	-10.0746
▁domestik	-10.0748
▁bulanan	-10.0754
▁perlembagaan	-10.0754
▁Ham	-10.0754
▁bapanya	-10.0758
▁penilaian	-10.0758
▁benda	-10.0759
▁if	-10.0765
▁teknikal	-10.0775
ding	-10.0775
▁suhu	-10.0781
▁she	-10.0785
▁blok	-10.0787
▁berulang	-10.0787
▁skuad	-10.0791
▁1997	-10.0793
▁latar	-10.0795
▁cinta	-10.0795
▁berdekatan	-10.0795
▁percuma	-10.0796
95	-10.0796
▁standard	-10.0803
ou	-10.0805
▁saling	-10.0808
▁Kata	-10.0808
▁lawan	-10.081
▁Stesen	-10.0811
▁ditangkap	-10.0813
negeri	-10.0814
▁misalnya	-10.0814
80	-10.0815
▁Puan	-10.0817
▁peperangan	-10.0817
▁lakukan	-10.0821
▁than	-10.0822
▁solat	-10.0823
duanya	-10.083
▁tumbuhan	-10.0837
▁fakta	-10.086
▁melantik	-10.0862
▁Kejohanan	-10.0864
ih	-10.0876
37	-10.0876
▁Haute	-10.0878
▁Seni	-10.0879
▁sebaik	-10.0884
▁merasmikan	-10.0886
▁cedera	-10.0886
▁ayam	-10.089
▁mempengaruhi	-10.0892
▁penonton	-10.0897
▁mengenakan	-10.0898
▁Ahad	-10.0906
▁ringan	-10.0909
▁Park	-10.0912
▁Is	-10.0913
the	-10.0915
▁Group	-10.0917
▁Switzerland	-10.0919
▁belas	-10.0919
▁42	-10.0926
63	-10.0927
able	-10.0927
▁Merah	-10.0929
▁ikut	-10.0931
mal	-10.0935
▁menjamin	-10.0939
▁kitab	-10.0939
▁pengambilan	-10.094
▁Kolej	-10.0951
▁FC	-10.0953
▁serupa	-10.0954
▁Latitud	-10.0957
▁pemaju	-10.0961
▁Zahid	-10.0962
▁nasib	-10.0963
▁sedemikian	-10.0967
55	-10.0968
▁liga	-10.0971
▁2017,	-10.0976
▁menahan	-10.0977
▁pra	-10.0977
▁saiz	-10.0981
▁gula	-10.0991
▁Longitud	-10.0996
▁Tapi	-10.1003
▁tahunan	-10.1006
▁h	-10.1006
ex	-10.1008
fe	-10.101
▁tawaran	-10.1011
▁Tiada	-10.1011
▁my	-10.1016
▁berhadapan	-10.1025
▁upaya	-10.1034
▁bencana	-10.1034
▁Lembah	-10.1039
▁kemiskinan	-10.105
▁South	-10.1052
▁anggaran	-10.1055
▁mentah	-10.106
▁Bumi	-10.1063
▁perkauman	-10.1066
las	-10.1067
▁pulih	-10.1068
32	-10.1071
▁NGO	-10.1075
▁tema	-10.1075
con	-10.1076
▁melanjutkan	-10.1077
▁Za	-10.1078
▁PBB	-10.1082
▁Sin	-10.1082
▁et	-10.1083
ant	-10.1083
▁2016,	-10.1086
▁Astro	-10.1086
▁Awang	-10.1087
▁doktor	-10.1088
▁what	-10.1095
▁restoran	-10.1096
42	-10.1098
▁maksud	-10.1099
▁government	-10.11
▁import	-10.1108
▁sayap	-10.111
31	-10.1115
52	-10.1125
▁Kor	-10.1125
▁menempatkan	-10.1127
▁Siri	-10.113
▁insentif	-10.1133
▁lebar	-10.1134
▁persetujuan	-10.1136
▁Mem	-10.1142
▁haji	-10.1147
▁Kon	-10.1151
▁Hi	-10.1153
PRU	-10.1165
ish	-10.1176
38	-10.1179
47	-10.1183
▁bertukar	-10.1195
▁Langkah	-10.1199
▁mencecah	-10.1202
▁43	-10.1203
▁digelar	-10.1207
▁Pak	-10.1207
▁Gerakan	-10.1208
▁Latihan	-10.1215
08	-10.1219
kon	-10.1219
▁lembaga	-10.1223
kadang	-10.1223
▁seluas	-10.1225
▁mengapa	-10.1232
ous	-10.1233
▁Penyelidikan	-10.1233
tas	-10.1239
len	-10.1244
▁teksi	-10.1255
▁1996	-10.1282
▁maksimum	-10.1284
▁Mohammad	-10.1293
▁*	-10.1296
jan	-10.1298
▁Bali	-10.1301
▁dikendalikan	-10.131
▁Alor	-10.1316
▁some	-10.1322
▁dibintangi	-10.1323
▁dinaikkan	-10.1326
46	-10.1333
▁Olimpik	-10.1337
▁46	-10.1339
▁cemerlang	-10.1364
▁melawat	-10.137
▁terbaru	-10.1376
▁dilengkapi	-10.139
▁kadang	-10.1394
▁Pem	-10.1394
▁Harga	-10.1397
▁Tani	-10.1398
dam	-10.1403
cer	-10.1403
cal	-10.1408
▁DALAM	-10.1408
▁dikesan	-10.1421
▁Hasan	-10.1423
▁menampilkan	-10.1423
▁Romania	-10.1428
▁diserahkan	-10.1429
▁peneroka	-10.1431
peng	-10.1434
atau	-10.144
▁sewajarnya	-10.1443
▁48	-10.1444
▁Sen	-10.1445
za	-10.1447
▁ulang	-10.1448
kas	-10.145
▁Sepak	-10.1456
49	-10.1458
▁world	-10.1459
▁disiasat	-10.1462
▁landasan	-10.1462
▁Pemerintah	-10.1462
op	-10.1466
▁Isnin	-10.1467
▁ال	-10.147
▁mengembangkan	-10.1473
▁Ad	-10.1479
▁Perubatan	-10.1479
▁Apakah	-10.1481
iyah	-10.1489
▁simpanan	-10.1495
▁dewasa	-10.1497
▁dibentuk	-10.1501
▁bersalah	-10.1502
▁Swasta	-10.1504
▁harian	-10.1508
▁responden	-10.151
▁tol	-10.1516
▁padang	-10.1516
van	-10.1517
▁bertentangan	-10.1518
ks	-10.1521
▁meneliti	-10.1523
ikan	-10.1523
▁perlumbaan	-10.1525
▁Baharu	-10.1528
▁Pelancongan	-10.1528
▁any	-10.1533
▁Jeneral	-10.1537
▁Britain	-10.1542
▁melepaskan	-10.1543
39	-10.1545
Jika	-10.1558
▁penambahbaikan	-10.1561
▁meluluskan	-10.1565
▁Musa	-10.1567
▁jalur	-10.1569
▁Juara	-10.1571
▁daun	-10.158
▁pemulihan	-10.1582
▁tertakluk	-10.1591
▁bercadang	-10.1591
annya	-10.1592
▁Port	-10.1596
▁peluru	-10.1599
bahan	-10.1601
▁melarikan	-10.1601
▁campur	-10.1606
by	-10.1607
▁Ji	-10.1613
▁ko	-10.1624
▁such	-10.1635
▁usul	-10.1636
▁Poland	-10.1638
▁Berikut	-10.1643
tai	-10.1648
ville	-10.1661
▁PUTRAJAYA	-10.1665
▁rujukan	-10.1668
▁Par	-10.1669
kata	-10.1683
tes	-10.1686
▁Rohingya	-10.1691
hat	-10.1692
▁Kem	-10.1698
▁Lebuhraya	-10.1703
▁kompleks	-10.171
▁cuma	-10.1716
▁digantikan	-10.172
▁Laluan	-10.1722
filem	-10.1723
▁bersaing	-10.1724
▁Hadi	-10.1724
▁korban	-10.1725
▁namanya	-10.1738
▁seks	-10.1742
▁beragama	-10.1744
lat	-10.1746
▁year	-10.1747
▁Sandakan	-10.1747
▁transaksi	-10.1751
ani	-10.1757
200	-10.1765
▁KPM	-10.1773
▁penglibatan	-10.1778
▁Politik	-10.1783
▁mengesan	-10.1793
gun	-10.1794
▁Rendah	-10.18
▁1994	-10.18
▁berlakunya	-10.1802
▁ta	-10.1803
▁ibunya	-10.1804
▁1960	-10.1805
▁dipindahkan	-10.1806
syarikat	-10.1814
aq	-10.1816
▁saksi	-10.1821
▁Harian	-10.1825
▁tumbuh	-10.1825
▁Kepulauan	-10.1826
▁Jan	-10.1826
mas	-10.1829
▁menyifatkan	-10.1836
▁Perbadanan	-10.1838
▁berkualiti	-10.1838
▁falsafah	-10.1841
▁en	-10.1843
▁hiburan	-10.1843
▁Hindu	-10.1847
▁dalaman	-10.1848
▁kebudayaan	-10.185
▁stabil	-10.1856
TI	-10.1857
▁BELAS	-10.1858
▁Multimedia	-10.186
▁Ben	-10.1867
▁sejauh	-10.187
▁amanah	-10.1873
▁Peraturan	-10.188
▁sengaja	-10.1884
tion	-10.1885
▁pembunuhan	-10.1886
▁kesempatan	-10.1887
▁hidangan	-10.189
▁jantung	-10.1892
▁Adam	-10.1894
▁menghormati	-10.19
▁Con	-10.1902
▁kem	-10.1904
sis	-10.1904
▁SPR	-10.1904
uan	-10.1907
▁Bintang	-10.1907
▁direka	-10.191
age	-10.1911
▁Jo	-10.1918
▁mahasiswa	-10.1919
▁mencatat	-10.192
▁rata	-10.1921
lagu	-10.1923
▁Kanun	-10.1933
▁Penasihat	-10.1934
▁Sosial	-10.1934
▁manifesto	-10.1939
▁should	-10.1943
▁May	-10.1944
▁pengunjung	-10.1946
gh	-10.1951
▁kebanyakannya	-10.1953
▁our	-10.1953
▁jarang	-10.1975
▁Gu	-10.1977
▁tampil	-10.198
▁Global	-10.1983
▁On	-10.199
▁Twitter	-10.1995
▁Cukai	-10.2
uri	-10.2
▁2015,	-10.2004
▁diiktiraf	-10.2005
▁murah	-10.2008
▁Ros	-10.2013
▁berlainan	-10.202
fa	-10.2021
▁tewas	-10.2022
▁Malik	-10.2024
▁sejuk	-10.203
dong	-10.203
▁mengangkat	-10.2032
▁Je	-10.2036
▁kerosakan	-10.2039
▁hakim	-10.2042
▁1995	-10.2045
▁menyiasat	-10.2047
▁terbukti	-10.2047
▁dolar	-10.205
▁denda	-10.2064
▁berupaya	-10.2064
▁2008,	-10.2067
▁tindak	-10.2074
▁berbincang	-10.2074
que	-10.2075
hir	-10.2076
▁tahanan	-10.2077
▁lakonan	-10.2079
oh	-10.2079
▁Tri	-10.2081
ken	-10.2082
▁2011,	-10.2087
▁team	-10.2089
▁jenama	-10.2094
▁Pengguna	-10.2098
75	-10.21
▁kapasiti	-10.2104
▁Tuanku	-10.2106
▁baki	-10.2111
▁mengajar	-10.2114
44	-10.212
▁macam	-10.2122
06	-10.2123
▁persidangan	-10.2124
▁Hanya	-10.2127
▁George	-10.2132
▁menaikkan	-10.2135
▁itulah	-10.2137
▁perayaan	-10.2159
▁aman	-10.2161
▁statistik	-10.2166
▁Panglima	-10.2167
▁Fi	-10.2169
▁darat	-10.2169
▁teknik	-10.217
▁berbuat	-10.217
▁SE	-10.217
56	-10.2173
▁Maszlee	-10.2174
▁$	-10.2178
▁mesra	-10.2179
▁Cinta	-10.2179
▁cenderung	-10.2182
▁Sebaliknya	-10.2186
▁formula	-10.219
▁mencetuskan	-10.2193
▁istimewa	-10.2195
pin	-10.2199
▁Wong	-10.22
▁kuil	-10.2204
▁disampaikan	-10.2207
▁kewujudan	-10.2207
▁mer	-10.2207
▁mulanya	-10.2218
68	-10.2219
▁just	-10.2219
▁Musim	-10.2219
▁Atas	-10.2231
▁Aidilfitri	-10.2232
▁suasana	-10.2232
▁Long	-10.2238
▁Bomba	-10.2238
▁zakat	-10.2239
▁under	-10.2245
▁menyentuh	-10.226
▁peminjam	-10.226
67	-10.2264
bel	-10.2267
▁dirujuk	-10.2269
▁Sebab	-10.2271
▁Ban	-10.2272
▁Rasulullah	-10.2272
▁ii	-10.2279
▁Bahru	-10.228
▁aku	-10.228
▁War	-10.229
▁Juga	-10.2292
▁Bandaraya	-10.2293
▁300	-10.2294
▁dianjurkan	-10.2295
ras	-10.2297
ig	-10.2301
▁larangan	-10.2303
▁arus	-10.2303
▁Zaman	-10.2305
и	-10.2306
▁foto	-10.2307
▁Iman	-10.2312
pak	-10.2316
▁berani	-10.2317
▁ujarnya	-10.2318
▁Ver	-10.2318
nas	-10.2321
88	-10.2323
▁dimulakan	-10.2326
▁pembuatan	-10.2327
▁Sulawesi	-10.2328
▁pelancaran	-10.233
▁Ulu	-10.233
angan	-10.2331
▁dicadangkan	-10.2334
▁State	-10.234
▁berjudul	-10.2349
▁National	-10.2349
one	-10.2357
▁Pelabuhan	-10.236
▁ا	-10.2364
▁korporat	-10.2364
▁Mexico	-10.2366
▁pantas	-10.2372
Al	-10.2375
▁Hidup	-10.2392
▁merasa	-10.2395
▁55	-10.2397
▁School	-10.24
▁King	-10.2406
▁bakat	-10.241
can	-10.241
▁tidur	-10.2413
▁Maharaja	-10.2413
▁Mengikut	-10.2415
▁melawan	-10.2421
▁Sebanyak	-10.2425
05	-10.2427
▁1985	-10.243
▁Konvensyen	-10.2433
▁could	-10.2434
▁Has	-10.2439
▁pembukaan	-10.2444
ey	-10.2445
▁pencegahan	-10.2452
▁PENGGAL	-10.2454
▁keluarganya	-10.2469
▁insan	-10.2477
▁Cha	-10.2481
▁William	-10.2486
▁kelemahan	-10.2487
▁ketenteraan	-10.2493
▁kelima	-10.2493
nam	-10.2498
▁co	-10.251
▁being	-10.251
▁Sekiranya	-10.2511
▁Yunani	-10.2514
▁1993	-10.2515
▁penjagaan	-10.2518
▁maaf	-10.2521
▁2014,	-10.2523
▁Warisan	-10.2526
▁semuanya	-10.2527
SI	-10.2528
jah	-10.2528
▁teras	-10.2535
▁menjana	-10.2543
▁pengganas	-10.2548
lik	-10.2553
way	-10.2555
▁saman	-10.2556
ow	-10.2557
▁ka	-10.256
▁gejala	-10.2567
▁man	-10.2567
nilai	-10.2569
▁kononnya	-10.2576
▁David	-10.2577
▁Adakah	-10.258
▁duit	-10.2596
▁Seterusnya	-10.2597
▁punya	-10.2605
tang	-10.2611
▁keseluruhannya	-10.2615
▁kemanusiaan	-10.2618
▁bertahan	-10.2627
kam	-10.263
▁Ker	-10.2631
▁pembeli	-10.2633
Pe	-10.2636
▁ABDUL	-10.2646
▁nyawa	-10.2646
▁Kali	-10.2647
▁Paul	-10.2649
▁Khamis	-10.2649
57	-10.265
▁Jangan	-10.2652
▁persepsi	-10.266
▁cawangan	-10.2662
▁Kapal	-10.2665
43	-10.2667
▁dikawal	-10.2668
▁huruf	-10.2669
▁pelarian	-10.267
▁da	-10.2672
▁Borneo	-10.2673
ff	-10.2678
04	-10.268
▁Labuan	-10.2685
▁posisi	-10.269
▁lapisan	-10.2692
▁PM	-10.2698
▁SHAH	-10.2699
▁o	-10.27
▁Zainal	-10.2701
isasi	-10.2702
▁Pri	-10.2703
▁Red	-10.2704
▁pintar	-10.2705
SA	-10.2707
▁atlet	-10.2707
▁menutup	-10.2709
▁kehendak	-10.2713
▁identiti	-10.2718
▁Bay	-10.2726
▁44	-10.2727
53	-10.2736
66	-10.2741
▁pemindahan	-10.2742
▁fitnah	-10.2743
▁perkampungan	-10.2744
▁Keputusan	-10.2746
▁pengurus	-10.275
300	-10.2761
▁takut	-10.2761
amp	-10.2767
▁kelebihan	-10.2776
▁But	-10.2778
58	-10.2779
▁Mujahid	-10.2779
▁menggesa	-10.2779
▁yaitu	-10.279
▁Hitam	-10.2798
▁Kan	-10.2801
SPRM	-10.2805
▁menunaikan	-10.2808
▁dirancang	-10.2809
▁jemaah	-10.2814
▁dibentangkan	-10.2817
▁objek	-10.2818
▁amaran	-10.2824
▁kering	-10.2833
▁dimaklumkan	-10.2835
▁2012,	-10.2841
long	-10.2844
▁pekebun	-10.2846
▁jiwa	-10.2849
85	-10.285
▁buruh	-10.2852
▁berpotensi	-10.2865
▁Saddiq	-10.2878
▁Tambahan	-10.288
▁Contohnya	-10.2882
▁dibincangkan	-10.2883
tah	-10.2884
duk	-10.2889
ite	-10.2895
▁1992	-10.2896
▁Saifuddin	-10.291
▁Strategi	-10.2915
▁KKM	-10.2925
▁bi	-10.2928
▁Langkawi	-10.2929
▁kontroversi	-10.2931
▁Keempat	-10.2935
iz	-10.2939
▁Bekas	-10.2939
▁objektif	-10.294
ness	-10.2942
▁well	-10.2942
▁syariah	-10.2948
▁Mon	-10.2949
▁BH	-10.2949
▁pentas	-10.2956
▁dibawah	-10.2956
iyyah	-10.2957
62	-10.2958
▁asasi	-10.2961
▁cuti	-10.2961
▁Jadual	-10.297
▁kebimbangan	-10.297
▁Imigresen	-10.2975
▁liar	-10.2978
▁JABATAN	-10.2978
qu	-10.2981
▁penyelenggaraan	-10.2987
▁Kanan	-10.2998
▁menge	-10.3
off	-10.3009
▁jawab	-10.3012
▁maupun	-10.3019
▁Bebas	-10.3021
▁James	-10.3027
▁menyedari	-10.3033
65	-10.3034
zan	-10.3036
▁zon	-10.3041
▁menekankan	-10.3054
▁Can	-10.3058
▁diperolehi	-10.3058
pal	-10.3063
▁pemilikan	-10.307
▁KDNK	-10.3074
▁kekayaan	-10.3074
don	-10.3076
▁Othman	-10.3076
▁kalendar	-10.3076
▁pecah	-10.3081
In	-10.3082
ن	-10.3083
▁those	-10.3085
eri	-10.3085
rap	-10.3093
▁non	-10.3094
▁menurunkan	-10.3097
wang	-10.3098
▁Corporation	-10.3098
▁Harun	-10.3106
ada	-10.3114
▁Centre	-10.3116
kin	-10.3116
▁mengukuhkan	-10.3117
▁dibangkitkan	-10.3121
▁Penduduk	-10.3123
▁ditempatkan	-10.3123
ning	-10.3124
▁berperanan	-10.3125
rata	-10.3128
nis	-10.3136
▁keluaran	-10.3151
▁NEGERI	-10.3154
▁Paris	-10.3155
▁panggilan	-10.3159
▁Usaha	-10.3161
Re	-10.3162
▁ditentukan	-10.3165
▁Bal	-10.3166
ة	-10.3169
▁berapa	-10.317
▁pemenang	-10.3171
ges	-10.3174
▁memandang	-10.3177
▁pecahan	-10.3178
jang	-10.318
▁Ser	-10.3181
▁Osman	-10.3187
▁pengiktirafan	-10.3193
▁Bad	-10.3198
bak	-10.3201
▁Ireland	-10.3204
▁portal	-10.3213
mun	-10.3217
▁berasingan	-10.3218
mel	-10.3223
▁destinasi	-10.3224
▁Komuniti	-10.3225
▁Hotel	-10.3228
▁cuaca	-10.3229
51	-10.3233
war	-10.3235
her	-10.3241
▁bimbang	-10.3247
▁menghentikan	-10.3248
▁promosi	-10.3248
▁inilah	-10.3252
▁ATM	-10.326
▁penulisan	-10.3261
tic	-10.3261
▁AN	-10.3265
▁gampong	-10.3265
▁siaran	-10.3269
▁perhimpunan	-10.3271
udin	-10.3277
▁years	-10.3279
03	-10.3281
pit	-10.3288
▁47	-10.3289
▁pembantu	-10.3293
▁51	-10.3295
Raja	-10.3298
rai	-10.3298
▁Suka	-10.3301
nama	-10.3301
▁|	-10.3308
sy	-10.331
▁keadilan	-10.3313
▁dagang	-10.3319
cy	-10.3321
fer	-10.3323
▁Kal	-10.3324
▁mu	-10.3326
▁م	-10.3328
86	-10.333
▁Surat	-10.3331
▁akar	-10.3335
▁unik	-10.3336
▁Robert	-10.3337
nd	-10.3339
▁Saat	-10.334
▁mempromosikan	-10.334
▁kontraktor	-10.3342
▁pesat	-10.3345
▁Festival	-10.3348
▁Rahim	-10.3353
▁made	-10.3356
▁saing	-10.336
▁Allahyarham	-10.3361
▁Vi	-10.3362
▁perkongsian	-10.3363
▁fiskal	-10.3369
▁hadiah	-10.337
▁bomba	-10.337
▁penemuan	-10.3377
ary	-10.3377
▁Persidangan	-10.3378
▁Putih	-10.3381
▁Perhimpunan	-10.3383
▁PR	-10.3387
▁Bangladesh	-10.3389
▁isterinya	-10.3391
tasi	-10.3391
▁go	-10.3392
kawasan	-10.3394
▁nasi	-10.3401
ee	-10.3406
▁III	-10.3414
▁Mahmud	-10.3415
▁sanggup	-10.342
▁peralihan	-10.3429
▁perisian	-10.3434
▁Ramli	-10.3439
▁Kepala	-10.3441
▁medan	-10.3442
▁mendesak	-10.3446
tam	-10.3447
▁Instagram	-10.3448
ob	-10.3455
▁1984	-10.3456
▁mewah	-10.3456
09	-10.3457
▁mel	-10.3459
▁rokok	-10.346
▁menukar	-10.3461
▁dimainkan	-10.3463
▁Kompleks	-10.3466
▁pelaku	-10.3467
▁Castile	-10.3471
▁besi	-10.3472
▁Cor	-10.3475
▁KEDUA	-10.3477
▁Slovakia	-10.3477
Jadi	-10.3479
DA	-10.3483
▁Kecamatan	-10.3486
▁mencabar	-10.3486
▁berhasil	-10.349
▁sesama	-10.3491
▁Nurul	-10.3491
▁menaik	-10.3492
▁Mah	-10.3493
▁kritikal	-10.3498
▁Begitu	-10.3502
Dalam	-10.3502
▁kasus	-10.3503
Alpes	-10.3507
▁game	-10.3515
▁selesa	-10.3517
▁beraksi	-10.3517
▁pingat	-10.3523
ii	-10.3524
▁Kongres	-10.3524
▁analisis	-10.3527
▁berkait	-10.353
▁gelombang	-10.3535
▁Singh	-10.3536
▁2013,	-10.3536
▁SK	-10.3541
▁inovasi	-10.3555
▁menewaskan	-10.3563
▁disokong	-10.3563
▁jiran	-10.3564
▁state	-10.3564
▁menyambut	-10.3566
▁jentera	-10.3569
▁pengumuman	-10.3572
▁anjuran	-10.3575
▁Anti	-10.3582
ret	-10.3583
▁terbitan	-10.3585
▁kelajuan	-10.3586
▁North	-10.3588
rus	-10.3592
▁manis	-10.3598
▁SAW	-10.3598
▁Anggota	-10.361
▁studio	-10.3612
kir	-10.3617
▁berminat	-10.3622
▁integriti	-10.3624
▁campuran	-10.3627
▁She	-10.3641
▁ex	-10.3643
sk	-10.365
Nya	-10.3651
▁Pelajar	-10.3654
▁jadual	-10.3657
▁Taiwan	-10.3662
▁Ir	-10.3663
▁petrol	-10.3668
but	-10.3669
▁berdiri	-10.3673
▁realiti	-10.3676
▁informasi	-10.368
jam	-10.3681
▁Zakir	-10.3681
▁Qu	-10.3681
▁contohnya	-10.3687
dang	-10.3687
▁upacara	-10.3688
▁back	-10.3694
▁Tam	-10.3697
▁Meskipun	-10.3697
41	-10.3699
▁sijil	-10.37
▁matahari	-10.3704
▁susu	-10.3708
▁mencegah	-10.3723
our	-10.3726
▁because	-10.3726
io	-10.3727
▁berasa	-10.3728
▁iklim	-10.3732
we	-10.3737
▁penghargaan	-10.3741
cur	-10.3743
▁Kebudayaan	-10.3744
▁Kinabalu	-10.3744
▁Senarai	-10.3744
▁berlakon	-10.3745
▁penyediaan	-10.3746
tri	-10.3749
▁hanyalah	-10.375
IN	-10.3758
▁Kuantan	-10.3768
▁may	-10.377
▁tambah	-10.377
lit	-10.3771
▁jambatan	-10.3777
▁Pasar	-10.3777
76	-10.3778
Selain	-10.378
▁MARA	-10.3781
07	-10.3784
_	-10.3785
zo	-10.3788
mit	-10.3789
set	-10.379
▁1988	-10.3795
▁penghasilan	-10.3797
Pada	-10.3799
▁Empat	-10.3801
▁against	-10.3803
▁You	-10.3803
▁Transformasi	-10.3805
▁Hashim	-10.3815
▁pre	-10.3817
▁berpunca	-10.3821
DUN	-10.3821
▁last	-10.3823
▁Amin	-10.3823
▁tepi	-10.3825
▁dicipta	-10.3829
▁Gajah	-10.3832
▁dibandingkan	-10.3836
▁harap	-10.3836
▁diraja	-10.3837
iri	-10.384
▁memaparkan	-10.3841
ub	-10.3842
▁sarjana	-10.3843
▁SRI	-10.3843
▁Halim	-10.3845
▁tarif	-10.3849
▁bergabung	-10.3851
▁sempurna	-10.3853
▁geran	-10.3856
▁Sim	-10.3858
Kalau	-10.3861
▁Un	-10.3862
▁subjek	-10.3863
▁Low	-10.3865
▁Masa	-10.3865
rang	-10.3866
▁puncak	-10.3866
▁Sun	-10.3867
▁PTPTN	-10.3874
ence	-10.3878
▁memaksa	-10.388
▁Akhirnya	-10.3885
▁Ipoh	-10.3887
ino	-10.3889
▁2007,	-10.389
▁ternyata	-10.3891
▁Hutan	-10.3895
bur	-10.3898
▁serantau	-10.3901
▁mengira	-10.3902
▁klinik	-10.3904
▁bersepadu	-10.3906
▁Hamzah	-10.3907
ive	-10.3908
▁SWT	-10.3915
▁One	-10.3916
69	-10.3922
▁MH	-10.3925
▁menangkap	-10.3926
▁kasar	-10.3926
▁53	-10.3927
▁mendalam	-10.3927
Mereka	-10.3929
▁Ak	-10.3932
▁gadis	-10.3933
▁fenomena	-10.3933
▁Bahkan	-10.3936
tre	-10.3938
▁Pesuruhjaya	-10.3939
▁iv	-10.3948
▁masakan	-10.3953
▁relevan	-10.3954
▁puak	-10.3959
▁menurun	-10.396
lebih	-10.396
▁Leon	-10.3962
▁kedaulatan	-10.3963
▁sulung	-10.3964
▁·	-10.3965
▁Sang	-10.3971
▁tulang	-10.3977
▁54	-10.3983
hara	-10.3985
▁Belanjawan	-10.3988
rs	-10.3993
▁Thomas	-10.3993
▁Peringkat	-10.3996
▁Disney	-10.4
▁lembu	-10.4001
▁konsert	-10.4009
ard	-10.4011
val	-10.4012
▁bahaya	-10.4012
▁Revolusi	-10.4013
▁Michael	-10.4016
dak	-10.4017
lai	-10.4018
▁1963	-10.4019
belah	-10.4019
▁Keadaan	-10.4021
▁tim	-10.4024
▁kaitan	-10.4026
▁Said	-10.4026
▁three	-10.4033
▁Pelaksanaan	-10.4035
▁Petaling	-10.4036
▁Tokyo	-10.4045
AH	-10.4052
▁tangkapan	-10.4052
▁Gua	-10.4052
▁Keseksaan	-10.4057
▁lebuh	-10.406
▁Umno	-10.406
▁Er	-10.4062
sal	-10.4065
▁Kit	-10.4067
ANG	-10.4069
▁gelap	-10.4071
▁many	-10.4074
▁cabang	-10.4075
▁bar	-10.4076
77	-10.4082
59	-10.4082
▁between	-10.4087
▁sentimen	-10.4087
▁membuatkan	-10.4097
▁kon	-10.4099
▁uang	-10.41
▁UK	-10.4102
▁Kebajikan	-10.4111
▁Rang	-10.4112
▁tadbir	-10.4112
▁kuda	-10.4119
hin	-10.4121
▁dakwah	-10.4122
▁emosi	-10.4127
▁keberkesanan	-10.413
▁1989	-10.4131
rakan	-10.4131
▁Nilai	-10.4132
pel	-10.4133
▁kepemimpinan	-10.4133
rab	-10.4133
▁jurulatih	-10.4136
▁Sel	-10.4137
▁70%	-10.4137
▁isyarat	-10.414
▁semakan	-10.4146
▁pendedahan	-10.4148
▁warisan	-10.4154
▁Argentina	-10.4157
▁kebaikan	-10.4166
▁ditanya	-10.4168
ori	-10.4172
mula	-10.4172
▁49	-10.4174
▁Khazanah	-10.4174
▁awalnya	-10.4177
97	-10.4184
▁iii	-10.419
▁Pentadbiran	-10.4191
let	-10.4191
▁pengecualian	-10.4191
▁Gi	-10.4196
▁menghubungkan	-10.42
▁Prabowo	-10.42
yah	-10.4204
bit	-10.4209
▁mengisytiharkan	-10.4209
▁artikel	-10.4211
▁1991	-10.4211
▁pengurangan	-10.4212
▁permasalahan	-10.4212
cc	-10.4214
▁produksi	-10.4215
▁PERTAMA	-10.4222
line	-10.4222
▁mayat	-10.4226
▁perwakilan	-10.4231
▁rencana	-10.4231
▁ganda	-10.4234
utan	-10.4235
64	-10.4241
pang	-10.4242
▁perbankan	-10.4243
▁pengasas	-10.4247
▁Pekerja	-10.4247
▁Mad	-10.4252
▁Proses	-10.4263
▁pengerusi	-10.427
▁jual	-10.4272
▁Data	-10.4274
▁pelepasan	-10.4274
▁how	-10.4275
▁MAS	-10.4279
▁Budaya	-10.4281
▁OKU	-10.4282
▁lampu	-10.4284
nes	-10.4286
▁menetap	-10.4286
▁Sesetengah	-10.429
deg	-10.429
bandar	-10.429
5,000	-10.4296
▁sahabat	-10.4302
▁tertuduh	-10.4311
▁gembira	-10.4313
▁Sulaiman	-10.4314
▁Penguatkuasaan	-10.4315
▁moral	-10.4317
~	-10.4322
▁Muzik	-10.4323
▁nyata	-10.433
99	-10.4336
▁dihadiri	-10.4339
▁West	-10.4347
▁pameran	-10.4352
▁kredit	-10.4355
▁selari	-10.4357
km	-10.4368
▁Merdeka	-10.4371
▁penjaga	-10.4371
▁sekumpulan	-10.4372
bus	-10.4377
ft	-10.4383
е	-10.4383
▁kepakaran	-10.4384
▁bagian	-10.4385
tus	-10.4386
▁ganti	-10.4388
▁Charles	-10.4393
▁angkatan	-10.4396
▁merampas	-10.4399
▁menganjurkan	-10.4416
▁1983	-10.4418
jaya	-10.442
buk	-10.442
car	-10.4421
▁menyimpan	-10.4422
▁penyebaran	-10.4429
EM	-10.4435
▁through	-10.4439
jak	-10.4446
▁dikurangkan	-10.4449
▁Jam	-10.4451
▁menyebarkan	-10.4451
▁bersara	-10.4453
▁peperiksaan	-10.4458
▁mengalahkan	-10.446
▁persaingan	-10.4462
▁dekad	-10.4465
▁patut	-10.4465
▁lori	-10.4469
▁terang	-10.447
▁Cameron	-10.4474
net	-10.4476
▁Bernama	-10.448
▁bantahan	-10.4482
م	-10.4488
▁sememangnya	-10.4496
▁mengurus	-10.4499
▁Bil	-10.4502
▁=	-10.4505
sekolah	-10.4506
▁memanggil	-10.4512
▁Samad	-10.4515
▁56	-10.4516
▁Penggunaan	-10.4516
▁ekor	-10.4517
tiba	-10.4519
▁pertimbangan	-10.4525
د	-10.4528
▁berucap	-10.4528
▁diwakili	-10.4528
▁membiayai	-10.4531
▁berperingkat	-10.4539
▁hamba	-10.454
▁mahal	-10.4546
▁Gal	-10.4547
▁Sir	-10.4551
▁Pat	-10.4553
▁ditolak	-10.4554
▁teman	-10.4555
sam	-10.4556
▁Trans	-10.4556
▁ketat	-10.4558
▁menumpukan	-10.4559
▁Sepanjang	-10.456
72	-10.4561
▁California	-10.4564
▁bacaan	-10.4569
mak	-10.4574
▁Iraq	-10.458
▁komedi	-10.4586
▁rangka	-10.4588
De	-10.4589
▁Semalam	-10.4592
▁tersebar	-10.4592
▁pencerobohan	-10.4595
▁berpuas	-10.4597
▁makna	-10.4601
▁ringkas	-10.4601
▁Pertempuran	-10.4601
▁ijazah	-10.4608
▁kemunculan	-10.4608
400	-10.461
usaha	-10.4624
▁dipasang	-10.4625
▁menghabiskan	-10.4627
▁layanan	-10.4627
▁menye	-10.4629
▁Paduka	-10.4641
▁skandal	-10.4643
▁Abidin	-10.4645
▁Wi	-10.4646
▁sepuluh	-10.4647
red	-10.4648
AP	-10.4649
▁halaman	-10.4651
▁perbicaraan	-10.4653
kini	-10.4659
▁these	-10.4664
▁kebijakan	-10.4665
78	-10.4667
▁mulut	-10.4669
cing	-10.4669
▁dibunuh	-10.4675
▁persegi	-10.4675
▁KOTA	-10.4676
▁Kas	-10.4677
▁Utusan	-10.4686
▁benih	-10.4688
▁pejuang	-10.4692
▁sebegini	-10.4694
▁siasat	-10.4698
▁penghujung	-10.4701
▁ideologi	-10.4705
dal	-10.4707
▁dibantu	-10.4707
▁online	-10.4708
▁Nu	-10.471
▁insurans	-10.4713
▁where	-10.4719
▁dianugerahkan	-10.472
▁52	-10.4723
▁before	-10.4724
▁Sidang	-10.4725
ep	-10.4725
▁Her	-10.4726
▁Mun	-10.4727
▁disenaraikan	-10.4737
73	-10.4739
▁tular	-10.4741
▁1987	-10.4743
▁disyaki	-10.4743
cat	-10.4743
bor	-10.4745
▁mengingatkan	-10.4748
▁Amir	-10.4749
▁Mark	-10.4754
▁disiplin	-10.4754
▁total	-10.4756
▁letak	-10.4759
▁disalurkan	-10.4759
▁memperbaiki	-10.4763
▁Bur	-10.4764
▁setia	-10.4772
▁ditandatangani	-10.4776
▁FA	-10.4777
02	-10.4778
ier	-10.4779
pada	-10.4783
▁mengiktiraf	-10.4785
kali	-10.4786
▁Latin	-10.4787
▁dijumpai	-10.4789
▁now	-10.4791
▁pemba	-10.4792
▁perlahan	-10.4793
▁Simpang	-10.4801
▁Putera	-10.4802
pelajar	-10.4802
▁Bursa	-10.4806
▁Yassin	-10.4808
▁Mahkota	-10.4808
▁bersatu	-10.481
▁kelak	-10.4811
▁ALAM	-10.4815
▁1986	-10.4816
ayat	-10.4819
▁Inter	-10.4819
▁bual	-10.482
▁Pos	-10.4822
ros	-10.4822
▁Sydney	-10.4825
▁diasaskan	-10.4828
ance	-10.4828
▁daripadanya	-10.4836
gas	-10.4841
▁Lam	-10.4844
▁Kuching	-10.4844
▁dialog	-10.4852
▁Lan	-10.4852
▁bantu	-10.4853
▁pakej	-10.4854
▁mengembalikan	-10.4854
Bangsa	-10.4861
▁pengembangan	-10.4864
▁dipersetujui	-10.4864
▁dibebaskan	-10.4864
▁perolehan	-10.4869
▁baka	-10.4873
▁ce	-10.4874
▁pembaharuan	-10.4877
▁pener	-10.4877
▁simbol	-10.4878
▁penanaman	-10.488
▁keagamaan	-10.4887
▁kar	-10.4888
dari	-10.4903
98	-10.4903
▁gempa	-10.4905
01	-10.4905
▁Kesemua	-10.4907
berg	-10.4909
▁nuklear	-10.491
▁2006,	-10.4911
AK	-10.4912
▁logam	-10.4912
▁mengganggu	-10.4913
gon	-10.4917
▁Malay	-10.4921
▁Tar	-10.4922
▁berharga	-10.4924
▁tahan	-10.4927
end	-10.4928
▁ditukar	-10.4934
▁penerbit	-10.494
▁Kelab	-10.494
▁Far	-10.4944
▁bulu	-10.4945
▁today	-10.4945
▁Hukum	-10.4945
luk	-10.4945
▁Subang	-10.4946
Le	-10.4946
▁Airlines	-10.4947
▁Ladang	-10.4948
▁Pasifik	-10.4949
▁suci	-10.4956
▁Zon	-10.4957
▁Lama	-10.4959
tidak	-10.4959
▁RI	-10.496
▁75	-10.4962
▁sekatan	-10.4963
▁hala	-10.4964
▁Keadilan	-10.4969
▁memelihara	-10.4969
▁kejatuhan	-10.4969
▁membatalkan	-10.4969
▁kepelbagaian	-10.4969
▁Hj	-10.497
▁work	-10.497
NGO	-10.4975
zu	-10.4978
besaran	-10.4984
IS	-10.4985
▁Istilah	-10.4989
oc	-10.4997
▁jawapan	-10.4999
tkan	-10.5004
▁Chin	-10.5005
▁panel	-10.5007
▁pendatang	-10.5009
ix	-10.5011
ez	-10.5011
92	-10.5012
▁Bulan	-10.5013
PDRM	-10.5017
▁Kereta	-10.5019
▁mendukung	-10.5026
▁Antaranya	-10.5028
▁make	-10.503
xi	-10.5036
▁tayangan	-10.5038
▁system	-10.5041
gg	-10.5041
▁papan	-10.5043
▁berhasrat	-10.5046
▁ceramah	-10.5052
program	-10.5061
▁pengendali	-10.5062
▁penggal	-10.5064
▁Maritim	-10.5065
▁Wales	-10.5066
▁Peter	-10.5067
▁Perniagaan	-10.5073
▁eksekutif	-10.5073
▁li	-10.5073
▁memandu	-10.508
pihak	-10.508
▁bawa	-10.5082
▁gambaran	-10.5083
▁Mak	-10.5085
▁pendakwaan	-10.5093
▁final	-10.5095
▁bersesuaian	-10.5106
▁sultan	-10.5107
▁Fu	-10.5109
oi	-10.5109
▁diamalkan	-10.511
▁Kos	-10.5112
▁1982	-10.5115
▁ditangani	-10.5117
▁penerbitan	-10.5119
nt	-10.5119
▁du	-10.512
▁MRT	-10.512
ct	-10.5121
▁Rashid	-10.5123
▁memakan	-10.5127
turut	-10.5127
▁dah	-10.513
dalam	-10.5135
▁didirikan	-10.5144
▁siber	-10.5145
Pen	-10.5149
▁NSTP	-10.515
gel	-10.5151
tum	-10.5152
ه	-10.5156
▁150	-10.5156
▁dimakan	-10.5156
tempat	-10.5159
▁gereja	-10.5162
▁menghapuskan	-10.5163
▁Ramai	-10.5164
▁MIC	-10.5165
▁vi	-10.5166
▁Parsi	-10.5168
▁potongan	-10.5169
▁merasakan	-10.5171
▁askar	-10.5172
▁kenapa	-10.5175
MI	-10.5176
nar	-10.5177
hy	-10.5184
▁mesej	-10.5188
tari	-10.5188
▁bendera	-10.5193
▁iklan	-10.5195
▁binti	-10.5197
rit	-10.52
log	-10.5201
▁Ex	-10.5202
▁65	-10.5204
▁memimpin	-10.5208
▁Austria	-10.5209
▁Mont	-10.5214
▁1950	-10.5214
▁All	-10.5215
▁Street	-10.5215
▁mengumpul	-10.5219
▁1974	-10.5223
▁telur	-10.5225
▁genre	-10.523
▁berdaya	-10.5231
mad	-10.5232
▁Marin	-10.5233
▁hadith	-10.5239
▁Setakat	-10.5243
▁Harry	-10.525
▁menghargai	-10.5252
▁bom	-10.5253
▁Hussein	-10.5256
▁Model	-10.5256
▁biji	-10.5261
▁Highlands	-10.5263
▁good	-10.5263
ping	-10.5272
ure	-10.5273
▁Nan	-10.5281
▁BNM	-10.5287
▁Sektor	-10.5288
TA	-10.5289
▁kekalahan	-10.5291
▁?	-10.5291
empat	-10.5295
▁bajet	-10.53
▁pangkalan	-10.5303
itas	-10.5311
▁Mal	-10.5311
▁Mor	-10.5311
83	-10.5311
▁Ken	-10.5311
▁dinilai	-10.5312
bes	-10.5316
PSN	-10.5318
▁saingan	-10.5322
▁kamera	-10.5324
▁Drama	-10.5326
▁Penyelamat	-10.5328
▁reformasi	-10.5328
▁skala	-10.533
hor	-10.533
Bagi	-10.533
▁laksa	-10.5335
▁Bre	-10.5335
▁most	-10.5336
▁organ	-10.5337
▁berbahaya	-10.5338
▁suaminya	-10.5341
▁Selama	-10.5343
▁diubah	-10.5345
▁penganut	-10.5352
▁Sijil	-10.5352
tun	-10.5354
▁!	-10.5355
▁Gaya	-10.5364
lum	-10.5365
rik	-10.5367
ev	-10.5368
▁Metro	-10.537
▁induk	-10.537
▁Sarjana	-10.5374
▁kritikan	-10.5374
ita	-10.5378
▁nampak	-10.5378
▁Yaman	-10.5379
▁jajahan	-10.5379
▁Berita	-10.5385
▁cekap	-10.5387
▁while	-10.539
▁menerbitkan	-10.5393
▁human	-10.5396
89	-10.54
vin	-10.5409
gam	-10.5418
▁Bel	-10.5419
▁mengetuai	-10.5421
▁Kok	-10.5427
var	-10.5427
UM	-10.5428
▁elaun	-10.5428
87	-10.5428
▁pos	-10.5435
▁tanggal	-10.5438
▁bersamaan	-10.544
▁mendirikan	-10.5452
▁automatik	-10.5452
▁Pembinaan	-10.5453
▁Aku	-10.5458
▁lot	-10.5458
yn	-10.5459
▁caj	-10.546
▁Parit	-10.5465
jalan	-10.5468
79	-10.5471
▁Press	-10.5481
▁Ce	-10.5481
▁rosak	-10.5487
а	-10.549
▁komoditi	-10.5494
▁58	-10.5494
wah	-10.5495
▁peratusan	-10.5502
EN	-10.5506
▁dipakai	-10.5507
▁komen	-10.5507
▁tajuk	-10.5508
▁mara	-10.5508
▁57	-10.5515
▁very	-10.5516
▁ECRL	-10.5532
▁Kadar	-10.5535
▁jurang	-10.5536
sak	-10.5537
▁Kaedah	-10.554
▁Yusuf	-10.5541
▁main	-10.5542
▁Google	-10.5543
▁ADUN	-10.5545
PRK	-10.5548
▁PENDIDIKAN	-10.555
▁menaiki	-10.5552
▁Pelakon	-10.5558
▁،	-10.5562
▁ratus	-10.5565
▁menyalurkan	-10.5568
▁kecewa	-10.5568
ug	-10.5568
7%	-10.5571
projek	-10.5573
▁letupan	-10.5575
▁makhluk	-10.5575
▁Yogyakarta	-10.5578
▁diputuskan	-10.5578
▁Panjang	-10.5586
Su	-10.559
▁mempelajari	-10.5596
atan	-10.5598
▁Bab	-10.5599
▁menandakan	-10.5599
▁kanser	-10.56
▁KL	-10.5603
▁kondisi	-10.5603
▁miliar	-10.5603
▁kolej	-10.5604
▁Shafie	-10.5605
▁Mel	-10.5609
▁1981	-10.5612
anda	-10.5613
buahan	-10.5613
▁meriam	-10.5614
▁seminggu	-10.5614
▁khabar	-10.5615
▁berturut	-10.5615
4%	-10.5617
ben	-10.5618
awi	-10.5618
▁niat	-10.5619
▁get	-10.562
▁melanda	-10.5621
▁Kuasa	-10.5623
▁during	-10.5625
▁Gar	-10.5626
AM	-10.563
▁penyalahgunaan	-10.5631
sha	-10.5633
▁berjumpa	-10.5638
▁Pribumi	-10.5639
▁then	-10.564
pas	-10.5643
ES	-10.5648
▁1,000	-10.5648
▁Sch	-10.565
▁Menara	-10.5651
ney	-10.5652
▁defisit	-10.5653
▁dipengaruhi	-10.5653
▁animasi	-10.5656
71	-10.5658
▁diharapkan	-10.5658
▁Sho	-10.5662
3%	-10.5662
▁catatan	-10.5663
IA	-10.5665
MB	-10.5665
cha	-10.5667
▁Sem	-10.567
▁IS	-10.567
▁kuning	-10.5671
▁rayuan	-10.5673
▁planet	-10.5674
▁Johari	-10.5677
61	-10.5679
▁ku	-10.5679
▁Pelaburan	-10.5684
▁Selat	-10.5685
▁menjayakan	-10.5685
▁sehinggalah	-10.5689
▁bukit	-10.5689
▁baju	-10.5692
▁Ran	-10.5693
▁Perubahan	-10.5696
bung	-10.5696
▁benua	-10.5699
▁terkemuka	-10.5699
94	-10.5705
▁Syah	-10.5707
AL	-10.5711
Si	-10.5716
▁mikro	-10.5717
▁disiapkan	-10.5717
74	-10.5717
bul	-10.5719
▁Algeria	-10.5721
lis	-10.5721
96	-10.5724
▁digambarkan	-10.5724
▁diesel	-10.5725
▁penalti	-10.5728
0000	-10.5732
ther	-10.5732
▁Berikutan	-10.5732
▁bertanya	-10.5735
▁1969	-10.5738
▁Contoh	-10.5741
Qur	-10.5742
▁country	-10.5749
▁Setia	-10.5752
▁PPBM	-10.5752
▁memperjuangkan	-10.5753
▁Serikat	-10.5759
AF	-10.5765
ins	-10.5766
▁BERTULIS	-10.5771
▁bijak	-10.5771
Kerajaan	-10.5776
▁BINTI	-10.5776
▁Seremban	-10.5778
bir	-10.578
▁dibeli	-10.5783
▁Donald	-10.5786
▁mere	-10.5787
nai	-10.5799
▁Val	-10.5799
▁dituduh	-10.58
▁Medan	-10.58
▁ditanam	-10.5807
▁konsisten	-10.581
▁lancar	-10.5812
▁selia	-10.5812
▁menara	-10.5813
▁bil	-10.5817
▁kecemasan	-10.5817
▁menghubungi	-10.5817
▁petugas	-10.5818
ius	-10.582
▁tender	-10.582
▁membangkitkan	-10.5825
▁pensyarah	-10.5828
ei	-10.5829
▁Tim	-10.5835
▁way	-10.5835
▁JPJ	-10.5835
▁menambahkan	-10.5837
▁penipuan	-10.5837
meng	-10.5837
rd	-10.5839
▁Gabenor	-10.5843
ero	-10.5844
▁Prix	-10.5844
▁Lelaki	-10.5848
▁Anthony	-10.585
▁terdedah	-10.585
mm	-10.5851
▁Wakil	-10.5851
ef	-10.5851
mis	-10.5855
▁Sari	-10.5857
▁efektif	-10.5857
stan	-10.5867
▁Chan	-10.5868
▁Times	-10.5869
▁memasukkan	-10.5872
▁tuju	-10.5875
▁billion	-10.5876
ated	-10.5877
ies	-10.5878
▁serbuan	-10.5879
▁dikaji	-10.5883
▁Rhone	-10.5886
ip	-10.5896
TV	-10.59
▁Van	-10.5904
syarat	-10.5906
▁Kawalan	-10.5919
▁pembentangan	-10.5919
▁dipimpin	-10.5921
▁prihatin	-10.5923
▁virus	-10.5923
iv	-10.5924
▁ekoran	-10.5925
▁dialami	-10.5926
▁melainkan	-10.593
▁berisiko	-10.5931
og	-10.5932
▁super	-10.5934
▁sayur	-10.5936
▁Muzium	-10.5937
▁rahsia	-10.5937
▁Bor	-10.5939
▁keusahawanan	-10.5941
▁melarang	-10.5941
▁1979	-10.5945
▁Sweden	-10.5945
rum	-10.5946
▁PS	-10.5949
eli	-10.5949
uz	-10.5951
PR	-10.5952
ket	-10.5955
▁membantah	-10.5956
▁1967	-10.5956
▁istimewanya	-10.5957
▁Standard	-10.5959
▁Akhir	-10.5961
cher	-10.5964
pem	-10.5967
eb	-10.5967
sah	-10.597
kuasa	-10.5971
▁tembakan	-10.5972
▁kriteria	-10.598
▁mengisi	-10.5981
▁Salahuddin	-10.599
▁setuju	-10.5991
▁singkat	-10.5997
pp	-10.6
▁hadis	-10.6002
▁berkuat	-10.6005
ec	-10.6008
▁Halal	-10.601
rong	-10.6015
nah	-10.6015
Ber	-10.6019
▁Holdings	-10.6021
▁menerangkan	-10.6022
▁Tanpa	-10.6022
▁membuang	-10.6022
▁senang	-10.6023
▁setengah	-10.6026
▁Buddha	-10.6029
ST	-10.603
▁Op	-10.603
▁PEMBERITAHU	-10.6032
▁Digital	-10.6032
ice	-10.6033
▁Indeks	-10.6037
▁kurun	-10.6037
▁Mus	-10.604
▁piawaian	-10.6044
▁1948	-10.6047
row	-10.6047
▁je	-10.6047
▁Fakulti	-10.6048
▁berhak	-10.605
▁Naik	-10.6051
$	-10.6053
▁ditemukan	-10.6062
▁penerimaan	-10.6064
▁terbunuh	-10.6067
▁parah	-10.6068
▁Proton	-10.607
qi	-10.6075
TP	-10.6082
▁Afghanistan	-10.6085
ves	-10.6095
perkara	-10.6095
▁kecekapan	-10.6096
▁persediaan	-10.6096
▁Kastam	-10.6096
bas	-10.6098
▁KE	-10.6102
▁even	-10.6103
▁Hubungan	-10.6105
yak	-10.6113
▁God	-10.6113
▁Richard	-10.6114
▁see	-10.6116
▁mm	-10.6123
▁Music	-10.6125
▁sensitif	-10.6126
▁Pakar	-10.6129
king	-10.6135
▁Chong	-10.6136
▁Audit	-10.6138
▁ditunjukkan	-10.6139
▁kabupaten	-10.614
▁x	-10.6148
8%	-10.6149
▁hayat	-10.6152
▁memulihkan	-10.6153
▁Encik	-10.616
▁USD	-10.6161
▁kekuasaan	-10.6163
▁Day	-10.6164
ship	-10.6165
An	-10.6168
▁aktivis	-10.6173
▁Setar	-10.6175
▁pencalonan	-10.6182
▁season	-10.6192
▁Muar	-10.6193
▁mengancam	-10.62
▁Gabungan	-10.6204
▁Zi	-10.6207
▁kawan	-10.621
▁penguasaan	-10.6213
AT	-10.622
▁Fe	-10.6221
beza	-10.6225
▁membentangkan	-10.6229
▁Jambi	-10.6233
▁klasik	-10.6234
nu	-10.6236
▁Black	-10.6242
▁selanjutnya	-10.6242
▁Pengurus	-10.6244
▁Anuar	-10.6246
▁law	-10.6248
gal	-10.6248
▁Gen	-10.6252
▁dikutip	-10.6253
▁Tom	-10.6255
▁peranti	-10.6259
▁Remaja	-10.6261
▁Peruntukan	-10.6261
▁و	-10.6263
▁Hang	-10.6266
▁Research	-10.6268
▁1965	-10.6272
▁Azman	-10.6273
▁menggabungkan	-10.628
▁Pendaftaran	-10.628
▁social	-10.6283
▁berhati	-10.6285
kai	-10.6287
▁Jemaah	-10.6287
SMK	-10.6291
sim	-10.6294
sat	-10.6294
▁bicara	-10.6295
▁minum	-10.6296
CC	-10.6297
▁Akan	-10.6314
▁merdeka	-10.6319
dor	-10.632
▁angkasa	-10.632
bra	-10.6323
93	-10.6323
▁Journal	-10.6329
▁Kempen	-10.6334
▁surau	-10.6337
▁Konsep	-10.6343
2,000	-10.6346
370	-10.6351
por	-10.6351
▁Dinasti	-10.6352
We	-10.6353
Bagaimanapun	-10.6354
PA	-10.6355
▁Entertainment	-10.6355
▁Gereja	-10.6355
84	-10.6356
▁YAB	-10.6359
▁keharmonian	-10.6359
▁seekor	-10.636
▁+	-10.6361
▁matang	-10.6369
▁Disebabkan	-10.6372
▁Koperasi	-10.6376
5%	-10.6378
til	-10.6381
▁disa	-10.6382
▁seri	-10.6385
▁Lautan	-10.6387
▁Gregory	-10.639
▁Kitab	-10.6393
put	-10.6394
▁Sub	-10.6395
▁pasir	-10.6395
▁helikopter	-10.6397
▁bio	-10.6398
▁Of	-10.6401
▁matematik	-10.6401
▁memusnahkan	-10.6401
▁sebilangan	-10.6401
▁Loke	-10.6403
▁pegangan	-10.6405
▁mengg	-10.6405
▁corak	-10.6406
ew	-10.6409
▁Terima	-10.6409
▁Dana	-10.6414
▁Karena	-10.6414
▁Perlindungan	-10.6417
▁Im	-10.6419
▁bersikap	-10.642
▁penyampaian	-10.6423
▁diturunkan	-10.6424
▁Fasa	-10.6424
▁mengucapkan	-10.6429
▁pengawal	-10.6431
▁fikir	-10.6432
▁life	-10.6432
▁Mulia	-10.6435
▁persamaan	-10.6436
▁penekanan	-10.644
▁ISU	-10.6442
▁Beijing	-10.6443
▁know	-10.6449
▁layar	-10.645
▁UEFA	-10.6451
▁Kira	-10.6453
cho	-10.6457
▁kesehatan	-10.6459
1,000	-10.6459
▁rock	-10.6463
▁seiring	-10.6463
▁PER	-10.6464
▁1978	-10.6467
▁muslim	-10.6469
port	-10.647
▁Kerjasama	-10.647
ADUN	-10.6471
1%	-10.6471
lau	-10.6472
▁Jen	-10.6473
▁<	-10.6473
▁1976	-10.6477
ue	-10.6479
▁babi	-10.648
▁mulia	-10.649
▁kabinet	-10.6498
▁Ger	-10.65
tz	-10.65
▁pas	-10.6501
▁Profesor	-10.6501
▁runcit	-10.6502
▁ibadah	-10.6509
sir	-10.6512
pah	-10.6515
▁merokok	-10.6521
pot	-10.6521
ral	-10.6522
▁belah	-10.6527
▁direkodkan	-10.6528
▁ف	-10.6532
▁Masalah	-10.6533
Me	-10.6534
▁memperkasakan	-10.654
▁penyerang	-10.654
▁rasminya	-10.6542
▁sindiket	-10.6543
▁Kamis	-10.6546
▁perhubungan	-10.6548
▁both	-10.6555
▁film	-10.6564
▁play	-10.6565
▁Mungkin	-10.6567
▁judul	-10.6567
▁Kesultanan	-10.6567
▁Portugal	-10.6567
▁membekalkan	-10.6569
juga	-10.6571
▁Perikanan	-10.6571
▁sayang	-10.6571
▁kejuruteraan	-10.6575
▁bagus	-10.6576
▁sehat	-10.6577
zar	-10.6579
barang	-10.658
▁Gudang	-10.6583
▁pinggir	-10.6584
▁Umar	-10.6587
US	-10.6589
2010	-10.6589
▁Mil	-10.6591
▁Adib	-10.6593
▁ni	-10.6597
kumpulan	-10.6597
▁pasca	-10.6599
▁Iowa	-10.66
▁down	-10.6602
▁van	-10.6602
cita	-10.6602
▁menjadikannya	-10.6605
▁biru	-10.6607
▁terbentuk	-10.6608
pol	-10.6616
81	-10.6617
▁kampus	-10.6622
▁pedalaman	-10.6626
▁berke	-10.6626
▁Sur	-10.6629
mem	-10.6629
▁masak	-10.663
rumah	-10.6635
Mo	-10.6638
▁1957	-10.6648
▁Maklumat	-10.6648
▁Juli	-10.6651
▁Ren	-10.6661
▁Senin	-10.6661
▁Seberang	-10.6661
▁fahaman	-10.6663
▁kesatuan	-10.6665
▁pola	-10.6667
800	-10.6668
▁diperbuat	-10.667
SM	-10.667
9%	-10.6671
▁pulangan	-10.6674
hid	-10.6674
dis	-10.6681
▁kestabilan	-10.6685
▁formal	-10.6685
bon	-10.6688
▁Bavaria	-10.6689
▁wakaf	-10.6689
▁logo	-10.6689
▁Dis	-10.6691
▁pengundian	-10.6697
▁setinggi	-10.6705
▁kewarganegaraan	-10.6706
▁persendirian	-10.6708
nombor	-10.6709
]],	-10.6715
▁berjuang	-10.6718
▁berjanji	-10.6719
▁Menjelang	-10.672
▁akal	-10.6724
PS	-10.6726
▁bayar	-10.6728
▁Emas	-10.6728
yar	-10.6736
▁dipenuhi	-10.6736
mes	-10.674
▁ISBN	-10.6741
UN	-10.6745
▁mengundang	-10.6745
▁lari	-10.6745
▁putera	-10.6747
▁Bah	-10.6751
▁diarah	-10.6753
satu	-10.6753
▁Pelbagai	-10.6755
▁label	-10.6758
▁Jl	-10.6761
▁High	-10.6762
▁2005,	-10.6762
▁nyanyian	-10.6768
▁Penolong	-10.6768
▁reaksi	-10.6769
▁64	-10.6769
▁pi	-10.677
▁2004,	-10.6776
▁terkawal	-10.6776
IL	-10.6776
82	-10.6778
▁Seramai	-10.6779
ع	-10.6779
▁selam	-10.6781
▁pertikaian	-10.6782
mempertimbangkan	-10.6782
▁Los	-10.6783
PP	-10.6783
guru	-10.6786
▁jangkitan	-10.6796
▁Datin	-10.6797
▁permit	-10.6803
▁level	-10.6804
▁Kelas	-10.6811
bai	-10.6812
▁penyelewengan	-10.6816
MP	-10.6816
▁berbilang	-10.6817
▁signifikan	-10.682
▁Banten	-10.6821
▁Sedangkan	-10.6823
▁American	-10.6824
▁mau	-10.6825
▁Terbuka	-10.6828
▁Cho	-10.6828
▁part	-10.683
▁Lin	-10.6831
▁Liverpool	-10.6832
▁disifatkan	-10.6832
▁berse	-10.6834
kul	-10.6838
▁MP	-10.6839
ray	-10.6841
▁Qur	-10.6843
▁berkurangan	-10.6844
▁News	-10.6851
ator	-10.6854
aga	-10.6856
▁Don	-10.6858
▁tergolong	-10.686
▁dikehendaki	-10.686
iya	-10.686
▁menemukan	-10.6861
▁kesilapan	-10.6864
▁memperolehi	-10.6864
▁percubaan	-10.6868
▁teater	-10.6868
▁wajah	-10.6869
▁utamanya	-10.6871
▁Yahya	-10.6872
▁des	-10.6872
▁pencarian	-10.6873
▁Penerbangan	-10.6876
nik	-10.6878
▁semestinya	-10.688
▁Wei	-10.6881
▁Usahawan	-10.6881
▁They	-10.6882
▁Ang	-10.6886
▁Pustaka	-10.6888
▁PAC	-10.6889
▁Ng	-10.6891
▁cecair	-10.6892
▁kaji	-10.6896
▁telus	-10.6896
▁dinding	-10.6897
▁Mag	-10.6897
Ada	-10.6898
▁Nasir	-10.6898
▁menjatuhkan	-10.69
▁Lang	-10.6903
▁semenjak	-10.6904
dir	-10.6906
▁Sinar	-10.6909
IK	-10.691
ful	-10.6911
▁penghantaran	-10.6913
▁mahukan	-10.6914
lay	-10.6916
▁Washington	-10.6916
▁Love	-10.6917
▁penganjuran	-10.6922
▁bisnis	-10.6924
▁teliti	-10.6928
kom	-10.6933
▁transformasi	-10.6934
BA	-10.6935
▁membanteras	-10.694
▁perpustakaan	-10.694
▁Exco	-10.6941
▁1971	-10.6943
▁kunjungan	-10.6943
▁menyeru	-10.6946
sion	-10.6952
▁berupa	-10.6953
▁public	-10.6955
▁asid	-10.6956
▁dikekalkan	-10.6956
▁kopi	-10.6959
و	-10.6965
▁kunci	-10.6967
▁nisbah	-10.6968
▁ternakan	-10.6969
led	-10.697
▁normal	-10.6971
ble	-10.6971
▁Azmi	-10.6972
▁take	-10.6974
tanda	-10.6976
▁tambang	-10.6981
▁Ratu	-10.6984
▁difahami	-10.6993
ل	-10.6994
▁61	-10.6996
parti	-10.6999
▁bunuh	-10.6999
▁Kaum	-10.7009
kel	-10.7009
▁indeks	-10.7013
▁Bandung	-10.7015
▁jahat	-10.7017
▁Sara	-10.7021
▁saintifik	-10.7022
▁rumahnya	-10.7023
SC	-10.7025
▁berpandu	-10.7026
CA	-10.7026
▁kaca	-10.7028
▁best	-10.7029
▁Hai	-10.7029
▁dibuang	-10.7034
▁waris	-10.7035
▁puasa	-10.7045
▁beralih	-10.7045
▁still	-10.7046
▁temu	-10.7046
▁Kampong	-10.705
bol	-10.7051
awan	-10.7053
▁mencerminkan	-10.7054
RE	-10.7054
▁diuruskan	-10.7057
▁peringatan	-10.7058
▁penye	-10.7059
▁takhta	-10.7062
▁lazimnya	-10.7063
Peng	-10.7063
▁Karang	-10.7068
ses	-10.7069
▁mener	-10.7073
▁makmal	-10.7075
▁lintas	-10.7076
▁KEEMPAT	-10.7078
▁Ze	-10.708
less	-10.7082
▁same	-10.7082
▁right	-10.7083
▁diguna	-10.7083
▁seimbang	-10.7084
low	-10.7086
▁sastera	-10.7086
old	-10.7087
▁Mansor	-10.7088
▁membintangi	-10.7091
▁MOHD	-10.7091
4,000	-10.7091
▁Les	-10.7096
das	-10.7098
▁Ah	-10.7098
▁since	-10.7099
▁Martin	-10.7102
▁Perbandaran	-10.7103
▁day	-10.7107
▁Amar	-10.7108
▁disimpan	-10.7111
▁Tertinggi	-10.7112
IT	-10.7116
tem	-10.7119
far	-10.7121
▁Berkuasa	-10.7122
pro	-10.7125
▁lulus	-10.7127
hr	-10.7127
yr	-10.7128
▁East	-10.7128
▁second	-10.7131
▁off	-10.7134
▁Royal	-10.7137
▁kuota	-10.714
▁Vol	-10.7147
▁prosiding	-10.7148
▁notis	-10.715
▁KRI	-10.7153
▁Hadiah	-10.7155
Mar	-10.7156
▁persekolahan	-10.7157
▁pakatan	-10.7157
▁Bagaimana	-10.7158
▁kedatangan	-10.7161
▁kehakiman	-10.7161
▁ketinggalan	-10.7161
▁Belgium	-10.7165
▁Bilangan	-10.7166
ste	-10.717
▁tingkah	-10.7173
▁mestilah	-10.7176
▁jantina	-10.7177
▁Pre	-10.7179
▁dihukum	-10.7184
fin	-10.7185
▁must	-10.7187
▁Sabu	-10.7189
▁kreatif	-10.719
▁forum	-10.7191
▁ulasan	-10.7193
▁mengkritik	-10.7198
▁berlebihan	-10.7201
▁stadium	-10.7202
▁mengutip	-10.7202
SP	-10.7203
▁amnya	-10.7209
2%	-10.721
nda	-10.721
▁ekar	-10.7213
▁mendaftar	-10.7219
▁mentadbir	-10.7219
▁Isa	-10.7221
pon	-10.7221
▁merangka	-10.7221
sor	-10.7226
▁mengalir	-10.7231
▁Kepada	-10.7232
▁marah	-10.7232
▁gajah	-10.7235
▁Perusahaan	-10.724
▁dilindungi	-10.724
▁didedahkan	-10.7244
nat	-10.7244
unsur	-10.7245
▁investasi	-10.7248
▁1959	-10.7252
▁bersejarah	-10.7253
▁Pol	-10.7257
karya	-10.7258
▁Uni	-10.726
pat	-10.7261
ction	-10.7263
▁pernyataan	-10.7265
▁psikologi	-10.7265
▁Union	-10.7274
▁Inc	-10.7276
▁format	-10.7278
▁dibatalkan	-10.7281
▁Kerana	-10.7282
Namun	-10.7284
▁berfikir	-10.7287
▁Road	-10.7287
▁mantan	-10.7295
gat	-10.7295
ي	-10.7297
▁tertutup	-10.7298
▁sumpah	-10.7302
▁habis	-10.7303
▁runtuh	-10.7303
▁Portugis	-10.7306
▁serentak	-10.7311
▁mampan	-10.7311
▁kongsi	-10.7314
▁Quran	-10.7314
▁berbeda	-10.7315
▁Minggu	-10.7316
▁pengkaji	-10.7319
▁membela	-10.732
▁Sudah	-10.7321
▁ekosistem	-10.7323
of	-10.7326
▁kubu	-10.7327
▁sewa	-10.7333
▁keduanya	-10.7336
Juara	-10.7336
▁Jumat	-10.7338
▁disambut	-10.734
▁sekian	-10.734
▁Karya	-10.7342
▁segmen	-10.7349
▁penge	-10.7355
▁ditinggalkan	-10.7361
▁atom	-10.7362
zam	-10.7364
▁Eropa	-10.7365
▁sulit	-10.7366
▁used	-10.7366
sik	-10.7366
eg	-10.7366
atif	-10.7368
▁memindahkan	-10.7374
▁entiti	-10.7375
▁Menerusi	-10.7376
▁teratas	-10.7377
▁Zuraida	-10.7382
▁Pemain	-10.7384
uni	-10.739
▁bergelar	-10.7395
▁wujudnya	-10.7395
▁publik	-10.7399
▁Ilmu	-10.74
▁Ming	-10.7406
▁Kesejahteraan	-10.7407
▁bersuara	-10.7409
▁Buat	-10.7414
▁Zul	-10.7414
▁memperlihatkan	-10.7416
▁Zakaria	-10.7416
gol	-10.7416
▁Law	-10.7421
▁ju	-10.7423
GA	-10.7425
▁memerangi	-10.7429
▁pemilih	-10.7429
▁pemahaman	-10.7441
▁KESIHATAN	-10.7441
Islam	-10.7445
▁Pembiayaan	-10.745
▁terikat	-10.7451
▁Sesungguhnya	-10.7455
▁don	-10.7457
▁surah	-10.7457
▁LGBT	-10.7458
▁Bengkulu	-10.7463
▁Azhar	-10.7464
▁angkat	-10.7464
▁audit	-10.7465
▁YouTube	-10.7467
▁tamadun	-10.7467
▁geografi	-10.7467
PO	-10.7471
ise	-10.7472
▁House	-10.7473
▁mempersoalkan	-10.7473
cre	-10.7474
▁meny	-10.7475
▁end	-10.7476
▁pertanyaan	-10.7478
▁diskriminasi	-10.7479
▁mega	-10.748
FC	-10.748
▁tarian	-10.7482
seperti	-10.7485
▁ha	-10.7486
▁jari	-10.7487
▁dipengerusikan	-10.7493
▁kesesakan	-10.7493
▁puas	-10.7493
▁penelitian	-10.7495
▁Cal	-10.7497
▁Jalil	-10.7498
▁kurikulum	-10.75
▁Kamal	-10.7501
▁par	-10.7502
▁gigi	-10.7505
MS	-10.7507
▁dikurniakan	-10.751
▁menamakan	-10.751
▁Saudara	-10.751
▁terlihat	-10.7512
▁Perhentian	-10.7514
lip	-10.7515
700	-10.7523
▁penyelidik	-10.7524
▁merealisasikan	-10.7527
▁rugi	-10.7528
lim	-10.753
ps	-10.7531
▁bererti	-10.7537
▁lautnya	-10.7544
▁merosot	-10.7544
▁dilarang	-10.7547
▁much	-10.7551
▁tarikan	-10.7552
▁Katolik	-10.7561
▁keenam	-10.7561
▁Simpanan	-10.7562
▁women	-10.7565
▁bersenjata	-10.7567
▁menyuarakan	-10.757
kapal	-10.757
▁pemasaran	-10.7574
▁menyiapkan	-10.7578
3,000	-10.758
▁pemuda	-10.7583
▁kosong	-10.7587
▁Company	-10.7591
▁halangan	-10.7591
▁63	-10.7592
▁ibadat	-10.76
▁merosakkan	-10.76
▁Tang	-10.7605
▁pengendalian	-10.7605
▁Video	-10.7606
TC	-10.7607
▁komunis	-10.7609
▁Ikan	-10.761
ا	-10.761
jer	-10.7616
▁loji	-10.7619
▁KWSP	-10.7619
▁Semenyih	-10.7621
▁memajukan	-10.7622
▁Din	-10.7622
▁Tawau	-10.7626
ى	-10.7626
cam	-10.7629
Apa	-10.763
▁tropika	-10.763
▁tali	-10.7634
▁pembedahan	-10.7635
▁del	-10.7637
▁Api	-10.7641
▁selalunya	-10.7648
ت	-10.7648
▁bangkit	-10.7648
▁umbi	-10.7648
▁Land	-10.7652
▁bertulis	-10.7654
▁diserang	-10.7654
▁Aktiviti	-10.7661
▁dikuasai	-10.7661
oli	-10.7667
▁Jin	-10.7668
baik	-10.7671
▁Dickson	-10.7678
▁band	-10.7687
sum	-10.7689
▁dihentikan	-10.7691
▁koperasi	-10.7691
OS	-10.7699
▁Daftar	-10.77
▁menceritakan	-10.77
ngga	-10.7702
cent	-10.7702
▁Nam	-10.7702
▁fail	-10.7703
▁j	-10.7704
untuk	-10.7705
▁Faizal	-10.7711
▁us	-10.7711
cara	-10.7712
▁long	-10.7713
▁Klinik	-10.7713
▁berkepentingan	-10.7718
▁debut	-10.772
▁beg	-10.7727
lus	-10.773
▁dinafikan	-10.773
▁Chen	-10.7732
▁Com	-10.7734
▁Institusi	-10.7735
▁need	-10.7736
▁meraikan	-10.7748
▁tertua	-10.775
nagar	-10.7751
’	-10.7752
▁terkandung	-10.7752
yl	-10.7753
▁Jelas	-10.7754
▁langit	-10.7755
+	-10.776
▁ditanggung	-10.7761
▁lemak	-10.7762
▁kelmarin	-10.7765
▁dagangan	-10.7766
del	-10.7766
▁jelasnya	-10.7767
▁Pemimpin	-10.7767
▁Siam	-10.777
▁Misalnya	-10.7771
tap	-10.7773
▁vokal	-10.7773
▁bertaraf	-10.7774
mempertingkatkan	-10.7775
▁balai	-10.7777
▁Gan	-10.7778
▁kerangka	-10.7779
▁Jho	-10.7784
AI	-10.7788
Ia	-10.7789
▁Song	-10.7789
▁kain	-10.7798
alukan	-10.7799
▁50%	-10.7803
kura	-10.7808
▁perindustrian	-10.7809
▁Paya	-10.7813
▁mendidik	-10.7814
▁Sebahagian	-10.782
IC	-10.7821
IP	-10.7827
▁berpengaruh	-10.7828
sul	-10.783
▁kekerasan	-10.7831
▁rambut	-10.7831
▁cantik	-10.7832
▁Radio	-10.7842
▁otak	-10.7842
▁penambahan	-10.7843
▁sp	-10.7843
▁Es	-10.7844
▁Online	-10.7845
▁There	-10.7847
▁Minyak	-10.785
▁terawal	-10.7851
▁kalinya	-10.7851
sch	-10.7852
PT	-10.7854
jal	-10.7857
▁Var	-10.786
▁meletak	-10.7861
ide	-10.7861
▁Kassim	-10.7863
▁250	-10.7863
▁Rock	-10.7864
▁sebalik	-10.7867
▁terjun	-10.787
▁Thai	-10.7871
▁pampasan	-10.7871
▁Joko	-10.7874
vis	-10.7877
▁lo	-10.7881
agensi	-10.7881
▁Vo	-10.7882
▁makin	-10.7882
▁berpusat	-10.7884
▁Hadir	-10.7888
▁Bon	-10.789
▁Mara	-10.7894
▁menanggung	-10.7894
SB	-10.7894
▁help	-10.7895
▁Datu	-10.7903
▁hangat	-10.7905
▁think	-10.7905
▁found	-10.7906
▁rel	-10.7911
Loire	-10.7918
▁mengatur	-10.792
Or	-10.7921
▁segar	-10.7924
▁petroleum	-10.7925
▁sebagian	-10.7925
ky	-10.7935
▁senior	-10.7938
▁ayahnya	-10.7938
▁batang	-10.794
▁segelintir	-10.7942
▁jajaran	-10.7947
▁Koh	-10.7949
▁fatwa	-10.7952
▁Tasik	-10.7953
▁Johan	-10.7956
▁pemohon	-10.7956
▁1975	-10.7957
tek	-10.7958
▁trend	-10.7962
▁mutlak	-10.7965
▁melabur	-10.7969
▁Denmark	-10.7969
▁Inggris	-10.7978
▁tertumpu	-10.7978
▁veteran	-10.7978
▁Pagi	-10.7978
▁Kenyataan	-10.798
▁Shu	-10.7982
91	-10.7987
▁Sing	-10.7987
▁menu	-10.7994
▁Bang	-10.7995
▁Zain	-10.7997
▁mahir	-10.7997
▁kaunter	-10.8001
▁koleksi	-10.8001
▁dianggotai	-10.8001
▁1952	-10.8005
▁Warga	-10.8007
▁mandat	-10.8011
▁kala	-10.8012
▁Abang	-10.8016
sang	-10.8018
▁Colombia	-10.8019
▁terkejut	-10.8019
▁Surah	-10.8025
▁u	-10.8028
▁ya	-10.8029
▁Laksamana	-10.8032
▁kotak	-10.8032
▁Manchester	-10.8037
▁Partai	-10.8038
▁mendatangkan	-10.8039
у	-10.8044
Ku	-10.8045
▁penghuni	-10.805
▁Cer	-10.8052
▁bela	-10.8054
▁Food	-10.8062
▁memikirkan	-10.8064
hen	-10.8068
▁Tempat	-10.8071
▁400	-10.8072
▁kesukaran	-10.8073
▁Lalu	-10.8074
▁kebutuhan	-10.8077
▁rampasan	-10.8077
▁perut	-10.8079
▁titah	-10.8082
▁lahan	-10.8085
▁Cara	-10.8087
▁students	-10.8089
▁bu	-10.8089
out	-10.8091
▁menepati	-10.8091
▁JAYA	-10.8092
iran	-10.8097
▁Bagan	-10.8099
▁KEWANGAN	-10.81
▁liputan	-10.81
▁trans	-10.81
▁Bentuk	-10.8105
ilah	-10.8107
ys	-10.8112
tim	-10.8118
▁ibn	-10.8122
▁high	-10.8125
ight	-10.8128
▁Daud	-10.8128
SJK	-10.8131
▁Zulkifli	-10.8132
▁million	-10.8137
RC	-10.8137
▁1972	-10.8139
▁penyeludupan	-10.8139
▁ad	-10.814
▁Tambah	-10.814
Normandie	-10.8141
▁Musang	-10.8142
▁Fatwa	-10.8142
▁minister	-10.816
▁CEO	-10.8168
▁Perhubungan	-10.8168
▁babak	-10.817
▁menuduh	-10.8173
jen	-10.8174
▁niaga	-10.8175
anti	-10.8176
▁pembekal	-10.8176
mus	-10.8181
▁Jaafar	-10.8182
dat	-10.8183
▁lukisan	-10.8188
▁1966	-10.819
▁Adnan	-10.8192
▁pengedaran	-10.8193
▁resmi	-10.8195
▁Channel	-10.8196
▁aspirasi	-10.8197
▁Mc	-10.82
600	-10.8203
▁Jas	-10.8205
▁AHMAD	-10.8205
▁Kemboja	-10.8205
▁Duta	-10.8206
▁Karim	-10.8206
▁MY	-10.8208
uhan	-10.8209
▁Cu	-10.8211
▁Sebenarnya	-10.8211
▁inter	-10.8212
bot	-10.8216
▁Team	-10.8216
▁ciptaan	-10.8229
buku	-10.8232
▁Hamidi	-10.8234
▁timbalan	-10.8234
▁ejen	-10.8234
ص	-10.8235
▁1973	-10.8236
▁Siang	-10.8236
▁told	-10.8241
ore	-10.8243
▁10%	-10.8245
2014	-10.8249
▁His	-10.8255
▁Ain	-10.8257
UR	-10.8258
▁kebelakangan	-10.826
▁did	-10.8263
▁use	-10.8264
▁Gaza	-10.8271
▁Intan	-10.8272
▁BR	-10.8272
win	-10.8273
▁Hijau	-10.8274
▁puisi	-10.8274
time	-10.8275
▁Urusan	-10.8276
▁among	-10.8276
gil	-10.8278
▁Petronas	-10.8279
▁disusun	-10.8283
▁Bermula	-10.8287
▁Ditanya	-10.8287
▁Ampang	-10.8289
▁berdarah	-10.8289
▁Gun	-10.829
▁Ayer	-10.8292
▁merentasi	-10.8292
▁group	-10.8294
RA	-10.8294
lur	-10.8295
ture	-10.8295
▁pengikut	-10.8297
▁69	-10.8297
▁Tong	-10.8301
▁Kemahiran	-10.8306
▁undian	-10.8314
▁jua	-10.8314
▁padu	-10.8315
▁Sab	-10.8324
▁tragedi	-10.8325
▁menghina	-10.8325
▁ICERD	-10.833
▁Euro	-10.8331
dai	-10.8333
all	-10.8333
▁Hafiz	-10.8334
▁Perpustakaan	-10.8334
tuan	-10.8334
▁karbon	-10.8336
cap	-10.8336
▁ل	-10.8337
lem	-10.8337
bis	-10.8338
ubah	-10.8338
▁membimbangkan	-10.8339
▁come	-10.8343
▁Ten	-10.8343
▁kecerdasan	-10.8343
▁amal	-10.8344
▁diter	-10.835
▁pindah	-10.8355
▁mengharapkan	-10.8362
▁denggi	-10.8363
▁Inilah	-10.8363
▁Petani	-10.8369
▁jasa	-10.8371
▁berpeluang	-10.8372
▁dimuat	-10.8375
▁pembahagian	-10.8379
▁pisang	-10.8381
mp	-10.8384
▁Coast	-10.8387
▁Mari	-10.8387
KL	-10.8391
▁dirampas	-10.8395
▁Sheikh	-10.8395
▁Forum	-10.8398
was	-10.8399
Li	-10.8399
▁Calon	-10.8399
NA	-10.84
SS	-10.8401
▁gerak	-10.8409
▁Syeikh	-10.8409
Man	-10.8409
▁perak	-10.8412
▁Rhineland	-10.8423
▁Bro	-10.8424
▁Saham	-10.8431
▁pelanggaran	-10.8432
▁cucu	-10.8432
▁vaksin	-10.8435
▁kucing	-10.8442
▁terbahagi	-10.8443
Palatinate	-10.8446
▁dipegang	-10.8446
ksi	-10.8449
▁AI	-10.845
▁instrumen	-10.8451
▁terkena	-10.8452
rama	-10.8459
▁pop	-10.846
▁Pesawat	-10.8462
▁menawan	-10.8463
▁Kedudukan	-10.8466
▁cakap	-10.8475
cus	-10.8475
▁modern	-10.8475
▁ehwal	-10.8477
▁penerangan	-10.848
▁hiasan	-10.8484
▁Bak	-10.8492
▁memuat	-10.8492
▁pengagihan	-10.8493
day	-10.8497
▁Penerangan	-10.8498
▁sebutan	-10.8499
▁lupa	-10.8502
mont	-10.8502
▁Scotland	-10.8503
rt	-10.8506
▁daftar	-10.8506
▁62	-10.8508
sol	-10.8511
lihat	-10.8512
▁komprehensif	-10.8512
▁penguat	-10.8512
▁Russia	-10.8513
▁ditugaskan	-10.8517
▁bandaraya	-10.8522
takan	-10.8524
▁bincang	-10.8525
▁perbahasan	-10.8526
▁paip	-10.8527
wo	-10.853
▁cubaan	-10.8531
▁Ye	-10.8531
▁menanam	-10.8531
▁menyambung	-10.8537
▁halus	-10.8539
▁kefahaman	-10.8541
bri	-10.8541
▁Victoria	-10.8544
ill	-10.8549
GM	-10.8551
▁su	-10.8551
▁Ray	-10.8556
▁Widodo	-10.856
▁IV	-10.8562
bahagian	-10.8564
▁rizab	-10.8565
▁order	-10.8566
sil	-10.8569
▁Pur	-10.857
▁firma	-10.8572
▁Bra	-10.8574
▁mini	-10.8574
▁akun	-10.8577
▁Tra	-10.8577
▁Maria	-10.8578
▁salinan	-10.8579
▁purba	-10.8579
▁Pemilihan	-10.8581
oy	-10.8583
▁pengawasan	-10.8583
IM	-10.8587
iii	-10.8593
ال	-10.8594
▁menerajui	-10.8598
▁banduan	-10.8598
▁biologi	-10.8598
▁juru	-10.8599
▁Raj	-10.86
▁mengutamakan	-10.8603
▁revolusi	-10.8603
▁Seng	-10.8606
AR	-10.8606
▁dijadualkan	-10.8607
▁Jambatan	-10.8608
▁penasihat	-10.8608
▁pengangguran	-10.8608
▁PUAN	-10.8609
▁Kadir	-10.8612
▁kebun	-10.8615
Men	-10.8619
▁Selamat	-10.8623
▁dewa	-10.8625
6%	-10.8631
▁peta	-10.8631
▁berhijrah	-10.8636
▁genetik	-10.8636
tangan	-10.864
▁belanja	-10.8641
▁Shin	-10.8642
▁kejuaraan	-10.865
ple	-10.8651
▁terlepas	-10.8652
Kanak	-10.8653
▁konsesi	-10.866
▁tetamu	-10.866
▁kepadanya	-10.8661
▁Yo	-10.8664
▁internasional	-10.8665
kerajaan	-10.867
▁bumiputera	-10.867
▁puluhan	-10.8671
▁TM	-10.8671
▁mengenali	-10.8672
▁baja	-10.8672
▁political	-10.8674
tat	-10.8675
tara	-10.8675
ungan	-10.8676
▁ton	-10.8677
▁Dam	-10.8677
▁MB	-10.8683
▁Bila	-10.8683
kkan	-10.8685
ر	-10.8685
thi	-10.8686
EC	-10.8691
▁Wisma	-10.8691
▁tingkatan	-10.8692
wati	-10.8692
▁Jawi	-10.8693
▁Dataran	-10.8695
▁kebersihan	-10.8698
▁Institute	-10.8712
gy	-10.8713
▁melengkapkan	-10.8718
▁produktiviti	-10.8718
▁Cik	-10.872
▁dijelaskan	-10.8723
gor	-10.8723
▁Daim	-10.8724
▁Bidang	-10.8724
▁bon	-10.8729
▁mobil	-10.873
▁walau	-10.8733
▁66	-10.8736
pus	-10.8742
und	-10.8745
▁telekomunikasi	-10.8747
sus	-10.8749
▁market	-10.8752
▁Gombak	-10.8752
▁Henry	-10.8752
zen	-10.8754
▁pemasangan	-10.8756
▁masanya	-10.8761
▁massa	-10.8764
burg	-10.8765
▁perbandingan	-10.8766
▁wabak	-10.8767
▁hormat	-10.8772
▁apatah	-10.8782
▁tsunami	-10.8783
▁Statut	-10.8786
eu	-10.8786
▁petunjuk	-10.8786
▁Rosmah	-10.8786
dasar	-10.8787
▁tri	-10.8787
▁etika	-10.8789
him	-10.879
▁membendung	-10.879
▁mengajak	-10.8791
▁support	-10.8794
unan	-10.8797
وا	-10.8805
▁Pengkalan	-10.8805
▁place	-10.8806
lm	-10.8812
▁sang	-10.8813
▁perikanan	-10.8815
▁Dadah	-10.8822
▁Mulai	-10.8822
ING	-10.8823
▁berpegang	-10.8825
▁Maz	-10.8826
lic	-10.883
▁System	-10.8831
▁Pendakwa	-10.8831
bert	-10.8839
▁Hisham	-10.8844
▁maritim	-10.8849
▁Chu	-10.8851
▁batas	-10.8854
▁diakui	-10.8854
▁120	-10.8856
▁persiapan	-10.8859
▁topik	-10.8859
▁menyerupai	-10.8859
▁proyek	-10.8859
▁separa	-10.8859
▁Sekarang	-10.8862
los	-10.8862
cul	-10.8862
▁ingat	-10.8862
▁car	-10.8864
▁1945	-10.8864
▁1977	-10.8864
▁1968	-10.8866
▁pawagam	-10.8869
▁pengesahan	-10.8869
▁Perkataan	-10.8869
lut	-10.8869
▁Minister	-10.8869
▁College	-10.8879
gak	-10.8883
▁Harimau	-10.8884
Be	-10.8888
▁aturan	-10.889
▁Ghazali	-10.8891
▁Ph	-10.8893
▁dinamik	-10.8896
▁menyekat	-10.8899
▁Band	-10.8903
▁PBT	-10.8905
▁lambang	-10.8908
▁pengarang	-10.8908
▁67	-10.8911
produk	-10.8911
▁85	-10.8912
fu	-10.8913
▁penghormatan	-10.8913
▁knowledge	-10.8913
▁skrip	-10.8915
▁empayar	-10.8918
▁input	-10.8918
kun	-10.8919
OC	-10.8919
▁top	-10.892
pt	-10.892
▁Pangkalan	-10.8922
▁kilogram	-10.8923
▁Uthmaniyyah	-10.8923
▁Kertas	-10.8924
▁Wal	-10.8925
ology	-10.8926
▁perspektif	-10.8927
▁komik	-10.893
▁trafik	-10.8932
▁Piai	-10.8933
▁Bahan	-10.8935
cak	-10.8938
tong	-10.8938
▁Qatar	-10.8938
PU	-10.8938
non	-10.8941
▁ditarik	-10.8944
▁Durian	-10.8944
▁mencuri	-10.8945
▁Ltd	-10.8947
▁Rayuan	-10.8948
rm	-10.8948
ER	-10.8948
ach	-10.8949
▁menyemak	-10.8953
▁Milan	-10.8954
▁ekuiti	-10.8957
▁Joseph	-10.8957
▁diplomatik	-10.8958
RI	-10.8958
▁Ash	-10.896
tul	-10.8961
▁Jelasnya	-10.8963
▁hujah	-10.8965
▁Cat	-10.8965
kil	-10.8965
bil	-10.8967
▁visi	-10.8967
▁diangkat	-10.8967
▁memacu	-10.8967
▁ketegangan	-10.8972
▁didaftarkan	-10.8972
▁Madinah	-10.8972
▁bab	-10.8974
pet	-10.898
▁teratur	-10.8983
▁Lima	-10.8987
▁im	-10.8988
jin	-10.8988
▁AirAsia	-10.8992
▁Il	-10.8993
▁giat	-10.8998
nal	-10.9001
ien	-10.9002
▁selagi	-10.9003
▁Ustaz	-10.9007
▁tempur	-10.9008
▁Peningkatan	-10.9015
▁Lynas	-10.9016
▁says	-10.9019
▁business	-10.9022
▁memupuk	-10.9022
▁keinginan	-10.9022
▁Peranan	-10.9023
tung	-10.9028
▁Char	-10.9032
▁Nov	-10.9034
▁ribuan	-10.9036
mir	-10.9044
▁SST	-10.9045
▁membezakan	-10.9047
▁termaktub	-10.9047
ls	-10.905
▁Real	-10.9054
▁berkempen	-10.9057
▁Kubang	-10.9059
▁Bohemia	-10.9061
amat	-10.9064
▁10,000	-10.9066
▁digantung	-10.9066
▁Bala	-10.9068
▁bercanggah	-10.9071
▁genus	-10.9074
▁roda	-10.9075
▁kemuncak	-10.9076
▁mengejar	-10.9077
ulang	-10.9078
8,000	-10.9078
itan	-10.9078
▁power	-10.908
▁ي	-10.908
▁carta	-10.9084
▁Biro	-10.9086
▁72	-10.9088
imbang	-10.9092
raya	-10.91
▁memperkukuhkan	-10.91
▁Kelima	-10.91
▁Sungguhpun	-10.9102
▁medium	-10.9102
ging	-10.9103
kur	-10.9104
▁Muhamad	-10.9107
▁1962	-10.9109
▁Ras	-10.9112
▁Daniel	-10.9113
▁Mufti	-10.9117
ف	-10.912
angka	-10.9121
▁meringankan	-10.9127
▁Cadangan	-10.9128
▁development	-10.9128
▁Nobel	-10.9129
▁own	-10.9132
▁tanya	-10.9132
▁royalti	-10.9132
▁going	-10.9133
▁Undi	-10.9134
▁event	-10.9135
▁dikategorikan	-10.9137
hailing	-10.9138
▁meja	-10.914
▁modul	-10.914
▁including	-10.9147
▁Surabaya	-10.9152
▁Nas	-10.9157
UT	-10.9158
▁BERSATU	-10.9161
▁Tre	-10.9161
gang	-10.9165
▁four	-10.9167
gah	-10.9167
bay	-10.917
▁Cawangan	-10.9172
▁ular	-10.9176
50,000	-10.9179
Bi	-10.918
▁memperluaskan	-10.9186
▁home	-10.9186
▁ب	-10.9186
▁pondok	-10.9187
▁eksklusif	-10.9187
ngkan	-10.9196
▁betina	-10.9203
hol	-10.9205
▁Kajang	-10.9208
▁mi	-10.9209
▁harmoni	-10.9211
▁hand	-10.9211
▁Mukhriz	-10.9213
▁Batang	-10.9213
▁LRT	-10.9218
▁Langat	-10.9219
▁fizik	-10.922
▁merakamkan	-10.9222
PAN	-10.9222
▁Penulis	-10.9222
▁Indian	-10.9224
▁Santa	-10.9224
wat	-10.9226
Bo	-10.9227
▁satelit	-10.9227
rol	-10.9227
▁ayah	-10.9231
▁nenek	-10.9233
▁Xi	-10.9235
▁Ol	-10.9237
▁Cup	-10.9239
ngk	-10.9243
▁Kg	-10.9243
▁Permatang	-10.9244
raf	-10.9252
▁pesisir	-10.9255
ski	-10.9262
▁Rel	-10.9264
▁keuangan	-10.9269
and	-10.9269
ick	-10.9269
mur	-10.9271
▁PETALING	-10.9274
▁KELIMA	-10.9274
▁sambungan	-10.9275
▁Miss	-10.9278
PI	-10.9279
▁Shar	-10.928
▁tolak	-10.928
LP	-10.9282
ette	-10.9283
▁Rafizi	-10.9284
ulat	-10.9289
▁comp	-10.9289
▁Harta	-10.929
▁Mata	-10.9294
Ro	-10.9301
▁Perempuan	-10.9302
▁statement	-10.9303
▁sekeliling	-10.9304
▁pedagang	-10.9304
▁win	-10.9305
▁another	-10.9305
▁Tol	-10.9306
▁musnah	-10.9311
▁kebolehan	-10.9315
▁Nusantara	-10.932
▁damai	-10.932
▁KLIA	-10.9322
▁1955	-10.9323
▁Pondok	-10.9325
▁person	-10.9328
▁Kh	-10.9329
▁OLEH	-10.933
▁mengandung	-10.9335
▁hidupan	-10.9337
▁berkumpul	-10.9338
buru	-10.9338
▁say	-10.934
▁mustahil	-10.934
▁pengacara	-10.9341
▁seawal	-10.9343
▁free	-10.9343
Semua	-10.9349
side	-10.935
▁solo	-10.9351
▁If	-10.9352
▁Son	-10.9353
▁Kara	-10.9353
▁erti	-10.9354
▁ikatan	-10.9354
rom	-10.9355
ramai	-10.9355
▁difahamkan	-10.9356
jat	-10.9358
▁Lanka	-10.9359
▁Jamal	-10.9361
▁DBKL	-10.9366
▁hab	-10.9367
▁Big	-10.9367
▁Indera	-10.9367
olo	-10.937
▁mutu	-10.9371
▁membebaskan	-10.9371
▁jurutera	-10.9372
▁duti	-10.9372
kannya	-10.9377
rim	-10.938
▁mengaitkan	-10.9381
▁DPR	-10.9389
▁Sp	-10.939
▁Bai	-10.939
▁sukarela	-10.9391
▁~	-10.9393
▁99	-10.9394
▁Tingkatan	-10.9396
▁proaktif	-10.9397
ld	-10.9399
▁perintis	-10.9402
▁mo	-10.9403
▁lembut	-10.9404
CE	-10.9404
sti	-10.9404
▁different	-10.9408
OR	-10.9411
▁w	-10.9411
▁Rio	-10.9411
raj	-10.9412
▁Tapak	-10.9414
10,000	-10.9416
cut	-10.9417
▁minoriti	-10.9421
tt	-10.9424
▁menyasarkan	-10.9425
▁Tel	-10.9427
▁indah	-10.9427
▁berbangsa	-10.9427
▁Ac	-10.9428
▁Adalah	-10.9439
2009	-10.9439
▁Center	-10.9442
tir	-10.9444
▁lokal	-10.9444
▁berapakah	-10.9445
▁dada	-10.9446
▁Lebuh	-10.9449
▁Hor	-10.9452
kala	-10.9452
▁Ulama	-10.9457
▁kementeriannya	-10.9461
▁cari	-10.9461
▁Ag	-10.9465
▁Life	-10.9468
▁Kayu	-10.9468
▁Had	-10.9469
▁jantan	-10.9469
▁mazhab	-10.9471
▁tunggakan	-10.9477
▁mengenalpasti	-10.948
▁Dur	-10.9484
▁diperluaskan	-10.9484
▁membalas	-10.9485
▁Singapore	-10.9488
get	-10.9489
▁susah	-10.949
▁Kamaruddin	-10.949
rn	-10.9492
▁bersebelahan	-10.9495
·	-10.9499
▁memeluk	-10.9501
form	-10.9501
▁ukuran	-10.9504
▁Zar	-10.9504
▁mempamerkan	-10.9511
Din	-10.952
▁sosio	-10.952
▁based	-10.9521
tive	-10.9523
▁Awal	-10.9524
▁Kom	-10.9524
mani	-10.9531
▁68	-10.9532
▁mendarat	-10.9533
▁pemberontakan	-10.9535
▁Ch	-10.9538
ubatan	-10.9538
dha	-10.9539
▁Komunis	-10.9543
▁Penjara	-10.9543
▁bangsawan	-10.9543
▁menyusun	-10.9544
▁kekangan	-10.9548
▁kolam	-10.955
▁Riau	-10.9551
▁Ijazah	-10.9553
▁dirasmikan	-10.9553
▁sy	-10.9553
▁Chinese	-10.9553
▁lirik	-10.9559
cik	-10.9559
awal	-10.956
pres	-10.9561
▁LIS	-10.9561
▁Penang	-10.9567
▁Pin	-10.9571
▁mengumpulkan	-10.9572
court	-10.9572
▁Produk	-10.9573
▁Cre	-10.9573
lie	-10.9573
▁Sama	-10.9574
ump	-10.9577
▁Mau	-10.9579
▁RUU	-10.958
▁Demi	-10.9585
Du	-10.9586
▁YANG	-10.9587
hur	-10.9588
▁TVET	-10.9588
▁binaan	-10.9589
▁diisytiharkan	-10.959
▁sejajar	-10.959
▁Jepang	-10.959
Sebagai	-10.9591
▁Top	-10.9594
▁Gra	-10.9595
▁Indah	-10.9595
die	-10.9605
▁Bangkok	-10.9606
kol	-10.9606
▁Mur	-10.9608
▁penya	-10.9608
ella	-10.9612
▁pastikan	-10.9614
▁1964	-10.9614
▁dimensi	-10.9618
▁gay	-10.962
▁Perintah	-10.9621
▁Education	-10.9621
▁kebangkitan	-10.9621
▁berkemungkinan	-10.9622
Daerah	-10.9623
illa	-10.9626
▁Nar	-10.9631
kot	-10.9632
▁biaya	-10.9633
▁menggerakkan	-10.9638
rid	-10.9638
▁Amat	-10.9639
▁SRC	-10.964
▁dikongsi	-10.964
▁mendadak	-10.9643
▁Green	-10.9643
▁penyebab	-10.9643
esh	-10.9645
▁Gol	-10.9647
▁mendekati	-10.9648
▁dahulunya	-10.9653
▁sesawang	-10.9653
▁pemuzik	-10.9653
▁dikarang	-10.9653
▁ar	-10.9661
bab	-10.9663
ب	-10.9664
▁Edward	-10.9664
▁protes	-10.9665
cel	-10.9667
▁95	-10.9669
▁America	-10.9669
▁tangki	-10.967
▁dirawat	-10.9674
▁motor	-10.9675
▁naib	-10.9675
bong	-10.9676
▁militan	-10.968
▁1940	-10.968
▁Bunga	-10.9682
▁ketujuh	-10.9683
▁Muara	-10.9684
▁dipertimbangkan	-10.969
kov	-10.9691
bro	-10.9691
▁lautan	-10.9694
▁serba	-10.9699
▁town	-10.97
▁Beirut	-10.9701
▁Film	-10.9701
dom	-10.9701
▁kemas	-10.9704
mati	-10.9704
yi	-10.9704
▁BANDAR	-10.9706
▁Artikel	-10.9709
▁Almarhum	-10.9712
▁rupa	-10.9715
▁kebiasaan	-10.972
ens	-10.972
elle	-10.9721
▁„	-10.9722
▁Bendahara	-10.9728
▁racun	-10.9728
▁Hindi	-10.9728
▁Sawit	-10.9729
▁pembuangan	-10.9733
▁berk	-10.9736
▁police	-10.974
▁national	-10.9741
▁perlombongan	-10.9744
▁Segala	-10.9747
▁76	-10.9752
▁Great	-10.9754
▁Yan	-10.9756
▁Tanjong	-10.9756
▁lisan	-10.9759
▁luaran	-10.976
rup	-10.9763
Isu	-10.9764
As	-10.9764
▁Perindustrian	-10.9765
▁fasiliti	-10.9765
▁penjajahan	-10.9767
▁Miri	-10.9769
▁1930	-10.9772
▁AFC	-10.9773
ual	-10.9776
mbo	-10.9776
▁Studies	-10.9777
ati	-10.9777
▁Tal	-10.9778
▁penahanan	-10.9779
DP	-10.9783
▁sibuk	-10.9783
▁Nazi	-10.9786
▁Falsafah	-10.9787
▁diedarkan	-10.9787
uran	-10.9787
▁Wahid	-10.9789
▁ribut	-10.9795
▁pengganti	-10.9797
een	-10.9802
▁Perwakilan	-10.9803
▁Sat	-10.9805
IR	-10.9807
▁mengu	-10.981
▁report	-10.9817
▁Zu	-10.9822
▁RON	-10.9825
▁Sya	-10.9828
▁gua	-10.9828
▁penyu	-10.9828
rad	-10.9828
▁Council	-10.983
▁Lau	-10.983
▁liberal	-10.9832
▁Banjar	-10.9833
▁akhlak	-10.9835
▁FAM	-10.9838
▁mengejutkan	-10.9839
▁telahpun	-10.984
▁Ukraine	-10.984
▁memeriksa	-10.9846
▁pengkritik	-10.9846
▁melatih	-10.9846
▁88	-10.9849
ille	-10.9849
Ter	-10.9853
▁Armenia	-10.9857
▁pembaca	-10.9858
▁ekspor	-10.9861
▁Louis	-10.9863
▁pembuat	-10.9864
▁Pekerjaan	-10.9864
▁rejim	-10.9864
▁Kam	-10.9865
sco	-10.9867
▁laju	-10.9868
▁merekodkan	-10.9869
well	-10.9871
dung	-10.9872
▁Sibu	-10.9873
▁saringan	-10.9873
▁PEN	-10.9874
rasi	-10.9875
idae	-10.9876
▁dimenangi	-10.9879
▁Tibet	-10.9879
▁terendah	-10.9884
▁process	-10.9884
▁garam	-10.9886
▁ganja	-10.9889
▁penjimatan	-10.9889
rek	-10.9889
▁PE	-10.9892
▁ketiadaan	-10.9895
▁Sedunia	-10.9895
▁former	-10.9899
▁justru	-10.9907
▁budi	-10.9907
▁Bat	-10.9909
▁pepejal	-10.9911
▁seakan	-10.9912
▁Tahunan	-10.9913
▁Minta	-10.9914
hai	-10.9915
▁dipasarkan	-10.9916
tab	-10.9919
▁Bou	-10.9919
▁Oxford	-10.9922
▁berguna	-10.9923
▁Bung	-10.9924
▁Ed	-10.9926
cah	-10.9933
▁lebihan	-10.9936
▁Jar	-10.9936
▁Meski	-10.9937
▁menjangkakan	-10.9944
Maritime	-10.9946
JLIS	-10.9949
▁menyarankan	-10.9949
▁sampel	-10.9949
▁Sejumlah	-10.995
▁Jong	-10.9951
▁Cl	-10.9955
It	-10.9955
▁pembersihan	-10.9957
▁Chang	-10.9957
▁BER	-10.9958
▁Semula	-10.9959
rna	-10.9961
umi	-10.9967
▁gram	-10.9969
▁Ve	-10.9969
▁rasional	-10.9971
▁diusahakan	-10.9971
NS	-10.9972
ns	-10.9974
▁penutupan	-10.998
uli	-10.9987
▁asrama	-10.9987
▁JAKARTA	-10.9987
▁berpengalaman	-10.9987
▁republik	-10.9988
▁ratusan	-10.9989
▁want	-10.999
▁terbakar	-10.999
lahan	-10.9991
▁menonton	-10.9993
Bu	-10.9996
▁Meningkatkan	-10.9997
▁Abi	-10.9998
▁great	-10.9999
▁kacang	-11
cin	-11.0001
▁Timor	-11.0002
TM	-11.0002
▁gen	-11.0002
▁berkala	-11.0005
ries	-11.0006
▁Difahamkan	-11.0009
▁Canselor	-11.0009
Bahasa	-11.0014
▁mempercayai	-11.0015
rie	-11.0018
▁tahfiz	-11.002
diri	-11.0024
▁Permaisuri	-11.0026
▁Ur	-11.0026
▁ID	-11.0029
▁pu	-11.0036
▁mengh	-11.0037
▁pengiraan	-11.0037
▁berkuatkuasa	-11.0037
▁Ari	-11.0038
▁dipandang	-11.0042
saran	-11.0042
▁diterjemahkan	-11.0042
ullah	-11.0043
▁berdua	-11.0043
▁merebut	-11.0043
▁pastinya	-11.0046
▁lantikan	-11.0048
▁Os	-11.0049
▁pelatih	-11.0052
▁dibiayai	-11.0059
▁However	-11.0059
ell	-11.0061
▁mirip	-11.0065
▁bahu	-11.0073
▁tulis	-11.0075
▁dicalonkan	-11.0076
▁Lot	-11.0076
Ar	-11.0081
▁memuji	-11.0082
▁member	-11.0086
▁menerapkan	-11.0087
▁upah	-11.0088
ili	-11.009
▁rantaian	-11.0092
▁miliknya	-11.0094
▁Col	-11.0096
murid	-11.0097
ial	-11.0097
Co	-11.0097
▁interaksi	-11.0098
He	-11.0098
dok	-11.01
▁Garis	-11.0111
▁bau	-11.0113
▁semulajadi	-11.0113
▁Cam	-11.0113
alih	-11.0114
▁Speaker	-11.0114
▁Kai	-11.0116
▁terjemahan	-11.012
▁sivil	-11.0126
▁rapi	-11.0127
ط	-11.013
tori	-11.0134
pegawai	-11.0134
▁rumit	-11.0142
lian	-11.0143
lor	-11.0144
▁Boleh	-11.0146
▁rusuhan	-11.0148
▁jihad	-11.0148
▁melambangkan	-11.0148
▁1961	-11.015
dra	-11.0153
▁tinjauan	-11.0153
▁tebal	-11.0154
▁fikiran	-11.0155
Po	-11.0156
▁UiTM	-11.016
150	-11.0163
nce	-11.0163
▁EU	-11.0165
mark	-11.0166
▁konvensional	-11.017
▁biasiswa	-11.017
▁kepulauan	-11.017
▁Gas	-11.0175
▁penjajah	-11.0175
▁memfailkan	-11.0176
ografi	-11.0178
▁em	-11.018
▁tandas	-11.0182
bre	-11.0183
▁Mokhtar	-11.0187
▁triliun	-11.0187
emp	-11.0189
▁Kesan	-11.019
ford	-11.0192
▁betapa	-11.0194
▁Salam	-11.0194
TN	-11.0196
▁siang	-11.0197
▁DNA	-11.0199
▁putus	-11.0201
EL	-11.0203
▁Mam	-11.0209
▁rang	-11.021
lek	-11.021
▁post	-11.0213
aksi	-11.0214
▁dominan	-11.0215
▁implikasi	-11.0215
▁ketidak	-11.0217
▁berundur	-11.0217
br	-11.0219
▁school	-11.0221
▁PATI	-11.0222
▁ditingkatkan	-11.0226
▁Madrasah	-11.0226
iat	-11.0228
▁Golongan	-11.023
▁keistimewaan	-11.0232
▁melampau	-11.0232
field	-11.0233
▁Rus	-11.0236
▁JPN	-11.0236
alat	-11.0236
▁Pradesh	-11.0237
Te	-11.0239
ui	-11.024
▁pemprosesan	-11.0242
▁Hampir	-11.0243
▁banci	-11.0244
▁Mis	-11.0246
▁definisi	-11.0248
▁Up	-11.0249
▁each	-11.0252
▁SA	-11.0252
▁Ai	-11.0253
▁mohon	-11.0253
▁belanjawan	-11.0255
▁Faktor	-11.0256
lee	-11.0258
ute	-11.026
▁terancam	-11.026
▁Blok	-11.0262
▁agihan	-11.0265
▁Olympic	-11.0267
▁tiang	-11.0267
run	-11.0268
▁74	-11.0271
▁mencuba	-11.0271
▁VB	-11.0271
▁cita	-11.0276
2017	-11.0281
▁liabiliti	-11.0282
▁tunggu	-11.0283
▁JAKIM	-11.0283
▁Kad	-11.0284
▁Asisten	-11.0284
▁bulat	-11.0285
▁Azlan	-11.0286
mil	-11.0291
▁Tour	-11.0293
▁hakikat	-11.0293
▁inflasi	-11.0293
ability	-11.0295
▁hidupnya	-11.0296
▁taklimat	-11.0299
▁menembak	-11.0299
▁tersedia	-11.03
▁memetik	-11.03
▁Daya	-11.0302
▁Malam	-11.0303
▁memasak	-11.0305
▁sebut	-11.031
▁menyiarkan	-11.031
▁Tujuan	-11.0311
▁buka	-11.0313
▁Em	-11.0314
Malah	-11.0315
uj	-11.0316
▁persahabatan	-11.0316
▁justeru	-11.0316
▁penyedia	-11.032
▁dibekalkan	-11.0322
▁Universitas	-11.0322
▁lantai	-11.0322
▁gred	-11.0323
▁Hilir	-11.0324
▁dikira	-11.0325
Tidak	-11.0326
▁Kemudahan	-11.0328
▁setara	-11.0332
▁Pameran	-11.0333
▁tersenarai	-11.0333
▁Sek	-11.0338
▁Statistik	-11.0342
с	-11.0345
▁logistik	-11.035
▁Bl	-11.0351
pura	-11.0353
▁Kesalahan	-11.0353
▁Buruh	-11.0354
▁kompetitif	-11.0356
ugh	-11.0357
▁rekaan	-11.0357
▁penyumbang	-11.0362
JA	-11.0363
rk	-11.0363
PM	-11.0367
▁Elizabeth	-11.0367
▁berketurunan	-11.0368
wiki	-11.0368
▁kencing	-11.0373
▁sepasukan	-11.0374
▁1941	-11.0376
tain	-11.0378
yam	-11.0383
hot	-11.0384
▁tren	-11.0386
mbar	-11.0386
▁Club	-11.0387
▁dikembangkan	-11.039
ind	-11.0391
▁PPR	-11.0394
▁eks	-11.0394
▁point	-11.0396
▁Kemuncak	-11.0396
▁dimuktamadkan	-11.0396
▁180	-11.04
▁melepasi	-11.0405
▁Den	-11.0406
▁Cambridge	-11.0407
▁Amalan	-11.0407
▁Analisis	-11.0408
▁beradik	-11.0416
▁kebencian	-11.0419
▁kelengkapan	-11.0419
PK	-11.0419
▁wisata	-11.0422
2015	-11.0423
▁perisai	-11.0424
▁TN	-11.0424
▁Perkembangan	-11.0424
▁Biasanya	-11.0425
▁sifar	-11.0426
▁Dong	-11.0429
TH	-11.0429
▁pertambahan	-11.043
St	-11.0434
▁seksyen	-11.0436
ric	-11.0437
▁bengkel	-11.0442
▁bertarikh	-11.0443
▁every	-11.0443
▁sekalipun	-11.0445
betul	-11.0445
▁kuno	-11.0445
rul	-11.0446
▁Pendapatan	-11.0447
▁Terhadap	-11.0448
▁nad	-11.0449
▁Suatu	-11.045
▁06	-11.045
▁berisi	-11.045
ikat	-11.0456
о	-11.046
▁Hall	-11.0461
▁Nad	-11.0465
▁Pergerakan	-11.0465
▁CNN	-11.0465
▁English	-11.0469
▁Chung	-11.047
▁Siew	-11.0472
▁Perlu	-11.0473
gue	-11.0475
▁ت	-11.0478
pati	-11.0481
▁pesawah	-11.0482
▁kecenderungan	-11.0482
mpi	-11.0484
peri	-11.0487
▁pusaka	-11.0488
▁without	-11.0491
▁agung	-11.0498
▁ne	-11.0498
▁molekul	-11.0499
▁KPK	-11.0502
▁put	-11.0506
▁tasik	-11.0507
▁mengurangi	-11.0511
▁merawat	-11.0512
▁lapor	-11.0512
▁Memang	-11.0515
▁Pang	-11.0518
▁jerebu	-11.0522
▁perasmian	-11.0522
▁menyatukan	-11.0522
▁Barang	-11.0523
▁Ishak	-11.0523
▁ingatan	-11.0525
▁murni	-11.0528
▁terminal	-11.0528
▁cermin	-11.0534
nn	-11.0535
▁terbanyak	-11.0535
▁Maju	-11.0536
▁Post	-11.0536
▁seringkali	-11.0537
met	-11.0537
▁Mary	-11.0539
▁Cheng	-11.0542
▁meyakinkan	-11.0545
▁Windows	-11.0551
▁Gambar	-11.0553
▁Peru	-11.0555
lap	-11.0559
▁sawah	-11.0561
▁77	-11.0563
▁berpangkalan	-11.0563
▁diterajui	-11.0563
▁resolusi	-11.0563
▁98	-11.0563
mam	-11.0567
▁Bekalan	-11.0569
2012	-11.0569
▁unggul	-11.057
▁01	-11.0573
▁Formula	-11.0575
▁skop	-11.0576
▁kelurahan	-11.0578
▁sampingan	-11.0578
ich	-11.0584
▁FGV	-11.0586
▁CO	-11.0586
▁Anjing	-11.0586
▁Us	-11.0588
▁imam	-11.0592
250	-11.0593
oid	-11.0593
▁Pop	-11.0598
sayuran	-11.06
▁penentuan	-11.06
unt	-11.0601
▁liter	-11.0602
ej	-11.0603
imi	-11.0604
rian	-11.0605
▁Menterinya	-11.0605
PKR	-11.0605
▁agresif	-11.0609
has	-11.061
AG	-11.0611
dil	-11.0614
▁Bus	-11.0614
▁Enam	-11.0614
▁SEA	-11.0615
Untuk	-11.0617
hab	-11.0619
▁Bilik	-11.0622
▁Darjah	-11.0623
▁Sum	-11.0623
▁gerai	-11.0627
▁partai	-11.063
pok	-11.0634
▁munasabah	-11.0638
▁memburu	-11.0639
▁litar	-11.064
stra	-11.0647
▁menyebutkan	-11.0648
▁Rawa	-11.065
▁Komisioner	-11.065
▁bercampur	-11.0651
▁ser	-11.0652
▁lompat	-11.0659
▁integrasi	-11.0666
▁UM	-11.0669
dengan	-11.0671
▁mele	-11.0672
rio	-11.0673
▁menc	-11.0673
▁Bersepadu	-11.0674
▁penangkapan	-11.0674
▁penjanaan	-11.0676
Justeru	-11.0678
LE	-11.0679
▁dibuktikan	-11.068
main	-11.068
▁Boy	-11.0685
▁73	-11.0689
tol	-11.0689
▁spekulasi	-11.0691
pes	-11.0691
ever	-11.0692
bangsa	-11.0696
▁Nordin	-11.07
▁terma	-11.0702
▁melakukannya	-11.0704
ally	-11.0706
▁dimaksudkan	-11.0708
▁peka	-11.071
▁bumbung	-11.0715
▁diajar	-11.0716
▁Besi	-11.0718
sem	-11.0719
▁dengar	-11.0721
▁General	-11.0722
▁Majoriti	-11.0723
▁menguntungkan	-11.0727
▁dihormati	-11.0727
▁material	-11.0729
▁Teo	-11.073
▁radikal	-11.0732
for	-11.0734
▁beribu	-11.0735
▁deposit	-11.074
▁sasar	-11.0744
▁Ringgit	-11.0744
ium	-11.0745
▁1958	-11.0745
▁Town	-11.0746
▁came	-11.0749
▁pentingnya	-11.0749
▁Perpaduan	-11.0754
▁Serangan	-11.0762
bentuk	-11.0763
▁2003,	-11.0764
▁96	-11.0764
tta	-11.0767
▁sepertimana	-11.0774
▁Jurnal	-11.0774
▁penyerahan	-11.0774
▁Puteh	-11.0774
▁Sah	-11.0775
To	-11.0776
back	-11.078
▁dasarnya	-11.0781
sky	-11.0782
▁Izzah	-11.0787
▁Angkasa	-11.0788
▁Cap	-11.0793
▁dilanjutkan	-11.0798
Walaupun	-11.08
▁tengok	-11.0804
▁selidik	-11.081
bagai	-11.081
AC	-11.0815
▁Young	-11.0815
▁ketelusan	-11.0815
▁diiringi	-11.0816
▁Susulan	-11.0816
▁Act	-11.082
ph	-11.0824
kha	-11.0825
▁seumpama	-11.0827
▁puteri	-11.0834
▁SPM	-11.0834
ibu	-11.0837
oto	-11.084
▁Records	-11.0842
▁71	-11.0842
▁ais	-11.0843
bun	-11.0845
▁Maktab	-11.0848
▁Mai	-11.0849
▁Suci	-11.0851
▁pelupusan	-11.0851
▁Penilaian	-11.0851
▁Nak	-11.0854
▁tawar	-11.0854
▁Dun	-11.0855
▁sempit	-11.0858
▁case	-11.0861
▁gunakan	-11.0862
▁PETRONAS	-11.0863
▁yuran	-11.0864
tip	-11.0867
▁Bern	-11.0868
Ho	-11.0868
fir	-11.0869
My	-11.0869
Apabila	-11.0869
▁Menyediakan	-11.0869
town	-11.0873
▁kekeliruan	-11.0875
▁jisim	-11.0875
▁bimbingan	-11.0876
▁BBC	-11.088
▁Kejuruteraan	-11.0881
▁dicatatkan	-11.0881
▁tutup	-11.0883
sp	-11.0884
▁Angeles	-11.0884
ms	-11.0887
▁Inovasi	-11.0887
▁study	-11.0887
▁won	-11.0887
So	-11.0888
▁keretapi	-11.0889
mai	-11.0892
▁Court	-11.0893
▁berleluasa	-11.0893
fo	-11.0895
▁binatang	-11.0895
▁disebutkan	-11.0899
▁Bogor	-11.0901
▁Bell	-11.0901
▁pemerhatian	-11.0905
м	-11.0905
lima	-11.0907
[	-11.0908
▁ditembak	-11.091
▁Baling	-11.0911
▁taksiran	-11.0911
▁agen	-11.0914
▁Hay	-11.0915
hkan	-11.0916
▁really	-11.0922
▁memuaskan	-11.0923
pemimpin	-11.0924
„	-11.0924
$1	-11.0924
pusat	-11.0927
paru	-11.0929
▁Cas	-11.0929
▁Seminar	-11.0929
▁tukang	-11.093
▁Tempoh	-11.093
▁called	-11.0934
ving	-11.0939
▁pria	-11.0946
▁600	-11.0949
▁butiran	-11.095
▁number	-11.0952
lok	-11.0953
▁Selanjutnya	-11.0953
▁diwartakan	-11.0953
▁gender	-11.0955
▁ditadbir	-11.0957
rif	-11.0957
▁Grab	-11.096
cor	-11.096
▁tenang	-11.0962
ele	-11.0963
▁membersihkan	-11.0966
▁Buah	-11.0967
sebab	-11.0967
Kementerian	-11.0968
▁Teknikal	-11.0969
▁tugasan	-11.0969
▁Tai	-11.0971
▁kecemerlangan	-11.0972
▁robot	-11.0972
idah	-11.0973
▁Rose	-11.0976
▁penetapan	-11.0978
▁Publications	-11.0979
lli	-11.098
▁poli	-11.0984
▁Komanwel	-11.0984
▁Kazakhstan	-11.0984
▁FM	-11.0984
▁Kel	-11.0984
▁RMKe	-11.0985
ess	-11.0985
▁penganjur	-11.0987
▁id	-11.0987
▁patung	-11.0989
▁Network	-11.099
▁der	-11.099
▁besarnya	-11.0993
▁Khairy	-11.0995
▁gergasi	-11.0996
▁selebihnya	-11.1002
merta	-11.1002
▁Hati	-11.1006
ث	-11.1007
▁Penubuhan	-11.1012
▁Sambutan	-11.1014
yas	-11.1014
vel	-11.1014
▁Pendekatan	-11.1017
aran	-11.102
▁51%	-11.1021
▁metrik	-11.1027
▁demam	-11.1029
▁Bapa	-11.103
ized	-11.1032
▁Pahat	-11.1034
fon	-11.1035
TK	-11.1037
▁president	-11.1038
tual	-11.1038
▁Farid	-11.1038
▁minda	-11.1038
▁Direktur	-11.1038
TS	-11.1039
▁diganti	-11.1041
cle	-11.1042
tani	-11.1044
▁mengekang	-11.1044
▁penggabungan	-11.1045
▁kian	-11.1045
▁jati	-11.1049
▁Indo	-11.105
esti	-11.1051
▁membiarkan	-11.1057
▁mengunjungi	-11.1057
▁community	-11.1057
▁Puchong	-11.1057
▁sekalian	-11.1058
▁khat	-11.1059
▁Des	-11.1061
▁past	-11.1061
▁Mazlan	-11.1064
▁family	-11.1069
▁Tem	-11.1073
▁berapi	-11.1074
Oleh	-11.1075
▁didalam	-11.1078
▁perpecahan	-11.1081
▁sarang	-11.1081
▁Pam	-11.1082
▁Roman	-11.1082
▁asap	-11.1082
▁digabungkan	-11.1084
▁gagasan	-11.1084
▁roti	-11.1085
▁party	-11.1085
▁peti	-11.1085
▁kambing	-11.1087
▁pengamal	-11.1087
heim	-11.1088
▁Kampus	-11.1088
▁kubur	-11.1092
▁mendatang	-11.1092
ij	-11.1092
▁Management	-11.1099
▁kawal	-11.1103
bulan	-11.1105
▁company	-11.1106
ukan	-11.1107
CO	-11.1112
▁sukarelawan	-11.1119
▁syarak	-11.1119
▁penanda	-11.112
rahan	-11.112
▁things	-11.1124
fat	-11.1125
▁AP	-11.1125
▁Mr	-11.1127
ج	-11.1129
▁dukungan	-11.113
zer	-11.1131
uti	-11.1133
▁Not	-11.1133
▁terhasil	-11.1138
▁1942	-11.114
▁Ay	-11.1141
▁Paling	-11.1142
▁berteraskan	-11.1142
▁sebentar	-11.1142
▁bersyukur	-11.1143
▁Abbas	-11.1145
▁Akibatnya	-11.1146
kor	-11.1147
▁term	-11.1147
▁Lain	-11.1148
▁menghidap	-11.1148
ON	-11.1152
gin	-11.1154
pri	-11.1156
jadi	-11.1157
eks	-11.1157
▁3,000	-11.1159
▁siswazah	-11.1159
▁Free	-11.116
▁Bangi	-11.1161
▁Plan	-11.1162
▁Corp	-11.1165
▁AB	-11.1166
▁Yi	-11.1167
%	-11.1175
▁Blue	-11.1175
▁Lar	-11.1178
▁pemakanan	-11.118
▁seminar	-11.118
▁Ob	-11.118
ـ	-11.1185
▁Sul	-11.1186
▁line	-11.1188
▁biarpun	-11.1192
▁seragam	-11.1192
▁seharian	-11.1195
▁lubang	-11.1195
zz	-11.1196
▁kg	-11.1197
bila	-11.12
▁TNB	-11.1202
termasuk	-11.1202
▁Peri	-11.1203
▁Gobind	-11.1204
▁WhatsApp	-11.1204
Lo	-11.1205
▁TAN	-11.1206
▁mendahului	-11.121
▁netizen	-11.121
▁mengisahkan	-11.1216
▁fe	-11.122
▁1946	-11.122
▁penjenayah	-11.1223
mos	-11.1223
fur	-11.1224
▁Kur	-11.123
▁Kulim	-11.1231
▁issue	-11.1234
▁dipaksa	-11.1235
▁added	-11.1236
▁penggambaran	-11.1241
▁olahraga	-11.1241
▁Serdang	-11.1242
▁show	-11.1247
▁membiak	-11.1247
▁sedih	-11.1249
▁muatan	-11.1251
Dengan	-11.1254
▁Pener	-11.1259
▁gitar	-11.1259
LAN	-11.126
teng	-11.1261
▁Mega	-11.1264
▁membakar	-11.1266
WA	-11.1268
▁Warna	-11.1271
▁min	-11.1271
▁Cur	-11.1272
▁Maj	-11.1272
TB	-11.1272
▁Sai	-11.1272
year	-11.1273
▁kantor	-11.1275
▁alamat	-11.1276
▁next	-11.1279
▁audio	-11.1279
▁Seoul	-11.1281
▁serangga	-11.1281
▁kesepakatan	-11.1285
▁800	-11.1285
▁Akhbar	-11.1285
▁cat	-11.1287
▁Hill	-11.1291
pul	-11.1292
▁By	-11.1292
▁intelektual	-11.1297
▁Finland	-11.1298
▁Jalur	-11.1299
AU	-11.1302
Hi	-11.1304
▁visa	-11.1304
oni	-11.1305
▁holistik	-11.131
▁penduduknya	-11.131
Hari	-11.1311
▁mis	-11.1312
gau	-11.1316
ward	-11.1316
kis	-11.1316
▁terbaharu	-11.1318
ngan	-11.1321
▁berunding	-11.133
▁menentu	-11.1331
▁dibaca	-11.1332
▁Memandangkan	-11.1333
▁sesungguhnya	-11.1335
MM	-11.1338
gre	-11.134
▁patuh	-11.1342
▁That	-11.1344
▁pensijilan	-11.1347
▁diharap	-11.1351
▁Peti	-11.1353
▁kesinambungan	-11.1354
▁memorandum	-11.1354
▁Adi	-11.1357
▁1954	-11.1359
▁penyatuan	-11.136
zy	-11.136
ID	-11.1361
▁Jati	-11.1363
▁tanggapan	-11.1364
▁start	-11.1366
▁Honda	-11.1367
▁mengalu	-11.1368
▁1956	-11.1371
▁mod	-11.1371
▁Kejayaan	-11.1373
▁keahlian	-11.1373
▁Pala	-11.1376
Ketika	-11.1377
▁diisi	-11.1379
▁Kangsar	-11.1379
lt	-11.1381
▁Zam	-11.1382
▁bawang	-11.1382
▁Panas	-11.1385
▁jenazah	-11.1385
▁berangkat	-11.1387
▁role	-11.1387
▁luka	-11.1388
▁Yong	-11.1388
▁Ong	-11.139
▁lucah	-11.1392
▁peranginan	-11.1393
pulau	-11.1394
ern	-11.1397
Pas	-11.1397
▁panchayat	-11.1398
▁kemarahan	-11.1398
▁pengakuan	-11.1398
fil	-11.14
▁101	-11.1402
ndi	-11.1405
▁Tor	-11.1407
▁Yusoff	-11.1408
dol	-11.141
▁memasang	-11.1411
▁Buloh	-11.1411
▁Nah	-11.1412
▁pemberontak	-11.1412
▁Qi	-11.1414
▁form	-11.1416
▁sebatian	-11.1417
▁lorong	-11.1417
▁Kapten	-11.1417
tok	-11.1423
▁mengenainya	-11.1426
▁sup	-11.1427
▁organik	-11.1427
ign	-11.1427
▁meminda	-11.1429
lot	-11.1437
▁silam	-11.1438
usul	-11.1439
▁menciptakan	-11.1439
▁Waktu	-11.1441
▁selebriti	-11.1442
▁Terminal	-11.1442
▁pengajar	-11.1443
▁impian	-11.1443
kos	-11.1444
▁Adat	-11.1447
rkan	-11.1448
▁dampak	-11.1449
▁Senator	-11.1452
▁members	-11.1455
over	-11.1456
DI	-11.1459
▁Damansara	-11.1461
▁kemakmuran	-11.1461
▁penuntut	-11.1462
ene	-11.1463
PC	-11.1464
PB	-11.1464
▁Sony	-11.1464
7,000	-11.1465
▁Kualiti	-11.1467
▁dimanfaatkan	-11.1468
▁kerjayanya	-11.1468
▁Mustafa	-11.1469
▁BA	-11.1473
▁manga	-11.1479
▁Society	-11.148
mor	-11.1481
▁Rawatan	-11.1481
▁due	-11.1482
▁demonstrasi	-11.1486
▁berikan	-11.1488
nad	-11.1489
▁978	-11.149
ura	-11.1491
Hu	-11.1491
sukan	-11.1491
▁susunan	-11.1491
▁Saad	-11.1492
▁02	-11.1493
▁1920	-11.1494
▁Kisah	-11.1496
▁membaik	-11.1497
▁kembar	-11.1499
▁RA	-11.1499
▁erat	-11.15
▁Sak	-11.1505
▁pembakaran	-11.1506
ح	-11.1511
▁perjumpaan	-11.1512
bank	-11.1514
▁name	-11.1515
▁imp	-11.1515
▁Monte	-11.1518
▁Majistret	-11.1518
CI	-11.152
▁berperang	-11.1521
dio	-11.1524
▁PERSIDANGAN	-11.1525
tanah	-11.1526
▁inspirasi	-11.1531
▁2021	-11.1533
▁dipertingkatkan	-11.1534
▁bersaiz	-11.1538
▁saw	-11.1538
▁pasukannya	-11.154
▁following	-11.1541
▁target	-11.1544
▁kesemuanya	-11.1545
▁Lampung	-11.1545
▁around	-11.1549
▁pan	-11.1549
▁Nord	-11.1552
yer	-11.1556
▁mewajibkan	-11.1557
▁Japan	-11.1558
▁Adapun	-11.156
cen	-11.1561
udi	-11.1562
▁SME	-11.1569
▁Kasih	-11.157
▁jangkaan	-11.1571
chen	-11.1572
▁kargo	-11.1578
▁Science	-11.1583
uf	-11.1588
▁relatif	-11.159
▁saksama	-11.1595
▁Home	-11.1596
▁misteri	-11.1597
▁Apple	-11.1599
BC	-11.1599
▁tertarik	-11.1602
▁AL	-11.1603
Akta	-11.1608
▁digalakkan	-11.1608
▁berpecah	-11.1608
▁jumpa	-11.1609
RO	-11.1609
▁Muslims	-11.1611
▁97	-11.1613
mb	-11.1613
▁elit	-11.1614
▁Cro	-11.1615
▁tercatat	-11.1621
▁perjudian	-11.1628
gai	-11.1628
▁nafas	-11.1634
ED	-11.1636
▁Fo	-11.164
▁decision	-11.1641
▁tepung	-11.1641
▁mengukur	-11.1641
▁Chee	-11.1643
▁Inisiatif	-11.1647
▁penutup	-11.1649
▁Bee	-11.1651
▁Moh	-11.1654
dul	-11.1657
▁Business	-11.166
▁Dah	-11.1661
▁perladangan	-11.1666
▁gelanggang	-11.1666
▁78	-11.1669
ile	-11.167
BU	-11.1671
▁Association	-11.1673
▁mengulangi	-11.1677
▁kesimpulan	-11.1679
▁Berlin	-11.1684
▁peran	-11.1685
PD	-11.1686
▁mas	-11.1687
Allah	-11.1689
▁Tambahnya	-11.1692
▁abang	-11.1693
▁Khairul	-11.1695
</	-11.1696
▁79	-11.1697
fan	-11.1699
▁Haz	-11.1701
wal	-11.1702
▁menghadap	-11.1703
▁ten	-11.1703
cas	-11.1706
Do	-11.1707
nor	-11.1707
`	-11.1708
gus	-11.171
▁general	-11.1711
▁mandi	-11.1717
▁Penyakit	-11.1718
▁dipetik	-11.1719
▁Kurang	-11.172
▁Yunus	-11.1721
▁berpandangan	-11.1726
▁war	-11.1727
▁Sad	-11.1728
▁dendam	-11.1729
▁mengungkapkan	-11.173
▁diduduki	-11.1732
▁Seine	-11.1737
▁terpenting	-11.1738
SPR	-11.1743
▁Sepang	-11.1744
▁harafiah	-11.1745
▁dividen	-11.1745
KT	-11.1745
▁Tony	-11.1746
▁membesar	-11.1746
kti	-11.1748
▁Ayub	-11.1749
▁Alex	-11.175
▁penglihatan	-11.1751
▁Single	-11.1752
PBB	-11.1754
▁IN	-11.1754
uc	-11.1755
▁bakar	-11.1756
▁Tetap	-11.1756
pos	-11.1756
▁ع	-11.1758
▁blog	-11.176
MT	-11.1762
▁mene	-11.1764
▁Bani	-11.1766
band	-11.177
▁Barcelona	-11.1771
▁lanjutan	-11.1774
▁Panduan	-11.1779
▁budak	-11.178
ations	-11.1782
SE	-11.1787
▁pembaikan	-11.1791
▁Pertandingan	-11.1797
▁terpakai	-11.1797
Mak	-11.18
ree	-11.1801
▁Bulgaria	-11.1803
▁berlandaskan	-11.1803
▁dijanjikan	-11.1804
rel	-11.1804
▁Keong	-11.1807
▁1949	-11.1807
▁Kedai	-11.1808
▁merebak	-11.1811
cang	-11.1813
▁protein	-11.1814
▁Technology	-11.1817
▁istiadat	-11.1817
faktor	-11.1817
▁land	-11.1819
▁senyap	-11.1824
ole	-11.1825
▁Christian	-11.1826
▁haba	-11.1827
▁unjuran	-11.183
▁Open	-11.1831
▁head	-11.1833
▁	-11.1833
▁Are	-11.1834
▁dinikmati	-11.1836
▁August	-11.1836
▁bedah	-11.184
▁Kra	-11.184
tau	-11.184
▁players	-11.1841
▁dikuatkuasakan	-11.1843
▁militer	-11.1843
▁dikenalpasti	-11.1843
▁penyiaran	-11.1846
oleh	-11.1846
▁dosa	-11.1849
yat	-11.1849
▁Tuah	-11.185
Pro	-11.1852
▁inklusif	-11.1852
▁Madya	-11.1852
▁President	-11.1854
▁Asal	-11.1855
▁mempercepatkan	-11.1855
▁penubuhannya	-11.1856
zim	-11.1856
▁ditakrifkan	-11.1856
vor	-11.1857
▁Berhubung	-11.1858
▁kom	-11.1859
▁Kah	-11.1861
bed	-11.1862
▁IPT	-11.1862
▁lebat	-11.1866
ative	-11.1869
▁membebankan	-11.1869
▁terkorban	-11.1869
▁Bugis	-11.187
▁Au	-11.187
▁pinggang	-11.1871
▁teguh	-11.1871
▁important	-11.1871
▁Budi	-11.1874
nie	-11.1874
▁empangan	-11.1876
▁skor	-11.1878
lock	-11.1878
▁47%	-11.188
▁من	-11.188
▁leg	-11.1887
akhir	-11.1888
▁perlaksanaan	-11.1889
▁terjual	-11.1891
▁Jer	-11.1891
PAS	-11.1895
▁memantapkan	-11.1896
▁Kejadian	-11.19
▁dibesarkan	-11.1902
▁dikebumikan	-11.1903
▁Asing	-11.1903
▁49%	-11.1905
▁bo	-11.1905
т	-11.1911
ming	-11.1917
kiri	-11.1919
▁87	-11.192
▁tafsir	-11.192
KA	-11.1922
▁Kak	-11.1925
wilayah	-11.1925
▁Asasi	-11.1928
▁pelaksanaannya	-11.1928
▁82	-11.1932
▁Public	-11.1935
20,000	-11.1938
▁Hab	-11.1939
▁does	-11.1941
pai	-11.1943
▁kesal	-11.1944
▁Rai	-11.1947
ansur	-11.1949
▁sal	-11.1952
▁EXCO	-11.1956
ifikasi	-11.1956
▁pil	-11.1958
▁Sik	-11.1959
Fi	-11.1959
▁Hindia	-11.196
▁Isi	-11.1962
▁Jack	-11.1962
▁mementingkan	-11.1962
▁dinasti	-11.1963
▁interest	-11.1963
Ri	-11.1967
▁terbatas	-11.197
▁sistematik	-11.1972
▁Rais	-11.1974
▁diduga	-11.1981
▁satunya	-11.1982
▁dituntut	-11.1983
▁IPOH	-11.1983
▁Razali	-11.1983
▁Liew	-11.1985
ы	-11.1989
▁Kehakiman	-11.1989
▁Kelayakan	-11.1989
▁keseimbangan	-11.1989
▁Jamaluddin	-11.199
▁kenyataannya	-11.199
▁Asri	-11.1991
▁perundingan	-11.1992
▁Cuba	-11.1998
▁project	-11.1999
▁dibubarkan	-11.2003
▁Bosnia	-11.2003
nic	-11.2004
▁left	-11.2005
▁praktikal	-11.2006
▁Gil	-11.2008
▁pemburu	-11.2008
▁With	-11.2009
▁Iklim	-11.2009
▁perlakuan	-11.2009
▁Loire	-11.201
stri	-11.201
▁lemas	-11.2011
▁multi	-11.2016
▁Sunda	-11.2016
CP	-11.2017
SR	-11.2023
▁mengorbankan	-11.2023
▁diteliti	-11.2023
▁Tujuh	-11.2024
mpun	-11.2024
я	-11.2029
▁terpencil	-11.2029
▁viral	-11.203
▁money	-11.203
▁call	-11.2032
▁menyenaraikan	-11.2033
TO	-11.2033
▁bonus	-11.2033
▁sulungnya	-11.2036
▁Jean	-11.2037
▁March	-11.2038
ped	-11.2039
▁Sebagaimana	-11.2045
▁app	-11.2046
▁Fer	-11.2048
▁Sil	-11.2048
▁Mandarin	-11.205
▁Tahap	-11.2051
▁Mall	-11.2054
▁cost	-11.2056
▁borang	-11.2057
▁Versi	-11.2059
mari	-11.206
▁cm	-11.2061
▁penamaan	-11.2062
▁Win	-11.2063
▁manakah	-11.2064
▁WIB	-11.2065
kum	-11.2065
▁bangun	-11.2066
▁Saiful	-11.2069
▁hibah	-11.207
ese	-11.2071
▁tercapai	-11.2071
▁Joe	-11.2074
▁bakteria	-11.2074
▁untung	-11.2076
▁menceburi	-11.2077
▁pesara	-11.2078
▁Report	-11.2079
rut	-11.2079
kit	-11.2082
▁Schleswig	-11.2083
▁Ops	-11.2085
▁Dzulkefly	-11.209
▁sejagat	-11.209
eni	-11.2091
▁diantara	-11.2091
▁Skuad	-11.2096
▁Lai	-11.2097
▁sekitarnya	-11.2098
▁Tommy	-11.2098
▁menyerah	-11.2102
▁RTM	-11.2102
▁panggung	-11.2104
FA	-11.2105
tugas	-11.2105
▁kitaran	-11.2106
▁Ibnu	-11.2107
col	-11.2108
ert	-11.2108
▁lazim	-11.2108
▁DiRaja	-11.2109
▁Pembangkang	-11.2111
▁better	-11.2113
▁League	-11.2116
▁produktif	-11.2117
▁Juni	-11.2118
▁Suara	-11.2118
▁tani	-11.2118
badan	-11.2121
▁Chile	-11.2122
▁persefahaman	-11.2124
▁radar	-11.2125
Jangan	-11.2125
▁Pertumbuhan	-11.2125
▁Makkah	-11.2126
▁terse	-11.2126
▁menambahbaik	-11.2126
▁pohon	-11.2127
▁basikal	-11.2131
LA	-11.2133
tom	-11.2133
▁Pauh	-11.2134
zin	-11.2135
▁real	-11.2136
▁diatur	-11.2136
▁Kho	-11.2137
▁memecahkan	-11.2137
▁Pencapaian	-11.2138
▁Uighur	-11.2138
▁buangan	-11.2138
▁kerabat	-11.2138
▁kesulitan	-11.2144
▁pribadi	-11.2144
bach	-11.2145
▁roh	-11.2147
meter	-11.2149
dur	-11.2151
▁Hen	-11.2153
▁anime	-11.2155
▁Rosli	-11.2155
aktiviti	-11.2155
▁religious	-11.2157
▁Lahad	-11.2157
hay	-11.2157
▁cetak	-11.2157
ith	-11.2158
▁bersempena	-11.2158
▁Rahmat	-11.2159
▁Kasar	-11.216
▁debat	-11.2165
▁kekosongan	-11.2165
▁riba	-11.2169
ds	-11.2169
▁sw	-11.2171
▁INDUSTRI	-11.2172
▁menggariskan	-11.2172
▁rezeki	-11.2172
▁society	-11.2172
▁Darussalam	-11.2172
▁2030	-11.2172
▁Frank	-11.2174
▁Bio	-11.2176
nom	-11.2178
▁astronomi	-11.2178
▁terkesan	-11.2181
AD	-11.2184
▁Jordan	-11.2185
▁diharamkan	-11.2185
▁wawancara	-11.2192
▁53%	-11.2194
▁memuatkan	-11.2194
gung	-11.2196
BM	-11.2197
Negara	-11.2198
▁mengikat	-11.2201
sumber	-11.2202
▁merangkap	-11.2204
▁berkurang	-11.2205
▁pelayaran	-11.2205
bb	-11.2205
▁maya	-11.2206
▁sur	-11.2206
▁tiap	-11.2211
▁Rah	-11.2212
▁Economic	-11.2213
▁perdebatan	-11.2213
▁tebing	-11.2213
rot	-11.2217
▁diatasi	-11.2217
▁barulah	-11.2219
NI	-11.222
▁Pun	-11.2221
▁Brown	-11.2221
▁kilat	-11.2227
▁Teng	-11.2232
▁berpatutan	-11.2233
▁ummah	-11.2233
▁Res	-11.2236
▁memotong	-11.224
▁pengumpulan	-11.224
▁pelawat	-11.2241
▁piawai	-11.2243
China	-11.2243
▁Andre	-11.2243
▁berkomunikasi	-11.2248
▁Jasin	-11.2249
EP	-11.2252
▁rela	-11.2252
▁terjamin	-11.2254
900	-11.2256
▁gemar	-11.2256
lad	-11.2257
ender	-11.2257
tsu	-11.226
▁menjurus	-11.2261
▁secepat	-11.2262
pil	-11.2262
▁Ghani	-11.2266
▁Acara	-11.2266
▁Guinea	-11.2268
▁Wira	-11.2268
tter	-11.2272
▁awan	-11.2273
▁DKI	-11.2277
▁ge	-11.2278
lusi	-11.2279
jung	-11.228
п	-11.228
▁gr	-11.2283
II	-11.2283
dh	-11.2283
kampung	-11.2286
▁menasihatkan	-11.2288
▁pagar	-11.2289
▁reman	-11.2291
▁pilih	-11.2293
▁meneroka	-11.2293
▁big	-11.2295
▁ان	-11.2295
▁JOHOR	-11.2295
▁Wakaf	-11.2295
▁berkemahiran	-11.2296
▁Bendera	-11.2296
KI	-11.2299
▁Af	-11.23
beradik	-11.23
▁Asian	-11.23
ified	-11.2301
ET	-11.2302
▁mengelirukan	-11.2302
2016	-11.2303
▁Ariff	-11.2305
▁Kutai	-11.2307
▁legal	-11.2307
▁Angel	-11.2308
ical	-11.2308
▁malu	-11.2308
▁mensasarkan	-11.2309
▁Link	-11.231
▁days	-11.2313
▁terselamat	-11.2316
▁Villa	-11.2316
▁beredar	-11.2316
▁item	-11.2318
▁PTS	-11.2319
won	-11.232
mik	-11.2321
▁dialek	-11.2322
▁Zainuddin	-11.2324
▁Ul	-11.2324
mpu	-11.2329
▁memerintahkan	-11.2336
▁menyalahkan	-11.2337
▁dapati	-11.2339
sai	-11.2341
nin	-11.235
▁diterapkan	-11.2351
▁takaful	-11.2351
mang	-11.2352
nak	-11.2352
▁Kul	-11.2354
▁canggih	-11.2358
▁pucuk	-11.2358
▁Artis	-11.236
▁Hol	-11.2364
▁Aquitaine	-11.2364
▁River	-11.2365
jenis	-11.2368
syen	-11.2369
▁dipatuhi	-11.2371
▁pemerhati	-11.2372
wakil	-11.2375
▁live	-11.2377
▁paru	-11.2377
▁meninjau	-11.2379
▁tentunya	-11.2382
hil	-11.2383
▁beramai	-11.2384
▁Nusa	-11.2385
gli	-11.2386
▁kadangkala	-11.2386
▁pasport	-11.2387
rem	-11.2388
▁class	-11.2392
▁suruhanjaya	-11.2392
▁akidah	-11.2392
▁52%	-11.2393
▁Tele	-11.2399
▁portfolio	-11.2399
dapat	-11.2401
▁saudaranya	-11.2402
char	-11.2403
▁1953	-11.2404
▁Penye	-11.2406
inda	-11.2407
▁Perancangan	-11.2407
▁Camp	-11.2412
▁Khidmat	-11.2413
teri	-11.2414
▁tidaklah	-11.2417
▁Padi	-11.2419
top	-11.2421
▁berbuka	-11.2422
zir	-11.2424
LI	-11.2426
▁cakera	-11.2427
logi	-11.2427
lasi	-11.2428
pre	-11.2428
Orang	-11.2436
▁saying	-11.2436
▁KBS	-11.2436
▁DVD	-11.2441
▁hamil	-11.2443
167	-11.2443
▁impor	-11.2443
▁didorong	-11.2445
▁Tin	-11.2449
▁SPAD	-11.245
▁81	-11.2452
▁Smith	-11.2452
▁sekutu	-11.2454
▁Jose	-11.2454
▁KOMPAS	-11.2455
▁Prosiding	-11.2455
▁pematuhan	-11.2455
▁Makmur	-11.2456
▁fiqh	-11.2456
▁Madrid	-11.2456
▁opera	-11.246
▁Keluaran	-11.246
▁Aliran	-11.246
▁Syiah	-11.2464
▁Dewa	-11.2465
в	-11.2468
▁Waytha	-11.2469
▁Art	-11.247
▁telinga	-11.247
▁menggugat	-11.247
▁komersil	-11.2476
Go	-11.2479
▁Kod	-11.2482
vers	-11.2482
▁penularan	-11.2483
▁dipersembahkan	-11.2487
yun	-11.2488
ichi	-11.2488
▁pam	-11.2488
KAN	-11.2489
▁diagihkan	-11.249
▁Hot	-11.2492
▁meluaskan	-11.2492
ons	-11.2495
▁several	-11.2497
▁Water	-11.2503
hl	-11.2503
▁kuantiti	-11.2504
▁persaraan	-11.2504
▁KEENAM	-11.2504
▁nikah	-11.2507
▁uji	-11.2507
leg	-11.2508
▁Prime	-11.2509
laku	-11.2511
▁dilepaskan	-11.2512
pl	-11.2512
PG	-11.2514
▁Wahab	-11.2515
▁menggelar	-11.2516
▁Kang	-11.2519
▁local	-11.252
▁Lord	-11.252
▁Lihat	-11.2524
hum	-11.2525
wood	-11.2527
iq	-11.2527
▁perpindahan	-11.2533
▁kampanye	-11.2533
▁kabel	-11.2534
itz	-11.2535
kelurahan	-11.2536
juk	-11.2537
▁2,000	-11.2537
irah	-11.2537
▁Jualan	-11.2538
▁Onn	-11.2539
iki	-11.2539
▁diperhatikan	-11.254
▁menjimatkan	-11.254
▁Gold	-11.254
▁Island	-11.2547
▁kamar	-11.2549
▁After	-11.255
▁Investment	-11.255
▁Kuil	-11.2552
▁pendakwah	-11.2553
fal	-11.2553
▁Hua	-11.2553
▁Central	-11.2554
▁Biru	-11.2556
▁Kin	-11.2556
▁slot	-11.2562
▁Perai	-11.2563
▁dijaga	-11.2566
watak	-11.257
▁bermasalah	-11.2572
▁mar	-11.2573
▁five	-11.2574
ization	-11.2574
▁adaptasi	-11.2575
▁mengabaikan	-11.2582
UA	-11.2583
▁Ron	-11.2584
▁48%	-11.2586
lab	-11.2588
▁Cheras	-11.2589
▁Gubernur	-11.2589
▁penciptaan	-11.2596
▁Gor	-11.2597
▁kesusasteraan	-11.2597
▁mamalia	-11.2597
▁suntikan	-11.2597
kong	-11.2603
▁1951	-11.2604
▁Piedmont	-11.2604
▁stok	-11.2604
▁later	-11.2605
▁Teori	-11.2608
med	-11.261
▁berarti	-11.2611
▁bertahun	-11.2616
vit	-11.2616
▁peranannya	-11.2616
▁ubah	-11.2616
▁pembayar	-11.2618
Ne	-11.2618
▁UKM	-11.2618
▁Khalifah	-11.2619
▁Hasilnya	-11.2619
▁operator	-11.262
ntas	-11.262
▁93	-11.262
▁biar	-11.2621
▁setiausaha	-11.2626
▁tercemar	-11.2626
▁Tur	-11.2626
▁sejam	-11.263
▁dibiarkan	-11.2632
AZLAN	-11.2632
▁Kol	-11.2633
kt	-11.2635
▁Thi	-11.2636
▁orbit	-11.2636
▁Vokasional	-11.2639
▁menaiktaraf	-11.2639
▁menyempurnakan	-11.2639
▁rutin	-11.264
▁Teknik	-11.2643
▁KERAJAAN	-11.2646
▁Pensyarah	-11.2647
▁Strategik	-11.2649
api	-11.2649
ruf	-11.265
▁5,000	-11.2651
▁Wee	-11.2652
tit	-11.2652
▁mineral	-11.2653
▁berpakaian	-11.2654
▁ilmiah	-11.2654
▁Wu	-11.2654
▁terpisah	-11.2654
▁Neu	-11.2656
▁menjalin	-11.266
2008	-11.266
▁2000,	-11.2661
▁rekreasi	-11.2661
dd	-11.2665
▁Pemandu	-11.2666
No	-11.2667
▁fesyen	-11.2668
▁dipinda	-11.2671
OP	-11.2671
ova	-11.2675
▁von	-11.2681
▁Mohammed	-11.2682
▁berterima	-11.2682
▁jemputan	-11.2682
▁Upaya	-11.2683
ters	-11.2686
koy	-11.2689
▁Demokratik	-11.2692
aux	-11.2692
Par	-11.2693
▁160	-11.2694
▁Hadith	-11.2695
▁Polisi	-11.2695
▁pendaratan	-11.2697
▁Rad	-11.2697
▁Pasaran	-11.2697
▁08	-11.2701
▁Rasul	-11.2702
▁Nigeria	-11.2702
ular	-11.2703
▁dipisahkan	-11.2704
▁Pelancaran	-11.2704
▁Tugas	-11.2709
▁penarafan	-11.2711
▁detik	-11.2711
▁prasarana	-11.2711
▁short	-11.2711
Comte	-11.2712
JPJ	-11.2717
ement	-11.272
Am	-11.2721
▁known	-11.2723
▁PBS	-11.2725
▁White	-11.2728
▁periode	-11.2728
▁Auto	-11.2729
▁lepasan	-11.2729
sho	-11.273
▁Power	-11.2731
▁election	-11.2733
▁ketirisan	-11.2733
▁pembalakan	-11.2733
▁reputasi	-11.2733
hel	-11.2733
▁talk	-11.2735
▁pembiakan	-11.2735
▁Force	-11.2735
▁Manis	-11.2737
muka	-11.2738
tag	-11.2739
▁juruterbang	-11.274
▁Majalah	-11.274
air	-11.2741
▁Bill	-11.2745
▁Yin	-11.2746
▁dibakar	-11.2746
▁penginapan	-11.2747
▁tabung	-11.2747
rung	-11.2751
▁Ny	-11.2751
н	-11.2753
census	-11.2755
tuk	-11.2757
▁Bun	-11.2758
▁jejak	-11.276
KS	-11.2761
▁Distributors	-11.2762
▁Shamsul	-11.2763
▁States	-11.2765
▁Fauzi	-11.2766
▁UU	-11.2767
▁Games	-11.2768
▁visual	-11.2769
▁Tah	-11.2769
▁staf	-11.277
gent	-11.277
▁rakannya	-11.2772
▁kaunseling	-11.2776
▁dimulai	-11.2777
▁tulen	-11.2778
jur	-11.2779
sip	-11.2782
FI	-11.2782
▁Tadbir	-11.2783
▁jet	-11.2787
▁03	-11.2788
gra	-11.2788
calon	-11.2788
▁JA	-11.2789
▁Iz	-11.2789
▁ditamatkan	-11.279
▁kelewatan	-11.2791
▁plat	-11.2793
puan	-11.2794
▁pilihanraya	-11.2794
▁Human	-11.2794
ulu	-11.2795
tian	-11.2795
dek	-11.2796
▁penstrukturan	-11.2798
▁pertembungan	-11.2798
▁Belum	-11.2801
ett	-11.2802
▁Rat	-11.2804
laki	-11.2804
sek	-11.2804
cit	-11.2804
▁berkunjung	-11.2805
tawa	-11.2806
▁Petra	-11.2807
▁Albert	-11.2809
▁tukar	-11.281
▁ru	-11.2813
pop	-11.2813
▁Dewi	-11.2813
س	-11.2816
uang	-11.2816
▁Haram	-11.2816
▁1,6	-11.2816
▁Best	-11.2816
qui	-11.2818
▁given	-11.2818
▁pers	-11.2819
▁mak	-11.2819
▁cap	-11.282
▁lantas	-11.2821
▁nation	-11.2822
▁beriman	-11.2823
▁86	-11.2824
▁Fuzi	-11.2825
bet	-11.2825
▁propaganda	-11.2827
▁kemusnahan	-11.2827
gala	-11.2831
▁Valencia	-11.2834
▁Bencana	-11.2834
▁Hoki	-11.2835
▁lni	-11.2837
batan	-11.284
▁Cher	-11.284
▁sem	-11.2841
ruk	-11.2844
▁diimport	-11.2849
kak	-11.285
iam	-11.2854
▁Modal	-11.2854
vy	-11.2855
▁penawaran	-11.2855
▁menyesuaikan	-11.2856
▁kelangsungan	-11.2856
▁major	-11.2856
▁desakan	-11.2857
▁When	-11.2857
▁garisan	-11.286
▁Salim	-11.286
▁Good	-11.2861
▁Golden	-11.2861
▁Sabri	-11.2862
▁OTHMAN	-11.2863
▁Pemulihan	-11.2863
▁Cabaran	-11.2865
▁teh	-11.2865
subdaerah	-11.2866
NC	-11.2866
▁harimau	-11.2867
▁Transit	-11.2867
▁pesanan	-11.2868
▁Matahari	-11.2872
▁Matlamat	-11.2873
hun	-11.2875
▁Kemen	-11.2875
▁ac	-11.2876
▁Out	-11.2879
▁never	-11.288
▁Pengeluaran	-11.288
▁Sesi	-11.288
▁Was	-11.2881
▁dijemput	-11.2882
▁far	-11.2883
feld	-11.2885
▁delegasi	-11.2885
▁Baden	-11.2887
Pu	-11.289
▁semak	-11.2891
Yang	-11.2893
▁110	-11.2895
▁Gha	-11.2895
▁100,000	-11.2896
▁Hat	-11.2896
Car	-11.2898
ors	-11.2899
▁took	-11.2902
siri	-11.2906
▁berhemah	-11.2907
▁dipastikan	-11.2907
▁berbangkit	-11.2909
bagi	-11.2909
2000	-11.2911
HA	-11.2911
ded	-11.2912
ering	-11.2912
6,000	-11.2913
▁pernikahan	-11.2915
▁aksara	-11.2915
Ko	-11.2916
▁Sesyen	-11.2917
itu	-11.2919
PAC	-11.2922
▁ranking	-11.2922
mpang	-11.2924
▁Yun	-11.2924
▁kedudukannya	-11.2926
▁bebanan	-11.2927
▁89	-11.2927
Ti	-11.2928
▁deal	-11.2929
ities	-11.2929
▁investor	-11.2929
unit	-11.2929
▁pujian	-11.293
▁Rin	-11.2931
▁PA	-11.2932
eo	-11.2932
erang	-11.2933
▁penguatkuasa	-11.2934
▁Fre	-11.2937
▁Fiqh	-11.2938
tumbuhan	-11.2939
▁Fox	-11.2939
▁umrah	-11.2944
▁Toyota	-11.2945
nggang	-11.2945
ذ	-11.2946
▁Manila	-11.2947
▁Ciri	-11.2948
use	-11.2948
▁saintis	-11.2951
▁sejurus	-11.2951
▁1944	-11.2956
hasil	-11.2956
worth	-11.2958
▁Rod	-11.2958
▁penjual	-11.2958
Ghazali	-11.2962
▁menyanyi	-11.2964
▁Reka	-11.2965
▁pertiga	-11.2969
table	-11.297
▁gel	-11.297
Selepas	-11.297
Vi	-11.2971
▁dimansuhkan	-11.2974
▁mengakhiri	-11.2974
▁himpunan	-11.2974
▁padat	-11.2974
▁mantap	-11.2974
BS	-11.2975
▁Shan	-11.2976
▁1947	-11.2978
▁Faiz	-11.2978
▁Leftenan	-11.2981
▁disempurnakan	-11.2981
▁Dor	-11.2983
ged	-11.2984
▁menguji	-11.2985
Itu	-11.2987
▁Sor	-11.2989
medi	-11.2995
▁mempengerusikan	-11.2996
▁percukaian	-11.2996
kota	-11.2996
sed	-11.2997
▁Tokoh	-11.3005
▁Airport	-11.3005
Tetapi	-11.3008
kad	-11.3008
▁Gul	-11.3009
▁balasan	-11.301
Antara	-11.301
▁diselamatkan	-11.3011
▁aktivitas	-11.3011
hem	-11.3014
gali	-11.3014
▁seram	-11.3015
subdistrict	-11.3018
▁dipaparkan	-11.3018
Holstein	-11.3018
▁1,500	-11.302
▁Rukun	-11.302
▁Kangar	-11.3021
▁berlepas	-11.3022
▁Sunnah	-11.3024
▁maruah	-11.3025
▁view	-11.3026
▁Cerita	-11.3026
UL	-11.3027
polis	-11.3032
▁khalifah	-11.3033
▁record	-11.3036
▁France	-11.3039
kus	-11.3039
▁Ling	-11.3039
zh	-11.304
▁Microsoft	-11.304
▁AWANI	-11.304
▁MRSM	-11.3041
▁adiknya	-11.3042
▁pay	-11.3045
▁kebergantungan	-11.3048
▁Lombardy	-11.3049
▁give	-11.3049
2013	-11.3051
▁anggap	-11.3051
int	-11.3052
▁TNI	-11.3054
bing	-11.3054
▁terowong	-11.3055
▁Stephen	-11.3055
▁kor	-11.3055
▁tambahnya	-11.3057
▁disebarkan	-11.3058
gawa	-11.3059
mann	-11.3059
ox	-11.306
yong	-11.306
kut	-11.3061
▁Serie	-11.3061
▁AZIZ	-11.3063
▁Women	-11.3063
▁buang	-11.3067
masa	-11.307
▁kesediaan	-11.307
▁diberitahu	-11.3071
▁tangani	-11.3071
▁Kun	-11.3071
▁ideal	-11.3076
ingan	-11.3076
▁early	-11.3078
▁Integriti	-11.3085
▁always	-11.3085
▁ditangguhkan	-11.3088
▁Chow	-11.3091
En	-11.3092
▁evolusi	-11.3092
▁Bayaran	-11.3093
▁menyanyikan	-11.3094
▁IPG	-11.3096
▁125	-11.3097
▁sin	-11.3098
▁Perbelanjaan	-11.31
▁Hitler	-11.31
▁Ariffin	-11.3105
ngkat	-11.3105
▁akur	-11.3107
▁diukur	-11.311
▁Taib	-11.3112
Sultan	-11.3116
▁antar	-11.312
▁Nasution	-11.3122
▁menzahirkan	-11.3122
▁tafsiran	-11.3123
sungguh	-11.3132
▁pengedar	-11.3136
▁Pandangan	-11.3136
▁darurat	-11.3137
▁goreng	-11.3138
▁hakikatnya	-11.314
▁HAM	-11.314
▁kebiasaannya	-11.3143
▁paparan	-11.3143
stro	-11.3145
▁Empangan	-11.3145
▁yatim	-11.3145
▁ab	-11.3146
▁kejutan	-11.3146
KM	-11.3151
▁Vis	-11.3152
roll	-11.3152
▁Perlawanan	-11.3152
▁kemelut	-11.3152
▁1999,	-11.3155
uff	-11.3157
▁menangguhkan	-11.316
ost	-11.316
▁Organisasi	-11.316
yung	-11.3162
▁Bri	-11.3163
mag	-11.3165
▁Kat	-11.3165
▁digubal	-11.3168
▁diskaun	-11.3168
▁skrin	-11.3168
OK	-11.317
tahan	-11.317
▁pedang	-11.317
▁Sebelumnya	-11.3175
▁Niedersachsen	-11.3175
▁berlarutan	-11.3175
▁muzium	-11.3175
▁diperiksa	-11.3175
UK	-11.3175
▁pandai	-11.3175
▁pembesar	-11.3177
▁dilanda	-11.3178
Menteri	-11.3178
▁60%	-11.3179
▁Mala	-11.318
▁Texas	-11.3183
▁Perikatan	-11.3183
▁Fund	-11.3184
▁Taiping	-11.3185
▁Lip	-11.319
▁lampau	-11.319
▁derma	-11.319
▁pasal	-11.3191
▁hasilnya	-11.3192
▁pentadbir	-11.3194
tical	-11.3194
▁issues	-11.3198
▁Hasutan	-11.3198
sun	-11.3199
▁pajak	-11.32
gur	-11.3201
▁test	-11.3205
▁Tafsir	-11.3206
▁according	-11.3213
▁Saleh	-11.3213
▁tampak	-11.3215
▁Gong	-11.3217
▁thought	-11.3219
▁Palm	-11.3219
▁Diploma	-11.3219
▁2002,	-11.322
▁berinteraksi	-11.322
▁tembok	-11.322
▁Dakwah	-11.3221
▁Sav	-11.3222
prinsip	-11.3224
▁beransur	-11.3226
▁Luc	-11.3226
MAS	-11.3226
▁Hishammuddin	-11.3228
▁penyiasatan	-11.3232
bad	-11.3235
▁mingguan	-11.3237
dad	-11.3239
yeh	-11.3241
▁landskap	-11.3243
yur	-11.3247
▁Pictures	-11.325
▁Boon	-11.325
▁mengasaskan	-11.3251
▁legenda	-11.3251
gara	-11.3251
nus	-11.3253
▁menghilangkan	-11.3255
▁Demokrat	-11.3256
DC	-11.3256
▁alkohol	-11.3258
▁korupsi	-11.3259
▁tau	-11.326
▁94	-11.3262
beli	-11.3263
kawan	-11.3265
▁BHARU	-11.3266
▁hlm	-11.3267
ARA	-11.3268
tle	-11.3268
▁Jah	-11.327
▁toleransi	-11.3275
▁change	-11.328
▁Department	-11.3281
▁menimpa	-11.3281
▁katakan	-11.3282
▁GLC	-11.3282
▁elektron	-11.3287
▁religion	-11.3289
sse	-11.3289
jaan	-11.329
001	-11.3293
▁coklat	-11.3296
▁sihir	-11.3299
▁six	-11.3301
▁menguatkuasakan	-11.3304
▁Moorthy	-11.3304
▁84	-11.3305
▁digerakkan	-11.3307
▁Maret	-11.3311
ware	-11.3312
▁Sani	-11.3315
▁hard	-11.3315
▁ruangan	-11.3317
▁Year	-11.3319
▁pembebasan	-11.3319
▁naungan	-11.3319
▁Komisi	-11.332
▁Gro	-11.3324
▁maharaja	-11.3327
▁Social	-11.3328
ك	-11.3328
amba	-11.3329
KK	-11.333
▁sebaiknya	-11.333
nk	-11.333
▁diwajibkan	-11.3335
2006	-11.3336
▁Live	-11.3336
▁Paus	-11.3337
▁Urus	-11.3341
▁spesifik	-11.3341
▁agregat	-11.3342
moto	-11.3345
usi	-11.3345
▁penderaan	-11.335
▁present	-11.3353
Marne	-11.3354
lokasi	-11.3355
▁Eure	-11.3356
▁coach	-11.3358
▁duta	-11.3358
sep	-11.3359
▁fisik	-11.3359
▁ST	-11.3359
▁Queen	-11.3361
▁populariti	-11.3362
grafi	-11.3362
▁ketenteraman	-11.3365
▁pemilu	-11.3365
▁berkanun	-11.3365
▁92	-11.3367
▁UTC	-11.3367
uv	-11.3367
▁education	-11.3369
▁samada	-11.3371
▁Boeing	-11.3373
▁look	-11.3373
▁Sikap	-11.3377
▁Met	-11.3379
▁menghancurkan	-11.3381
▁Isteri	-11.3381
▁tajam	-11.3382
Dr	-11.3383
▁kelapan	-11.3384
▁Sand	-11.3385
▁Majid	-11.3385
▁memihak	-11.3388
▁Baik	-11.3391
janji	-11.3392
PE	-11.3394
▁JKM	-11.3395
▁race	-11.3395
▁Matematik	-11.3396
kg	-11.3398
▁Alexander	-11.3404
▁pasang	-11.3405
▁riwayat	-11.3406
▁Suku	-11.3407
JK	-11.3407
tokoh	-11.3407
▁persimpangan	-11.3411
▁jujur	-11.3412
HS	-11.3414
ere	-11.3416
▁inti	-11.3418
▁ditujukan	-11.3419
SU	-11.3422
▁setem	-11.3422
pm	-11.3423
gem	-11.3423
jun	-11.3425
kanan	-11.3425
▁Hingga	-11.3428
DAP	-11.3429
fah	-11.343
▁Now	-11.3432
▁HAJAH	-11.3435
▁mewarisi	-11.3435
▁Greek	-11.3436
▁week	-11.3442
▁Prophet	-11.3442
▁dipecat	-11.3442
▁Project	-11.3443
▁Dungun	-11.3443
nting	-11.3444
▁rentas	-11.3444
▁pembatalan	-11.345
▁berukuran	-11.345
▁Edisi	-11.3453
▁tata	-11.3453
▁menyelamat	-11.3456
▁Nga	-11.3456
KN	-11.3457
▁syariat	-11.3458
NT	-11.3462
grad	-11.3465
▁research	-11.3465
▁share	-11.3467
kawa	-11.3469
mud	-11.347
▁science	-11.3471
▁sosioekonomi	-11.3474
▁kabar	-11.3476
dap	-11.3477
tikan	-11.3479
▁Era	-11.348
▁People	-11.348
▁singkatan	-11.3481
▁melakonkan	-11.3481
▁Xavier	-11.3481
KU	-11.3482
vic	-11.3482
▁memfokuskan	-11.3484
▁Tro	-11.3485
▁Dai	-11.3488
For	-11.3489
cell	-11.3489
▁Besut	-11.3489
▁momentum	-11.349
▁economic	-11.349
▁Sewaktu	-11.349
▁ti	-11.349
▁diproses	-11.3493
iss	-11.3495
▁kontena	-11.3496
▁MotoGP	-11.3497
▁until	-11.3498
▁Silat	-11.3498
mbung	-11.35
▁pengadilan	-11.35
▁Dol	-11.3502
▁face	-11.3502
667	-11.3502
▁Talib	-11.3502
GO	-11.3505
suk	-11.3506
▁Ste	-11.3507
memberangsangkan	-11.3512
▁menggubal	-11.3512
▁Masih	-11.3513
▁memansuhkan	-11.3513
▁Ann	-11.3514
bid	-11.3516
▁botol	-11.3517
BB	-11.3517
▁believe	-11.352
▁badminton	-11.352
▁information	-11.352
▁variasi	-11.352
ض	-11.3521
▁mono	-11.3526
▁Permainan	-11.3528
▁Nelayan	-11.3528
Ju	-11.3528
BI	-11.3529
▁Alhamdulillah	-11.353
▁nyatakan	-11.353
▁Hollywood	-11.3536
boy	-11.3538
▁Um	-11.3538
▁Naim	-11.3538
Je	-11.3539
▁dikelilingi	-11.3544
▁dipantau	-11.3544
▁ICT	-11.3544
▁penutur	-11.3544
▁diingini	-11.3544
ilan	-11.3546
▁Agus	-11.3549
agama	-11.355
chu	-11.3551
▁merancakkan	-11.3551
▁senario	-11.3551
▁Kapas	-11.3553
▁strong	-11.3553
oon	-11.3555
▁suai	-11.3556
▁selesaikan	-11.3558
▁pengetua	-11.356
▁pembelaan	-11.3561
▁dibangun	-11.3562
▁diperintah	-11.3563
▁levi	-11.3565
▁melonjak	-11.3567
▁Kenderaan	-11.3567
▁oksigen	-11.3567
▁Andrew	-11.357
▁Semporna	-11.3575
▁Padahal	-11.3579
2007	-11.3581
▁melangkah	-11.3583
▁Pimpinan	-11.3583
▁terpengaruh	-11.3583
▁rights	-11.3586
▁KA	-11.359
▁Kala	-11.359
▁Plaza	-11.3591
▁ganas	-11.3592
ska	-11.3595
sebut	-11.3597
▁festival	-11.3598
▁Franche	-11.3599
▁kematiannya	-11.3599
▁Fatimah	-11.36
PN	-11.3601
▁kenal	-11.3606
▁musik	-11.3606
▁komposisi	-11.3606
▁seberat	-11.3607
▁too	-11.3609
▁zarah	-11.3609
imba	-11.3611
▁open	-11.3613
▁daratan	-11.3614
▁Croatia	-11.3615
▁Hajah	-11.3615
▁taat	-11.3621
▁pemuliharaan	-11.3622
▁dibelanjakan	-11.3622
▁kesetiaan	-11.3622
▁history	-11.3623
▁Bol	-11.3623
▁Bis	-11.3626
yy	-11.3626
TR	-11.3629
▁rumput	-11.363
▁gedung	-11.363
ions	-11.3631
▁Binti	-11.3631
▁Kap	-11.3632
Sya	-11.3636
▁Wawasan	-11.3638
▁direman	-11.3639
budaya	-11.3642
▁penukaran	-11.3646
▁nomor	-11.3647
▁Pays	-11.3653
▁sungguhpun	-11.3654
▁pesalah	-11.3655
▁Mana	-11.3655
▁ucapannya	-11.3657
▁magnet	-11.3661
onal	-11.3662
▁Nazri	-11.3664
▁ucap	-11.3666
▁Final	-11.3667
baran	-11.3667
б	-11.3667
▁islam	-11.3668
▁Penge	-11.3669
▁dicetak	-11.367
▁Dal	-11.3673
Indonesia	-11.3674
▁Pemerintahan	-11.3675
▁Sastera	-11.3677
▁rondaan	-11.3677
▁menjawat	-11.3678
▁taktik	-11.368
▁tra	-11.368
sc	-11.3681
▁jalanan	-11.3682
▁capital	-11.3685
rov	-11.3686
ratus	-11.3686
▁dihapuskan	-11.3688
▁Der	-11.3688
ikh	-11.3689
Datuk	-11.3691
▁kapten	-11.3693
▁kualitas	-11.3693
▁Masihi	-11.3694
к	-11.3694
▁sepakat	-11.3694
▁teams	-11.3695
▁Soal	-11.3698
▁1939	-11.3699
▁Ivory	-11.3701
▁Pengundi	-11.3702
▁Cuma	-11.3702
▁dapur	-11.3704
gne	-11.3705
▁Mul	-11.3705
▁pencen	-11.3706
▁bersekolah	-11.3706
▁jagaan	-11.3708
ATM	-11.3709
▁Haziq	-11.371
zal	-11.3711
▁Siapa	-11.3711
asikan	-11.3713
song	-11.3716
▁Muzakarah	-11.3717
▁pengambilalihan	-11.3717
▁Telok	-11.372
laf	-11.3723
▁kru	-11.3726
fri	-11.3727
▁position	-11.3728
▁Tourism	-11.373
▁Kep	-11.3731
▁memungkinkan	-11.3733
▁Bolasepak	-11.3733
▁Feb	-11.3734
▁points	-11.3739
▁reported	-11.374
▁tatacara	-11.3741
temp	-11.3742
▁Akibat	-11.3743
▁Nat	-11.3746
▁yg	-11.3746
Pyrenees	-11.3748
▁berniat	-11.3749
▁memperkasa	-11.3749
▁konsol	-11.375
▁Delhi	-11.375
▁130	-11.375
gri	-11.3752
▁berserta	-11.3753
▁Jamil	-11.3754
▁в	-11.3754
gih	-11.3755
▁Sekuriti	-11.3757
▁others	-11.3757
▁Nasi	-11.3758
jong	-11.3759
▁inci	-11.3759
sit	-11.3759
▁Peristiwa	-11.376
▁atmosfera	-11.3765
gong	-11.3766
▁les	-11.3766
▁leher	-11.3767
▁Bersih	-11.3767
kri	-11.377
▁kejam	-11.377
ire	-11.3771
▁Pandan	-11.3772
▁Shari	-11.3772
warna	-11.3778
henti	-11.378
Sebelum	-11.3781
▁BAHRU	-11.3781
▁ikhlas	-11.3781
▁ن	-11.3781
▁pandang	-11.3782
Saint	-11.3782
ENT	-11.3783
kanlah	-11.3785
▁Bangka	-11.3785
hap	-11.3788
▁ketibaan	-11.379
▁Ujian	-11.379
▁pangan	-11.3793
▁lu	-11.3793
Wurttemberg	-11.3797
▁menderita	-11.3797
▁Kursus	-11.3797
▁Carl	-11.3799
▁fact	-11.38
▁result	-11.38
▁syor	-11.38
▁bertemakan	-11.3803
▁140	-11.3803
▁inovatif	-11.3805
▁kemerosotan	-11.3805
▁Pertengahan	-11.3805
▁arak	-11.3807
▁didenda	-11.3808
▁Suh	-11.3809
▁Agustus	-11.3813
▁berlalu	-11.3817
2005	-11.3819
▁kotor	-11.3819
▁karier	-11.3821
▁bahagia	-11.3821
▁Moscow	-11.3821
raw	-11.3821
▁asasnya	-11.3822
▁patriotisme	-11.3822
▁Cross	-11.3826
▁mengelilingi	-11.3829
▁kesenian	-11.3829
▁otot	-11.383
▁berkenan	-11.383
▁pelik	-11.3831
katan	-11.3831
gambar	-11.3832
lig	-11.3832
▁matrikulasi	-11.3837
▁Naga	-11.3838
▁berbicara	-11.3839
▁County	-11.384
▁menyi	-11.384
▁penagih	-11.3841
▁Murid	-11.3843
hubung	-11.3843
TE	-11.3843
tics	-11.3845
▁Divisyen	-11.3845
▁Enakmen	-11.3845
▁having	-11.3846
▁Sol	-11.3846
▁What	-11.3846
▁penari	-11.3851
▁juri	-11.3852
▁Francis	-11.3853
▁energi	-11.3853
▁international	-11.3853
▁cipta	-11.3854
rey	-11.3855
inan	-11.3856
kem	-11.3858
ola	-11.3859
▁Hikayat	-11.386
star	-11.3861
▁BELLA	-11.3861
▁Pengetua	-11.3862
▁rogol	-11.3862
▁Str	-11.3862
▁Sh	-11.3862
▁BERNAMA	-11.3862
▁akui	-11.3865
▁perceraian	-11.387
2011	-11.3875
▁Pemba	-11.3877
▁arkitek	-11.3878
▁Olya	-11.3878
Muslim	-11.3881
dian	-11.3881
▁Sk	-11.3883
▁UPSI	-11.3883
▁Usul	-11.3885
▁berkemampuan	-11.3886
▁polemik	-11.3886
akh	-11.3886
lepas	-11.3887
▁SKMM	-11.3889
kok	-11.3892
▁pesaing	-11.3894
yon	-11.3894
sifat	-11.3895
▁Novel	-11.3895
▁kanker	-11.3896
ments	-11.3897
▁Len	-11.3899
▁Lun	-11.3899
▁food	-11.3901
▁pertarungan	-11.3902
▁Pemilu	-11.3902
▁Pembantu	-11.3902
ها	-11.3906
▁list	-11.3911
hn	-11.3912
▁Chelsea	-11.3918
▁mengusahakan	-11.3918
▁bersiaran	-11.3918
▁profil	-11.3919
oo	-11.3922
arah	-11.3927
▁court	-11.3929
ston	-11.3929
▁Say	-11.3931
▁hantu	-11.3931
uch	-11.3932
zon	-11.3935
▁dirakam	-11.3935
▁menyumbangkan	-11.3935
KDNK	-11.3936
leh	-11.3941
▁lambat	-11.3943
▁Pad	-11.3945
▁cu	-11.3947
▁sepenuh	-11.3948
MAN	-11.3949
▁pesan	-11.3951
▁Meny	-11.3957
▁Hijrah	-11.3959
▁jagung	-11.3959
part	-11.396
lun	-11.3961
▁dijadual	-11.3962
▁hidrogen	-11.3964
iman	-11.3967
▁menonjol	-11.3967
▁within	-11.397
▁become	-11.397
▁Gin	-11.397
▁berasas	-11.3971
▁atur	-11.3971
▁Amal	-11.3972
▁hantaran	-11.3972
▁got	-11.3973
▁penghinaan	-11.3975
▁transit	-11.3975
▁menembusi	-11.3979
▁lead	-11.3981
▁Salman	-11.3982
▁pesta	-11.3983
▁seumpamanya	-11.3984
macam	-11.3986
▁tunjuk	-11.3987
▁Tiong	-11.3988
TU	-11.399
▁Pemangku	-11.3991
▁disusuli	-11.3991
▁kecantikan	-11.3992
▁jurusan	-11.3994
▁tercetus	-11.3996
ihan	-11.3997
▁menonjolkan	-11.3999
▁pengukuhan	-11.4
▁Dusun	-11.4
▁personaliti	-11.4002
oko	-11.4002
Pem	-11.4003
▁Yoshi	-11.4003
▁Istiadat	-11.4008
▁trofi	-11.4008
▁motif	-11.4009
▁solusi	-11.4009
▁Alias	-11.4009
▁service	-11.4011
seli	-11.4012
▁Ok	-11.4014
tinggi	-11.4016
kr	-11.4017
▁Mes	-11.4022
▁usahasama	-11.4026
sey	-11.4026
ux	-11.4026
▁control	-11.4029
MK	-11.403
Peraturan	-11.4033
▁terbiar	-11.4033
▁Hwa	-11.4035
▁983	-11.4036
▁91	-11.4037
▁Baba	-11.4038
▁Ching	-11.4038
▁Profesional	-11.4041
▁progresif	-11.4041
▁slogan	-11.4041
▁Set	-11.4042
▁pembekalan	-11.4043
▁act	-11.4044
▁Max	-11.4045
anggota	-11.4048
▁83	-11.4049
▁menceroboh	-11.4049
▁keropok	-11.4049
▁parkir	-11.405
▁Rejimen	-11.405
EA	-11.405
▁Shir	-11.4051
masalah	-11.4057
beri	-11.4057
▁muktamad	-11.4057
ONG	-11.4059
jaga	-11.4059
▁menelan	-11.4059
▁cek	-11.4061
▁153	-11.4062
nder	-11.4064
▁mendiami	-11.4065
vat	-11.407
▁Market	-11.4073
▁caruman	-11.4074
mut	-11.4076
▁apapun	-11.4081
▁pengertian	-11.4082
▁dikembalikan	-11.4082
▁Keenam	-11.4085
▁kitar	-11.4088
▁dilatih	-11.4092
▁AM	-11.4093
▁Georgia	-11.4094
▁Tian	-11.4096
▁diakses	-11.4098
oz	-11.4099
▁bersambung	-11.41
enang	-11.4101
▁Fitri	-11.4101
▁stor	-11.4104
▁Pesta	-11.4106
▁penangguhan	-11.4107
▁kekeluargaan	-11.4107
▁menjemput	-11.4107
▁dirangka	-11.4107
▁Ven	-11.4108
BE	-11.4109
▁marin	-11.4109
▁sayuran	-11.411
▁house	-11.4112
▁Nadu	-11.4114
▁Sofla	-11.4115
sih	-11.4115
▁continue	-11.4116
▁moyang	-11.4117
▁Misi	-11.4118
▁problem	-11.4119
▁membahas	-11.4119
mali	-11.4119
▁kakak	-11.4121
▁drastik	-11.4123
▁serigala	-11.4124
▁menjangkau	-11.4124
▁Amirudin	-11.4124
▁First	-11.4134
ketua	-11.4137
sive	-11.4138
▁merugikan	-11.414
▁keindahan	-11.414
▁penunggang	-11.414
▁penjuru	-11.414
ingen	-11.414
haru	-11.4145
▁berniaga	-11.415
OH	-11.4153
▁reason	-11.4153
layang	-11.4155
GST	-11.4157
▁wad	-11.416
ribu	-11.416
gula	-11.4162
▁Jenderal	-11.4165
▁motivasi	-11.4165
▁pengorbanan	-11.4165
▁Liberal	-11.4165
▁Doktor	-11.4165
SN	-11.4171
▁matawang	-11.4171
▁Kemerdekaan	-11.4173
▁SULTAN	-11.4173
▁bertitah	-11.4173
▁disasarkan	-11.4173
▁kesesuaian	-11.4173
▁merayu	-11.4173
▁Ayu	-11.4175
▁sokong	-11.4176
ious	-11.4176
▁How	-11.4178
▁June	-11.4179
▁Jung	-11.4181
▁Studio	-11.4181
▁optimis	-11.4181
▁ban	-11.4182
▁dugaan	-11.4183
▁Lokasi	-11.4183
masi	-11.4184
▁cerah	-11.4184
yama	-11.4185
▁tarik	-11.4185
▁naga	-11.4186
▁profesor	-11.419
▁hoki	-11.419
▁madu	-11.4192
▁op	-11.4193
▁action	-11.4193
CH	-11.4198
▁perilaku	-11.4198
ALI	-11.4201
▁CD	-11.4202
▁Arah	-11.4205
▁sengit	-11.4207
д	-11.4207
▁memecah	-11.4207
▁Khir	-11.4208
▁MU	-11.4213
▁Superintendan	-11.4215
▁Membina	-11.4215
▁Saf	-11.4218
▁اال	-11.4219
AMA	-11.422
mini	-11.4221
▁Latheefa	-11.4223
▁penyusunan	-11.4223
▁Francisco	-11.4224
▁perahu	-11.4224
$2	-11.4225
▁perlukan	-11.4226
nel	-11.4227
▁Desember	-11.4231
▁karakter	-11.4231
▁Internasional	-11.4232
▁Agenda	-11.4232
▁Lubnan	-11.4232
▁saraf	-11.4235
▁qu	-11.4237
oe	-11.4237
Masjid	-11.4239
▁Jag	-11.424
▁Status	-11.424
▁Ayat	-11.4241
DE	-11.4248
▁Kepimpinan	-11.4248
▁roket	-11.4249
▁Menjadi	-11.425
RT	-11.425
▁lobi	-11.4251
GI	-11.4253
▁1998,	-11.4253
▁wacana	-11.4257
▁Rob	-11.4257
▁dikritik	-11.4257
▁Zo	-11.4259
▁End	-11.4259
LO	-11.4259
▁Prinsip	-11.4261
IF	-11.4263
istik	-11.4265
▁ketetapan	-11.4265
▁dilalui	-11.4265
▁Redang	-11.4266
▁menyerap	-11.4266
▁baris	-11.4266
▁Maya	-11.4267
▁Fan	-11.4267
gres	-11.427
▁future	-11.4274
▁peduli	-11.4274
▁Fair	-11.4274
▁Khairuddin	-11.4274
UMNO	-11.4274
▁Bob	-11.4278
buh	-11.4279
Dia	-11.428
▁Bos	-11.4281
▁Itulah	-11.4282
▁example	-11.4282
▁penggiat	-11.4282
▁penyelarasan	-11.4283
▁menjalinkan	-11.4283
▁berganda	-11.4284
▁1000	-11.4285
▁Sau	-11.4285
▁Time	-11.4287
▁Pinjaman	-11.429
▁competition	-11.429
▁lamanya	-11.4292
▁arena	-11.4292
ias	-11.4293
▁Fars	-11.4293
▁konkrit	-11.4299
▁Segamat	-11.4299
▁Yeo	-11.4302
▁lombong	-11.4302
▁Suria	-11.4303
▁Sala	-11.4303
▁SU	-11.4304
▁menghampiri	-11.4307
▁menjuarai	-11.4307
▁Keamanan	-11.4307
▁Kluang	-11.4307
Pihak	-11.4309
▁personal	-11.4309
▁sahih	-11.4311
▁Diri	-11.4311
▁Yam	-11.4315
▁keselesaan	-11.4316
▁sha	-11.4319
ists	-11.432
▁MD	-11.4321
bek	-11.4323
▁mengguna	-11.4323
▁language	-11.4324
▁dipamerkan	-11.4324
UD	-11.4325
tos	-11.4326
▁light	-11.4328
▁Service	-11.4329
▁Deo	-11.4329
siap	-11.4331
▁Kaherah	-11.4333
▁Bersekutu	-11.4333
ans	-11.4335
▁Bawah	-11.4337
kurang	-11.4341
▁auto	-11.4341
▁pendengaran	-11.4346
▁KR	-11.4348
▁terkumpul	-11.435
▁dimasak	-11.435
▁Kamil	-11.4351
▁Melihat	-11.4353
▁UEC	-11.4355
▁feri	-11.4356
▁perunding	-11.4356
▁full	-11.4356
▁ungkapan	-11.4357
▁dielakkan	-11.4358
▁pahlawan	-11.4358
▁trilion	-11.4358
▁Generasi	-11.4358
NG	-11.4359
Langkah	-11.4361
▁judi	-11.4364
▁TK	-11.4365
▁Gem	-11.4366
▁lantaran	-11.4367
kasi	-11.4369
syah	-11.4373
▁2020,	-11.4373
eth	-11.4374
UNG	-11.4374
ello	-11.4375
ised	-11.4375
dr	-11.4376
▁Sky	-11.4377
▁Pasangan	-11.4379
▁09	-11.438
ize	-11.4381
psi	-11.4382
vest	-11.4383
siar	-11.4383
▁menipu	-11.4384
IAN	-11.4384
▁penolakan	-11.4392
▁julung	-11.4392
▁Osaka	-11.4393
▁nabi	-11.4394
oro	-11.4397
▁patah	-11.4397
gate	-11.4398
▁ri	-11.4398
KDN	-11.44
▁premium	-11.4401
trik	-11.4407
▁Kenapa	-11.4409
▁memisahkan	-11.4409
versi	-11.4412
ش	-11.4414
▁Mengapa	-11.4414
▁Daun	-11.4415
▁Kelapa	-11.4415
struktur	-11.4415
▁Hy	-11.4416
▁hit	-11.4416
▁Wangsa	-11.4417
serv	-11.4417
▁mengharamkan	-11.4418
▁logik	-11.4418
▁tertulis	-11.4419
▁Moon	-11.4419
▁Light	-11.4421
dus	-11.4421
UKM	-11.4422
hang	-11.4423
▁pengu	-11.4424
▁Balik	-11.4427
▁trek	-11.4431
dz	-11.4431
▁Greece	-11.4435
▁little	-11.4435
▁Laman	-11.4437
▁Lake	-11.4438
▁sos	-11.4438
▁Reg	-11.444
▁Aplikasi	-11.444
▁bercerai	-11.4443
▁pertunjukan	-11.4443
zah	-11.4444
DS	-11.4444
lag	-11.4446
▁away	-11.4447
▁Wah	-11.445
▁BUKIT	-11.4452
PJ	-11.4452
ery	-11.4454
▁Th	-11.4456
▁disalah	-11.4456
chan	-11.4459
▁Lagi	-11.446
▁TERENGGANU	-11.446
org	-11.4461
▁ق	-11.4461
▁job	-11.4468
▁keprihatinan	-11.4469
▁water	-11.4469
▁grafik	-11.4469
Kes	-11.4472
▁dwi	-11.4473
▁bersidang	-11.4478
▁digariskan	-11.4478
uw	-11.4485
▁dinobatkan	-11.4486
▁pembubaran	-11.4486
▁Prasarana	-11.4486
iza	-11.4486
▁2022	-11.4487
git	-11.4487
Mas	-11.4489
▁menyewa	-11.4489
▁meratifikasi	-11.4495
▁ALOR	-11.4495
▁katil	-11.4496
besar	-11.4497
agak	-11.4497
ون	-11.4498
اب	-11.4502
▁PERDAGANGAN	-11.4503
▁third	-11.4503
▁Nomor	-11.4505
▁Marang	-11.4507
tern	-11.4509
gap	-11.4509
▁Eu	-11.4509
▁Book	-11.4511
PV	-11.4511
▁kewajipan	-11.4512
▁kompaun	-11.4512
▁subur	-11.4513
▁tegar	-11.4516
▁disambung	-11.452
▁KTM	-11.452
▁Shanghai	-11.4521
▁Rangkaian	-11.4521
Ge	-11.4523
▁dipotong	-11.4523
▁Mani	-11.4523
▁LA	-11.4524
peringkat	-11.4525
ntu	-11.4526
▁susut	-11.4528
rr	-11.4533
▁pela	-11.4536
▁Prima	-11.4536
PL	-11.4537
▁bertepatan	-11.4538
▁Muh	-11.4539
л	-11.4543
ikut	-11.4546
▁domain	-11.4548
Ru	-11.4549
luar	-11.4553
iko	-11.4555
▁pembaziran	-11.4555
▁kritis	-11.4555
NYA	-11.4556
▁KDN	-11.4556
▁frekuensi	-11.4557
TAR	-11.4558
▁Sultanah	-11.4559
▁Husin	-11.4559
▁More	-11.4559
hri	-11.4559
ono	-11.4561
▁sta	-11.4561
▁dikhuatiri	-11.4564
▁pengubahsuaian	-11.4564
mara	-11.4568
▁Bag	-11.457
▁Wall	-11.457
▁capaian	-11.4572
▁Sumbangan	-11.4573
▁tayar	-11.4574
lagi	-11.4575
▁nafi	-11.4577
spek	-11.4578
▁Perhutanan	-11.4581
▁menyembunyikan	-11.4581
▁merangsang	-11.4581
▁terjatuh	-11.4582
fas	-11.4583
▁Canada	-11.4583
▁Mang	-11.4583
vik	-11.4583
▁diploma	-11.4585
▁Sup	-11.4587
▁MI	-11.4592
ovice	-11.4592
▁Zakat	-11.4592
RP	-11.4594
▁Penerbit	-11.4594
lawan	-11.4595
cker	-11.4599
▁move	-11.4599
AA	-11.4599
▁HD	-11.4599
▁kelainan	-11.4599
▁Pertemuan	-11.46
▁mengarah	-11.4602
▁Suk	-11.4603
enberg	-11.4603
vision	-11.4607
▁Pembelajaran	-11.4607
▁dipertandingkan	-11.4607
▁mencoba	-11.4607
▁ak	-11.4607
▁Tru	-11.4608
▁individual	-11.4608
KPKT	-11.461
alik	-11.4613
MC	-11.4615
▁Gorontalo	-11.4616
sad	-11.4619
▁Bot	-11.4621
▁Soe	-11.4624
▁membahayakan	-11.4625
▁wayang	-11.4625
sub	-11.4626
▁ME	-11.4629
SOP	-11.463
▁pengilang	-11.463
▁Rizal	-11.463
▁menekan	-11.463
▁According	-11.4633
▁kelestarian	-11.4633
▁ketahanan	-11.4633
mbi	-11.4639
cau	-11.464
▁Care	-11.464
▁wira	-11.4644
▁Show	-11.4649
ulus	-11.465
▁Western	-11.4651
▁Kau	-11.4654
bintang	-11.4654
▁Staf	-11.4654
но	-11.4654
▁rakyatnya	-11.4659
▁bid	-11.4659
▁herba	-11.4659
▁Jesus	-11.466
▁nanas	-11.466
▁Queensland	-11.4668
▁terperangkap	-11.4668
▁Perbezaan	-11.4668
▁didiami	-11.4668
▁Iban	-11.4669
▁diam	-11.467
tial	-11.4671
hb	-11.4671
▁jawatannya	-11.4672
stone	-11.4673
▁Play	-11.4676
▁SUMBER	-11.4677
▁membelanjakan	-11.4677
▁bus	-11.4678
▁question	-11.4678
yen	-11.4682
▁efisien	-11.4683
hitung	-11.4684
house	-11.4685
▁Mangsa	-11.4685
▁kuliah	-11.4686
▁mimpi	-11.4686
▁galakan	-11.4687
▁berbelanja	-11.4687
▁pejabatnya	-11.4689
▁wasiat	-11.469
gui	-11.4692
▁pengangkut	-11.4692
▁penyelamat	-11.4693
▁Prestasi	-11.4695
▁bimbit	-11.4695
▁KPKT	-11.4696
▁Sant	-11.4698
duri	-11.4699
▁Game	-11.47
▁pelayan	-11.4703
▁kolektif	-11.4703
▁mengerjakan	-11.4703
▁dipukul	-11.4703
▁Kamarul	-11.4705
967	-11.4707
SD	-11.4711
▁Trade	-11.4712
▁pemangkin	-11.4712
▁using	-11.4713
▁Armada	-11.4713
▁Ant	-11.4714
▁timah	-11.4715
ز	-11.4715
▁dingin	-11.4715
ito	-11.4716
▁sebahagiannya	-11.4716
▁simpan	-11.4718
▁KD	-11.4719
▁kolonial	-11.472
▁Kab	-11.472
▁Annuar	-11.4721
▁Bir	-11.4721
spi	-11.4721
▁Convention	-11.4721
core	-11.4722
ces	-11.4726
▁Faisal	-11.473
▁imigresen	-11.473
▁kejahatan	-11.473
▁dimusnahkan	-11.473
▁Bentong	-11.473
teks	-11.4731
▁Selaras	-11.4731
ible	-11.4732
law	-11.4732
bud	-11.4733
▁pereka	-11.4733
EF	-11.4737
▁Ky	-11.4741
▁Pindaan	-11.4741
muk	-11.4743
album	-11.4744
▁practice	-11.4745
Dan	-11.4747
▁ketakutan	-11.4747
▁kendalian	-11.4748
▁Zaid	-11.4749
▁dalang	-11.475
▁suri	-11.4751
▁Azam	-11.4752
ques	-11.4752
▁PEM	-11.4752
▁task	-11.4755
▁Ternyata	-11.4756
▁Motor	-11.4757
ush	-11.4758
AAN	-11.476
▁Getah	-11.4761
▁Av	-11.4764
▁Mekah	-11.4765
Garonne	-11.4765
▁Las	-11.4767
▁laki	-11.4767
Pan	-11.4767
sau	-11.4768
▁bijih	-11.4768
▁Sham	-11.4768
Br	-11.4768
▁JU	-11.4773
▁Fil	-11.4773
▁rombongan	-11.4774
▁beranggapan	-11.4774
▁merakam	-11.4776
LC	-11.4776
▁baca	-11.4777
anto	-11.4778
uat	-11.4781
▁Qeshlaq	-11.4783
ndra	-11.4783
▁pengantar	-11.4785
/1	-11.479
▁kura	-11.479
▁PROSIDING	-11.4792
▁menghidupkan	-11.4792
▁rekabentuk	-11.4792
▁mempromosi	-11.4794
▁Insan	-11.4794
▁IPTA	-11.4794
▁Opera	-11.4798
▁Temu	-11.4799
▁Aisyah	-11.4801
2004	-11.4803
ngkang	-11.4805
▁Jawatan	-11.4805
▁solar	-11.4805
▁pri	-11.4806
enti	-11.4807
rich	-11.4807
ما	-11.4807
light	-11.4808
▁October	-11.4809
▁Sempadan	-11.4809
▁Naz	-11.4811
▁nampaknya	-11.4813
idi	-11.4813
▁Series	-11.4813
▁dataran	-11.4814
CD	-11.4816
▁automotif	-11.4818
▁pengeksport	-11.4818
▁something	-11.4818
▁Lawatan	-11.4819
New	-11.4819
puk	-11.4822
▁COSNA	-11.4827
▁dipelihara	-11.4827
▁armada	-11.4827
kim	-11.4831
▁Major	-11.4831
dhi	-11.4832
▁ditukarkan	-11.4833
llah	-11.4834
OL	-11.4836
▁perekonomian	-11.4836
▁mus	-11.4839
▁kebesaran	-11.484
▁AG	-11.484
▁Yee	-11.4842
▁Roz	-11.4843
▁tenggelam	-11.4845
▁Perkasa	-11.4845
▁julat	-11.4846
ECRL	-11.4847
bag	-11.4847
▁Vas	-11.4849
▁tele	-11.4851
▁700	-11.4853
▁pewaris	-11.4853
▁tersangka	-11.4855
▁Bey	-11.4858
▁kek	-11.4861
▁Senat	-11.4862
▁pengubahan	-11.4863
▁memproses	-11.4863
▁RCI	-11.4866
▁Iuar	-11.4868
vent	-11.4871
tup	-11.4871
▁diyakini	-11.4872
▁Hussin	-11.4872
KE	-11.4873
▁sesak	-11.4878
▁Sena	-11.4878
▁bertempur	-11.4881
▁menasihati	-11.4881
▁Lisa	-11.4881
▁menghukum	-11.4882
gram	-11.4882
▁kesannya	-11.4883
▁memperkukuh	-11.4883
orn	-11.4886
▁medal	-11.4888
▁perlulah	-11.4889
▁utiliti	-11.489
▁bangga	-11.489
▁Somme	-11.489
▁berjangkit	-11.4891
Gu	-11.4891
▁Rakan	-11.4901
ava	-11.4902
ekonomi	-11.4905
vil	-11.4905
▁again	-11.4907
▁kejiranan	-11.4907
▁dijangkiti	-11.4908
▁dibicarakan	-11.4908
▁penceramah	-11.4908
▁dr	-11.4912
indah	-11.4912
▁Wai	-11.4916
▁mengimbangi	-11.4916
▁bertelur	-11.4917
▁SUBRAMANIAM	-11.4917
▁Lok	-11.4917
▁AR	-11.492
Con	-11.4921
▁Dagangan	-11.4921
▁few	-11.4922
cri	-11.4923
chin	-11.4923
▁Rud	-11.4925
▁gerbang	-11.4925
▁kafir	-11.4926
▁Surau	-11.4927
▁rohani	-11.4927
▁Tahir	-11.4927
▁sukuk	-11.4928
lly	-11.4933
▁meme	-11.4934
▁menyukai	-11.4935
▁month	-11.4936
rac	-11.4936
▁Wil	-11.4939
▁Burma	-11.494
▁able	-11.4943
▁special	-11.4943
▁Kamarudin	-11.4944
▁ben	-11.4944
▁menegakkan	-11.4944
nau	-11.4945
SO	-11.4948
PBT	-11.4952
▁pengisian	-11.4952
▁menganalisis	-11.4953
▁Rajah	-11.4954
▁klip	-11.4954
BR	-11.4958
▁asked	-11.4958
▁menanti	-11.4959
ois	-11.4961
▁syiling	-11.4961
▁perosak	-11.4962
ية	-11.4962
menang	-11.4964
▁mitos	-11.4964
▁350	-11.4964
▁hadapi	-11.4964
▁Loji	-11.4965
▁title	-11.4965
▁Markas	-11.4969
▁cili	-11.4969
▁sepadan	-11.497
▁pelukis	-11.497
▁difailkan	-11.4971
ings	-11.4971
▁tisu	-11.4972
fra	-11.4976
ndar	-11.4976
juang	-11.4977
▁meluahkan	-11.4979
▁Maluku	-11.4979
ogen	-11.4979
▁Dev	-11.498
ved	-11.498
▁Sports	-11.4984
ord	-11.4985
▁Albania	-11.4988
▁pengisytiharan	-11.4988
▁Beli	-11.499
▁radikalisme	-11.499
urai	-11.4991
▁diuji	-11.4994
▁berbasis	-11.4997
▁ganjaran	-11.4999
▁VI	-11.5
ory	-11.5004
Un	-11.5006
isan	-11.5008
▁1943	-11.5011
▁Rem	-11.5014
▁terpelihara	-11.5016
▁berskala	-11.5016
▁peletakan	-11.5016
▁young	-11.5016
▁mence	-11.5017
▁Malangnya	-11.5017
▁Kaya	-11.5019
▁Yus	-11.5019
▁jasad	-11.5021
▁Sofi	-11.5022
▁bersiri	-11.5022
▁diabetes	-11.5025
▁risikan	-11.5025
▁pencipta	-11.5026
▁Jackson	-11.5026
▁Dl	-11.5026
BNM	-11.5028
temu	-11.503
▁ikon	-11.5033
▁mengetengahkan	-11.5034
▁membayangkan	-11.5034
▁Bachok	-11.5034
▁Aset	-11.5039
▁UNESCO	-11.5039
▁Tha	-11.5039
ра	-11.5041
▁menyalahi	-11.5043
ADA	-11.5045
▁style	-11.5045
▁JKR	-11.5046
som	-11.5047
ни	-11.5047
▁Baki	-11.5048
▁Berkaitan	-11.5049
▁kesembilan	-11.5049
▁clear	-11.505
SIS	-11.5051
▁pupus	-11.5052
▁Kimia	-11.5054
ym	-11.5058
pik	-11.5059
▁Cop	-11.5059
▁Soalan	-11.5059
500,000	-11.5061
▁Nurhaliza	-11.5061
▁penindasan	-11.5061
▁Saga	-11.5061
▁bertolak	-11.5062
▁Pilihanraya	-11.5064
▁rehat	-11.5067
hamba	-11.5071
▁Kay	-11.5072
Rhin	-11.5074
▁Sept	-11.5076
▁Maqasid	-11.5079
▁Melbourne	-11.5079
▁dijamin	-11.508
▁tajaan	-11.508
▁Eric	-11.5083
▁PENG	-11.5087
perang	-11.5088
▁kondusif	-11.5088
▁Roh	-11.5088
▁Atlantik	-11.5089
▁Aq	-11.509
▁Simon	-11.5091
▁Bru	-11.5091
PPBM	-11.5091
data	-11.5092
▁berdoa	-11.5093
bagaimanapun	-11.5093
▁{	-11.5095
▁Energy	-11.5097
▁tahniah	-11.5097
Tak	-11.5098
▁fo	-11.5099
▁lekor	-11.5099
kaya	-11.51
dahan	-11.5102
▁jelajah	-11.5102
karan	-11.5104
▁fl	-11.5107
نا	-11.5109
▁Wikipedia	-11.5116
▁Situasi	-11.5116
▁benteng	-11.5117
▁menit	-11.5117
▁kuih	-11.5117
▁Gempa	-11.5117
▁pend	-11.5118
▁Dom	-11.5119
Ya	-11.5122
▁Persembahan	-11.5125
▁dimajukan	-11.5125
▁bertutur	-11.5127
▁Mongol	-11.5128
wak	-11.5128
lid	-11.5128
▁Jay	-11.5129
▁held	-11.5129
batu	-11.5129
rop	-11.5131
nyi	-11.5133
▁penternak	-11.5134
▁semesta	-11.5134
vid	-11.5135
urus	-11.5138
kelas	-11.514
▁kartun	-11.514
ique	-11.5142
▁Banjir	-11.5143
▁Conference	-11.5143
▁close	-11.5145
▁went	-11.5147
▁penjaja	-11.5148
▁city	-11.515
▁Sisa	-11.5151
▁pengeboman	-11.5152
▁Asyraf	-11.5152
▁especially	-11.5152
▁sebegitu	-11.5152
▁dikalangan	-11.5153
ches	-11.5154
boh	-11.5155
▁Chai	-11.5156
▁SC	-11.5161
▁Mir	-11.5161
▁ما	-11.5161
▁experience	-11.5164
▁pendudukan	-11.5167
▁UN	-11.5169
▁Hussain	-11.5171
▁berhubungan	-11.5174
contoh	-11.5175
▁means	-11.5176
eran	-11.5177
BK	-11.5178
ctor	-11.5179
▁KAMPUS	-11.518
▁pemeliharaan	-11.518
▁perincian	-11.518
▁Pelantikan	-11.5181
ndang	-11.5181
▁dikumpulkan	-11.5182
▁berkisar	-11.5183
▁tanam	-11.5185
ndu	-11.5186
▁MS	-11.5187
▁tutur	-11.5187
makan	-11.5187
▁Peladang	-11.519
BP	-11.5192
▁sum	-11.5193
rani	-11.5194
▁dapatan	-11.5195
hij	-11.5195
▁Tema	-11.5198
▁Sejahtera	-11.5198
▁Will	-11.52
▁Ani	-11.52
▁Berang	-11.5202
Singapura	-11.5204
▁news	-11.5206
uy	-11.5206
▁Del	-11.5208
غ	-11.5208
▁Keganasan	-11.5208
▁kebocoran	-11.5208
buat	-11.521
▁1,1	-11.5213
▁side	-11.5214
▁CITRA	-11.5217
▁menghindari	-11.5217
▁Infrastruktur	-11.5217
hee	-11.5221
bukan	-11.5223
peraturan	-11.5223
▁tanggung	-11.5224
eti	-11.5225
▁Lab	-11.5226
▁PEMANTA	-11.5226
▁bazar	-11.5227
▁metal	-11.5227
14,	-11.5228
▁Kubu	-11.5228
▁Main	-11.5229
▁buluh	-11.523
▁SI	-11.5233
▁KENEGARAAN	-11.5235
▁keberanian	-11.5235
▁perbualan	-11.5235
▁account	-11.5236
▁Kashmir	-11.5236
ote	-11.5236
hon	-11.524
sma	-11.5242
▁Chap	-11.5243
clo	-11.5244
▁Rid	-11.5244
▁menguatkan	-11.5244
▁pendeposit	-11.5245
▁Makassar	-11.5245
▁children	-11.5245
lakon	-11.5245
▁Maybank	-11.5245
▁hidro	-11.5245
▁dijangkakan	-11.5246
▁provide	-11.5247
▁penyata	-11.5248
laman	-11.5249
▁menj	-11.525
▁Kedutaan	-11.5254
▁Tinjauan	-11.5254
▁kosmetik	-11.5254
▁Pendaftar	-11.5254
▁menyuruh	-11.5254
▁ramalan	-11.5254
▁Mut	-11.5257
▁seen	-11.5257
▁jeti	-11.5262
Is	-11.5262
▁vol	-11.5263
▁serbuk	-11.5264
anna	-11.5264
▁sungguh	-11.5268
▁IR	-11.5269
▁Gad	-11.5269
▁Nara	-11.527
▁Tsu	-11.5273
▁tantangan	-11.5274
dih	-11.5276
▁bad	-11.5276
stat	-11.5276
▁penggunaannya	-11.5279
GB	-11.5279
▁Biarpun	-11.5282
lib	-11.5284
▁1938	-11.5289
cip	-11.5291
▁berstatus	-11.5291
▁spiritual	-11.5291
▁Pilpres	-11.5291
tech	-11.5292
▁udang	-11.5293
▁Rimba	-11.5295
▁Kerian	-11.5299
▁pene	-11.53
▁francais	-11.5301
▁Huawei	-11.5301
Ad	-11.5301
▁buli	-11.5305
▁makam	-11.5305
▁barah	-11.5306
▁12%	-11.5307
▁pajakan	-11.5308
▁Perancang	-11.531
▁kemarau	-11.531
▁Palembang	-11.531
▁menda	-11.531
▁Uttar	-11.5311
▁Sunan	-11.5311
sign	-11.5312
▁feel	-11.5312
▁malahan	-11.5314
matan	-11.5315
▁Studios	-11.5315
▁period	-11.5316
▁Comp	-11.5317
▁Kevin	-11.5319
▁Narathiwat	-11.5319
▁Perundangan	-11.5319
▁Seluruh	-11.5319
▁dar	-11.532
▁Teks	-11.5328
▁bercuti	-11.5329
▁Uthmaniyah	-11.5329
:30	-11.5329
lung	-11.533
▁bersungguh	-11.5335
▁Arena	-11.5338
▁Insentif	-11.5338
▁economy	-11.5338
ري	-11.534
▁events	-11.5344
▁Pulai	-11.5347
eter	-11.5347
▁keberadaan	-11.5347
▁Tenggol	-11.5348
▁Daesh	-11.5348
▁metode	-11.5351
▁field	-11.5352
▁Sulu	-11.5355
▁diperkatakan	-11.5357
▁melayakkan	-11.5357
enburg	-11.5358
▁Fin	-11.5364
got	-11.5365
▁perdamaian	-11.5366
▁kontemporari	-11.5366
cerita	-11.5367
▁Pel	-11.5367
Hasil	-11.5368
▁	-11.537
▁ه	-11.5371
SSM	-11.5371
▁Naruto	-11.5371
arch	-11.5373
rate	-11.5373
▁Nie	-11.5373
FB	-11.5375
▁konservatif	-11.5375
▁Moravia	-11.5375
▁further	-11.5375
ق	-11.5378
▁berhujah	-11.5379
▁Johnson	-11.5381
▁Kiri	-11.5382
▁SOP	-11.5384
EX	-11.5384
▁Popular	-11.5384
▁keliru	-11.5385
JP	-11.5387
▁meski	-11.5387
pie	-11.5389
▁Bayan	-11.539
▁wali	-11.539
jukan	-11.5392
▁berehat	-11.5394
▁kelakuan	-11.5396
▁janganlah	-11.5396
Bar	-11.5402
▁Saw	-11.5403
▁Charente	-11.5404
▁kegemaran	-11.5404
▁kesungguhan	-11.5404
▁peneraju	-11.5404
▁Ly	-11.5406
▁See	-11.5409
Vorpommern	-11.5413
▁dipandu	-11.5413
▁Liputan	-11.5413
▁Plat	-11.5414
100,000	-11.5415
omb	-11.5415
▁Mobile	-11.5416
eer	-11.5417
▁PAN	-11.5418
▁gabenor	-11.5419
▁Liar	-11.5419
▁Square	-11.5422
▁menjanjikan	-11.5422
▁body	-11.5423
▁jurnal	-11.5423
Tr	-11.5423
Amerika	-11.5426
▁menyangka	-11.5427
▁Junior	-11.5428
▁akhirat	-11.5428
iaitu	-11.5429
▁dek	-11.5429
▁institut	-11.5431
IB	-11.5433
▁prime	-11.5435
▁Philip	-11.5437
wit	-11.544
▁TUDM	-11.544
▁gam	-11.5441
▁konvensyen	-11.5441
▁menganggotai	-11.5441
▁mangkat	-11.5442
lov	-11.5443
▁Special	-11.5444
▁peri	-11.5445
Hal	-11.5446
tch	-11.5446
▁disarankan	-11.545
▁Sentral	-11.5451
▁Sudan	-11.5451
El	-11.5459
▁terancang	-11.5461
▁value	-11.5461
▁berurusan	-11.5462
uar	-11.5464
▁MAHB	-11.5465
▁tong	-11.5466
▁urutan	-11.5468
hah	-11.547
▁Rail	-11.5472
▁sehinggakan	-11.5472
▁Patani	-11.5472
▁Hatta	-11.5475
▁Maksudnya	-11.5479
stor	-11.5479
ndung	-11.5479
0%	-11.548
▁why	-11.548
▁lakonannya	-11.5484
py	-11.5487
right	-11.5488
▁penguasa	-11.5488
▁pemandangan	-11.5489
osis	-11.5489
Mi	-11.5489
wara	-11.549
API	-11.5492
▁small	-11.5492
▁diurus	-11.5494
haj	-11.5496
clu	-11.5496
▁Solo	-11.5496
▁Rhine	-11.5498
▁majmuk	-11.5498
▁serpihan	-11.5498
▁Pemenang	-11.55
▁merata	-11.5505
▁koloni	-11.5507
г	-11.5507
ete	-11.5508
▁diketengahkan	-11.5508
▁tempahan	-11.5508
▁mengangkut	-11.5508
▁ihsan	-11.5508
▁pendukung	-11.5508
hom	-11.5509
▁khasnya	-11.5509
tru	-11.5511
▁disedari	-11.5517
▁success	-11.5519
dit	-11.5521
▁Mid	-11.5525
▁Noh	-11.5526
▁Mediterranean	-11.5527
▁gandum	-11.5527
▁Sukarno	-11.5528
▁PLUS	-11.5529
dium	-11.553
▁Sg	-11.5532
▁dinaiki	-11.5533
▁Movie	-11.5533
▁tabiat	-11.5536
▁penunjuk	-11.5537
▁Krisis	-11.5538
▁koko	-11.5538
▁melintasi	-11.5542
▁hulu	-11.5544
▁Steve	-11.5546
vasi	-11.5546
▁Baitulmaqdis	-11.5546
▁Temerloh	-11.5546
tensi	-11.5549
▁Teh	-11.5551
▁Hin	-11.5551
▁Sy	-11.5554
ovo	-11.5554
▁Penjawat	-11.5556
▁rantai	-11.5557
▁berpisah	-11.5558
▁kafe	-11.5559
▁naskhah	-11.5559
▁Sharif	-11.5559
ulasi	-11.556
emi	-11.5561
▁Qar	-11.5562
▁Ton	-11.5563
▁Perguruan	-11.5565
GH	-11.5566
▁Daily	-11.5569
▁diserap	-11.5569
pkan	-11.5569
Sekiranya	-11.5574
Ahli	-11.5574
▁MO	-11.5574
▁temasya	-11.5575
▁Fuji	-11.5578
▁penyimpanan	-11.5579
▁IT	-11.558
adah	-11.5581
▁MELAKA	-11.5584
▁Jajahan	-11.5584
▁provokasi	-11.5591
▁Indra	-11.5595
▁pencari	-11.5595
teria	-11.5595
▁bertempat	-11.5598
tay	-11.56
▁meeting	-11.56
▁Sekali	-11.5601
▁Anna	-11.5602
▁kasut	-11.5604
▁Mahasiswa	-11.5604
Perkara	-11.5604
ASI	-11.5605
SKMM	-11.5606
boleh	-11.5607
▁Mini	-11.5607
▁stand	-11.5608
nut	-11.561
▁certain	-11.561
▁mengadu	-11.561
▁karang	-11.5613
▁tiruan	-11.5613
▁Hub	-11.5616
mid	-11.5617
▁IP	-11.5618
/4	-11.5619
rick	-11.5621
▁Web	-11.5622
▁Bourgogne	-11.5623
▁Lak	-11.5623
ensi	-11.5623
▁HIV	-11.5624
▁terganggu	-11.5624
▁memperluas	-11.5626
mand	-11.5626
	-11.5627
bumi	-11.5627
з	-11.5629
▁Syam	-11.563
▁organisma	-11.563
▁tax	-11.5631
▁kegemilangan	-11.5632
▁chief	-11.5632
▁setaraf	-11.5636
▁menyelaras	-11.5636
▁el	-11.5642
▁JUMLAH	-11.5642
▁Xinjiang	-11.5642
▁kedutaan	-11.5642
▁Rembau	-11.5642
▁menunggang	-11.5643
▁seliter	-11.5643
▁Gre	-11.5643
▁PP	-11.5646
ongan	-11.5648
▁ramah	-11.565
▁05	-11.565
itch	-11.565
▁Health	-11.5652
▁KINABALU	-11.5652
▁Sw	-11.5653
▁Hadis	-11.5654
HP	-11.5655
stic	-11.5655
▁KM	-11.5665
▁mengejut	-11.5665
▁Wat	-11.567
▁ambulans	-11.5671
▁disesuaikan	-11.5671
wangi	-11.5671
KEL	-11.5678
▁Laos	-11.5678
▁jaga	-11.5679
▁04	-11.568
▁Government	-11.5681
▁dihidangkan	-11.5681
▁Obama	-11.5681
HO	-11.5681
▁kemarin	-11.5681
▁Chua	-11.5684
▁making	-11.5684
▁App	-11.5685
▁stage	-11.5686
▁Ap	-11.5688
▁hope	-11.5689
▁berpanjangan	-11.569
Calais	-11.5691
▁Taj	-11.5695
uru	-11.5695
▁Mart	-11.5696
▁haruslah	-11.5698
▁arang	-11.5699
ego	-11.5699
UP	-11.57
▁Ting	-11.5701
▁54%	-11.5702
▁lulusan	-11.5703
Kutub	-11.5706
ration	-11.5706
▁Scott	-11.5706
▁bring	-11.5706
▁Tek	-11.5707
▁lif	-11.5707
▁masyhur	-11.5708
▁1,5	-11.5708
▁rupiah	-11.571
▁mengecam	-11.571
▁payung	-11.5713
chy	-11.5713
▁plan	-11.5715
▁runut	-11.5716
▁Mongolia	-11.5718
▁Reuters	-11.5719
▁mengi	-11.5722
▁LHDN	-11.5722
▁keju	-11.5723
ying	-11.5723
▁1,2	-11.5723
▁lada	-11.5725
▁berpandukan	-11.5727
▁IC	-11.5728
▁Minangkabau	-11.5729
▁komoditas	-11.5729
▁Straits	-11.5729
▁Jantung	-11.573
▁pembawa	-11.5731
Negeri	-11.5734
nag	-11.5735
▁office	-11.5736
▁perkebunan	-11.5739
Ni	-11.5739
▁taken	-11.5739
▁mendaftarkan	-11.574
sial	-11.574
key	-11.5742
ingin	-11.5744
▁Rama	-11.5744
▁henti	-11.5745
balik	-11.5745
▁diikat	-11.5745
▁panglima	-11.5749
▁lembah	-11.5749
▁Imran	-11.5752
▁turn	-11.5754
▁NBC	-11.5754
▁Struktur	-11.5758
▁diwarisi	-11.5759
▁giliran	-11.5759
▁bersasar	-11.576
▁CA	-11.5761
▁Yew	-11.5763
mate	-11.5766
▁fiksyen	-11.5768
tama	-11.5768
tti	-11.5768
Arab	-11.5768
▁travel	-11.5768
▁30%	-11.5769
▁nikmat	-11.577
leng	-11.5775
▁Imperial	-11.5778
▁Serantau	-11.5779
▁Libya	-11.5779
▁visit	-11.578
ncang	-11.5781
lindung	-11.5781
▁Puncak	-11.5783
▁Beta	-11.5787
▁pengasingan	-11.5788
▁prospek	-11.5789
MO	-11.579
▁daif	-11.5791
▁ln	-11.5791
▁memanjangkan	-11.5794
Berdasarkan	-11.5794
▁Tingkat	-11.5795
▁Arif	-11.5796
▁merapatkan	-11.5798
lf	-11.5798
▁Bau	-11.58
banyak	-11.58
rib	-11.58
hard	-11.5801
cs	-11.5804
▁Nazrin	-11.5806
Kha	-11.5806
▁Kesehatan	-11.5807
▁Skating	-11.5807
▁FOTO	-11.5808
▁Jab	-11.581
▁Pingat	-11.5812
term	-11.5812
pasukan	-11.5814
▁geo	-11.5814
FM	-11.5815
▁kugiran	-11.5817
▁meletup	-11.5817
▁arwah	-11.5818
▁Genting	-11.582
ude	-11.5821
▁Point	-11.5822
▁Fook	-11.5824
sap	-11.5826
sistem	-11.5826
▁memperingati	-11.5827
▁vitamin	-11.5827
▁Steven	-11.583
▁1914	-11.5832
▁112	-11.5833
▁respons	-11.5834
ose	-11.5837
▁dikunjungi	-11.5837
▁acuan	-11.5838
▁Hartanah	-11.5838
▁Pengawal	-11.5838
hausen	-11.5841
IPD	-11.5843
ref	-11.5844
▁PERKESO	-11.5846
▁Firdaus	-11.5847
▁berkompromi	-11.5847
▁najis	-11.5847
nay	-11.5847
ock	-11.5849
▁Ummah	-11.5849
▁Selayang	-11.585
▁son	-11.5852
▁Mansur	-11.5852
▁Than	-11.5854
▁pendidik	-11.5856
▁KESEJAHTERAAN	-11.5856
▁mendominasi	-11.5856
oj	-11.5857
▁terputus	-11.5857
och	-11.5859
▁Berbeza	-11.5862
▁Demikian	-11.5863
▁ketum	-11.5864
iring	-11.5864
▁peradaban	-11.5866
▁Kemaman	-11.5867
▁Kuning	-11.5869
lapis	-11.587
▁Cote	-11.5872
▁lengan	-11.5873
tte	-11.5875
▁Perbendaharaan	-11.5876
▁semenanjung	-11.5876
▁Tangerang	-11.5877
▁pemakaian	-11.5878
ISBN	-11.5878
▁beserta	-11.5879
MD	-11.588
▁Telur	-11.5881
▁pengiklanan	-11.5886
▁persempadanan	-11.5886
▁bertembung	-11.5886
▁petisyen	-11.5886
▁spesifikasi	-11.5887
▁Pap	-11.5889
▁Fire	-11.589
▁Fadzil	-11.5891
▁Zin	-11.5894
▁Pemberian	-11.5895
stik	-11.5896
▁bertarung	-11.5896
▁perseorangan	-11.5896
▁Ridzuan	-11.5896
▁berp	-11.59
rod	-11.5901
pam	-11.5902
▁Kegiatan	-11.5902
▁Sung	-11.5903
▁Commission	-11.5906
▁lestari	-11.5906
▁Cel	-11.5907
sara	-11.5907
▁Juru	-11.591
▁gila	-11.5913
▁Senjata	-11.5916
isteri	-11.5916
▁Malim	-11.5917
▁met	-11.5918
▁BP	-11.592
ching	-11.5921
▁praktik	-11.5921
▁Perkahwinan	-11.5921
▁Kelana	-11.5923
▁Leste	-11.5925
	-11.5926
▁vokasional	-11.5926
▁komander	-11.5926
▁penerapan	-11.5926
▁Services	-11.593
▁Ez	-11.5932
▁sangka	-11.5934
▁kh	-11.5934
seribu	-11.5934
▁CS	-11.5934
▁pergaduhan	-11.5936
▁sesekali	-11.5937
▁salib	-11.5937
▁Chris	-11.5943
▁Ris	-11.5944
▁Mertajam	-11.5946
▁menyalahgunakan	-11.5946
▁various	-11.5946
▁Sahabat	-11.5946
▁diubahsuai	-11.5946
▁doing	-11.5947
rail	-11.5947
▁care	-11.5949
▁Nag	-11.595
upaya	-11.5952
▁Penuh	-11.5952
mbangan	-11.5953
▁Hamilton	-11.5956
▁penggemar	-11.5956
▁Keuangan	-11.5956
pung	-11.5957
igny	-11.5959
▁Award	-11.5959
▁mind	-11.5961
ked	-11.5965
▁Mecklenburg	-11.5965
▁Pet	-11.5965
fl	-11.5966
▁Tumpat	-11.5966
▁Muk	-11.5969
▁Polri	-11.5971
▁death	-11.5971
▁siswa	-11.5975
▁Yaakob	-11.5975
▁tertekan	-11.5976
uto	-11.5981
bli	-11.5981
▁sent	-11.5982
asas	-11.5983
▁suapan	-11.5984
kuat	-11.5985
▁Goh	-11.5985
▁dinyanyikan	-11.5985
▁cetakan	-11.599
igh	-11.599
▁Chicago	-11.5995
▁kemurungan	-11.5995
▁tersusun	-11.5995
▁Umat	-11.5996
▁perihal	-11.5996
▁utang	-11.5998
▁mengutuk	-11.6006
▁bertanggung	-11.6006
▁Reformasi	-11.6007
fen	-11.6009
▁Matang	-11.6009
▁Wali	-11.601
▁concept	-11.6012
ngi	-11.6014
▁habitat	-11.6016
▁hidung	-11.6016
▁Lion	-11.6018
▁Lepas	-11.6019
eira	-11.602
embang	-11.6022
phone	-11.6025
▁perkilangan	-11.6025
▁disertakan	-11.6026
▁Rekod	-11.6027
▁perempuannya	-11.6028
▁Amy	-11.6028
▁Sap	-11.6028
▁Panel	-11.6029
bau	-11.6029
▁atasan	-11.6029
cari	-11.603
▁Habib	-11.603
▁EUR	-11.6031
wer	-11.6031
stad	-11.6033
▁Sosialis	-11.6033
▁Capital	-11.6036
▁Politeknik	-11.6036
▁Presidennya	-11.6036
▁organization	-11.6036
▁Serai	-11.6036
belakang	-11.6038
tr	-11.6038
▁minim	-11.6039
▁Lubuk	-11.6039
shire	-11.604
▁Peta	-11.6042
▁kerjanya	-11.6044
lk	-11.6045
▁Limited	-11.6046
▁46%	-11.6047
▁menular	-11.6049
▁USA	-11.605
Bukhari	-11.6051
pis	-11.6051
surat	-11.6052
▁Party	-11.6053
▁Semenjak	-11.6056
▁draf	-11.6056
▁Kumar	-11.6057
▁didn	-11.6059
▁sign	-11.606
salah	-11.6062
▁kronik	-11.6062
▁fasilitas	-11.6066
▁penaklukan	-11.6066
▁dikecualikan	-11.6066
▁Asean	-11.6067
▁Morning	-11.6067
JKM	-11.6067
▁nyamuk	-11.6067
▁lurus	-11.6068
▁dipenjarakan	-11.6069
▁Bella	-11.607
stein	-11.6071
bawa	-11.6072
▁Himpunan	-11.6076
▁Pengarang	-11.6076
rud	-11.6076
▁Kemenangan	-11.6076
pha	-11.6078
▁putaran	-11.6079
ense	-11.608
▁Om	-11.6081
ctive	-11.6081
▁membutuhkan	-11.6086
▁Kematian	-11.6086
▁nafsu	-11.6086
▁Petugas	-11.6088
▁Serang	-11.6088
sila	-11.6089
▁beku	-11.6089
▁dipertikaikan	-11.609
▁Line	-11.609
▁saranan	-11.6094
▁diingatkan	-11.6095
▁culture	-11.6096
▁malang	-11.6097
RS	-11.6098
▁Jura	-11.61
ام	-11.6101
▁Old	-11.6102
Setakat	-11.6103
▁DBP	-11.6106
▁Thuringen	-11.6106
cep	-11.6106
▁health	-11.6106
KPM	-11.6107
▁nautika	-11.6107
▁diselaraskan	-11.6108
▁WANITA	-11.6116
▁Travel	-11.6116
tation	-11.612
zat	-11.612
SL	-11.6121
▁return	-11.6122
▁Sep	-11.6124
lif	-11.6125
nji	-11.6126
▁Kontrak	-11.6126
▁berkembar	-11.6127
▁sebatang	-11.6128
kl	-11.613
▁night	-11.6131
▁berunsur	-11.6133
nch	-11.6135
▁15%	-11.6143
▁Ianya	-11.6144
nang	-11.6145
▁Olahraga	-11.6147
▁dinasihatkan	-11.6147
▁Some	-11.6152
▁dibacakan	-11.6152
▁Four	-11.6153
▁Lat	-11.6156
▁konsumsi	-11.6157
▁percakapan	-11.6157
▁Anggaran	-11.6157
NE	-11.6162
▁PC	-11.6164
▁AC	-11.6165
▁komposer	-11.6167
▁automasi	-11.6167
▁gangsa	-11.6167
▁seketika	-11.6168
kod	-11.6168
shan	-11.6173
Jo	-11.6174
▁times	-11.6174
▁Terjemahan	-11.6177
▁perselisihan	-11.6177
▁tiub	-11.6178
▁suria	-11.618
1997	-11.6182
els	-11.6183
▁Danau	-11.6183
▁leader	-11.6185
hidup	-11.6185
▁Alat	-11.6186
20,	-11.6188
▁though	-11.6189
ieres	-11.6191
▁Walt	-11.6192
▁penyandang	-11.6192
▁Wak	-11.6193
▁SIM	-11.6195
pose	-11.6197
▁Aishah	-11.6198
:1	-11.62
▁perform	-11.6202
▁director	-11.6203
nen	-11.6206
▁Pil	-11.6206
▁SL	-11.6208
‟	-11.6208
▁Your	-11.6209
▁Federal	-11.6209
▁peronda	-11.6209
▁Mancha	-11.6211
LAH	-11.6212
▁abangnya	-11.6214
▁paus	-11.6215
▁Awards	-11.6216
iy	-11.6216
▁Karnival	-11.6218
▁disemak	-11.6218
▁pelaksana	-11.6223
▁kapita	-11.6226
OM	-11.6226
▁beragam	-11.6227
▁Mati	-11.6228
▁countries	-11.6228
▁jurucakap	-11.6228
ege	-11.6229
▁Ty	-11.623
▁20,000	-11.6233
▁sabar	-11.6233
▁memburukkan	-11.6236
▁Por	-11.6237
▁PPS	-11.6238
gle	-11.6239
▁Saluran	-11.6239
kaedah	-11.6242
its	-11.6243
trem	-11.6246
▁PD	-11.6247
AY	-11.6249
▁JPA	-11.6254
menteri	-11.6257
nto	-11.6258
▁keter	-11.6262
▁Tanda	-11.6263
▁hinggalah	-11.6266
▁karyanya	-11.6267
▁begini	-11.6267
▁Riz	-11.6268
	-11.6269
▁Cemerlang	-11.6269
▁Siswazah	-11.6269
▁Person	-11.6269
▁sekular	-11.6269
▁Apdal	-11.6269
▁series	-11.6272
▁matter	-11.6273
▁harganya	-11.6273
▁bersa	-11.6277
▁famili	-11.6279
▁kolaborasi	-11.6279
▁memuncak	-11.6279
▁dorongan	-11.628
▁ekspres	-11.6281
▁meta	-11.6284
▁Juta	-11.6285
▁beritahu	-11.6286
▁melemahkan	-11.6287
▁terbalik	-11.6288
▁PEMBANGUNAN	-11.629
▁kekerapan	-11.629
▁Bambang	-11.629
▁Malang	-11.629
cio	-11.629
fik	-11.629
onne	-11.6293
down	-11.6295
ME	-11.6296
▁pengukuran	-11.6296
▁rempah	-11.6297
sung	-11.6299
▁Et	-11.63
▁Shukri	-11.63
▁optik	-11.6301
▁4,000	-11.6301
▁Pal	-11.6301
▁Bajau	-11.6302
2003	-11.6302
▁berbunyi	-11.6303
▁1997,	-11.6307
▁Mizan	-11.6307
dri	-11.6308
▁melakar	-11.6311
▁SAID	-11.6311
▁nada	-11.6312
▁padanan	-11.6313
▁WONG	-11.6313
▁SS	-11.6314
▁seratus	-11.6315
bidang	-11.6316
▁Run	-11.6318
▁Bintulu	-11.6321
▁Keperluan	-11.6321
▁ekspedisi	-11.6321
reg	-11.6321
▁pemberi	-11.6322
▁Rencana	-11.6322
uji	-11.6323
▁Kuta	-11.6326
▁From	-11.6329
▁Kehadiran	-11.6331
gn	-11.6333
▁Nokia	-11.6333
▁gantian	-11.6333
▁konten	-11.6334
▁Jones	-11.6335
▁trak	-11.6335
▁KPDNKK	-11.6336
juta	-11.6336
▁ekstrem	-11.6339
▁Garden	-11.6339
etik	-11.6341
▁dihadapkan	-11.6341
▁menyamar	-11.6341
▁Gedung	-11.6342
▁berte	-11.6343
pra	-11.6349
▁Zahari	-11.635
▁Pendang	-11.6351
▁jeneral	-11.6352
▁became	-11.6352
▁Kolonel	-11.6352
▁menolong	-11.6352
kultur	-11.6353
saya	-11.6357
EG	-11.6361
▁Bakti	-11.6361
▁Eks	-11.6362
▁Pengenalan	-11.6362
▁Tahfiz	-11.6362
▁Televisyen	-11.6362
▁khazanah	-11.6362
▁laksanakan	-11.6362
▁Wartawan	-11.6362
▁teruja	-11.6362
wad	-11.6366
▁Kerjaya	-11.6366
riti	-11.6368
▁leave	-11.6372
▁already	-11.6372
▁mengawasi	-11.6372
Memang	-11.6374
▁2%	-11.6375
lawat	-11.6377
lash	-11.6377
▁Induk	-11.6379
▁road	-11.6381
▁Titi	-11.6381
matik	-11.6382
▁Butterworth	-11.6383
▁undangan	-11.6385
ound	-11.6386
▁menangis	-11.6386
▁follow	-11.6392
▁1918	-11.6392
▁menyusul	-11.6393
▁Byzantine	-11.6393
▁approach	-11.6393
▁perkapalan	-11.6393
▁Pontian	-11.6394
▁Potter	-11.6395
DU	-11.6396
▁Jangka	-11.6396
uq	-11.6398
Dari	-11.6403
▁Ibrani	-11.6403
▁pelepah	-11.6404
▁gelar	-11.6404
MR	-11.6404
▁Krai	-11.6406
▁menyebar	-11.6407
▁parit	-11.6407
MU	-11.6408
inter	-11.641
▁Rapid	-11.6412
▁Oh	-11.6413
▁ISMAIL	-11.6414
▁Sederhana	-11.6414
▁Pahlawan	-11.6414
▁tingkap	-11.6414
▁sinar	-11.6415
unggu	-11.6416
nova	-11.6418
jil	-11.6419
rip	-11.6419
HR	-11.642
UiTM	-11.6422
▁Tata	-11.6422
▁15,000	-11.6423
▁Kelompok	-11.6424
elo	-11.6424
▁cas	-11.6425
pemain	-11.6425
kedai	-11.6429
▁FAMA	-11.6429
jual	-11.6429
▁Tentu	-11.6433
▁membaiki	-11.6434
▁Istanbul	-11.6435
▁terjebak	-11.6435
▁whether	-11.6435
PKS	-11.6437
▁love	-11.6439
▁Karl	-11.644
ome	-11.644
mpak	-11.6441
▁norma	-11.6442
Tiada	-11.6444
▁studi	-11.6445
Kon	-11.6445
▁host	-11.6446
▁pengembaraan	-11.6446
▁done	-11.6448
▁Bisa	-11.6449
▁jutaan	-11.6449
nasib	-11.645
▁Luna	-11.6451
upan	-11.6451
▁Kl	-11.6452
▁tentangan	-11.6453
▁didengar	-11.6455
▁enggak	-11.6456
dut	-11.6456
late	-11.6458
▁Jr	-11.6458
▁Valley	-11.646
mbun	-11.6461
▁Williams	-11.6462
▁Ross	-11.6463
train	-11.6465
▁Kepenggunaan	-11.6466
▁30,000	-11.6469
▁Pay	-11.6476
▁break	-11.6476
▁berwibawa	-11.6477
▁kesahihan	-11.6477
▁SETAR	-11.6477
▁tar	-11.6478
▁Persi	-11.6478
▁pangkal	-11.6478
bs	-11.648
▁Mudah	-11.6483
هم	-11.6484
▁BI	-11.6485
▁sainsnya	-11.6487
▁Ramadhan	-11.6487
▁penganalisis	-11.6487
tory	-11.6488
▁paket	-11.6488
▁lantang	-11.6488
bok	-11.6489
▁Anne	-11.649
▁penyewa	-11.649
▁sesat	-11.6494
▁Non	-11.6496
gul	-11.6496
ril	-11.6496
▁bersendirian	-11.6498
DBKL	-11.6498
▁dikelaskan	-11.6498
▁ر	-11.6498
nica	-11.6501
▁zat	-11.6501
INA	-11.6502
DM	-11.6502
▁merta	-11.6505
rium	-11.6506
awai	-11.6506
▁Alasan	-11.6506
▁Khu	-11.6506
migrasi	-11.6507
▁Lesen	-11.6507
▁Jon	-11.6508
▁effect	-11.6508
▁Korporat	-11.6508
▁berkelayakan	-11.6508
▁Etnik	-11.6508
▁kelabu	-11.6509
une	-11.6512
▁Wood	-11.6518
▁PW	-11.6519
▁Pengajaran	-11.6519
▁ran	-11.6519
▁Hutang	-11.6519
▁growth	-11.6519
▁panggil	-11.652
▁Ketujuh	-11.652
▁Cabang	-11.6522
▁Kulon	-11.6523
▁Heart	-11.6526
▁poin	-11.6527
▁teguran	-11.6527
▁Akbar	-11.6528
▁pengaturcaraan	-11.6529
▁Dialog	-11.6529
▁perkenan	-11.6529
▁disuarakan	-11.6529
eau	-11.653
ات	-11.6533
▁tanggungan	-11.6535
▁jumlahnya	-11.6535
▁Milik	-11.6537
▁KEBUDAYAAN	-11.654
▁kuarters	-11.654
▁Yahaya	-11.654
Beliau	-11.6541
▁Fokus	-11.6541
▁book	-11.6542
▁lidah	-11.6543
▁might	-11.6544
▁email	-11.6548
▁Hidupan	-11.655
▁وا	-11.6552
▁Wad	-11.6552
▁Elektrik	-11.6553
▁cair	-11.6557
▁dihalang	-11.6559
pli	-11.656
▁KPU	-11.656
▁intervensi	-11.6561
▁perbatasan	-11.6561
▁Tamadun	-11.6561
▁Way	-11.6563
▁basah	-11.6565
istic	-11.6566
lom	-11.6566
▁Sufi	-11.6567
EU	-11.6568
view	-11.657
▁menyingkirkan	-11.6571
▁pergunungan	-11.6571
▁inkues	-11.6572
▁Champ	-11.6573
▁Briged	-11.6575
▁Gur	-11.6575
▁professional	-11.6576
titi	-11.658
▁Kum	-11.658
PPM	-11.6581
▁ungkap	-11.6582
▁MOHAMAD	-11.6582
▁Mahmood	-11.6582
▁pertolongan	-11.6582
▁Kehidupan	-11.6582
▁pisau	-11.6582
▁Pir	-11.6585
▁keep	-11.6587
▁س	-11.6587
▁hatinya	-11.6588
nim	-11.6588
▁memori	-11.6588
hart	-11.6589
▁Liu	-11.659
▁Billah	-11.6593
▁peredaran	-11.6593
▁nipis	-11.6593
▁nas	-11.6596
Sudah	-11.6598
▁figure	-11.6599
▁PK	-11.6599
▁agraria	-11.6603
▁ditawan	-11.6604
oke	-11.6605
wn	-11.6608
vertebrat	-11.661
▁Syar	-11.6611
▁BERKAITAN	-11.6614
▁Picardy	-11.6614
▁forensik	-11.6614
▁Komputer	-11.6614
endang	-11.6614
▁Batas	-11.6614
▁tikus	-11.6615
▁Nizam	-11.6615
inya	-11.6618
▁poster	-11.6619
mpat	-11.662
▁late	-11.662
uki	-11.6621
oti	-11.6623
▁Gelugor	-11.6625
▁dirasai	-11.6625
imun	-11.6625
wh	-11.6626
enam	-11.6627
▁Teresa	-11.6629
illy	-11.6634
▁perfileman	-11.6635
▁dirasakan	-11.6635
pong	-11.6635
▁rahmat	-11.6636
▁doktrin	-11.6636
▁Tarikh	-11.6637
gir	-11.6639
▁HA	-11.6639
▁student	-11.664
pir	-11.6642
gger	-11.6643
▁Ple	-11.6643
▁mengetepikan	-11.6646
▁sensitiviti	-11.6646
▁Gri	-11.6648
▁kind	-11.6648
▁memalukan	-11.6648
▁Roger	-11.665
▁Qui	-11.6651
ller	-11.6653
▁sentuhan	-11.6654
▁Lie	-11.6657
▁Perodua	-11.6657
▁bongsu	-11.6657
▁keraguan	-11.6657
▁periuk	-11.6657
DO	-11.6658
mul	-11.666
gut	-11.6661
2018	-11.6662
▁mekanik	-11.6664
▁semi	-11.6664
kitab	-11.6667
▁penghapusan	-11.6667
▁penghakiman	-11.6667
nger	-11.6668
▁wisatawan	-11.6669
▁bermanfaat	-11.667
▁Angka	-11.6671
▁berlari	-11.6671
▁player	-11.6672
▁menurutnya	-11.6673
naf	-11.6677
▁Muhammadiyah	-11.6678
▁champion	-11.6678
diklasifikasikan	-11.6678
▁memukul	-11.6678
▁mendiang	-11.6678
saat	-11.6679
60,000	-11.6679
▁membahagikan	-11.6682
▁sebabnya	-11.6683
cil	-11.6687
▁tanduk	-11.6688
▁alami	-11.6688
▁persenjataan	-11.6689
▁hancur	-11.6689
▁geometri	-11.6689
▁kepadatan	-11.6689
iang	-11.6691
liti	-11.6692
▁natural	-11.6692
983	-11.6692
▁Agro	-11.6693
CF	-11.6697
▁Menye	-11.6697
▁MOHAMED	-11.6699
▁arkeologi	-11.6699
▁Penghulu	-11.67
jelas	-11.67
shu	-11.6701
30,000	-11.6702
▁Bid	-11.6703
Bukan	-11.6703
Mer	-11.6703
▁Abad	-11.6704
▁DC	-11.671
▁dikalahkan	-11.671
▁tournament	-11.671
▁kerakyatan	-11.671
dakan	-11.6711
▁Regional	-11.6711
▁Type	-11.6712
riz	-11.6712
undur	-11.6712
▁45%	-11.6715
▁Pertua	-11.6718
▁Head	-11.6719
Kuala	-11.6719
▁digugurkan	-11.6721
▁demokratik	-11.6721
▁khalayak	-11.6721
▁renang	-11.6724
AND	-11.6724
▁Amri	-11.6724
cht	-11.6726
▁kekasih	-11.6727
▁11%	-11.673
▁raksasa	-11.6732
▁au	-11.6733
▁defendan	-11.6736
▁Khalil	-11.6737
gis	-11.6737
▁Bha	-11.6739
▁FMT	-11.6741
▁birokrasi	-11.6742
▁perlantikan	-11.6742
▁pelumba	-11.6743
▁tergantung	-11.6744
sektor	-11.6748
▁Beng	-11.675
▁TA	-11.6753
▁eksperimen	-11.6753
▁pernafasan	-11.6753
▁together	-11.6753
cup	-11.6754
▁Makan	-11.6754
she	-11.6756
endra	-11.6757
▁mempertikaikan	-11.6758
▁keping	-11.6759
▁Hiro	-11.6761
▁Gaji	-11.6762
▁Sekretariat	-11.6764
▁fundamental	-11.6764
▁lumayan	-11.6764
▁dijatuhkan	-11.6764
▁Florida	-11.6764
foto	-11.6764
▁Him	-11.6765
▁Vir	-11.6766
▁Tunisia	-11.6766
▁tugasnya	-11.6767
hadap	-11.6767
▁taking	-11.6767
▁Fur	-11.6767
▁considered	-11.6768
▁often	-11.6769
▁Yeoh	-11.6772
lle	-11.6773
▁kinerja	-11.6775
▁Lombok	-11.6775
▁Arthur	-11.6775
▁sewenang	-11.6778
▁berkat	-11.678
plikasi	-11.6782
▁$1	-11.6784
▁Alsace	-11.6786
▁meletus	-11.6786
▁Sao	-11.6786
▁Pisang	-11.6788
▁ABD	-11.6789
kaki	-11.679
▁kera	-11.6792
▁Youth	-11.6793
dog	-11.6793
▁ح	-11.6794
mpan	-11.6794
ification	-11.6794
▁Ball	-11.6794
▁Night	-11.6795
▁KUANTAN	-11.6796
▁pemansuhan	-11.6796
▁memadai	-11.6797
▁Hakikatnya	-11.6797
▁adegan	-11.6797
▁perabot	-11.6797
▁Mejar	-11.6804
alis	-11.6806
▁lambakan	-11.6807
▁respect	-11.6807
▁find	-11.6808
now	-11.6812
▁melampaui	-11.6816
▁penaja	-11.6817
cong	-11.6817
▁Melaksanakan	-11.6818
Har	-11.682
▁20%	-11.682
▁Juan	-11.6821
▁paksa	-11.6823
titik	-11.6823
emperuntukkan	-11.6828
Musta	-11.6829
▁Perspektif	-11.6829
▁bim	-11.6829
CT	-11.6829
JBPM	-11.6829
▁curi	-11.6829
▁по	-11.6829
kup	-11.6831
	-11.6835
▁Vel	-11.6835
▁basis	-11.6835
dun	-11.6836
▁datuk	-11.6837
▁Sebaik	-11.6838
▁industry	-11.684
▁memasarkan	-11.684
usan	-11.684
▁pengasuh	-11.684
bangunan	-11.684
posit	-11.6841
▁setanding	-11.6842
▁Idea	-11.6842
▁once	-11.6843
▁Mayat	-11.6845
▁penca	-11.6847
▁menyusut	-11.6849
▁SMA	-11.685
inci	-11.6853
▁Massa	-11.6854
▁menikah	-11.6854
wu	-11.6855
▁Fuziah	-11.6856
▁Spe	-11.6856
rain	-11.6858
trans	-11.686
▁PELANCONGAN	-11.6861
▁announced	-11.6863
150,000	-11.6864
dow	-11.6865
ico	-11.6866
▁Part	-11.6867
▁Bari	-11.6867
▁Keseluruhan	-11.6871
▁Arsenal	-11.6872
▁Istimewa	-11.6872
▁common	-11.6873
▁fall	-11.6873
▁Cikgu	-11.6874
ein	-11.6874
▁Most	-11.6876
endam	-11.6876
▁bersalin	-11.6877
bahagi	-11.688
lalu	-11.688
Col	-11.6882
▁demo	-11.6882
▁Gemilang	-11.6883
▁berbangga	-11.6883
▁mempelam	-11.6883
tanya	-11.6884
based	-11.6884
▁COM	-11.6885
BERSATU	-11.6886
sekarang	-11.6886
▁Kupang	-11.6886
▁berputar	-11.6888
shed	-11.6892
▁Foundation	-11.6894
padu	-11.6895
aktif	-11.6895
▁andaian	-11.6898
▁lelakinya	-11.6898
▁Azizan	-11.6901
▁Productions	-11.6901
▁Sahih	-11.6905
▁mandatori	-11.6906
▁bukunya	-11.6906
▁Vin	-11.6908
▁Sher	-11.6909
▁markah	-11.6909
▁intelek	-11.6916
▁temubual	-11.6916
▁Askar	-11.6916
▁Over	-11.6916
▁Kinta	-11.6922
born	-11.6925
AYA	-11.6925
▁siling	-11.6926
▁ASAS	-11.6926
hall	-11.6927
▁Poli	-11.6927
▁Kontinjen	-11.6927
▁membandingkan	-11.6927
▁Lubok	-11.6928
▁Badawi	-11.6928
ball	-11.6929
IG	-11.6931
institusi	-11.6931
▁Nang	-11.6934
▁Venezuela	-11.6938
▁menyukarkan	-11.6938
▁mempersembahkan	-11.6938
▁manual	-11.6939
hampir	-11.6939
rig	-11.694
▁Aminuddin	-11.694
more	-11.6941
Loir	-11.6943
▁bersiap	-11.6944
operasi	-11.6945
luas	-11.6945
▁bilakah	-11.6945
▁large	-11.6945
▁kelembapan	-11.6949
UH	-11.6949
▁Rum	-11.6952
▁received	-11.6953
Sekarang	-11.6954
▁KPWKM	-11.6956
▁mende	-11.6957
▁Individu	-11.6957
▁mengahwini	-11.696
▁diskusi	-11.696
▁simpati	-11.696
▁disaksikan	-11.696
hong	-11.6963
his	-11.6963
hill	-11.6964
Operasi	-11.6965
▁Kapit	-11.6965
Ser	-11.6966
▁Bazar	-11.6969
deng	-11.697
▁diilhamkan	-11.6971
▁bersekutu	-11.6973
▁Gel	-11.6973
kalan	-11.6973
▁migran	-11.6973
KB	-11.6976
GT	-11.6977
▁Sarah	-11.6979
pek	-11.698
▁Kura	-11.698
▁membicarakan	-11.6982
▁tampuk	-11.6982
tions	-11.6983
▁Fakta	-11.6986
Th	-11.699
▁These	-11.6991
▁Master	-11.6991
sman	-11.6991
▁Language	-11.6993
▁il	-11.6993
▁Saxony	-11.6993
▁Hawk	-11.6993
▁keanggotaan	-11.6993
▁Ramlee	-11.6994
▁kedalaman	-11.6995
▁months	-11.6995
▁asnaf	-11.6996
▁Stone	-11.6997
sekitar	-11.7
wali	-11.7002
▁Kurikulum	-11.7004
▁diperbaharui	-11.7004
▁menjumpai	-11.7004
▁Kuwait	-11.7004
▁mengembara	-11.7004
▁Dilahirkan	-11.7004
▁margin	-11.7004
▁Apalagi	-11.7005
▁menggantung	-11.7005
▁rotan	-11.7007
19,	-11.7009
▁Gang	-11.7012
▁2050	-11.7013
▁petak	-11.7015
▁EP	-11.7016
▁Ahmed	-11.7016
▁Siong	-11.7016
lih	-11.7016
▁penternakan	-11.7016
▁Sc	-11.7019
lantik	-11.7025
▁lumba	-11.7026
▁Dokumen	-11.7026
▁Ronald	-11.7032
▁Atau	-11.7033
▁dipertahankan	-11.7037
▁melupakan	-11.7037
▁tembakau	-11.7038
▁Kembali	-11.7038
nice	-11.704
▁Km	-11.7041
▁euro	-11.7042
▁PhD	-11.7043
▁Duke	-11.7043
▁Peratus	-11.7044
ffi	-11.7044
bha	-11.7045
▁tin	-11.7045
▁40%	-11.7046
▁106	-11.7046
ndo	-11.7047
▁campaign	-11.7049
▁konsonan	-11.7049
▁bertuah	-11.7049
▁disamping	-11.7049
▁course	-11.7049
▁lembap	-11.7049
▁Kyoto	-11.705
▁terhadapnya	-11.705
▁Oil	-11.7051
kelompok	-11.7051
serta	-11.7052
/2018	-11.7053
Peny	-11.7054
▁115	-11.7055
▁Aero	-11.7057
▁Guna	-11.7059
▁kredibiliti	-11.706
▁penggajian	-11.706
▁plot	-11.7062
▁Kemas	-11.7062
▁Ou	-11.7064
▁selera	-11.7064
▁1937	-11.7068
اء	-11.7069
oul	-11.7069
▁Christchurch	-11.7071
sikan	-11.7071
▁Amran	-11.7076
▁Programme	-11.7078
cro	-11.7081
Lu	-11.7081
▁Douglas	-11.7082
▁disingkirkan	-11.7082
▁merasai	-11.7082
▁Peneraju	-11.7082
▁Streram	-11.7082
▁Tajuddin	-11.7082
▁monopoli	-11.7084
gni	-11.7088
jai	-11.7088
JAKIM	-11.7091
▁1934	-11.7092
gha	-11.7093
▁hockey	-11.7093
▁abjad	-11.7093
▁Nibong	-11.7094
▁Sco	-11.7094
▁Pyrenees	-11.7094
▁mengingat	-11.7095
▁Saksi	-11.7095
▁dimuatkan	-11.7097
▁toksik	-11.7097
▁Tua	-11.7097
▁Kadang	-11.7098
▁gantung	-11.7102
▁dinaik	-11.7104
▁ditimbulkan	-11.7104
align	-11.7105
▁sila	-11.7105
▁hos	-11.7107
▁seribu	-11.7108
neg	-11.7109
▁komentar	-11.711
▁07	-11.7113
▁utuh	-11.7113
not	-11.7115
▁gugur	-11.7116
▁Tunggal	-11.7116
▁less	-11.7116
▁Mike	-11.7118
▁Nick	-11.7119
WP	-11.712
▁Kampar	-11.7121
thy	-11.7122
▁Demokrasi	-11.7127
▁diperbaiki	-11.7127
▁kekejaman	-11.7127
▁Sokongan	-11.7127
▁Jenazah	-11.7127
▁performance	-11.7127
▁penu	-11.7129
▁anggotanya	-11.713
UTM	-11.7133
▁Bong	-11.7134
pho	-11.7135
PPR	-11.7135
▁elak	-11.7136
bola	-11.7137
▁Columbia	-11.7138
▁Bahrain	-11.7138
▁Isma	-11.714
▁Jauh	-11.7141
▁nasionalisme	-11.7145
puluh	-11.7146
zil	-11.7147
umbu	-11.7149
	-11.7149
▁KETUJUH	-11.7149
suka	-11.715
▁sukacita	-11.7151
▁Lokman	-11.7152
ли	-11.7153
▁Okt	-11.7157
▁Sayang	-11.7157
2001	-11.7158
▁sure	-11.7158
pasan	-11.7159
komun	-11.716
▁Uber	-11.716
▁kehamilan	-11.716
▁segenap	-11.716
ison	-11.7161
▁SP	-11.7161
80,000	-11.7162
cial	-11.7163
▁building	-11.7164
▁Victor	-11.7166
acara	-11.7167
▁teruskan	-11.7167
▁fr	-11.7167
▁Marc	-11.7168
▁kecuaian	-11.7171
dorf	-11.7172
▁Pengasas	-11.7172
stock	-11.7174
hib	-11.7175
▁jadikan	-11.7178
▁started	-11.7181
▁1936	-11.7181
▁Committee	-11.7183
▁pariwisata	-11.7183
▁sinonim	-11.7183
▁romantik	-11.7183
▁learning	-11.7183
▁SDN	-11.7185
▁Kepong	-11.7188
gno	-11.7189
▁Arahan	-11.719
▁Hanafi	-11.7191
▁employ	-11.7193
▁Kre	-11.7194
▁Integrasi	-11.7194
▁Megat	-11.7195
ilmu	-11.7196
terjemah	-11.7201
▁dicuri	-11.7202
▁alias	-11.7205
tanding	-11.7205
▁mencederakan	-11.7205
▁port	-11.7206
panjang	-11.7209
▁Biasa	-11.7209
▁103	-11.7209
zul	-11.721
RAM	-11.721
▁Ek	-11.7213
▁pengesanan	-11.7214
num	-11.7215
▁AZALINA	-11.7216
▁BLACKPINK	-11.7216
▁keterlaluan	-11.7217
▁tunduk	-11.7217
▁Penyanyi	-11.7217
▁sek	-11.7219
350	-11.7221
And	-11.7222
▁Last	-11.7223
▁elok	-11.7224
▁Pemeriksaan	-11.7225
▁Keusahawanan	-11.7228
▁Perbincangan	-11.7228
▁hantar	-11.7229
▁Gred	-11.7229
▁kontra	-11.723
Tab	-11.723
▁batasan	-11.7233
▁Lipis	-11.7233
▁towards	-11.7235
▁Kenya	-11.7236
PF	-11.7237
▁NASA	-11.7238
▁JBPM	-11.7239
▁Perjuangan	-11.7239
▁Redzuan	-11.7239
▁Samsung	-11.724
itis	-11.7243
kembang	-11.7245
tho	-11.7246
▁102	-11.7249
▁difikirkan	-11.725
▁pelindung	-11.7252
[[	-11.7254
▁pat	-11.7256
▁Pon	-11.7257
▁Cons	-11.7258
ault	-11.7262
▁ketidaktentuan	-11.7262
thal	-11.7264
daran	-11.7264
▁self	-11.7265
tunggu	-11.7265
▁muara	-11.7265
▁ibni	-11.7268
hiro	-11.7269
kaum	-11.727
▁50,000	-11.7273
Atlantique	-11.7273
°	-11.7273
▁kebijaksanaan	-11.7273
▁Pie	-11.7276
milik	-11.7277
▁Sharifah	-11.7278
▁panik	-11.7278
▁Kr	-11.7279
bari	-11.7279
▁Leong	-11.728
▁Jim	-11.7281
▁Kamar	-11.7281
▁menyenangkan	-11.7284
▁tunjang	-11.7285
▁1:	-11.7285
▁55%	-11.7286
/2019	-11.7289
▁Reza	-11.7292
MW	-11.7293
▁Pembaharuan	-11.7296
▁konsumen	-11.7296
▁ja	-11.7298
Nas	-11.7298
▁situation	-11.7299
▁Aw	-11.73
▁tam	-11.7301
▁ide	-11.7302
▁MT	-11.7303
▁Bakri	-11.7303
nge	-11.7303
HI	-11.7304
biliti	-11.7306
▁carian	-11.7306
▁Cle	-11.7306
▁bauksit	-11.7307
▁mengiringi	-11.7307
▁Mutiara	-11.7307
▁Kandungan	-11.7307
▁tuhan	-11.7308
▁Antonio	-11.7308
than	-11.7308
▁flight	-11.7308
▁refer	-11.731
rag	-11.731
▁vii	-11.7311
▁Tarian	-11.7314
▁yet	-11.7315
▁laras	-11.7319
▁Pilah	-11.7319
▁Angola	-11.732
▁ibarat	-11.732
▁menumpang	-11.732
▁Haiwan	-11.7321
ternak	-11.7321
▁Duli	-11.7325
▁PL	-11.7327
spec	-11.7328
AZ	-11.7328
▁merangkul	-11.733
▁pin	-11.733
▁frasa	-11.7331
▁private	-11.7332
layan	-11.7332
lir	-11.7335
Kedua	-11.7336
Rahman	-11.7336
▁pour	-11.7336
▁Ayam	-11.7337
Ger	-11.7338
atul	-11.7338
▁however	-11.7342
▁Spring	-11.7343
▁Makmal	-11.7343
▁tour	-11.7344
sisi	-11.7344
isah	-11.7345
▁komunitas	-11.7346
عل	-11.7351
uruh	-11.7352
▁Moden	-11.7353
▁menampakkan	-11.7353
▁Suhaimi	-11.7353
alisme	-11.7353
rb	-11.7353
▁Dang	-11.7356
▁Dream	-11.7357
nov	-11.7357
zab	-11.736
Sem	-11.7364
▁dikejar	-11.7365
▁memartabatkan	-11.7365
media	-11.7365
▁vote	-11.7366
mohon	-11.7366
▁Pacific	-11.7367
▁Depan	-11.7367
ech	-11.7369
ington	-11.7372
▁menyelenggara	-11.7375
tional	-11.7376
▁pangsapuri	-11.7376
fort	-11.7378
▁sertai	-11.7379
▁paper	-11.7379
▁Bernam	-11.738
jakan	-11.7384
GP	-11.7384
▁syurga	-11.7387
▁tembaga	-11.7387
▁pistol	-11.7387
▁Mengambil	-11.7388
qah	-11.7389
wil	-11.7392
nding	-11.7392
▁JAS	-11.7393
skop	-11.7393
▁leaders	-11.7397
hood	-11.7397
▁penggubalan	-11.7398
▁Pengaruh	-11.7399
▁Industrial	-11.74
peny	-11.7401
▁Jac	-11.7401
wee	-11.7402
kk	-11.7408
pakar	-11.7409
▁engkau	-11.741
▁Lou	-11.7412
▁least	-11.7412
▁sekerja	-11.7413
▁Watak	-11.7413
▁nu	-11.7418
▁Get	-11.742
Aku	-11.7421
▁Lewis	-11.7422
▁diabaikan	-11.7422
mbak	-11.7424
▁104	-11.7427
▁gold	-11.7428
AWA	-11.7428
▁AFF	-11.7429
▁1917	-11.7431
saudara	-11.7432
▁university	-11.7433
▁REPUBLIK	-11.7433
▁sembahyang	-11.7434
▁152	-11.7435
▁track	-11.7438
▁pemotongan	-11.744
daun	-11.744
▁PPP	-11.7441
park	-11.7444
RIS	-11.7444
▁manuskrip	-11.7445
▁diasingkan	-11.7445
uth	-11.7445
▁Bujang	-11.7448
▁penggubah	-11.7448
sebagai	-11.7448
rier	-11.745
▁Mamat	-11.7451
▁playing	-11.7451
▁Pasal	-11.7451
▁Wolf	-11.7451
inah	-11.7451
sian	-11.7452
larang	-11.7454
▁usus	-11.7454
duc	-11.7455
▁Lady	-11.7456
▁Pemasaran	-11.7457
Qu	-11.7457
rawat	-11.7457
▁ARTI	-11.7458
▁Tiger	-11.7461
▁doa	-11.7461
▁demand	-11.7462
▁Polda	-11.7463
▁Sime	-11.7463
<	-11.7465
jawatan	-11.7466
vari	-11.7466
▁Penggal	-11.7466
▁menukarkan	-11.7467
vert	-11.7467
RIM	-11.7468
dos	-11.747
▁mainan	-11.7474
▁`	-11.7476
haz	-11.7476
rent	-11.7477
ggar	-11.7478
▁terjadinya	-11.7479
may	-11.7479
biri	-11.7481
▁usai	-11.7482
wing	-11.7483
▁European	-11.7483
▁Hannah	-11.7483
[...]
