<pad>	0
<unk>	0
[CLS]	0
[SEP]	0
[MASK]	0
.	0
(	0
)	0
"	0
-	0
–	0
£	0
€	0
#	0
'	0
[	0
]	0
a	-2.25198
▁	-3.28434
,	-3.35634
▁yang	-4.13584
▁dan	-4.19192
▁di	-4.2231
▁dengan	-5.18434
▁ini	-5.19835
▁untuk	-5.24275
▁dalam	-5.29108
▁itu	-5.34508
nya	-5.34932
s	-5.42581
▁,	-5.44206
▁pada	-5.53401
▁aku	-5.59181
▁tidak	-5.67272
▁ke	-5.71234
an	-5.79953
▁dari	-5.83469
▁akan	-5.91474
▁kepada	-5.92014
▁the	-5.942
▁juga	-6.03461
▁tahun	-6.06395
▁adalah	-6.11988
kan	-6.12691
▁oleh	-6.13363
▁mereka	-6.1958
▁telah	-6.22338
▁ada	-6.23641
▁sebagai	-6.25087
i	-6.26814
▁Malaysia	-6.28067
▁bagi	-6.28695
▁atau	-6.32664
:	-6.32773
▁orang	-6.34941
▁merupakan	-6.35501
▁sebuah	-6.3868
▁tak	-6.38817
▁and	-6.40875
▁negara	-6.47519
▁lebih	-6.49468
▁to	-6.51532
▁daripada	-6.51616
▁of	-6.52992
▁satu	-6.57495
▁saya	-6.58733
▁kita	-6.6164
▁menjadi	-6.63433
t	-6.64606
▁seperti	-6.68867
▁boleh	-6.71783
▁lagi	-6.72269
▁in	-6.73664
2	-6.76705
▁berkata	-6.77139
▁hari	-6.77255
▁tersebut	-6.78784
▁lain	-6.79428
▁tu	-6.82278
e	-6.83204
▁katanya	-6.8441
▁terletak	-6.91314
▁kerana	-6.92689
▁dapat	-6.92967
▁nak	-6.93063
▁ia	-6.94288
▁Aku	-6.95663
▁I	-6.97284
▁sudah	-6.97572
▁sama	-6.98904
▁ni	-6.99928
▁secara	-7.01985
▁ialah	-7.0349
▁serta	-7.03494
▁semua	-7.05145
▁kawasan	-7.06583
▁RM	-7.06623
▁masa	-7.0685
▁kerajaan	-7.07631
▁hanya	-7.08154
▁pun	-7.08882
k	-7.09412
d	-7.09458
▁?	-7.10101
▁Pada	-7.11474
▁beliau	-7.13945
▁rumah	-7.14726
▁1	-7.14759
▁masih	-7.14888
▁Indonesia	-7.15612
▁apa	-7.161
▁Islam	-7.16458
▁Di	-7.17146
▁Menteri	-7.1743
▁banyak	-7.17517
▁anak	-7.17812
?	-7.18276
n	-7.18684
ku	-7.19535
▁seorang	-7.19705
▁:	-7.21961
▁dua	-7.22227
▁perlu	-7.22456
▁beberapa	-7.23355
▁atas	-7.23917
▁isu	-7.24168
▁bukan	-7.2465
▁antara	-7.24772
▁A	-7.24913
▁ketika	-7.25526
m	-7.26676
▁kata	-7.27658
▁lalu	-7.2853
▁mana	-7.29018
▁mempunyai	-7.29057
▁pihak	-7.29142
ing	-7.31415
▁negeri	-7.32306
▁baru	-7.32755
lah	-7.33026
▁selepas	-7.35036
▁terhadap	-7.36878
▁bahawa	-7.37252
▁kami	-7.39371
in	-7.402
▁sebelum	-7.40475
o	-7.40512
▁Kerajaan	-7.41188
▁baik	-7.41321
ed	-7.4224
h	-7.43436
▁tetapi	-7.44397
▁Dalam	-7.45191
▁bersama	-7.45358
▁iaitu	-7.45396
▁besar	-7.45423
▁sangat	-7.45792
1	-7.47182
▁sendiri	-7.47234
▁Beliau	-7.47871
▁2	-7.48082
▁bawah	-7.48403
▁hingga	-7.48435
▁S	-7.48684
▁Datuk	-7.48706
▁melalui	-7.4999
▁termasuk	-7.50904
▁buat	-7.50907
;	-7.51838
▁juta	-7.52119
▁pertama	-7.52281
▁bisa	-7.5319
▁dah	-7.53879
▁Dr	-7.54535
▁3	-7.54762
▁membuat	-7.54771
▁is	-7.54912
▁sehingga	-7.55524
▁terus	-7.56017
/	-7.56139
▁pernah	-7.56941
▁sekolah	-7.57213
y	-7.57276
▁for	-7.57558
▁turut	-7.58303
▁kerja	-7.58403
▁masyarakat	-7.58475
▁dunia	-7.58887
▁memberi	-7.6016
▁tapi	-7.60763
▁Yang	-7.6096
▁diri	-7.6138
▁al	-7.61386
▁rakyat	-7.62045
u	-7.62177
▁that	-7.62351
▁air	-7.62611
▁salah	-7.63378
▁berkenaan	-7.6347
▁The	-7.63617
▁kali	-7.63891
▁ber	-7.64963
▁tempat	-7.65179
▁la	-7.65823
▁Ia	-7.65882
▁kedua	-7.66722
▁setiap	-7.66759
▁memiliki	-7.66932
▁sini	-7.67241
▁lelaki	-7.67623
▁jadi	-7.69059
er	-7.69651
▁kau	-7.70417
▁apabila	-7.71289
▁digunakan	-7.73129
▁mengenai	-7.73227
▁tahu	-7.74073
▁tinggi	-7.74132
▁sebab	-7.74358
▁sebanyak	-7.74417
▁menggunakan	-7.74564
▁!	-7.74811
▁4	-7.74826
A	-7.75047
▁saat	-7.75382
▁on	-7.75401
▁Melayu	-7.75792
▁pula	-7.76506
▁bulan	-7.7653
▁jika	-7.77624
S	-7.77638
▁mengambil	-7.77665
▁jumlah	-7.78643
▁daerah	-7.79
▁rasa	-7.79104
▁syarikat	-7.7994
▁kalau	-7.80205
▁masalah	-7.81112
▁Dia	-7.81139
▁Al	-7.81143
▁luar	-7.81975
▁nama	-7.82341
▁pelajar	-7.82362
▁Kementerian	-7.8279
▁tiga	-7.83598
▁kini	-7.84442
▁M	-7.84513
▁Sekolah	-7.84725
p	-7.85139
▁sejak	-7.85362
▁je	-7.85372
▁de	-7.85467
▁Negeri	-7.85559
▁be	-7.85729
▁utama	-7.85882
▁B	-7.86161
▁karena	-7.86205
▁program	-7.87804
▁macam	-7.8793
▁sedang	-7.88585
▁was	-7.88623
▁masuk	-7.88784
▁ekonomi	-7.89241
▁5	-7.89493
▁Ketua	-7.89606
3	-7.90022
▁tanpa	-7.90307
▁hidup	-7.90328
▁saja	-7.90654
▁10	-7.90957
▁wanita	-7.91502
▁**	-7.91549
▁bandar	-7.91734
▁berlaku	-7.91843
▁as	-7.92033
▁ibu	-7.9261
B	-7.92643
▁hati	-7.92842
▁pelbagai	-7.92882
▁memang	-7.93014
▁sekali	-7.93148
▁semula	-7.93362
di	-7.9382
▁melakukan	-7.93905
▁harus	-7.93936
▁media	-7.93995
▁sampai	-7.94134
▁Negara	-7.94866
▁Tapi	-7.94874
▁mungkin	-7.95123
▁with	-7.95287
▁para	-7.95315
▁melihat	-7.95643
▁Allah	-7.96474
▁hal	-7.96477
▁Ini	-7.96585
▁mampu	-7.96853
▁Seri	-7.97225
▁wilayah	-7.97235
▁mendapat	-7.98423
▁dilakukan	-7.98916
M	-7.99021
▁selama	-7.9924
▁lama	-7.99303
r	-8.00323
▁Ke	-8.00636
▁politik	-8.00763
▁kembali	-8.00952
l	-8.01033
▁paling	-8.01438
▁ramai	-8.01597
▁Perdana	-8.02008
ly	-8.02315
▁membantu	-8.02396
▁berada	-8.02741
▁kes	-8.02775
▁Namun	-8.03201
▁kampung	-8.03404
▁bahasa	-8.0354
▁Amerika	-8.0354
▁tentang	-8.0405
▁keluarga	-8.0406
▁kat	-8.04421
5	-8.04567
19	-8.04836
▁menerima	-8.04865
▁kemudian	-8.05141
▁ahli	-8.05228
▁Saya	-8.05314
▁jalan	-8.05431
▁peratus	-8.0555
▁perkara	-8.05735
▁P	-8.06001
▁awal	-8.06179
▁buah	-8.06392
▁kecil	-8.06642
si	-8.06705
▁namun	-8.06766
▁mata	-8.06837
▁sahaja	-8.0697
▁yg	-8.07002
▁belum	-8.07122
▁mak	-8.07168
▁Kuala	-8.07286
▁K	-8.07653
▁makanan	-8.07688
▁at	-8.07778
▁harga	-8.07815
es	-8.08476
al	-8.08509
▁agama	-8.0907
▁6	-8.0917
▁ter	-8.09199
▁sistem	-8.09862
▁it	-8.10381
▁Jabatan	-8.11186
▁tindakan	-8.11386
▁penting	-8.11515
▁sekarang	-8.11901
▁datang	-8.11962
▁Mohd	-8.12206
▁seluruh	-8.12388
g	-8.12591
▁tanah	-8.12668
▁China	-8.12781
▁Kebangsaan	-8.12908
re	-8.13082
▁perempuan	-8.13171
▁se	-8.13944
▁terdapat	-8.14127
▁bahwa	-8.14968
▁sekitar	-8.15272
▁India	-8.15284
4	-8.15286
▁supaya	-8.15383
▁waktu	-8.15562
▁usaha	-8.1588
▁mahu	-8.16326
▁Selain	-8.16417
▁memberikan	-8.16906
▁Dan	-8.16985
I	-8.17071
▁menyatakan	-8.17351
man	-8.17783
en	-8.18162
▁agar	-8.18264
▁semasa	-8.18349
▁E	-8.18381
▁depan	-8.18648
▁hasil	-8.18962
mu	-8.19024
▁ingin	-8.19252
▁bila	-8.19262
ah	-8.19322
T	-8.1955
▁mula	-8.196
▁Presiden	-8.19683
▁manusia	-8.19765
▁me	-8.19884
f	-8.20221
▁bilion	-8.20358
li	-8.2061
▁tempoh	-8.20686
▁T	-8.20687
▁malam	-8.2092
▁balik	-8.21268
▁sosial	-8.21333
▁are	-8.21721
▁per	-8.21722
▁keluar	-8.21836
▁Perancis	-8.22139
▁parti	-8.22437
▁18	-8.22534
▁langsung	-8.22709
▁berkaitan	-8.22717
▁Kampung	-8.22907
▁raya	-8.23034
▁Menurut	-8.23167
b	-8.23768
▁you	-8.23946
C	-8.23961
▁kamu	-8.24194
▁makan	-8.24692
▁Tuan	-8.24825
▁2019	-8.24889
se	-8.24915
▁filem	-8.24929
▁penduduk	-8.25236
▁Abdul	-8.25348
▁Se	-8.25423
▁C	-8.2547
▁jam	-8.25659
▁membawa	-8.26176
te	-8.26315
▁he	-8.27191
▁industri	-8.27202
▁komun	-8.27352
de	-8.27532
▁projek	-8.27723
▁memastikan	-8.2782
6	-8.28235
▁pergi	-8.28261
▁pasukan	-8.28282
▁setelah	-8.28883
▁kuasa	-8.28885
▁Ber	-8.28915
▁kira	-8.28923
undang	-8.29111
▁G	-8.29457
▁7	-8.2998
▁awam	-8.30178
▁tetap	-8.302
▁Tak	-8.30511
▁Untuk	-8.30662
▁keputusan	-8.30668
▁from	-8.30728
▁berjaya	-8.3073
▁pendidikan	-8.30839
▁keadaan	-8.31194
K	-8.31221
▁D	-8.31769
▁tiada	-8.31859
▁pembangunan	-8.32008
▁perkhidmatan	-8.3215
▁kurang	-8.32328
▁Mereka	-8.32439
▁anggota	-8.32646
▁kumpulan	-8.32743
▁menyebabkan	-8.32749
▁seramai	-8.32843
▁biasa	-8.33269
le	-8.33407
▁kena	-8.33444
▁Pulau	-8.33501
▁si	-8.33801
▁mengatakan	-8.33829
▁20	-8.33921
▁warga	-8.34347
▁lah	-8.34725
▁dekat	-8.34836
▁N	-8.34978
▁meningkatkan	-8.35249
▁kereta	-8.3532
▁dulu	-8.35434
▁Ahmad	-8.35731
▁jenis	-8.35901
D	-8.36039
▁menunjukkan	-8.36257
▁begitu	-8.36306
▁by	-8.36398
▁tengah	-8.36557
▁12	-8.3657
▁bermula	-8.36585
▁cara	-8.37327
▁peringkat	-8.37506
▁semakin	-8.37842
▁Syarikat	-8.37983
▁empat	-8.38164
!	-8.38517
▁mengikut	-8.38928
▁proses	-8.39038
▁2018	-8.39062
is	-8.39114
on	-8.39202
▁langkah	-8.3921
▁not	-8.3926
▁dibuat	-8.3931
▁Sementara	-8.39476
▁F	-8.39672
G	-8.398
to	-8.39822
▁baharu	-8.4008
▁Bagi	-8.40164
▁tadi	-8.4032
▁bidang	-8.4056
▁kaum	-8.40626
ri	-8.40761
▁kenyataan	-8.40821
▁selalu	-8.42015
P	-8.42033
▁walaupun	-8.42147
▁mendapatkan	-8.42205
▁Jakarta	-8.4239
▁jabatan	-8.42587
us	-8.42779
▁Selatan	-8.42938
▁said	-8.43102
▁bekerja	-8.43104
z	-8.43223
▁8	-8.43254
▁Kalau	-8.43408
▁selain	-8.4384
7	-8.43896
▁ayah	-8.43937
▁15	-8.44565
▁lima	-8.4486
▁bahagian	-8.45079
▁dikenali	-8.45627
▁tangan	-8.45748
▁kadar	-8.46418
▁U	-8.46655
▁pemain	-8.46693
▁Parlimen	-8.46716
▁Mahathir	-8.46896
0	-8.47348
▁Sabah	-8.477
ni	-8.47766
▁Mei	-8.48265
▁pagi	-8.48299
▁30	-8.48771
▁Majlis	-8.49057
▁cakap	-8.49171
▁Dewan	-8.49282
▁produk	-8.49284
▁Lumpur	-8.4958
Saya	-8.49843
▁berbanding	-8.49939
H	-8.49965
▁cukup	-8.49993
▁Katanya	-8.50229
▁suka	-8.50317
▁have	-8.50497
▁akhir	-8.50542
▁guru	-8.50606
▁so	-8.5095
▁&	-8.51089
▁tempatan	-8.511
▁golongan	-8.51243
c	-8.51308
▁minta	-8.5131
▁polis	-8.51434
▁Barat	-8.51752
▁pusat	-8.51803
ke	-8.51836
8	-8.51909
▁sambil	-8.51918
▁undang	-8.52114
▁pilihan	-8.5215
9	-8.52242
▁mudah	-8.5235
▁laporan	-8.524
▁ya	-8.52835
▁mulai	-8.52916
▁kalangan	-8.5339
▁pasti	-8.53452
▁bantuan	-8.53565
com	-8.53716
▁bentuk	-8.53742
▁cerita	-8.54051
▁lepas	-8.5417
ti	-8.54172
▁sesuatu	-8.54202
▁April	-8.54443
▁this	-8.54518
▁manakala	-8.54646
▁9	-8.54861
kira	-8.54915
▁kan	-8.55103
▁Persekutuan	-8.55146
▁diberikan	-8.55167
▁Sungai	-8.55309
▁desa	-8.55436
▁AS	-8.55557
N	-8.5557
un	-8.55601
ar	-8.55632
dua	-8.55677
▁kos	-8.55914
▁memba	-8.55922
▁Sri	-8.55935
▁11	-8.55939
▁So	-8.56199
▁hampir	-8.56266
▁Ada	-8.56369
▁kecamatan	-8.56388
▁Ahli	-8.56497
▁Cina	-8.56683
ter	-8.56737
▁O	-8.5674
▁Timur	-8.56751
▁or	-8.56909
▁bahan	-8.57369
▁Asia	-8.57435
▁kelas	-8.57632
▁Jadi	-8.5786
▁bekas	-8.58069
▁rendah	-8.58136
th	-8.58366
▁jelas	-8.58406
▁his	-8.58406
▁mencapai	-8.58448
▁nilai	-8.58474
▁berdasarkan	-8.5861
▁asing	-8.58634
▁sektor	-8.58774
▁pekerja	-8.58791
ang	-8.59035
▁menarik	-8.59107
▁Hal	-8.59203
▁Me	-8.59335
▁menerusi	-8.59466
▁badan	-8.59824
▁Johor	-8.59913
▁wang	-8.60011
no	-8.60151
▁arah	-8.60162
▁Kota	-8.60304
▁jauh	-8.60603
ik	-8.60613
▁terjadi	-8.60685
▁masing	-8.60758
la	-8.60811
▁mencari	-8.60827
▁;	-8.6088
▁Selangor	-8.60945
▁keseluruhan	-8.61013
▁muda	-8.61161
▁minyak	-8.61378
▁aktiviti	-8.61461
▁In	-8.61706
▁tiba	-8.61776
▁maka	-8.61787
▁sumber	-8.6198
▁sedikit	-8.62065
▁Mac	-8.62169
▁kawan	-8.62218
▁R	-8.62257
▁buku	-8.62698
▁Mohamad	-8.62748
▁ringgit	-8.6279
▁hak	-8.62848
▁Sarawak	-8.62867
▁Iran	-8.63028
kanak	-8.63147
▁dilaksanakan	-8.63199
▁Dengan	-8.63264
▁Sultan	-8.63302
▁Muhammad	-8.63486
masing	-8.63538
▁Jalan	-8.63612
▁PERTANYAAN	-8.63654
▁sepanjang	-8.63699
▁cuba	-8.63936
▁sering	-8.64097
▁Pendidikan	-8.64225
▁individu	-8.64407
▁16	-8.64501
▁keselamatan	-8.64576
▁Januari	-8.64642
ng	-8.64815
▁duduk	-8.64942
et	-8.64963
▁kejadian	-8.64973
ir	-8.64993
▁Raja	-8.65002
ul	-8.65194
▁menjadikan	-8.65238
▁demikian	-8.65255
▁14	-8.6533
▁gue	-8.65484
▁Raya	-8.6573
▁J	-8.6604
▁hubungan	-8.6614
▁Tun	-8.66191
▁UMNO	-8.66245
▁e	-8.6654
▁pengguna	-8.66691
▁adik	-8.67195
▁kasih	-8.67315
▁perniagaan	-8.6743
▁pe	-8.67545
▁will	-8.67554
▁2017	-8.67723
▁has	-8.67779
▁Nasional	-8.67937
▁Jepun	-8.68045
▁tinggal	-8.68198
▁amat	-8.68232
or	-8.68435
▁berusia	-8.68479
▁Besar	-8.68535
w	-8.68594
▁suatu	-8.68642
▁akibat	-8.68971
▁Kita	-8.69148
il	-8.69273
▁suami	-8.69435
▁sebarang	-8.69483
▁benar	-8.69597
▁teknologi	-8.69611
▁Kabupaten	-8.698
▁but	-8.69855
▁tentera	-8.69963
▁13	-8.70021
▁H	-8.70075
▁panjang	-8.7014
▁kewangan	-8.70149
▁meminta	-8.70288
▁ku	-8.70427
▁sebenarnya	-8.70592
▁pendapatan	-8.70778
▁belajar	-8.70795
▁pemimpin	-8.70798
▁Orang	-8.70931
▁diberi	-8.71089
▁musim	-8.71111
▁menteri	-8.71183
▁akhirnya	-8.71245
▁L	-8.71297
pe	-8.71472
▁Tan	-8.71492
▁perbandaran	-8.71571
▁Jerman	-8.71701
▁Akta	-8.71857
▁berhubung	-8.71929
▁melibatkan	-8.72072
▁peluang	-8.72246
▁pemerintah	-8.72312
▁nanti	-8.72676
▁Timbalan	-8.72834
▁sakit	-8.73211
▁maklumat	-8.73235
▁Rakyat	-8.7327
▁Universiti	-8.73288
▁had	-8.73419
▁pegawai	-8.73537
▁2020	-8.73609
ur	-8.73623
▁melaksanakan	-8.73709
▁jangan	-8.73747
▁terutama	-8.73839
▁dasar	-8.73857
▁Apa	-8.73917
ce	-8.73974
▁dilihat	-8.73976
▁tanya	-8.74472
▁terba	-8.74529
▁2015	-8.74544
▁lagu	-8.74594
▁diambil	-8.74644
J	-8.74789
me	-8.75086
▁Pusat	-8.75471
▁milik	-8.75549
▁2016	-8.75552
▁my	-8.75688
▁tau	-8.75837
▁laut	-8.75869
▁Arab	-8.75874
▁Najib	-8.75972
▁He	-8.7601
▁mangsa	-8.76172
F	-8.76565
▁menyediakan	-8.76678
▁re	-8.76685
▁data	-8.77102
▁penuh	-8.77287
▁Dunia	-8.77667
R	-8.77752
▁/	-8.78023
▁17	-8.7806
▁mengalami	-8.7807
▁sentiasa	-8.78077
▁Dari	-8.78111
▁Tidak	-8.78203
▁Jun	-8.78242
▁Jika	-8.7839
▁Hari	-8.78507
▁duit	-8.78997
▁Utara	-8.79284
▁MENTERI	-8.79395
▁terbaik	-8.79502
▁operasi	-8.79539
W	-8.79639
▁penggunaan	-8.79765
14	-8.79784
▁belakang	-8.79788
▁kuat	-8.79855
▁naik	-8.80007
▁terlalu	-8.80051
▁pasaran	-8.80163
▁September	-8.80522
▁Ter	-8.80568
mi	-8.80609
ne	-8.8094
▁Ya	-8.81109
▁Per	-8.81565
▁Polis	-8.8164
▁bakal	-8.81872
▁lo	-8.81995
▁utara	-8.82024
▁Re	-8.82056
▁mau	-8.82094
mana	-8.82238
▁suara	-8.82514
ber	-8.82532
▁kapal	-8.82624
▁b	-8.82662
▁sana	-8.82719
▁keperluan	-8.82853
▁Program	-8.82908
▁video	-8.83136
▁pulang	-8.83149
▁bilik	-8.83218
▁Perak	-8.83244
▁Singapura	-8.83288
▁Kedah	-8.83402
▁segera	-8.83518
▁sebahagian	-8.83741
▁bola	-8.83814
▁meningkat	-8.83953
▁malah	-8.84001
10	-8.84193
▁Bandar	-8.84211
▁murid	-8.84612
▁jawatan	-8.84724
▁Lapangan	-8.84764
▁we	-8.84771
▁kehidupan	-8.84839
▁kerjasama	-8.84874
▁tahap	-8.84953
▁KUALA	-8.85225
▁Air	-8.85331
▁kajian	-8.85373
▁her	-8.85507
▁bin	-8.85547
▁penyakit	-8.85589
▁kebangsaan	-8.85665
▁2014	-8.85772
▁men	-8.86012
▁Pengarah	-8.8607
▁disebabkan	-8.86086
▁Wan	-8.86158
▁barat	-8.86192
▁calon	-8.86218
▁antarabangsa	-8.86302
▁Kelantan	-8.86708
do	-8.86993
tu	-8.87185
▁peruntukan	-8.8728
▁ketiga	-8.87327
▁kanak	-8.87436
▁Pinang	-8.87613
▁asal	-8.87647
▁Baru	-8.87705
orang	-8.87722
anak	-8.87866
▁Ali	-8.87967
▁can	-8.88056
▁agensi	-8.88121
▁Daerah	-8.88234
▁Terbang	-8.88278
▁time	-8.88282
▁terakhir	-8.88326
▁kesan	-8.88418
▁siasatan	-8.88424
▁kenapa	-8.88439
▁kota	-8.88595
E	-8.88893
st	-8.88905
▁sejarah	-8.8936
▁semalam	-8.89365
▁terima	-8.89637
▁Terengganu	-8.89647
▁terdiri	-8.90084
▁barang	-8.90182
bi	-8.90271
▁lokasi	-8.90331
▁Pe	-8.90592
▁up	-8.9088
▁benda	-8.90922
▁Terdapat	-8.90999
per	-8.91045
▁tertentu	-8.91165
apa	-8.9139
▁lanjut	-8.91586
▁pekerjaan	-8.91593
▁betul	-8.91717
▁Ar	-8.91981
▁muncul	-8.92035
▁kedudukan	-8.92239
▁zaman	-8.92608
▁no	-8.92642
▁bagaimana	-8.92704
▁khas	-8.92723
▁all	-8.92764
▁sementara	-8.92783
▁meng	-8.92793
▁enam	-8.92837
▁minggu	-8.92875
▁0	-8.92958
▁New	-8.93047
▁terkenal	-8.93152
▁muka	-8.93316
▁dianggap	-8.93357
▁seseorang	-8.93391
▁Rp	-8.93463
30	-8.93566
▁segala	-8.93583
▁kesihatan	-8.9367
▁tujuan	-8.93684
▁berjalan	-8.93734
▁percaya	-8.93742
▁terpaksa	-8.9375
▁terbesar	-8.9385
▁their	-8.93978
▁alam	-8.94043
men	-8.94126
▁Oktober	-8.94173
▁umum	-8.94182
▁Le	-8.9437
ch	-8.94383
▁Baca	-8.94423
▁membaca	-8.94443
▁sesuai	-8.94472
▁dirinya	-8.94641
ry	-8.94714
▁beli	-8.94859
ji	-8.9489
▁mati	-8.94908
▁dikeluarkan	-8.94987
▁Setelah	-8.95026
▁soal	-8.95071
▁Korea	-8.95099
▁pihaknya	-8.95287
▁Shah	-8.95301
▁hadir	-8.95304
▁terlibat	-8.9536
▁LUMPUR	-8.95506
▁berat	-8.9554
▁ruang	-8.95696
▁pandangan	-8.95698
▁x	-8.95721
▁kaki	-8.95794
▁punya	-8.96096
▁Bhd	-8.96161
ut	-8.96221
▁V	-8.96304
▁cukai	-8.96381
▁W	-8.96404
▁pintu	-8.9644
20	-8.96548
▁Bank	-8.97101
▁bangunan	-8.97105
▁menjalankan	-8.97182
▁Jawa	-8.97389
▁diadakan	-8.97501
▁khususnya	-8.97614
▁24	-8.97699
▁pembinaan	-8.97728
▁Oleh	-8.97877
▁bermain	-8.97938
▁25	-8.98035
▁November	-8.98152
el	-8.98195
it	-8.98228
j	-8.98271
▁who	-8.9848
▁Bukit	-8.98566
▁siap	-8.98832
▁berbeza	-8.98891
▁bapa	-8.98933
▁turun	-8.98954
▁Mahkamah	-8.98976
x	-8.99486
▁hadapan	-8.99493
▁agak	-8.99516
sama	-8.99609
▁Taman	-8.99635
ya	-8.99656
▁Pengerusi	-8.99867
▁Disember	-9.00082
▁tenaga	-9.00378
▁membuka	-9.00399
▁timur	-9.00432
▁La	-9.00448
▁mengeluarkan	-9.00556
▁PH	-9.00602
▁i	-9.00736
▁an	-9.0078
▁kepentingan	-9.00959
▁segi	-9.00967
▁rasmi	-9.01009
▁isteri	-9.01051
▁memilih	-9.01077
▁swasta	-9.01109
ve	-9.01147
▁Walaupun	-9.01336
▁perubahan	-9.01376
ge	-9.01385
▁they	-9.01411
▁*	-9.01483
▁Bahasa	-9.01486
▁unit	-9.01808
Kita	-9.01826
▁siapa	-9.0185
▁Si	-9.02006
▁gagal	-9.0203
▁Sebagai	-9.02055
▁do	-9.02065
▁terbang	-9.02117
▁Australia	-9.02136
ki	-9.02161
▁gaji	-9.0227
▁sedia	-9.02378
▁perhatian	-9.02547
ro	-9.02705
▁pentadbiran	-9.0272
▁memerlukan	-9.02882
lu	-9.02995
▁majlis	-9.03191
▁De	-9.03195
▁demi	-9.03387
▁Su	-9.03445
▁menjelaskan	-9.03465
▁Filem	-9.03698
▁Pembangunan	-9.03806
▁membentuk	-9.04269
▁PAS	-9.04386
▁21	-9.04454
▁Ogos	-9.04458
▁Kami	-9.04494
ll	-9.04518
▁Selepas	-9.0457
han	-9.04765
▁Inggeris	-9.04933
▁one	-9.0498
▁Julai	-9.05029
▁berharap	-9.05068
▁budaya	-9.05132
▁biasanya	-9.0514
▁pengurusan	-9.05195
▁Wilayah	-9.05305
▁_	-9.05395
▁surat	-9.05432
▁n	-9.05457
▁cepat	-9.05476
▁tidur	-9.05573
▁Be	-9.05684
▁50	-9.05748
▁cuma	-9.05797
kah	-9.05979
▁menyertai	-9.06073
15	-9.061
▁Ismail	-9.0616
▁hilang	-9.06355
▁sokongan	-9.06397
▁pelaksanaan	-9.06701
▁No	-9.06784
▁berubah	-9.07137
ok	-9.07297
▁Sebab	-9.07392
▁menghasilkan	-9.07393
▁rakan	-9.07435
▁diterima	-9.07502
▁Kedua	-9.07722
▁were	-9.07741
L	-9.07766
▁ikut	-9.07781
tan	-9.07808
▁acara	-9.07811
▁Februari	-9.07819
▁sidang	-9.08028
▁Ibu	-9.08363
▁peningkatan	-9.08389
ung	-9.08417
▁sepak	-9.08431
▁m	-9.08573
▁Tanah	-9.0863
▁takut	-9.08656
ja	-9.08861
go	-9.0895
▁sejumlah	-9.08963
▁perkembangan	-9.09071
▁Tahun	-9.09103
▁ujar	-9.09169
▁ditemui	-9.09304
▁dijangka	-9.09336
▁peranan	-9.09348
▁sekiranya	-9.09396
▁ilmu	-9.09525
▁dahulu	-9.09571
▁Sukan	-9.09808
▁bebas	-9.09855
▁menjaga	-9.09857
▁l	-9.0991
id	-9.09912
▁Itali	-9.09915
▁terutamanya	-9.10096
▁RAKYAT	-9.1016
▁korang	-9.10197
▁kepala	-9.1032
▁Antara	-9.10454
▁100	-9.10711
▁Ku	-9.10713
▁terbuka	-9.10978
▁serangan	-9.11008
▁which	-9.11343
▁menurut	-9.1149
▁nampak	-9.11687
▁Bagaimanapun	-9.1169
▁Satu	-9.11696
▁berikut	-9.11743
▁tengok	-9.11792
▁membeli	-9.11829
▁kedai	-9.11833
ra	-9.11853
▁Tentera	-9.11904
▁Thailand	-9.11955
▁positif	-9.12122
▁Harapan	-9.12507
▁meninggal	-9.12607
▁mengurangkan	-9.12679
▁perasaan	-9.12736
▁Tengah	-9.1277
▁institusi	-9.12842
▁ambil	-9.12966
▁cadangan	-9.12971
▁menangani	-9.12972
00	-9.13077
▁bagaimanapun	-9.13241
▁23	-9.13256
▁latihan	-9.1335
ong	-9.13407
▁Y	-9.13454
▁guna	-9.13564
▁Alam	-9.13598
▁Kau	-9.13653
▁pesawat	-9.13714
▁kenderaan	-9.13803
▁pelaburan	-9.13945
▁masjid	-9.14036
gi	-9.14093
40	-9.14131
V	-9.14167
▁aspek	-9.14235
ton	-9.14298
▁bahkan	-9.14376
▁Abdullah	-9.14415
bu	-9.14468
▁api	-9.14486
▁kisah	-9.14503
▁Ketika	-9.14514
▁lapangan	-9.14518
▁tambahan	-9.14541
▁perjalanan	-9.14597
▁DEWAN	-9.14616
▁berusaha	-9.14627
▁dijalankan	-9.14631
▁22	-9.14637
▁19	-9.14747
▁meninggalkan	-9.14748
tik	-9.14843
▁pakai	-9.14902
▁pertanian	-9.14917
▁also	-9.14968
▁Masjid	-9.15024
▁2013	-9.15071
▁kekal	-9.15262
baru	-9.15297
▁mesti	-9.15314
▁lainnya	-9.15493
▁dikatakan	-9.15503
▁Tinggi	-9.156
▁Dipertua	-9.15711
▁Antarabangsa	-9.1575
negara	-9.15791
▁Bukan	-9.15922
▁bangsa	-9.15942
▁kementerian	-9.16041
▁Melaka	-9.16049
▁pejabat	-9.16052
ga	-9.16208
▁jatuh	-9.16395
▁membolehkan	-9.16445
▁Aceh	-9.16517
▁ikan	-9.1662
000	-9.16631
▁Muslim	-9.1668
▁berbagai	-9.16757
▁mengadakan	-9.1701
▁peng	-9.17027
▁pinjaman	-9.17126
▁sawit	-9.17173
▁mendapati	-9.1726
O	-9.17283
▁berasal	-9.17289
▁kematian	-9.17414
ting	-9.17539
▁global	-9.17807
▁solat	-9.17841
▁yakin	-9.17898
lan	-9.17919
▁Ibrahim	-9.17972
▁Sebelum	-9.18003
▁out	-9.18182
▁2010	-9.18203
▁As	-9.18203
▁pukul	-9.18529
▁perlawanan	-9.18645
ran	-9.18673
▁dgn	-9.1871
im	-9.18798
▁Anda	-9.18825
▁pertumbuhan	-9.18831
▁Eropah	-9.18972
▁kesalahan	-9.19066
▁berkuasa	-9.19297
▁pen	-9.19351
▁Mak	-9.19468
▁Men	-9.19539
▁hutang	-9.19563
ko	-9.19715
ci	-9.19781
▁persen	-9.19853
▁berita	-9.19867
▁umat	-9.19999
▁petang	-9.20107
▁pasal	-9.20219
▁Turki	-9.20236
▁kebanyakan	-9.20346
▁31	-9.2037
U	-9.20503
▁perang	-9.20569
▁contoh	-9.20704
▁dibawa	-9.20711
▁more	-9.20993
▁It	-9.20999
▁Parti	-9.21112
▁Tu	-9.21119
▁she	-9.21323
▁GUK	-9.21398
▁sy	-9.22054
▁Kesihatan	-9.22111
▁tepat	-9.22122
@	-9.2222
▁hutan	-9.22281
▁khusus	-9.22379
du	-9.2247
▁faktor	-9.22692
▁kemudahan	-9.22738
▁laman	-9.22784
▁been	-9.22827
dan	-9.22873
▁Jangan	-9.22939
▁ketua	-9.23009
san	-9.23066
▁dilaporkan	-9.23087
▁kegiatan	-9.23165
lo	-9.23196
▁seterusnya	-9.23292
ling	-9.2334
▁Provinsi	-9.23383
Kami	-9.23447
▁menuju	-9.23534
▁Jawatankuasa	-9.23566
▁hospital	-9.23578
Pertua	-9.23597
▁Isu	-9.23659
11	-9.23774
▁perusahaan	-9.23821
▁Suruhanjaya	-9.23829
▁sempat	-9.23888
▁sebelah	-9.23971
▁dibina	-9.23998
▁Co	-9.241
▁sebaliknya	-9.241
▁serius	-9.24191
ny	-9.24273
▁BN	-9.243
▁LISAN	-9.24309
▁bekalan	-9.24312
▁perdagangan	-9.24528
▁samping	-9.24532
▁udara	-9.2454
▁status	-9.24663
▁Mu	-9.24684
▁asas	-9.24715
▁bank	-9.24879
▁mahkamah	-9.24959
ol	-9.25148
▁universiti	-9.25153
50	-9.2519
▁permohonan	-9.2533
▁Pakatan	-9.25339
▁menghadapi	-9.25353
▁menolak	-9.25397
▁Poskod	-9.2549
▁DAP	-9.2557
▁Bila	-9.25629
q	-9.25764
▁wujud	-9.25812
▁gambar	-9.25831
▁Pilihan	-9.25902
The	-9.26005
Y	-9.26024
▁marah	-9.26083
▁jugak	-9.26095
▁about	-9.26107
18	-9.26286
wa	-9.26337
▁putih	-9.26343
▁Piala	-9.2641
▁gaya	-9.2643
pan	-9.26516
▁sebelumnya	-9.26654
▁bertemu	-9.26693
▁Foto	-9.26706
▁Seksyen	-9.26743
uk	-9.26899
▁To	-9.26952
▁Abu	-9.26976
▁balas	-9.26976
wan	-9.27001
▁alasan	-9.2712
▁rasuah	-9.27287
▁kaedah	-9.27423
▁didakwa	-9.27491
▁tugas	-9.27535
13	-9.27594
▁jawab	-9.27597
▁faham	-9.27648
▁berikutan	-9.27798
▁sebenar	-9.27876
ca	-9.28117
▁Republik	-9.28223
ian	-9.28246
▁merasa	-9.28266
be	-9.28305
up	-9.28383
▁sepenuhnya	-9.28522
▁tubuh	-9.2859
▁emas	-9.28649
▁Itu	-9.28668
▁hitam	-9.28755
▁Semua	-9.28844
▁selatan	-9.28872
▁ditetapkan	-9.28912
▁Haji	-9.28992
▁setahun	-9.2912
▁just	-9.29148
▁pasar	-9.29285
▁virus	-9.29575
▁40	-9.2959
ers	-9.29878
um	-9.30055
▁un	-9.30099
▁mengumumkan	-9.30101
▁apakah	-9.30184
tiba	-9.30228
▁menyokong	-9.30236
▁sayang	-9.30245
ck	-9.30276
▁Kewangan	-9.3042
▁ribu	-9.30486
▁antaranya	-9.3052
▁bilangan	-9.30592
▁Kumpulan	-9.3066
▁27	-9.30751
▁dilantik	-9.30859
▁Industri	-9.3088
▁memenuhi	-9.30959
▁baju	-9.3108
▁28	-9.31174
▁pengalaman	-9.31264
▁merujuk	-9.31305
▁An	-9.31311
▁26	-9.31371
ba	-9.3138
▁Facebook	-9.31391
▁pulak	-9.31447
▁Pertama	-9.31457
▁melebihi	-9.31622
▁Laut	-9.31718
sh	-9.31786
▁berlangsung	-9.31826
▁Sdn	-9.32057
▁Persatuan	-9.32186
▁digital	-9.32208
▁Mas	-9.32282
▁siri	-9.32433
▁berhenti	-9.32596
▁disebut	-9.32604
▁mendengar	-9.32629
▁teman	-9.32796
▁hukum	-9.32803
▁PKR	-9.32871
▁abang	-9.33065
son	-9.33166
▁menentang	-9.33196
▁selesai	-9.33213
▁bayaran	-9.33216
▁mem	-9.33345
bertanggungjawab	-9.33364
▁cinta	-9.33453
▁like	-9.33454
▁menunggu	-9.33498
▁Pegawai	-9.3351
▁Lim	-9.3352
co	-9.33541
▁first	-9.33626
▁umur	-9.33717
yang	-9.3372
▁album	-9.33731
▁Perang	-9.33745
12	-9.33843
der	-9.33942
▁Man	-9.3403
▁menambah	-9.34072
▁Batu	-9.34077
▁cari	-9.34102
▁permainan	-9.34147
▁Ha	-9.3429
▁Go	-9.34303
▁abad	-9.34405
▁pelakon	-9.34412
▁Pas	-9.34632
▁mendakwa	-9.34685
17	-9.34836
▁membina	-9.34918
▁Wanita	-9.34924
▁sungai	-9.35012
▁pembangkang	-9.35056
▁Ekonomi	-9.35063
▁Salah	-9.3507
▁daya	-9.35093
▁Pen	-9.352
▁pelanggan	-9.35205
▁%	-9.35216
▁mewujudkan	-9.35259
pi	-9.35324
▁Tetapi	-9.35399
▁merah	-9.35458
▁tujuh	-9.35501
▁inisiatif	-9.35568
▁Li	-9.35625
▁kerusi	-9.35697
▁ditahan	-9.35786
▁Anwar	-9.35791
▁Menurutnya	-9.35803
▁dijadikan	-9.35813
▁darah	-9.35852
▁semangat	-9.35853
▁2011	-9.35956
▁sukan	-9.3602
Se	-9.36094
▁lihat	-9.36164
▁ingat	-9.36234
ment	-9.3625
▁arahan	-9.36262
▁tertinggi	-9.36305
▁British	-9.36335
▁pro	-9.36382
▁Razak	-9.36424
▁p	-9.36504
**	-9.3658
▁komuniti	-9.36639
▁menyelesaikan	-9.36682
▁penerbangan	-9.36832
▁aja	-9.3685
▁Lembaga	-9.36869
▁its	-9.36977
▁Menengah	-9.37019
▁Saat	-9.37028
▁wajah	-9.37163
▁Do	-9.37398
▁bertujuan	-9.37688
▁habis	-9.37717
▁tanda	-9.37787
▁|	-9.37936
mo	-9.37977
▁Nur	-9.38114
▁seni	-9.38129
▁nombor	-9.38218
▁ayat	-9.38281
▁Pejabat	-9.38296
▁sikit	-9.38398
▁2012	-9.38562
▁Israel	-9.38616
▁Lo	-9.38646
▁Rumah	-9.38711
▁YB	-9.38714
▁Anak	-9.3907
▁would	-9.39073
▁sesi	-9.39213
▁Sepanyol	-9.3924
▁sikap	-9.39276
▁usia	-9.39392
▁situ	-9.3943
MDB	-9.39439
vi	-9.3946
▁Pahang	-9.39481
▁tanggungjawab	-9.39505
▁panas	-9.39508
▁pemerintahan	-9.39514
▁pengajian	-9.39864
▁jenayah	-9.39926
▁membayar	-9.39935
asi	-9.39938
▁bernama	-9.40008
▁aktif	-9.40075
▁keras	-9.40298
▁Saudi	-9.40316
▁syarat	-9.4038
▁populasi	-9.40445
▁berjumlah	-9.40465
▁memenangi	-9.40469
▁gak	-9.40486
▁disediakan	-9.40607
benar	-9.40621
▁gadis	-9.40641
▁29	-9.40663
▁bertindak	-9.40699
▁PEMBERITAHUAN	-9.40788
▁terkait	-9.40827
▁saham	-9.40849
▁Rusia	-9.40874
▁permintaan	-9.40896
▁menawarkan	-9.40926
▁meter	-9.40968
▁II	-9.40993
▁harta	-9.41003
▁berkembang	-9.41026
▁bersetuju	-9.41031
ek	-9.41056
tak	-9.4115
▁ga	-9.41168
▁warna	-9.41247
lain	-9.41249
▁maaf	-9.41301
▁Covid	-9.41343
▁dipercayai	-9.41413
▁kelompok	-9.41422
▁minit	-9.41511
▁diketahui	-9.4164
▁Mi	-9.41647
▁menjawab	-9.41673
▁United	-9.41701
▁layak	-9.41762
▁batu	-9.41791
▁wakil	-9.41943
▁when	-9.42001
▁kontrak	-9.42122
▁Nor	-9.4219
▁Ri	-9.42239
▁hukuman	-9.4236
▁memandang	-9.42505
▁sedar	-9.4254
16	-9.42556
▁jangka	-9.42725
▁haiwan	-9.42888
▁luas	-9.42977
▁memulakan	-9.42998
▁meneruskan	-9.43026
▁Bersatu	-9.43133
▁ditubuhkan	-9.43473
▁Kemudian	-9.43508
▁menang	-9.43554
▁mengaku	-9.4359
▁Sejak	-9.43605
▁pengeluaran	-9.43699
lin	-9.43744
▁SPRM	-9.43863
▁isi	-9.43874
▁mesyuarat	-9.43933
▁awak	-9.44006
▁sa	-9.44015
▁Setiausaha	-9.44019
▁Ni	-9.44051
▁memegang	-9.442
▁konsep	-9.44248
▁selamat	-9.443
▁Jaya	-9.44368
▁aset	-9.44452
ion	-9.44492
▁baca	-9.44516
▁rapat	-9.44728
▁kanan	-9.44748
▁tersenyum	-9.44763
▁Para	-9.44785
▁what	-9.44869
▁kakak	-9.44972
▁pertemuan	-9.44975
▁mengikuti	-9.45006
▁model	-9.45036
su	-9.45155
▁mengetahui	-9.45157
▁there	-9.45248
▁Walau	-9.45331
▁beroperasi	-9.45363
▁barangan	-9.45366
▁Nabi	-9.45409
▁2009	-9.45484
▁buruk	-9.45557
▁Mohamed	-9.45763
▁And	-9.45771
▁susah	-9.45878
▁situasi	-9.45982
▁pemilik	-9.46178
rat	-9.46243
▁2008	-9.46313
▁remaja	-9.46363
▁dikenakan	-9.46512
gan	-9.46665
▁Umum	-9.46708
▁memasuki	-9.46748
▁over	-9.46768
▁Peng	-9.46786
▁laluan	-9.46828
▁rawatan	-9.46961
Z	-9.46986
▁We	-9.47005
▁Mungkin	-9.47041
▁drama	-9.47157
▁muzik	-9.47161
▁sebulan	-9.47378
▁TV	-9.47474
▁perjanjian	-9.47531
▁terlihat	-9.47622
▁kulit	-9.47773
▁Luar	-9.47905
▁mcm	-9.47959
▁tingkat	-9.48034
▁aplikasi	-9.48082
▁urusan	-9.48093
▁State	-9.48161
▁senang	-9.48166
▁kemudiannya	-9.48241
▁presiden	-9.48278
▁memutuskan	-9.4838
▁kehilangan	-9.48418
▁bergantung	-9.48592
▁hujan	-9.48761
▁meletakkan	-9.48793
isme	-9.48799
▁Beberapa	-9.49004
mar	-9.4902
▁sepatutnya	-9.49037
▁menyebut	-9.49147
Malaysia	-9.49197
kar	-9.4922
▁fokus	-9.49225
▁jumpa	-9.49266
ju	-9.493
▁Masa	-9.49321
▁bas	-9.49351
▁Liga	-9.49424
▁bergerak	-9.49533
▁Apabila	-9.49652
▁yakni	-9.49792
▁maju	-9.49847
▁beri	-9.49864
hi	-9.49876
▁haram	-9.49936
▁gol	-9.49976
▁Ki	-9.4999
▁gus	-9.5
▁menegaskan	-9.5001
▁Dua	-9.50117
▁le	-9.50172
pun	-9.50231
▁mewakili	-9.50281
▁pokok	-9.50347
jo	-9.50412
▁Malah	-9.50485
▁ko	-9.50538
▁your	-9.50558
▁pasangan	-9.50591
fi	-9.50647
▁after	-9.50666
os	-9.50799
▁kejayaan	-9.50819
▁menulis	-9.51003
▁hendak	-9.51007
tur	-9.51202
▁tolong	-9.51547
▁dengar	-9.51562
les	-9.51609
▁d	-9.51795
est	-9.51888
▁main	-9.51923
▁Maka	-9.5195
▁didapati	-9.51987
▁other	-9.5199
▁Pak	-9.52009
▁Syed	-9.52015
▁Jokowi	-9.52035
▁perubatan	-9.52185
▁St	-9.52265
▁telefon	-9.52274
▁bernilai	-9.52313
▁kasus	-9.52382
▁watak	-9.52391
▁Perkhidmatan	-9.52399
▁ujian	-9.52556
▁dipanggil	-9.52583
▁Seperti	-9.52831
▁San	-9.52834
daerah	-9.52939
▁sisi	-9.52985
▁kadang	-9.53024
▁melaporkan	-9.53043
sen	-9.53121
▁El	-9.53152
▁peraturan	-9.53183
▁Sains	-9.53226
▁Kata	-9.53231
▁pakaian	-9.53301
▁Dato	-9.53425
▁alat	-9.53453
▁manfaat	-9.53648
▁him	-9.53718
▁tentu	-9.53722
▁kemungkinan	-9.53724
▁Seorang	-9.53732
▁pantai	-9.53745
▁menyaksikan	-9.53757
▁halal	-9.53773
▁aksi	-9.53829
▁Lebih	-9.53829
gu	-9.53837
▁peserta	-9.53881
▁bukti	-9.53997
▁fikir	-9.54106
▁karya	-9.54346
wi	-9.54382
▁ataupun	-9.54429
▁Berhormat	-9.54543
▁Sumber	-9.5458
▁tangga	-9.54584
▁kategori	-9.54589
▁rancangan	-9.54777
▁Hospital	-9.54798
tar	-9.549
v	-9.54906
▁dibuka	-9.54928
▁Rahman	-9.54938
▁University	-9.55021
▁kawalan	-9.55032
▁Rabu	-9.55048
rin	-9.55055
▁jaga	-9.55083
min	-9.55093
▁Diraja	-9.55159
▁Lu	-9.55203
▁bumi	-9.55286
▁BIN	-9.55321
▁Ro	-9.55408
rah	-9.55477
▁menggalakkan	-9.55679
▁berdiri	-9.55683
▁Mo	-9.557
▁Masyarakat	-9.55711
▁anti	-9.55817
▁Agama	-9.5582
▁mengandungi	-9.5586
▁janji	-9.55877
▁ASEAN	-9.56211
▁undi	-9.56253
▁Belanda	-9.56256
25	-9.56277
▁Meng	-9.56297
▁International	-9.56444
▁menyampaikan	-9.5646
isu	-9.56694
kata	-9.56846
▁Pertubuhan	-9.57021
▁pon	-9.57187
▁da	-9.57232
▁adanya	-9.57281
tor	-9.57307
AS	-9.57333
▁amalan	-9.57405
▁akaun	-9.57476
ru	-9.5753
▁Anugerah	-9.57534
▁Teknologi	-9.57585
ic	-9.57739
▁Setiap	-9.57775
▁daging	-9.57846
▁teruk	-9.57994
▁berterusan	-9.58037
▁perkataan	-9.58079
▁soalan	-9.58089
▁Te	-9.5822
▁if	-9.5822
▁membenarkan	-9.58222
▁bagian	-9.5824
▁new	-9.58354
▁nggak	-9.58357
▁budak	-9.5841
▁lupa	-9.58426
ham	-9.58516
▁memahami	-9.5856
▁popular	-9.58602
▁them	-9.58623
▁Bu	-9.58648
▁suku	-9.5877
hari	-9.58808
▁60	-9.58818
▁foto	-9.58833
lam	-9.5884
▁two	-9.58846
▁Banyak	-9.58856
▁perkahwinan	-9.59
▁risiko	-9.59072
▁kenal	-9.59148
▁Trump	-9.59181
▁pulau	-9.59222
▁dadah	-9.59328
ation	-9.5933
▁baginda	-9.59336
▁padi	-9.5934
▁diterbitkan	-9.59441
▁sukar	-9.59474
▁Karena	-9.5948
ye	-9.59501
▁tapak	-9.59723
▁DARIPADA	-9.59739
▁penumpang	-9.59748
▁Kenapa	-9.59909
gen	-9.59914
▁perdana	-9.59926
▁sedangkan	-9.59958
▁con	-9.60102
ity	-9.6019
▁penjara	-9.60275
▁dipilih	-9.60348
▁kempen	-9.60354
▁Selasa	-9.60391
▁org	-9.6041
▁berkahwin	-9.60423
▁Berdasarkan	-9.60463
▁merangkumi	-9.60512
▁Berhad	-9.60542
▁Eng	-9.60575
▁pakar	-9.60762
▁Bahagian	-9.6083
zi	-9.60845
▁menjalani	-9.60918
▁generasi	-9.60945
▁alih	-9.6097
▁perbincangan	-9.61051
nda	-9.61055
▁pendekatan	-9.61081
ram	-9.61118
▁Mar	-9.61146
▁menangis	-9.61188
▁Juga	-9.61296
▁cantik	-9.61296
▁Kerja	-9.61335
▁Perlembagaan	-9.61494
▁perbelanjaan	-9.61524
▁2009,	-9.61559
▁Mat	-9.61631
▁into	-9.61631
hal	-9.61678
▁our	-9.61688
▁World	-9.61831
▁setakat	-9.61903
▁pem	-9.61929
▁menjual	-9.61986
▁Aziz	-9.62162
▁kertas	-9.62261
▁dihasilkan	-9.62298
▁penulis	-9.62319
▁lewat	-9.62359
▁sedih	-9.62398
▁talian	-9.62431
▁diam	-9.62437
▁people	-9.62462
▁udah	-9.62476
▁dibenarkan	-9.62488
Ini	-9.62618
so	-9.62625
▁Nama	-9.62638
▁nasional	-9.62654
▁korban	-9.62663
bar	-9.62863
▁Bumiputera	-9.62867
▁pertandingan	-9.62912
Ke	-9.62939
▁pemandu	-9.62957
▁kelab	-9.62989
▁nelayan	-9.6301
▁Sehingga	-9.63026
▁SOALAN	-9.63055
▁Nak	-9.6308
▁Pertanian	-9.6325
▁•	-9.63308
▁raja	-9.63337
▁kerap	-9.63342
em	-9.6336
▁PT	-9.63364
▁Ci	-9.63414
▁Afrika	-9.6347
kh	-9.63552
▁sasaran	-9.63624
▁ha	-9.63635
eh	-9.63839
▁Am	-9.63841
▁She	-9.63983
dy	-9.64016
▁Perlis	-9.64071
▁bawa	-9.64088
▁senjata	-9.6415
▁Ne	-9.64224
▁bersih	-9.64237
▁Awam	-9.64297
mat	-9.64312
▁berakhir	-9.64355
▁Secara	-9.64399
dah	-9.64463
bo	-9.64485
▁en	-9.6459
▁dijual	-9.64658
▁makluman	-9.64683
▁Agung	-9.64742
▁But	-9.65012
▁susulan	-9.65106
▁semuanya	-9.65135
▁Tuhan	-9.65141
ie	-9.65149
▁cabaran	-9.65207
▁nk	-9.65391
▁berapa	-9.65413
▁Ko	-9.65424
PH	-9.65504
▁dakwaan	-9.65547
▁Filipina	-9.65561
▁memberitahu	-9.65624
▁kaya	-9.65775
▁lakukan	-9.65838
▁pengetahuan	-9.65916
▁2001	-9.65976
▁sumbangan	-9.66026
▁c	-9.66086
▁memperoleh	-9.66135
▁mama	-9.66342
▁menjelang	-9.66359
▁gas	-9.66429
▁menimbulkan	-9.66436
▁Bin	-9.6644
▁kenaikan	-9.66474
▁back	-9.66525
▁family	-9.66639
▁peribadi	-9.66649
ty	-9.66673
▁kahwin	-9.66742
tin	-9.66751
▁organisasi	-9.66761
▁kekuatan	-9.66763
Quran	-9.66903
▁suspek	-9.66937
▁Dasar	-9.66956
▁diperlukan	-9.66959
▁kemenangan	-9.6703
▁bertanya	-9.67103
▁bayi	-9.67161
▁sampah	-9.67196
▁ucap	-9.67251
▁dokumen	-9.67253
▁tekanan	-9.67373
▁berhampiran	-9.67382
lak	-9.67417
ho	-9.67423
▁Undang	-9.67438
▁sah	-9.67476
▁penyelesaian	-9.67713
gar	-9.67797
▁stesen	-9.67817
▁mengatasi	-9.67827
▁Khas	-9.68001
▁punca	-9.68137
▁pemeriksaan	-9.68146
▁bukanlah	-9.68167
▁negatif	-9.68227
▁yaitu	-9.68249
ler	-9.6833
▁memperkenalkan	-9.68391
▁sehari	-9.68405
▁Ho	-9.68432
▁Lee	-9.68505
▁keterangan	-9.68539
va	-9.68551
mata	-9.68554
▁makin	-9.68597
▁tegas	-9.68641
▁pendapat	-9.68645
▁COVID	-9.68663
▁timbul	-9.68723
ten	-9.68783
▁Desa	-9.68826
yo	-9.68871
▁modal	-9.68977
▁mengubah	-9.6906
▁gula	-9.6907
▁pengundi	-9.69076
▁pesakit	-9.69296
ren	-9.69321
▁only	-9.69413
▁Iowa	-9.69431
▁menggantikan	-9.69441
ot	-9.69468
▁Siti	-9.69497
▁bangun	-9.69532
▁pelajaran	-9.69672
▁year	-9.6972
▁harap	-9.69838
▁f	-9.69857
▁mengakui	-9.69906
▁minuman	-9.69934
▁elektrik	-9.69995
▁dikenal	-9.70031
▁last	-9.70171
▁meja	-9.70191
▁Eksekutif	-9.70243
▁rekod	-9.7038
▁berdepan	-9.70411
kal	-9.70412
je	-9.7043
▁uang	-9.70492
isasi	-9.70551
▁Sistem	-9.70592
den	-9.70636
▁bekerjasama	-9.70653
▁Pihak	-9.70683
▁sebagainya	-9.70707
▁memandangkan	-9.70807
bah	-9.7085
▁bayar	-9.70898
▁asli	-9.70916
▁Bo	-9.70985
ron	-9.70988
▁berasaskan	-9.70988
▁tradisi	-9.71063
▁infrastruktur	-9.71112
▁ringkasnya	-9.71122
▁perumahan	-9.71177
▁menahan	-9.71312
▁platform	-9.71319
bat	-9.71409
▁sebesar	-9.71421
▁sempadan	-9.71483
▁lahir	-9.71497
▁diper	-9.71505
▁X	-9.71568
▁some	-9.71717
▁plastik	-9.71767
▁Hanya	-9.71827
▁memohon	-9.71829
▁kalian	-9.71948
▁Tanjung	-9.71993
▁purata	-9.72069
▁still	-9.72071
▁pembayaran	-9.721
▁am	-9.72148
▁menentukan	-9.72168
▁penyelidikan	-9.72171
▁strategi	-9.72212
yan	-9.72243
▁tulisan	-9.72463
▁maupun	-9.72477
▁menghantar	-9.72501
▁sbb	-9.72542
▁Justeru	-9.72592
▁Asli	-9.72596
▁You	-9.7261
▁prinsip	-9.72639
▁jarak	-9.72747
▁doktor	-9.7277
▁senarai	-9.72867
▁Kabinet	-9.72916
▁than	-9.7296
▁pelan	-9.73024
▁Vietnam	-9.73044
▁era	-9.73081
ud	-9.73097
▁mulut	-9.73109
dar	-9.73123
▁meraih	-9.73131
▁ternyata	-9.73197
▁go	-9.73224
▁kondisi	-9.73264
▁pengarah	-9.73344
▁takde	-9.7339
lang	-9.73416
▁laki	-9.73501
▁Dah	-9.73521
▁utk	-9.73538
▁My	-9.73648
▁diorang	-9.73682
▁saling	-9.73722
▁Muda	-9.73735
pen	-9.73913
▁Pasukan	-9.73915
ner	-9.73971
▁kesehatan	-9.74042
▁memakai	-9.74067
ts	-9.74092
▁aliran	-9.74128
▁Palestin	-9.74159
▁kayu	-9.74163
▁perlindungan	-9.74168
lar	-9.74187
▁tumpuan	-9.74189
▁berhasil	-9.74252
▁pembiayaan	-9.74359
▁Bar	-9.74472
▁bunga	-9.74528
▁ancaman	-9.74589
▁This	-9.74594
▁Projek	-9.74602
▁then	-9.74676
▁penyanyi	-9.74693
▁Che	-9.74731
▁2007	-9.7475
▁ayam	-9.74759
AN	-9.74841
▁kandungan	-9.74842
▁kemahiran	-9.74859
▁menengah	-9.74896
X	-9.74932
▁Barisan	-9.74963
ris	-9.7502
▁profesional	-9.75125
▁informasi	-9.75161
▁menyumbang	-9.75183
▁sederhana	-9.75216
▁seolah	-9.75219
▁sekadar	-9.75285
▁mengekalkan	-9.75292
▁Jenis	-9.75305
▁pengangkutan	-9.75438
▁Tengku	-9.75536
▁saudara	-9.75592
▁sempena	-9.75685
▁Sabtu	-9.75724
▁sudut	-9.75729
he	-9.75872
▁kemalangan	-9.75906
if	-9.7591
eng	-9.7599
▁DAN	-9.7599
▁mu	-9.76074
ze	-9.7611
▁terkini	-9.76115
land	-9.76192
▁Bahkan	-9.76202
▁Kim	-9.7629
▁anjing	-9.76338
ih	-9.76378
▁Jo	-9.76532
▁km	-9.76617
▁tim	-9.76628
▁sains	-9.76643
▁membunuh	-9.76698
chi	-9.76698
▁memainkan	-9.76714
▁Bi	-9.7673
▁pelancongan	-9.76738
▁Tenggara	-9.76895
▁premis	-9.77016
▁kekurangan	-9.77016
▁mobil	-9.7706
21	-9.77109
▁Badan	-9.77146
▁semata	-9.77197
▁lingkungan	-9.77198
ker	-9.77227
▁pendek	-9.77241
▁idea	-9.77499
▁Darul	-9.77537
▁know	-9.77546
▁suruh	-9.77618
▁mempertahankan	-9.77658
▁manis	-9.77843
▁bersedia	-9.77848
▁Aman	-9.77903
▁Pan	-9.77933
BN	-9.77958
hati	-9.77989
▁mahupun	-9.78035
▁Guan	-9.78071
▁melancarkan	-9.78087
▁terkejut	-9.78194
▁saluran	-9.78197
▁Putrajaya	-9.78238
▁kelapa	-9.78358
▁prestasi	-9.78384
▁upaya	-9.78416
▁sisa	-9.78455
sar	-9.78505
▁keamanan	-9.78525
▁London	-9.78643
sel	-9.78654
▁setempat	-9.78687
▁banjir	-9.78753
▁termasuklah	-9.78977
▁petani	-9.79205
▁melindungi	-9.79211
▁ciri	-9.79228
▁separuh	-9.79229
▁US	-9.79252
▁sel	-9.79267
▁melahirkan	-9.79309
▁Abd	-9.79326
▁Rom	-9.79374
▁gerakan	-9.79473
▁artis	-9.79546
▁mengawal	-9.79551
ger	-9.79571
▁Mesir	-9.79611
▁terlebih	-9.79617
hu	-9.79636
▁harapan	-9.79783
▁taraf	-9.798
▁Sembilan	-9.79835
mer	-9.79845
▁sang	-9.79857
▁Kamu	-9.79902
ban	-9.79903
olah	-9.79904
▁Kak	-9.79965
▁te	-9.79968
▁Memang	-9.80078
▁Sal	-9.80152
▁Institut	-9.80182
▁jualan	-9.80192
▁Po	-9.80262
▁Ru	-9.80284
annya	-9.80286
▁tradisional	-9.80289
▁berkongsi	-9.80332
▁berani	-9.80431
▁kelihatan	-9.80458
▁Jumlah	-9.80542
▁Perumahan	-9.80618
iah	-9.80663
▁pembelajaran	-9.80693
▁tanaman	-9.80909
kurangnya	-9.80941
▁sesetengah	-9.80951
▁malu	-9.80972
▁Kepala	-9.81041
▁moden	-9.81063
▁set	-9.81112
Di	-9.81195
▁ISU	-9.81207
▁perbuatan	-9.81207
▁menutup	-9.81308
cu	-9.81387
▁membangunkan	-9.81492
▁akhbar	-9.81567
▁bancian	-9.81581
MA	-9.81604
▁w	-9.81648
▁sengaja	-9.817
▁now	-9.8173
▁keuntungan	-9.81737
▁etnik	-9.81839
▁jiwa	-9.82016
▁televisyen	-9.82045
rak	-9.82067
▁masak	-9.82139
▁berkhidmat	-9.82166
▁pelaku	-9.82232
▁lemah	-9.82335
▁berdua	-9.8238
▁GST	-9.82386
Per	-9.82391
▁Perkara	-9.82505
▁Pemerintah	-9.82508
▁sih	-9.82533
▁PRU	-9.82681
▁angin	-9.82701
▁bercakap	-9.82718
shi	-9.82882
▁berwarna	-9.82967
▁mesin	-9.82975
▁mengenal	-9.82982
▁lapan	-9.83014
br	-9.83046
▁2006	-9.83097
▁bersifat	-9.83141
▁Ge	-9.83175
ver	-9.83196
▁mengapa	-9.83245
▁spesies	-9.83268
▁istilah	-9.83294
▁Pertahanan	-9.833
▁gila	-9.83314
▁Z	-9.83355
▁tuan	-9.83396
tra	-9.83397
▁sen	-9.83407
▁tunggu	-9.83422
▁kilang	-9.83689
▁dimana	-9.8371
▁bermaksud	-9.83727
▁Noor	-9.83775
▁esok	-9.83806
▁bertanding	-9.83846
▁Ayah	-9.83853
▁perjuangan	-9.83919
ven	-9.84072
▁perlahan	-9.84228
▁menetapkan	-9.84271
▁City	-9.84478
▁anaknya	-9.84488
24	-9.845
sur	-9.84553
▁kakitangan	-9.84621
▁bintang	-9.84626
kat	-9.84669
▁menubuhkan	-9.8471
▁burung	-9.84922
▁kiri	-9.84982
▁nasi	-9.85042
▁Du	-9.85053
▁minat	-9.85083
▁kemampuan	-9.8515
▁Gunung	-9.85154
▁kad	-9.85163
▁atlet	-9.85193
▁Keselamatan	-9.85215
▁bukannya	-9.85298
▁hujung	-9.8543
▁diikuti	-9.85461
▁polisi	-9.85474
res	-9.85496
▁Manakala	-9.85504
▁memaklumkan	-9.85545
▁Az	-9.85559
▁diperkenalkan	-9.85564
▁pemilihan	-9.85673
abad	-9.85688
23	-9.85735
▁nasihat	-9.85735
▁At	-9.85822
▁mengesahkan	-9.85838
vo	-9.85873
▁menikmati	-9.85875
▁sanggup	-9.85875
kadang	-9.85889
▁wajib	-9.85925
ster	-9.86088
*	-9.86094
▁part	-9.86135
▁jaminan	-9.86141
sin	-9.86167
▁Pantai	-9.86352
▁jarang	-9.86381
able	-9.86484
▁adil	-9.86508
▁persoalan	-9.86533
dik	-9.86555
po	-9.86765
▁sesiapa	-9.8682
▁sambutan	-9.86907
▁mahasiswa	-9.8693
▁menjejaskan	-9.86949
nan	-9.87012
▁Dar	-9.87025
▁Sam	-9.87092
▁kualiti	-9.87094
▁mencadangkan	-9.8715
▁Pro	-9.87163
▁En	-9.87169
▁rezeki	-9.87198
▁sifat	-9.87218
▁bahagia	-9.87231
▁seharusnya	-9.87255
▁Kini	-9.87285
▁Pengangkutan	-9.87303
▁online	-9.8742
Mu	-9.87437
yu	-9.87455
▁pesan	-9.87499
▁kepercayaan	-9.87533
▁terbabit	-9.8759
ring	-9.87711
▁tarikh	-9.87716
▁co	-9.87745
▁bertambah	-9.8779
▁Sekarang	-9.87791
▁Kan	-9.87814
gh	-9.8785
▁terasa	-9.87854
op	-9.87882
▁Hi	-9.87914
mas	-9.87916
▁menghadiri	-9.87938
▁Lalu	-9.88089
▁itulah	-9.88112
▁peristiwa	-9.8812
▁2018,	-9.88127
▁bagus	-9.88143
▁MA	-9.8818
sing	-9.88194
bang	-9.8826
▁even	-9.88266
▁ditulis	-9.88267
▁subsidi	-9.8838
▁pria	-9.88451
▁sibuk	-9.88531
▁Pencegahan	-9.88606
▁dihubungi	-9.88636
▁peralatan	-9.88869
▁bersalah	-9.88961
▁sekurang	-9.88991
▁tokoh	-9.89024
▁ujarnya	-9.89046
▁komitmen	-9.89054
▁could	-9.89081
▁lesen	-9.89095
▁Guru	-9.8918
▁kesemua	-9.89263
ine	-9.89302
▁mendorong	-9.89319
▁Tenaga	-9.89348
▁majoriti	-9.89376
▁menilai	-9.89402
▁gangguan	-9.89424
▁hotel	-9.89473
▁Gu	-9.89476
▁nasib	-9.89562
▁kehadiran	-9.89629
▁menge	-9.89634
_	-9.89646
▁fi	-9.89658
▁TUAN	-9.89726
▁berkesan	-9.8975
▁izin	-9.89788
▁Sampai	-9.89813
▁Laporan	-9.89816
▁tuntutan	-9.89868
▁game	-9.89945
▁Perdagangan	-9.89955
▁Undangan	-9.90005
=	-9.90035
▁kebenaran	-9.90037
ted	-9.90065
▁Saint	-9.90097
▁Kali	-9.90137
RM	-9.90179
▁Keluarga	-9.90222
▁Pra	-9.90226
▁Pi	-9.90227
▁struktur	-9.90246
▁konflik	-9.90252
▁agenda	-9.90265
▁restoran	-9.90289
▁komputer	-9.90322
ras	-9.90328
▁diumumkan	-9.904
▁Buku	-9.90401
▁pandai	-9.90578
▁beradik	-9.90606
▁kopi	-9.9062
▁day	-9.90621
▁unsur	-9.907
▁berbeda	-9.90708
▁kediaman	-9.9074
▁Terima	-9.90754
▁sekaligus	-9.90778
▁perancangan	-9.90844
▁Putra	-9.90859
▁make	-9.9086
▁kucing	-9.90895
mak	-9.90933
▁o	-9.9096
▁ucapan	-9.90998
▁world	-9.91092
lahir	-9.91112
▁pimpinan	-9.91121
▁menuntut	-9.91126
▁lengkap	-9.91222
▁gelaran	-9.91307
▁hebat	-9.91346
▁Nik	-9.9144
▁sembilan	-9.91458
▁pengaruh	-9.91513
▁tulis	-9.9152
▁kesempatan	-9.91523
▁Semenanjung	-9.91593
▁menyerang	-9.91607
▁Kong	-9.91608
▁Lepas	-9.91609
▁pre	-9.91629
za	-9.91641
▁call	-9.91673
▁kesedaran	-9.91683
▁ka	-9.917
▁DATO	-9.91774
▁minum	-9.91811
lik	-9.91848
▁Prof	-9.91865
iti	-9.91925
▁meliputi	-9.91934
▁taman	-9.9194
45	-9.91955
▁get	-9.92031
▁years	-9.92109
▁bunyi	-9.92132
▁mengangkat	-9.92149
nt	-9.9217
▁how	-9.92198
▁man	-9.92285
▁sorang	-9.92291
▁Hakim	-9.92291
▁dilahirkan	-9.92356
▁kejohanan	-9.92397
▁tahan	-9.92404
▁rambut	-9.92418
▁sihat	-9.92492
▁Ti	-9.92607
▁akses	-9.92628
▁Bas	-9.92727
▁kimia	-9.92823
ov	-9.92846
▁MALAYSIA	-9.92913
▁mengulas	-9.92925
▁namanya	-9.9298
tal	-9.93021
▁Pemuda	-9.93153
▁ta	-9.93193
▁diminta	-9.93207
▁membuktikan	-9.93259
▁70	-9.93279
▁Unit	-9.93355
uh	-9.93378
▁membangun	-9.93392
▁normal	-9.93415
▁menganggap	-9.93419
▁down	-9.93448
▁menemukan	-9.93472
▁lawatan	-9.93491
▁any	-9.93563
▁kelulusan	-9.93575
▁2004	-9.93603
▁angka	-9.93609
tengah	-9.93639
▁kalah	-9.93711
▁garis	-9.9377
▁35	-9.93822
▁ge	-9.93861
angan	-9.9387
▁melanjutkan	-9.93881
▁team	-9.93888
▁Senin	-9.93937
▁dimiliki	-9.93943
▁Pu	-9.93956
▁John	-9.93995
▁peniaga	-9.94014
▁juara	-9.94021
▁perintah	-9.94078
ser	-9.94138
22	-9.9416
▁Pasir	-9.94209
▁dinamakan	-9.94212
▁best	-9.94234
▁Hassan	-9.94234
Q	-9.94242
▁ubat	-9.94416
▁ulama	-9.94451
▁Azmin	-9.94458
▁penubuhan	-9.94487
▁non	-9.94629
▁melawan	-9.94666
▁dihantar	-9.9467
▁York	-9.94746
▁wajar	-9.94804
▁Alhamdulillah	-9.9482
langkah	-9.94843
▁tambah	-9.94888
▁sub	-9.94898
▁For	-9.95015
ist	-9.95049
▁sejenis	-9.95104
che	-9.95114
▁kamar	-9.95184
▁kecuali	-9.95238
▁ulang	-9.95373
tahun	-9.95396
▁t	-9.95418
▁ditutup	-9.95422
▁cuti	-9.95533
▁pelancong	-9.95536
▁keempat	-9.95583
▁well	-9.95584
▁Semasa	-9.95599
▁200	-9.95604
▁Oh	-9.9562
▁diluluskan	-9.95638
▁Tabung	-9.9565
▁Ju	-9.95666
▁rangkaian	-9.95689
▁Kawasan	-9.95764
▁Muhyiddin	-9.95773
35	-9.95777
▁don	-9.95785
▁bermakna	-9.9582
▁pencemaran	-9.9587
▁Kecamatan	-9.95898
▁hijau	-9.95932
▁sahabat	-9.95951
iz	-9.96093
▁potensi	-9.96095
▁maklum	-9.96135
▁because	-9.96233
▁Hong	-9.96308
▁peguam	-9.96349
har	-9.96349
long	-9.96409
▁penjualan	-9.96423
kin	-9.96467
▁Kecil	-9.96475
▁pi	-9.96542
▁Kajian	-9.96544
pur	-9.96615
▁JAWAPAN	-9.96627
▁tenang	-9.96637
▁Hu	-9.96642
▁jawatankuasa	-9.96648
od	-9.96694
▁Sudah	-9.96695
▁Adam	-9.96716
▁menyerahkan	-9.96745
▁majikan	-9.9677
▁Hasil	-9.96809
▁palsu	-9.96812
▁penjelasan	-9.96875
bal	-9.96888
▁Instagram	-9.96906
▁tuduhan	-9.96926
din	-9.97115
▁murah	-9.97181
28	-9.97201
▁Padang	-9.97219
▁kilometer	-9.97308
▁nenek	-9.97331
▁memper	-9.97425
▁misi	-9.97438
▁Pengurusan	-9.97467
▁Kamis	-9.97476
▁Tindakan	-9.97505
ib	-9.97558
▁2019,	-9.97569
▁before	-9.97616
▁Vi	-9.97653
▁fungsi	-9.97741
▁Ketiga	-9.97847
▁Manusia	-9.97904
>	-9.97927
▁versi	-9.97978
▁Apakah	-9.98023
ive	-9.98198
▁Kon	-9.98264
▁Ram	-9.98284
▁tan	-9.98293
▁80	-9.98427
▁Kalimantan	-9.98459
▁sebagaimana	-9.98508
▁Media	-9.98509
▁Bali	-9.98541
▁Umno	-9.98543
▁senyum	-9.98551
lis	-9.98556
▁abah	-9.98742
▁Maha	-9.98767
▁Ehwal	-9.98847
▁pengusaha	-9.98853
▁pembelian	-9.98854
▁motosikal	-9.98857
▁penurunan	-9.98868
▁tamat	-9.98935
▁kebajikan	-9.99008
▁meskipun	-9.99033
▁Syariah	-9.9904
▁Mer	-9.9906
▁pertahanan	-9.99069
▁internet	-9.99098
▁pemberita	-9.99132
▁total	-9.99198
▁Ben	-9.99224
▁miskin	-9.9928
▁pa	-9.99318
▁single	-9.99327
▁lembaga	-9.99426
▁Angkatan	-9.99451
▁wa	-9.99495
▁gabungan	-9.99508
27	-9.99509
▁penguatkuasaan	-9.9952
▁aman	-9.99528
▁Tiga	-9.99574
▁ditawarkan	-9.99592
▁start	-9.99599
▁lari	-9.99609
▁pergerakan	-9.99627
▁miliar	-9.99635
▁layanan	-9.9966
▁mengenakan	-9.99698
▁Assalamualaikum	-9.99711
▁mental	-9.99719
26	-9.99743
▁disiarkan	-9.99744
29	-9.99907
SK	-10.0004
▁beban	-10.0014
▁melepaskan	-10.0014
▁2005	-10.0016
100	-10.0021
▁tiket	-10.0023
▁good	-10.0029
▁jantung	-10.0035
▁su	-10.0044
satunya	-10.0048
▁memudahkan	-10.0065
▁Jumaat	-10.0073
▁Abang	-10.0078
par	-10.0086
▁kebijakan	-10.0087
▁buka	-10.0089
60	-10.0091
▁tunggal	-10.0092
▁sebaik	-10.0093
kerja	-10.0095
▁Ramadan	-10.0106
▁post	-10.0106
▁32	-10.0106
▁berumur	-10.0108
▁kak	-10.011
▁membuatkan	-10.0112
▁tunai	-10.0114
▁posisi	-10.0115
▁pemberian	-10.0117
▁anugerah	-10.0118
▁Ji	-10.0118
▁durian	-10.012
▁merasakan	-10.0122
▁insiden	-10.0122
▁kerugian	-10.0125
▁usahawan	-10.0126
▁bicara	-10.0132
▁Sedangkan	-10.0145
▁vaksin	-10.0147
▁misalnya	-10.0149
▁pertengahan	-10.0152
▁pandang	-10.0155
▁ibunya	-10.0155
▁patut	-10.0159
cer	-10.0162
▁ma	-10.0175
▁menemui	-10.0181
rs	-10.0183
▁Udara	-10.019
▁diperuntukkan	-10.0191
▁krisis	-10.0193
▁menye	-10.0196
▁Kanada	-10.0198
▁membincangkan	-10.0199
▁persembahan	-10.0201
ent	-10.0214
▁suasana	-10.0214
▁aduan	-10.0216
▁lawan	-10.0217
▁Twitter	-10.0227
ada	-10.0233
▁terbaru	-10.0236
▁diteruskan	-10.0237
▁transaksi	-10.0238
mal	-10.0244
ee	-10.0245
▁titik	-10.026
▁niat	-10.0266
▁susu	-10.0268
▁mandi	-10.0269
▁dihadapi	-10.0273
▁being	-10.0274
▁under	-10.0276
▁getah	-10.0282
tion	-10.0286
▁Brunei	-10.0288
mah	-10.0295
▁Komunikasi	-10.0297
▁konteks	-10.03
▁cahaya	-10.0304
▁45	-10.0318
▁komunikasi	-10.0323
▁Tri	-10.0331
▁jaringan	-10.0331
▁motor	-10.0341
▁bertahan	-10.0341
▁fizikal	-10.0344
que	-10.0351
▁kelayakan	-10.0354
▁Papua	-10.0356
▁Yu	-10.0375
▁Peguam	-10.0377
▁1990	-10.0379
▁web	-10.0393
ism	-10.0398
500	-10.0402
▁g	-10.0404
▁enggan	-10.0408
▁Jumat	-10.0419
ley	-10.0434
▁memperuntukkan	-10.0441
▁dilancarkan	-10.0443
▁pertuduhan	-10.0454
my	-10.0455
▁Mengulas	-10.0456
▁mendedahkan	-10.0466
▁Kanak	-10.047
▁Agong	-10.0473
▁Gi	-10.0476
lat	-10.0476
▁share	-10.048
▁DUN	-10.0481
▁babi	-10.0515
▁through	-10.0517
tel	-10.0518
oh	-10.0519
▁Bangsa	-10.0521
▁persekitaran	-10.0523
▁Sha	-10.0529
lon	-10.0532
▁panggilan	-10.0536
▁Cuma	-10.0537
▁Wa	-10.0538
▁kepimpinan	-10.0543
▁novel	-10.0547
tes	-10.057
▁Berikut	-10.0579
▁ce	-10.0581
▁Islamic	-10.0585
▁kot	-10.0592
▁panduan	-10.0594
▁melanggar	-10.0596
▁Serikat	-10.0597
▁way	-10.0605
▁komen	-10.061
▁Klang	-10.0611
▁Q	-10.0611
ding	-10.062
▁Rasuah	-10.0622
▁Pakistan	-10.0623
▁terjejas	-10.0627
▁adakah	-10.0627
▁pemikiran	-10.0628
▁beras	-10.0629
▁matanya	-10.063
▁berpindah	-10.0632
▁kebebasan	-10.0635
ken	-10.0638
▁tampil	-10.0642
▁maut	-10.0649
▁Har	-10.0655
▁selaku	-10.0656
▁Min	-10.0658
uddin	-10.066
▁pencapaian	-10.0667
we	-10.0685
▁Han	-10.0687
DA	-10.0696
▁off	-10.0724
sy	-10.0725
&	-10.0731
▁Sekitar	-10.0732
▁end	-10.0755
sari	-10.0757
car	-10.0759
▁sewaktu	-10.076
▁pendirian	-10.0762
▁kelahiran	-10.0765
▁Istana	-10.0767
▁Malaya	-10.0774
▁gelap	-10.0776
▁Hamid	-10.0776
▁2000	-10.0783
▁mengelakkan	-10.0785
▁perbezaan	-10.0785
▁Kar	-10.079
tif	-10.0791
▁Ah	-10.0794
▁see	-10.0795
tis	-10.0796
▁akademik	-10.0798
nd	-10.08
▁Or	-10.0801
▁jual	-10.0803
con	-10.0809
▁memanfaatkan	-10.081
mon	-10.081
las	-10.0811
▁study	-10.0813
▁59	-10.0816
▁selesa	-10.0826
▁tawaran	-10.0827
▁mahal	-10.0827
▁bantu	-10.083
▁Akhirnya	-10.083
▁penerima	-10.0831
▁here	-10.0833
▁Shi	-10.0834
▁ak	-10.0836
▁Gue	-10.0836
▁Rasulullah	-10.0837
▁parlimen	-10.0838
▁letak	-10.0839
▁eksport	-10.0847
▁PERDANA	-10.085
▁Yusof	-10.0855
`	-10.0872
▁berulang	-10.0877
▁Group	-10.0889
▁Macam	-10.0896
▁Harga	-10.0897
▁diselesaikan	-10.0897
▁gitu	-10.0898
ini	-10.0905
▁Azizah	-10.0908
▁pekan	-10.0912
▁work	-10.0916
▁Minggu	-10.0916
buk	-10.0926
▁ladang	-10.0928
▁Sin	-10.0929
ish	-10.0929
▁Chi	-10.0935
▁urus	-10.0937
▁maksud	-10.0937
▁gembira	-10.0937
▁fakta	-10.0939
▁ditayangkan	-10.094
▁rata	-10.0944
▁angkat	-10.0951
▁pengeluar	-10.0952
▁ringan	-10.0953
▁ye	-10.0954
uan	-10.096
▁RI	-10.0963
kali	-10.0973
▁made	-10.0975
▁Con	-10.0978
▁ca	-10.098
▁dapur	-10.0981
▁mengkaji	-10.0987
▁confession	-10.0989
▁khidmat	-10.0993
▁hartanah	-10.0998
▁kosong	-10.1001
▁ditambah	-10.1002
pu	-10.1004
by	-10.1005
▁Myanmar	-10.1006
▁Wang	-10.1006
▁pengajaran	-10.1016
▁bu	-10.1024
bas	-10.1024
▁tepi	-10.1028
▁where	-10.1028
▁Selama	-10.1038
▁Naib	-10.1049
▁us	-10.1053
▁terdahulu	-10.1055
▁terdekat	-10.1055
▁saksi	-10.1057
om	-10.1068
▁pertubuhan	-10.1068
▁Khalid	-10.107
▁mematuhi	-10.1073
▁three	-10.1074
▁provinsi	-10.1085
▁menatap	-10.1087
▁puas	-10.1092
▁musuh	-10.11
▁produksi	-10.1102
▁demokrasi	-10.1106
▁should	-10.1107
TI	-10.111
Kalau	-10.1115
▁kesejahteraan	-10.1116
▁Bagaimana	-10.1117
▁perpaduan	-10.112
▁u	-10.1122
▁sem	-10.1127
▁keupayaan	-10.1127
La	-10.1128
kawan	-10.1131
▁banget	-10.1133
▁Tiada	-10.1134
▁Terbaik	-10.1136
▁darjah	-10.1156
▁kerjaya	-10.1156
▁Tanpa	-10.1161
▁mengakibatkan	-10.1165
▁bertugas	-10.1171
▁Makanan	-10.1178
des	-10.1182
▁mencukupi	-10.1184
▁k	-10.1187
▁while	-10.1189
▁berdaftar	-10.1189
▁asalnya	-10.1197
▁penjawat	-10.1204
ning	-10.1211
▁Mesyuarat	-10.1217
▁life	-10.1218
▁bersempadan	-10.1218
▁wartawan	-10.1219
hak	-10.1221
▁menghalang	-10.1231
▁disahkan	-10.1241
▁dinyatakan	-10.1243
▁terang	-10.1243
▁persatuan	-10.1246
▁SM	-10.1246
kap	-10.1251
▁Je	-10.1258
▁graduan	-10.126
▁Hak	-10.126
▁dewasa	-10.1271
▁Sebuah	-10.1284
isi	-10.1288
▁mimpi	-10.1291
war	-10.1293
ari	-10.1295
▁mengelak	-10.1304
▁90	-10.1307
▁Kingdom	-10.1312
▁such	-10.1312
▁berpendapatan	-10.1314
▁sara	-10.1318
▁Rohingya	-10.1318
▁Brazil	-10.1318
▁ganti	-10.132
▁disampaikan	-10.1321
ks	-10.1322
▁season	-10.1323
fe	-10.1326
▁Adakah	-10.1327
▁ditangkap	-10.1337
▁komponen	-10.1339
▁mengajar	-10.1341
▁Belia	-10.1347
▁pertanyaan	-10.1354
▁seminggu	-10.1355
jan	-10.1362
▁berbentuk	-10.1362
▁Pekan	-10.1364
▁digelar	-10.137
tiga	-10.1371
▁menguasai	-10.1372
▁Sumatera	-10.1381
▁mendukung	-10.1382
▁keyakinan	-10.1383
▁Inggris	-10.1384
70	-10.139
▁Park	-10.1398
▁Meski	-10.1398
▁penampilan	-10.1401
▁Teluk	-10.1401
▁Tok	-10.1406
▁very	-10.1406
▁perairan	-10.1407
▁terhad	-10.1408
▁final	-10.1411
▁Lagi	-10.1416
▁menguruskan	-10.1425
▁most	-10.1426
▁mengundi	-10.1427
▁strategik	-10.1428
▁matlamat	-10.1428
▁selaras	-10.143
▁PBB	-10.1434
▁pengunjung	-10.1434
▁menampung	-10.1443
▁tumbuh	-10.1446
▁berpendapat	-10.1448
▁dibayar	-10.1457
▁kukuh	-10.1467
▁laku	-10.1468
▁pendaftaran	-10.1471
jah	-10.1474
▁corona	-10.1477
▁kecewa	-10.148
▁harian	-10.1482
rata	-10.1485
▁Kebanyakan	-10.149
▁keturunan	-10.1492
gun	-10.1493
rap	-10.1494
itas	-10.1496
▁ja	-10.1496
▁500	-10.15
dang	-10.15
▁Ce	-10.1506
▁seksual	-10.1512
▁film	-10.1513
▁hektar	-10.1514
▁those	-10.1516
▁du	-10.1518
ex	-10.1518
▁akun	-10.1524
▁kemajuan	-10.1524
▁kredit	-10.153
▁KETIGA	-10.1538
▁panggil	-10.1539
▁pemegang	-10.1546
▁2003	-10.1546
▁Melalui	-10.1547
▁Hidup	-10.1555
laut	-10.1556
▁menyeluruh	-10.1556
▁Operasi	-10.1561
▁perundangan	-10.1567
▁May	-10.1569
▁permulaan	-10.1573
55	-10.1574
▁bi	-10.1582
▁Bumi	-10.1587
▁Sekian	-10.159
ow	-10.1591
▁Is	-10.1595
▁dibandingkan	-10.1596
▁Azerbaijan	-10.1598
▁DI	-10.1605
▁lembut	-10.1606
▁tangannya	-10.1608
▁berikutnya	-10.162
▁SE	-10.1633
▁petugas	-10.1648
Jika	-10.1649
▁Lagu	-10.1655
rang	-10.1658
▁sempurna	-10.1662
▁menghentikan	-10.1663
▁bisnis	-10.1668
▁barisan	-10.167
▁sesebuah	-10.1671
▁Amanah	-10.1676
▁menggambarkan	-10.1677
▁Puan	-10.1679
▁lebar	-10.1687
▁setuju	-10.1691
▁memantau	-10.1693
bin	-10.1694
▁senior	-10.1694
▁Utama	-10.1699
▁Fi	-10.1699
▁serupa	-10.1702
▁kok	-10.1703
▁elektronik	-10.1703
bel	-10.171
▁TH	-10.1714
▁sulit	-10.1717
▁liar	-10.172
▁dr	-10.1726
ologi	-10.1733
pel	-10.1737
▁bot	-10.1739
▁hadiah	-10.1742
▁Mama	-10.1742
▁Padahal	-10.175
jang	-10.1754
▁bersyukur	-10.1755
jam	-10.1759
▁Turut	-10.1763
▁keluarganya	-10.1771
▁Kadang	-10.1772
▁Daripada	-10.1774
▁Burung	-10.1776
▁ditemukan	-10.178
kam	-10.1783
▁pusingan	-10.1785
▁denda	-10.1785
▁Sar	-10.1788
▁Grand	-10.179
▁terpilih	-10.1793
gg	-10.1795
▁Ibn	-10.1798
▁meluas	-10.1801
dam	-10.1801
▁pas	-10.1803
▁kebakaran	-10.1807
▁lu	-10.1807
▁sebagian	-10.1808
▁menyelamatkan	-10.1812
the	-10.1816
▁mengembangkan	-10.1823
▁Bola	-10.1823
▁berbuat	-10.1824
▁elemen	-10.1826
▁Bersama	-10.183
▁daun	-10.1834
▁Bantuan	-10.1843
ness	-10.1843
tas	-10.1847
▁umumnya	-10.1849
cur	-10.185
▁government	-10.1852
▁keutamaan	-10.1854
▁Terdahulu	-10.1854
▁paras	-10.1863
▁Skim	-10.1864
▁Balai	-10.1866
line	-10.1871
▁hasrat	-10.1872
▁many	-10.1876
▁Kesatuan	-10.1879
▁bilang	-10.188
tri	-10.1882
Jadi	-10.1889
▁Perjanjian	-10.189
▁kod	-10.1893
▁diletakkan	-10.1899
▁PDRM	-10.1903
bahasa	-10.1903
▁England	-10.1907
▁2010,	-10.191
▁South	-10.191
▁FELDA	-10.1911
laki	-10.1912
▁PRK	-10.1913
▁prosedur	-10.1916
▁33	-10.192
36	-10.1925
33	-10.1927
▁Eh	-10.1935
▁Baginda	-10.1936
▁kemerdekaan	-10.1945
▁skim	-10.1948
▁dewan	-10.1949
▁PKS	-10.195
▁may	-10.1958
▁y	-10.1959
▁kasar	-10.196
jak	-10.1963
Pertuan	-10.1966
▁diperoleh	-10.197
nas	-10.1971
▁v	-10.1978
kes	-10.1982
▁Ser	-10.1983
▁penyebaran	-10.1994
▁doa	-10.1998
▁indah	-10.2001
▁pelik	-10.2002
▁mengarahkan	-10.2002
ff	-10.2009
▁Corona	-10.201
▁otak	-10.2012
hat	-10.2015
uri	-10.2015
▁take	-10.2016
▁tutup	-10.2017
▁resmi	-10.2022
▁mencoba	-10.2026
▁dikaitkan	-10.2029
peng	-10.2036
▁nyawa	-10.2037
▁company	-10.2039
▁Juli	-10.204
▁want	-10.2041
▁mencegah	-10.2042
▁emosi	-10.2048
▁36	-10.2052
▁bertukar	-10.2056
▁Kes	-10.2056
one	-10.2056
Pe	-10.2066
▁tersendiri	-10.2074
▁bertajuk	-10.2079
▁Sehubungan	-10.2085
▁berhadapan	-10.2086
▁Imam	-10.2093
▁group	-10.21
MI	-10.2101
▁Ab	-10.2102
80	-10.2105
▁pantas	-10.2109
▁merancang	-10.211
▁mengemukakan	-10.2113
SA	-10.2115
▁students	-10.2115
jar	-10.2119
▁skuad	-10.2119
▁impak	-10.2122
▁Buat	-10.2122
▁Jam	-10.2124
▁okay	-10.2128
▁menandatangani	-10.2134
▁Un	-10.2137
▁disertai	-10.2138
▁Car	-10.214
▁Begitu	-10.214
▁teori	-10.2148
▁dicapai	-10.2153
tang	-10.2155
▁et	-10.2163
▁cikgu	-10.2172
▁Norway	-10.2173
▁campur	-10.2177
▁Yahudi	-10.2177
▁SO	-10.218
▁kampus	-10.2186
▁peminat	-10.2186
▁sesama	-10.2202
▁standard	-10.2203
▁anggaran	-10.2206
▁publik	-10.2207
▁menduduki	-10.2207
▁berbincang	-10.2208
▁2017,	-10.2214
▁dimasukkan	-10.2214
▁Tempatan	-10.2215
let	-10.2222
▁memanggil	-10.2225
sal	-10.2225
▁Mukim	-10.2225
▁pra	-10.2227
ciri	-10.2252
▁rundingan	-10.2254
▁mencatat	-10.2254
▁long	-10.2256
▁SWT	-10.2256
▁biar	-10.2257
▁Syria	-10.2265
▁ajaran	-10.2276
▁Stadium	-10.2279
▁stabil	-10.2283
▁hanyalah	-10.2288
▁Siapa	-10.2291
▁fasa	-10.2291
cy	-10.23
▁menafikan	-10.2303
▁menambahkan	-10.2305
dak	-10.2305
Nya	-10.2307
▁Bakar	-10.2313
▁berfungsi	-10.2317
▁setengah	-10.2322
▁menyambut	-10.2323
▁justru	-10.2325
▁SAW	-10.2327
▁perayaan	-10.2333
▁pulih	-10.2335
van	-10.2335
▁mentah	-10.2337
▁LGBT	-10.2341
bak	-10.2342
▁Czech	-10.2345
▁bapak	-10.2345
▁ex	-10.2346
▁menyentuh	-10.2348
|	-10.2351
▁menamatkan	-10.2355
▁Kemajuan	-10.236
▁dibangunkan	-10.237
can	-10.2376
▁Ye	-10.238
▁kebaikan	-10.2383
▁Puteri	-10.2388
▁mewah	-10.239
▁Iskandar	-10.2396
▁syariah	-10.2399
▁much	-10.2402
\	-10.241
▁belanja	-10.2417
▁2002	-10.2424
▁since	-10.2434
▁jawapan	-10.2434
▁malas	-10.2435
48	-10.2439
▁pelantikan	-10.2439
▁mengandung	-10.244
▁import	-10.2443
▁1998	-10.2445
▁insan	-10.2446
▁Warga	-10.2448
▁radio	-10.245
▁penyokong	-10.245
ub	-10.246
▁Eropa	-10.2464
pp	-10.2464
▁akak	-10.2465
▁SMK	-10.2477
▁Tim	-10.2478
▁Md	-10.2483
▁pak	-10.2486
▁suhu	-10.2487
▁rantau	-10.2491
mm	-10.2492
▁Ver	-10.2494
▁sambung	-10.2505
▁Iya	-10.2507
▁ne	-10.2508
▁pecah	-10.2515
▁need	-10.2527
▁alternatif	-10.2527
iyah	-10.2528
▁during	-10.2531
▁Ros	-10.2532
▁berdekatan	-10.2534
▁Yayasan	-10.2534
▁Cinta	-10.2537
lit	-10.254
▁Mem	-10.254
Undang	-10.2547
▁Super	-10.2549
▁Boleh	-10.2555
kon	-10.2561
▁sewa	-10.2576
▁pertamanya	-10.2583
▁Mana	-10.2589
▁right	-10.2602
▁jenama	-10.2605
▁pintar	-10.2608
▁dorang	-10.2609
▁Development	-10.261
▁keganasan	-10.2612
▁rokok	-10.2619
▁dh	-10.2621
▁mengendalikan	-10.2622
▁Jan	-10.2624
▁kebutuhan	-10.2626
▁mmg	-10.2627
▁Omar	-10.2628
▁Agensi	-10.2631
▁Langkah	-10.2632
▁tema	-10.2633
▁perut	-10.2635
▁rakaman	-10.2639
▁cedera	-10.264
▁jalur	-10.2659
▁free	-10.2668
val	-10.267
▁faedah	-10.2673
~	-10.2674
▁mengamalkan	-10.2674
▁lampu	-10.2677
▁home	-10.2677
▁mesej	-10.2687
▁Kem	-10.2692
▁bulanan	-10.2694
▁Pasar	-10.2697
▁jiran	-10.27
len	-10.2701
▁pemantauan	-10.2702
▁ra	-10.2707
▁Hadi	-10.2708
▁Sen	-10.2708
▁ade	-10.271
▁menampilkan	-10.2713
▁larangan	-10.2717
▁komersial	-10.2724
baik	-10.2727
▁think	-10.2729
▁Felda	-10.2731
▁bencana	-10.2731
▁Wi	-10.2734
▁against	-10.2735
▁1980	-10.2742
▁tanggal	-10.2746
▁domestik	-10.2747
▁On	-10.2749
▁mencipta	-10.2749
▁Meskipun	-10.2755
▁Tanya	-10.2765
ahli	-10.2768
▁mencatatkan	-10.2771
▁KL	-10.2778
90	-10.2778
▁berlari	-10.2778
AP	-10.278
▁Lelaki	-10.2787
▁these	-10.2803
▁Pelan	-10.2803
▁National	-10.2806
▁sejuk	-10.2806
▁belia	-10.2806
▁rencana	-10.2807
▁Darat	-10.2808
▁support	-10.2811
▁tp	-10.2813
▁latar	-10.2815
▁cemerlang	-10.2826
▁nafas	-10.2826
▁lantai	-10.2827
▁2016,	-10.2827
▁pelabur	-10.2828
sha	-10.2832
▁jari	-10.2832
▁padang	-10.2833
▁memikirkan	-10.2848
▁Pengajian	-10.2851
▁ID	-10.2853
▁papa	-10.2853
34	-10.2855
yah	-10.2863
▁KE	-10.2864
nar	-10.2879
▁mengingatkan	-10.2881
▁Par	-10.2883
▁dikutip	-10.289
▁percuma	-10.2891
ii	-10.2892
▁dibahagikan	-10.2899
▁mengangguk	-10.2901
▁mintak	-10.2902
▁Sebenarnya	-10.2903
ance	-10.2904
▁penempatan	-10.2904
yn	-10.2909
▁buatan	-10.2911
▁penonton	-10.2915
▁kering	-10.2931
▁siang	-10.2935
$	-10.2935
▁Low	-10.2938
▁kain	-10.2939
▁say	-10.294
▁dlm	-10.2943
pal	-10.2944
net	-10.2946
▁Kristian	-10.2947
▁puasa	-10.2947
▁bab	-10.2947
▁Malaysian	-10.2955
▁simpanan	-10.2961
▁Mengenai	-10.2962
▁mi	-10.2962
▁kursus	-10.2964
▁perangai	-10.2965
▁Zahid	-10.2967
don	-10.2968
less	-10.2969
▁PM	-10.2984
AL	-10.2986
▁dosa	-10.2993
▁permukaan	-10.2999
▁diketuai	-10.3007
ou	-10.3009
set	-10.3011
▁beg	-10.3016
▁kegagalan	-10.3021
▁berasa	-10.3021
sis	-10.3022
▁ekor	-10.3025
▁Pem	-10.3027
▁37	-10.3032
▁tampak	-10.3035
▁dolar	-10.304
▁artikel	-10.3044
▁Akan	-10.3045
▁penat	-10.305
▁minimum	-10.3053
▁kutipan	-10.3053
▁Jenayah	-10.3055
mit	-10.3056
▁state	-10.3056
▁top	-10.306
▁Ahad	-10.3061
▁seks	-10.3062
▁menurunkan	-10.3067
▁sejauh	-10.3068
▁kecederaan	-10.3072
▁kemasukan	-10.3082
▁WIB	-10.3082
mel	-10.3083
39	-10.3087
▁hantar	-10.3087
▁melarikan	-10.3088
▁tewas	-10.3088
▁menit	-10.3095
▁cu	-10.3097
▁pos	-10.3102
▁pengenalan	-10.3103
▁disiasat	-10.3106
tro	-10.3115
▁sedemikian	-10.313
▁mesra	-10.3131
▁des	-10.3133
▁ditanya	-10.3141
▁admin	-10.3144
▁second	-10.3169
▁Ad	-10.3169
▁adat	-10.3169
▁diserahkan	-10.3173
▁hamba	-10.3175
ANG	-10.3175
▁2001,	-10.3177
▁memaksa	-10.3179
▁rumahnya	-10.318
▁menangkap	-10.3183
▁mengganggu	-10.3188
▁hendaklah	-10.3189
▁arwah	-10.319
▁imej	-10.3192
и	-10.3196
▁tol	-10.3196
▁did	-10.3197
▁Her	-10.3198
▁Sejarah	-10.32
▁cenderung	-10.3201
▁pernyataan	-10.3201
▁Bangladesh	-10.3203
▁halaman	-10.3205
▁inilah	-10.3208
▁1999	-10.321
▁pingat	-10.3214
▁Merah	-10.3215
▁menempatkan	-10.3216
▁parents	-10.3223
▁walau	-10.3226
▁gejala	-10.3229
▁ketara	-10.3232
▁Kejohanan	-10.3233
▁Bandung	-10.3238
▁mencecah	-10.3243
age	-10.3244
▁Global	-10.3244
red	-10.3248
▁kunci	-10.3248
tai	-10.3249
▁Bel	-10.3249
▁istimewa	-10.3251
▁Za	-10.3253
▁ok	-10.3255
▁awalnya	-10.3258
▁akta	-10.3261
▁34	-10.3266
▁pembaca	-10.3269
▁mempengaruhi	-10.3269
▁pelarian	-10.3269
We	-10.327
▁Bangunan	-10.3279
tasi	-10.3281
pin	-10.3282
▁level	-10.3282
▁38	-10.3284
▁melawat	-10.3284
▁Suara	-10.329
▁gunung	-10.3291
▁terkena	-10.3293
▁Hulu	-10.3294
ous	-10.3294
ey	-10.3295
▁Sosial	-10.3296
▁Google	-10.3298
▁help	-10.3299
rakan	-10.3303
▁bapanya	-10.3304
duanya	-10.3304
▁mengajak	-10.3304
▁putus	-10.3305
▁really	-10.3309
▁tiap	-10.3311
▁Serbia	-10.3313
▁kemas	-10.3317
ket	-10.3317
▁kelebihan	-10.333
▁Hindu	-10.333
▁unik	-10.3331
▁menjamin	-10.3331
▁menghabiskan	-10.3333
200	-10.3333
▁Mau	-10.3336
▁haji	-10.3338
Mereka	-10.334
▁Hai	-10.3342
dai	-10.3345
▁kalo	-10.3346
▁amanah	-10.335
▁berlalu	-10.3354
▁menghormati	-10.3355
▁berjumpa	-10.3359
daya	-10.3364
kir	-10.3368
▁jemaah	-10.3371
▁pindah	-10.3373
▁Bajet	-10.3382
bur	-10.3387
▁menghubungi	-10.3387
▁Astro	-10.3389
tun	-10.3394
▁going	-10.3394
31	-10.34
▁Sang	-10.3403
▁muslim	-10.3406
▁komited	-10.3408
▁dikemukakan	-10.3409
▁menyimpan	-10.3409
▁berupaya	-10.3413
▁pengambilan	-10.3421
▁fitnah	-10.3422
▁Tunku	-10.3422
PI	-10.3424
▁Data	-10.3428
▁same	-10.3429
▁One	-10.3429
▁penilaian	-10.3438
▁del	-10.3445
▁matahari	-10.3448
▁come	-10.3448
▁DR	-10.3448
▁terbukti	-10.3452
▁DATUK	-10.3458
300	-10.346
▁Mah	-10.3469
▁Idris	-10.3473
▁pembunuhan	-10.3476
▁gua	-10.3483
▁suaminya	-10.3493
▁mekanisme	-10.3493
▁Hati	-10.3494
▁maksimum	-10.3501
▁pertukaran	-10.3501
▁berpotensi	-10.3504
▁baki	-10.351
▁Rancangan	-10.3512
▁300	-10.3514
▁jahat	-10.3517
▁JAWAB	-10.352
65	-10.352
▁belas	-10.3523
▁Internet	-10.3529
▁Uni	-10.353
▁kemanusiaan	-10.3537
bis	-10.3538
▁41	-10.3538
▁They	-10.3539
▁singkat	-10.3541
PS	-10.3545
▁both	-10.3547
▁lot	-10.3551
▁diwujudkan	-10.3555
ville	-10.3559
▁menu	-10.3566
▁Bal	-10.3567
▁pencegahan	-10.3568
tah	-10.3581
▁payah	-10.3582
tt	-10.3582
▁takkan	-10.3583
▁Has	-10.3585
75	-10.3585
ikan	-10.359
▁luka	-10.359
▁pembentukan	-10.3597
▁Pengguna	-10.3601
▁pembeli	-10.3603
▁tenggara	-10.3604
▁BH	-10.3609
▁pener	-10.3611
▁Tamil	-10.3615
▁pilih	-10.3616
▁ianya	-10.3617
▁bertentangan	-10.3619
▁im	-10.3619
▁biji	-10.3624
▁penyertaan	-10.3624
▁sulung	-10.3624
rai	-10.3625
▁love	-10.3626
▁beragama	-10.3633
▁King	-10.3634
bil	-10.3635
▁saiz	-10.3636
Pada	-10.3636
▁sabar	-10.3638
cal	-10.3642
2001	-10.3643
▁persetujuan	-10.3644
▁All	-10.3644
▁memeluk	-10.3646
dal	-10.3648
▁dipakai	-10.3662
▁kitab	-10.3664
nam	-10.3667
▁bar	-10.3673
▁klinik	-10.3673
▁puluh	-10.3676
▁diarahkan	-10.3677
▁Peraturan	-10.3678
but	-10.3679
▁hiburan	-10.3681
▁Sama	-10.3682
▁dikesan	-10.3682
▁Bintang	-10.3685
▁Khan	-10.3686
▁makhluk	-10.3687
▁Siasatan	-10.3688
ING	-10.369
jalan	-10.3697
ise	-10.3699
▁kabar	-10.3705
▁el	-10.3706
▁kuda	-10.3706
▁student	-10.3707
ite	-10.3712
▁langit	-10.3713
▁persekutuan	-10.3713
47	-10.3726
38	-10.3729
lek	-10.3729
king	-10.3735
▁mantan	-10.3741
▁mas	-10.3742
▁bimbang	-10.3745
▁Seni	-10.3749
▁David	-10.3751
▁pelabuhan	-10.3751
▁pembuatan	-10.3751
▁insentif	-10.3751
▁Gerakan	-10.3757
tic	-10.3761
▁42	-10.3762
In	-10.3769
▁entah	-10.3773
▁tahunan	-10.3775
▁ketat	-10.3785
▁pengembangan	-10.3789
▁between	-10.3794
▁Atas	-10.3795
▁Mata	-10.3796
▁setia	-10.3797
▁Masih	-10.38
▁ajak	-10.38
▁39	-10.3805
Dalam	-10.3807
wang	-10.3818
▁car	-10.3825
▁Kawalan	-10.3826
▁menaikkan	-10.3828
and	-10.3832
▁membalas	-10.3834
▁Can	-10.3835
tap	-10.3836
▁JAKARTA	-10.3839
raja	-10.3843
▁subjek	-10.3845
▁Rantau	-10.3845
▁Anggota	-10.3847
way	-10.3849
▁Lama	-10.3857
▁risau	-10.3861
▁School	-10.3864
▁nyata	-10.3865
▁sgt	-10.3868
▁dianggarkan	-10.3876
▁2015,	-10.3886
▁Zealand	-10.3887
▁bahaya	-10.3889
▁Awang	-10.3892
▁berbahaya	-10.3892
▁teks	-10.3893
63	-10.3897
betul	-10.3898
▁menyifatkan	-10.3906
▁perbankan	-10.3906
zo	-10.391
▁menggesa	-10.3914
▁blok	-10.3916
▁berupa	-10.3919
▁kegunaan	-10.3922
mp	-10.3925
▁kononnya	-10.3926
Re	-10.3926
▁melangkah	-10.3927
▁berbahasa	-10.393
▁mere	-10.3934
▁Bekas	-10.3937
▁kemiskinan	-10.3942
▁bersaing	-10.3944
sak	-10.3947
SPRM	-10.3947
▁kompleks	-10.3949
▁Star	-10.3951
▁edisi	-10.3952
▁lambat	-10.3953
ary	-10.3954
▁kantor	-10.3955
▁kesal	-10.3957
▁isterinya	-10.3965
▁Es	-10.3966
ges	-10.3973
▁po	-10.3976
▁meneliti	-10.3979
▁Harian	-10.3982
vin	-10.3983
mb	-10.3984
▁ruangan	-10.3984
95	-10.3986
▁kt	-10.3995
▁Kat	-10.3996
▁Cha	-10.3998
SI	-10.4002
▁Nepal	-10.4006
▁Malik	-10.4007
▁Isnin	-10.4008
▁seluas	-10.4009
IA	-10.4011
belah	-10.4012
▁Salleh	-10.4016
▁head	-10.4016
▁terperinci	-10.4018
▁Hasan	-10.4025
▁gigi	-10.4026
▁buang	-10.4029
▁sehat	-10.403
▁zon	-10.4031
▁bau	-10.4032
ard	-10.4041
cat	-10.4048
sk	-10.4052
▁Mohammad	-10.4054
ful	-10.406
▁NGO	-10.4065
eri	-10.4067
▁mendesak	-10.4072
▁perkauman	-10.4073
put	-10.4085
ben	-10.4085
▁berisi	-10.4088
▁country	-10.4101
▁id	-10.4112
▁melainkan	-10.4113
▁War	-10.4116
ue	-10.4119
IN	-10.4119
▁Ok	-10.4134
▁Qu	-10.4138
▁dada	-10.4143
37	-10.4151
▁next	-10.4152
▁around	-10.4158
▁tindak	-10.4165
▁member	-10.4165
▁Dis	-10.4169
▁seakan	-10.4172
▁li	-10.4179
▁Sepanjang	-10.418
▁merasmikan	-10.4182
▁NO	-10.4182
▁Prabowo	-10.4184
▁lahan	-10.4184
▁persidangan	-10.4185
▁dingin	-10.4187
▁mukim	-10.4187
▁FIFA	-10.4189
▁tulang	-10.4189
▁$	-10.419
▁Belum	-10.4194
had	-10.4194
▁1996	-10.4197
▁autonomi	-10.4203
▁Waktu	-10.4206
IK	-10.4206
▁disini	-10.4209
▁Ham	-10.4212
▁Amir	-10.4213
▁Long	-10.4213
dong	-10.4216
▁kem	-10.4221
▁If	-10.4222
▁Red	-10.4223
▁Bulan	-10.4226
luk	-10.4231
▁pu	-10.4235
▁peperangan	-10.4237
▁Pri	-10.4239
▁bunuh	-10.4241
▁ad	-10.4241
▁keduanya	-10.4243
▁istana	-10.4244
▁Maszlee	-10.4247
▁liga	-10.4252
▁peduli	-10.4253
▁sayap	-10.4253
▁iya	-10.4254
▁penelitian	-10.4257
mis	-10.4261
zu	-10.4264
▁wabak	-10.4266
time	-10.4268
▁menjaringkan	-10.4272
▁berfikir	-10.4272
▁Politik	-10.4274
hh	-10.4277
▁berjudul	-10.428
▁Tani	-10.4288
▁school	-10.4293
▁mulanya	-10.4294
▁Amin	-10.4297
42	-10.4298
▁biru	-10.4299
▁pembukaan	-10.4301
05	-10.4306
▁cuaca	-10.4309
pak	-10.4311
▁Siri	-10.4311
▁Er	-10.4313
▁Kor	-10.4313
▁sewajarnya	-10.4313
▁hakim	-10.4315
▁Nan	-10.4316
▁diharapkan	-10.4317
bung	-10.4321
▁teknikal	-10.4324
▁parah	-10.4327
sekolah	-10.4328
▁besi	-10.433
▁suci	-10.4335
▁hangat	-10.4336
▁Musa	-10.4345
▁dilengkapi	-10.4345
▁pangkat	-10.4346
▁pemulihan	-10.4347
▁mengalir	-10.4347
▁dikendalikan	-10.4352
fer	-10.4362
▁akal	-10.4362
▁Anti	-10.4363
▁Olimpik	-10.4369
▁terdengar	-10.4371
▁gajah	-10.4372
▁majalah	-10.4373
nama	-10.4375
▁<	-10.4378
gal	-10.4386
▁market	-10.4388
▁Malam	-10.4397
▁kelemahan	-10.4398
▁Bharu	-10.44
▁bergabung	-10.4401
▁Said	-10.4406
▁internasional	-10.4416
ret	-10.4419
▁telur	-10.4422
▁arus	-10.4426
▁Usaha	-10.4426
▁Kanun	-10.4428
▁Wakil	-10.4431
▁tertuduh	-10.4431
▁asasi	-10.4432
Selain	-10.4433
▁mengesan	-10.444
▁play	-10.4442
▁dakwah	-10.4445
▁Sebanyak	-10.4446
▁enjin	-10.4453
▁Pelajaran	-10.4454
▁1970	-10.446
▁bahu	-10.4461
▁inovasi	-10.4462
▁mendekati	-10.4466
rd	-10.4467
hir	-10.447
▁What	-10.4472
▁Wong	-10.4473
▁hidangan	-10.4474
▁Surat	-10.4475
pro	-10.4477
▁teknik	-10.4478
▁WhatsApp	-10.4479
46	-10.4482
▁Hingga	-10.449
▁Zi	-10.4491
AI	-10.4493
▁high	-10.4494
▁Kolej	-10.4494
atau	-10.4496
▁bakat	-10.45
▁BAGI	-10.4501
▁kebal	-10.4507
▁ganda	-10.4516
mula	-10.4518
▁menurun	-10.4521
ori	-10.4521
▁Sy	-10.4523
utan	-10.4524
▁Tar	-10.4531
▁pemaju	-10.4531
▁something	-10.4532
▁betapa	-10.4533
▁Pokok	-10.4534
meng	-10.4538
▁Keputusan	-10.4538
▁Akademi	-10.4541
▁membuang	-10.4541
▁pengurus	-10.4541
▁Hotel	-10.4546
▁triliun	-10.4546
lm	-10.4547
nilai	-10.4548
▁kontroversi	-10.4549
til	-10.4553
wo	-10.4559
▁pindaan	-10.4561
▁BUKAN	-10.4563
ping	-10.4569
▁sekeliling	-10.4572
▁melantik	-10.4572
▁Asas	-10.4575
▁sebut	-10.4583
ated	-10.4585
▁Sepak	-10.4586
Su	-10.4586
85	-10.4588
▁teksi	-10.4589
▁rindu	-10.459
▁berkualiti	-10.459
▁MCA	-10.4598
rus	-10.4599
▁Paul	-10.46
▁kon	-10.46
▁Sulawesi	-10.4601
▁Sebaliknya	-10.4602
bahan	-10.4604
▁Tiba	-10.4606
IS	-10.4616
▁mayat	-10.4617
▁reka	-10.4618
44	-10.4624
▁landasan	-10.4625
▁today	-10.4628
nder	-10.4628
▁Kanan	-10.4636
▁Lembah	-10.4645
▁pemuda	-10.4646
rum	-10.4646
▁pertempuran	-10.4647
sir	-10.4651
UN	-10.4653
▁Latihan	-10.4654
▁memakan	-10.4655
▁memerintah	-10.4659
▁dinilai	-10.4667
▁mo	-10.4667
▁catatan	-10.4672
▁Kok	-10.4672
▁Universitas	-10.4674
▁j	-10.4684
▁Paris	-10.4687
▁saman	-10.4688
▁berminat	-10.4691
▁menceritakan	-10.4691
▁selanjutnya	-10.4693
▁kehendak	-10.4694
▁bodoh	-10.4697
▁dimaklumkan	-10.4698
▁usul	-10.4705
▁rujukan	-10.4707
lebih	-10.4707
49	-10.471
▁mencabar	-10.4712
▁event	-10.4717
▁apapun	-10.4722
▁kemarin	-10.4735
▁Cara	-10.4735
▁Cu	-10.4738
▁Bomba	-10.4738
PP	-10.474
gang	-10.4742
▁Ramai	-10.4746
▁Suka	-10.4752
▁Lan	-10.4752
▁sebentar	-10.4754
▁order	-10.4755
Al	-10.4756
▁sungguh	-10.4759
▁layan	-10.476
▁biaya	-10.4763
ence	-10.4765
▁pohon	-10.4765
▁dibentuk	-10.4767
▁pengumuman	-10.4768
lum	-10.4768
▁sijil	-10.477
▁puncak	-10.4774
cak	-10.478
▁ketinggian	-10.478
▁Sun	-10.4784
▁kaitan	-10.4785
▁Don	-10.4785
▁kekayaan	-10.4785
▁die	-10.4788
▁Soviet	-10.4795
▁layar	-10.4797
▁nih	-10.4799
iya	-10.4803
▁episod	-10.4807
▁buruh	-10.4821
▁berarti	-10.4824
▁Jepang	-10.4826
▁asyik	-10.4831
▁dipindahkan	-10.4834
▁dinding	-10.4834
▁bersuara	-10.4837
▁laju	-10.4838
▁beraksi	-10.4841
▁ibadah	-10.4842
ant	-10.4845
▁kebimbangan	-10.4847
▁ajar	-10.4847
▁care	-10.4851
▁dampak	-10.4858
▁hand	-10.4858
▁public	-10.4858
▁Grab	-10.4864
ig	-10.4866
▁Direktur	-10.4866
5%	-10.4869
▁penjagaan	-10.4873
▁too	-10.4877
nah	-10.4882
▁face	-10.4882
ez	-10.4883
▁Bisa	-10.4883
▁1994	-10.4883
▁Nanti	-10.4886
▁Sch	-10.4886
▁kelima	-10.4888
▁Cukai	-10.4889
▁tersebar	-10.489
▁amaran	-10.4892
jur	-10.4893
macam	-10.4897
▁1995	-10.4897
nik	-10.4897
▁peminjam	-10.4898
▁zakat	-10.4904
▁43	-10.4904
▁berbicara	-10.492
▁Ex	-10.4922
▁menyiasat	-10.4927
▁berke	-10.4929
nu	-10.4942
54	-10.4943
▁menunaikan	-10.4943
duk	-10.4946
▁warganegara	-10.4948
tus	-10.4953
▁keuangan	-10.4954
ther	-10.4955
gam	-10.4957
▁kuliah	-10.4957
hy	-10.4961
▁pembantu	-10.4963
▁tarif	-10.4965
▁Multimedia	-10.4966
bit	-10.4969
▁bacaan	-10.497
▁teras	-10.497
▁tertawa	-10.4974
▁Penyelidikan	-10.4975
▁mencetuskan	-10.4975
▁elok	-10.4984
▁persepsi	-10.4984
▁Iman	-10.4984
TA	-10.4985
▁Juara	-10.4991
▁That	-10.4992
▁48	-10.4994
76	-10.4998
▁meluluskan	-10.5002
▁Sekiranya	-10.5004
▁use	-10.5005
▁perlembagaan	-10.5007
▁investasi	-10.5015
▁menekankan	-10.5016
▁menyebarkan	-10.5016
▁Contohnya	-10.5017
▁responden	-10.5017
▁Nurul	-10.5019
08	-10.502
tidak	-10.502
▁Ran	-10.5021
lem	-10.5025
▁hantu	-10.5026
▁Metro	-10.5026
▁Bahru	-10.5031
▁Pelajar	-10.5035
▁Merdeka	-10.5036
▁kolej	-10.5038
deg	-10.504
▁Zaman	-10.5045
▁Putih	-10.5046
▁Bab	-10.5046
AH	-10.5049
PA	-10.5053
▁place	-10.5054
▁dinaikkan	-10.5057
▁point	-10.5059
▁que	-10.506
▁mengisi	-10.5067
nis	-10.5068
▁aturan	-10.507
▁law	-10.5071
▁Hungary	-10.5075
▁dianjurkan	-10.5088
▁form	-10.5093
▁MESYUARAT	-10.5094
▁Tam	-10.5094
▁ju	-10.5094
▁tuh	-10.5096
▁Aidilfitri	-10.5099
▁berharga	-10.5102
led	-10.5108
▁menyiapkan	-10.511
wah	-10.5111
▁Kesehatan	-10.5116
▁rugi	-10.5116
▁taknak	-10.5117
ef	-10.5118
udin	-10.5119
tek	-10.5119
▁hatinya	-10.512
dalam	-10.5122
▁Saifuddin	-10.5123
▁sangka	-10.5125
▁2014,	-10.5126
▁mengucapkan	-10.5126
▁Rahim	-10.5129
▁bijak	-10.5134
Pen	-10.5136
▁Maret	-10.514
▁mohon	-10.5141
▁There	-10.5142
▁semestinya	-10.5146
▁Mark	-10.5147
PRU	-10.5147
▁cawangan	-10.5154
▁penghargaan	-10.5157
▁ar	-10.5158
▁Baharu	-10.5158
▁Ken	-10.5158
77	-10.5161
Le	-10.5169
ei	-10.5173
▁melarang	-10.5181
ste	-10.5181
▁=	-10.5183
▁SK	-10.5185
▁bangkit	-10.5185
▁sadar	-10.5191
off	-10.5193
▁pemenang	-10.5195
▁FC	-10.5195
▁Switzerland	-10.5196
▁eh	-10.5198
▁super	-10.5202
km	-10.5203
AM	-10.5207
▁pentas	-10.5207
▁social	-10.5208
▁rasanya	-10.5213
▁Semalam	-10.5219
▁Ren	-10.522
▁lancar	-10.5221
69	-10.5222
▁telinga	-10.5222
▁tolak	-10.5223
log	-10.5224
▁skandal	-10.5231
▁sayur	-10.5236
▁dibeli	-10.5237
▁fenomena	-10.5238
▁memperbaiki	-10.524
▁1997	-10.5241
ES	-10.5243
nes	-10.5245
▁Festival	-10.5245
▁Album	-10.5245
▁Perubatan	-10.525
▁Ak	-10.5253
▁permasalahan	-10.5255
▁Port	-10.5255
org	-10.5262
io	-10.527
▁destinasi	-10.5271
▁target	-10.5275
▁menyedari	-10.5275
tam	-10.5276
▁munisipaliti	-10.5276
▁menyebutkan	-10.5277
▁Alor	-10.5282
▁portal	-10.5284
▁berhati	-10.5287
▁Kepulauan	-10.529
pang	-10.5292
qi	-10.53
▁Perempuan	-10.5301
57	-10.5301
▁kewujudan	-10.5303
▁nge	-10.5306
▁own	-10.531
yl	-10.531
▁bil	-10.5312
03	-10.5319
ati	-10.5321
▁UK	-10.5322
▁PUTRAJAYA	-10.5325
▁matang	-10.5326
▁aneh	-10.5328
▁keluasan	-10.5334
GA	-10.5338
▁pandemi	-10.5339
▁Nah	-10.534
▁berse	-10.5346
cc	-10.5347
▁membantah	-10.5347
▁mer	-10.5349
▁Mus	-10.5349
kebolehan	-10.5357
▁bio	-10.5363
▁iklim	-10.5364
pot	-10.5366
▁surau	-10.5368
▁belah	-10.5371
bul	-10.5372
▁tahanan	-10.5375
▁Britain	-10.5377
▁Daniel	-10.5381
▁dialami	-10.5389
MP	-10.5391
68	-10.5395
▁Pelancongan	-10.5396
Ada	-10.5397
AK	-10.5397
▁korporat	-10.5401
nak	-10.5402
▁promosi	-10.5408
▁Kal	-10.5412
▁kala	-10.5415
▁kebanyakannya	-10.5417
▁r	-10.5419
▁Perintah	-10.5425
▁system	-10.5427
▁realiti	-10.5428
▁tertakluk	-10.5429
▁lokal	-10.543
rom	-10.5436
▁tajam	-10.5436
▁lembu	-10.5441
▁rosak	-10.5443
▁result	-10.5443
▁Khamis	-10.5444
▁Jin	-10.5445
58	-10.5446
▁kelak	-10.5447
▁penularan	-10.5448
▁tumbuhan	-10.5449
old	-10.545
▁Rasa	-10.5451
ore	-10.5453
88	-10.5454
ile	-10.5464
▁Bang	-10.5466
pt	-10.5467
▁reaksi	-10.5468
32	-10.5469
▁ketawa	-10.5477
▁Lisa	-10.5478
66	-10.5478
▁asrama	-10.5478
▁55	-10.5479
▁Khazanah	-10.5481
ss	-10.5482
▁Inter	-10.5496
▁berlainan	-10.5497
▁ringkas	-10.5499
▁menaiki	-10.5499
▁keadilan	-10.55
▁Big	-10.5501
negeri	-10.5501
ft	-10.5502
▁identiti	-10.5502
▁Zainal	-10.5506
▁dirancang	-10.5509
▁46	-10.5511
▁peperiksaan	-10.5518
▁every	-10.5518
barang	-10.5518
main	-10.552
▁Yusuf	-10.552
ps	-10.5522
▁kebudayaan	-10.5523
▁diduga	-10.5526
▁bersikap	-10.5531
▁Strategi	-10.5535
▁dibawah	-10.5538
▁aras	-10.554
▁makna	-10.5542
lai	-10.5543
▁penulisan	-10.5543
▁Pernah	-10.5546
▁Stesen	-10.5546
▁mener	-10.5547
ep	-10.5548
▁berdoa	-10.5549
▁perkongsian	-10.555
▁enggak	-10.5558
▁Selamat	-10.556
gah	-10.5564
Bagi	-10.5565
▁Argentina	-10.5567
▁Rendah	-10.5569
▁George	-10.5572
▁satunya	-10.5575
▁Taiwan	-10.5575
▁kotak	-10.5577
ral	-10.5581
▁mengungkapkan	-10.5586
▁senyuman	-10.559
▁pikir	-10.5593
mem	-10.5593
04	-10.5596
▁real	-10.5596
▁ditolak	-10.5597
▁ALAN	-10.56
▁ape	-10.56
▁tular	-10.5602
▁tegur	-10.5603
▁katil	-10.5603
▁jasa	-10.5606
▁Berita	-10.5612
▁1993	-10.5613
▁Yassin	-10.5618
iyyah	-10.562
▁digantikan	-10.562
▁told	-10.5624
▁Nov	-10.5626
RA	-10.5627
▁olahraga	-10.5628
▁Lebuhraya	-10.5628
▁pelancaran	-10.5629
▁peluru	-10.563
▁Val	-10.5631
06	-10.5631
▁huruf	-10.5632
Ber	-10.5632
▁bercadang	-10.5634
ros	-10.5636
▁OKU	-10.5636
▁tunjuk	-10.5637
▁III	-10.5638
▁Donald	-10.5642
teri	-10.5643
а	-10.5647
▁Far	-10.5648
▁kapasiti	-10.5655
▁Street	-10.5655
▁kepalanya	-10.5658
▁siaran	-10.5659
▁darat	-10.566
▁penemuan	-10.5664
▁siber	-10.5667
▁mendalam	-10.567
▁kerosakan	-10.567
▁Thomas	-10.567
▁Mengikut	-10.5673
▁sosok	-10.5678
▁mengira	-10.5678
▁?!	-10.5682
▁ditempatkan	-10.5686
▁must	-10.5687
▁2020,	-10.5691
▁direka	-10.5694
▁jelasnya	-10.5696
▁ayahnya	-10.5698
uz	-10.5698
▁memandu	-10.5699
▁beredar	-10.5706
▁kamera	-10.5707
▁Gua	-10.5711
▁ijazah	-10.5716
▁Medan	-10.5717
5%;	-10.5725
▁nomor	-10.5725
▁memasukkan	-10.5726
▁Nu	-10.5727
▁lapisan	-10.574
▁ditentukan	-10.5743
▁rupa	-10.5748
▁segar	-10.5753
▁perlumbaan	-10.5759
▁tertutup	-10.5759
▁Cik	-10.5761
▁masakan	-10.5763
▁rangka	-10.5765
▁each	-10.5765
▁kuning	-10.5766
▁penambahbaikan	-10.5768
▁ceramah	-10.5768
▁Pos	-10.5769
▁seekor	-10.5769
▁Yaman	-10.5771
▁anjuran	-10.5773
▁pemba	-10.5774
▁Nusantara	-10.5774
▁perbicaraan	-10.5776
mun	-10.5778
▁hewan	-10.578
cita	-10.5781
▁never	-10.5782
▁formula	-10.5782
▁ckp	-10.5782
▁bulu	-10.5785
▁Mel	-10.5786
▁mempromosikan	-10.5787
ec	-10.5788
hr	-10.5789
zar	-10.579
▁kritikal	-10.5803
▁campuran	-10.5804
▁bela	-10.5807
▁mene	-10.581
▁Perbadanan	-10.5811
▁statistik	-10.5813
▁perpustakaan	-10.5813
▁four	-10.5817
▁West	-10.5819
▁memaparkan	-10.5821
▁44	-10.5821
▁past	-10.5826
▁James	-10.5829
▁got	-10.5831
▁Keadaan	-10.5832
▁business	-10.5833
▁jurulatih	-10.5834
▁Empat	-10.5835
▁berjanji	-10.5838
▁diiktiraf	-10.5839
▁diter	-10.5839
▁peneroka	-10.584
▁Keempat	-10.5841
▁Surabaya	-10.5842
▁Fu	-10.5844
▁COM	-10.5846
▁jodoh	-10.5851
Me	-10.5851
▁Tuanku	-10.5854
bor	-10.5854
rit	-10.5855
▁berlakunya	-10.5858
▁Joko	-10.5858
pas	-10.586
▁bawak	-10.5861
▁mencuri	-10.5863
▁ru	-10.5863
▁meski	-10.5864
▁potongan	-10.5865
▁sememangnya	-10.5868
▁Mal	-10.5869
▁perhimpunan	-10.5872
▁million	-10.5872
▁1992	-10.5875
▁proyek	-10.588
UM	-10.5882
▁Yogyakarta	-10.5883
▁iklan	-10.5886
▁menjana	-10.5886
▁says	-10.5888
▁lori	-10.5888
▁deh	-10.5889
▁kabinet	-10.5889
▁mengundang	-10.5891
▁sepuluh	-10.5892
▁penjaga	-10.5892
▁penyelenggaraan	-10.5895
▁Mun	-10.5902
▁Pelabuhan	-10.5903
▁pemindahan	-10.5907
▁serba	-10.5908
▁mengurus	-10.5908
▁contohnya	-10.5909
▁manifesto	-10.5911
▁membela	-10.5912
▁Partai	-10.5913
▁khabar	-10.5918
▁ideologi	-10.5919
▁Akhir	-10.592
▁benci	-10.592
▁dagang	-10.592
syarikat	-10.5921
oi	-10.5922
▁mengalahkan	-10.5922
bol	-10.5923
▁cabang	-10.5924
▁sebegini	-10.5925
▁menewaskan	-10.5928
▁dibincangkan	-10.5929
▁Kompleks	-10.5932
64	-10.5933
▁dibintangi	-10.5936
▁Mon	-10.5937
▁nu	-10.5939
▁Musim	-10.594
kai	-10.5941
▁efektif	-10.5943
▁perwakilan	-10.5954
▁siswa	-10.5955
▁Harun	-10.5959
hor	-10.5961
▁lakonan	-10.5966
▁Atau	-10.5969
▁Hitam	-10.5973
▁Saddiq	-10.5974
▁padahal	-10.5975
▁dikawal	-10.5976
▁gempa	-10.5981
▁FA	-10.5985
▁papan	-10.5986
▁Perusahaan	-10.5986
▁course	-10.5986
▁March	-10.5987
▁koleksi	-10.5988
Si	-10.5989
▁Langkawi	-10.599
ct	-10.5991
ita	-10.5992
▁Warisan	-10.5993
aq	-10.5994
400	-10.5996
cing	-10.6003
▁militer	-10.6006
▁Empayar	-10.6018
ier	-10.6021
▁~	-10.6024
ob	-10.6026
stan	-10.6026
▁pendakwaan	-10.6026
mbang	-10.6027
SB	-10.603
▁anggap	-10.6032
▁Op	-10.6036
▁tukar	-10.6038
▁Pergerakan	-10.6038
▁DKI	-10.6041
▁tandas	-10.6042
▁MARA	-10.6048
▁Adik	-10.6048
dh	-10.6056
56	-10.6057
67	-10.6057
▁Penasihat	-10.6058
▁Jen	-10.6063
▁disiplin	-10.6065
▁mengatur	-10.6066
▁vi	-10.6072
▁sentimen	-10.6074
▁saw	-10.6074
BA	-10.6078
▁1960	-10.608
▁berikan	-10.6081
▁story	-10.6084
▁menghampiri	-10.6087
▁lengan	-10.6091
▁Kerana	-10.6092
▁berpunca	-10.6092
▁lemak	-10.6093
lap	-10.6094
▁News	-10.6096
▁batas	-10.6097
▁kar	-10.6099
▁KPM	-10.6104
end	-10.6104
▁analisis	-10.6104
lagu	-10.6107
▁objek	-10.6112
▁dibangkitkan	-10.6113
ide	-10.6116
bay	-10.6117
▁kepemimpinan	-10.6117
sya	-10.6122
▁rahsia	-10.6125
xi	-10.6125
▁pesat	-10.6125
▁akar	-10.6127
▁mengembalikan	-10.6127
▁wajahnya	-10.6129
▁stress	-10.613
▁another	-10.6134
oc	-10.6136
43	-10.6137
▁DPR	-10.6137
▁menetap	-10.6138
▁name	-10.614
▁Centre	-10.6142
▁kunjungan	-10.6143
awan	-10.6143
▁Swasta	-10.6144
▁jadual	-10.6144
▁penghasilan	-10.6147
▁PTPTN	-10.6149
▁gelombang	-10.6155
59	-10.6155
▁kecik	-10.6157
of	-10.6157
▁cucu	-10.616
▁es	-10.6161
▁dalaman	-10.6164
▁Mc	-10.6164
▁HAJI	-10.6166
▁Tokyo	-10.6167
▁Maaf	-10.6173
▁kambing	-10.6176
▁begini	-10.6185
▁used	-10.6186
▁dialog	-10.6186
▁Tambahan	-10.6186
ies	-10.6186
▁better	-10.6187
ture	-10.6188
tuk	-10.6188
ilah	-10.6188
▁menukar	-10.619
▁1987	-10.6192
usaha	-10.6193
▁North	-10.6194
▁daftar	-10.6194
74	-10.6197
▁sekian	-10.6197
▁Pesuruhjaya	-10.6198
▁tudung	-10.6199
out	-10.6201
▁Keseksaan	-10.6202
▁simpan	-10.6204
gon	-10.6205
pada	-10.6209
uran	-10.621
▁jangkitan	-10.621
+	-10.6213
▁won	-10.6216
kong	-10.6218
▁KKM	-10.622
▁BA	-10.6223
▁Bandaraya	-10.6223
▁Romania	-10.6224
ino	-10.6231
▁dihadiri	-10.6232
▁Juni	-10.6233
▁Gajah	-10.6235
tanda	-10.6235
▁Panglima	-10.6241
▁van	-10.6241
▁Contoh	-10.6242
▁memimpin	-10.6245
▁tajuk	-10.6245
41	-10.6245
▁ki	-10.6248
▁Pekerja	-10.6249
▁Ustaz	-10.6253
▁Kereta	-10.6257
▁William	-10.6264
▁Poland	-10.6264
▁menghargai	-10.6265
▁Hutan	-10.6274
▁dibantu	-10.6279
▁pekebun	-10.628
tre	-10.628
mbo	-10.6281
▁kongsi	-10.6285
▁SERI	-10.6286
▁2011,	-10.6291
▁pameran	-10.6296
▁nada	-10.6297
hin	-10.6298
US	-10.6302
▁lulus	-10.6302
▁dirujuk	-10.6303
TP	-10.6303
▁aktivitas	-10.6304
▁Sydney	-10.6308
▁dimulakan	-10.6308
▁happy	-10.631
▁Encik	-10.631
▁Cor	-10.6313
▁+	-10.6313
▁person	-10.6314
cara	-10.6314
ON	-10.6318
78	-10.6321
▁berkumpul	-10.6332
her	-10.6334
▁Robert	-10.6336
▁Imigresen	-10.6341
▁kaca	-10.6341
▁perasan	-10.6341
▁Sur	-10.6342
▁seiring	-10.6342
▁Im	-10.6345
▁cita	-10.6345
▁paham	-10.6346
▁peringatan	-10.6347
▁terlepas	-10.6349
▁komunis	-10.6349
▁Ulu	-10.635
▁tarik	-10.635
port	-10.6352
▁Malay	-10.6355
▁siasat	-10.6355
▁detik	-10.6358
▁Kepada	-10.6359
▁bomba	-10.6366
▁menoleh	-10.637
▁pakej	-10.6371
53	-10.6372
hara	-10.6374
▁Kebudayaan	-10.6378
▁Pat	-10.6385
▁sensitif	-10.6386
▁PARLIMEN	-10.6388
▁Laluan	-10.639
tum	-10.6391
▁Mujahid	-10.6392
▁upacara	-10.6392
▁dicadangkan	-10.6394
▁tamu	-10.6394
▁pengganas	-10.6395
ries	-10.6396
▁things	-10.6397
▁dipasang	-10.6398
ney	-10.64
hai	-10.6401
▁always	-10.6404
▁h	-10.6408
▁penye	-10.6411
▁berpuas	-10.6414
▁falsafah	-10.6416
dor	-10.6416
▁dipenuhi	-10.6417
▁Gaya	-10.6418
09	-10.6419
▁pensyarah	-10.6421
▁dibentangkan	-10.6421
▁Em	-10.6421
▁tanggung	-10.6423
▁duk	-10.6424
▁Konvensyen	-10.6427
▁Kisah	-10.6431
▁mengukuhkan	-10.6432
▁melanda	-10.6434
▁pemilikan	-10.6434
▁moral	-10.6436
▁Borneo	-10.644
▁CO	-10.6444
▁mikro	-10.645
▁ATM	-10.6451
▁goreng	-10.6452
▁national	-10.6453
pon	-10.6456
▁berasingan	-10.6456
▁KA	-10.6457
▁Semoga	-10.6458
▁Fe	-10.6458
IL	-10.6468
pat	-10.6471
▁kekuasaan	-10.6471
▁Nilai	-10.6475
▁Corporation	-10.6477
▁Haute	-10.648
▁Bernama	-10.648
▁fe	-10.6481
▁inter	-10.6483
▁Hukum	-10.6486
▁penyebab	-10.649
▁Pre	-10.6492
DI	-10.6493
ug	-10.6493
ı	-10.6496
▁mendirikan	-10.6502
▁Sebelumnya	-10.6502
▁Singh	-10.6505
▁Penduduk	-10.6506
ew	-10.6507
▁isyarat	-10.651
▁mengurangi	-10.651
gel	-10.651
▁Halim	-10.6511
▁Video	-10.6514
▁dokter	-10.6516
▁including	-10.6519
▁Entah	-10.6521
▁PER	-10.6522
▁dituduh	-10.6523
Mo	-10.6524
▁che	-10.6524
▁report	-10.6525
lau	-10.6526
▁2013,	-10.6526
▁Mulai	-10.6527
▁merampas	-10.6529
ndi	-10.6529
▁Michael	-10.6532
▁mengejar	-10.6534
▁pernikahan	-10.6538
▁aktivis	-10.6538
▁kontraktor	-10.6539
▁CEO	-10.654
▁kedatangan	-10.6542
▁membatalkan	-10.6548
▁penglibatan	-10.655
ski	-10.6551
▁bersatu	-10.6552
▁Ain	-10.6558
▁Kongres	-10.6558
▁150	-10.6563
zam	-10.6563
▁power	-10.6567
▁Ban	-10.657
▁katakan	-10.6571
▁mertua	-10.6573
▁sekumpulan	-10.6577
▁Sya	-10.6581
▁fikiran	-10.6582
▁Bebas	-10.6584
▁Dulu	-10.6589
dari	-10.6594
kas	-10.6594
kn	-10.6597
▁Singapore	-10.66
pol	-10.6602
▁bersamaan	-10.6604
8%	-10.6607
▁persaingan	-10.6609
cho	-10.661
▁found	-10.6612
▁tangkapan	-10.6615
73	-10.662
▁Bay	-10.6624
▁win	-10.6625
▁berhak	-10.6627
▁Budaya	-10.6629
▁Prix	-10.6632
▁pengerusi	-10.6633
▁organ	-10.6635
▁dugaan	-10.6636
▁pengiktirafan	-10.6643
var	-10.6644
▁Kuantan	-10.6645
▁2012,	-10.6646
ice	-10.6649
▁Othman	-10.6653
PO	-10.6655
▁berlebihan	-10.6656
sul	-10.6657
stra	-10.666
▁mempelajari	-10.6662
bus	-10.6664
Apa	-10.667
▁saing	-10.6673
satu	-10.6674
▁bercerita	-10.6675
▁dukungan	-10.668
▁pertimbangan	-10.6683
▁Komuniti	-10.6683
▁uji	-10.6684
▁human	-10.6687
▁sekatan	-10.6687
▁different	-10.669
86	-10.6692
▁Widodo	-10.6694
▁Hamzah	-10.6694
▁Allahyarham	-10.6696
▁penyediaan	-10.6696
▁Jeneral	-10.6697
▁salam	-10.6702
▁Persidangan	-10.6704
▁Ternyata	-10.6706
▁kuil	-10.671
▁tingkah	-10.6715
▁hormat	-10.6718
▁makcik	-10.6722
▁medan	-10.6725
▁Gar	-10.6728
▁keagamaan	-10.6728
▁Mexico	-10.6732
wat	-10.6734
▁kitorang	-10.6734
▁Kapal	-10.6737
▁viral	-10.6737
▁Disebabkan	-10.6737
▁1991	-10.6739
▁gay	-10.674
▁Masalah	-10.6741
▁Kira	-10.6743
▁hard	-10.6745
▁nangis	-10.6753
▁Yunani	-10.6753
▁Petaling	-10.6754
ele	-10.6754
▁Din	-10.6755
▁Proses	-10.6755
▁bendera	-10.6757
filem	-10.6757
▁pendedahan	-10.6758
jin	-10.6761
▁disyaki	-10.6766
gil	-10.6771
▁ekspor	-10.6772
▁berangkat	-10.6775
▁kalinya	-10.6785
▁keinginan	-10.6786
▁pasca	-10.6786
▁Center	-10.6787
▁ri	-10.6788
dat	-10.6789
Namun	-10.6792
▁elaun	-10.6792
▁YouTube	-10.6796
▁tali	-10.6798
▁hadis	-10.6799
▁KOMPAS	-10.68
▁Harry	-10.6801
▁dpt	-10.6802
▁Inilah	-10.6803
▁sarjana	-10.6804
hah	-10.6805
▁pasien	-10.6811
gas	-10.6817
▁Ze	-10.6818
▁Naik	-10.6824
hid	-10.6826
▁warisan	-10.6827
89	-10.6828
▁ketenteraan	-10.6831
ction	-10.6832
▁Cho	-10.6833
▁pengurangan	-10.6835
▁Osman	-10.6837
▁berjuang	-10.6845
▁kekerasan	-10.6848
▁Suami	-10.6849
▁Jawi	-10.6849
▁Apple	-10.6851
cha	-10.6854
▁travel	-10.6855
cap	-10.6855
▁sekalipun	-10.6859
cul	-10.6862
▁Sandakan	-10.6864
De	-10.6865
iri	-10.6865
▁par	-10.6872
▁perkampungan	-10.6872
▁ribuan	-10.6875
▁Sulaiman	-10.6878
lor	-10.6882
▁Trans	-10.6887
5,000	-10.6889
▁`	-10.689
▁give	-10.6891
▁PR	-10.6894
▁Ir	-10.6897
52	-10.6897
▁Wei	-10.6901
ple	-10.6902
▁jentera	-10.6902
▁bantahan	-10.6902
▁lintas	-10.6903
rt	-10.6907
▁SPM	-10.6907
▁mengancam	-10.6917
▁Bad	-10.6917
CC	-10.692
▁Times	-10.6921
▁diwakili	-10.6924
▁merokok	-10.6924
▁look	-10.6925
berg	-10.6925
▁Bursa	-10.6926
▁selagi	-10.6927
▁put	-10.6928
▁br	-10.6934
ging	-10.6936
▁try	-10.6938
▁Gen	-10.6938
sion	-10.6941
▁Setakat	-10.6944
ONG	-10.6944
▁topik	-10.6945
▁Sekali	-10.6946
pit	-10.6946
▁berucap	-10.6955
ure	-10.6955
▁Soal	-10.6956
▁51	-10.6957
▁keseluruhannya	-10.6958
▁2008,	-10.6958
▁keluaran	-10.6958
mur	-10.6959
▁sudi	-10.696
79	-10.6964
▁DALAM	-10.6968
jat	-10.697
▁Au	-10.6974
▁Yo	-10.6975
hur	-10.6975
▁integriti	-10.6976
▁lebuh	-10.6976
▁Ang	-10.6977
▁His	-10.6978
dis	-10.6978
▁Ramli	-10.698
▁Hashim	-10.6981
▁relevan	-10.6981
▁saingan	-10.6981
▁feel	-10.6982
▁NSTP	-10.6983
3%	-10.6988
▁dimainkan	-10.699
▁trend	-10.6995
▁research	-10.6995
▁ratusan	-10.6998
▁SEA	-10.6999
▁geran	-10.7
▁Senarai	-10.7
▁ditangani	-10.7
bb	-10.7004
▁Cerita	-10.7005
▁mara	-10.7007
7%	-10.7011
▁Then	-10.7012
▁Games	-10.7015
▁halus	-10.7015
row	-10.7017
▁puluhan	-10.7017
▁tertarik	-10.7018
▁berisiko	-10.7019
kul	-10.7021
▁dipimpin	-10.7022
▁High	-10.7023
▁objektif	-10.7024
▁alami	-10.7026
▁peralihan	-10.7031
▁sumpah	-10.7031
▁Zu	-10.7031
▁SPR	-10.7033
▁panel	-10.7033
▁gambaran	-10.7038
Be	-10.704
▁Seterusnya	-10.7044
▁kedaulatan	-10.7044
lahan	-10.7045
▁tuju	-10.7048
▁miliknya	-10.7049
gn	-10.7056
▁Day	-10.7059
▁gunakan	-10.706
tau	-10.706
▁dilarang	-10.7061
▁Mr	-10.7061
▁test	-10.7062
▁Paling	-10.7063
tim	-10.7065
leh	-10.7069
▁menaik	-10.707
▁persiapan	-10.7073
▁band	-10.7076
▁berta	-10.7083
▁memasak	-10.7084
▁kecemasan	-10.7086
mor	-10.7092
▁beralih	-10.7094
▁short	-10.7095
▁far	-10.7098
▁fiskal	-10.7102
bes	-10.7105
▁Revolusi	-10.7106
▁women	-10.7106
▁Baik	-10.7107
▁signifikan	-10.7115
▁mengharapkan	-10.7118
▁bajet	-10.7119
▁1985	-10.7121
▁Ipoh	-10.7126
▁1989	-10.7127
▁antar	-10.7129
▁kebun	-10.7131
lus	-10.7132
▁disokong	-10.7139
▁Hubungan	-10.714
hen	-10.714
▁Kur	-10.714
▁menganjurkan	-10.7141
▁simbol	-10.7141
▁nikah	-10.7143
▁kesilapan	-10.7144
besaran	-10.7144
▁Jelas	-10.7147
sat	-10.7148
▁why	-10.7149
day	-10.7156
▁Perhimpunan	-10.7157
▁Cal	-10.7163
▁dimakan	-10.7167
bab	-10.7175
▁week	-10.7178
▁mengingat	-10.7183
▁netizen	-10.7184
ld	-10.719
▁Salam	-10.7193
▁47	-10.7193
▁disalurkan	-10.7197
▁kearah	-10.7198
▁pendatang	-10.7202
▁Iraq	-10.7208
rul	-10.7208
▁berkait	-10.7209
▁Peter	-10.7212
▁Ireland	-10.7213
▁Research	-10.7215
▁pelepasan	-10.722
▁tinggalkan	-10.722
07	-10.7222
Bangsa	-10.7225
dir	-10.7236
ns	-10.7237
rama	-10.7239
▁konsisten	-10.724
▁menjatuhkan	-10.7242
▁Van	-10.7243
01	-10.7245
buru	-10.7246
99	-10.7247
е	-10.725
▁Ng	-10.7253
▁dimulai	-10.7254
▁Labuan	-10.7255
▁berlakon	-10.7255
▁75	-10.7257
▁eksekutif	-10.7258
▁Tempat	-10.7259
▁rupanya	-10.7262
▁again	-10.7263
▁kasut	-10.7265
▁KDNK	-10.7265
PT	-10.7268
51	-10.7272
▁studio	-10.7276
PR	-10.7282
▁pola	-10.7283
▁lantas	-10.7283
▁Kinabalu	-10.7285
▁Afghanistan	-10.7287
rab	-10.729
▁Pengurus	-10.729
▁menyambung	-10.7292
▁pastikan	-10.7292
▁kepadanya	-10.7295
ulang	-10.7296
▁bibir	-10.7302
▁AirAsia	-10.7315
jaya	-10.7317
▁Sidang	-10.7317
▁Pagi	-10.7318
▁pengecualian	-10.7319
▁Zakir	-10.732
▁few	-10.732
▁Okay	-10.7321
rong	-10.7326
▁bikin	-10.7326
▁pasir	-10.7327
▁Alex	-10.7328
buku	-10.7333
ves	-10.7334
▁persegi	-10.7337
▁membangkitkan	-10.7339
AR	-10.7343
▁Holdings	-10.7345
4%	-10.7348
lay	-10.7351
▁Honda	-10.7353
▁berperanan	-10.7358
▁65	-10.736
PN	-10.736
▁Sab	-10.7361
9%	-10.7362
▁juru	-10.7363
▁mirip	-10.7366
guru	-10.7368
▁jujur	-10.7369
▁Of	-10.7369
▁Kebajikan	-10.7371
▁menghubungkan	-10.7371
▁dibunuh	-10.7372
ev	-10.7378
▁PKP	-10.7383
Bagaimanapun	-10.7394
▁mengenali	-10.7394
▁bingung	-10.7395
▁bangga	-10.7396
▁Ker	-10.7399
▁Maharaja	-10.7408
▁dibuang	-10.7409
▁prihatin	-10.741
turut	-10.741
▁memperlihatkan	-10.7412
▁sp	-10.7413
▁pinggir	-10.7419
▁Gubernur	-10.743
▁kebersihan	-10.7433
IT	-10.7445
▁Terus	-10.745
▁Zon	-10.745
▁billion	-10.7451
ky	-10.7453
▁MAS	-10.7454
▁serantau	-10.7456
▁Ari	-10.7456
▁Umar	-10.7458
sik	-10.7458
▁Desember	-10.746
▁menandakan	-10.7463
tempat	-10.7467
▁Sim	-10.747
▁coba	-10.7474
ming	-10.7474
▁didn	-10.7483
▁Ph	-10.7488
▁came	-10.749
▁Washington	-10.7494
▁mahukan	-10.7495
▁peran	-10.7499
low	-10.7499
▁erat	-10.7501
▁terkemuka	-10.7501
▁local	-10.7506
▁degree	-10.7508
▁Samad	-10.751
zan	-10.7513
rr	-10.7516
▁Datin	-10.7518
▁membiarkan	-10.7518
▁Ger	-10.7518
awi	-10.7522
▁seketika	-10.7525
6%	-10.7526
▁mar	-10.7527
▁berpikir	-10.7531
▁membiayai	-10.7531
ip	-10.7533
syarat	-10.7535
ungan	-10.7535
▁bos	-10.7538
▁Kit	-10.7542
▁Russia	-10.7543
▁batang	-10.7551
▁stay	-10.7553
▁perak	-10.7553
▁menyalurkan	-10.7559
por	-10.7562
dung	-10.7563
tul	-10.7564
▁PA	-10.7568
▁IS	-10.7568
▁mendadak	-10.7569
▁Perubahan	-10.757
▁kepakaran	-10.7571
kel	-10.7571
▁islam	-10.7575
▁induk	-10.7576
▁demam	-10.7576
▁mengumpul	-10.7577
nk	-10.7579
▁American	-10.7584
▁Abi	-10.7587
ble	-10.7587
▁memelihara	-10.7589
▁tubuhnya	-10.7592
ius	-10.7592
▁petrol	-10.7594
▁penipuan	-10.7597
▁Mahmud	-10.7603
▁cik	-10.7607
▁Jawab	-10.7608
▁ikhlas	-10.7608
▁Chin	-10.7608
▁tersedia	-10.7609
▁nafsu	-10.7613
▁insurans	-10.7614
▁kualitas	-10.7615
▁Belanjawan	-10.7615
▁Black	-10.7616
▁Misalnya	-10.7622
▁semakan	-10.7622
▁mendatang	-10.7629
sek	-10.763
▁kanser	-10.7631
▁ro	-10.7631
▁skala	-10.7634
▁tadbir	-10.7638
▁jambatan	-10.7639
62	-10.7641
▁Bre	-10.7641
▁Bak	-10.7643
▁bersara	-10.7643
▁Digital	-10.7643
▁SHAH	-10.7643
▁California	-10.7645
▁angkatan	-10.7646
▁ambik	-10.765
▁berdaya	-10.7651
▁apatah	-10.7652
▁Airlines	-10.7653
84	-10.7653
rik	-10.7654
▁perlukan	-10.7655
▁modern	-10.7657
sam	-10.7658
▁bom	-10.7658
▁membersihkan	-10.7662
▁serbuan	-10.7662
▁days	-10.7663
98	-10.7663
▁gereja	-10.7666
fin	-10.7667
▁stop	-10.7669
wati	-10.7671
▁Mur	-10.7672
▁penge	-10.7678
▁istri	-10.768
sih	-10.7681
vis	-10.7682
sum	-10.7685
awal	-10.7687
lim	-10.7688
▁food	-10.7691
▁sebalik	-10.7694
AT	-10.7696
87	-10.7697
illa	-10.7698
bukan	-10.7704
▁Peringkat	-10.7704
▁kritikan	-10.7704
▁AN	-10.7706
▁disambut	-10.7706
▁ton	-10.7706
▁Online	-10.7709
▁Mad	-10.771
▁gerak	-10.7712
▁Polisi	-10.7713
ngga	-10.7717
97	-10.7718
▁menciptakan	-10.7719
▁penghujung	-10.7721
▁bukit	-10.7723
kawasan	-10.7725
Allah	-10.7725
▁mulia	-10.7728
▁puak	-10.7733
▁mencerminkan	-10.7737
▁Jho	-10.7737
▁kreatif	-10.7739
ium	-10.774
tari	-10.7741
ph	-10.7742
▁ABDUL	-10.7742
sah	-10.7745
▁judul	-10.7751
▁Halal	-10.7755
▁diubah	-10.7756
▁bagai	-10.7756
jen	-10.7756
▁Transformasi	-10.7758
▁KPK	-10.776
▁Pur	-10.7763
Aku	-10.7764
lur	-10.7765
▁label	-10.7765
▁kemunculan	-10.7765
ls	-10.7774
▁persediaan	-10.7775
▁selari	-10.7776
yi	-10.7776
tab	-10.7777
▁mengiktiraf	-10.7777
▁God	-10.7779
▁pelanggaran	-10.7782
Bu	-10.7782
ramai	-10.7784
pem	-10.7787
▁Penyelamat	-10.7789
▁planet	-10.7798
pus	-10.78
61	-10.7801
▁Adapun	-10.7805
▁menanggung	-10.7806
It	-10.7807
▁sehinggalah	-10.7808
▁partai	-10.7808
▁penanaman	-10.7811
▁Asal	-10.7812
▁56	-10.7814
▁live	-10.7819
sch	-10.7823
▁ungkap	-10.7828
▁Kos	-10.7829
▁diputuskan	-10.7829
▁Bogor	-10.7833
▁sedap	-10.7833
▁mengejutkan	-10.7834
▁Pol	-10.7836
▁1986	-10.7838
tanya	-10.784
▁rayuan	-10.7844
▁bergelar	-10.7851
dul	-10.7853
▁pay	-10.7859
▁East	-10.786
▁ditandatangani	-10.786
▁Sakit	-10.7862
▁bual	-10.7864
▁BELAS	-10.7865
▁coklat	-10.787
▁Sara	-10.787
▁open	-10.7871
▁Mor	-10.7873
▁Sektor	-10.7874
ire	-10.7875
▁great	-10.7879
qui	-10.7881
▁formal	-10.7881
▁roti	-10.7885
▁PS	-10.7888
▁Bah	-10.7889
▁left	-10.7889
▁menerapkan	-10.7892
▁Bur	-10.7901
▁Kamal	-10.7904
pelajar	-10.7907
▁lg	-10.7908
▁Cup	-10.7909
▁menumpukan	-10.7909
▁teh	-10.7911
▁Sejumlah	-10.7911
▁dekad	-10.7912
▁dibebaskan	-10.7913
RI	-10.7914
▁diperolehi	-10.7915
▁Kuching	-10.7921
▁Zul	-10.7922
▁Nas	-10.7924
▁Masuk	-10.7924
▁ditinggalkan	-10.7925
▁1984	-10.7926
▁Tambah	-10.7928
▁Dinas	-10.7929
▁Apalagi	-10.7929
▁Malaysiakini	-10.7929
▁Cer	-10.793
git	-10.7931
▁54	-10.7931
mempertimbangkan	-10.7933
▁hidupnya	-10.7933
81	-10.7941
71	-10.7942
DUN	-10.7944
▁cermin	-10.7944
▁SMA	-10.7946
▁number	-10.7946
▁49	-10.7947
▁menonton	-10.7949
▁Antaranya	-10.795
Bo	-10.795
▁away	-10.7951
▁gerai	-10.7955
▁Ramadhan	-10.7956
MB	-10.7959
far	-10.7964
▁ubah	-10.797
▁plan	-10.797
DP	-10.7971
Peng	-10.7976
bulan	-10.7976
▁53	-10.7979
▁pegang	-10.7979
▁periode	-10.798
for	-10.7981
▁Ulama	-10.7981
▁nie	-10.7981
▁mengisytiharkan	-10.7985
▁RUU	-10.7986
▁Petronas	-10.7989
▁hi	-10.7995
▁pribadi	-10.7999
▁Penggunaan	-10.7999
▁kebiasaan	-10.8001
▁disenaraikan	-10.8001
▁Chong	-10.8001
▁berperingkat	-10.8002
▁impor	-10.8002
NGO	-10.8004
▁sure	-10.8005
PB	-10.8007
▁fail	-10.8009
▁didirikan	-10.8012
nai	-10.8015
▁impian	-10.8015
▁office	-10.8019
▁Ten	-10.8019
▁doakan	-10.8024
▁Chu	-10.8027
▁Beijing	-10.8029
▁Agustus	-10.8029
▁jejak	-10.803
▁Panjang	-10.803
pura	-10.803
▁Indah	-10.8034
▁Sem	-10.8034
uni	-10.8036
▁Koperasi	-10.8037
▁check	-10.8039
SP	-10.8041
▁Putera	-10.8042
▁ketinggalan	-10.8044
▁Mara	-10.8047
▁Azhar	-10.8051
raf	-10.8052
Raja	-10.8052
cut	-10.8053
▁menyi	-10.8055
▁konsert	-10.8056
nie	-10.8057
▁forum	-10.806
▁Sari	-10.806
▁disiapkan	-10.8061
year	-10.8063
KAN	-10.8063
▁clear	-10.8068
▁Entertainment	-10.8068
▁tetamu	-10.8068
▁Azman	-10.8068
▁mengg	-10.8068
▁khawatir	-10.807
siap	-10.8071
▁Rang	-10.8073
▁Love	-10.8074
▁Leon	-10.8076
▁Pelaksanaan	-10.8076
▁SA	-10.8077
▁keep	-10.8083
▁kubur	-10.8083
▁Kelas	-10.8085
▁Sub	-10.8092
▁Kawan	-10.8092
tz	-10.8094
▁pejuang	-10.8096
▁serentak	-10.8097
▁automatik	-10.8097
▁penerimaan	-10.8097
kini	-10.8098
72	-10.8098
▁mn	-10.81
▁membutuhkan	-10.81
▁der	-10.8101
▁TNI	-10.8102
▁Remaja	-10.8102
▁Sijil	-10.8103
buahan	-10.8104
tat	-10.8107
▁USD	-10.8108
▁Part	-10.8112
ship	-10.8114
▁BER	-10.8115
rasi	-10.8119
▁Bra	-10.8119
▁Abidin	-10.812
▁pengawasan	-10.812
▁Rashid	-10.8121
▁trans	-10.8121
▁kilogram	-10.8124
Kerajaan	-10.8126
▁MH	-10.8129
▁move	-10.813
▁Alang	-10.8146
▁sal	-10.8153
19,	-10.8157
▁rela	-10.816
▁berhasrat	-10.8161
94	-10.8162
nn	-10.8163
▁Sir	-10.8169
▁jurang	-10.8169
▁obat	-10.817
▁Quran	-10.8171
▁least	-10.8175
▁MP	-10.8176
▁job	-10.8177
▁benih	-10.8181
▁Pasifik	-10.8183
tung	-10.8186
▁reformasi	-10.8189
ray	-10.8191
▁dikurangkan	-10.8193
▁ti	-10.8198
▁berturut	-10.8198
▁hidung	-10.8198
uli	-10.8201
▁Chen	-10.8202
▁took	-10.8204
▁massa	-10.8205
▁Cat	-10.8206
▁Charles	-10.8209
pm	-10.8213
▁Perniagaan	-10.8213
▁mendidik	-10.8218
das	-10.8219
▁mm	-10.8227
▁mini	-10.8228
▁mengadu	-10.8228
kol	-10.8231
▁1988	-10.8232
▁keberkesanan	-10.8233
▁Pemain	-10.8236
all	-10.8236
▁bersepadu	-10.8238
▁Mahkota	-10.8238
▁line	-10.8239
juk	-10.824
▁ukuran	-10.8242
▁runcit	-10.8243
He	-10.8248
▁Kas	-10.8248
ayat	-10.825
у	-10.825
rumah	-10.825
SC	-10.825
▁Lin	-10.8252
rek	-10.8253
▁52	-10.8254
▁Chan	-10.8256
▁Pakar	-10.8256
▁senyap	-10.8264
win	-10.8267
sang	-10.8268
ward	-10.8271
▁daripadanya	-10.8275
▁perisian	-10.8278
▁Inc	-10.8279
ngi	-10.828
▁rutin	-10.8283
▁kelajuan	-10.8285
▁1,000	-10.8286
▁pengendali	-10.8287
▁kabupaten	-10.8287
▁surah	-10.8287
▁semester	-10.8288
▁Anthony	-10.829
mbi	-10.829
▁Biasanya	-10.8291
▁butuh	-10.8292
sus	-10.8292
▁protes	-10.8293
▁mengerti	-10.8293
untuk	-10.8296
▁Subang	-10.83
▁Hampir	-10.8303
▁Sho	-10.8304
▁among	-10.8308
gri	-10.8309
eb	-10.831
iran	-10.8311
▁silap	-10.8318
▁Latin	-10.8318
▁Perlindungan	-10.832
BU	-10.832
med	-10.8321
▁judi	-10.8322
NA	-10.8324
▁menerangkan	-10.8325
▁Budi	-10.8326
▁Minta	-10.8326
▁bg	-10.8328
KS	-10.8328
▁diraja	-10.8334
▁menggelar	-10.8334
▁pecahan	-10.8335
sti	-10.8336
ej	-10.8341
▁Awal	-10.8341
▁pegangan	-10.8341
▁ditunjukkan	-10.8346
▁TNB	-10.8348
800	-10.8349
▁ngan	-10.835
▁Dam	-10.8352
lagi	-10.8352
▁pers	-10.8354
▁Hang	-10.8354
Tidak	-10.8356
▁menyeru	-10.8356
▁defisit	-10.8358
▁memperjuangkan	-10.8358
▁penalti	-10.8358
▁guys	-10.8362
▁Maria	-10.8363
▁kursi	-10.8368
cent	-10.8372
▁terjun	-10.8375
▁terdedah	-10.8375
fr	-10.8378
lee	-10.8379
▁Time	-10.838
▁kaunter	-10.8383
▁memeriksa	-10.8385
▁dipandang	-10.8385
▁menyuarakan	-10.8385
▁kendaraan	-10.8386
▁Syah	-10.8392
teman	-10.8394
▁kekalahan	-10.8394
▁Kelab	-10.8397
▁Penguatkuasaan	-10.8398
▁mustahil	-10.84
oo	-10.8402
▁project	-10.8404
▁penyalahgunaan	-10.8405
run	-10.8408
▁pencarian	-10.8411
IM	-10.8412
▁mengutip	-10.8416
▁parkir	-10.8417
▁menyukai	-10.8421
▁After	-10.8421
▁big	-10.8421
▁pipi	-10.8428
▁does	-10.843
▁without	-10.843
jun	-10.8433
▁timbalan	-10.8433
▁KOTA	-10.8434
was	-10.8436
▁memerangi	-10.8436
▁perolehan	-10.8439
ero	-10.8439
▁kayak	-10.844
▁1963	-10.844
bir	-10.8441
og	-10.8441
Ku	-10.8442
▁semoga	-10.8444
▁kriteria	-10.8448
pati	-10.8453
▁tayangan	-10.8455
mad	-10.8456
▁berkuat	-10.8459
▁bersesuaian	-10.8461
▁Minyak	-10.8462
▁dijumpai	-10.8464
sor	-10.8464
▁wisata	-10.8465
▁CNN	-10.8467
PDRM	-10.8469
▁dipersetujui	-10.8471
▁mele	-10.8474
▁au	-10.848
▁points	-10.8481
▁dihukum	-10.8483
▁bawang	-10.8483
tem	-10.8484
Untuk	-10.8489
▁UU	-10.849
qu	-10.849
▁menghadap	-10.8491
2%	-10.8494
▁pengasas	-10.8494
▁Adi	-10.8496
▁rajin	-10.8497
▁babak	-10.8499
▁penganut	-10.8499
▁dicipta	-10.8501
▁ketakutan	-10.8502
▁Jadual	-10.8504
del	-10.851
kannya	-10.851
▁pesanan	-10.8511
▁Indeks	-10.8512
▁tukang	-10.8514
▁lubang	-10.8516
▁hayat	-10.8516
▁Tom	-10.8517
▁Rosmah	-10.8518
▁Gal	-10.8518
▁seri	-10.8519
tori	-10.852
83	-10.8525
▁bincang	-10.8527
▁selalunya	-10.8532
▁pembaharuan	-10.8535
▁menara	-10.8536
cher	-10.8537
▁disimpan	-10.8543
▁merdeka	-10.8544
vor	-10.8546
cus	-10.8553
▁process	-10.8553
TV	-10.8555
▁Cameron	-10.8555
SM	-10.8557
▁went	-10.8563
▁Rio	-10.8563
get	-10.8564
▁nikmat	-10.8564
▁Neppol	-10.8566
▁Bro	-10.8567
▁caj	-10.8567
▁Cap	-10.8573
ngan	-10.8574
field	-10.8574
▁ipar	-10.8575
▁segelintir	-10.8576
▁mengkritik	-10.8579
cam	-10.858
▁penghantaran	-10.858
▁case	-10.8584
▁Shin	-10.8585
OS	-10.8585
▁kolam	-10.8589
IP	-10.8592
▁Johan	-10.8598
Ro	-10.8599
▁tender	-10.86
▁damai	-10.86
▁Portugal	-10.8607
PU	-10.8609
▁logo	-10.8609
zen	-10.8613
▁Olympic	-10.8614
▁persekolahan	-10.8617
▁diskriminasi	-10.8617
▁binatang	-10.8618
▁kejatuhan	-10.8622
akhir	-10.8625
▁lantaran	-10.8627
▁PENGGAL	-10.863
▁ditarik	-10.863
ngk	-10.8631
▁pedagang	-10.8631
▁pangan	-10.8631
▁Mont	-10.8633
program	-10.8633
▁sekalian	-10.8634
▁Film	-10.8636
▁statement	-10.8636
sim	-10.8638
▁disa	-10.864
empat	-10.8641
▁didalam	-10.8642
bandar	-10.8643
▁College	-10.8643
▁until	-10.8644
▁psikologi	-10.8646
lt	-10.865
▁menuduh	-10.8651
▁diturunkan	-10.8653
▁let	-10.8653
1,000	-10.8656
sil	-10.8656
ese	-10.8659
▁Model	-10.8661
▁Utusan	-10.8661
▁Tang	-10.8663
▁membahas	-10.8664
▁rapi	-10.8668
kg	-10.8669
▁kek	-10.8669
pihak	-10.8671
▁ii	-10.8674
▁tembakan	-10.8676
▁semenjak	-10.8679
bri	-10.8681
unan	-10.8682
buat	-10.8682
▁Itulah	-10.8683
▁staff	-10.8684
▁class	-10.8684
▁PP	-10.8685
rup	-10.869
▁problem	-10.869
▁mela	-10.8692
bek	-10.8693
▁Ilmu	-10.8693
▁penghuni	-10.8695
ator	-10.8696
▁diserang	-10.8699
▁ekoran	-10.8704
bila	-10.8706
▁Shu	-10.8709
▁Duta	-10.871
fo	-10.8712
▁Sarjana	-10.8712
▁eks	-10.8712
▁upah	-10.8713
▁pinggang	-10.8716
▁mengu	-10.8716
▁Kad	-10.8719
▁menghapuskan	-10.8722
▁Ray	-10.8726
▁pemahaman	-10.8726
▁Melihat	-10.8728
▁Pentadbiran	-10.8729
▁tersangka	-10.8729
▁Perlu	-10.873
▁kian	-10.873
ins	-10.8731
▁jer	-10.8731
▁dilindungi	-10.8742
▁2007,	-10.8744
▁dirawat	-10.8744
▁Musang	-10.8748
▁Virus	-10.8751
▁Des	-10.8752
▁Denmark	-10.8752
cik	-10.8752
▁basah	-10.8754
▁Penerbangan	-10.8755
▁Zulkifli	-10.8755
▁cek	-10.8756
▁interview	-10.876
▁little	-10.876
▁alkohol	-10.8762
gasite	-10.8767
▁pangkalan	-10.877
▁Kom	-10.8771
▁pikiran	-10.8772
▁met	-10.8773
▁1945	-10.8776
▁America	-10.8777
1%	-10.878
Dia	-10.8782
stro	-10.8782
▁kepelbagaian	-10.8786
pah	-10.8788
▁puisi	-10.8789
tain	-10.8791
▁matematik	-10.8791
▁tebal	-10.8802
92	-10.8803
lic	-10.8804
▁Bidang	-10.8804
back	-10.8806
NI	-10.8809
▁kalendar	-10.881
▁Food	-10.8814
▁mempersoalkan	-10.8814
▁Maritim	-10.8815
▁merawat	-10.8816
▁berk	-10.882
▁Nomor	-10.8821
RC	-10.8822
▁join	-10.8823
▁Gabungan	-10.8823
02	-10.8825
▁JABATAN	-10.8825
nye	-10.8829
▁logam	-10.883
▁Wales	-10.8831
▁teliti	-10.8831
▁roda	-10.8832
▁menikah	-10.8835
▁hab	-10.8836
▁show	-10.8848
▁Japan	-10.8858
Li	-10.8858
▁Johari	-10.8859
▁Ash	-10.8861
wn	-10.8869
▁development	-10.887
▁mengunjungi	-10.8873
▁teringat	-10.8873
▁tutur	-10.8876
▁tingkatan	-10.888
uf	-10.8883
▁phone	-10.8885
▁comp	-10.8885
▁Amar	-10.8886
▁AI	-10.8889
▁KEDUA	-10.8894
▁ekosistem	-10.8894
▁stok	-10.8899
EC	-10.89
▁along	-10.8902
▁Hadir	-10.8903
▁Keadilan	-10.8908
▁notis	-10.891
▁mengetuai	-10.891
AF	-10.8911
iq	-10.8912
Semua	-10.8917
▁called	-10.8918
▁ditukar	-10.892
yam	-10.8921
93	-10.8922
▁diamalkan	-10.8923
▁Proton	-10.8924
▁Bil	-10.8924
▁tercatat	-10.8927
▁mendaftar	-10.8927
▁terkesan	-10.8927
▁Hussein	-10.8936
ight	-10.8937
▁penya	-10.8939
н	-10.8941
▁full	-10.8941
Islam	-10.8944
▁Fakulti	-10.8944
produk	-10.8946
▁Ras	-10.8947
▁hope	-10.8947
▁situs	-10.8949
▁cekap	-10.8949
▁erti	-10.895
▁ditanam	-10.895
▁diangkat	-10.8951
LI	-10.8952
vers	-10.8956
▁fisik	-10.8956
rn	-10.8956
▁Solo	-10.896
▁Bai	-10.8961
▁audit	-10.8964
▁1983	-10.8967
▁Wisma	-10.8967
Ter	-10.8969
▁Sesungguhnya	-10.897
▁untung	-10.897
▁komedi	-10.8972
sem	-10.8972
Bi	-10.8975
▁komoditi	-10.8976
▁memasang	-10.8977
▁koperasi	-10.898
▁apalagi	-10.8982
▁pencerobohan	-10.8983
▁Azmi	-10.8983
▁Cuba	-10.8984
▁terbentuk	-10.8987
dur	-10.8987
▁tambang	-10.8991
▁When	-10.8993
bon	-10.8993
▁Hafiz	-10.8995
▁botol	-10.8995
▁kotor	-10.8995
▁Kuasa	-10.8996
▁toko	-10.8996
Qur	-10.8999
MM	-10.9001
▁MRT	-10.9002
sep	-10.9003
▁keberadaan	-10.9009
▁solusi	-10.901
nti	-10.901
▁pengawal	-10.901
IC	-10.9012
▁kapan	-10.9013
▁penguasaan	-10.9013
dd	-10.9013
▁segmen	-10.9014
▁nyaman	-10.9014
▁Not	-10.9016
▁app	-10.9017
▁dimuat	-10.9025
▁berguna	-10.9026
▁Asian	-10.9027
▁Riau	-10.9027
▁run	-10.9028
▁due	-10.903
itu	-10.903
yar	-10.9033
▁petunjuk	-10.9036
tangan	-10.9038
eli	-10.9046
▁Makan	-10.9047
rif	-10.9048
▁become	-10.9055
▁SRC	-10.9056
ped	-10.9056
mir	-10.9057
▁Marin	-10.9058
ا	-10.9058
rot	-10.9059
▁Yan	-10.9061
▁Karya	-10.9062
▁Tre	-10.9069
▁dipengaruhi	-10.9076
To	-10.9077
▁Disney	-10.9079
▁menembak	-10.9084
▁Simpang	-10.9085
2,000	-10.9092
▁memindahkan	-10.9092
▁Anuar	-10.9093
▁musik	-10.9095
▁Mansor	-10.9096
▁beritahu	-10.9096
▁400	-10.9096
▁fasilitas	-10.9097
ys	-10.9098
▁Wal	-10.9099
▁angkasa	-10.9101
▁Qi	-10.9101
▁Profesor	-10.9103
▁digambarkan	-10.9103
▁enak	-10.9105
An	-10.9105
▁Real	-10.9106
ving	-10.9107
▁dinafikan	-10.9111
▁Mari	-10.9111
▁sepi	-10.9114
▁Demi	-10.9116
bet	-10.9117
▁Buddha	-10.9119
▁kuota	-10.912
о	-10.9123
mil	-10.9123
gat	-10.9124
BS	-10.9125
▁Press	-10.9125
▁Lam	-10.9129
▁Banten	-10.913
▁dihentikan	-10.913
▁sebutan	-10.9136
▁ustaz	-10.9138
FA	-10.914
▁pemasaran	-10.9144
▁mengumpulkan	-10.9145
pet	-10.9147
tong	-10.9148
▁First	-10.9151
▁Pal	-10.9154
▁memuat	-10.9155
▁Urusan	-10.9161
▁Emas	-10.9163
▁70%	-10.9164
▁permit	-10.9165
▁memulihkan	-10.9165
▁Lain	-10.9165
▁berpengaruh	-10.9166
▁sindiket	-10.9168
▁benua	-10.9169
▁house	-10.9171
▁klasik	-10.9174
▁temu	-10.9174
MC	-10.9174
▁pastinya	-10.9174
▁Setia	-10.9175
▁pan	-10.9178
▁menc	-10.9179
Men	-10.918
▁Sweden	-10.9182
lip	-10.9182
pres	-10.9182
▁Kesemua	-10.919
▁community	-10.919
▁five	-10.919
▁tentunya	-10.919
▁Indian	-10.9194
’	-10.9195
fu	-10.9198
▁Chinese	-10.9198
ubah	-10.9198
▁genre	-10.9199
atif	-10.92
▁Indo	-10.9203
▁Shafie	-10.9204
form	-10.9211
▁By	-10.9211
▁Seremban	-10.9212
▁Hisham	-10.922
oy	-10.9221
▁corak	-10.9229
▁NEGERI	-10.9231
▁paksa	-10.9231
▁night	-10.9232
▁rock	-10.9233
▁membuatnya	-10.9235
AU	-10.9242
▁Gayah	-10.9242
▁bad	-10.9242
▁Slovakia	-10.9244
▁1974	-10.9246
tta	-10.9246
▁please	-10.9247
KI	-10.9248
▁usai	-10.9249
▁kelmarin	-10.925
kit	-10.9252
esh	-10.9256
▁Paduka	-10.9258
▁dianugerahkan	-10.9261
▁pisang	-10.9262
▁menyarankan	-10.9264
▁patah	-10.9265
▁Road	-10.9268
cin	-10.927
▁Bahan	-10.927
puk	-10.9274
▁Drama	-10.9275
▁experience	-10.9278
▁Produk	-10.9283
▁pengangguran	-10.9283
jal	-10.9284
▁ban	-10.9286
▁Union	-10.9289
▁melakukannya	-10.929
▁berpeluang	-10.9292
wal	-10.9293
top	-10.9294
▁kg	-10.9295
▁terse	-10.9296
▁bertahun	-10.9296
▁bla	-10.9296
kun	-10.9298
▁baby	-10.9298
▁penggal	-10.9299
▁Jenderal	-10.93
▁Team	-10.9301
▁Papa	-10.9303
▁berdarah	-10.9305
▁dibatalkan	-10.9305
▁tas	-10.9305
▁ular	-10.9306
▁mendatangkan	-10.9309
▁utamanya	-10.9309
▁BNM	-10.9309
▁amal	-10.931
▁57	-10.9311
Mar	-10.9317
▁menjayakan	-10.9319
▁Richard	-10.9319
▁menjadikannya	-10.9323
▁Kastam	-10.9325
lun	-10.9325
▁Komisi	-10.9325
600	-10.9329
MS	-10.9329
jadi	-10.9329
▁cat	-10.9334
EN	-10.9335
▁terbitan	-10.9337
rna	-10.9337
▁Institute	-10.9339
ntang	-10.934
▁pagar	-10.934
▁garam	-10.9343
▁penganjuran	-10.9344
▁1950	-10.9345
▁Sayang	-10.9346
▁Standard	-10.9347
▁Gan	-10.9347
▁gampong	-10.9349
LAH	-10.935
▁laksa	-10.935
96	-10.9352
▁Forum	-10.9355
ix	-10.9361
▁Perikanan	-10.9363
▁Bon	-10.9364
▁250	-10.9365
alih	-10.9367
▁tertulis	-10.937
▁sampaikan	-10.9371
▁dikurniakan	-10.9372
kil	-10.9376
iii	-10.9378
▁Toyota	-10.938
▁asked	-10.9387
▁Mag	-10.9387
▁gimana	-10.9387
▁grup	-10.9389
▁Berikutan	-10.9391
▁melewati	-10.9391
▁usah	-10.9392
▁Istilah	-10.9398
▁Sesetengah	-10.9399
▁hang	-10.9404
iv	-10.9405
▁sha	-10.9407
▁pembedahan	-10.9408
lihat	-10.9409
▁ser	-10.9415
kuasa	-10.942
▁silam	-10.9426
▁terikat	-10.9426
▁ketidak	-10.9428
▁setinggi	-10.9432
rad	-10.9433
▁persendirian	-10.9433
▁menghina	-10.9436
▁hiasan	-10.9439
▁askar	-10.944
▁Cikgu	-10.9445
▁Law	-10.9447
▁peta	-10.9448
▁bakar	-10.9451
▁Segala	-10.9453
▁Highlands	-10.9455
▁Lang	-10.9457
▁bo	-10.9459
▁mestilah	-10.9467
▁Terbuka	-10.9467
KL	-10.9467
aga	-10.9467
▁important	-10.9468
tok	-10.9469
▁Mil	-10.947
▁tergolong	-10.9475
▁Pribumi	-10.9481
▁Kerjasama	-10.9483
▁gram	-10.9485
▁Muzik	-10.9486
our	-10.949
▁min	-10.949
SE	-10.9491
▁binti	-10.9494
▁Miss	-10.9495
▁dikaji	-10.95
▁Ditanya	-10.9501
▁Jemaah	-10.9503
▁jawaban	-10.9508
▁masanya	-10.9509
▁With	-10.951
▁Selanjutnya	-10.9514
mik	-10.9516
▁kejuruteraan	-10.9517
▁Gereja	-10.9517
▁Ayu	-10.9518
▁bina	-10.952
▁Ratu	-10.952
▁Top	-10.9521
▁kesepakatan	-10.9523
▁teruskan	-10.9531
▁Menara	-10.9531
▁direkodkan	-10.9534
▁Kadar	-10.9537
ach	-10.9537
▁Sp	-10.954
UR	-10.9541
▁pesisir	-10.9542
perkara	-10.9544
▁kesulitan	-10.9545
▁Ucap	-10.9546
▁disebutkan	-10.9547
▁rekaan	-10.9548
▁Pasal	-10.955
▁meraikan	-10.956
rm	-10.956
▁Setar	-10.9567
▁peratusan	-10.957
▁berkawan	-10.9571
▁Pin	-10.9573
▁jenazah	-10.9574
▁Ladang	-10.9574
rim	-10.9578
▁Penolong	-10.9579
▁penambahan	-10.9579
mam	-10.958
▁Pelaburan	-10.958
▁menekan	-10.9581
▁Yahya	-10.9583
▁Band	-10.9584
▁2021	-10.9585
▁added	-10.9585
▁debut	-10.9586
▁sesekali	-10.9586
▁Los	-10.9588
▁Char	-10.9591
▁terdiam	-10.9593
▁selia	-10.9593
▁ratus	-10.9594
▁santai	-10.9594
▁SRI	-10.9598
▁peranti	-10.9598
▁JPJ	-10.9601
nov	-10.9602
non	-10.9602
▁personal	-10.9602
▁dikuasai	-10.9602
mes	-10.9603
▁diakui	-10.9607
▁find	-10.9608
mbak	-10.9609
▁Castile	-10.9613
▁makmal	-10.9616
▁Adib	-10.9616
▁Jong	-10.9617
▁terbunuh	-10.9617
pos	-10.9618
▁meyakinkan	-10.9619
pop	-10.9623
▁tren	-10.9624
▁1965	-10.9624
ntar	-10.9624
▁Jalil	-10.9633
▁PERTAMA	-10.9636
ingat	-10.9641
▁ALAM	-10.9644
▁Ag	-10.9644
▁Pertempuran	-10.9645
▁indeks	-10.9648
▁Adnan	-10.9649
Alpes	-10.9652
▁1982	-10.9653
▁Post	-10.9659
▁Minister	-10.966
▁House	-10.9661
▁tawa	-10.9666
▁terkawal	-10.9668
▁disifatkan	-10.9668
IR	-10.9672
▁Siap	-10.9673
▁menanam	-10.9677
▁lega	-10.9677
▁Api	-10.9678
▁adiknya	-10.9684
▁Gudang	-10.9686
▁kubu	-10.9687
▁ternakan	-10.969
▁pembentangan	-10.9691
▁thing	-10.9694
Co	-10.9694
ement	-10.9694
▁1967	-10.9698
▁rehat	-10.97
▁talk	-10.9702
cepat	-10.9703
▁gedung	-10.9703
▁membentangkan	-10.9706
▁Korang	-10.9707
▁Suri	-10.9708
▁sebaiknya	-10.9712
▁side	-10.9712
▁pasang	-10.9714
▁terjatuh	-10.972
▁Rose	-10.9723
▁ditanggung	-10.9723
▁based	-10.9726
rel	-10.9731
▁kemana	-10.9733
▁Land	-10.9734
▁pedalaman	-10.9734
▁jantan	-10.9735
▁UiTM	-10.9735
▁dagangan	-10.9737
▁berkurangan	-10.974
ska	-10.9742
▁bus	-10.9743
yer	-10.9747
▁iv	-10.9747
▁kampanye	-10.9748
▁Selat	-10.975
▁Fitri	-10.9752
▁information	-10.9755
▁balai	-10.9756
▁pastu	-10.9756
▁seimbang	-10.9757
▁penyampaian	-10.9762
▁jajaran	-10.9764
Te	-10.9764
▁Kenyataan	-10.9765
▁penyelewengan	-10.9765
▁terbatas	-10.9766
▁diabetes	-10.9768
▁Pemimpin	-10.9769
▁por	-10.9771
▁sesungguhnya	-10.9771
▁Farid	-10.9773
bai	-10.9774
▁berbasis	-10.9774
alukan	-10.9776
▁animasi	-10.9777
lie	-10.9778
▁runtuh	-10.978
▁dipegang	-10.9783
▁Pelakon	-10.9783
sol	-10.9786
▁Xi	-10.9786
▁berniaga	-10.9788
dian	-10.979
ial	-10.9791
▁seram	-10.9791
uti	-10.9792
▁follow	-10.9794
▁lukisan	-10.9798
▁menghilangkan	-10.9802
▁keusahawanan	-10.9803
▁pegi	-10.9804
▁ragu	-10.9808
▁Ming	-10.9809
▁contact	-10.9809
▁control	-10.9809
▁Intan	-10.9813
▁body	-10.9813
▁Nasir	-10.9814
▁Liverpool	-10.9815
▁berniat	-10.9815
▁terbakar	-10.9817
▁thought	-10.9818
▁kawin	-10.982
▁MIC	-10.982
▁Bunga	-10.9822
▁yuran	-10.9823
▁Music	-10.9823
▁perhubungan	-10.9823
▁Austria	-10.9827
cor	-10.9831
▁penerbit	-10.9832
▁Kakak	-10.9833
▁telus	-10.9833
▁dong	-10.9834
▁transformasi	-10.9836
▁Usahawan	-10.984
▁58	-10.9843
▁Bor	-10.9843
▁cowok	-10.9843
ngkan	-10.9846
▁2006,	-10.9849
▁Company	-10.9853
▁Qatar	-10.9853
UT	-10.9853
ses	-10.9855
▁Gun	-10.986
▁kantin	-10.9862
▁hamil	-10.9863
▁Dapat	-10.9863
▁il	-10.9863
▁trafik	-10.9864
▁Martin	-10.9869
▁kaji	-10.9876
▁Pembinaan	-10.988
▁korupsi	-10.988
▁merosot	-10.9885
▁nuklear	-10.9885
▁gelak	-10.9886
▁Wah	-10.9886
▁keharmonian	-10.9888
▁kesatuan	-10.9888
▁ADUN	-10.989
▁menyesal	-10.9892
gue	-10.9893
yak	-10.9894
OR	-10.9895
▁merosakkan	-10.9896
▁penutupan	-10.9898
EP	-10.9899
▁peti	-10.9904
KA	-10.9904
▁Kasih	-10.9905
▁Mula	-10.9906
▁Parit	-10.9909
▁Bung	-10.9922
▁Karim	-10.9922
▁biarkan	-10.9922
▁strong	-10.9925
lok	-10.9928
pri	-10.993
▁telekomunikasi	-10.9932
▁membesar	-10.9932
▁ten	-10.9934
▁**_	-10.9935
▁berbunyi	-10.9936
So	-10.9938
▁pelatih	-10.9938
ever	-10.9943
ult	-10.9943
▁karakter	-10.9944
angka	-10.9946
ally	-10.9947
▁imam	-10.9952
oli	-10.9952
▁menggabungkan	-10.9952
▁Muar	-10.9953
▁already	-10.9958
▁bersiap	-10.9958
raya	-10.9962
▁halangan	-10.9962
▁mandat	-10.9962
▁disana	-10.9964
▁didedahkan	-10.9964
▁harimau	-10.9964
▁Bermula	-10.9969
▁Now	-10.9973
ono	-10.9976
▁meme	-10.9982
▁mencintai	-10.9982
▁Gadis	-10.9983
mati	-10.9987
▁penekanan	-10.9988
▁Zakaria	-10.9988
▁Gra	-10.9988
CE	-10.9991
▁Dinasti	-10.9993
▁beragam	-10.9996
▁niaga	-10.9997
▁Pendakwa	-11.0001
700	-11.0005
▁ponsel	-11.0005
▁email	-11.0005
▁tarikan	-11.0007
▁gi	-11.0008
▁sastera	-11.0011
▁Perpustakaan	-11.0011
▁dijelaskan	-11.0011
▁turn	-11.0012
tahu	-11.0016
▁lebat	-11.0017
▁pulangan	-11.0019
ille	-11.0023
tir	-11.0027
▁penuntut	-11.0035
ibu	-11.0043
lk	-11.0044
▁kebelakangan	-11.005
wai	-11.0052
BI	-11.0055
▁tra	-11.0055
4,000	-11.0055
▁sembuh	-11.0056
SS	-11.0057
lut	-11.0058
▁Up	-11.0062
▁energi	-11.0062
tter	-11.0065
▁Konsep	-11.0065
▁Balik	-11.0066
▁Penulis	-11.0067
gur	-11.0068
▁hantaran	-11.0068
▁competition	-11.0071
▁dilansir	-11.0071
3,000	-11.0071
▁Lima	-11.0078
м	-11.0081
▁studi	-11.0082
▁future	-11.0086
▁Perhubungan	-11.0092
lung	-11.0093
▁diesel	-11.0094
cen	-11.0095
▁Faizal	-11.0097
▁kestabilan	-11.0098
▁Asisten	-11.0098
KK	-11.0099
▁cm	-11.0099
▁menyadari	-11.0101
▁Salahuddin	-11.0103
▁helikopter	-11.0106
▁UKM	-11.0108
▁1969	-11.0108
tual	-11.0111
▁Kam	-11.0111
▁Pelbagai	-11.0112
▁Penyakit	-11.0112
▁terfikir	-11.0114
▁sampel	-11.012
band	-11.0121
▁budi	-11.0124
▁prosiding	-11.0124
▁Rus	-11.0127
▁Are	-11.0127
▁former	-11.0129
▁pentingnya	-11.0129
▁kecekapan	-11.013
▁Loke	-11.0132
oni	-11.0132
▁pertikaian	-11.0135
▁reti	-11.0136
▁64	-11.0139
▁Mulia	-11.0142
CI	-11.0142
▁difahami	-11.0146
▁diasaskan	-11.0146
Dengan	-11.0147
die	-11.0148
PRK	-11.015
ology	-11.0152
▁hu	-11.0152
▁later	-11.0152
▁tanggapan	-11.0153
▁Motor	-11.0153
▁Jambi	-11.0155
▁investor	-11.0156
kanlah	-11.0157
▁Cam	-11.016
▁meringankan	-11.016
▁room	-11.0161
▁Ong	-11.0163
sco	-11.0164
Ketika	-11.0166
▁cecair	-11.0166
▁members	-11.0168
▁change	-11.0172
▁suri	-11.0172
▁Jungkook	-11.0173
▁\	-11.0175
▁Hj	-11.0177
▁kurun	-11.018
▁teratas	-11.0183
▁Daftar	-11.0185
▁tambahnya	-11.0191
▁setara	-11.0191
▁Kempen	-11.0192
▁English	-11.0192
▁pencalonan	-11.0194
▁Zuraida	-11.0194
▁Seramai	-11.0195
pul	-11.0195
▁hadapi	-11.0197
▁wakaf	-11.02
▁Agus	-11.0201
▁visi	-11.0203
▁melabur	-11.0203
▁piawaian	-11.0203
▁dirampas	-11.0206
irah	-11.0206
ADUN	-11.0212
▁kesian	-11.0212
▁Liputan	-11.0212
▁1981	-11.0213
FC	-11.0215
parti	-11.022
▁Menerusi	-11.0221
▁sultan	-11.0229
▁letupan	-11.023
▁alias	-11.0235
yr	-11.0236
▁alhamdulillah	-11.0236
▁Mai	-11.0245
▁ketegangan	-11.0245
▁percubaan	-11.0245
rut	-11.0246
▁1948	-11.0248
eu	-11.0248
▁pondok	-11.0249
▁mencuba	-11.0249
ruf	-11.025
▁Rizal	-11.0252
ric	-11.0256
gus	-11.0256
hay	-11.0256
ili	-11.0257
▁decision	-11.026
▁menyusun	-11.026
▁Biar	-11.0262
gor	-11.0262
▁pajak	-11.0263
▁semacam	-11.0265
▁liat	-11.0267
▁1979	-11.0268
▁Fo	-11.0272
▁jantina	-11.0272
sun	-11.0274
▁ingatan	-11.0275
los	-11.0275
Sebagai	-11.0276
▁bersenjata	-11.0277
▁pemilih	-11.0277
▁dikehendaki	-11.0278
▁keje	-11.028
▁Kurang	-11.0282
▁gen	-11.0288
▁kesukaran	-11.0291
▁meeting	-11.0291
▁sore	-11.0292
▁berkurang	-11.0292
▁diuji	-11.0293
▁international	-11.0297
lot	-11.0297
▁putri	-11.0299
▁merealisasikan	-11.03
bot	-11.03
▁meletak	-11.0303
nce	-11.0304
▁tunang	-11.0304
▁jua	-11.0304
▁Madinah	-11.0306
▁Menjelang	-11.0309
▁bersejarah	-11.031
▁Pendaftaran	-11.0311
▁jajahan	-11.0312
▁tuhan	-11.0315
▁fesyen	-11.0315
▁sw	-11.0316
▁arak	-11.0316
eks	-11.0317
▁REPUBLIK	-11.0318
▁kewarganegaraan	-11.0318
NYA	-11.0318
▁water	-11.0319
▁Siang	-11.0323
projek	-11.0324
▁Ikan	-11.0324
cle	-11.0329
▁Pesawat	-11.033
▁However	-11.033
▁berde	-11.0331
sebab	-11.0333
fon	-11.0337
▁iii	-11.0338
SMK	-11.0338
▁persamaan	-11.034
▁memusnahkan	-11.0343
und	-11.0343
CH	-11.0344
▁waris	-11.0344
▁Rawa	-11.0345
▁diploma	-11.0349
▁Bat	-11.0351
▁started	-11.0354
▁Muzium	-11.0355
▁Kh	-11.0355
Mak	-11.0356
LP	-11.0358
▁fl	-11.0359
rung	-11.0361
▁Seberang	-11.0362
As	-11.0362
▁mahir	-11.0364
▁ejen	-11.0364
▁Komisioner	-11.0364
kor	-11.0365
▁pengendalian	-11.0368
▁62	-11.0368
▁kom	-11.0376
▁nyanyian	-11.038
▁Sinar	-11.0381
▁61	-11.0382
▁Mira	-11.0384
▁staf	-11.0384
▁membimbangkan	-11.0386
▁bon	-11.0387
▁bulat	-11.0391
ering	-11.0394
▁Andre	-11.0395
▁baka	-11.0398
Man	-11.04
▁How	-11.04
▁fahaman	-11.0401
▁sur	-11.0402
▁Kai	-11.0402
arah	-11.0402
▁memuji	-11.0402
KM	-11.0403
▁memajukan	-11.0404
EM	-11.0405
teng	-11.0406
nat	-11.0408
lian	-11.0408
▁Mengapa	-11.0409
ens	-11.0411
dap	-11.0411
▁memperkasakan	-11.0412
sung	-11.0412
▁membekalkan	-11.0413
▁Hani	-11.0414
▁Tertinggi	-11.0414
▁menghindari	-11.0416
▁asap	-11.042
▁sorry	-11.042
▁Royal	-11.0422
▁keenam	-11.0432
▁Saham	-11.0433
ui	-11.0436
nal	-11.0437
▁kebencian	-11.0438
NG	-11.0438
tkan	-11.0441
▁kebetulan	-11.0441
hil	-11.0442
▁segalanya	-11.0443
▁Journal	-11.0444
▁pakcik	-11.0445
▁EU	-11.0445
▁HAM	-11.0447
▁konsumen	-11.0447
▁berkunjung	-11.0447
▁instrumen	-11.0447
▁Sabu	-11.0448
▁dok	-11.045
▁sendirian	-11.045
side	-11.0454
hhh	-11.0458
▁Anna	-11.0458
▁hancur	-11.0459
▁Ira	-11.0459
▁mengutamakan	-11.046
91	-11.0461
▁Ingat	-11.0462
▁small	-11.0462
nding	-11.0466
▁Audit	-11.0468
▁vs	-11.0469
kkan	-11.0471
▁kh	-11.0472
▁berpegang	-11.0472
▁kemarahan	-11.0472
PAN	-11.0473
▁jadikan	-11.0474
▁Iz	-11.0476
▁pengakuan	-11.0478
▁barulah	-11.0479
▁komentar	-11.0479
eg	-11.048
▁kencing	-11.048
▁YANG	-11.0481
▁syurga	-11.0481
▁menepati	-11.0482
▁sup	-11.0482
▁special	-11.0482
▁Kaum	-11.0486
▁padu	-11.0487
▁menya	-11.0487
spek	-11.0489
▁persahabatan	-11.0491
▁Market	-11.0491
UL	-11.0493
▁veteran	-11.0494
karan	-11.0496
▁meriam	-11.0497
cr	-11.0502
▁Katolik	-11.0503
▁menyuruh	-11.0503
▁baja	-11.0505
▁kene	-11.0505
tuan	-11.0505
olo	-11.0506
bahagian	-11.0507
▁mengi	-11.0511
▁berpakaian	-11.0512
karya	-11.0515
▁kenangan	-11.0515
kur	-11.052
▁Parsi	-11.0521
▁stadium	-11.0522
▁Tujuan	-11.0526
Du	-11.0528
▁format	-11.053
▁Keuangan	-11.0531
▁Awak	-11.0536
▁kembar	-11.0538
▁akhirat	-11.0539
▁Dong	-11.054
▁dimanfaatkan	-11.0541
rem	-11.0542
▁deal	-11.0543
▁PEN	-11.0545
:00	-11.055
nang	-11.055
▁kaget	-11.0551
▁entiti	-11.0553
▁pembekal	-11.0553
▁Tetap	-11.0554
▁Pembiayaan	-11.0556
▁Raj	-11.0556
▁menyalahkan	-11.0556
▁pengikut	-11.0557
▁BBC	-11.0557
▁komik	-11.0557
wer	-11.0558
nci	-11.0559
▁jurusan	-11.0564
rani	-11.0566
▁Kaedah	-11.0567
▁henti	-11.0568
▁berkat	-11.0569
▁Isa	-11.057
▁membanteras	-11.0578
▁gelar	-11.0581
▁saringan	-11.0582
bank	-11.0584
▁abg	-11.0586
▁merebut	-11.0586
dus	-11.0587
▁diuruskan	-11.0588
▁penerbitan	-11.0595
adik	-11.0597
Sy	-11.0599
has	-11.06
▁menimpa	-11.06
▁BERSATU	-11.0602
▁tragedi	-11.0603
▁teratur	-11.0605
AD	-11.0607
▁pop	-11.0607
▁police	-11.0608
▁mega	-11.0608
▁Daud	-11.0611
▁Maklumat	-11.0611
▁terancam	-11.0613
▁Anis	-11.0614
▁Harimau	-11.0617
▁Maya	-11.0617
▁merangka	-11.0619
▁liter	-11.0619
▁diguna	-11.0624
bong	-11.0625
▁fatwa	-11.0625
▁secepat	-11.0625
▁Nathan	-11.0627
eo	-11.0628
▁Bio	-11.063
▁karbon	-11.063
roll	-11.0631
▁dendam	-11.0635
▁cewek	-11.0637
▁Haz	-11.0641
TC	-11.0642
▁Kara	-11.0646
▁Gaza	-11.0648
▁Sat	-11.0649
▁Yin	-11.065
▁jalanan	-11.065
▁Angel	-11.065
nel	-11.0651
TE	-11.0656
ы	-11.0657
▁panik	-11.0658
▁president	-11.0658
▁gara	-11.0659
GI	-11.066
▁penjual	-11.066
Itu	-11.066
▁balasan	-11.0662
Po	-11.0662
▁memulai	-11.0662
▁money	-11.0664
gin	-11.0665
▁Sul	-11.0665
▁Nad	-11.0665
▁Karang	-11.0665
Ho	-11.0672
▁Song	-11.0674
sc	-11.0676
Walaupun	-11.0682
▁Fasa	-11.0684
▁title	-11.0684
▁ulasan	-11.0684
▁ciptaan	-11.0688
tapi	-11.0691
aksi	-11.0691
ulat	-11.0692
▁Just	-11.0693
CA	-11.0697
▁kosmetik	-11.0698
▁pl	-11.0699
masa	-11.07
kak	-11.07
zz	-11.0704
▁redha	-11.0705
▁heart	-11.0707
▁dikembangkan	-11.0708
▁mengeluh	-11.0708
▁Gambar	-11.0708
gambar	-11.071
▁Manchester	-11.0711
▁peka	-11.0713
▁berbilang	-11.0715
▁seharian	-11.0719
zy	-11.0719
▁rm	-11.0722
▁dek	-11.0724
KU	-11.0726
gak	-11.073
cel	-11.073
▁temen	-11.0731
▁racun	-11.0731
▁basikal	-11.0733
▁diatas	-11.0733
▁Nar	-11.0736
lawan	-11.0738
▁Ryan	-11.0739
▁Mis	-11.0742
▁memperhatikan	-11.0743
▁Gabenor	-11.0746
▁engkau	-11.0746
▁Nam	-11.0746
▁Elsa	-11.0748
▁pin	-11.0749
▁kebahagiaan	-11.0752
▁diplomatik	-11.0754
▁sebilangan	-11.0755
raj	-11.0755
▁BTS	-11.0756
▁PE	-11.0758
▁UEFA	-11.0758
▁Kitab	-11.0761
▁berkepentingan	-11.0762
▁teater	-11.0762
UNG	-11.0762
▁dibangun	-11.0763
▁Tal	-11.0764
▁menerbitkan	-11.0765
▁update	-11.0767
▁1976	-11.0767
▁Kejadian	-11.0767
▁mind	-11.0768
▁exam	-11.077
▁dibaca	-11.0772
PK	-11.0775
hm	-11.0776
▁Rock	-11.0779
▁wujudnya	-11.078
▁sis	-11.078
▁dapatkan	-11.0781
▁sm	-11.0782
▁diantara	-11.0782
▁kafe	-11.0783
▁sapa	-11.0783
▁dilanjutkan	-11.0784
▁Qur	-11.0786
▁month	-11.0787
▁setidaknya	-11.0787
▁making	-11.0791
▁Calon	-11.0792
▁_**	-11.0793
▁membendung	-11.0794
ST	-11.0795
gara	-11.0795
▁Kopi	-11.0807
▁Putri	-11.0808
ized	-11.0809
▁tri	-11.0811
▁leher	-11.0812
over	-11.0816
PL	-11.0817
▁geram	-11.0818
▁IV	-11.082
▁Zain	-11.082
PM	-11.0823
wh	-11.0823
▁Ay	-11.0824
▁Om	-11.0824
OC	-11.0825
▁Public	-11.0826
mani	-11.0831
bro	-11.0837
▁Tentu	-11.0837
▁Hamidi	-11.0837
ncang	-11.0839
dengan	-11.084
▁kurikulum	-11.0843
sed	-11.0843
▁dipaksa	-11.0848
▁menanti	-11.0849
▁tipu	-11.0852
▁kind	-11.0853
▁Kassim	-11.0855
▁ramah	-11.0856
▁gender	-11.0857
▁Bengkulu	-11.0858
▁wawancara	-11.0859
▁Petani	-11.0863
ked	-11.0864
10,000	-11.0865
ds	-11.0865
▁cerah	-11.0867
▁kencang	-11.0868
▁menggerakkan	-11.0871
▁aq	-11.0871
nting	-11.0877
▁mendarat	-11.0878
▁ikatan	-11.0878
▁eksklusif	-11.0884
ative	-11.0885
▁Tra	-11.0886
▁minister	-11.0888
▁ibadat	-11.089
▁menderita	-11.089
▁konsumsi	-11.089
▁Ltd	-11.089
▁Even	-11.0893
▁lorong	-11.0899
▁63	-11.0899
▁120	-11.0902
▁medium	-11.0905
▁kawal	-11.0905
▁cover	-11.0906
▁diperbuat	-11.0908
▁Buah	-11.0908
▁dikekalkan	-11.091
▁ECRL	-11.091
▁Life	-11.091
▁loji	-11.091
kk	-11.0913
▁terkandung	-11.0913
▁Ai	-11.0915
▁penyelidik	-11.0916
▁sesak	-11.0916
▁pengesahan	-11.0916
▁berterima	-11.0917
▁Polres	-11.0922
ullah	-11.0924
▁sukses	-11.0926
▁third	-11.0926
nger	-11.0926
▁fall	-11.0927
▁aspirasi	-11.0928
saran	-11.0933
ensi	-11.0934
▁Faisal	-11.0936
▁basuh	-11.0936
▁wad	-11.0936
▁yah	-11.0937
▁Perbandaran	-11.0939
▁emang	-11.094
lly	-11.094
▁Skating	-11.0942
▁heran	-11.0945
▁patung	-11.0945
▁coach	-11.0945
▁mutu	-11.0947
▁sl	-11.095
▁Sak	-11.0952
▁kesesakan	-11.0952
▁Dur	-11.0952
▁putera	-11.0955
met	-11.0956
ubatan	-11.0959
▁mampan	-11.0962
▁harmoni	-11.0963
kala	-11.0965
onal	-11.0966
▁Win	-11.0967
▁imp	-11.0971
▁geng	-11.0972
ign	-11.0972
bre	-11.0977
▁Tangan	-11.0979
▁pinjam	-11.0979
▁hadith	-11.0981
▁revolusi	-11.0987
▁penguat	-11.099
▁Sawit	-11.0992
▁selam	-11.0995
▁tahfiz	-11.0997
▁Tel	-11.0998
rk	-11.0999
▁Klinik	-11.1004
▁Um	-11.1005
imbang	-11.1008
sp	-11.1008
udi	-11.1008
seperti	-11.1011
▁news	-11.1011
▁kerangka	-11.1012
▁bercampur	-11.1014
▁Kedai	-11.1015
▁PPBM	-11.1015
▁tata	-11.1017
▁war	-11.1019
▁pengganti	-11.102
dz	-11.102
Apabila	-11.1021
▁Sheikh	-11.1021
▁penasihat	-11.1021
▁melayu	-11.1022
▁Peruntukan	-11.1023
▁others	-11.1024
▁diatur	-11.1026
▁Simpanan	-11.1026
▁kecantikan	-11.1027
laf	-11.1032
▁Tp	-11.1032
▁wabah	-11.1032
LE	-11.1034
ID	-11.1035
suka	-11.1035
juga	-11.1037
▁firma	-11.1038
sto	-11.1039
kot	-11.1042
▁memungkinkan	-11.1043
▁kacau	-11.1045
▁disusun	-11.1048
▁service	-11.1049
▁Hadiah	-11.1052
▁Komunis	-11.1052
ical	-11.1053
▁rest	-11.1053
rb	-11.1059
pik	-11.1061
▁ho	-11.1063
SN	-11.1063
▁alamat	-11.1067
▁fact	-11.1069
katan	-11.1069
▁berpengalaman	-11.107
▁tantangan	-11.107
▁Les	-11.1072
▁perilaku	-11.1073
▁Saudara	-11.1073
Pem	-11.1073
▁Fer	-11.1075
▁gw	-11.1077
▁Sah	-11.1078
▁komprehensif	-11.108
▁komunitas	-11.108
▁penyerang	-11.1082
ular	-11.1085
▁Thai	-11.1085
TM	-11.1086
▁multi	-11.1087
anti	-11.1087
▁Com	-11.109
▁sepertinya	-11.1096
▁bang	-11.1098
▁pri	-11.1098
▁Berkuasa	-11.1099
use	-11.1099
▁liputan	-11.1106
burg	-11.1106
dek	-11.1107
▁Boy	-11.1112
▁cha	-11.112
▁gemar	-11.1121
▁once	-11.1122
▁Jl	-11.1123
▁Shan	-11.1125
Jangan	-11.1128
▁pemohon	-11.113
rie	-11.113
▁bertaraf	-11.1133
2017	-11.1135
beradik	-11.1135
▁dikategorikan	-11.1136
▁Last	-11.1137
▁biasiswa	-11.1139
▁minda	-11.1142
▁hujah	-11.1147
▁q	-11.1147
▁tertumpu	-11.1149
▁early	-11.1149
SJK	-11.115
▁murni	-11.1153
▁lead	-11.1153
▁patuh	-11.1157
▁present	-11.1159
▁Vo	-11.1159
▁perspektif	-11.1169
▁penerangan	-11.117
▁1978	-11.1171
▁Lihat	-11.1172
▁1957	-11.1174
▁Aktiviti	-11.1176
▁Sambil	-11.1178
amp	-11.1178
▁ci	-11.1179
▁Nasib	-11.1179
yung	-11.1182
pok	-11.1184
▁menyasarkan	-11.1185
▁Af	-11.1185
▁akhlak	-11.1186
370	-11.1186
▁difahamkan	-11.1189
▁bagitahu	-11.119
▁Daya	-11.119
▁events	-11.1192
▁darurat	-11.1192
▁mengabaikan	-11.1192
▁seru	-11.1197
wl	-11.1199
▁Doktor	-11.12
▁Beli	-11.1202
▁galaksi	-11.1204
▁menamakan	-11.1206
▁biologi	-11.1207
▁mah	-11.1208
mpi	-11.1209
PD	-11.121
▁bergegas	-11.1212
▁Sedunia	-11.1213
▁bergaduh	-11.122
▁blog	-11.1222
▁Indra	-11.1222
▁pakatan	-11.1223
▁penyedia	-11.1225
henti	-11.1227
▁misteri	-11.1228
▁Santa	-11.123
▁sekejap	-11.1233
▁kacang	-11.1234
▁penyu	-11.1235
▁saintifik	-11.1235
▁rasminya	-11.1236
▁Algeria	-11.1236
▁Green	-11.1236
▁Ampang	-11.1236
▁Victoria	-11.1241
Yang	-11.1242
▁bermasalah	-11.1242
▁hakikat	-11.1243
▁etika	-11.1243
▁kejuaraan	-11.1246
▁pembuangan	-11.1246
ي	-11.1246
▁Suci	-11.125
Malah	-11.1251
sungguh	-11.1251
▁Perindustrian	-11.1252
▁lazimnya	-11.1254
▁able	-11.1256
ters	-11.1259
▁membuatku	-11.1259
▁bengkel	-11.1259
▁memotong	-11.1259
▁jurutera	-11.1259
▁having	-11.126
KP	-11.126
▁Kesultanan	-11.1262
▁berkali	-11.1268
dok	-11.1269
▁radikal	-11.1269
▁moment	-11.1269
bed	-11.1271
▁Muhamad	-11.1273
▁pabrik	-11.1273
▁bermanfaat	-11.1274
▁kekasih	-11.1275
▁believe	-11.1278
▁lapor	-11.1279
50,000	-11.1282
▁Suatu	-11.1286
▁doing	-11.1287
▁memetik	-11.1288
▁diarah	-11.1295
▁menyangka	-11.1295
▁dijadualkan	-11.1297
▁players	-11.1298
haru	-11.1299
▁69	-11.13
tip	-11.1302
▁Adalah	-11.1302
▁membebaskan	-11.1303
▁ditugaskan	-11.1303
▁together	-11.1306
▁umbi	-11.1309
lock	-11.1311
▁seragam	-11.1311
▁mentadbir	-11.132
▁Radio	-11.1321
▁Udah	-11.1321
▁berhijrah	-11.1324
▁66	-11.1324
▁Rai	-11.1324
alang	-11.1326
▁someone	-11.1328
▁skor	-11.1329
TS	-11.1332
well	-11.1335
▁digantung	-11.1335
thi	-11.1335
▁Nat	-11.1336
Orang	-11.1336
▁Artikel	-11.1337
▁Bentuk	-11.1337
▁rejim	-11.1342
▁dikongsi	-11.1342
▁betina	-11.1345
elle	-11.1346
Hi	-11.1349
▁Difahamkan	-11.135
▁paket	-11.1355
ded	-11.1356
▁bosan	-11.1356
▁Pekerjaan	-11.1356
lli	-11.136
▁Shar	-11.136
▁pembuat	-11.1362
▁nisbah	-11.1364
▁rumit	-11.1368
▁Perwakilan	-11.137
▁penggemar	-11.137
▁Hor	-11.1372
▁giat	-11.1373
▁several	-11.1374
▁percakapan	-11.1374
▁weh	-11.1374
▁figure	-11.1377
▁diterapkan	-11.1377
▁pampasan	-11.1377
gih	-11.1378
▁Vol	-11.1381
▁couple	-11.1384
▁geografi	-11.1385
▁MI	-11.1386
▁Dickson	-11.1387
▁listrik	-11.1388
▁Rel	-11.139
▁konsesi	-11.1391
▁material	-11.1391
▁working	-11.1394
▁Belgium	-11.1394
▁rang	-11.1397
▁menunjuk	-11.1397
▁bersebelahan	-11.1398
▁tarian	-11.1398
▁Ghazali	-11.14
▁menguntungkan	-11.1401
▁50%	-11.1401
▁UM	-11.1406
mul	-11.1408
TH	-11.1408
82	-11.1409
▁might	-11.141
▁BI	-11.141
tsu	-11.141
▁bercerai	-11.1411
▁terhenti	-11.1414
▁melupakan	-11.1415
▁Pustaka	-11.1415
▁Milan	-11.1415
▁Jamal	-11.1415
ory	-11.1415
6,000	-11.1416
2010	-11.1416
CO	-11.1417
▁Yes	-11.1421
▁Tiongkok	-11.1422
sert	-11.1423
▁YAB	-11.1424
baran	-11.1427
▁seawal	-11.1427
▁Pemilihan	-11.1428
▁seringkali	-11.143
ual	-11.1432
▁berpusat	-11.1432
mus	-11.1433
dos	-11.1434
▁Semenyih	-11.1435
▁terpisah	-11.1436
▁light	-11.1438
pai	-11.1439
▁Tai	-11.1442
usi	-11.1443
▁Jer	-11.1443
▁period	-11.1447
▁les	-11.1447
▁aje	-11.145
▁penutup	-11.1454
▁Plan	-11.1456
▁jump	-11.1456
▁musnah	-11.1457
▁penangkapan	-11.1459
▁Il	-11.1462
▁Ur	-11.1462
▁mutlak	-11.1463
▁menjerit	-11.1463
▁melampau	-11.1464
▁Kantor	-11.1465
ndang	-11.1466
▁kecerdasan	-11.1466
▁Tol	-11.147
uhan	-11.1471
kau	-11.1471
▁solo	-11.1472
▁pengundian	-11.1473
▁Joseph	-11.1473
▁Euro	-11.148
▁menawan	-11.1483
▁menyerupai	-11.1483
▁pengacara	-11.1483
▁Luna	-11.1484
▁political	-11.1485
▁1971	-11.1488
▁Education	-11.149
▁operator	-11.1493
▁position	-11.1494
▁selebriti	-11.1497
cip	-11.1501
▁cubaan	-11.1502
▁ever	-11.1502
2014	-11.1505
▁maya	-11.1507
SU	-11.1507
▁kemarau	-11.1507
▁field	-11.1509
▁Exco	-11.1512
kura	-11.1515
cit	-11.1516
▁mengaitkan	-11.1518
▁melatih	-11.1519
ED	-11.152
▁Hijau	-11.1521
▁72	-11.1524
▁merebak	-11.1525
▁rampasan	-11.1526
▁President	-11.1526
▁cuci	-11.1527
▁skating	-11.1528
▁pesta	-11.1529
PAS	-11.153
▁sempit	-11.153
▁ehwal	-11.1532
▁maritim	-11.1532
▁known	-11.1533
▁perekonomian	-11.1535
▁Kin	-11.1536
dol	-11.1537
▁auto	-11.1537
▁kejahatan	-11.1538
_**	-11.1538
▁Maz	-11.1538
tch	-11.154
▁tertua	-11.1541
▁bongsu	-11.1542
▁Lautan	-11.1542
▁six	-11.1543
▁SI	-11.1544
▁karyawan	-11.1547
▁Sel	-11.1547
▁em	-11.1549
▁peneliti	-11.1549
▁Maybank	-11.1549
pong	-11.1549
▁eyes	-11.155
yun	-11.1552
▁memacu	-11.1552
▁lapar	-11.1554
▁Reuters	-11.1558
▁Sibu	-11.156
tol	-11.1561
▁agen	-11.1561
▁sepakat	-11.1562
kt	-11.1563
▁pembersihan	-11.1564
▁KWSP	-11.1566
▁cap	-11.1566
▁Let	-11.1566
▁Bun	-11.1567
▁Free	-11.1568
temp	-11.1568
▁sambungan	-11.1568
▁asid	-11.1569
▁ucapnya	-11.1572
ET	-11.1575
▁selesaikan	-11.1576
▁Mufti	-11.1576
▁2005,	-11.1577
▁bayangkan	-11.158
▁SU	-11.1581
cari	-11.1583
▁Biro	-11.1585
▁seluar	-11.1586
vy	-11.1586
▁2004,	-11.1586
▁knowledge	-11.1587
▁sarapan	-11.159
▁bumiputera	-11.1594
▁caption	-11.1594
▁Undi	-11.1596
mbal	-11.1596
▁especially	-11.1597
▁berkomunikasi	-11.1598
lama	-11.16
▁PENDIDIKAN	-11.1607
▁dipastikan	-11.1613
▁Well	-11.1613
▁Ol	-11.1616
▁party	-11.1617
▁perindustrian	-11.1618
▁Feb	-11.1621
▁visa	-11.1622
▁protein	-11.1624
oto	-11.1624
osis	-11.1625
▁perikanan	-11.1625
▁efek	-11.1625
▁Had	-11.1626
▁Kel	-11.163
tive	-11.1632
▁mende	-11.1639
▁Ve	-11.164
Dan	-11.164
ell	-11.164
▁wanted	-11.1641
▁ran	-11.1648
▁tatapan	-11.1648
▁Malang	-11.165
▁terganggu	-11.1651
▁menyekat	-11.1651
▁major	-11.1651
town	-11.1652
▁Institusi	-11.1653
▁perbualan	-11.1653
▁menjangkakan	-11.1653
▁tawar	-11.1659
vel	-11.166
▁sekitarnya	-11.1661
▁umrah	-11.1667
▁85	-11.1668
Tapi	-11.167
▁lautan	-11.1676
▁penahanan	-11.1677
▁bisnes	-11.1678
agak	-11.1679
▁dipengerusikan	-11.1681
▁memukul	-11.1681
Lo	-11.1681
▁list	-11.1682
▁Barang	-11.1683
bh	-11.1683
▁keluarkan	-11.1683
rid	-11.1684
▁Texas	-11.1684
dom	-11.1687
paru	-11.1687
zir	-11.1687
hl	-11.1692
▁Khairul	-11.1693
kumpulan	-11.1693
▁67	-11.1694
▁tiang	-11.1699
▁janganlah	-11.1699
▁putra	-11.17
▁rel	-11.17
▁Open	-11.1701
▁act	-11.1701
▁account	-11.1702
▁menyerah	-11.1702
▁lelah	-11.1702
▁menyemak	-11.1703
▁hasilnya	-11.1703
▁cam	-11.1706
itan	-11.1707
▁Rin	-11.171
▁seronok	-11.1713
PKP	-11.1713
Isu	-11.1713
▁Sarah	-11.1713
▁berbuka	-11.1714
▁diisi	-11.1714
▁dikira	-11.1717
▁apply	-11.172
▁BR	-11.1722
▁Pondok	-11.1723
▁petroleum	-11.1723
▁Olahraga	-11.1726
▁Pertanyaan	-11.1726
▁Illinois	-11.173
▁Pam	-11.1733
jer	-11.1742
▁Seng	-11.1743
▁Kemboja	-11.1744
▁perbandingan	-11.1744
▁konvensional	-11.1747
FI	-11.1748
hkan	-11.1752
▁issue	-11.1752
▁berperang	-11.1753
ucap	-11.1754
▁lirik	-11.1757
▁everything	-11.1758
muk	-11.1758
▁Penang	-11.1759
ette	-11.1762
▁mengh	-11.1762
▁logistik	-11.1765
▁Kesejahteraan	-11.1769
kota	-11.1769
▁dijaga	-11.177
▁biarpun	-11.1771
▁Ade	-11.1771
▁Jaafar	-11.1772
▁salinan	-11.1772
▁PAC	-11.1775
▁agresif	-11.1776
▁leave	-11.1779
▁Wahid	-11.178
▁Young	-11.178
▁Tong	-11.1782
▁mempercayai	-11.1783
▁titah	-11.1783
bangsa	-11.1784
▁bak	-11.1787
▁following	-11.1788
▁Science	-11.1788
▁membintangi	-11.179
▁Channel	-11.179
▁membakar	-11.1791
kim	-11.1794
besar	-11.1796
▁tertekan	-11.1797
▁600	-11.1799
▁LRT	-11.1802
▁penyeludupan	-11.1802
▁Datu	-11.1803
▁done	-11.1805
▁Pun	-11.1806
▁kehakiman	-11.1808
▁praktikal	-11.1808
▁kekangan	-11.1809
cas	-11.1811
▁paip	-11.1812
▁kejam	-11.1813
▁buli	-11.1813
▁mengakhiri	-11.1815
▁Kayu	-11.1819
▁memperolehi	-11.1821
▁Kadir	-11.1822
▁Jelasnya	-11.1823
Mi	-11.1824
▁inspirasi	-11.1824
▁pemilu	-11.1829
ografi	-11.1829
▁sepupu	-11.1832
▁mis	-11.1833
▁praktik	-11.1834
▁serat	-11.1834
▁Sebahagian	-11.1835
▁tetangga	-11.1836
RE	-11.1838
▁vote	-11.1839
kasi	-11.184
ifikasi	-11.1841
▁Sports	-11.1842
Tak	-11.1844
yat	-11.1848
▁gini	-11.185
dil	-11.1851
▁istimewanya	-11.1852
▁mazhab	-11.1853
▁Colombia	-11.1854
▁tell	-11.1854
▁pengamal	-11.1854
▁toilet	-11.1857
kad	-11.186
▁monyet	-11.1862
▁Akibatnya	-11.1864
▁takhta	-11.1865
▁ngomong	-11.1867
▁memerintahkan	-11.1868
▁menjalin	-11.1868
mbung	-11.1869
▁merayu	-11.1869
▁BINTI	-11.1871
▁dasarnya	-11.1871
▁ais	-11.1872
▁sport	-11.1872
▁bl	-11.1873
▁Home	-11.1875
een	-11.1876
GAN	-11.1878
BB	-11.1879
▁Club	-11.188
▁Jack	-11.1889
▁NPSN	-11.1889
▁telepon	-11.189
▁militan	-11.1893
▁ST	-11.1896
▁tinjauan	-11.1897
▁ribut	-11.19
balik	-11.1901
▁Harus	-11.1906
▁Good	-11.1907
▁bedah	-11.1908
▁general	-11.1909
▁10%	-11.1909
▁1959	-11.1909
▁pn	-11.191
▁imunisasi	-11.1911
▁terendah	-11.1911
▁Bus	-11.1911
▁Bilik	-11.1919
▁dibiarkan	-11.1922
kov	-11.1925
Ri	-11.1925
▁tunggakan	-11.1925
▁penasaran	-11.1925
▁tgk	-11.1925
▁Sad	-11.1927
▁Kang	-11.1929
▁Peningkatan	-11.1933
▁Business	-11.1936
▁Coast	-11.1937
▁industry	-11.194
▁pemasangan	-11.194
▁Tawau	-11.1941
▁rantaian	-11.1943
stin	-11.1943
BC	-11.1948
▁Aisyah	-11.1949
▁manja	-11.1949
▁BERTULIS	-11.195
My	-11.1952
▁buaya	-11.1955
Oleh	-11.1956
▁Bagan	-11.1958
zon	-11.1959
▁tabung	-11.196
▁tugasan	-11.1963
OL	-11.1963
▁bertulis	-11.1963
sap	-11.1964
2015	-11.1966
▁design	-11.1972
▁Nazi	-11.1975
Juara	-11.1977
▁vitamin	-11.1979
%	-11.198
▁Gombak	-11.198
▁old	-11.1981
▁Pasalnya	-11.1982
8,000	-11.1986
▁gerbang	-11.1986
kus	-11.1987
▁Hall	-11.1989
jaga	-11.199
▁red	-11.199
ل	-11.1991
▁seminar	-11.1995
▁tidaklah	-11.1995
ions	-11.1997
Pu	-11.1999
yy	-11.2
▁tele	-11.2
▁Kun	-11.2001
▁Surah	-11.2002
▁ekuiti	-11.2004
pre	-11.2005
▁Rhone	-11.2008
▁perlakuan	-11.2012
umi	-11.2012
▁Fatwa	-11.2013
BK	-11.2014
mbah	-11.2018
▁Sabri	-11.2021
▁menyu	-11.2026
iki	-11.2026
oleh	-11.2027
▁Fan	-11.2028
▁panggung	-11.203
ruk	-11.203
▁held	-11.2034
py	-11.2035
▁according	-11.2037
mark	-11.2037
lepas	-11.2039
▁AP	-11.204
▁resolusi	-11.2041
▁menipu	-11.2041
▁Lynas	-11.2041
▁mineral	-11.2042
▁Kelima	-11.2042
▁Tolong	-11.2042
▁deposit	-11.2043
▁Ara	-11.2043
▁68	-11.2044
▁Salman	-11.2047
unsur	-11.2048
Je	-11.2049
▁kemuncak	-11.2052
▁op	-11.2052
▁System	-11.2055
▁Bangkok	-11.2059
▁Tau	-11.2059
rian	-11.2062
▁menerajui	-11.2062
▁jin	-11.2063
▁chat	-11.2063
▁Tasik	-11.2064
▁genetik	-11.2066
▁Dataran	-11.2069
gung	-11.2069
garan	-11.2074
▁exp	-11.2077
▁JA	-11.2077
wood	-11.2079
▁sopan	-11.2079
▁Health	-11.2079
mempertingkatkan	-11.2081
ere	-11.2081
▁jd	-11.2082
▁lemas	-11.2084
▁Ibnu	-11.2084
TT	-11.2084
▁bersekolah	-11.2087
▁university	-11.2088
▁role	-11.209
kos	-11.209
▁Tah	-11.2091
▁education	-11.2093
▁Durian	-11.2095
kr	-11.2095
▁sukarela	-11.2095
▁Artis	-11.2101
▁bererti	-11.2101
banyak	-11.2104
uch	-11.2105
ingan	-11.2106
▁dinamik	-11.2106
▁Portugis	-11.211
▁aurat	-11.211
▁Bupati	-11.2111
▁Paya	-11.2111
▁Tugas	-11.2112
mont	-11.2112
▁mengerjakan	-11.2114
▁Internasional	-11.2114
nggang	-11.2115
▁poin	-11.2117
▁naib	-11.2122
▁times	-11.2124
▁though	-11.2126
▁book	-11.2127
▁tangki	-11.2127
▁Koh	-11.2127
▁Rais	-11.2127
▁history	-11.2129
tie	-11.2129
▁ide	-11.2131
zer	-11.2134
▁proaktif	-11.2136
▁memburu	-11.2137
▁dimaksudkan	-11.2137
▁tamadun	-11.2139
▁Kajang	-11.214
DS	-11.2141
▁seberapa	-11.2143
▁MOHD	-11.2143
▁friends	-11.2144
▁continue	-11.2146
▁Henry	-11.2147
▁amnya	-11.2148
ukan	-11.2148
asikan	-11.2148
ilan	-11.2149
▁Faiz	-11.215
▁ekar	-11.215
▁BUMN	-11.215
ER	-11.2152
▁lambang	-11.2152
▁atom	-11.2152
tte	-11.2154
nut	-11.2155
▁Gregory	-11.2158
▁RA	-11.2158
▁reason	-11.2166
▁Dad	-11.2168
tani	-11.2172
ر	-11.2172
mos	-11.2172
▁berpandu	-11.2173
▁Cawangan	-11.2173
mang	-11.2174
▁Pendapatan	-11.2178
▁Yi	-11.2179
▁page	-11.2181
▁rasional	-11.2183
▁menolong	-11.2183
▁diriku	-11.2185
▁pengedaran	-11.2186
▁kementeriannya	-11.2186
▁dianggotai	-11.2187
▁diperkirakan	-11.2191
▁memupuk	-11.2191
▁awan	-11.2191
▁relatif	-11.2191
▁SST	-11.2193
▁99	-11.2195
$1	-11.2195
▁sejajar	-11.2195
▁Lebaran	-11.2197
▁Bill	-11.2198
laku	-11.2199
kapal	-11.2204
▁1952	-11.2204
▁Us	-11.2205
▁terbanyak	-11.2205
▁MY	-11.2208
▁robot	-11.2208
▁duti	-11.2209
▁melengkapkan	-11.2209
RS	-11.2209
▁sawah	-11.221
ible	-11.221
NS	-11.2215
boleh	-11.222
▁Canselor	-11.222
▁undian	-11.222
▁selera	-11.222
gli	-11.2221
ella	-11.2222
▁tips	-11.2222
▁kakinya	-11.2223
Justeru	-11.2223
▁memuaskan	-11.2224
▁FOTO	-11.2224
▁End	-11.223
▁menyiarkan	-11.2231
▁besok	-11.2231
▁separa	-11.2232
▁hidupan	-11.2232
▁Pertandingan	-11.2242
▁health	-11.2245
д	-11.2247
leg	-11.2247
gut	-11.2248
▁Der	-11.2249
dut	-11.2251
▁given	-11.2252
lh	-11.2253
▁PETRONAS	-11.2253
▁tempur	-11.2257
law	-11.2259
▁penghormatan	-11.2261
▁mengulangi	-11.2261
т	-11.2262
iss	-11.2264
▁fans	-11.2264
▁lucu	-11.2264
▁mempamerkan	-11.2265
▁produktiviti	-11.2265
▁Canada	-11.2266
suk	-11.2267
duh	-11.2268
kom	-11.227
▁Gol	-11.2271
▁pengadilan	-11.2271
▁konten	-11.2272
▁Penerangan	-11.2272
▁Hujan	-11.2273
▁bagitau	-11.2274
▁vokal	-11.2274
▁half	-11.2274
▁dimenangi	-11.2276
Kanak	-11.2277
▁punggung	-11.228
ukur	-11.2282
sebut	-11.2282
▁menguji	-11.2282
▁pengagihan	-11.2283
▁1975	-11.2286
▁jati	-11.2288
tos	-11.2288
fan	-11.2289
▁pack	-11.2289
▁dewa	-11.2291
▁sent	-11.2292
▁Council	-11.2294
▁menurutnya	-11.2295
saya	-11.2296
250	-11.2298
▁wali	-11.2299
▁diusahakan	-11.231
▁Tab	-11.2313
dio	-11.2313
▁Adrian	-11.2313
▁sejam	-11.2318
ified	-11.2319
▁merekodkan	-11.232
AC	-11.2321
▁PEMBERITAHU	-11.2324
▁grad	-11.2324
▁kefahaman	-11.2324
▁semak	-11.2324
▁close	-11.2324
▁kenyataannya	-11.2325
chu	-11.2329
lf	-11.233
▁menghidap	-11.2332
▁satelit	-11.2332
▁late	-11.2332
▁Semuanya	-11.2336
EL	-11.2337
▁KRI	-11.2339
stri	-11.2339
utama	-11.234
NT	-11.234
merta	-11.2342
▁games	-11.2344
▁sekeluarga	-11.2344
▁Chang	-11.2344
ugh	-11.2346
▁young	-11.2346
▁Inovasi	-11.2347
▁didaftarkan	-11.2347
ces	-11.2347
▁menjemput	-11.2347
▁dominan	-11.235
▁Kamaruddin	-11.2351
kerajaan	-11.2351
▁General	-11.2352
▁break	-11.2355
budak	-11.2355
dasar	-11.2356
kenal	-11.2356
▁Gas	-11.2358
▁interaksi	-11.2358
LU	-11.2362
▁skrip	-11.2363
gent	-11.2364
ARA	-11.2364
eni	-11.2365
▁sebegitu	-11.2365
▁pengarang	-11.2366
▁tk	-11.2368
▁kalimat	-11.2369
enti	-11.237
▁gr	-11.237
▁Akibat	-11.2371
150	-11.2373
▁via	-11.2373
▁Ayer	-11.2373
Ar	-11.2373
▁badannya	-11.2377
▁royalti	-11.2377
▁tergantung	-11.2379
chen	-11.2387
hem	-11.2387
▁sukarelawan	-11.2389
Or	-11.2389
▁Var	-11.239
▁diperhatikan	-11.2392
ms	-11.2393
cau	-11.2395
▁JAYA	-11.2395
▁visit	-11.2395
▁haha	-11.2397
▁respons	-11.2399
▁menegur	-11.2399
▁bercinta	-11.2402
▁stand	-11.2402
▁memorandum	-11.2403
▁Tele	-11.2405
▁modul	-11.2406
▁tiri	-11.241
▁perbahasan	-11.241
▁dibanding	-11.2411
▁cost	-11.2413
▁Bapa	-11.2414
▁ketujuh	-11.2415
▁Acara	-11.2415
▁kuno	-11.2417
ree	-11.242
▁town	-11.242
▁pengkaji	-11.242
▁Banjar	-11.2421
▁Len	-11.2421
▁ketentuan	-11.2422
▁memperkuat	-11.2422
▁Corp	-11.2424
▁subuh	-11.2425
▁Kemahiran	-11.2425
TN	-11.2426
EA	-11.2426
▁menelan	-11.2426
JK	-11.2426
nom	-11.2426
sai	-11.2427
▁Hay	-11.2428
▁1966	-11.2428
emp	-11.2429
▁bonus	-11.2432
▁looking	-11.2437
▁dimensi	-11.2437
▁Dewi	-11.2438
tle	-11.2446
chan	-11.2448
▁hakikatnya	-11.2449
▁girl	-11.2451
▁KEEMPAT	-11.2452
diri	-11.2454
▁meluahkan	-11.2455
▁maruah	-11.2456
▁sta	-11.2459
dra	-11.2462
▁return	-11.2463
▁diganti	-11.2463
▁Microsoft	-11.2467
▁Gedung	-11.2468
▁lisan	-11.2469
▁MB	-11.2471
▁berkemungkinan	-11.2471
▁pedang	-11.2476
lima	-11.2476
rol	-11.2477
▁Final	-11.2481
▁beribu	-11.2482
▁penanganan	-11.2482
Ko	-11.2483
▁iman	-11.2485
fah	-11.2487
▁takdir	-11.2488
▁Act	-11.249
▁ISBN	-11.2492
▁cemburu	-11.2494
zah	-11.2495
▁inti	-11.2495
▁sepasukan	-11.2495
ene	-11.25
▁identitas	-11.2501
▁Saiful	-11.2502
▁Jalur	-11.2503
▁Pandangan	-11.2504
▁input	-11.2506
enang	-11.2507
▁Kembali	-11.2508
▁Teo	-11.2508
▁tsunami	-11.2509
▁ganja	-11.251
▁spekulasi	-11.2513
▁paper	-11.2513
▁Khairy	-11.2513
▁ilmiah	-11.2516
▁TER	-11.2517
▁menantu	-11.252
▁10,000	-11.2522
م	-11.2522
▁nabi	-11.2523
▁penganjur	-11.2524
▁pembalakan	-11.2528
▁ketiadaan	-11.2528
▁membaik	-11.2528
▁berbelanja	-11.2529
▁saying	-11.2532
▁Farhan	-11.2532
ggi	-11.2532
▁pembelaan	-11.2535
▁menyebar	-11.2538
ged	-11.2541
▁Fakta	-11.2542
▁Polri	-11.2543
▁gagasan	-11.2543
▁Harta	-11.2545
▁Nusa	-11.2546
▁hina	-11.2546
▁diberitahu	-11.2549
nombor	-11.2551
▁Department	-11.2551
▁Menjadi	-11.2552
▁ah	-11.2554
▁melihatnya	-11.2555
▁penyumbang	-11.2555
Hu	-11.2556
▁berpisah	-11.2557
▁IN	-11.2557
▁termaktub	-11.2558
▁friend	-11.2559
▁bim	-11.2564
▁Gold	-11.2564
▁Ly	-11.2573
▁melepasi	-11.2573
▁berdampak	-11.2574
▁enjoy	-11.2574
▁rakannya	-11.2574
▁Dadah	-11.2575
▁term	-11.2577
▁menyewa	-11.2578
▁within	-11.2579
▁kurus	-11.258
▁bercanggah	-11.2581
▁paru	-11.2582
▁bukak	-11.2586
▁Siam	-11.2587
▁Bilangan	-11.2588
njung	-11.2589
▁kebangkitan	-11.2593
▁agung	-11.2593
▁Kampus	-11.2597
▁meneroka	-11.2601
▁jambu	-11.2602
▁Non	-11.2602
▁berganti	-11.2603
▁mengekang	-11.2605
▁TM	-11.2606
▁means	-11.2606
▁bising	-11.2608
▁menyenangkan	-11.2608
▁Bavaria	-11.2608
kiri	-11.2609
▁front	-11.2609
▁takda	-11.261
Hari	-11.2611
▁Kertas	-11.2614
▁medis	-11.2615
▁1972	-11.2618
ump	-11.2618
peri	-11.2618
▁Kesan	-11.2619
LA	-11.2622
▁Organisasi	-11.2624
▁Makkah	-11.2625
cht	-11.2626
▁towards	-11.2626
▁legal	-11.2628
▁graduate	-11.263
▁membezakan	-11.2631
mpul	-11.2634
▁melayan	-11.2634
mate	-11.2636
PC	-11.2636
oid	-11.2639
▁sesawang	-11.2639
▁Image	-11.2639
▁IPT	-11.264
▁Kashmir	-11.2643
▁rizab	-11.2647
▁menemani	-11.2647
▁syukur	-11.2647
pam	-11.2648
▁mai	-11.2648
▁Seoul	-11.265
▁populer	-11.2651
▁ditembak	-11.2653
▁mod	-11.2654
▁kelengkapan	-11.2654
▁kompetitif	-11.2658
▁menentu	-11.2659
▁ditingkatkan	-11.2662
▁Zam	-11.2663
▁Rayuan	-11.2663
▁husband	-11.2666
▁diiringi	-11.2666
▁Kasus	-11.2666
▁Habis	-11.2667
▁Kep	-11.2669
▁Eva	-11.2671
hab	-11.2672
▁Association	-11.2674
▁Management	-11.2674
▁children	-11.2674
▁dilepaskan	-11.2674
▁master	-11.2674
BM	-11.2676
▁Tingkatan	-11.2678
▁respon	-11.2678
murid	-11.268
▁kedalam	-11.2682
PBB	-11.2682
pek	-11.2683
gau	-11.2683
mpang	-11.2684
▁justeru	-11.2685
▁Blok	-11.2689
eti	-11.2692
▁space	-11.2693
▁Nggak	-11.2693
pad	-11.2693
▁dipetik	-11.2693
▁Batang	-11.2694
moto	-11.2694
▁seraya	-11.2694
dr	-11.2694
▁demand	-11.2694
Do	-11.2697
▁Kampong	-11.2697
▁Jambatan	-11.2701
▁Tour	-11.2706
▁ditujukan	-11.2708
deng	-11.2712
▁memfailkan	-11.2712
▁portfolio	-11.2712
▁gred	-11.2713
▁Novel	-11.2713
▁land	-11.2713
ici	-11.2715
▁Kemuncak	-11.2716
▁Laksamana	-11.2716
▁director	-11.2718
▁Lanka	-11.2719
▁dipertimbangkan	-11.272
bentuk	-11.272
▁berenang	-11.2721
col	-11.2723
▁Ijazah	-11.2724
▁Maju	-11.2724
esti	-11.2726
ihan	-11.2726
▁Kab	-11.2728
aux	-11.273
sky	-11.2731
▁menyembunyikan	-11.2732
▁Raka	-11.2732
▁sek	-11.2735
▁1973	-11.2738
kha	-11.2741
cion	-11.2741
HI	-11.275
▁ml	-11.2751
▁terawal	-11.2753
mbangan	-11.2754
▁Madrid	-11.2755
▁Nga	-11.2758
imun	-11.2761
▁bangku	-11.2763
▁kebolehan	-11.2763
logi	-11.2765
▁PBT	-11.2765
nch	-11.2766
▁perjudian	-11.2767
▁lumayan	-11.2767
▁Enam	-11.2769
▁MU	-11.277
▁mengikat	-11.2772
▁demonstrasi	-11.2775
▁sembari	-11.2775
▁lulusan	-11.2776
▁France	-11.2776
▁drive	-11.2776
▁borang	-11.2777
▁Sek	-11.2778
▁ap	-11.2778
▁minoriti	-11.2778
zim	-11.2779
▁merentasi	-11.2781
▁UN	-11.2784
▁rupiah	-11.2786
▁jaket	-11.2788
▁kesakitan	-11.279
▁Son	-11.2797
▁rumput	-11.2798
▁kl	-11.2801
▁Yus	-11.2802
lalu	-11.2804
Fi	-11.2805
▁pinggan	-11.2807
fir	-11.2808
sse	-11.2809
▁seen	-11.2811
elo	-11.2811
Par	-11.2812
Tetapi	-11.2813
▁months	-11.2813
Selepas	-11.2813
▁Mukhriz	-11.2814
▁Roman	-11.2817
▁Technology	-11.2818
▁tercemar	-11.2818
▁tropika	-11.2818
▁Khusus	-11.2818
▁bangkai	-11.2818
gai	-11.2819
▁topi	-11.2819
▁terbahagi	-11.282
▁berhubungan	-11.2823
▁Ac	-11.2823
▁beriman	-11.2828
▁sign	-11.2829
▁berpandangan	-11.2829
▁menghancurkan	-11.2829
▁Serangan	-11.283
▁luaran	-11.2832
▁Central	-11.2833
▁Yun	-11.2834
anna	-11.2835
▁almost	-11.2835
▁Isteri	-11.2838
▁Muka	-11.2838
▁RS	-11.284
▁Maj	-11.2841
▁wife	-11.2841
▁Lampung	-11.2843
ova	-11.2843
▁Bla	-11.2845
tara	-11.2846
▁pendukung	-11.2846
▁setan	-11.2846
ngkung	-11.2847
fas	-11.2849
UK	-11.2853
▁rantai	-11.2855
fat	-11.2856
▁ab	-11.2856
▁lidah	-11.2856
▁diperiksa	-11.2857
▁sepenuh	-11.2858
▁teruja	-11.2861
GM	-11.2864
▁tercapai	-11.2866
▁tingkap	-11.2873
▁Edward	-11.2873
▁jihad	-11.2873
▁mengirim	-11.2874
▁Timor	-11.2879
▁Great	-11.2881
▁enough	-11.2881
leng	-11.2885
▁dividen	-11.2885
▁Haram	-11.2887
▁dihormati	-11.2889
▁riba	-11.2891
▁keistimewaan	-11.2893
▁tembok	-11.2893
▁95	-11.2893
cio	-11.2894
ksi	-11.2895
▁Kol	-11.2898
▁lanjutan	-11.29
▁merata	-11.2901
▁liberal	-11.2904
▁Susulan	-11.2906
struktur	-11.2906
▁mengge	-11.2911
▁taklimat	-11.2912
▁coronavirus	-11.2913
▁terpakai	-11.2914
▁using	-11.2914
hol	-11.2914
▁pemandangan	-11.2916
▁LA	-11.2917
▁Abah	-11.2918
▁Ann	-11.2921
▁behind	-11.2924
▁view	-11.2924
▁penjajahan	-11.2926
▁language	-11.2928
▁ketupat	-11.2928
▁DNA	-11.2928
▁Pel	-11.293
▁yet	-11.2931
▁HA	-11.2935
▁88	-11.2936
▁perabot	-11.2936
▁terminal	-11.2937
▁terjebak	-11.294
▁diskusi	-11.294
▁binaan	-11.2941
▁selidik	-11.2944
nus	-11.2945
▁khat	-11.295
▁Bekasi	-11.2952
▁Tangerang	-11.2952
▁beserta	-11.2952
BP	-11.2953
▁bimbingan	-11.2956
▁sila	-11.2957
▁Some	-11.2961
▁focus	-11.2962
▁08	-11.2963
▁Lagipun	-11.2965
▁sun	-11.2969
nek	-11.2971
ost	-11.2972
▁Kedudukan	-11.2972
jangan	-11.2972
▁Pontianak	-11.2972
▁sampingan	-11.2973
▁Wali	-11.2975
▁terjaga	-11.2975
nggal	-11.2976
agensi	-11.2979
fri	-11.2979
mbar	-11.2979
▁ve	-11.2981
ien	-11.2981
▁perihal	-11.2981
▁teams	-11.2984
▁Jimin	-11.2986
lom	-11.2988
▁tepung	-11.2989
▁Hana	-11.299
▁vo	-11.2991
bagi	-11.2991
pes	-11.2996
▁butiran	-11.2997
▁penggambaran	-11.3
▁Pang	-11.3
▁Anjing	-11.3
п	-11.3
▁Taehyung	-11.3004
▁bro	-11.3004
▁Penjara	-11.3005
▁App	-11.3008
▁denggi	-11.3008
ril	-11.3009
▁fo	-11.301
▁pil	-11.301
ford	-11.3011
▁membayangkan	-11.3012
fil	-11.3013
▁DBKL	-11.3014
▁sapi	-11.3015
▁01	-11.3015
idah	-11.3016
▁Semarang	-11.3016
▁maybe	-11.3016
▁terk	-11.3018
▁tersenarai	-11.302
▁dinikmati	-11.3024
▁seumpama	-11.3024
ceng	-11.303
▁bercuti	-11.3032
▁motif	-11.3033
▁TVET	-11.3035
II	-11.3038
Indonesia	-11.3039
WA	-11.3039
▁Abbas	-11.304
▁76	-11.304
▁Bri	-11.304
▁Mall	-11.3041
ntas	-11.3043
▁selebihnya	-11.3044
Pro	-11.3045
▁memperkukuhkan	-11.3045
oon	-11.3045
ations	-11.3046
▁perangkat	-11.3047
▁kesimpulan	-11.3048
jelas	-11.3049
▁Aplikasi	-11.305
▁Den	-11.3051
▁Asri	-11.3055
▁Elizabeth	-11.3056
▁Network	-11.3056
▁transfer	-11.3056
▁career	-11.3057
▁Bella	-11.3062
ised	-11.3062
▁dibuktikan	-11.3064
▁sarang	-11.3065
▁ibn	-11.3065
▁sedekah	-11.3068
▁Lind	-11.3076
▁artinya	-11.3076
▁Tubuh	-11.3077
▁mengalihkan	-11.3078
▁August	-11.308
▁akrab	-11.3081
▁Kala	-11.3081
▁kecenderungan	-11.3082
▁Scotland	-11.3084
muka	-11.3086
▁gaduh	-11.3086
▁Court	-11.3089
▁motivasi	-11.3092
▁NASA	-11.3093
▁Hasilnya	-11.3093
▁ujung	-11.3094
▁Ishak	-11.3094
▁menyesuaikan	-11.3096
▁Island	-11.3098
▁memecahkan	-11.31
Ya	-11.31
▁June	-11.3104
▁asam	-11.3107
▁offer	-11.3109
▁question	-11.3111
tian	-11.3113
▁curi	-11.3113
▁perawatan	-11.3114
▁diajar	-11.3115
▁Mega	-11.3115
▁Kra	-11.3115
▁munasabah	-11.3116
▁Cadangan	-11.3119
▁kuih	-11.3122
▁kinerja	-11.3124
▁website	-11.3125
▁Selalu	-11.3125
▁Pria	-11.3125
▁melonjak	-11.3127
▁Daim	-11.3127
▁Piai	-11.3131
ough	-11.3132
▁White	-11.3132
dha	-11.3132
EX	-11.3132
▁lipat	-11.3136
mbing	-11.3136
▁spot	-11.3138
▁nantinya	-11.3138
▁Betul	-11.314
2020	-11.314
▁pawagam	-11.3141
▁dirasakan	-11.3141
▁tong	-11.3142
jawab	-11.3142
▁ketemu	-11.3143
▁performance	-11.3145
won	-11.3146
▁bertanggung	-11.3148
▁Pop	-11.3148
inya	-11.3149
▁roh	-11.3152
▁Nasi	-11.3153
▁Bani	-11.3153
▁Ed	-11.3154
kum	-11.316
▁Care	-11.3162
▁etc	-11.3163
▁black	-11.3164
▁diisytiharkan	-11.3169
gro	-11.3172
▁ibarat	-11.3174
▁Championships	-11.3176
beza	-11.3176
▁reported	-11.3177
▁Syeikh	-11.3177
▁Jordan	-11.3177
▁AL	-11.3179
ole	-11.3179
▁record	-11.3181
▁champion	-11.3181
▁Angeles	-11.3181
▁pembahagian	-11.3182
▁Mahasiswa	-11.3194
▁Sai	-11.3194
▁berbangsa	-11.3195
uc	-11.3196
▁1977	-11.3196
▁karna	-11.3197
▁KLIA	-11.3197
bla	-11.3201
kuat	-11.3201
▁lost	-11.3203
▁purba	-11.3203
▁Nigeria	-11.3205
▁mence	-11.3205
▁perdebatan	-11.3206
▁Isi	-11.3207
▁comment	-11.3209
▁kartu	-11.321
▁transportasi	-11.321
▁Langat	-11.3213
▁besarnya	-11.3214
imi	-11.3215
▁dilanda	-11.3215
jong	-11.322
▁Benda	-11.3221
▁festival	-11.3222
▁yatim	-11.3222
▁ranking	-11.3222
▁Thi	-11.3225
▁mel	-11.3226
▁junior	-11.3226
▁Azlan	-11.3226
▁Sap	-11.3226
▁Cheng	-11.3228
▁dibutuhkan	-11.3234
▁trauma	-11.3235
anto	-11.3238
▁Oxford	-11.3238
fic	-11.3241
▁menyusul	-11.3241
▁Perkembangan	-11.3242
thu	-11.3244
buh	-11.3245
nagar	-11.3248
▁cipta	-11.3248
ENG	-11.325
▁Bapak	-11.3251
suh	-11.3252
▁memperluaskan	-11.3252
▁Bambang	-11.3254
▁terp	-11.3254
▁Majistret	-11.3255
▁perintis	-11.3255
hailing	-11.3257
RU	-11.3259
▁pemakanan	-11.326
▁looked	-11.3262
▁Dusun	-11.3265
▁om	-11.3266
▁fasiliti	-11.3267
▁berkala	-11.3268
▁merangkap	-11.3269
▁mitra	-11.3269
▁menyatukan	-11.3271
▁road	-11.3274
▁Kubang	-11.3274
▁court	-11.3275
verse	-11.3276
ute	-11.3277
▁Terminal	-11.3279
uv	-11.3279
▁Pemilik	-11.328
hap	-11.328
▁hit	-11.328
▁mengalu	-11.3281
▁terbaharu	-11.3281
500,000	-11.3281
KE	-11.3282
▁States	-11.3282
с	-11.3283
zin	-11.3285
▁Windows	-11.3287
▁pengu	-11.3289
▁natural	-11.3289
▁77	-11.3297
▁tr	-11.3299
▁qu	-11.33
embar	-11.3301
▁Fin	-11.3301
▁nation	-11.3301
tit	-11.3303
▁Sikap	-11.3305
▁hikmah	-11.3308
▁Golongan	-11.3309
▁diperluaskan	-11.3312
▁Arif	-11.3317
▁training	-11.3317
▁Uighur	-11.332
▁Perkataan	-11.332
▁teriak	-11.3321
seli	-11.3322
▁pengorbanan	-11.3325
▁fitur	-11.3325
▁percent	-11.3325
▁va	-11.3328
▁definisi	-11.3329
▁merakamkan	-11.3331
▁kanker	-11.3334
▁pemberontakan	-11.3334
▁Lau	-11.3337
mpat	-11.3337
▁Sebagaimana	-11.3339
▁Baling	-11.334
▁Mokhtar	-11.3341
▁Pengkalan	-11.3346
▁sihir	-11.3347
▁dibesarkan	-11.335
plas	-11.335
▁jgn	-11.335
▁allow	-11.3351
▁Menye	-11.3351
▁gold	-11.3351
▁cocok	-11.3351
▁terjual	-11.3351
ery	-11.3353
▁kepolisian	-11.3353
▁merugikan	-11.3353
kis	-11.3354
▁harganya	-11.3354
▁mundur	-11.3355
▁riset	-11.3355
▁ال	-11.3355
▁Amat	-11.3355
▁Diploma	-11.3358
▁singa	-11.3358
▁temannya	-11.336
▁Kompas	-11.3361
▁fon	-11.3361
Ju	-11.3361
▁Perhentian	-11.3362
▁giliran	-11.3362
▁nye	-11.3363
▁tipis	-11.3363
▁produktif	-11.3365
▁lompat	-11.3365
hel	-11.337
RT	-11.337
▁ditangguhkan	-11.337
▁diedarkan	-11.337
▁temasya	-11.3371
rahan	-11.3372
beli	-11.3372
▁logik	-11.3373
versi	-11.3373
▁Sungguh	-11.3374
Kementerian	-11.3374
▁Salim	-11.3375
▁tok	-11.3378
▁tanam	-11.3379
ngkang	-11.3379
▁banduan	-11.3379
jas	-11.338
▁Pangkalan	-11.3381
▁science	-11.3382
▁countries	-11.3383
VA	-11.3385
▁menuturkan	-11.3387
▁berkempen	-11.3388
▁Blue	-11.339
▁mengarah	-11.3391
▁gitar	-11.3392
▁Memandangkan	-11.3393
▁tercetus	-11.3395
▁canggih	-11.3395
beri	-11.3397
mod	-11.3399
▁handphone	-11.3399
woo	-11.34
sho	-11.3401
▁Pemilu	-11.3407
saat	-11.341
▁hehe	-11.3412
▁lazim	-11.3414
yon	-11.3415
lokasi	-11.3415
▁diharap	-11.3415
▁Pameran	-11.3416
▁Informasi	-11.3417
▁star	-11.3418
▁kilat	-11.3418
▁confess	-11.3419
▁Lah	-11.342
▁kekeliruan	-11.342
▁Benar	-11.3421
▁inflasi	-11.3424
▁Bos	-11.3425
MU	-11.3426
▁pujian	-11.3427
TU	-11.3431
yeon	-11.3431
▁score	-11.3432
▁maksimal	-11.3434
▁bini	-11.3438
▁1955	-11.344
▁perbedaan	-11.3441
▁Kesalahan	-11.3441
▁keliru	-11.3441
▁berukuran	-11.3441
▁penyerahan	-11.3441
▁Upaya	-11.3441
▁further	-11.3445
▁Studies	-11.3447
gra	-11.3448
mut	-11.3451
iman	-11.3453
▁berkenan	-11.3455
▁atur	-11.3456
▁Year	-11.3456
▁gun	-11.3457
▁son	-11.3459
nto	-11.3461
▁Gro	-11.3462
▁Panas	-11.3464
▁silat	-11.3464
gap	-11.3467
▁Angkasa	-11.3467
▁ICERD	-11.3468
▁cuka	-11.3468
light	-11.3469
▁Bee	-11.3472
▁dirumah	-11.3475
▁Kaya	-11.3476
▁perahu	-11.3476
▁value	-11.3476
mpak	-11.3479
nor	-11.3482
▁perdamaian	-11.3483
▁penglihatan	-11.3483
Pas	-11.3484
▁seribu	-11.3484
▁simpati	-11.3487
▁Best	-11.3488
▁kumpul	-11.3489
▁standar	-11.3492
▁Tadi	-11.3494
▁amik	-11.3497
▁Kelapa	-11.3499
▁ideal	-11.3499
grafi	-11.35
▁senilai	-11.35
▁padaku	-11.3501
▁bersungguh	-11.3501
No	-11.3502
▁oh	-11.3503
dit	-11.3503
▁Komanwel	-11.3504
▁Zo	-11.3506
ndo	-11.3506
▁1962	-11.3506
▁Dun	-11.3509
▁across	-11.3511
▁meninjau	-11.3512
▁action	-11.3512
▁Joe	-11.3515
yong	-11.3516
▁berp	-11.3517
▁brand	-11.3519
mbur	-11.3524
PE	-11.3525
kasih	-11.3527
wakil	-11.3528
▁Miri	-11.3528
▁Statistik	-11.3529
▁cut	-11.353
HS	-11.3532
▁Dol	-11.3532
▁Hy	-11.3533
▁actually	-11.3534
TO	-11.3535
▁Pastu	-11.3537
▁KESIHATAN	-11.3537
star	-11.3537
▁keahlian	-11.3538
diam	-11.354
▁Kondisi	-11.3541
makan	-11.3542
▁zat	-11.3545
▁Warna	-11.3545
▁suapan	-11.3546
▁tikus	-11.3547
seng	-11.3548
▁Tor	-11.3549
▁Rafizi	-11.355
▁implikasi	-11.355
ncing	-11.3554
▁mementingkan	-11.3554
▁Jom	-11.3557
▁Statut	-11.3558
ear	-11.356
Kes	-11.3561
▁Polda	-11.3562
▁republik	-11.3563
▁SOP	-11.3565
sm	-11.3565
▁mewajibkan	-11.3567
ities	-11.3568
▁ice	-11.357
▁berleluasa	-11.3571
▁pass	-11.3571
▁Louis	-11.3574
▁Shafee	-11.358
▁mengklaim	-11.3584
▁cetak	-11.3584
▁keindahan	-11.3588
▁Rasul	-11.3588
▁coffee	-11.3592
▁Live	-11.3594
▁Sorry	-11.3594
▁FAM	-11.3596
▁Nenek	-11.3597
▁sivil	-11.3599
▁plus	-11.3603
▁penjimatan	-11.3605
▁Bisnis	-11.3605
▁bersalin	-11.3607
bud	-11.3608
▁mengenainya	-11.361
▁tangkap	-11.361
▁bring	-11.3611
St	-11.3612
▁lautnya	-11.3612
tahan	-11.3612
▁plak	-11.3616
DM	-11.3617
▁terma	-11.3618
▁semesta	-11.3618
▁lurus	-11.362
▁1968	-11.362
▁Fahmi	-11.3622
▁diterjemahkan	-11.3622
▁Penye	-11.3623
▁teguh	-11.3627
▁Tru	-11.3628
▁2030	-11.3629
▁Meningkatkan	-11.3629
▁intelektual	-11.363
Bahasa	-11.3631
bach	-11.3631
▁interest	-11.3632
▁depannya	-11.3634
▁pelupusan	-11.3635
▁Brown	-11.3635
▁Penge	-11.3636
▁coming	-11.3636
▁mal	-11.3636
cah	-11.3636
▁meminjam	-11.3639
▁unggul	-11.364
▁Bell	-11.3641
▁memicu	-11.3643
▁terpenting	-11.3643
pose	-11.3644
▁audio	-11.3645
psi	-11.3645
ribu	-11.3646
▁protokol	-11.3647
▁Buruh	-11.3649
▁Camp	-11.3652
▁Hmm	-11.3655
▁Tbk	-11.3656
▁Lebuh	-11.3657
▁pemberontak	-11.3659
▁belanjawan	-11.3659
▁door	-11.366
▁terpengaruh	-11.3661
Sebelum	-11.3662
▁sinis	-11.3663
▁pengajar	-11.3665
▁Main	-11.3665
▁Faktor	-11.3666
▁puteri	-11.3666
▁jutaan	-11.3669
▁berkisar	-11.3669
▁melambangkan	-11.3669
▁pisau	-11.3669
▁malang	-11.367
▁penjajah	-11.3671
я	-11.3671
ess	-11.3672
▁dipasarkan	-11.3673
▁suntikan	-11.3673
▁mendahului	-11.3677
▁Peranan	-11.368
tom	-11.368
▁berundur	-11.3681
▁Rencana	-11.3681
▁penangguhan	-11.3682
▁perlombongan	-11.3682
▁Os	-11.3684
▁gratis	-11.3686
wir	-11.3687
▁menasihatkan	-11.369
▁skrin	-11.369
▁derma	-11.3691
▁Lar	-11.3692
▁beranak	-11.3695
▁meet	-11.3696
▁Ukraine	-11.3699
▁membebankan	-11.3699
▁Makassar	-11.3699
ware	-11.37
▁didorong	-11.3701
▁potong	-11.3701
ruh	-11.3703
▁terjemahan	-11.3703
syen	-11.3703
▁bumbung	-11.3704
▁Pancasila	-11.3707
▁ucapannya	-11.371
▁style	-11.371
▁madu	-11.3711
endam	-11.3711
▁Jauh	-11.3713
▁menular	-11.3713
▁RT	-11.3715
▁professional	-11.3716
▁bertarikh	-11.3716
▁Saad	-11.3716
ize	-11.3718
▁Temu	-11.372
ALI	-11.3722
▁litar	-11.3723
ability	-11.3724
▁berkuatkuasa	-11.3725
China	-11.3726
Ti	-11.3727
▁emak	-11.3727
section	-11.3729
▁sosio	-11.373
▁Matahari	-11.3731
▁elit	-11.3733
▁sepeda	-11.3734
▁low	-11.3736
▁penginapan	-11.3737
EE	-11.3741
▁Yong	-11.3742
GO	-11.3743
▁pemerhatian	-11.3743
▁bandaraya	-11.3743
▁sasar	-11.3745
▁ago	-11.3746
kri	-11.3746
▁pemprosesan	-11.3746
▁Tahunan	-11.3749
▁anything	-11.3751
▁menggeleng	-11.3751
bahagi	-11.3752
▁Your	-11.3755
▁pusing	-11.3756
к	-11.3757
▁tenggelam	-11.3759
▁lamanya	-11.376
pusat	-11.376
sial	-11.3761
▁mengajukan	-11.3763
▁arti	-11.3767
▁reman	-11.3767
▁Rahmat	-11.3768
▁Mandarin	-11.3773
▁DE	-11.3774
▁74	-11.3774
lad	-11.3775
▁kepulauan	-11.3776
yal	-11.3778
▁pertolongan	-11.378
2009	-11.3784
jek	-11.3784
▁Del	-11.3785
▁setiausaha	-11.3785
him	-11.3786
▁Kimia	-11.3787
▁Will	-11.3788
▁Fund	-11.3789
▁membahayakan	-11.3789
▁pertambahan	-11.3789
mud	-11.3791
▁kejutan	-11.3791
cerita	-11.3791
▁dituntut	-11.3793
gre	-11.3794
etik	-11.3794
▁Ob	-11.3795
ctor	-11.3796
▁Out	-11.3796
▁Bol	-11.3797
▁enter	-11.3797
▁Garis	-11.3798
▁Power	-11.3798
▁jo	-11.3802
▁Reza	-11.3802
▁Rani	-11.3803
▁city	-11.3804
▁padat	-11.3805
▁utang	-11.3806
▁Kg	-11.3807
data	-11.3808
▁date	-11.3809
▁perasmian	-11.3811
▁Sebut	-11.3812
idi	-11.3813
Kategori	-11.3814
▁Wu	-11.3815
▁Lingkungan	-11.3815
▁lantikan	-11.3816
istik	-11.3816
▁Pertemuan	-11.3819
▁AHMAD	-11.3819
▁PETALIN	-11.3819
▁penentuan	-11.3819
▁Wajah	-11.3822
NY	-11.3823
▁Cambridge	-11.3824
▁disamping	-11.3824
▁Muara	-11.3826
▁dijangkiti	-11.3828
▁capital	-11.3828
▁Junior	-11.383
▁melayani	-11.3832
▁dijanjikan	-11.3833
trik	-11.3833
▁Bala	-11.3834
▁masker	-11.3836
▁author	-11.3836
▁98	-11.3836
▁perjumpaan	-11.3837
▁League	-11.3837
▁Mantan	-11.3843
▁nad	-11.3846
lasi	-11.3847
▁Yunus	-11.3848
▁college	-11.385
bby	-11.3852
LAN	-11.3855
▁debat	-11.3858
▁Sani	-11.3858
▁Mary	-11.386
▁Terkait	-11.386
▁Sil	-11.3861
▁bangsawan	-11.3863
▁180	-11.3865
pung	-11.3866
▁Ei	-11.3869
yur	-11.3869
▁busuk	-11.387
▁Syiah	-11.3871
▁keseimbangan	-11.3876
▁kasi	-11.3876
▁kerabat	-11.3876
▁myself	-11.3881
▁race	-11.3881
▁Tapak	-11.3882
gol	-11.3883
▁Perpaduan	-11.3885
▁CIMB	-11.3885
▁Habib	-11.3887
▁Book	-11.3888
▁sunyi	-11.3889
▁den	-11.389
▁liabiliti	-11.3893
▁Smith	-11.3893
ome	-11.3894
▁Baba	-11.3896
▁CA	-11.3896
▁Town	-11.3896
▁prasarana	-11.3898
sub	-11.3898
▁Ny	-11.3898
▁carta	-11.39
▁Yusoff	-11.3905
▁Tin	-11.3905
▁perundingan	-11.3907
▁von	-11.3907
/2019	-11.391
▁Jak	-11.3911
LO	-11.3911
▁Mazlan	-11.3912
▁Mobil	-11.3913
▁dibiayai	-11.3915
▁diyakini	-11.3915
▁slow	-11.3916
▁siswazah	-11.392
Akta	-11.3923
▁Jung	-11.3923
▁Keamanan	-11.3924
▁jendela	-11.3924
▁Bangka	-11.3924
hias	-11.3924
▁sinar	-11.3926
▁Superintendan	-11.3928
▁MotoGP	-11.3928
▁mono	-11.3929
▁Peru	-11.393
▁building	-11.3933
▁PKI	-11.3935
▁Speaker	-11.3937
sit	-11.3938
▁laga	-11.3941
▁nangka	-11.3942
RAN	-11.3942
▁dicatatkan	-11.3943
vil	-11.3943
▁provide	-11.3948
▁AM	-11.3949
▁rak	-11.3949
pegawai	-11.395
▁Permainan	-11.3951
dic	-11.3951
▁Key	-11.3951
sos	-11.3952
▁Almarhum	-11.3955
▁Wira	-11.3955
▁Sangat	-11.3956
▁Hei	-11.3957
▁TN	-11.3957
▁Permatang	-11.3961
▁matter	-11.3962
▁Peristiwa	-11.3963
▁pensijilan	-11.3963
▁jerebu	-11.3963
▁menyusahkan	-11.3964
▁menjabat	-11.3964
▁harinya	-11.3969
▁otot	-11.397
▁Sesyen	-11.397
▁LE	-11.3971
▁penetapan	-11.3972
▁Rat	-11.3972
▁mantap	-11.3974
cro	-11.3982
▁JAKIM	-11.3985
▁Nobel	-11.3985
▁kwn	-11.3986
▁06	-11.3986
▁xde	-11.3989
cek	-11.399
▁feeling	-11.399
:30	-11.3991
▁Serdang	-11.3991
▁Suku	-11.3995
rey	-11.3996
▁Semula	-11.3997
▁sum	-11.3998
▁ilmuwan	-11.3999
▁bersabar	-11.3999
hon	-11.4001
▁mengo	-11.4003
▁empayar	-11.4003
▁singgah	-11.4003
▁Please	-11.4003
▁Nay	-11.4004
▁pr	-11.4006
▁Ujian	-11.4007
▁Ayat	-11.4008
▁pasukannya	-11.401
▁MO	-11.4013
▁Cari	-11.4014
▁tasik	-11.4017
▁mood	-11.4018
▁101	-11.402
▁Jar	-11.402
▁Bencana	-11.4021
▁sulungnya	-11.4027
▁momentum	-11.4027
▁issues	-11.4027
Loire	-11.4028
SO	-11.4029
▁digalakkan	-11.4034
▁Seminar	-11.4039
▁Formula	-11.404
▁tido	-11.404
iden	-11.4041
▁mengorbankan	-11.4043
▁judge	-11.4044
hyun	-11.4045
▁pelayan	-11.4047
▁penolakan	-11.4047
▁jangkaan	-11.4053
▁settle	-11.4055
▁Dai	-11.4057
▁memecah	-11.4061
▁getting	-11.4061
▁karier	-11.4061
▁Tinggal	-11.4062
mpah	-11.4062
takan	-11.4063
ick	-11.4065
▁genus	-11.4065
▁menenangkan	-11.4065
▁Was	-11.4065
ESS	-11.4066
▁nampaknya	-11.4066
▁fizik	-11.4067
▁Pencapaian	-11.407
▁ready	-11.4073
ich	-11.4073
▁Saturday	-11.4074
▁customer	-11.4076
▁73	-11.4077
▁pengiraan	-11.4079
▁Juta	-11.4079
▁mengenalpasti	-11.4079
ists	-11.4081
duri	-11.4082
rich	-11.4087
▁organik	-11.4087
▁penggabungan	-11.4088
▁Jawaban	-11.4088
▁Razali	-11.4088
▁Water	-11.4089
▁Kris	-11.4092
▁diselamatkan	-11.4092
▁Barcelona	-11.4096
usul	-11.4098
ett	-11.4098
wali	-11.4099
▁Human	-11.4099
▁Hilir	-11.4104
▁diwajibkan	-11.4105
▁pemakaian	-11.4105
foto	-11.4109
▁Vin	-11.4111
▁dahulunya	-11.4113
но	-11.4114
▁Run	-11.4114
▁Kena	-11.4116
▁situation	-11.4116
padu	-11.4116
uy	-11.4117
▁Kelompok	-11.4119
inter	-11.4124
▁Tahap	-11.4126
HA	-11.4127
▁Madya	-11.4128
▁berehat	-11.4128
nz	-11.4129
▁possible	-11.4132
▁Roh	-11.4137
▁SD	-11.4137
▁Aksi	-11.4138
▁col	-11.4139
▁Sunda	-11.4139
▁JPN	-11.4139
▁dirasmikan	-11.4141
▁Nordin	-11.4141
▁Ingin	-11.4144
cker	-11.4148
▁renang	-11.4149
mai	-11.4153
▁clean	-11.4154
▁Biru	-11.4158
▁berpangkalan	-11.4159
7,000	-11.4159
▁Jualan	-11.416
▁integrasi	-11.4161
▁Putin	-11.4163
▁Saf	-11.4163
▁dibicarakan	-11.4164
▁Analisis	-11.4164
▁800	-11.4165
▁Rey	-11.4167
▁perpecahan	-11.4168
▁Tommy	-11.4169
ved	-11.4173
▁meminda	-11.4174
▁Prime	-11.4177
▁hatiku	-11.4177
liti	-11.4177
▁whatsapp	-11.4177
▁large	-11.4177
▁Persi	-11.4179
▁Sept	-11.4179
▁luahan	-11.418
▁Skuad	-11.4181
▁Rosli	-11.4181
▁dilalui	-11.4182
▁Tae	-11.4183
▁Ana	-11.4184
▁sekutu	-11.4185
▁Mesti	-11.419
tay	-11.419
▁announced	-11.419
▁Matematik	-11.419
TK	-11.4191
▁baku	-11.4191
mini	-11.4191
pkan	-11.4191
▁Jati	-11.4191
▁belakangan	-11.4194
▁bersa	-11.4195
uji	-11.4195
▁inform	-11.4199
▁fun	-11.42
▁death	-11.4202
▁Gak	-11.4202
▁saudaranya	-11.4203
▁sepatu	-11.4204
OD	-11.4204
▁Get	-11.4206
ox	-11.4208
nggung	-11.4208
▁pengkritik	-11.4209
▁Art	-11.4209
▁riwayat	-11.4211
▁dijemput	-11.4211
▁Alexander	-11.4213
wu	-11.4215
▁Permaisuri	-11.4217
▁bersemangat	-11.4217
▁gelanggang	-11.4218
UP	-11.4219
▁pembicaraan	-11.4221
▁Auto	-11.4222
SR	-11.4223
tanding	-11.4225
▁Society	-11.4226
▁Bou	-11.4227
▁MUI	-11.4229
▁Manis	-11.4229
▁approach	-11.4231
▁pepejal	-11.4231
▁everyone	-11.4232
▁Mati	-11.4233
▁Maktab	-11.4234
▁Huawei	-11.4236
kampung	-11.4237
ust	-11.4237
▁peri	-11.4238
▁Seluruh	-11.424
▁kelangsungan	-11.424
▁detail	-11.4241
▁Mul	-11.4243
▁Cur	-11.4243
Normandie	-11.4245
/5/2020	-11.4245
OK	-11.4247
▁Pener	-11.4248
▁Alasan	-11.4249
nit	-11.4251
dag	-11.4252
ord	-11.4254
▁fu	-11.4254
▁metode	-11.4256
▁Dzulkefly	-11.4258
▁tv	-11.4261
▁Kemen	-11.4263
▁self	-11.4263
▁Moh	-11.4263
fen	-11.4265
▁dini	-11.4265
meli	-11.4267
▁berlarutan	-11.4267
▁Gil	-11.4268
▁TAN	-11.4269
▁membenci	-11.4272
▁Mudah	-11.4273
▁batin	-11.4276
▁KEWANGAN	-11.4276
▁diterajui	-11.4276
▁kemakmuran	-11.4276
▁Saleh	-11.4276
▁berbalik	-11.4278
rent	-11.4279
▁orangtua	-11.428
▁Kevin	-11.4281
jenis	-11.4284
▁series	-11.4284
ings	-11.4285
court	-11.4285
▁1964	-11.4288
▁Cukup	-11.4288
▁Iklim	-11.429
bid	-11.4293
kelas	-11.4293
tiv	-11.4297
▁comes	-11.4298
▁Kay	-11.4298
idae	-11.4299
▁Economic	-11.4299
▁berinteraksi	-11.4299
▁Bir	-11.4302
▁sense	-11.4303
▁diakses	-11.4304
syah	-11.4304
▁berunding	-11.4306
bad	-11.4306
▁boss	-11.4308
▁asalkan	-11.431
▁ob	-11.4311
▁IT	-11.4311
▁bujang	-11.4312
▁Damansara	-11.4313
▁kedengaran	-11.4313
▁key	-11.4315
▁People	-11.4315
▁hot	-11.4316
MT	-11.4316
▁Ruang	-11.4317
▁dipukul	-11.4317
▁terjadinya	-11.4321
batu	-11.4322
Din	-11.4323
mpan	-11.4323
▁akur	-11.4324
nic	-11.4325
▁pengasuh	-11.4326
▁lucah	-11.4327
▁Siew	-11.4329
▁sifar	-11.4331
▁1930	-11.4332
termasuk	-11.4333
▁Pintu	-11.4334
▁success	-11.4335
▁wayang	-11.4335
▁Mohammed	-11.4335
▁skop	-11.4337
lir	-11.4338
▁Bob	-11.4339
▁Indera	-11.434
▁strategis	-11.4341
bagai	-11.4341
▁Ani	-11.4344
vid	-11.4345
▁Hill	-11.4346
▁mabuk	-11.4348
▁tunduk	-11.435
▁understand	-11.4351
▁Christian	-11.4351
▁NU	-11.4352
▁mayoritas	-11.4354
saan	-11.4354
▁mean	-11.4356
▁kiamat	-11.4358
▁RON	-11.4359
vari	-11.4363
EK	-11.4363
▁dibekalkan	-11.4363
▁menangguhkan	-11.4363
▁WHO	-11.4364
▁kelurahan	-11.4364
▁wisatawan	-11.4365
▁rasakan	-11.4365
▁Tony	-11.4366
▁economic	-11.4367
▁delegasi	-11.4367
▁rahmat	-11.4368
▁byk	-11.4374
▁Vel	-11.4374
bam	-11.4376
▁bir	-11.4376
▁merusak	-11.4377
▁penyandang	-11.4377
JA	-11.4378
▁Women	-11.4378
2012	-11.4381
▁pencen	-11.4381
▁hahaha	-11.4386
surat	-11.4386
▁Pertumbuhan	-11.4387
gala	-11.4388
▁berdiam	-11.4389
OP	-11.4389
gne	-11.439
▁Kegiatan	-11.439
▁Teng	-11.4391
▁dimuktamadkan	-11.4395
▁kecemerlangan	-11.4395
▁gergasi	-11.4395
▁lepasan	-11.4396
benda	-11.4401
bik	-11.4402
kem	-11.4403
▁Report	-11.4403
▁terpencil	-11.4404
phone	-11.4404
▁agihan	-11.4404
▁reputasi	-11.4405
▁Dakwah	-11.4405
▁segan	-11.4405
ngkas	-11.4406
▁From	-11.4407
▁ME	-11.4407
pay	-11.4408
▁Level	-11.4411
tawa	-11.4413
▁jururawat	-11.4413
▁Sum	-11.4414
▁Asasi	-11.4416
right	-11.4418
▁Artinya	-11.4418
gram	-11.4419
▁sarung	-11.442
▁kabur	-11.4421
▁direct	-11.4422
▁taat	-11.4423
▁kejap	-11.4426
▁Kejuruteraan	-11.4427
LC	-11.4428
▁inginkan	-11.4431
▁lebihan	-11.4431
▁Kemudahan	-11.4434
katanya	-11.4436
room	-11.4436
dent	-11.4438
▁Inisiatif	-11.4439
Dari	-11.444
reng	-11.444
▁pertarungan	-11.4441
▁sound	-11.4441
▁buy	-11.4442
▁pelayanan	-11.4443
▁Hah	-11.4446
▁whole	-11.4447
2016	-11.4447
900	-11.445
▁diskaun	-11.445
tugas	-11.4452
▁track	-11.4452
▁Demokrat	-11.4453
▁Demikian	-11.4453
▁tax	-11.4454
▁Jamaluddin	-11.4455
▁Investment	-11.4456
▁mengukur	-11.4457
▁krim	-11.4457
▁Amalan	-11.4462
Pyrenees	-11.4464
▁badminton	-11.4464
▁71	-11.4467
▁melirik	-11.4469
▁beramai	-11.447
▁penanda	-11.447
▁perform	-11.4472
▁Mang	-11.4473
▁wacana	-11.4473
▁Sebaik	-11.4474
▁penawaran	-11.4474
PJ	-11.4474
vic	-11.4477
▁KO	-11.4478
▁Pensyarah	-11.4478
▁example	-11.4478
▁soon	-11.4479
▁bareng	-11.448
▁art	-11.448
▁Tambahnya	-11.4481
jol	-11.4487
▁Beri	-11.4488
▁abu	-11.4489
▁Aiman	-11.4491
▁Mart	-11.4491
▁Mos	-11.4491
▁respect	-11.4491
hum	-11.4492
▁Biasa	-11.4492
▁Teknik	-11.4493
▁dipotong	-11.4494
ра	-11.4496
ع	-11.4496
▁Hoki	-11.4497
zal	-11.45
▁Semakin	-11.4501
▁neraka	-11.4502
meter	-11.4502
▁dimasak	-11.4502
yh	-11.4503
▁legenda	-11.4504
wak	-11.4504
▁Jaga	-11.4505
▁pengelolaan	-11.4506
▁Link	-11.4506
ambil	-11.4507
▁Col	-11.4509
▁sejurus	-11.451
▁inklusif	-11.4513
▁spesifik	-11.4514
▁memori	-11.4514
▁pembakaran	-11.4515
▁diteliti	-11.452
iring	-11.452
house	-11.4521
▁1961	-11.4522
▁Tuah	-11.4524
▁rusa	-11.4525
▁Sungguhpun	-11.4525
harm	-11.4527
▁Majoriti	-11.4528
▁menjanjikan	-11.4529
nad	-11.453
▁Jean	-11.4533
▁Ringgit	-11.4534
▁Buloh	-11.4534
▁FGV	-11.4535
minat	-11.4535
Antara	-11.4538
▁father	-11.4539
20,000	-11.4539
▁Ting	-11.454
▁optimis	-11.4543
▁read	-11.4544
▁oil	-11.4545
sayuran	-11.4547
▁penjenayah	-11.4548
▁muatan	-11.4549
ush	-11.455
▁Ops	-11.4551
▁visual	-11.4552
▁syaitan	-11.4552
▁menyanyi	-11.4555
▁delapan	-11.4556
▁3,000	-11.4556
▁ketelusan	-11.4557
▁Sambutan	-11.4557
ration	-11.4557
nun	-11.4557
gy	-11.4559
▁Sis	-11.4559
▁didenda	-11.456
▁Mam	-11.456
▁dibakar	-11.456
vir	-11.4563
▁Fatimah	-11.4563
▁Chee	-11.4565
▁Senator	-11.4566
▁bayangan	-11.4568
▁berstatus	-11.4571
▁Kapten	-11.4571
masalah	-11.4576
▁82	-11.4576
▁momen	-11.4576
▁penjuru	-11.4576
▁bag	-11.4577
▁explain	-11.458
▁membicarakan	-11.458
▁rights	-11.4583
▁menguatkan	-11.4583
▁Silat	-11.4585
▁rusuhan	-11.4585
▁Peti	-11.4586
▁kawen	-11.4587
▁Deli	-11.4588
▁solar	-11.4588
▁Teknikal	-11.4588
PG	-11.4589
▁learn	-11.4591
pulau	-11.4594
▁KU	-11.4599
▁pengubahan	-11.4599
▁tafsir	-11.4601
▁warung	-11.4602
▁Hindi	-11.4604
▁Puteh	-11.4604
▁Rhineland	-11.4604
▁96	-11.4609
▁watch	-11.4609
▁kaunseling	-11.4613
hitung	-11.4614
wing	-11.4617
▁effect	-11.4617
з	-11.4618
▁mematikan	-11.4618
▁gelandangan	-11.4618
▁telahpun	-11.462
uw	-11.4622
▁football	-11.4623
▁Philip	-11.4623
▁dicalonkan	-11.4623
▁smpai	-11.4624
▁transit	-11.4625
▁Bayangkan	-11.4625
▁MRSM	-11.4626
Palatinate	-11.4627
▁Zar	-11.4627
alat	-11.4629
▁sepasang	-11.4632
▁Terhadap	-11.4633
▁poli	-11.4636
▁Bau	-11.4636
pped	-11.4636
▁los	-11.4637
▁taksiran	-11.4637
▁Banjir	-11.4637
bert	-11.4639
mic	-11.4639
▁1940	-11.4639
▁pariwisata	-11.4641
Is	-11.4644
▁step	-11.4644
▁dtg	-11.4646
lindung	-11.4646
Memang	-11.4647
▁:**	-11.4648
▁AKU	-11.4648
▁Mustafa	-11.4649
▁Jiwa	-11.4649
▁Pahat	-11.4653
▁diatasi	-11.4654
▁IPTA	-11.4655
▁finish	-11.4655
▁transgender	-11.4655
▁current	-11.4657
▁More	-11.4657
▁Lokasi	-11.4657
▁Play	-11.4658
▁berj	-11.4658
▁Jah	-11.466
▁culture	-11.466
▁Asing	-11.4661
▁expect	-11.4661
▁lab	-11.4662
▁slot	-11.4664
cial	-11.4664
▁rombongan	-11.4665
▁pusaka	-11.4665
▁Khairuddin	-11.4665
▁ask	-11.4666
▁ekspresi	-11.4666
luar	-11.4667
SOP	-11.4667
hn	-11.4668
▁Ris	-11.4669
▁Penilaian	-11.467
▁PPR	-11.4672
▁kru	-11.4672
▁Diri	-11.4673
▁kritis	-11.4674
nggu	-11.4675
▁Azam	-11.4675
▁kandung	-11.4676
▁nothing	-11.4677
▁jemputan	-11.4677
▁host	-11.4678
▁didukung	-11.4679
▁Gobind	-11.4679
ij	-11.4679
KT	-11.468
ito	-11.4681
▁Matt	-11.4682
▁Dewa	-11.4683
▁Wahab	-11.4687
▁Lot	-11.4687
▁mother	-11.469
▁Usai	-11.4691
wiki	-11.4696
▁Rina	-11.47
▁AFC	-11.4701
▁Why	-11.4702
▁common	-11.4703
▁Ghani	-11.4703
▁mempercepatkan	-11.4704
▁aparat	-11.4704
▁Rah	-11.4705
▁Kho	-11.4706
fal	-11.4706
▁Pergi	-11.4707
▁02	-11.471
mble	-11.4713
down	-11.4716
▁Tujuh	-11.4717
▁Tanda	-11.4717
▁attack	-11.4717
rate	-11.4721
▁Madrasah	-11.4722
▁propaganda	-11.4722
meri	-11.4722
▁Prima	-11.4722
▁disangka	-11.4723
sip	-11.4724
▁MEN	-11.4724
kti	-11.4724
▁cincin	-11.4727
▁pujuk	-11.4728
Car	-11.473
▁seven	-11.473
cell	-11.4731
▁item	-11.4732
▁Bekalan	-11.4732
▁Tech	-11.4733
gate	-11.4734
▁PUAN	-11.4734
▁became	-11.4736
▁impact	-11.4736
▁paparan	-11.4737
▁pend	-11.4738
▁78	-11.4738
▁Wee	-11.4739
▁2022	-11.4739
▁tebing	-11.4741
▁duta	-11.4742
▁certain	-11.4742
▁AFP	-11.4745
▁kritik	-11.4745
▁society	-11.4745
▁KELIMA	-11.475
dapat	-11.4751
▁Cas	-11.4755
▁SP	-11.4756
▁berpatutan	-11.476
visi	-11.476
▁Situasi	-11.4761
▁disalah	-11.4761
dge	-11.4761
OH	-11.4762
▁perfect	-11.4766
▁Gaji	-11.4766
▁Lantas	-11.4767
▁terke	-11.4768
▁Berlin	-11.4768
▁twitter	-11.4769
Bukan	-11.477
▁felt	-11.477
▁taking	-11.4771
▁serangga	-11.4772
▁Armenia	-11.4774
▁begin	-11.4774
▁jagung	-11.4775
▁TE	-11.4775
▁terlambat	-11.4775
▁jasad	-11.4776
▁didepan	-11.4778
Hal	-11.4778
▁Kualiti	-11.4779
▁pur	-11.4779
▁pengantin	-11.478
▁mengecam	-11.478
▁bebanan	-11.4781
▁Cro	-11.4784
▁Cepat	-11.4784
▁Tro	-11.4788
▁Thanks	-11.4789
▁bisik	-11.479
▁Set	-11.479
campur	-11.479
▁sebabnya	-11.4791
Vi	-11.4792
▁Pimpinan	-11.4793
And	-11.4795
▁taken	-11.4797
▁Rain	-11.4797
▁Chung	-11.4797
▁jumlahnya	-11.4798
▁pemuzik	-11.4798
grad	-11.48
▁ketum	-11.4801
▁tepatnya	-11.4807
▁ben	-11.4808
▁Bangi	-11.4809
▁Vis	-11.4809
Gu	-11.4809
polis	-11.481
▁Jasa	-11.4811
▁Jas	-11.4811
▁sahabatnya	-11.4814
plikasi	-11.4816
▁umi	-11.4817
▁menginginkan	-11.4817
IB	-11.4817
▁Delhi	-11.4818
ega	-11.4819
putar	-11.4819
▁Gad	-11.482
▁metrik	-11.4821
▁makam	-11.4821
▁Thu	-11.4821
▁pembebasan	-11.4822
▁whether	-11.4822
▁kerjanya	-11.4822
▁Yeo	-11.4824
▁Sep	-11.4825
▁Cre	-11.4826
▁Hol	-11.4827
▁terjamin	-11.4828
Daerah	-11.4832
▁bersaiz	-11.4832
▁Work	-11.4833
▁Tanjong	-11.4833
tical	-11.4834
▁dikuatkuasakan	-11.4836
mpo	-11.4837
mali	-11.4838
▁Imran	-11.4839
rov	-11.4839
▁susunan	-11.4842
▁Carl	-11.4842
dhi	-11.4842
▁campus	-11.4843
BR	-11.4845
janji	-11.4845
▁sepertimana	-11.4846
kup	-11.4846
▁Modal	-11.4847
▁sayuran	-11.4847
▁Rawatan	-11.4848
ndung	-11.4849
▁biarlah	-11.485
▁Liar	-11.485
▁bid	-11.4852
riz	-11.4852
▁pelatihan	-11.4855
ت	-11.4855
▁tempahan	-11.4855
▁Sepang	-11.4855
▁forward	-11.4856
pemimpin	-11.4857
▁KK	-11.4859
▁perbatasan	-11.486
OT	-11.4861
hun	-11.4862
▁Fre	-11.4863
▁dahi	-11.4864
▁diwartakan	-11.4865
▁stage	-11.4866
▁Tem	-11.4869
▁ingatkan	-11.4869
▁Boeing	-11.487
▁minim	-11.4871
▁Falsafah	-11.4875
▁tentara	-11.4875
PKR	-11.4876
▁digabungkan	-11.4877
▁According	-11.4879
▁available	-11.4879
▁dikelilingi	-11.4879
▁Tentang	-11.4881
poli	-11.4882
▁Adat	-11.4882
▁received	-11.4884
▁Termasuk	-11.4885
▁bertolak	-11.4891
▁Darjah	-11.4891
▁menghilang	-11.4892
▁pelaksanaannya	-11.4892
▁komoditas	-11.4894
▁menasihati	-11.4894
ikh	-11.4895
▁menggugat	-11.4895
▁1,5	-11.4898
▁simple	-11.4899
▁straight	-11.4899
▁Uthmaniyyah	-11.4899
▁Perikatan	-11.4899
▁Rid	-11.4901
▁Johnson	-11.4903
▁Garuda	-11.4904
▁GLC	-11.4907
▁Starbucks	-11.4908
▁kekosongan	-11.4908
▁holistik	-11.4913
▁relationship	-11.4913
cum	-11.4914
▁dapati	-11.4914
▁berteriak	-11.4915
key	-11.4915
libat	-11.4916
▁gugur	-11.4916
▁Pasangan	-11.4918
▁Hey	-11.492
▁doesn	-11.492
▁SMP	-11.4923
tti	-11.4923
▁busana	-11.4925
▁direman	-11.4925
▁Jon	-11.493
shed	-11.4932
▁menunggang	-11.4933
▁Ron	-11.4935
hasil	-11.4935
▁muntah	-11.4935
▁While	-11.4937
▁pahit	-11.4938
▁Zainuddin	-11.4938
▁pendakwah	-11.4938
gis	-11.4939
tokoh	-11.494
▁Bawah	-11.4941
tanah	-11.4942
▁akidah	-11.4943
▁terkorban	-11.4943
▁menyenaraikan	-11.4946
▁practice	-11.4947
▁financial	-11.4947
dem	-11.4947
▁penerapan	-11.4948
▁Doakan	-11.495
▁Comp	-11.495
gula	-11.4951
▁mempersiapkan	-11.4952
▁Bersih	-11.4953
▁datuk	-11.4954
$2	-11.4956
▁Idul	-11.4957
▁privasi	-11.4957
▁Anep	-11.4959
tup	-11.4961
▁menghidupkan	-11.4962
▁sokong	-11.4962
▁lalui	-11.4964
biasa	-11.4964
▁Tempoh	-11.4965
Go	-11.4967
▁Bersepadu	-11.4967
▁perladangan	-11.4967
▁mengisahkan	-11.4967
▁compete	-11.4969
▁mainan	-11.497
▁2,000	-11.497
▁perkebunan	-11.4971
▁Friday	-11.4972
▁berteras	-11.4972
▁kelakuan	-11.4973
sangat	-11.4979
ngo	-11.4979
mine	-11.498
cs	-11.498
▁klub	-11.4981
▁tegar	-11.4982
▁toleransi	-11.4987
▁Duit	-11.499
▁seksyen	-11.4991
▁Juru	-11.4996
Pihak	-11.4997
▁saraf	-11.4999
▁Izzah	-11.4999
▁berurusan	-11.5001
▁trying	-11.5001
▁wrong	-11.5002
▁Arena	-11.5002
▁Zai	-11.5004
▁LO	-11.5005
▁Service	-11.5006
▁menanyakan	-11.5006
▁Show	-11.5006
▁decided	-11.5008
▁mulutnya	-11.501
▁Baju	-11.5011
inal	-11.5012
▁tar	-11.5013
▁menceburi	-11.5015
▁penunggang	-11.5015
▁USA	-11.5016
▁Petugas	-11.5017
▁growth	-11.5017
▁ampun	-11.5017
▁lepak	-11.5018
▁rekan	-11.5018
▁Gin	-11.5019
▁Kulim	-11.5019
▁Wartawan	-11.5021
▁mengutuk	-11.5021
En	-11.5021
▁private	-11.5024
▁menghukum	-11.5026
▁persefahaman	-11.503
▁Sahabat	-11.503
▁Latheefa	-11.5035
▁Bohemia	-11.5035
▁Jurnal	-11.5035
▁Kah	-11.5035
usan	-11.5037
▁Ven	-11.5038
tail	-11.5039
▁kegemaran	-11.504
▁berlandaskan	-11.504
▁kesinambungan	-11.504
▁Jab	-11.5041
/2	-11.5043
▁depa	-11.5043
board	-11.5044
▁Pl	-11.5046
▁player	-11.5048
▁dikebumikan	-11.505
▁Kejayaan	-11.505
UA	-11.505
ization	-11.5054
ons	-11.5054
ntu	-11.5056
▁pat	-11.5057
view	-11.5058
▁desakan	-11.5058
kalau	-11.5059
▁saksama	-11.506
▁kapasitas	-11.506
▁seat	-11.5061
▁kadangkala	-11.5062
ب	-11.5063
▁flight	-11.5065
UH	-11.5067
▁PATI	-11.5069
▁menampakkan	-11.5069
▁mengawasi	-11.5069
▁Ch	-11.5069
▁peliharaan	-11.507
▁See	-11.5071
▁buangan	-11.5071
▁okey	-11.5072
▁kakaknya	-11.5072
▁penyatuan	-11.5074
▁abangnya	-11.5075
▁sengit	-11.5075
ovice	-11.5076
ingin	-11.5076
▁1958	-11.5077
▁MD	-11.5077
▁Wuhan	-11.5078
Tu	-11.5079
Menteri	-11.5079
▁kagum	-11.508
NU	-11.5081
▁Jose	-11.5082
▁Ayub	-11.5086
▁beranggapan	-11.5089
▁dipandu	-11.5089
▁Bendahara	-11.5089
▁Kir	-11.5098
angkat	-11.5098
SD	-11.5098
▁Devan	-11.5099
▁Shamsul	-11.51
zat	-11.5102
▁Anne	-11.5102
▁kolonial	-11.5102
▁PU	-11.5102
Dr	-11.5103
▁Irfan	-11.5104
▁gangsa	-11.5104
▁syarak	-11.5106
RO	-11.5107
▁terhasil	-11.5107
▁EXCO	-11.5109
200,000	-11.5109
▁pengumpulan	-11.511
▁1000	-11.511
▁loan	-11.5111
▁less	-11.5112
▁Menterinya	-11.5113
For	-11.5114
▁pd	-11.5114
▁gu	-11.5114
▁expected	-11.5115
▁melepas	-11.5115
▁pacar	-11.5115
▁Prancis	-11.5119
▁nafkah	-11.5119
▁dikembalikan	-11.5119
▁Lun	-11.5121
hani	-11.5122
▁peluk	-11.5124
▁product	-11.5127
▁premium	-11.5128
▁diharamkan	-11.5129
▁Dal	-11.5129
▁Web	-11.5129
yeh	-11.5132
▁Dilansir	-11.5133
▁miliki	-11.5134
▁Bid	-11.5134
▁Hawa	-11.5134
▁internal	-11.5135
Marne	-11.5139
▁approve	-11.514
▁bagaikan	-11.514
▁European	-11.514
rium	-11.5142
▁batuk	-11.5143
mbun	-11.5143
▁Tibet	-11.5144
▁Hindia	-11.5145
▁Eric	-11.5147
ux	-11.5148
▁OLEH	-11.5148
▁mencium	-11.5149
▁uni	-11.515
▁individual	-11.5153
▁syariat	-11.5153
▁keluhan	-11.5153
▁SME	-11.5154
▁gemuk	-11.5154
fak	-11.5154
▁Manila	-11.5157
▁berketurunan	-11.5158
▁kera	-11.5159
▁jerit	-11.5159
▁Kangsar	-11.5159
barkan	-11.5159
book	-11.5161
larang	-11.5162
▁najis	-11.5163
▁diproses	-11.5168
▁ummah	-11.5168
ors	-11.5169
▁gave	-11.5171
▁Ek	-11.5172
▁perisai	-11.5172
gali	-11.5173
▁Hannah	-11.5173
fy	-11.5174
bok	-11.5174
▁semulajadi	-11.5174
▁Beirut	-11.5178
▁kemelut	-11.5178
cung	-11.5178
▁Kazakhstan	-11.5183
▁perceraian	-11.5183
▁ALLAH	-11.5183
▁sedari	-11.5184
▁Takut	-11.5184
▁Hyun	-11.5184
▁menyerap	-11.5185
▁Point	-11.5185
▁board	-11.5185
▁often	-11.5186
cil	-11.5186
▁menjurus	-11.5188
CP	-11.5189
▁Kamil	-11.5189
spec	-11.519
▁menaruh	-11.5193
▁dipisahkan	-11.5193
▁kabel	-11.5195
▁2003,	-11.5195
▁Kabar	-11.5196
▁sesat	-11.5196
iko	-11.5197
ments	-11.52
▁berapi	-11.5201
pra	-11.5202
▁в	-11.5206
nen	-11.521
▁cemas	-11.5211
▁kn	-11.5215
▁Mike	-11.5215
▁penjanaan	-11.5216
▁bunda	-11.5218
badan	-11.5218
▁near	-11.522
yen	-11.5222
rok	-11.5222
▁Akhbar	-11.5223
▁Shari	-11.5224
▁sam	-11.5225
▁Berhubung	-11.5225
▁Pendekatan	-11.5226
work	-11.5226
▁potential	-11.5228
list	-11.5229
▁disebarkan	-11.523
▁County	-11.5233
▁AWANI	-11.5233
▁Project	-11.5233
▁Reka	-11.5235
temu	-11.5236
langan	-11.5236
▁Wood	-11.5239
▁Tema	-11.5241
▁maki	-11.5242
▁ln	-11.5243
▁melompat	-11.5243
▁tend	-11.5245
▁true	-11.5245
▁dkt	-11.5245
▁deep	-11.5245
▁euro	-11.5246
OO	-11.5246
▁napas	-11.5248
mann	-11.525
▁leader	-11.5251
▁Angin	-11.5254
ichi	-11.5258
▁Halaman	-11.5259
aktif	-11.526
▁partner	-11.5261
▁mari	-11.5262
▁Dor	-11.5266
▁Maksudnya	-11.527
▁Daily	-11.5272
Con	-11.5272
▁mengonsumsi	-11.5273
▁Darussalam	-11.5273
▁penguasa	-11.5276
▁Prince	-11.5277
lid	-11.5278
▁tani	-11.5281
▁menanggapi	-11.5283
▁diduduki	-11.5283
New	-11.5285
undur	-11.5286
▁penduduknya	-11.5286
▁Kod	-11.5288
try	-11.5288
▁basis	-11.5288
poh	-11.5289
ching	-11.5292
▁Palestina	-11.5294
urus	-11.5294
▁mark	-11.5295
▁kebiasaannya	-11.5296
tinggi	-11.5297
▁Puchong	-11.5298
▁Menyedia	-11.5298
▁1941	-11.5301
▁Kasar	-11.5302
▁memisahkan	-11.5303
▁Records	-11.5304
▁ucapkan	-11.5305
▁97	-11.5306
▁Tokoh	-11.5307
▁ego	-11.5307
▁woman	-11.5308
▁cor	-11.531
▁allowed	-11.531
▁improve	-11.531
▁mengelirukan	-11.5313
▁perpindahan	-11.5313
2019	-11.5316
▁lampau	-11.5316
▁Pradesh	-11.5318
▁dipatuhi	-11.5318
▁mengusahakan	-11.5318
▁kafir	-11.5319
▁Palembang	-11.5319
bs	-11.5321
▁pesawah	-11.5323
▁harapkan	-11.5323
tech	-11.5324
▁kesemuanya	-11.5325
▁hobi	-11.5326
▁Frank	-11.5326
▁medical	-11.5331
▁Pesan	-11.5332
▁skrg	-11.5333
▁various	-11.5333
▁pidana	-11.5334
▁materi	-11.5336
▁Liew	-11.5336
▁Pesta	-11.534
▁election	-11.5344
л	-11.5345
▁Atlet	-11.5346
▁Four	-11.5347
Mas	-11.5348
You	-11.5349
▁Urus	-11.5349
▁golf	-11.5352
▁pemburu	-11.5354
▁Bima	-11.5354
▁Nie	-11.5355
▁ditadbir	-11.5356
▁hands	-11.5357
tut	-11.5359
▁terluka	-11.5359
▁Muhammadiyah	-11.536
▁plat	-11.536
▁berlatih	-11.5361
▁VB	-11.5362
▁anime	-11.5362
▁companies	-11.5363
▁Belajar	-11.5364
2013	-11.5364
▁Korban	-11.5365
▁FM	-11.5368
▁menghadirkan	-11.5374
▁Jurulatih	-11.5374
Sekarang	-11.5375
reg	-11.5377
edi	-11.5378
▁kontra	-11.538
▁hoki	-11.5381
Maritime	-11.5382
▁October	-11.5384
▁menyempurnakan	-11.5384
▁oksigen	-11.5384
▁tuturnya	-11.5384
▁services	-11.5386
▁tisu	-11.5386
▁berpecah	-11.5387
▁positive	-11.5389
▁Nadia	-11.5391
isteri	-11.5391
▁River	-11.5393
eth	-11.5394
▁price	-11.5395
▁kargo	-11.5397
▁Nampak	-11.5398
▁molekul	-11.5401
▁subject	-11.5401
▁bertiga	-11.5403
▁Mou	-11.5405
▁hold	-11.5407
▁Tur	-11.5408
▁dipertingkatkan	-11.5408
▁pergaduhan	-11.5409
▁dikarang	-11.5409
▁disarankan	-11.541
▁include	-11.5413
▁sofa	-11.5413
▁fan	-11.5414
▁Tingkat	-11.5414
▁ganas	-11.5414
ikut	-11.5416
▁gelas	-11.5416
▁sampe	-11.5418
▁KP	-11.5419
▁menyanyikan	-11.5419
▁LIS	-11.5419
▁Angka	-11.5419
▁Sky	-11.5422
ender	-11.5423
▁berkenalan	-11.5424
▁Sena	-11.5426
▁Jamil	-11.5426
▁kesedihan	-11.5429
▁pematuhan	-11.5429
▁Anies	-11.543
▁Keong	-11.543
▁ceria	-11.5431
▁Meh	-11.5432
▁hulu	-11.5433
may	-11.5433
▁mengelilingi	-11.5434
▁Energy	-11.5434
ose	-11.5436
▁seberat	-11.5436
▁Bis	-11.5438
▁Albert	-11.5439
▁Mini	-11.5439
bawa	-11.5439
▁konon	-11.544
▁Suriah	-11.5441
▁Agar	-11.5442
uj	-11.5443
▁peradaban	-11.5445
▁sanksi	-11.5445
▁medal	-11.5446
zh	-11.5447
▁Naga	-11.5448
mpu	-11.5449
urai	-11.5449
▁menyakitkan	-11.545
▁struggle	-11.545
▁sentuhan	-11.5451
▁Prinsip	-11.5452
▁1,6	-11.5453
Sudah	-11.5456
▁Spe	-11.5456
khi	-11.5456
Hasil	-11.546
mente	-11.546
▁Sebagian	-11.5461
jauh	-11.5462
kultur	-11.5466
wel	-11.5469
▁urutan	-11.5469
▁5,000	-11.5469
▁Force	-11.547
▁Soalan	-11.547
▁contract	-11.5471
▁bersi	-11.5471
▁menda	-11.5471
▁words	-11.5473
▁menyedihkan	-11.5475
▁berbual	-11.5475
▁apel	-11.5477
▁lantang	-11.548
▁LHDN	-11.5483
▁comel	-11.5484
▁Gang	-11.5484
▁kor	-11.5484
▁ajang	-11.5485
BANG	-11.5487
▁Besi	-11.5489
▁Akbar	-11.5489
komp	-11.549
▁Ronaldo	-11.549
gui	-11.5491
▁saran	-11.5496
▁kelainan	-11.5502
like	-11.5505
▁brother	-11.5507
▁dorongan	-11.5507
point	-11.551
hapus	-11.551
▁Keduanya	-11.5511
▁menjimatkan	-11.5511
▁sejahtera	-11.5511
▁dicari	-11.5513
▁79	-11.5513
▁berapakah	-11.5514
▁kedudukannya	-11.5515
▁berhemah	-11.5516
▁Aq	-11.5517
▁Ste	-11.5517
▁Ciri	-11.5518
▁Petra	-11.5518
▁Ujar	-11.5518
term	-11.5521
▁Vokasional	-11.5521
▁beda	-11.5523
▁Sayangnya	-11.5523
▁technology	-11.5523
MAN	-11.5524
trans	-11.5524
▁MS	-11.5524
kait	-11.5525
nur	-11.5527
sumber	-11.5527
▁Sik	-11.553
▁info	-11.553
▁Cla	-11.5531
▁Sofi	-11.5531
▁diluar	-11.5531
▁teguran	-11.5533
▁terbalik	-11.5534
▁Harap	-11.5535
▁access	-11.5537
▁menumpang	-11.5538
▁Rau	-11.5539
▁led	-11.5539
▁kontak	-11.554
clu	-11.554
▁WA	-11.5541
▁learning	-11.5542
▁160	-11.5542
▁pucuk	-11.5542
▁hairan	-11.5544
edar	-11.5545
▁Fauzi	-11.5545
▁Hel	-11.5545
▁pemerhati	-11.5546
▁AC	-11.5546
▁payung	-11.5547
▁BANDAR	-11.5547
▁penyiaran	-11.5549
▁Diana	-11.555
▁music	-11.555
heim	-11.5552
ADI	-11.5552
▁Kl	-11.5552
▁region	-11.5553
SAN	-11.5554
▁Tha	-11.5554
▁salahkan	-11.5556
▁suaranya	-11.5556
▁Asyraf	-11.5558
▁hajat	-11.5558
▁block	-11.5558
▁81	-11.5558
▁pahala	-11.556
▁bel	-11.556
▁pembayar	-11.5561
▁Evan	-11.5561
▁Boon	-11.5562
▁Foundation	-11.5563
▁polemik	-11.5563
▁pesaing	-11.5563
▁Rupanya	-11.5563
▁latitude	-11.5563
▁Ariff	-11.5565
PV	-11.5565
▁tangani	-11.5565
▁Zaid	-11.5567
▁istrinya	-11.5569
▁Over	-11.5571
▁Emm	-11.5573
▁Insya	-11.5574
▁menggantung	-11.5574
ayah	-11.5577
▁ceritakan	-11.5578
UKM	-11.5582
▁maksudnya	-11.5582
Negara	-11.5582
basi	-11.5584
▁Hand	-11.5587
wilayah	-11.5587
▁KPU	-11.5588
MAS	-11.5588
▁ver	-11.5589
▁menutupi	-11.5591
▁unjuran	-11.5594
▁limbah	-11.5594
boy	-11.5595
▁manakah	-11.5595
▁acc	-11.5596
▁DPRD	-11.56
▁hidro	-11.56
▁pandemik	-11.5601
MAR	-11.5606
▁profesor	-11.5609
rac	-11.561
UD	-11.5611
▁pendengaran	-11.5611
▁capai	-11.5614
▁radikalisme	-11.5616
▁Tahu	-11.5617
▁kasihan	-11.5617
▁Berat	-11.5617
▁1946	-11.5618
▁ketahanan	-11.562
▁Single	-11.5622
▁terbiasa	-11.5623
▁Finland	-11.5624
▁87	-11.5625
▁Plaza	-11.5625
▁management	-11.5625
pis	-11.5626
vert	-11.5627
▁lapang	-11.5629
marah	-11.563
▁memantapkan	-11.563
▁Mercedes	-11.563
pic	-11.563
▁Suasana	-11.563
masi	-11.563
▁Android	-11.563
▁Jantung	-11.5631
▁pentru	-11.5631
▁raksasa	-11.5635
▁Kehidupan	-11.5635
▁match	-11.5636
▁Sewaktu	-11.5637
part	-11.5639
▁Umat	-11.564
▁menzahirkan	-11.564
tics	-11.5642
▁sahut	-11.5643
▁Stra	-11.5643
▁Ling	-11.5643
mbu	-11.5644
▁Bot	-11.5645
▁memu	-11.5645
▁Chile	-11.5645
▁Ant	-11.5646
▁berpuasa	-11.5646
▁ungkapan	-11.5649
▁chief	-11.5651
▁Pala	-11.5655
▁terperangkap	-11.5656
▁Master	-11.5656
chin	-11.5657
▁efisien	-11.5658
▁AB	-11.5659
vision	-11.5659
bun	-11.566
▁Hanum	-11.5661
Ne	-11.5663
▁maafkan	-11.5663
based	-11.5664
▁keselesaan	-11.5666
▁dibubarkan	-11.5666
▁mil	-11.5668
qua	-11.5668
ktif	-11.5669
▁1956	-11.567
▁chance	-11.5674
▁Muh	-11.5674
▁mengaji	-11.5675
▁Berapa	-11.5675
▁mempengerusikan	-11.5677
▁Sav	-11.5678
▁Alias	-11.5678
oksida	-11.5681
▁03	-11.5684
▁jet	-11.5685
▁Say	-11.569
▁Kamar	-11.569
ongan	-11.569
mid	-11.5691
в	-11.5693
▁Tian	-11.5694
hubung	-11.5696
▁Gre	-11.5697
▁Hishammuddin	-11.5698
▁110	-11.5698
▁tayar	-11.5699
▁undangan	-11.5702
▁pam	-11.5703
▁Baitulmaqdis	-11.5703
▁kuantiti	-11.5703
▁diet	-11.5704
▁Pasti	-11.5706
kisah	-11.5706
▁Kehakiman	-11.5708
raw	-11.5709
▁skate	-11.571
▁pengantar	-11.5711
▁Nasution	-11.5714
▁bener	-11.5714
kram	-11.5714
▁memujuk	-11.5714
▁dijadual	-11.5716
malam	-11.5716
▁udang	-11.5716
▁terowong	-11.5719
▁sediakan	-11.5719
▁desain	-11.5723
▁keretapi	-11.5725
▁cerai	-11.5726
▁celah	-11.5727
ogen	-11.5728
▁Plus	-11.5728
▁sunat	-11.5728
kurang	-11.5729
bau	-11.5729
▁berge	-11.573
tho	-11.573
▁ungkapnya	-11.573
JU	-11.5734
sukan	-11.5734
▁Panduan	-11.5734
▁bertuah	-11.5735
lab	-11.5735
▁PLUS	-11.5736
▁Rindu	-11.5737
erang	-11.5739
▁memutar	-11.5739
▁Maluku	-11.5741
▁ilegal	-11.5745
▁trade	-11.5746
oro	-11.5748
▁peme	-11.5749
▁melintasi	-11.575
▁pesara	-11.5753
une	-11.5754
ctive	-11.5755
▁sejagat	-11.5756
▁verifikasi	-11.5756
▁menjangkau	-11.5757
▁Jess	-11.5759
▁BMW	-11.576
▁istirahat	-11.5761
jeng	-11.5764
▁Andi	-11.5766
▁dipaparkan	-11.5766
▁Kaki	-11.5767
dagang	-11.5767
▁Game	-11.577
▁playing	-11.5771
▁mataku	-11.5771
JLIS	-11.5772
than	-11.5773
▁memalukan	-11.5773
sid	-11.5774
▁pewaris	-11.5777
gong	-11.5777
▁pic	-11.5779
zak	-11.578
▁Sh	-11.578
▁Chris	-11.5783
pper	-11.5785
▁Pasaran	-11.5787
▁diorg	-11.5788
▁diikat	-11.5789
▁Pemba	-11.579
▁pelayaran	-11.5791
salam	-11.5792
▁Oke	-11.5793
ZA	-11.5794
▁send	-11.5794
ikat	-11.5798
▁Pakai	-11.5799
▁Wakaf	-11.5804
och	-11.5804
▁celana	-11.5807
▁Mobile	-11.5809
▁merangkul	-11.5809
▁Lip	-11.581
▁pasport	-11.5813
▁Wat	-11.5813
▁rambutan	-11.5814
▁warganet	-11.5817
▁personaliti	-11.5817
song	-11.5818
▁dicampur	-11.5819
▁kenalan	-11.5819
▁keberanian	-11.5819
▁terputus	-11.5821
▁Cross	-11.5822
▁serious	-11.5822
▁AR	-11.5822
KKM	-11.5823
▁laptop	-11.5824
KB	-11.5824
▁lauk	-11.5828
▁Mala	-11.5829
▁puan	-11.583
▁sombong	-11.5832
▁memperluas	-11.5834
lag	-11.5835
▁message	-11.5836
▁Mene	-11.5841
VE	-11.5843
lle	-11.5844
▁700	-11.5844
▁jelah	-11.5847
▁ground	-11.5849
▁Jay	-11.5854
▁tin	-11.5855
▁memadai	-11.5856
som	-11.5857
▁Stephen	-11.5859
▁mamat	-11.5859
▁Mir	-11.5859
Un	-11.5859
▁banci	-11.586
▁survei	-11.5861
▁nyatakan	-11.5862
oe	-11.5864
▁Tribun	-11.5865
▁Syafiq	-11.5867
ello	-11.5872
▁JOHOR	-11.5872
▁diperkatakan	-11.5872
▁perlulah	-11.5872
▁inci	-11.5873
▁Balas	-11.5873
▁Rad	-11.5875
mau	-11.5876
▁pengetua	-11.5878
fur	-11.5882
▁Lai	-11.5882
cup	-11.5882
▁merayakan	-11.5888
▁Neu	-11.5891
TR	-11.5895
▁moyang	-11.5896
▁Farah	-11.5896
nag	-11.5898
▁Figure	-11.5899
▁diimport	-11.5899
▁Loire	-11.5899
ringan	-11.5899
▁diserap	-11.5899
▁Bikin	-11.5902
teen	-11.5902
▁1942	-11.5902
▁Suk	-11.5903
▁ditamatkan	-11.5904
ony	-11.5904
▁Haziq	-11.5904
▁Nya	-11.5907
vent	-11.591
SIS	-11.5911
▁fine	-11.5914
▁Eks	-11.5915
Langkah	-11.5915
▁menakutkan	-11.5916
▁recent	-11.5917
▁karang	-11.5918
▁tulen	-11.5919
▁Por	-11.5919
▁Villa	-11.592
▁Kelurahan	-11.592
▁pembatalan	-11.592
▁Seru	-11.5921
▁Raf	-11.5921
Baca	-11.5922
▁Mampu	-11.5922
AWA	-11.5924
▁card	-11.5925
▁Misi	-11.593
▁Pilpres	-11.5931
▁berdosa	-11.5932
▁aren	-11.5934
▁Libya	-11.5935
▁Las	-11.5935
▁Ayo	-11.5935
▁HIV	-11.5937
NO	-11.5939
kanan	-11.5939
▁Esok	-11.594
ASI	-11.594
▁Sesi	-11.5941
▁Soe	-11.5941
▁menempuh	-11.5941
▁prioritas	-11.5942
▁officials	-11.5942
▁Ariffin	-11.5943
bari	-11.5946
▁Monte	-11.5947
upan	-11.5948
▁sekerja	-11.5951
▁berkemahiran	-11.5952
▁penciptaan	-11.5953
Mungkin	-11.5954
▁Cheras	-11.5954
▁mensasarkan	-11.5957
▁cili	-11.5958
▁dara	-11.5958
▁Chow	-11.5959
yanto	-11.5959
HR	-11.5964
▁Sant	-11.5964
▁penderaan	-11.5968
ency	-11.5968
▁outside	-11.597
▁higher	-11.5972
▁kolaborasi	-11.5974
▁penarafan	-11.5974
▁didengar	-11.5975
▁menganggur	-11.5975
▁Mangsa	-11.5976
▁empangan	-11.5979
she	-11.5982
▁Kalo	-11.5983
▁TA	-11.5983
▁pandangannya	-11.5984
▁matrikulasi	-11.5984
ches	-11.5985
▁Sher	-11.5986
jil	-11.5986
▁Queen	-11.5986
▁pengedar	-11.5988
▁Andrew	-11.5989
▁dihadapan	-11.5989
▁meluaskan	-11.599
▁Makin	-11.599
▁ekstrem	-11.5992
▁mendengarkan	-11.5993
▁sistematik	-11.5993
▁longtitud	-11.5994
▁Status	-11.5995
▁Sup	-11.5996
▁Peri	-11.5996
KAT	-11.5998
memberangsangkan	-11.6001
▁mendoakan	-11.6001
▁menyapa	-11.6002
▁berencana	-11.6003
ston	-11.6003
▁Tunggu	-11.6003
▁rate	-11.6004
▁dinasti	-11.6005
nap	-11.6005
▁Naz	-11.6005
▁kompaun	-11.6006
▁PK	-11.6008
Arab	-11.6009
mbat	-11.6009
ned	-11.601
▁merasai	-11.601
▁bertudung	-11.6011
nggak	-11.6013
▁stres	-11.6016
Sultan	-11.6016
▁kewajiban	-11.6017
▁Tulisan	-11.6017
▁taktik	-11.6018
▁berbagi	-11.6018
▁diagihkan	-11.6022
feld	-11.6024
▁hours	-11.6025
tih	-11.6026
▁Keluaran	-11.6027
▁adaptasi	-11.6028
▁terselamat	-11.6028
unggu	-11.6031
bawah	-11.6032
▁suruhanjaya	-11.6033
▁dipantau	-11.6033
▁needs	-11.6035
▁Perai	-11.6036
▁labuh	-11.6042
▁berkemampuan	-11.6044
ml	-11.6044
▁Membuat	-11.6045
pene	-11.6046
reen	-11.6046
▁digerakkan	-11.6048
▁menggariskan	-11.6049
▁bergaya	-11.6049
▁und	-11.6049
▁disuruh	-11.605
rti	-11.605
ansur	-11.605
▁penstrukturan	-11.6055
▁pertembungan	-11.6055
▁saintis	-11.6055
now	-11.6055
▁rekreasi	-11.6055
▁Gor	-11.6056
zie	-11.6056
rib	-11.6057
▁Head	-11.6057
▁sipil	-11.6057
▁gantung	-11.6057
▁Surya	-11.6057
▁dinaiki	-11.6058
nasi	-11.606
▁disempurnakan	-11.606
▁Ul	-11.6061
hut	-11.6061
▁dimaksud	-11.6061
▁Cabaran	-11.6062
indah	-11.6062
0%	-11.6062
▁Messi	-11.6063
▁kerjayanya	-11.6065
▁McDonald	-11.6065
inda	-11.6066
▁minutes	-11.6066
▁KH	-11.6066
ente	-11.6067
faktor	-11.6067
▁membu	-11.6072
▁Series	-11.6072
nanti	-11.6073
▁klip	-11.6073
pil	-11.6075
▁Golden	-11.6076
▁125	-11.6076
▁berdikari	-11.6076
▁KFC	-11.6077
▁buntu	-11.6078
▁security	-11.6078
▁minimal	-11.6081
▁Firdaus	-11.6082
▁memfokuskan	-11.6082
▁tertidur	-11.6082
▁pahlawan	-11.6082
▁membiak	-11.6082
▁semi	-11.6083
▁Bicara	-11.6084
▁cases	-11.6087
▁bersempena	-11.6087
▁double	-11.6089
▁89	-11.6089
body	-11.609
▁Umur	-11.6091
▁cafe	-11.6091
▁Rama	-11.6091
HO	-11.6092
▁menegakkan	-11.6092
lasan	-11.6094
▁berlepas	-11.6094
dad	-11.6095
sampai	-11.6096
▁uruskan	-11.6097
ember	-11.6098
▁Perodua	-11.6098
▁grand	-11.6103
▁Hollywood	-11.6104
▁pertunjukan	-11.6104
▁menghela	-11.6104
▁Gri	-11.6109
zza	-11.6109
▁Ilustrasi	-11.6109
▁kesediaan	-11.6109
▁Lahad	-11.6109
warna	-11.6109
▁Space	-11.6109
▁‘	-11.611
▁Ayam	-11.6111
▁Sing	-11.6112
tty	-11.6112
▁volume	-11.6115
▁banyaknya	-11.6115
▁rusak	-11.6117
▁tertinggal	-11.6117
▁Tas	-11.6118
▁siapkan	-11.6119
▁mengganti	-11.6119
▁koordinasi	-11.612
iel	-11.6121
▁Depan	-11.6122
▁memproses	-11.6126
▁Most	-11.6126
▁pelawat	-11.6127
eman	-11.6127
AZ	-11.6129
▁sentuh	-11.613
kita	-11.613
▁Wil	-11.6135
▁opera	-11.6135
▁July	-11.6137
▁Malangnya	-11.6137
▁Tek	-11.6139
ffi	-11.614
▁1920	-11.6142
▁Hanif	-11.6143
▁tipe	-11.6143
▁menari	-11.6145
▁susut	-11.6146
▁inovatif	-11.6147
▁mengakses	-11.6147
ith	-11.6148
mohon	-11.6149
bumi	-11.6152
uar	-11.6153
▁Annuar	-11.6153
▁letter	-11.6154
▁Fox	-11.6155
SPR	-11.6158
▁perguruan	-11.6158
stor	-11.6158
▁himpunan	-11.6159
▁subur	-11.616
▁capaian	-11.6161
▁baris	-11.6161
▁Bunda	-11.6164
▁Wawasan	-11.6164
▁diingini	-11.6164
▁lobi	-11.6166
▁Lion	-11.6169
▁knew	-11.617
This	-11.6171
▁samada	-11.6173
/4	-11.6173
▁Sony	-11.6174
▁130	-11.6174
▁busy	-11.6174
▁Aliran	-11.6179
▁Pemerintahan	-11.6179
▁mengharamkan	-11.618
▁sister	-11.6182
▁Penubuhan	-11.6182
istic	-11.6183
▁arena	-11.6184
▁dipinda	-11.6185
▁ikon	-11.6186
▁tampaknya	-11.6186
▁Medi	-11.6186
300,000	-11.6188
▁penu	-11.619
▁penamaan	-11.6191
▁analis	-11.6192
▁elak	-11.6194
migrasi	-11.6195
CT	-11.6195
▁Milik	-11.6196
▁tes	-11.6197
▁remember	-11.6197
▁tabiat	-11.6202
▁kapten	-11.6203
▁Serie	-11.6204
▁schools	-11.6204
▁jom	-11.6204
▁93	-11.6206
kalan	-11.6206
▁keliling	-11.6208
▁dibahas	-11.6208
▁Taiping	-11.6208
▁Sung	-11.621
misi	-11.6211
▁Rod	-11.6212
▁eight	-11.6212
salah	-11.6212
AAN	-11.6212
▁pereka	-11.6212
▁IPOH	-11.6213
▁100,000	-11.6214
▁deras	-11.6215
▁waktunya	-11.6217
▁makes	-11.6219
▁pertiga	-11.622
rg	-11.622
▁Chapter	-11.622
▁Rak	-11.6221
▁pengen	-11.6222
▁Pinjaman	-11.6224
▁penindasan	-11.6224
▁Agenda	-11.6224
▁kunjung	-11.6224
▁ganjaran	-11.6226
▁Mut	-11.6227
▁cre	-11.6227
ADA	-11.6228
▁sape	-11.6229
▁window	-11.623
▁perincian	-11.623
▁Bryan	-11.623
▁Syam	-11.623
tama	-11.6231
MAT	-11.6233
got	-11.6235
▁tahniah	-11.6235
▁mon	-11.6236
▁takaful	-11.6236
▁Jackson	-11.6237
▁kandang	-11.6237
▁adegan	-11.6237
▁Suha	-11.6238
2018	-11.624
▁dipecat	-11.6241
▁takpe	-11.6241
▁Bugis	-11.6242
▁jagaan	-11.6242
▁juri	-11.6244
▁Fair	-11.6248
▁sat	-11.6249
▁1954	-11.625
▁istiadat	-11.6252
▁kebergantungan	-11.6252
▁Rasanya	-11.6253
lih	-11.6253
▁Social	-11.6254
pl	-11.6255
▁astronomi	-11.6255
ndar	-11.6257
▁merek	-11.6257
▁kecelakaan	-11.6257
▁kedutaan	-11.6257
▁Florida	-11.6257
▁fit	-11.6258
▁pelumba	-11.6259
DF	-11.6259
unit	-11.6262
▁Naim	-11.6262
PER	-11.6263
▁TK	-11.6263
▁pembaikan	-11.6264
▁link	-11.6264
▁jurnal	-11.6265
▁dijamin	-11.6265
▁Matanya	-11.6267
hb	-11.6268
▁andai	-11.6269
▁televisi	-11.6269
▁demo	-11.627
▁cakera	-11.627
lib	-11.6273
ME	-11.6273
▁Sekretaris	-11.6274
▁Biarpun	-11.6275
media	-11.6277
RAH	-11.6277
cang	-11.6277
▁Alan	-11.6283
biri	-11.6285
▁berbangkit	-11.6287
▁bakteria	-11.6288
▁sahih	-11.6289
▁Kedutaan	-11.629
▁penggiat	-11.629
▁terdampak	-11.629
▁Georgia	-11.6291
▁bertarung	-11.6291
▁train	-11.6292
▁kesannya	-11.6296
▁pelindung	-11.6298
press	-11.6299
▁promo	-11.6299
▁1949	-11.63
▁khalifah	-11.6302
▁fruit	-11.6302
▁Popular	-11.6302
cast	-11.6303
▁lif	-11.6303
▁Engkau	-11.6308
▁memenangkan	-11.6313
▁Jasin	-11.6316
ngu	-11.6316
▁Transit	-11.6316
▁cause	-11.6317
▁sports	-11.6317
▁text	-11.6318
ekonomi	-11.6318
▁Family	-11.6318
▁Selesai	-11.6318
▁rogol	-11.6319
▁09	-11.6321
▁berputar	-11.6324
▁nanas	-11.6324
▁Perjalanan	-11.6324
▁berunsur	-11.6326
▁review	-11.6326
▁pelukan	-11.6326
▁bersambung	-11.6326
40,000	-11.6326
▁RTM	-11.6328
calon	-11.6329
tory	-11.6329
Berdasarkan	-11.6329
▁dirakam	-11.633
▁melekat	-11.6331
▁instead	-11.6334
tto	-11.6335
▁dipertandingkan	-11.6335
▁landskap	-11.6335
▁mengungkap	-11.6336
▁tegasnya	-11.6339
▁hoaks	-11.6341
LIM	-11.6342
▁lupakan	-11.6346
cid	-11.6346
▁Tata	-11.6347
dog	-11.6348
▁Noh	-11.635
vas	-11.6351
LB	-11.6352
yas	-11.6352
▁Special	-11.6352
sekitar	-11.6352
▁fikirkan	-11.6352
hidup	-11.6353
▁Cop	-11.6354
▁caranya	-11.6355
bola	-11.6355
▁spend	-11.6358
▁Dokter	-11.6358
▁suai	-11.6358
PAC	-11.6359
wr	-11.636
▁Umi	-11.636
jinak	-11.6363
lig	-11.6363
▁Samsung	-11.6364
▁Zong	-11.6366
▁Penerbit	-11.6369
Kon	-11.6369
Muslim	-11.637
emi	-11.6371
Cha	-11.6371
▁pour	-11.6371
▁Bern	-11.6372
FF	-11.6374
▁article	-11.6374
▁search	-11.6374
rawat	-11.6376
not	-11.6376
▁86	-11.6378
▁hawa	-11.6378
▁trilion	-11.638
▁Janji	-11.638
▁Images	-11.6382
oz	-11.6383
oko	-11.6383
▁Fil	-11.6386
ului	-11.6387
▁radar	-11.6388
nol	-11.6389
▁These	-11.6389
▁ceritanya	-11.639
▁profil	-11.6391
▁rahasia	-11.6391
allah	-11.6392
▁seumur	-11.6393
DE	-11.6393
spi	-11.6393
▁decide	-11.6394
▁fost	-11.6396
▁dikunjungi	-11.6397
▁persimpangan	-11.6397
▁Pemulihan	-11.6397
▁kerusakan	-11.6397
WI	-11.6397
▁Palm	-11.6398
esi	-11.6399
▁miss	-11.64
▁kelewatan	-11.6402
watak	-11.6403
▁Pay	-11.6403
▁Pes	-11.6403
▁selamanya	-11.6404
▁Khu	-11.6404
▁menyumbangkan	-11.6407
▁beransur	-11.6407
▁kelestarian	-11.6408
▁ketahui	-11.6408
▁daratan	-11.6409
tors	-11.6409
▁similar	-11.6413
▁conference	-11.6414
rez	-11.6414
▁Sufi	-11.6416
▁played	-11.6416
LK	-11.6417
▁reda	-11.6417
ratus	-11.6418
▁Gha	-11.642
late	-11.6423
stic	-11.6424
curi	-11.6427
▁VI	-11.6428
▁beku	-11.6428
mn	-11.6429
▁mengirimkan	-11.6429
▁Gem	-11.643
▁slogan	-11.643
▁komposisi	-11.643
▁Padi	-11.6432
▁Story	-11.6433
▁Agro	-11.6435
▁ISIS	-11.6436
▁keprihatinan	-11.6436
▁Bosnia	-11.6436
lukis	-11.6438
▁religious	-11.6438
kok	-11.6441
▁round	-11.6441
▁pendidik	-11.6442
▁aroma	-11.6442
▁Bendera	-11.6443
▁tadika	-11.6444
▁bertepatan	-11.6447
▁Obama	-11.6447
▁remeh	-11.6448
gok	-11.645
▁batik	-11.645
▁driver	-11.645
yad	-11.6451
▁с	-11.6451
▁Pemandu	-11.6452
thy	-11.6452
ANGAN	-11.6453
▁Yaakob	-11.6453
▁tournament	-11.6453
▁kesetiaan	-11.6453
▁menonjol	-11.6453
▁manager	-11.6457
▁sejenak	-11.6458
nggar	-11.6462
▁60%	-11.6463
▁trek	-11.6464
▁KBS	-11.6465
▁Teras	-11.6466
pers	-11.6467
▁mukanya	-11.6468
▁Sunnah	-11.6468
▁goal	-11.6472
ddin	-11.6474
▁Bayaran	-11.6475
▁pengertian	-11.6475
▁Bolasepak	-11.6476
glo	-11.6477
▁Versi	-11.6477
wk	-11.6478
▁Jag	-11.6478
tation	-11.648
sso	-11.648
▁dipamerkan	-11.6481
▁Mekah	-11.6483
▁mingguan	-11.6484
▁Soo	-11.6486
▁Shanghai	-11.6487
vasi	-11.6488
▁Maksud	-11.649
ttle	-11.6491
▁muflis	-11.6492
▁Ton	-11.6493
tw	-11.6493
Setiap	-11.6493
▁pencari	-11.6494
fl	-11.6498
▁percukaian	-11.6498
▁100%	-11.6498
▁Xavier	-11.6498
▁Strategik	-11.6499
▁risk	-11.6501
tet	-11.6502
▁Menge	-11.6502
▁habiskan	-11.6503
▁Nord	-11.6503
▁add	-11.6503
COM	-11.6503
HAN	-11.6503
▁Ut	-11.6503
▁hibah	-11.6504
ngkut	-11.6505
geri	-11.6506
▁pick	-11.6508
say	-11.6509
▁dri	-11.6509
▁fra	-11.6509
ATM	-11.6509
}}	-11.6509
▁kening	-11.6512
bintang	-11.6513
▁tebu	-11.6513
▁dinobatkan	-11.6515
▁koridor	-11.6515
▁pengambilalihan	-11.6515
▁Begini	-11.6516
▁Buka	-11.6517
▁jadwal	-11.6519
▁mengelola	-11.6521
▁prospek	-11.6522
ante	-11.6525
reh	-11.6525
▁voice	-11.6527
▁hadap	-11.6527
▁mode	-11.6528
gantung	-11.6529
▁Melbourne	-11.6532
▁memihak	-11.6532
▁Generasi	-11.6532
eva	-11.6536
▁Hitler	-11.6538
cukup	-11.6539
▁wadah	-11.6543
▁sweet	-11.6544
▁Hot	-11.6544
▁menje	-11.6545
Tr	-11.6548
▁PAN	-11.6548
▁140	-11.6548
▁kemurungan	-11.6549
▁bun	-11.6549
MO	-11.655
GH	-11.655
▁luahkan	-11.6553
▁konferensi	-11.6555
▁keter	-11.6555
▁jisim	-11.6555
▁Yamaha	-11.6556
▁cash	-11.6558
▁wira	-11.6558
▁Nazri	-11.6558
▁populariti	-11.6559
▁menjuarai	-11.6561
▁senario	-11.6561
▁kitaran	-11.6561
▁kelapan	-11.6561
▁disukai	-11.6562
▁Capital	-11.6566
▁berserta	-11.6567
▁loh	-11.6568
▁Manfaat	-11.6572
▁progresif	-11.6572
▁Pelancaran	-11.6572
▁kesungguhan	-11.6572
2008	-11.6573
▁Cyclones	-11.6576
▁konservatif	-11.6583
▁morning	-11.6583
▁memansuhkan	-11.6584
mbus	-11.6584
luc	-11.6584
IPT	-11.6588
▁diajukan	-11.6589
isan	-11.659
▁penguatkuasa	-11.6593
▁Republic	-11.6595
Ni	-11.6595
▁however	-11.6596
ogo	-11.6597
mail	-11.6598
▁Sedih	-11.6598
▁MC	-11.66
▁jemput	-11.6604
vita	-11.6604
▁dilatih	-11.6605
▁Guinea	-11.6607
core	-11.6609
▁tempatnya	-11.6612
▁Max	-11.6612
▁penari	-11.6612
RW	-11.6613
▁utuh	-11.6613
gem	-11.6615
▁fresh	-11.6616
Setakat	-11.6617
▁create	-11.6617
sembah	-11.6617
▁dialek	-11.6618
▁dibacakan	-11.6618
▁imigresen	-11.6618
▁naungan	-11.6618
ert	-11.6619
▁rentas	-11.6621
▁menonjolkan	-11.6623
▁bukunya	-11.6623
▁silver	-11.6624
▁Hab	-11.6625
▁tre	-11.6626
▁Perancangan	-11.6629
▁Hart	-11.663
▁Teori	-11.663
▁Hatta	-11.6632
agama	-11.6635
▁dirimu	-11.6635
▁Gong	-11.6635
Kha	-11.6639
dup	-11.664
▁dipersembahkan	-11.664
▁regional	-11.6641
▁kesusahan	-11.6641
▁pake	-11.6641
▁bergaul	-11.6641
▁sad	-11.6641
mbe	-11.6642
▁dikirim	-11.6642
Ad	-11.6643
▁JKM	-11.6643
▁51%	-11.6644
▁NA	-11.6645
▁Terlebih	-11.6646
▁keracunan	-11.6646
▁push	-11.6647
imah	-11.6648
zione	-11.6648
▁1953	-11.665
RIS	-11.6652
▁mendominasi	-11.6652
▁geli	-11.6653
▁Rukun	-11.6653
nium	-11.6654
IF	-11.6655
▁dll	-11.6656
▁jerawat	-11.6656
wit	-11.6658
▁malaikat	-11.6658
▁dikumpulkan	-11.6659
fec	-11.6661
▁Laos	-11.6662
▁Moscow	-11.6664
▁penyimpanan	-11.6664
mum	-11.6665
▁Brian	-11.6668
▁Chelsea	-11.6669
▁milenial	-11.6669
els	-11.667
nau	-11.6672
▁Staf	-11.6673
▁happened	-11.6674
bag	-11.6674
▁kemusnahan	-11.6675
▁acuan	-11.6676
▁Karin	-11.6676
▁buluh	-11.6677
▁Rakan	-11.6677
▁aksesori	-11.6677
▁Depok	-11.6677
▁Moon	-11.6678
tensi	-11.6681
ww	-11.6681
cinta	-11.6681
▁kue	-11.6682
▁Seli	-11.6682
tele	-11.6683
▁PNB	-11.6683
▁Makmur	-11.6684
▁Sport	-11.6685
▁Lei	-11.6685
▁mat	-11.6685
rar	-11.6686
▁character	-11.6687
▁memuatkan	-11.6687
▁peranginan	-11.6687
▁Onn	-11.6689
▁memer	-11.6689
▁rakyatnya	-11.669
▁pembawa	-11.6691
▁penubuhannya	-11.6692
▁above	-11.6693
▁dihapuskan	-11.6693
▁mencuci	-11.6694
trem	-11.6694
tional	-11.6694
▁trofi	-11.6695
▁sekelas	-11.6697
▁bertemakan	-11.6697
ily	-11.6698
▁Wall	-11.6699
▁owner	-11.6701
▁puji	-11.6701
▁Steve	-11.6704
isytihar	-11.6704
▁atasan	-11.6706
▁doctor	-11.6707
▁Our	-11.6708
▁method	-11.671
▁Wo	-11.671
100,000	-11.6711
▁menyala	-11.6711
▁JU	-11.6711
▁berpaling	-11.6712
▁Anton	-11.6714
▁Axiata	-11.6716
▁Conference	-11.6716
nell	-11.6718
▁1951	-11.6719
▁institut	-11.6721
▁drastik	-11.6722
▁mengejut	-11.6722
▁Khalifah	-11.6723
▁Pukul	-11.6723
vest	-11.6724
▁gatal	-11.6725
sey	-11.6726
▁Rita	-11.6726
▁sayangkan	-11.6727
▁menepuk	-11.6728
ни	-11.673
▁kutuk	-11.6731
▁YA	-11.6732
▁Jae	-11.6732
▁site	-11.6735
blo	-11.6738
▁ketetapan	-11.6739
lapis	-11.6742
▁Qar	-11.6742
▁Penuh	-11.6745
▁Takkan	-11.6746
▁qui	-11.6746
anaknya	-11.6746
▁THE	-11.675
num	-11.675
▁Kelayakan	-11.6751
▁Nelayan	-11.6751
▁trust	-11.6751
▁1,500	-11.6753
▁lepastu	-11.6756
▁Bha	-11.676
▁rambutnya	-11.6762
▁Untung	-11.6763
▁berbau	-11.6764
Qu	-11.6767
▁Taib	-11.6768
▁ketirisan	-11.6768
▁farmasi	-11.6769
tumbuhan	-11.6769
askan	-11.677
▁terbiar	-11.677
▁Izz	-11.6771
▁TO	-11.6772
JPJ	-11.6772
▁Kapas	-11.6772
▁difficult	-11.6774
▁penghinaan	-11.6774
cos	-11.6774
teks	-11.6777
nay	-11.6782
▁Saksi	-11.6783
▁Pauh	-11.6784
▁Arah	-11.6785
▁evolusi	-11.6785
▁persaraan	-11.6785
▁Line	-11.6786
▁tajaan	-11.6786
▁tro	-11.6786
▁Airport	-11.6786
perang	-11.6789
▁UMKM	-11.6792
kelompok	-11.6795
▁spa	-11.6798
kawa	-11.6799
▁AD	-11.6802
▁tgh	-11.6804
▁Khidmat	-11.6809
▁disedari	-11.6809
prov	-11.6809
▁boy	-11.6809
▁tugasnya	-11.6809
nin	-11.6811
▁jelaskan	-11.6812
lkan	-11.6813
▁nipis	-11.6814
minta	-11.6814
▁Kemerdekaan	-11.6815
▁Tinjauan	-11.6815
▁Era	-11.6816
uel	-11.6818
▁84	-11.6822
▁belimbing	-11.6828
▁varian	-11.6829
▁Kangar	-11.6829
▁dimansuhkan	-11.6832
▁iPhone	-11.6832
▁pistol	-11.6832
▁kenduri	-11.6832
▁bernasib	-11.6832
▁Muslims	-11.6833
serv	-11.6833
▁Puncak	-11.6834
▁Nara	-11.6835
▁Yah	-11.6836
▁haba	-11.6837
IPD	-11.6838
▁pendaratan	-11.6838
▁Kehadiran	-11.6842
▁sahur	-11.6842
▁Nick	-11.6844
▁prime	-11.6844
▁kekeluargaan	-11.6844
iam	-11.6845
▁Jesus	-11.6845
▁Kutai	-11.6847
▁Light	-11.6848
▁Chik	-11.6848
▁Vaksin	-11.685
GB	-11.6851
DU	-11.6853
▁berte	-11.6854
clo	-11.6858
▁bed	-11.686
▁1,2	-11.6861
▁merangsang	-11.6862
▁spiritual	-11.6862
▁address	-11.6862
▁Juan	-11.6862
▁DiRaja	-11.6863
prinsip	-11.6863
▁Dekat	-11.6864
kecil	-11.6865
▁Bayu	-11.6865
▁tampan	-11.6866
▁merancakkan	-11.6867
mpit	-11.6868
▁Paus	-11.6868
▁berperan	-11.687
Peraturan	-11.687
▁lesbian	-11.6873
▁Dian	-11.6875
UiTM	-11.6876
▁penyelamat	-11.6876
▁Bulgaria	-11.6879
▁membawanya	-11.6879
▁Bru	-11.688
▁tertera	-11.6881
▁wish	-11.6885
▁brought	-11.6885
▁kondusif	-11.6885
▁Rob	-11.6885
▁Perasaan	-11.6885
▁Plat	-11.6886
▁kataku	-11.6888
▁mitos	-11.6889
▁grow	-11.689
▁Pandemi	-11.6891
▁ternampak	-11.6892
▁Sukarno	-11.6892
▁Av	-11.6895
▁Sila	-11.6896
▁Gam	-11.6897
▁pemuliharaan	-11.6897
trus	-11.6897
sakit	-11.69
▁berjangkit	-11.6904
▁engineering	-11.6907
▁cair	-11.6908
▁Publications	-11.6909
cular	-11.691
▁mamalia	-11.6912
▁disusuli	-11.6912
under	-11.6912
kut	-11.6917
▁Meny	-11.6918
▁kaku	-11.6918
ENT	-11.692
▁muzium	-11.6921
CS	-11.6921
750	-11.6922
▁finished	-11.6922
▁develop	-11.6926
▁penyiasatan	-11.6926
▁berjaga	-11.6929
▁sebatian	-11.6932
[...]
